<unk>	0
<s>	0
</s>	0
<pad>	0
<mask>	0
<sep>	0
<cls>	0
▁	-2.92132
user	-3.53896
@	-3.53919
.	-4.12805
,	-4.56724
▁#	-4.81263
▁na	-4.85652
▁a	-4.95397
t	-5.01207
'	-5.22847
a	-5.2909
▁ya	-5.30164
co	-5.42295
▁o	-5.4252
▁da	-5.46053
/	-5.47146
://	-5.47228
▁ni	-5.47284
▁https	-5.53396
s	-5.55291
▁i	-5.61311
▁dey	-5.61752
n	-5.68599
3	-5.71483
...	-5.79734
?	-5.88799
e	-5.93356
▁wa	-5.93356
▁e	-5.95585
!	-5.97606
▁me	-5.98076
▁ba	-5.99905
i	-6.01182
:	-6.04229
▁no	-6.04782
▁to	-6.11993
▁the	-6.1462
▁Allah	-6.17192
▁you	-6.18696
▁ka	-6.18932
o	-6.20375
▁n	-6.23008
▁de	-6.25786
ን	-6.28282
▁ti	-6.33857
▁ma	-6.34236
▁for	-6.38212
▁mu	-6.38425
▁ní	-6.42413
▁m	-6.43475
-	-6.47051
▁tí	-6.48689
r	-6.49408
▁go	-6.52094
▁ń	-6.54433
▁A	-6.55889
m	-6.59723
u	-6.62375
▁and	-6.62507
▁gi	-6.6412
▁be	-6.64261
▁my	-6.67393
▁this	-6.68299
▁ko	-6.6841
9	-6.68733
▁ne	-6.69231
▁don	-6.69295
▁و	-6.71315
▁ó	-6.74548
▁ta	-6.74711
▁like	-6.76033
▁que	-6.773
▁ነው	-6.78301
▁in	-6.83476
▁fi	-6.8372
Yoruba	-6.83931
▁di	-6.84636
▁ṣe	-6.84954
▁u	-6.86574
▁ku	-6.86826
▁3	-6.87071
▁የ	-6.89611
▁so	-6.90047
▁RT	-6.9037
▁do	-6.92087
▁በ	-6.92325
▁of	-6.92609
▁mi	-6.9319
▁ga	-6.93228
▁l	-6.94129
▁is	-6.94161
▁'	-6.95056
▁allah	-6.96138
7	-6.97265
▁wo	-6.97509
ة	-6.98491
wa	-6.9978
ም	-7.0261
▁se	-7.04225
▁we	-7.04481
▁é	-7.05242
▁bá	-7.05633
▁wey	-7.06062
▁ò	-7.08215
▁say	-7.08565
▁mo	-7.10786
▁O	-7.10842
▁kí	-7.11345
▁😂	-7.12238
▁I	-7.12705
▁onye	-7.14963
▁kwa	-7.14999
▁una	-7.15227
na	-7.15814
▁y	-7.19921
▁b	-7.20957
y	-7.21552
▁àwọn	-7.21673
▁wannan	-7.22087
..	-7.25701
▁não	-7.25754
d	-7.26386
▁am	-7.26954
▁kan	-7.2697
da	-7.28273
▁sai	-7.28691
▁su	-7.2887
ና	-7.29808
▁من	-7.30403
▁sí	-7.30699
)	-7.30783
▁ki	-7.31136
▁dem	-7.31807
▁that	-7.3183
▁kuma	-7.31853
▁la	-7.31997
▁ẹ	-7.32766
2	-7.348
ing	-7.35844
▁ከ	-7.35996
ት	-7.36043
▁make	-7.36343
▁fún	-7.36671
▁tó	-7.37066
▁w	-7.37545
▁(	-7.38966
▁f	-7.38977
▁si	-7.3932
▁wọ́n	-7.40393
h	-7.40464
▁mana	-7.40895
▁your	-7.41096
la	-7.41267
▁ana	-7.42998
ni	-7.43654
▁d	-7.45353
▁see	-7.45855
▁bí	-7.46306
▁k	-7.46746
ka	-7.47501
▁im	-7.47642
’	-7.47831
▁on	-7.48681
5	-7.48899
▁في	-7.49407
6	-7.49436
▁ọmọ	-7.49497
▁ndi	-7.50259
4	-7.50443
ta	-7.51806
▁as	-7.52058
▁bu	-7.52124
k	-7.52281
▁àti	-7.52488
▁bi	-7.53078
ው	-7.53286
▁one	-7.53875
0	-7.55343
▁ال	-7.5706
▁with	-7.57152
▁ለ	-7.57499
▁-	-7.58444
1	-7.58786
▁dai	-7.59738
▁nke	-7.60572
▁just	-7.607
▁aka	-7.60702
▁fa	-7.61096
ma	-7.61556
▁wan	-7.62412
8	-7.6348
▁እና	-7.63761
ba	-7.63946
▁get	-7.63994
▁kò	-7.64375
▁if	-7.64672
ra	-7.65892
▁Ẹ	-7.66906
▁para	-7.6816
▁á	-7.68257
▁ara	-7.6851
▁it	-7.68918
▁shi	-7.70555
▁jẹ́	-7.71307
።	-7.72071
▁E	-7.72236
▁gbogbo	-7.72643
;	-7.72737
▁za	-7.73006
▁anyi	-7.73112
▁but	-7.73142
▁all	-7.73353
A	-7.73743
▁ló	-7.73862
se	-7.74112
mu	-7.74363
▁yìí	-7.74908
ed	-7.74956
▁wá	-7.7599
▁على	-7.76147
▁yi	-7.7643
▁ha	-7.76615
▁sef	-7.76768
▁máa	-7.77185
ya	-7.77312
▁ላይ	-7.77442
▁abeg	-7.77507
▁dan	-7.77517
▁Onye	-7.77593
▁í	-7.77665
▁now	-7.78301
▁man	-7.79025
▁lọ	-7.79447
l	-7.79498
▁an	-7.80278
▁ihe	-7.8212
▁sa	-7.8214
▁😂😂😂	-7.82164
▁lo	-7.82486
▁Ya	-7.83853
in	-7.84657
▁ai	-7.85791
▁nan	-7.85893
▁not	-7.8596
😂	-7.87161
re	-7.87358
▁M	-7.87818
▁gị	-7.88174
▁kú	-7.88203
▁ọ	-7.88396
▁fit	-7.88507
▁pa	-7.88508
▁baba	-7.88686
▁s	-7.88719
▁omo	-7.88775
▁الله	-7.88855
▁com	-7.88926
▁yayi	-7.89216
▁fun	-7.89424
yoruba	-7.90105
▁oo	-7.90297
▁li	-7.90386
▁náà	-7.92091
▁wọn	-7.92124
▁yan	-7.92165
▁rẹ̀	-7.92518
▁à	-7.92798
▁mai	-7.93009
▁come	-7.94309
▁wetin	-7.94366
▁gba	-7.95159
▁Na	-7.95204
፣	-7.95907
▁ina	-7.95948
▁people	-7.97148
▁pé	-7.97649
▁em	-7.98715
ህ	-7.99213
▁“	-7.99413
▁ji	-7.9947
▁are	-7.99868
▁um	-8.00437
و	-8.00486
▁wani	-8.00686
▁kenan	-8.01342
▁N	-8.01387
▁rí	-8.01454
▁us	-8.02518
▁t	-8.03683
▁láti	-8.03884
▁le	-8.03992
▁sun	-8.04037
b	-8.04254
w	-8.04422
”	-8.04801
▁them	-8.06301
!!	-8.07789
▁ire	-8.07958
▁person	-8.08395
▁Nigeria	-8.08555
▁kawai	-8.08652
▁pe	-8.08681
▁😂😂	-8.09011
ي	-8.1012
▁too	-8.10366
▁ooo	-8.10517
▁mma	-8.11262
ات	-8.12172
ا	-8.1285
▁duk	-8.13022
??	-8.13097
▁oh	-8.13493
▁he	-8.13599
▁ف	-8.14458
▁yasa	-8.14871
▁sha	-8.15102
ك	-8.15201
▁Ni	-8.1548
▁din	-8.15783
ó	-8.16256
▁ike	-8.16395
sa	-8.16439
▁even	-8.16577
▁god	-8.17222
▁sì	-8.17287
ር	-8.17642
▁up	-8.17774
▁won	-8.17983
▁ب	-8.18068
I	-8.1816
▁amma	-8.18498
▁dis	-8.1882
▁ما	-8.19146
▁kai	-8.19165
▁yake	-8.19212
▁haka	-8.1935
▁money	-8.19732
▁""""""""	-8.20356
!!!	-8.20621
g	-8.20733
▁لا	-8.20796
▁wà	-8.20992
▁how	-8.21144
▁iya	-8.21254
▁Chukwu	-8.21708
f	-8.2183
▁je	-8.21872
▁ነው።	-8.22248
do	-8.22371
ha	-8.22629
▁she	-8.23202
▁take	-8.23288
▁U	-8.23602
▁love	-8.23726
ye	-8.23948
....	-8.23954
▁know	-8.24374
▁zai	-8.24472
ne	-8.24598
▁har	-8.24659
""""""""""""""""	-8.24762
ga	-8.24891
▁guy	-8.24952
▁by	-8.24968
▁muna	-8.25122
O	-8.2549
▁re	-8.25576
ki	-8.2564
▁will	-8.2633
S	-8.26973
▁from	-8.26991
▁nti	-8.27194
▁eme	-8.27582
▁ke	-8.27983
ti	-8.28129
😂😂	-8.28204
N	-8.28247
▁when	-8.28435
▁again	-8.28575
▁can	-8.28828
▁kuwa	-8.29241
▁ẹni	-8.29954
▁Ka	-8.30188
▁chi	-8.30368
▁wai	-8.313
▁wlh	-8.31474
_	-8.31511
p	-8.31575
▁gbé	-8.31725
::	-8.31735
▁biko	-8.31815
▁http	-8.32226
▁አ	-8.32404
ku	-8.32497
▁oma	-8.32578
▁him	-8.33167
▁masu	-8.33369
▁sọ	-8.33701
▁እንደ	-8.34093
▁ce	-8.34425
▁maka	-8.35037
▁Mo	-8.35325
▁still	-8.35613
▁tu	-8.35922
an	-8.36213
▁Yorùbá	-8.3644
E	-8.36814
▁chop	-8.36861
▁awon	-8.36884
shi	-8.37219
▁nigeria	-8.37701
▁ግን	-8.37947
c	-8.383
ly	-8.38393
su	-8.38412
▁B	-8.38534
▁daya	-8.38643
▁idan	-8.38774
M	-8.38848
▁time	-8.38924
▁lè	-8.39021
▁T	-8.39141
▁wípé	-8.39222
▁??	-8.39288
▁nwa	-8.39458
\	-8.39524
▁Dan	-8.39739
U	-8.39791
ش	-8.40052
▁ati	-8.40282
▁Da	-8.4032
ها	-8.4074
▁te	-8.40745
▁was	-8.40998
▁ምን	-8.41064
▁nínú	-8.41438
▁mmadu	-8.41461
▁ohun	-8.41602
z	-8.41813
😂😂😂	-8.4204
te	-8.42105
▁ì	-8.42231
""""""""	-8.42269
▁or	-8.42275
▁🤣	-8.42403
▁por	-8.42404
▁🙏	-8.42664
▁jẹ	-8.42982
▁ọjọ́	-8.42996
ه	-8.43026
▁who	-8.43281
▁daga	-8.43484
▁nu	-8.43546
ri	-8.44128
ko	-8.44327
▁...	-8.44607
ል	-8.44613
B	-8.44882
ين	-8.45218
▁ل	-8.45291
▁ebe	-8.45371
mo	-8.45624
▁at	-8.45764
▁bụ	-8.4596
▁her	-8.45968
we	-8.46185
▁egwu	-8.46349
▁kasa	-8.46608
🙏	-8.4681
▁uma	-8.47053
▁use	-8.47259
نا	-8.47433
▁እ	-8.47498
▁they	-8.47983
▁dị	-8.48199
▁kì	-8.48293
▁ወደ	-8.48541
▁yóò	-8.49223
▁why	-8.49763
▁gaskiya	-8.49813
▁umu	-8.49894
▁ነገር	-8.50093
▁lol	-8.50539
▁ሰው	-8.50668
▁kó	-8.50898
▁talk	-8.51004
▁está	-8.51393
▁ndị	-8.51422
am	-8.5197
de	-8.52066
▁cikin	-8.52243
▁kawo	-8.52421
ar	-8.52438
▁irin	-8.52442
▁ọdún	-8.52669
▁what	-8.52825
▁eu	-8.53049
▁ake	-8.5361
▁لي	-8.53678
x	-8.53832
▁Igbo	-8.53897
▁p	-8.53934
▁ife	-8.54025
▁yín	-8.54043
▁mais	-8.54173
bi	-8.54354
j	-8.54585
▁ngo	-8.54594
▁mun	-8.54831
á	-8.55502
▁fẹ́	-8.55582
▁K	-8.55584
▁mas	-8.55628
▁ilé	-8.55683
ce	-8.55684
▁mọ̀	-8.55743
G	-8.55935
▁our	-8.56122
▁muri	-8.56125
▁masa	-8.56359
▁7	-8.56658
je	-8.56819
▁يا	-8.56888
di	-8.56968
mi	-8.57116
▁isi	-8.57116
▁here	-8.57133
▁mú	-8.57179
▁Ndi	-8.57285
go	-8.57304
▁way	-8.57327
▁give	-8.57365
▁ri	-8.57476
▁yin	-8.57701
▁have	-8.58119
▁good	-8.58145
▁only	-8.59385
ro	-8.59794
▁já	-8.59883
R	-8.59886
▁🤔	-8.59893
▁wanda	-8.59976
▁S	-8.60008
er	-8.60153
▁shine	-8.60155
️	-8.60302
▁1	-8.60403
▁yana	-8.60451
ji	-8.60474
▁dont	-8.61165
▁2	-8.61187
un	-8.61592
ስ	-8.61887
▁ìlú	-8.6195
▁nwanne	-8.6201
al	-8.62048
ch	-8.62057
▁kara	-8.62131
▁dia	-8.62144
▁W	-8.62196
▁life	-8.62684
▁sika	-8.62828
▁Ó	-8.62875
▁Ba	-8.62987
▁ou	-8.63006
▁ብቻ	-8.63026
▁please	-8.63112
▁😂😂😂😂	-8.63565
▁Wannan	-8.63772
to	-8.63827
▁suka	-8.63833
▁Não	-8.64087
▁thing	-8.64153
▁Ọ	-8.64409
▁dama	-8.64507
▁babu	-8.64507
ت	-8.65138
▁unu	-8.65308
▁ọba	-8.65463
▁day	-8.65513
▁ጋር	-8.6584
▁anyị	-8.65981
D	-8.6602
▁መ	-8.66081
▁okwu	-8.66216
▁مع	-8.66233
le	-8.66251
yi	-8.66539
▁yo	-8.66572
▁back	-8.66638
▁Mu	-8.66678
▁mọ́	-8.66804
▁ibi	-8.66811
▁had	-8.6702
▁kyau	-8.67593
▁tell	-8.67881
▁kam	-8.67953
▁orí	-8.67959
▁help	-8.68043
▁ego	-8.68381
▁só	-8.6855
▁=	-8.68629
▁abi	-8.68796
▁tún	-8.6886
▁ت	-8.6912
▁nta	-8.69542
ho	-8.69703
▁Ku	-8.69905
▁onu	-8.70003
▁call	-8.70625
▁ra	-8.70646
▁igbo	-8.70749
▁ọ̀rọ̀	-8.70867
▁never	-8.70999
▁its	-8.70999
▁out	-8.71018
▁want	-8.71044
▁dá	-8.71227
Ibeere	-8.71364
▁sabi	-8.7141
▁علابالي	-8.72112
▁kuri	-8.72118
▁cha	-8.72135
▁Kí	-8.72203
T	-8.72322
▁ur	-8.72339
▁baki	-8.72861
▁yanzu	-8.72906
▁nso	-8.72936
▁obi	-8.73029
▁wata	-8.73409
▁እኔ	-8.73496
▁ho	-8.73604
▁kama	-8.73657
هم	-8.73865
C	-8.739
▁kowa	-8.74225
▁gaba	-8.74362
▁small	-8.74547
▁ghir	-8.7471
،	-8.75228
▁ká	-8.75281
▁ju	-8.75391
ke	-8.75405
▁there	-8.75552
▁Kai	-8.75596
▁saa	-8.75669
▁To	-8.75686
""""	-8.76221
▁today	-8.76255
▁suke	-8.76382
ኝ	-8.76449
🙄	-8.76549
▁ala	-8.76562
▁má	-8.7663
▁tem	-8.76791
zi	-8.76835
▁fara	-8.76869
▁😭	-8.77037
▁chukwu	-8.77197
፤	-8.77343
▁banza	-8.776
▁ah	-8.77608
▁rah	-8.77713
ሽ	-8.77719
▁dé	-8.77784
▁bẹ́ẹ̀	-8.78059
▁9	-8.78378
▁nna	-8.78474
▁Kuma	-8.78842
▁duniya	-8.78845
▁buhari	-8.78877
▁wahala	-8.79267
H	-8.79283
▁ውስጥ	-8.79401
▁èdè	-8.79427
▁birthday	-8.79542
▁mọ	-8.79824
▁ile	-8.79854
li	-8.80048
▁twitter	-8.80503
▁pass	-8.80981
▁vex	-8.81324
▁mata	-8.81411
▁os	-8.81442
L	-8.81625
▁Ì	-8.81717
wo	-8.81865
▁fine	-8.82076
es	-8.82086
▁À	-8.82351
si	-8.82852
▁suna	-8.82982
W	-8.83438
▁ama	-8.83852
▁nne	-8.8392
K	-8.84075
▁bro	-8.84151
▁ነበር	-8.84304
▁cyane	-8.84304
▁Ko	-8.84447
▁rahama	-8.84623
▁nka	-8.84692
ية	-8.84705
▁owó	-8.84757
▁Ina	-8.85067
▁ezigbo	-8.85136
▁D	-8.85197
▁anya	-8.85474
fa	-8.85477
▁ي	-8.85611
▁lórí	-8.85798
▁Eu	-8.8592
▁san	-8.85941
م	-8.8609
▁gani	-8.86387
▁ሲ	-8.86489
▁kun	-8.86531
▁buy	-8.86698
▁akwai	-8.8673
▁Wa	-8.87009
v	-8.8702
▁Se	-8.87168
▁G	-8.8724
▁aba	-8.87614
me	-8.8783
gi	-8.87978
🤔	-8.88008
mos	-8.88085
በት	-8.88586
▁house	-8.88853
▁ስለ	-8.88917
▁abin	-8.89049
▁meu	-8.89264
▁happy	-8.89338
▁nwoke	-8.89364
▁iṣẹ́	-8.89379
.....	-8.89558
▁some	-8.89595
▁ojú	-8.89801
q	-8.89979
▁ser	-8.89983
▁abun	-8.90094
▁Nna	-8.90448
▁المغرب	-8.90483
▁men	-8.90483
so	-8.90803
▁Sai	-8.9088
▁yɛ	-8.90884
Y	-8.90969
▁ahu	-8.91
▁Gaskiya	-8.91247
P	-8.91438
▁bane	-8.91501
pa	-8.91574
▁የሚ	-8.91662
▁ا	-8.91723
▁L	-8.91774
í	-8.91982
▁g	-8.92175
nu	-8.92217
▁mutane	-8.92295
▁eh	-8.92497
▁isso	-8.92654
▁ህዝብ	-8.92761
▁oga	-8.92777
▁፣	-8.92916
lu	-8.9296
▁wallahi	-8.93312
▁follow	-8.93355
ች	-8.93934
▁girl	-8.93955
▁basu	-8.94072
F	-8.94076
▁م	-8.94186
ብ	-8.94466
▁Bí	-8.94478
▁ari	-8.94588
▁look	-8.94832
za	-8.95038
▁kamar	-8.9521
▁|	-8.95417
▁አንድ	-8.95475
▁kashe	-8.95568
▁carry	-8.95737
▁gozie	-8.95804
▁lafiya	-8.95835
▁Ma	-8.96083
▁kin	-8.96294
▁kọ́	-8.96371
▁mn	-8.96533
▁como	-8.96568
▁akan	-8.96596
▁😁	-8.96674
▁igi	-8.96697
▁where	-8.96797
▁mara	-8.96998
▁since	-8.97007
▁sana	-8.971
▁pè	-8.97158
▁kind	-8.97645
▁ያ	-8.9768
ድ	-8.97826
▁baya	-8.97832
▁before	-8.97958
ja	-8.97979
▁bamu	-8.98086
▁bata	-8.98191
kwa	-8.98229
▁c	-8.98327
▁lá	-8.98369
▁ilẹ̀	-8.98447
▁nwanyi	-8.98559
▁Amma	-8.98688
▁better	-8.9931
▁ogun	-8.99349
▁É	-8.99545
▁his	-8.99564
▁work	-8.99623
▁gbà	-8.99713
▁wu	-8.99787
▁show	-8.99851
▁own	-9.00045
▁""""	-9.00436
▁ان	-9.0051
▁kasar	-9.00692
▁ayé	-9.00867
▁èèyàn	-9.00943
ى	-9.00953
▁down	-9.00996
ndo	-9.01024
▁boy	-9.01162
yo	-9.01189
▁‍️	-9.01383
▁🤣🤣🤣	-9.01433
▁ولا	-9.01455
▁Wai	-9.01809
▁because	-9.01855
▁كي	-9.01872
▁Deus	-9.01898
à	-9.02005
▁omi	-9.0224
▁play	-9.02254
▁yorùbá	-9.02301
▁Àwọn	-9.02542
▁mesmo	-9.0274
▁musu	-9.0291
🤣	-9.02919
▁domin	-9.0322
▁well	-9.03252
ዎች	-9.03272
▁Ta	-9.03366
▁rẹ	-9.03373
Nigeria	-9.03587
▁dat	-9.03749
▁አሁን	-9.03821
ክ	-9.03886
▁\	-9.03887
▁their	-9.03891
▁P	-9.04065
ውን	-9.04092
▁muito	-9.042
▁ndu	-9.04557
▁:)	-9.04644
▁mí	-9.04657
▁bo	-9.04733
▁là	-9.04746
▁nor	-9.04761
▁uwa	-9.05014
▁morning	-9.05078
▁Nne	-9.05122
▁Ai	-9.05417
▁Baba	-9.056
▁هذا	-9.05614
▁gbe	-9.05855
▁pra	-9.06117
▁ị	-9.06227
▁kwenye	-9.06242
▁ሁሉ	-9.06281
▁Nwanne	-9.06481
Z	-9.06707
be	-9.06757
▁BBC	-9.06896
▁enter	-9.072
▁ديال	-9.07368
▁abinda	-9.07384
▁bíi	-9.07454
▁Happy	-9.07568
▁katika	-9.07986
▁much	-9.08476
▁Buhari	-9.08521
▁ita	-9.08554
▁tweet	-9.08878
▁samu	-9.08886
▁un	-9.08922
▁ele	-9.08959
▁gbọ́	-9.08999
▁inú	-9.09013
▁tàbí	-9.09048
▁al	-9.09101
😭	-9.09118
▁Toh	-9.09487
▁Ọlọ́run	-9.09524
▁has	-9.09568
▁more	-9.09689
▁start	-9.10022
▁minha	-9.10095
▁Ọba	-9.10215
▁ያለው	-9.10396
J	-9.10489
▁nah	-9.1053
▁lọ́wọ́	-9.11073
▁هو	-9.11118
yan	-9.11148
▁️	-9.11472
▁oooo	-9.11522
ነት	-9.11718
▁abu	-9.11827
▁agba	-9.11836
no	-9.11867
▁Ike	-9.11922
▁about	-9.11948
▁kano	-9.12001
▁كل	-9.12145
▁finish	-9.12539
▁Mas	-9.12549
▁እንጂ	-9.12917
▁ẹ̀	-9.12942
▁son	-9.13015
▁wen	-9.13099
▁ayi	-9.13164
▁pain	-9.132
▁lati	-9.13241
▁sarki	-9.13727
▁Chineke	-9.13931
▁እኮ	-9.14022
▁bai	-9.14037
▁🙄	-9.14063
▁The	-9.14217
(	-9.1425
""	-9.14313
▁hakan	-9.14398
???	-9.14441
▁oku	-9.14506
▁kudin	-9.14548
▁ja	-9.14574
▁yau	-9.14691
▁አይደለም	-9.1476
😎	-9.15051
▁بزاف	-9.1528
▁cewa	-9.15346
▁bia	-9.15357
▁last	-9.15365
▁tun	-9.15366
▁film	-9.15514
Q	-9.15522
▁nma	-9.15871
bo	-9.16038
▁hi	-9.16194
▁year	-9.1642
▁ṣ	-9.16572
▁ተ	-9.16636
▁kuka	-9.16739
ana	-9.16823
▁እንኳን	-9.17014
sha	-9.17049
▁think	-9.17072
▁reach	-9.17096
▁yẹ	-9.17124
▁die	-9.17395
#	-9.17452
▁Mai	-9.17482
▁ይ	-9.17512
▁kọ	-9.17513
▁eji	-9.17615
▁mgbe	-9.17618
▁🇳🇬	-9.17821
rin	-9.17951
▁essa	-9.18036
▁Ọmọ	-9.18091
ọ	-9.18104
▁hankali	-9.18165
▁አንተ	-9.18166
وا	-9.18246
▁ኢትዮጵያ	-9.18253
▁ilu	-9.18263
▁fe	-9.18276
V	-9.18641
▁amin	-9.18987
▁need	-9.18999
▁otu	-9.19238
▁pẹ̀lú	-9.19516
▁ye	-9.19654
▁ruwa	-9.19806
▁ila	-9.20079
▁always	-9.2026
▁yako	-9.20309
▁zuwa	-9.20327
▁غير	-9.20532
ci	-9.20811
▁bem	-9.20884
ak	-9.2099
▁kudi	-9.21015
▁head	-9.21046
▁ብሎ	-9.21085
▁tayi	-9.2112
ala	-9.21227
▁yadda	-9.21308
▁ọma	-9.21543
▁kare	-9.21884
▁run	-9.2193
▁mutum	-9.22018
▁eni	-9.22053
كم	-9.22133
▁😎	-9.22452
X	-9.22668
▁اللي	-9.22739
▁Ha	-9.22851
▁guys	-9.236
▁vida	-9.23705
▁😂😂😂😂😂	-9.23752
▁find	-9.23901
▁ن	-9.23922
▁aga	-9.23962
em	-9.24032
▁C	-9.24108
▁Ana	-9.24291
▁r	-9.24499
▁shiga	-9.24666
nye	-9.24774
▁você	-9.24779
ẹ̀yin	-9.24835
▁toh	-9.25209
▁vai	-9.25292
▁ban	-9.25328
▁bah	-9.25454
▁iki	-9.25457
▁Umu	-9.2546
▁10	-9.25494
▁ìyá	-9.25622
▁sweet	-9.25688
▁fada	-9.25835
▁kuna	-9.25942
ቱ	-9.25973
▁ciki	-9.26022
▁ojo	-9.26302
▁..	-9.26509
▁hada	-9.26571
▁gan	-9.26646
▁quando	-9.26812
ون	-9.26885
▁sei	-9.27085
▁ehn	-9.27175
▁5	-9.27399
ru	-9.27412
ቅ	-9.27471
▁rere	-9.27494
as	-9.27514
▁orúkọ	-9.27524
▁እንዴ	-9.2754
▁stop	-9.27826
é	-9.27847
▁win	-9.27898
▁zama	-9.27987
▁nwere	-9.28012
▁fazer	-9.2809
▁ci	-9.2809
▁nsogbu	-9.28091
▁Ki	-9.28205
zo	-9.28312
▁ጊዜ	-9.28356
▁been	-9.28473
▁koma	-9.28503
▁በጣም	-9.28594
▁kill	-9.2868
▁said	-9.28741
mana	-9.29139
▁ALLAH	-9.29171
ze	-9.29211
▁tuntun	-9.29333
on	-9.29345
very	-9.29726
▁inda	-9.30153
▁arewa	-9.30163
▁أ	-9.30207
▁ter	-9.30397
▁መንግስት	-9.30399
kuma	-9.30554
▁gida	-9.30765
▁top	-9.30776
▁ይህ	-9.30821
lo	-9.30873
ما	-9.30942
▁ቤት	-9.30993
▁jí	-9.31343
▁ዛሬ	-9.31375
▁የኢትዮጵያ	-9.31426
▁esse	-9.31455
😁	-9.31812
▁onwe	-9.31865
us	-9.31882
▁h	-9.31895
▁No	-9.32015
▁مزية	-9.32173
▁best	-9.32198
▁magana	-9.32208
ọ́n	-9.32313
▁dashi	-9.32396
▁kana	-9.32425
▁new	-9.32526
ia	-9.32615
▁èyí	-9.32635
▁happen	-9.32741
▁nos	-9.32798
▁حتى	-9.32899
kan	-9.3299
▁karya	-9.3305
yin	-9.33202
▁ènìyàn	-9.33203
▁🤣🤣	-9.33258
▁ቀን	-9.33261
▁አይ	-9.33263
▁con	-9.33414
▁big	-9.33545
▁mama	-9.33632
ibeere	-9.33704
▁oko	-9.33788
▁x	-9.33805
lik	-9.33958
▁Me	-9.33998
fi	-9.34108
▁ማለት	-9.34152
😂😂😂😂	-9.34222
▁should	-9.3435
ò	-9.34362
ያ	-9.34447
▁hear	-9.34462
▁الحكومة	-9.34524
po	-9.34585
▁neza	-9.34647
▁ará	-9.34697
▁wasu	-9.34768
▁ክልል	-9.34869
▁Ire	-9.34902
▁In	-9.34938
▁komai	-9.3519
▁ver	-9.35269
▁são	-9.35274
▁anaa	-9.35352
▁zasu	-9.3545
▁tunda	-9.35475
▁Biko	-9.35828
▁انا	-9.35858
▁Mana	-9.35906
▁ask	-9.36026
▁እንዴት	-9.36151
▁baka	-9.3617
▁لل	-9.36265
▁baby	-9.36462
▁،	-9.36605
▁dole	-9.3677
😏	-9.36802
▁????	-9.36836
▁yafi	-9.36978
▁tán	-9.37057
▁mere	-9.37305
▁bada	-9.37319
▁thank	-9.37376
▁።	-9.37462
▁zaman	-9.37876
▁mmadụ	-9.37938
pe	-9.37979
▁sir	-9.37997
▁lmao	-9.38007
▁ede	-9.38261
▁😭😭😭	-9.38363
▁aikin	-9.38497
▁saka	-9.38581
▁pọ̀	-9.38821
▁zamu	-9.38895
▁first	-9.38968
▁አለ	-9.38982
ሉ	-9.38997
▁gidan	-9.39008
▁oṣù	-9.39038
▁karshen	-9.39104
▁*	-9.3917
▁pls	-9.39171
lé	-9.39271
▁R	-9.39448
▁sure	-9.39469
▁nwe	-9.39484
፡፡	-9.39548
▁muke	-9.39739
▁aiki	-9.39739
▁Ameen	-9.39749
nda	-9.39784
▁babe	-9.39959
▁cin	-9.40059
▁papa	-9.4006
▁bayan	-9.40061
is	-9.40246
▁after	-9.40311
chi	-9.4037
▁ao	-9.40459
▁wait	-9.40796
▁rashin	-9.40982
▁bashi	-9.41004
ኛ	-9.41076
▁ብዙ	-9.41366
▁fans	-9.41386
▁አማራ	-9.41429
▁Rahama	-9.41459
▁ori	-9.41574
▁next	-9.41748
▁ọ́	-9.41833
▁taba	-9.42147
▁oge	-9.42185
🤣🤣	-9.42194
▁iyo	-9.4237
▁kayi	-9.42373
▁Dama	-9.42768
😅	-9.4282
▁4	-9.42882
▁account	-9.42885
gt	-9.42971
▁ganin	-9.4299
▁nk	-9.43027
▁méjì	-9.43087
▁nítorí	-9.43288
eme	-9.43339
ara	-9.43424
▁over	-9.43442
▁kamata	-9.43662
▁nem	-9.43691
▁yace	-9.43823
▁ያለ	-9.43881
▁dos	-9.43921
▁وعلاه	-9.44037
▁cos	-9.44049
▁kuke	-9.44133
▁face	-9.44135
▁እውነት	-9.44138
▁nile	-9.44198
▁ṣé	-9.44198
▁òní	-9.44232
TweetinYoruba	-9.44264
▁nyame	-9.44277
▁those	-9.44278
▁assim	-9.44292
▁try	-9.44368
▁Nke	-9.44412
▁Nwa	-9.44445
▁body	-9.44505
▁min	-9.44545
▁""	-9.44551
ማ	-9.44598
▁sɛ	-9.44601
▁yá	-9.44708
▁same	-9.44775
▁God	-9.44809
▁let	-9.44909
▁àgbà	-9.45025
▁bad	-9.45038
▁adiro	-9.45042
nan	-9.45124
▁😅	-9.45341
▁send	-9.45372
▁video	-9.45384
ታ	-9.45391
▁diri	-9.45432
▁oro	-9.45447
▁kyauta	-9.45452
▁kandi	-9.457
▁sílẹ̀	-9.45706
lẹ̀	-9.45759
▁any	-9.45816
he	-9.45884
▁comot	-9.45923
*	-9.45938
▁owo	-9.46023
▁name	-9.46028
fo	-9.46034
▁sua	-9.46069
va	-9.46151
▁አዲስ	-9.46161
ou	-9.46294
▁matter	-9.46467
▁ọwọ́	-9.46672
▁ameen	-9.46703
▁መልካም	-9.46721
▁ìgbà	-9.46797
▁Muna	-9.47033
▁ጥሩ	-9.47047
▁munsi	-9.47127
▁foi	-9.47176
hi	-9.47237
▁asa	-9.47302
▁&	-9.4765
▁zaidi	-9.47985
▁Jesus	-9.48003
▁maganar	-9.48009
▁ይሄ	-9.48027
▁Ihe	-9.48087
▁kaji	-9.48218
▁hna	-9.48236
▁phone	-9.4825
▁cant	-9.48285
▁isa	-9.4841
▁bọ̀	-9.48413
▁ልጅ	-9.48507
ن	-9.48571
▁aqui	-9.48625
▁ደግሞ	-9.4881
▁F	-9.48811
▁tá	-9.48816
▁Habari	-9.48914
▁machi	-9.49033
▁kina	-9.49063
፡	-9.49065
▁which	-9.49105
▁dear	-9.49125
▁were	-9.49186
ዬ	-9.49326
▁🔥	-9.49391
▁ማ	-9.49469
▁nada	-9.49549
▁እንዲ	-9.49616
▁وال	-9.49661
😭😭	-9.49717
▁😏	-9.49951
▁beg	-9.50004
▁Amin	-9.50281
▁ለማ	-9.50291
▁school	-9.50332
▁hope	-9.50611
▁hadi	-9.50698
▁An	-9.5072
▁inside	-9.51051
▁really	-9.51064
▁watch	-9.51087
▁So	-9.51207
▁z	-9.51283
▁padà	-9.51332
▁abunda	-9.51368
▁fatan	-9.51443
▁boss	-9.51629
os	-9.51679
▁ace	-9.51801
▁Ò	-9.51815
🤣🤣🤣	-9.51876
▁team	-9.5193
▁dadi	-9.52001
▁ሊ	-9.52159
ይ	-9.52184
▁aho	-9.52253
▁pode	-9.52382
▁zan	-9.52405
▁ise	-9.52479
▁gbo	-9.52649
▁እኛ	-9.52662
▁estou	-9.52755
▁ቢ	-9.52896
▁real	-9.52896
amp	-9.52945
at	-9.5296
▁ozo	-9.53029
▁H	-9.53071
▁è	-9.53141
▁baku	-9.53306
▁kuko	-9.5337
▁tudo	-9.53404
▁[	-9.53483
▁mind	-9.53796
▁woman	-9.53862
▁end	-9.53882
▁ọ̀nà	-9.53991
▁pessoas	-9.54025
▁ubangiji	-9.54233
▁hausa	-9.54402
▁bless	-9.54424
▁lagos	-9.54431
▁ninu	-9.54825
▁+	-9.5501
▁zata	-9.55063
😭😭😭	-9.55065
Allah	-9.55132
ve	-9.55138
▁غادي	-9.5516
▁vi	-9.55208
ሩ	-9.55293
▁post	-9.55372
▁Rwanda	-9.55415
▁باش	-9.55468
▁sosai	-9.55515
▁بنكيران	-9.55528
▁may	-9.55569
▁هاد	-9.55639
▁estão	-9.55713
▁ለምን	-9.55809
dai	-9.55872
▁também	-9.56031
▁ok	-9.56283
▁mutu	-9.56337
▁jin	-9.56353
ዉ	-9.56393
▁bar	-9.56423
▁kà	-9.56427
▁والله	-9.56511
▁báyìí	-9.56607
▁wí	-9.56667
el	-9.568
▁uko	-9.56944
▁الم	-9.57027
▁anything	-9.57152
▁ሰዎች	-9.57216
▁Su	-9.57238
ah	-9.57389
▁até	-9.57613
▁De	-9.57807
▁wake	-9.5783
▁Lol	-9.5789
▁chineke	-9.57907
▁lik	-9.58102
▁😍	-9.58191
tu	-9.58253
▁mba	-9.583
▁ምንም	-9.58355
▁ime	-9.58391
▁things	-9.58395
▁ihab	-9.58398
🔥	-9.58448
▁Idan	-9.58469
▁kedu	-9.58553
▁lé	-9.58738
▁ainda	-9.5874
▁ፓርቲ	-9.58798
▁yakara	-9.59106
▁الا	-9.5913
▁bari	-9.59196
▁محمد	-9.59199
▁jọ	-9.59373
▁tua	-9.59385
▁put	-9.59393
▁already	-9.59481
▁something	-9.59523
▁tan	-9.59688
ão	-9.59694
▁ná	-9.59704
wọn	-9.59905
፥	-9.59938
▁dawo	-9.59971
ንም	-9.60012
▁Ndị	-9.60064
▁koko	-9.60104
የ	-9.60125
▁አበባ	-9.60144
▁واحد	-9.60149
▁va	-9.60159
ፍ	-9.60218
▁የአማራ	-9.60308
▁shey	-9.6037
▁àṣà	-9.60397
▁gari	-9.60483
▁food	-9.60554
▁tire	-9.60588
▁Masha	-9.60663
bu	-9.60954
▁ባ	-9.60988
▁😀	-9.60991
ll	-9.61051
▁odun	-9.6118
▁au	-9.61213
▁Yan	-9.61238
▁waka	-9.61266
▁Omo	-9.61374
▁twa	-9.61377
▁mmiri	-9.61384
▁obodo	-9.61425
▁ሀገር	-9.6146
ني	-9.61488
▁lori	-9.61532
▁ay	-9.61741
aka	-9.6178
▁yawa	-9.61798
▁uban	-9.61837
▁nawe	-9.619
▁hu	-9.62033
▁Maputo	-9.62101
▁Que	-9.62164
▁gu	-9.62357
▁yar	-9.62388
en	-9.62417
▁j	-9.62419
▁anka	-9.62491
▁oni	-9.62589
▁akwa	-9.62721
▁ሰላም	-9.62763
▁boys	-9.62836
▁mad	-9.62945
▁wọ	-9.6297
▁واش	-9.63047
▁biya	-9.63242
▁dar	-9.63315
▁wipe	-9.63326
▁bom	-9.63417
ẹ́	-9.6346
ad	-9.63558
▁corona	-9.63601
▁lokacin	-9.63603
▁ubu	-9.63765
▁Ga	-9.6377
▁ከተማ	-9.63859
▁todos	-9.63927
▁days	-9.6395
▁cy	-9.63977
ـ	-9.64045
man	-9.64053
▁tuna	-9.64064
▁Twitter	-9.641
▁dùn	-9.64213
▁home	-9.64242
▁hand	-9.64393
ل	-9.64423
sí	-9.6444
▁nǹkan	-9.64445
▁kpo	-9.6453
▁shugaban	-9.64764
▁፡፡	-9.64849
▁country	-9.64915
▁igba	-9.64919
è	-9.64985
▁enjoy	-9.65015
/5	-9.65053
▁off	-9.65156
▁😭😭	-9.65177
▁الشعب	-9.65178
▁dm	-9.65213
▁koh	-9.65307
▁♫	-9.65337
▁dyal	-9.65366
▁ruwan	-9.65406
▁tare	-9.65502
▁did	-9.65567
▁vou	-9.65714
▁You	-9.6575
▁sem	-9.65758
▁aṣọ	-9.65816
▁كان	-9.65864
▁Aka	-9.66175
▁casa	-9.66238
▁እንዲህ	-9.66346
▁በላይ	-9.6637
▁number	-9.66385
▁q	-9.66426
▁niile	-9.6645
ju	-9.66552
▁عن	-9.66587
NP	-9.66635
▁damu	-9.66772
▁ነዉ	-9.66923
▁tana	-9.67102
▁Anyi	-9.67133
▁bbc	-9.67158
ì	-9.67234
▁ewé	-9.67278
❤️	-9.67281
▁then	-9.67353
▁Duk	-9.67399
▁yanxu	-9.67439
▁Ada	-9.67531
ቶ	-9.67556
▁wajen	-9.67717
▁bakin	-9.67883
▁እየ	-9.67942
▁hin	-9.67965
▁yoruba	-9.68071
▁kìí	-9.68191
▁hit	-9.68247
anyi	-9.68254
ቸው	-9.68326
▁❤️	-9.68343
▁J	-9.68411
▁Ke	-9.68446
▁Ní	-9.68484
▁talaka	-9.68552
▁mà	-9.68568
▁nye	-9.68579
ህን	-9.6862
▁mouth	-9.68681
▁àmọ́	-9.68687
▁someone	-9.68692
19	-9.68731
▁ariko	-9.68738
▁Kedu	-9.68745
▁Ezigbo	-9.6877
▁هي	-9.68875
▁taya	-9.68878
▁😊	-9.68976
▁dasu	-9.69114
/7	-9.69149
▁nuna	-9.6919
Igbo	-9.69242
▁የለም	-9.69314
▁state	-9.69355
😍	-9.69357
ção	-9.69368
▁We	-9.69376
▁ስራ	-9.69377
▁bàbá	-9.69385
▁light	-9.69437
▁mẹ́ta	-9.69591
▁ọnụ	-9.69642
▁sadau	-9.6982
▁two	-9.69831
▁obìnrin	-9.69855
▁malam	-9.69918
▁las	-9.69956
▁kar	-9.70036
▁water	-9.7009
▁bẹ	-9.70229
▁retweet	-9.70444
ለ	-9.70451
▁sempre	-9.70631
▁ሳይሆን	-9.70633
▁Ǹjẹ́	-9.70649
▁السادس	-9.7065
▁ìwé	-9.70668
min	-9.7078
▁Kò	-9.70785
▁esta	-9.70849
▁maa	-9.71188
👌	-9.71196
▁turn	-9.71198
InYoruba	-9.7134
▁sallah	-9.71346
▁aha	-9.71356
▁game	-9.71398
▁albarka	-9.71475
▁lára	-9.71652
▁ibyo	-9.71758
▁ahụ	-9.71973
▁daba	-9.71997
/0	-9.7204
▁porqu	-9.72079
▁hhhh	-9.72167
▁reason	-9.72172
▁fah	-9.72225
▁Aba	-9.72298
▁gwuru	-9.7255
▁sasa	-9.72625
▁lónìí	-9.72641
▁eze	-9.728
▁wò	-9.72921
▁Eze	-9.7295
በ	-9.72997
▁haba	-9.73036
▁afo	-9.73105
▁sabo	-9.73111
▁ማን	-9.73127
▁namba	-9.73244
د	-9.73244
▁ibu	-9.73247
▁kwana	-9.7329
ge	-9.73351
▁ወይ	-9.73381
▁بعد	-9.73393
▁nawa	-9.73402
▁🎶	-9.73417
▁ro	-9.7373
▁lowo	-9.73751
🤲	-9.73799
▁🤲	-9.73805
▁wllh	-9.73869
▁nípa	-9.74051
▁leave	-9.74085
ر	-9.7409
▁ìjọba	-9.74103
▁yii	-9.7416
▁dun	-9.74174
▁deɛ	-9.74198
ira	-9.74232
▁irú	-9.74237
▁Shi	-9.74432
▁join	-9.74588
▁ela	-9.74609
▁oba	-9.74617
▁girls	-9.74859
▁brother	-9.7495
▁ru	-9.75022
▁every	-9.75105
▁seu	-9.75208
▁kunya	-9.75229
▁gama	-9.75246
▁yí	-9.75345
▁ጉዳይ	-9.75354
▁ናቸው	-9.75371
▁òkè	-9.75385
▁aa	-9.75596
ẹ	-9.75677
▁song	-9.75773
▁week	-9.75939
▁orin	-9.76057
▁cause	-9.76087
▁nothing	-9.76123
▁àbí	-9.76176
▁hoje	-9.762
▁maganin	-9.76299
▁lu	-9.7638
▁È	-9.76422
▁adi	-9.76441
▁ikon	-9.76487
▁pay	-9.76772
▁ghi	-9.76803
▁Esse	-9.76817
▁sou	-9.76826
▁zo	-9.76856
▁ata	-9.76861
▁ewu	-9.76929
▁yọ	-9.76991
ቴ	-9.76993
▁wana	-9.7704
▁siku	-9.7725
▁miki	-9.77266
▁Mozambique	-9.77327
▁self	-9.77368
▁dake	-9.77578
▁buru	-9.77632
▁gyae	-9.77659
▁alkhairi	-9.77668
▁wọ̀nyí	-9.77668
▁feel	-9.77698
▁Al	-9.77773
aboda	-9.77845
aa	-9.77941
▁ukwu	-9.77978
▁kuba	-9.78023
/8	-9.78102
▁òun	-9.78203
▁keep	-9.78231
/1	-9.78262
▁data	-9.78301
▁ranar	-9.78303
▁howa	-9.78304
▁talakawa	-9.78375
ún	-9.78377
▁lie	-9.78421
ndi	-9.78496
▁ili	-9.78496
▁إ	-9.78669
▁idi	-9.78681
▁ìdí	-9.7901
▁Oga	-9.79151
▁wuta	-9.79158
ዝ	-9.79168
▁kazi	-9.79226
▁ekele	-9.79281
▁uri	-9.79373
▁muku	-9.79387
▁gusa	-9.794
▁አብይ	-9.7956
▁cg	-9.79584
rí	-9.79613
▁sense	-9.79634
/2	-9.79658
▁sleep	-9.79666
▁Di	-9.79671
▁Kano	-9.79692
▁wei	-9.79759
▁sani	-9.79904
▁ada	-9.79935
▁dauki	-9.79983
▁Gi	-9.80019
▁Ti	-9.80021
▁Kwa	-9.80036
▁lhe	-9.80155
▁mutanen	-9.8023
▁leo	-9.80271
kun	-9.8042
▁As	-9.80638
▁iwe	-9.80758
▁láyé	-9.81005
or	-9.8102
▁car	-9.81087
cha	-9.81278
▁ooh	-9.81436
gu	-9.8145
▁YA	-9.81504
▁agora	-9.81757
▁than	-9.81758
▁Yoruba	-9.8182
pata	-9.8188
bí	-9.81973
▁tafi	-9.82064
▁pikin	-9.82088
▁yen	-9.82139
▁neh	-9.82179
nta	-9.82207
]	-9.82307
▁zi	-9.82353
▁rush	-9.82437
▁oluwa	-9.82464
gun	-9.82505
▁ibtissam	-9.82637
▁acho	-9.82647
▁ደሞ	-9.82664
ṣe	-9.8272
▁basira	-9.82844
▁muka	-9.82851
du	-9.82875
▁Isi	-9.8294
▁Hausa	-9.83012
▁fo	-9.83076
▁أن	-9.83233
▁another	-9.83256
????	-9.83273
▁kace	-9.83298
▁አገር	-9.83358
▁hhh	-9.83411
▁Ajé	-9.83496
▁الناس	-9.8351
▁Chi	-9.83516
▁emi	-9.83585
▁world	-9.8359
▁nri	-9.83606
▁mulkin	-9.8364
▁😢	-9.83741
▁night	-9.83814
▁egbe	-9.83814
▁6	-9.83816
▁iyi	-9.83865
▁kàn	-9.83878
▁odi	-9.83933
▁pẹ́	-9.83933
▁neman	-9.84031
▁Gbogbo	-9.84032
▁ole	-9.84105
▁ngwa	-9.84126
▁lah	-9.84214
▁jù	-9.84297
▁taa	-9.8431
▁የተ	-9.84329
▁Ara	-9.84352
▁watu	-9.84384
▁bros	-9.84456
ቹ	-9.84464
▁nake	-9.8447
/6	-9.84496
‍️	-9.84539
/4	-9.84646
▁olu	-9.84681
▁daukaka	-9.84752
/3	-9.84761
▁bẹ̀rẹ̀	-9.84971
▁gudu	-9.85058
ire	-9.85123
mente	-9.85141
▁واقيل	-9.85153
▁بين	-9.85184
hu	-9.85237
▁nkan	-9.85309
▁uba	-9.85406
▁umuntu	-9.85425
▁انت	-9.85425
▁tey	-9.85441
▁ụmụ	-9.85447
▁ano	-9.85633
iya	-9.85699
▁sauran	-9.85826
😢	-9.85932
▁Maka	-9.85973
th	-9.86084
▁true	-9.86358
▁Ṣé	-9.86451
▁ربي	-9.86558
▁وقتاش	-9.86578
▁lò	-9.86621
▁او	-9.86696
▁naa	-9.86769
▁amfani	-9.86829
▁አል	-9.86835
▁ነኝ	-9.86936
▁full	-9.8698
▁🤣🤣🤣🤣	-9.87027
▁depois	-9.87131
ry	-9.87163
▁wach	-9.87185
......	-9.87187
▁app	-9.872
▁uwar	-9.87213
▁yaushe	-9.87266
▁sin	-9.8733
▁Kama	-9.87369
ዋ	-9.87465
▁en	-9.87518
▁must	-9.87545
▁فال	-9.87586
▁hana	-9.87597
▁20	-9.87654
▁ach	-9.87672
▁zaku	-9.87716
▁belle	-9.87855
▁??????	-9.87874
▁tempo	-9.8791
▁hii	-9.87914
▁right	-9.87956
▁há	-9.88059
san	-9.88094
▁እን	-9.88225
▁😒	-9.88245
▁kada	-9.8831
▁ይህን	-9.88396
▁Senhor	-9.88533
▁በፊት	-9.88614
▁place	-9.88627
ran	-9.88649
▁máà	-9.88664
👍	-9.88676
▁tiwa	-9.88677
▁du	-9.88687
▁heart	-9.88703
▁koraa	-9.88739
▁kadai	-9.8877
▁mal	-9.88864
ngo	-9.88868
▁iri	-9.88881
▁bach	-9.88928
▁nayi	-9.88942
▁Ife	-9.88952
▁hari	-9.88983
▁Amen	-9.8899
▁made	-9.89011
▁annabi	-9.89054
▁ball	-9.89413
🙏🙏🙏	-9.89416
▁lfy	-9.89742
▁شكون	-9.89883
ኑ	-9.89994
▁kaga	-9.90031
gba	-9.90242
▁sell	-9.90248
؟	-9.90294
▁Don	-9.9032
▁ashe	-9.90338
▁ojúmọ́	-9.90391
▁hot	-9.90446
▁yó	-9.90508
▁WA	-9.90549
▁fan	-9.90804
▁po	-9.91004
▁nd	-9.91096
▁stay	-9.91107
▁suppose	-9.91116
▁dadin	-9.91128
▁baza	-9.91212
▁zaka	-9.91343
▁hanan	-9.91483
proverb	-9.91574
▁jáde	-9.91605
▁paa	-9.91677
▁ኣ	-9.91689
ላ	-9.91695
▁rayuwa	-9.91704
ف	-9.91731
▁naga	-9.91832
ቶች	-9.91846
▁uyu	-9.91875
▁biyu	-9.91879
▁ወይም	-9.91943
▁bank	-9.92021
!!!!	-9.92058
▁hakuri	-9.92184
▁ebi	-9.92193
▁aure	-9.92194
▁Tu	-9.92205
ina	-9.92222
▁dauka	-9.92249
▁bawa	-9.92281
▁هذه	-9.92341
▁nipa	-9.92433
አ	-9.92472
አቶ	-9.92488
▁melhor	-9.9252
▁cc	-9.92671
▁years	-9.92681
▁بلا	-9.92739
▁títí	-9.92748
▁ነህ	-9.92758
▁ei	-9.92797
▁many	-9.92847
▁Ẹni	-9.929
▁pessoa	-9.92934
nú	-9.92939
tv	-9.92962
▁oúnjẹ	-9.9303
▁mundo	-9.93055
The	-9.9314
▁አመት	-9.93247
▁፡	-9.9329
▁فكري	-9.93306
learnyoruba	-9.93358
▁አይነት	-9.93376
▁change	-9.93396
▁بال	-9.93409
▁ጥያቄ	-9.93439
fe	-9.93458
▁nụ	-9.93552
▁Orí	-9.93748
▁ńlá	-9.93839
▁ሆነ	-9.93872
▁quem	-9.94133
▁Yoòbá	-9.9418
▁catch	-9.9419
▁dizer	-9.94205
▁ẹ̀rọ	-9.94249
▁Ese	-9.94264
▁Wallahi	-9.94308
▁Wanda	-9.94315
ጥ	-9.94393
الى	-9.94441
▁coisas	-9.94482
▁haja	-9.94528
▁den	-9.94556
▁ch	-9.94581
ኮ	-9.94631
Rwanda	-9.94774
▁naira	-9.94872
▁huduma	-9.9501
▁collect	-9.9501
RwOT	-9.95013
▁chai	-9.95041
▁pelo	-9.95095
ever	-9.95199
▁ofe	-9.95223
?!	-9.95239
▁ẹran	-9.95263
▁yakamata	-9.95301
▁road	-9.95338
▁eziokwu	-9.95373
ዊ	-9.95427
▁فيها	-9.95542
▁oke	-9.95576
▁eye	-9.95593
▁eje	-9.95691
▁🙏🙏	-9.95793
▁aye	-9.95829
ተ	-9.95972
▁forget	-9.95993
▁እግዚአብሔር	-9.96006
▁òwe	-9.96008
▁በዚህ	-9.96018
▁ችግር	-9.96021
kin	-9.96034
▁Oluwa	-9.9615
▁nya	-9.96151
▁side	-9.96172
▁mtu	-9.96286
▁soon	-9.96438
▁torí	-9.96663
▁nígbà	-9.96692
▁baako	-9.96771
▁tuba	-9.96831
▁month	-9.9684
▁Èkó	-9.96874
😊	-9.9697
▁hta	-9.97031
▁رئيس	-9.97099
▁teu	-9.97114
▁fu	-9.97126
▁cika	-9.9714
▁till	-9.97196
hom	-9.97229
▁saw	-9.97272
▁done	-9.97295
▁beat	-9.97325
▁muma	-9.97362
▁adighi	-9.97439
▁ṣá	-9.97451
isi	-9.97464
▁ሆኖ	-9.97467
▁raba	-9.97515
▁tsaro	-9.97566
▁gafarta	-9.97581
▁nílé	-9.97603
▁oya	-9.97625
▁عليه	-9.97637
▁live	-9.97656
▁መሪ	-9.97676
▁Odogwu	-9.97678
▁عليك	-9.97735
▁wear	-9.97806
▁long	-9.9782
▁pecado	-9.97846
ኔ	-9.97863
ab	-9.9787
اء	-9.97874
▁محسن	-9.97878
▁naka	-9.97953
▁ọjà	-9.97962
ada	-9.97982
she	-9.98114
▁oru	-9.98215
▁ezi	-9.98217
▁Ele	-9.98382
▁lọ́jọ́	-9.98434
🙌	-9.98506
nga	-9.98665
▁kallo	-9.98666
▁الدولة	-9.98765
ዎ	-9.98818
▁anu	-9.98868
▁dúpẹ́	-9.98888
▁super	-9.98946
▁break	-9.98973
▁kum	-9.99021
▁ọkọ	-9.99032
▁ሌላ	-9.99063
▁naija	-9.99068
▁wena	-9.99071
▁Bi	-9.99137
😒	-9.99233
/9	-9.99283
▁namu	-9.99283
▁nko	-9.9929
▁sake	-9.99299
▁miss	-9.993
▁gun	-9.99376
▁díẹ̀	-9.99463
▁ebube	-9.99466
▁faz	-9.9951
▁ona	-9.99583
▁lẹ	-9.99614
sh	-9.99638
▁eyin	-9.99733
▁sister	-9.99793
▁Awon	-9.99818
wu	-9.99906
▁wee	-9.99993
Owe	-10.0004
▁hanane	-10.0006
▁jam	-10.001
▁tenho	-10.0017
▁far	-10.0019
▁ndụ	-10.002
▁zaa	-10.0025
😀	-10.0026
▁doing	-10.0028
▁ofuma	-10.0029
▁الملك	-10.0032
▁arsenal	-10.0034
▁fear	-10.0038
▁awa	-10.0044
▁ወ	-10.0048
▁via	-10.0048
▁iska	-10.0057
▁lójú	-10.0059
▁das	-10.0061
መ	-10.0062
▁ለመ	-10.0064
▁kila	-10.0065
▁asi	-10.0066
▁ghadi	-10.0068
▁loni	-10.0071
▁aru	-10.0086
▁qara	-10.009
▁~	-10.0094
▁Je	-10.0102
▁dele	-10.0102
▁cry	-10.0103
▁duba	-10.0104
▁SENHOR	-10.0105
▁jo	-10.0107
▁👌	-10.0111
▁ልክ	-10.0113
▁abo	-10.0121
▁jikan	-10.0124
ny	-10.0131
▁Obi	-10.0137
▁لم	-10.0137
fin	-10.0147
▁wit	-10.0149
▁cya	-10.0155
▁wanan	-10.0157
tar	-10.0161
▁aku	-10.0169
▁Esto	-10.0169
▁yoo	-10.017
▁nice	-10.0175
▁hard	-10.0179
▁ወያኔ	-10.0182
▁bani	-10.0187
ነው	-10.0201
▁Ọ̀yọ́	-10.0202
🙏🙏	-10.0203
▁babban	-10.021
▁kika	-10.0213
▁enye	-10.0213
▁mulki	-10.0214
▁መንገድ	-10.0225
▁ase	-10.0236
▁!!	-10.0247
▁زعما	-10.0251
▁other	-10.0261
▁abantu	-10.0263
▁anan	-10.0277
▁verdade	-10.0284
▁rwose	-10.0285
▁bazai	-10.0285
▁nọ	-10.0289
▁Já	-10.0295
ሮ	-10.0299
▁Udo	-10.0301
▁dúró	-10.0303
▁ran	-10.0304
▁oju	-10.031
▁pelu	-10.0311
▁Re	-10.0324
▁Har	-10.0336
▁ብ	-10.0353
▁Kara	-10.0359
▁mina	-10.0369
▁fall	-10.037
▁Nwoke	-10.0374
▁eko	-10.0375
▁lẹ́yìn	-10.0376
▁tèmi	-10.0376
ca	-10.0379
▁Ngwa	-10.0381
▁awo	-10.0384
▁wife	-10.0393
▁قبل	-10.0396
▁part	-10.04
run	-10.04
▁beautiful	-10.0404
▁1.	-10.0417
▁eri	-10.0419
▁👉	-10.0431
▁kayan	-10.0433
ld	-10.0447
▁ayo	-10.0451
▁yafe	-10.0454
▁xa	-10.0459
▁كاين	-10.0461
▁spoil	-10.0467
▁siri	-10.0477
▁Uyu	-10.0479
▁shima	-10.048
▁شي	-10.0485
▁business	-10.0501
▁rahma	-10.0504
▁gashi	-10.0513
▁mim	-10.0515
33	-10.0518
▁ከሆነ	-10.0525
▁wasa	-10.0527
ile	-10.0536
▁yanda	-10.0537
▁yarda	-10.0538
jo	-10.0541
▁egbu	-10.0541
ting	-10.0547
ماشي	-10.0549
▁gane	-10.055
▁😁😁	-10.0558
▁100	-10.0558
▁mìíràn	-10.056
▁ganduje	-10.056
▁jama	-10.0561
▁Ariko	-10.0562
▁toda	-10.0565
▁ሳይ	-10.0568
▁laugh	-10.057
▁فيه	-10.0577
▁akayi	-10.0581
▁ọkọ̀	-10.0588
▁obu	-10.0588
▁NA	-10.0589
▁DM	-10.059
▁Ògún	-10.0596
▁kike	-10.0599
▁ẹnu	-10.0606
mba	-10.0607
▁oun	-10.061
▁kuku	-10.061
ሳ	-10.0618
▁waye	-10.0619
▁vya	-10.0625
▁check	-10.0627
💔	-10.0642
▁2.	-10.0645
–	-10.0653
▁Nan	-10.0653
▁gẹ́gẹ́	-10.0654
▁sbd	-10.066
▁dà	-10.0664
▁ምርጫ	-10.0672
▁kutoka	-10.0679
▁Ẹ̀	-10.0683
ሁ	-10.0686
▁الحسيمة	-10.0687
▁sannan	-10.0698
▁حاجة	-10.0699
▁Oma	-10.0701
▁hiya	-10.0702
nya	-10.0707
▁Wlh	-10.071
▁shirin	-10.0711
▁mpo	-10.0715
▁ako	-10.0718
▁dára	-10.0718
ghi	-10.0722
▁sama	-10.0727
ከ	-10.0727
▁tsare	-10.0727
▁kay	-10.0729
▁wetu	-10.0733
▁drink	-10.0747
▁najeriya	-10.0747
▁rai	-10.0749
▁icyo	-10.0751
▁rest	-10.0759
▁igihe	-10.0759
▁My	-10.0764
▁sauki	-10.0765
▁የሚል	-10.0769
▁He	-10.0777
▁family	-10.0778
▁ተስፋ	-10.0784
▁This	-10.0787
▁ofu	-10.0801
▁ẹ̀dá	-10.0805
▁gyimie	-10.0813
▁amen	-10.0813
▁Ibi	-10.0827
▁azu	-10.0836
▁12	-10.0837
▁uku	-10.0838
▁tomorrow	-10.0843
▁بن	-10.0845
▁imani	-10.0854
▁Ọjọ́	-10.0856
▁sunan	-10.0857
▁match	-10.0866
▁bra	-10.0866
▁Y	-10.0867
▁bara	-10.0867
▁àwòrán	-10.0868
▁እስከ	-10.0871
▁mamaki	-10.0875
▁المغربي	-10.0877
▁؟	-10.0877
▁wanna	-10.0894
▁oní	-10.0897
▁tì	-10.09
▁መሆን	-10.0903
▁ali	-10.0903
▁yara	-10.0908
س	-10.0909
▁uzo	-10.0914
▁understand	-10.0932
▁order	-10.0937
▁muyi	-10.0939
▁Kuna	-10.094
▁ọlọ́run	-10.0941
▁odogwu	-10.0953
▁taimaka	-10.0954
▁እሱ	-10.0975
▁yaci	-10.0981
▁kafin	-10.0981
▁Akwai	-10.0981
▁matsala	-10.0981
ẹ̀	-10.0982
😡	-10.0985
▁òjò	-10.0987
▁óò	-10.1008
▁ዝም	-10.101
▁Ojú	-10.102
▁halin	-10.1026
▁season	-10.1029
▁የሆነ	-10.1029
▁ሁሉም	-10.1036
▁Um	-10.1036
▁tag	-10.1037
▁ume	-10.1039
▁ባለ	-10.104
▁Moçambique	-10.1041
▁Nsogbu	-10.1045
▁yakawo	-10.1054
▁አሜን	-10.1056
▁inna	-10.106
▁حكومة	-10.1063
▁labari	-10.1068
).	-10.107
▁sorry	-10.1074
▁Quan	-10.1074
▁daman	-10.1074
▁epo	-10.1075
igbo	-10.1077
2019	-10.108
▁bayi	-10.1082
ችን	-10.1087
aha	-10.1102
nt	-10.111
▁sabe	-10.1112
▁30	-10.1117
▁èmi	-10.1119
ani	-10.1134
▁sobre	-10.1135
▁form	-10.1136
TweetYoruba	-10.1137
▁labarin	-10.1143
▁gini	-10.1148
ayi	-10.115
▁wako	-10.1158
ram	-10.1178
▁ታሪክ	-10.1178
▁شاء	-10.1184
che	-10.1184
▁zaki	-10.1188
▁Haba	-10.1188
▁ètò	-10.1188
dé	-10.119
jẹ́	-10.1195
▁nyinaa	-10.1199
▁Daalu	-10.1213
ach	-10.1214
▁gb	-10.1215
▁nìkan	-10.1222
▁hannu	-10.1224
▁በኋላ	-10.1228
ir	-10.123
▁rè	-10.1233
▁Najeriya	-10.1236
▁king	-10.124
▁born	-10.1241
oro	-10.1242
▁Bia	-10.1244
▁Mi	-10.1255
▁kusa	-10.1271
▁gwamnati	-10.1275
▁market	-10.128
▁manta	-10.1287
▁abuja	-10.1306
▁gree	-10.131
▁cigaba	-10.1314
▁wɔ	-10.132
▁tsoron	-10.1321
Service	-10.1326
▁Ah	-10.1331
▁remain	-10.1333
▁marry	-10.1336
▁kullum	-10.1348
▁!!!	-10.135
▁Ahsante	-10.1353
ng	-10.1355
▁Imana	-10.1358
cin	-10.1362
▁dima	-10.1363
▁shekara	-10.1367
▁bin	-10.1373
▁elu	-10.1374
▁street	-10.1374
▁wla	-10.1374
▁samun	-10.1376
▁11	-10.1378
tí	-10.1383
▁ibe	-10.1391
▁free	-10.1395
▁ቦታ	-10.1397
▁daina	-10.1397
▁wato	-10.1398
🥺	-10.14
▁got	-10.1404
▁friend	-10.1405
▁going	-10.1407
▁deve	-10.141
um	-10.1414
▁would	-10.1414
▁ikibazo	-10.1418
▁Ị	-10.1424
🤗	-10.1426
▁Abu	-10.144
▁Olódùmarè	-10.1449
anya	-10.145
▁police	-10.145
▁mwiza	-10.1459
▁ብልፅግና	-10.1464
▁Ubu	-10.1465
▁ስም	-10.1466
liha	-10.1468
▁dial	-10.1472
▁2020	-10.148
▁mụ	-10.148
▁hiyo	-10.1481
▁TV	-10.1483
▁igwe	-10.1485
▁tão	-10.1487
▁banda	-10.149
▁iná	-10.1493
▁iji	-10.1499
▁fito	-10.1502
▁gsky	-10.1505
▁support	-10.1509
▁fuck	-10.1514
▁buri	-10.1514
▁homem	-10.1522
▁👍	-10.1526
ere	-10.1527
▁If	-10.1531
ghị	-10.1532
▁remember	-10.1536
▁without	-10.1541
▁price	-10.1546
▁yaji	-10.155
▁les	-10.1553
▁DA	-10.156
▁ት	-10.1561
▁Kaji	-10.1564
ነ	-10.1566
▁وها	-10.1567
▁dúdú	-10.1568
▁አንዱ	-10.1572
▁bring	-10.1574
▁hahaha	-10.1578
▁15	-10.1587
and	-10.1588
▁دولة	-10.1589
▁fire	-10.16
▁راه	-10.16
▁coisa	-10.1603
▁ካ	-10.1609
▁musulmi	-10.1611
ita	-10.1613
▁ato	-10.1615
▁Você	-10.1628
▁old	-10.1632
▁yesterday	-10.1639
▁around	-10.1642
▁المغاربة	-10.1643
▁ከፍተኛ	-10.1649
jú	-10.165
▁kaduna	-10.1655
▁nima	-10.1664
▁ẹrú	-10.1668
▁pia	-10.1672
▁😡	-10.1679
▁thanks	-10.1686
▁ejo	-10.169
▁14	-10.1692
▁open	-10.1711
▁changamoto	-10.1722
▁osi	-10.1724
Lagos	-10.1728
▁ọ̀	-10.173
▁بلي	-10.1738
▁fight	-10.174
▁Okwa	-10.1741
▁ምክር	-10.1744
▁....	-10.1746
▁ọzọ	-10.1747
▁😂😂😂😂😂😂	-10.1753
▁Lagos	-10.1759
▁nyuma	-10.1761
▁ekwu	-10.1763
▁ብለህ	-10.1765
▁nà	-10.1767
▁Yau	-10.1767
▁🙌	-10.1789
▁echi	-10.179
▁sim	-10.1792
▁drop	-10.1795
▁ቃል	-10.1796
▁wuce	-10.1799
allah	-10.1803
▁swear	-10.1804
▁እያለ	-10.1805
▁Za	-10.181
▁choro	-10.1812
▁•	-10.1817
▁ẹyẹ	-10.182
aba	-10.1825
▁كلنا	-10.1833
▁ìwọ	-10.1847
▁chelsea	-10.1848
▁ههههه	-10.1856
iroyin	-10.1856
▁eku	-10.1857
▁problem	-10.1859
▁ጌታ	-10.1865
▁Nwanyi	-10.1866
ii	-10.1869
▁matsalar	-10.1871
▁kíni	-10.1872
▁thats	-10.1876
▁19	-10.1877
ek	-10.1891
▁ìtàn	-10.1894
▁Babu	-10.1906
▁insha	-10.1908
▁Só	-10.1908
▁dede	-10.1912
▁odò	-10.1912
▁bude	-10.1913
▁nabi	-10.1929
▁most	-10.1937
▁Hi	-10.194
▁التي	-10.194
▁ብር	-10.1947
▁Para	-10.1949
Yorùbá	-10.1955
▁ìbílẹ̀	-10.1959
▁🙄🙄	-10.1972
▁Egwu	-10.1977
▁ከዚህ	-10.1977
▁akpa	-10.1997
owe	-10.1998
▁does	-10.2011
▁uka	-10.2024
ለት	-10.2025
endelea	-10.2026
▁duka	-10.2046
if	-10.2055
▁ry	-10.2056
▁niba	-10.2057
▁gaske	-10.206
▁everything	-10.2066
.""""""""	-10.2073
▁lahira	-10.2075
▁Innalillahi	-10.2077
▁ìwà	-10.2079
▁عاش	-10.2083
fanya	-10.2087
▁yé	-10.2091
▁gyara	-10.2094
▁gwa	-10.2098
▁የም	-10.2101
▁Ari	-10.2103
▁ሰ	-10.2103
▁wont	-10.2107
▁ir	-10.2115
▁ṣeun	-10.2118
ọ̀	-10.2121
▁Jehovah	-10.2123
▁بصح	-10.2142
▁ndo	-10.2145
▁online	-10.2157
▁àwa	-10.2157
▁ft	-10.2162
fu	-10.2169
ሰላም	-10.217
▁iche	-10.2171
▁gbólóhùn	-10.2171
▁Hmm	-10.2172
▁ብዬ	-10.2173
▁Saboda	-10.2175
▁shout	-10.2181
▁mean	-10.2183
▁ነበር።	-10.2189
▁gbọdọ̀	-10.2193
▁ገና	-10.2194
▁bana	-10.2201
uwa	-10.2204
▁umwana	-10.2212
▁haram	-10.2215
▁ኢ	-10.2224
elu	-10.2225
nsa	-10.2229
▁yes	-10.2246
▁Tí	-10.2247
▁ọkụ	-10.225
▁cook	-10.2252
you	-10.2257
▁yasan	-10.226
▁tl	-10.2262
▁😔	-10.2268
▁ké	-10.2271
won	-10.2278
▁ikú	-10.2281
▁peace	-10.2282
▁ìwọ́	-10.2282
▁ese	-10.2286
▁Yana	-10.2287
▁láì	-10.229
▁nós	-10.2291
▁ضد	-10.2293
pu	-10.2294
▁ola	-10.23
▁quero	-10.2304
▁nsi	-10.2311
▁high	-10.2314
😥	-10.2314
▁word	-10.2318
▁funny	-10.2321
▁Tanzania	-10.2322
▁اليوم	-10.2324
aaa	-10.2327
▁rice	-10.2328
▁ሆይ	-10.2328
▁ይሆን	-10.2332
▁òkú	-10.2333
ọ́	-10.2333
▁kiri	-10.2342
▁blow	-10.2346
▁city	-10.2349
▁boko	-10.235
لي	-10.2366
▁aí	-10.2366
▁esi	-10.2368
▁wọlé	-10.2374
▁ẹsẹ̀	-10.238
▁level	-10.2384
▁nílẹ̀	-10.2388
▁daidai	-10.239
▁kuyi	-10.2393
▁የማይ	-10.2396
▁dariya	-10.2399
▁አስ	-10.2401
▁suyi	-10.2402
pé	-10.2404
▁Ifá	-10.2405
▁ስት	-10.2409
▁tin	-10.2414
▁shugaba	-10.2417
less	-10.2418
ልን	-10.2418
▁okwa	-10.2426
▁ny	-10.2429
▁yazo	-10.2433
▁kallon	-10.2436
▁liha	-10.2436
ɛ	-10.2439
▁club	-10.2441
nka	-10.2453
▁الجزائر	-10.2457
▁cut	-10.2458
▁basa	-10.246
▁ulo	-10.2469
▁Arewa	-10.2477
est	-10.2483
▁dika	-10.2492
▁soro	-10.2499
▁rt	-10.25
▁በመ	-10.2501
▁San	-10.2502
▁tashi	-10.2502
▁Ubangiji	-10.2505
▁vão	-10.2505
▁afa	-10.2505
▁mee	-10.2511
que	-10.2514
▁علاش	-10.2521
▁pick	-10.2525
▁Ashe	-10.2538
▁kasan	-10.2538
▁♪	-10.254
▁24	-10.2545
▁Essa	-10.2546
▁iko	-10.2561
▁واقيلا	-10.2564
▁move	-10.2566
▁nas	-10.2573
▁V	-10.2575
▁asem	-10.258
▁ك	-10.2586
▁Bom	-10.2592
▁àṣẹ	-10.2593
▁gbaa	-10.2594
ተኛ	-10.2596
▁ዓመት	-10.2599
▁gobe	-10.2599
▁ስ	-10.2601
ama	-10.2605
▁እያ	-10.2613
▁ይሁን	-10.2618
▁Annabi	-10.2619
▁ije	-10.262
▁lẹ́nu	-10.2621
▁hustle	-10.2625
▁የት	-10.2625
▁nunca	-10.2625
ان	-10.2626
▁ncha	-10.2631
▁ready	-10.2636
▁hmm	-10.2643
▁koda	-10.2649
▁ficar	-10.2668
▁pah	-10.2683
▁ጠ	-10.2685
▁hali	-10.2692
ባ	-10.2692
ራ	-10.27
▁ካለ	-10.2701
▁broke	-10.2706
▁What	-10.2707
▁níbi	-10.2707
▁amba	-10.2712
ال	-10.273
looking	-10.2731
▁geração	-10.2733
son	-10.2733
▁imagine	-10.2734
▁La	-10.2738
▁نيشان	-10.2743
▁uche	-10.2744
تي	-10.2746
▁todo	-10.2747
ike	-10.2749
▁ipinle	-10.275
▁read	-10.2755
▁ምክንያት	-10.2757
▁hata	-10.2757
▁lallai	-10.276
!'	-10.2772
▁ìran	-10.2773
),	-10.2774
▁lina	-10.2776
▁apem	-10.278
▁nanso	-10.2782
▁rich	-10.2789
▁ọmọdé	-10.2791
▁🤔🤔	-10.2802
▁naji	-10.2804
&	-10.2804
▁Si	-10.2812
▁diz	-10.2815
▁nkea	-10.2817
▁gbuo	-10.2824
ty	-10.2835
💯	-10.284
▁pela	-10.2846
̀	-10.2849
▁dáadáa	-10.2849
▁kupitia	-10.2851
▁udo	-10.2856
▁titun	-10.2861
▁followers	-10.2862
ebi	-10.2866
▁tsakanin	-10.2869
▁العدالة	-10.2873
▁ido	-10.2873
▁nitori	-10.2873
ura	-10.2874
▁የምት	-10.2877
▁Kíni	-10.2878
▁kupata	-10.2883
din	-10.2888
▁quer	-10.289
▁ልጆች	-10.2893
😃	-10.2914
▁disse	-10.2915
▁ል	-10.2916
▁girma	-10.2918
▁የትግራይ	-10.2921
▁كنت	-10.2923
▁times	-10.2923
▁sá	-10.2924
▁kee	-10.2924
▁estar	-10.2926
▁Olúwa	-10.2928
▁tipo	-10.293
▁mutuwa	-10.2931
▁sub	-10.2934
▁ደም	-10.2944
▁Ji	-10.2948
▁Okwu	-10.2948
▁ሁኔታ	-10.2949
▁kolchi	-10.2956
😄	-10.2958
▁nni	-10.2975
▁strong	-10.2977
▁ilaihi	-10.2979
▁rasa	-10.2981
▁خاص	-10.2983
▁yet	-10.2983
▁Malam	-10.2984
▁እንደሚ	-10.2985
▁sey	-10.2985
yar	-10.2985
▁byose	-10.2986
▁zabe	-10.299
▁Nàìjíríà	-10.2991
▁Nta	-10.2993
▁funfun	-10.2994
▁Por	-10.2998
▁akpo	-10.3006
▁raina	-10.3015
▁قال	-10.3019
▁hhhhh	-10.3027
▁once	-10.3031
▁yàtọ̀	-10.3032
▁kọjá	-10.3038
▁ade	-10.3041
▁bụrụ	-10.3043
▁bw	-10.3043
▁bó	-10.3044
▁th	-10.3048
▁bya	-10.3048
"""""""".	-10.3049
kai	-10.3051
▁لك	-10.3054
kú	-10.3055
▁ghana	-10.3055
ናል	-10.306
▁ill	-10.3061
là	-10.3069
ለው	-10.3071
▁ሙሉ	-10.3072
▁dade	-10.3074
▁dinheiro	-10.3086
▁alguém	-10.3095
▁huta	-10.3097
▁😭😭😭😭	-10.3098
▁የሚለው	-10.3101
▁nonsense	-10.3103
▁president	-10.3104
the	-10.3106
▁ubwo	-10.3109
▁being	-10.311
▁aja	-10.312
▁አሁንም	-10.3122
▁ዘመን	-10.3122
▁swi	-10.3124
▁abinci	-10.3129
▁rọ̀	-10.313
▁ive	-10.3134
▁Ọ̀	-10.3138
▁olorun	-10.3139
▁dukkan	-10.3145
it	-10.3147
▁mafi	-10.3148
▁ose	-10.3155
▁nasan	-10.3158
wé	-10.3167
ባት	-10.3168
▁brain	-10.3171
dar	-10.3174
▁aje	-10.3181
▁kake	-10.3186
▁راك	-10.3189
▁baa	-10.3189
una	-10.3194
id	-10.3197
▁🥺	-10.32
WordExpoInAngola	-10.3206
▁ọ̀hún	-10.3206
▁commot	-10.3207
▁nzuzu	-10.3207
▁ብለው	-10.3208
▁ọ̀run	-10.3211
▁አት	-10.3215
▁وي	-10.3219
▁aquele	-10.322
lina	-10.322
▁akwukwo	-10.3224
▁ẹní	-10.3232
▁sing	-10.3238
ቱን	-10.324
▁gaskia	-10.324
▁kii	-10.3242
▁obula	-10.3244
▁voice	-10.3245
▁لله	-10.3246
▁gahunda	-10.3252
KA	-10.3259
▁shan	-10.3259
▁masha	-10.3262
▁ọ̀rẹ́	-10.3264
▁falar	-10.3266
▁kubera	-10.3273
▁ajé	-10.3279
▁dikwa	-10.3282
▁away	-10.3284
ion	-10.3288
▁tamu	-10.3292
▁share	-10.3293
▁mumu	-10.3294
🙄🙄	-10.3295
▁amaka	-10.3312
▁Mba	-10.3315
▁vocês	-10.3317
▁gha	-10.3318
ment	-10.3326
EsinOro	-10.3328
▁reply	-10.3329
▁office	-10.3329
▁Igwe	-10.333
▁gye	-10.3333
▁wote	-10.3334
▁nwanyị	-10.3343
▁black	-10.3361
▁العام	-10.3361
▁50	-10.3365
▁kain	-10.3365
▁ልብ	-10.3367
▁kúrò	-10.337
▁تاع	-10.3371
▁kù	-10.3372
▁into	-10.3378
▁siyasa	-10.3386
▁ቢሆን	-10.339
▁yaba	-10.3391
▁fih	-10.3406
aga	-10.3406
▁Ohun	-10.3416
▁kabisa	-10.3419
lach	-10.3436
▁ɛ	-10.3438
▁jee	-10.3439
▁eré	-10.344
▁wanke	-10.3444
▁አለበት	-10.345
▁هههه	-10.3452
bìnrin	-10.3453
▁«	-10.3456
▁òpó	-10.3461
ب	-10.3465
wi	-10.3465
while	-10.3468
▁everybody	-10.347
▁tẹ	-10.3471
▁mpa	-10.3471
▁ẹ̀mí	-10.3471
▁aji	-10.3472
▁nasi	-10.3479
▁Yayi	-10.3486
▁tsohon	-10.349
▁sùn	-10.3492
ባቸው	-10.3497
▁Chai	-10.3502
▁meye	-10.3504
▁aya	-10.3505
▁Hari	-10.351
▁الحق	-10.3515
👏	-10.3516
▁dupe	-10.3522
▁wane	-10.3523
▁😄	-10.3532
▁suma	-10.3538
▁ụbọchị	-10.354
▁onde	-10.3541
▁Sun	-10.3551
▁ነን	-10.3551
▁umunsi	-10.3554
▁shit	-10.3566
▁ubochi	-10.3569
▁Ututu	-10.3574
ime	-10.3574
▁ፍቅር	-10.3577
▁everywhere	-10.3577
▁العالم	-10.3579
▁block	-10.358
▁social	-10.3581
▁አሉ	-10.3586
▁agu	-10.3593
▁Sa	-10.3594
▁aunty	-10.3594
aw	-10.3598
▁ጀግና	-10.36
▁cutar	-10.3601
▁سي	-10.3602
▁wi	-10.3602
▁bama	-10.3614
▁garin	-10.3621
ee	-10.3628
▁وزير	-10.363
▁yasin	-10.3636
▁💔	-10.3637
lih	-10.3639
▁kadan	-10.3639
▁amu	-10.364
▁mehn	-10.3644
▁ih	-10.3645
▁🙏🙏🙏	-10.3656
▁paaa	-10.3661
▁ناس	-10.3666
ሱ	-10.3673
▁ተማሪዎች	-10.368
▁normal	-10.3688
▁láàárín	-10.3704
▁pior	-10.3705
▁musulunci	-10.3706
▁Kandi	-10.3711
▁musulmai	-10.3714
▁byo	-10.3715
▁mwa	-10.3715
▁Eni	-10.3716
▁whole	-10.3716
▁yetu	-10.3721
▁godiya	-10.3726
oo	-10.3732
▁sarkin	-10.3736
ay	-10.3739
▁ojumo	-10.374
▁hàn	-10.3741
▁kaman	-10.3741
▁kasuwa	-10.3742
▁ẹranko	-10.3746
▁amor	-10.375
▁hmmm	-10.375
rá	-10.3751
▁Mma	-10.3754
▁الي	-10.3755
▁የኔ	-10.376
hun	-10.3761
▁እንዳ	-10.377
▁Rahma	-10.377
▁learn	-10.3771
▁jiya	-10.3776
▁didn	-10.3776
▁እንደሆነ	-10.3778
▁save	-10.3785
dan	-10.38
ona	-10.38
▁lose	-10.38
▁gajo	-10.3807
▁maza	-10.3808
ላቸው	-10.3819
لك	-10.382
ai	-10.3824
▁yẹn	-10.3827
▁warri	-10.3836
▁news	-10.384
▁gbá	-10.384
▁bet	-10.3844
▁será	-10.3856
kom	-10.386
▁ታ	-10.3861
▁👏	-10.3862
▁ትንሽ	-10.3864
ታቸው	-10.3869
▁òrìṣà	-10.387
▁ልዩ	-10.3878
▁كانت	-10.3882
▁land	-10.389
▁hannun	-10.3892
▁ze	-10.3906
▁ደስ	-10.391
rò	-10.392
▁hapu	-10.392
▁لكن	-10.3927
▁ያለውን	-10.3932
nd	-10.3942
▁daban	-10.3943
▁eyes	-10.3948
ሙ	-10.395
▁fadi	-10.3952
▁calm	-10.3955
ع	-10.3963
▁ijoba	-10.3967
ù	-10.3968
▁►	-10.3972
▁ọkùnrin	-10.3974
▁fin	-10.3974
▁Lallai	-10.3975
😉	-10.3976
▁igbó	-10.3978
▁تحي	-10.3981
▁المغربية	-10.3985
▁women	-10.3987
▁problema	-10.3988
▁Anambra	-10.3988
▁Man	-10.3988
In	-10.3988
▁yall	-10.3989
ቼ	-10.399
▁kwanu	-10.4001
ol	-10.4002
▁tura	-10.4005
jà	-10.401
aya	-10.4017
▁muda	-10.4017
▁sharp	-10.4019
▁ng	-10.4019
▁tired	-10.4019
▁bọ́	-10.4024
▁sanda	-10.4034
▁adịghị	-10.4038
▁este	-10.4038
»	-10.4046
▁simu	-10.4048
▁ayọ̀	-10.4049
▁Ogun	-10.4053
▁ooooo	-10.4055
▁picture	-10.406
▁faru	-10.4061
oni	-10.4061
ማንም	-10.4073
▁date	-10.4076
▁kat	-10.4078
▁ትምህርት	-10.4087
▁fiha	-10.4088
▁village	-10.4093
TweetInYoruba	-10.4093
▁oyibo	-10.4094
▁akeyi	-10.4097
▁eto	-10.4098
▁serious	-10.4102
gbe	-10.4107
▁nobody	-10.4107
▁Èmi	-10.4108
▁ɛyɛ	-10.4108
▁settle	-10.4109
▁Unu	-10.4109
▁story	-10.4112
▁enu	-10.4113
▁terra	-10.4114
▁foto	-10.4117
▁rain	-10.4118
▁nosso	-10.4119
jin	-10.4122
▁sínú	-10.4128
▁tabbatar	-10.4132
▁mafita	-10.4135
▁rage	-10.4135
▁ድረስ	-10.4135
▁jó	-10.414
▁hapa	-10.4143
▁ዶ	-10.4143
ní	-10.4144
▁أنا	-10.4146
▁kira	-10.415
fà	-10.4151
ችሁ	-10.4151
▁shiru	-10.4154
▁media	-10.4155
▁ነፃ	-10.4157
kwanu	-10.4158
▁كاش	-10.4161
▁era	-10.4163
▁osu	-10.4165
júmọ́	-10.4171
💪	-10.418
▁covid	-10.418
▁በዓል	-10.4182
▁question	-10.4189
vi	-10.4207
▁hamwe	-10.4212
▁Oba	-10.4214
😌	-10.4218
▁kpa	-10.4223
▁through	-10.4226
▁united	-10.4227
▁shakara	-10.4229
▁coming	-10.4231
▁estava	-10.4232
▁كيران	-10.4236
▁Ile	-10.4237
ጋ	-10.424
▁lọ́nà	-10.424
▁comment	-10.4242
karbi	-10.4243
ness	-10.4244
▁eniyan	-10.4245
▁የኦሮሞ	-10.4246
▁matar	-10.4256
bá	-10.4258
▁dodo	-10.4263
▁lẹ́hìn	-10.4272
▁ነገ	-10.4277
▁Anya	-10.4278
▁bla	-10.4292
án	-10.4295
zuri	-10.4306
▁DE	-10.4309
▁akai	-10.4313
▁Olorun	-10.4321
▁hauka	-10.4337
▁smile	-10.4342
▁አን	-10.4345
giye	-10.4346
lá	-10.4353
▁Ala	-10.4354
▁Hahaha	-10.4359
▁ኢትዮጵያን	-10.436
▁room	-10.4363
▁kansa	-10.4364
▁nii	-10.4364
;&	-10.4367
▁ìmọ̀	-10.4367
nnan	-10.4368
▁ǹj	-10.4369
▁harda	-10.437
▁music	-10.4374
▁عليها	-10.4376
▁wish	-10.438
▁Oro	-10.4384
▁fà	-10.4387
▁fresh	-10.4395
▁kankan	-10.4401
▁olúwa	-10.4402
▁dara	-10.4404
▁ankasa	-10.4407
▁safe	-10.4411
▁yie	-10.4421
▁nkem	-10.4429
▁afu	-10.4431
▁Daga	-10.4439
▁gidi	-10.4442
▁gwamnatin	-10.4442
▁èrò	-10.4453
▁ክብር	-10.4456
▁ماكاش	-10.4459
▁gbó	-10.4463
▁none	-10.4463
▁zauna	-10.4467
▁close	-10.447
▁يكون	-10.4476
▁እየተ	-10.4481
▁kuji	-10.4484
nde	-10.4487
ies	-10.4493
lt	-10.4495
▁ìkàn	-10.4498
▁ኢዜማ	-10.4498
▁plu	-10.45
▁different	-10.4503
▁myself	-10.4506
▁ጦርነት	-10.451
▁iberibe	-10.4511
▁causa	-10.4512
ሌ	-10.4515
~	-10.4516
▁eyi	-10.4521
▁agwa	-10.4527
ق	-10.4529
▁Wato	-10.4539
▁jesus	-10.454
▁Fa	-10.4543
▁dace	-10.4543
▁Corona	-10.4547
▁soup	-10.4555
ጭ	-10.4555
▁bọ	-10.4563
▁link	-10.4564
▁ፖለቲካ	-10.4565
omba	-10.4565
▁lokaci	-10.4566
▁mace	-10.4567
asa	-10.4573
▁Sha	-10.4573
▁zuciya	-10.4579
▁inu	-10.4579
▁😹	-10.458
ur	-10.4585
▁Ilé	-10.4585
▁Mun	-10.459
▁hadchi	-10.4597
▁🤣🤣🤣🤣🤣	-10.4605
▁fr	-10.4605
▁fam	-10.4611
▁الأ	-10.4614
▁outro	-10.4626
▁suffer	-10.4629
pi	-10.4629
▁service	-10.4629
▁ይሆናል	-10.4632
▁ones	-10.4635
▁Daalụ	-10.4638
▁alheri	-10.4638
▁msaada	-10.4639
▁worry	-10.464
▁ìfẹ́	-10.4641
raẹni	-10.4641
▁አህመድ	-10.4642
▁nasara	-10.4642
▁جديدة	-10.4643
▁Kawai	-10.4644
▁حزب	-10.4648
ná	-10.4648
▁ወሬ	-10.4649
😠	-10.4653
▁àgbáyé	-10.4657
▁GI	-10.4658
▁wowe	-10.4661
▁acikin	-10.4661
▁dias	-10.4664
▁kayn	-10.4665
st	-10.4666
▁sunyi	-10.4667
▁olórí	-10.4673
▁iga	-10.4676
▁ẹgbẹ́	-10.4677
▁lọ́	-10.4678
▁ع	-10.4681
▁وا	-10.4686
▁kinyi	-10.4689
▁káàárọ̀	-10.469
▁che	-10.4692
▁ọ̀kan	-10.4693
▁Wow	-10.4694
▁job	-10.4708
▁friends	-10.471
▁تكون	-10.4717
▁mah	-10.4726
▁ቅዱስ	-10.473
▁Abun	-10.4731
▁mudai	-10.4734
▁Sarki	-10.4734
▁Èy	-10.4736
😋	-10.4736
▁v	-10.4737
▁rántí	-10.4744
▁mr	-10.4753
▁lih	-10.4756
▁pray	-10.476
ተው	-10.4765
▁jiri	-10.4766
▁hold	-10.4774
oma	-10.4778
▁bịa	-10.4779
▁joke	-10.4781
▁lpy	-10.4782
▁Uwa	-10.4782
▁púpọ̀	-10.4783
▁tab	-10.4783
😩	-10.4786
▁continue	-10.4794
▁nì	-10.4801
❤	-10.4801
▁baada	-10.4802
▁እስኪ	-10.4807
▁Ego	-10.481
▁rò	-10.4814
▁Como	-10.4817
té	-10.4817
▁ሕዝብ	-10.4823
▁dak	-10.4826
▁zaiyi	-10.4831
ሰው	-10.4832
▁hoton	-10.4834
▁kw	-10.4834
▁num	-10.4835
لى	-10.4838
▁eii	-10.484
▁tunaomba	-10.4842
Worship	-10.4843
▁jiran	-10.4845
▁Do	-10.4851
▁aburo	-10.4857
ዶ	-10.4868
mọ́	-10.4871
▁orun	-10.4874
▁እረ	-10.4885
▁ehh	-10.4885
gbo	-10.4889
▁😉	-10.489
ebe	-10.4893
▁በተ	-10.4897
▁yà	-10.4901
▁ever	-10.4901
▁dy	-10.4905
▁kwe	-10.4908
inda	-10.4914
ff	-10.4916
▁league	-10.4921
▁wrong	-10.4921
▁Isso	-10.4921
▁Assim	-10.4923
▁ore	-10.4924
▁ኦሮሞ	-10.4924
▁tatizo	-10.4933
▁ìyàwó	-10.4934
▁መሆኑን	-10.4936
▁Africa	-10.4939
▁dinnan	-10.4941
▁itace	-10.4944
▁cho	-10.4946
ine	-10.4946
▁daalu	-10.4948
▁ግዜ	-10.4949
▁tú	-10.4949
▁ahubwo	-10.4955
▁bhal	-10.4956
▁short	-10.4957
▁yaga	-10.4959
▁‘	-10.496
dun	-10.4969
▁شكرا	-10.4977
▁ututu	-10.4986
mar	-10.4987
▁kon	-10.4987
▁اللهم	-10.4997
nna	-10.4998
▁wadai	-10.5
dannan	-10.5006
▁yɛn	-10.5011
▁የሚያ	-10.5018
▁ekwe	-10.5024
▁مش	-10.5031
ኩ	-10.5038
ste	-10.5039
▁sauka	-10.504
uba	-10.5048
▁😌	-10.5051
▁😩	-10.5051
▁Kowa	-10.5052
▁Asa	-10.5056
om	-10.5056
▁It	-10.5058
▁stress	-10.5062
▁Uma	-10.5063
▁nigga	-10.5064
▁plz	-10.5064
▁😁😁😁	-10.5065
▁giveaway	-10.5066
▁government	-10.5071
▁sune	-10.5072
ـ”	-10.5074
ssa	-10.5077
▁dáa	-10.5084
Day	-10.5085
▁star	-10.5085
▁Niba	-10.5088
▁gara	-10.5088
▁chọrọ	-10.509
▁😆	-10.5091
▁àsìkò	-10.5095
uko	-10.5096
▁karemu	-10.5101
تو	-10.5103
▁outros	-10.5106
▁NP	-10.5106
▁yio	-10.511
▁kún	-10.511
ró	-10.5111
▁okay	-10.5113
▁grande	-10.5113
▁saying	-10.5114
▁set	-10.512
▁mutumin	-10.5122
▁tv	-10.5122
▁tambaya	-10.5125
😏😏	-10.5131
▁ufite	-10.5132
▁iru	-10.5135
▁hate	-10.5137
▁Meu	-10.5138
▁biri	-10.5149
▁ajá	-10.5151
▁cire	-10.5156
▁karshe	-10.5159
▁Tuna	-10.516
▁uta	-10.5162
▁bus	-10.5164
▁final	-10.5166
ila	-10.5171
▁used	-10.5173
▁nana	-10.5176
mbo	-10.5181
▁እናንተ	-10.5186
▁vir	-10.5192
▁children	-10.5193
▁láṣẹ	-10.5203
▁ዜና	-10.5209
▁bwa	-10.5209
▁messi	-10.5211
▁enough	-10.5213
▁DEUS	-10.5213
ekaaro	-10.5213
▁burst	-10.5214
▁zetu	-10.5214
▁vezes	-10.5219
anza	-10.522
▁الف	-10.522
▁etc	-10.5221
▁Ali	-10.5224
▁wow	-10.5224
▁àkọ́kọ́	-10.5224
▁ሁሌ	-10.5226
▁ndio	-10.5226
▁18	-10.5231
😂😂😂😂😂	-10.5232
tara	-10.5232
▁vez	-10.5233
jì	-10.5237
▁2012	-10.5245
▁pesin	-10.5245
▁herh	-10.5246
▁mwaka	-10.5251
▁Ama	-10.5256
▁àgbẹ̀	-10.5259
▁haha	-10.5261
ei	-10.5261
▁Good	-10.5261
▁laifin	-10.5262
▁نحن	-10.5265
▁bikonu	-10.5265
▁kwu	-10.5268
▁wurin	-10.5272
▁case	-10.5272
▁Eh	-10.5277
▁ṣì	-10.5278
▁yaya	-10.5278
ግ	-10.5282
bona	-10.5282
▁jà	-10.5282
▁rw	-10.5288
▁saura	-10.529
▁dik	-10.5292
▁Ibu	-10.53
ida	-10.5303
▁kakra	-10.5304
taka	-10.5313
▁boa	-10.5315
▁ድል	-10.5317
▁canno	-10.5319
▁medo	-10.532
▁shege	-10.5321
▁الذي	-10.5322
▁girman	-10.5323
🤔🤔	-10.5324
▁aki	-10.5331
▁nossa	-10.5333
▁meat	-10.5338
▁daraja	-10.5345
27	-10.5353
▁murna	-10.5354
ዎቹ	-10.5355
▁per	-10.5357
ሰ	-10.5359
▁bila	-10.5359
ዱ	-10.5359
ታል	-10.5359
▁هدا	-10.5361
▁plenty	-10.5362
▁fẹ́ràn	-10.5363
▁በሙሉ	-10.5365
▁mulher	-10.5366
▁saber	-10.5366
▁Hmmm	-10.5367
▁safi	-10.5369
▁also	-10.5369
▁finally	-10.537
▁perder	-10.5371
▁ndani	-10.5374
▁kiyaye	-10.5374
▁joy	-10.5375
▁Feliz	-10.5376
▁wahd	-10.5376
▁cash	-10.538
▁Duniya	-10.5381
▁Rais	-10.5388
▁ኢትዮጵያዊ	-10.5388
▁proud	-10.5399
▁2019	-10.5406
▁ogologo	-10.5408
▁iwo	-10.5414
▁nwata	-10.5417
▁bisa	-10.5417
ሪ	-10.5419
▁nuko	-10.5426
▁yari	-10.5426
▁bala	-10.5432
▁making	-10.5441
day	-10.5444
▁amafaranga	-10.5464
▁22	-10.5467
▁munyi	-10.5468
ረ	-10.5469
▁guda	-10.5471
▁òkun	-10.5471
▁nku	-10.5477
▁dance	-10.5477
▁Mara	-10.5482
▁site	-10.5482
+	-10.5486
▁bee	-10.5492
10	-10.5496
▁estás	-10.5496
▁🇲🇿	-10.5503
EndSARS	-10.5514
▁iwa	-10.5515
▁ìyẹn	-10.5515
▁karo	-10.5516
▁tafadhali	-10.552
▁Waziri	-10.5528
▁director	-10.5529
▁Allahu	-10.553
▁àt	-10.5531
dá	-10.5532
▁mat	-10.5533
▁buh	-10.5534
▁YORÙBÁ	-10.5545
nyɛ	-10.5547
▁left	-10.5547
▁umugore	-10.5549
ṣẹ́	-10.555
▁kita	-10.5552
▁عند	-10.5553
▁40	-10.5555
▁pedir	-10.5558
▁etí	-10.5563
▁ፈጣሪ	-10.5565
▁hw	-10.5575
30	-10.5575
▁làá	-10.5577
▁muga	-10.5579
▁ግድ	-10.5583
▁May	-10.5598
▁kwado	-10.5605
▁ọ̀sẹ̀	-10.5606
▁words	-10.5608
▁tw	-10.5612
adi	-10.5616
▁uto	-10.5619
▁ẹbí	-10.562
▁karba	-10.5621
▁Idi	-10.5623
▁tabi	-10.5628
xo	-10.5637
▁wọ̀	-10.5641
ም።	-10.5641
▁shop	-10.5648
▁message	-10.5651
▁Iya	-10.5659
▁adalci	-10.5668
▁answer	-10.5668
▁ìbéèrè	-10.5668
▁rárá	-10.5668
▁taarifa	-10.5669
▁gọzie	-10.5669
▁mmuo	-10.5669
▁ዘንድ	-10.5671
▁igreja	-10.5673
▁oji	-10.5673
▁Oge	-10.5678
▁whatsapp	-10.5681
▁በቃ	-10.5682
▁irun	-10.5683
▁ance	-10.5686
▁obere	-10.5686
ታዊ	-10.569
▁chan	-10.5697
▁መቼም	-10.5703
▁Ẹ̀y	-10.5703
▁ìjà	-10.5704
▁listen	-10.5709
▁shirya	-10.5712
▁😃	-10.5714
▁የፖለቲካ	-10.5714
يا	-10.572
▁መብት	-10.572
▁madam	-10.572
▁ትልቅ	-10.5723
▁abuo	-10.5725
ዋል	-10.5725
▁ọ̀la	-10.5731
▁GB	-10.5737
▁sile	-10.5738
ኛው	-10.5739
▁Yanz	-10.5739
saba	-10.574
▁የሰው	-10.5742
▁easy	-10.5743
COVID	-10.5748
▁kraa	-10.5751
▁Aikin	-10.5752
▁ها	-10.5755
mí	-10.5761
▁rara	-10.5764
▁hora	-10.5776
im	-10.5779
▁qasa	-10.5779
لة	-10.5784
▁believe	-10.5785
▁second	-10.5786
▁sign	-10.5789
▁Ne	-10.5792
▁ይሄን	-10.5792
▁pada	-10.5794
▁rìn	-10.5795
▁hawa	-10.5797
▁ọkàn	-10.5801
▁أو	-10.5802
▁maki	-10.5805
koma	-10.581
▁በኢትዮጵያ	-10.5812
▁Iyi	-10.582
▁Aláàfin	-10.5824
▁anyhow	-10.5824
▁alkairi	-10.5825
▁إن	-10.5827
chukwu	-10.5827
▁200	-10.5828
▁ame	-10.5828
▁ekwensu	-10.5829
▁kaaro	-10.583
ation	-10.5831
▁عليكم	-10.5839
▁menos	-10.5842
▁celebrate	-10.5845
▁nime	-10.5853
▁jamaa	-10.5861
▁ọrụ	-10.5863
▁sawa	-10.5865
ቀው	-10.5872
▁ẹ̀sìn	-10.5873
▁tazo	-10.5876
▁amakuru	-10.5878
▁gaban	-10.5879
nigeria	-10.5883
▁Just	-10.5885
▁nass	-10.5892
▁خير	-10.5893
▁plan	-10.5899
▁sace	-10.5899
ሚ	-10.5904
▁kafa	-10.5914
language	-10.5915
▁dàgbà	-10.5916
▁odo	-10.5917
▁gbara	-10.5922
▁Olu	-10.5925
ter	-10.5933
▁ẹja	-10.5934
▁wayo	-10.5936
kwe	-10.5941
▁አንዳን	-10.5942
▁salam	-10.5952
▁kansu	-10.5956
cy	-10.5957
ss	-10.5959
▁oruko	-10.5964
▁eat	-10.5971
▁add	-10.5976
ሻ	-10.5978
▁Mkuu	-10.5984
▁ስለሆነ	-10.5984
▁future	-10.5984
▁̊	-10.5988
▁então	-10.5988
▁kannywood	-10.5988
▁والو	-10.5991
▁ወይስ	-10.5992
▁Ubwo	-10.5993
▁table	-10.5996
▁ዓ	-10.5996
▁sumayya	-10.5997
▁somebody	-10.5997
▁Haka	-10.5998
▁Jesu	-10.6002
▁laifi	-10.6004
▁akuko	-10.6011
war	-10.6011
▁type	-10.6012
bamu	-10.6016
▁waya	-10.6021
▁àná	-10.6022
▁راني	-10.6031
▁care	-10.6034
▁cyo	-10.6038
ቤት	-10.6039
😘	-10.604
▁Oya	-10.6041
▁ትግራይ	-10.6043
▁language	-10.6045
▁yiwa	-10.6048
▁rya	-10.6048
▁faruwa	-10.6067
fara	-10.6079
▁Ifẹ̀	-10.6091
▁rán	-10.6095
▁meet	-10.6098
▁Pa	-10.61
▁ስልጣን	-10.6102
▁score	-10.6105
ure	-10.611
▁swa	-10.6111
▁dubu	-10.6111
▁waje	-10.6113
▁relationship	-10.6118
▁Yar	-10.6118
▁farko	-10.6118
▁Sadau	-10.612
▁mgbu	-10.6126
▁tal	-10.6128
▁liya	-10.6129
▁mutun	-10.6129
▁wash	-10.6131
▁25	-10.6135
nsu	-10.614
▁Be	-10.6142
▁barka	-10.6144
Atelewo	-10.6144
▁pàtàkì	-10.6144
▁له	-10.6147
▁gaji	-10.6147
▁nyere	-10.6147
▁ìṣe	-10.6147
ሆኑ	-10.6154
▁ago	-10.6158
wá	-10.6158
▁BÍ	-10.6159
zu	-10.616
▁handle	-10.6161
▁anaghi	-10.6164
▁scam	-10.6165
▁ẹnìkan	-10.6165
▁ውይይት	-10.6168
▁🤗	-10.617
▁sọ̀rọ̀	-10.617
aji	-10.6174
▁feliz	-10.6175
ondo	-10.6176
▁Ẹ̀gbá	-10.6177
▁ፍትህ	-10.6178
▁ab	-10.6179
▁wagyimi	-10.6184
▁تع	-10.6188
▁yaki	-10.6191
▁rie	-10.6192
😔	-10.6194
▁nda	-10.6195
▁ewe	-10.6215
▁Os	-10.6217
▁💯	-10.6218
▁Enugu	-10.6233
▁sunday	-10.624
▁karfin	-10.6245
▁tsaya	-10.6245
Sports	-10.6245
200	-10.6245
▁mọ́n	-10.6246
ጫ	-10.6248
▁gute	-10.6249
anu	-10.6249
shin	-10.6249
▁ጠቅላይ	-10.6252
▁eti	-10.6256
WA	-10.6257
▁بيك	-10.626
▁tunanin	-10.6265
▁heaven	-10.6265
▁አምላክ	-10.6266
▁yawan	-10.6269
▁enyi	-10.628
ሎ	-10.6281
▁Kin	-10.6282
16	-10.6291
▁اي	-10.6293
iki	-10.6293
▁Bu	-10.6294
▁አይደል	-10.6297
▁hajiya	-10.6302
ie	-10.6303
YA	-10.6304
▁ሲሆን	-10.6309
▁ṣùgbọ́n	-10.6313
▁everyone	-10.6314
▁pepper	-10.6314
▁Ser	-10.6317
▁عليهم	-10.6317
▁Kam	-10.6319
▁hanyar	-10.6321
▁wakati	-10.6321
▁posso	-10.6323
▁naso	-10.6324
▁sae	-10.6324
▁vote	-10.6328
▁benin	-10.6329
▁ደረጃ	-10.6331
▁በአ	-10.6332
▁احسن	-10.6338
▁akazi	-10.634
▁single	-10.6347
ቡ	-10.6348
kọ	-10.6349
kuntu	-10.6349
▁jira	-10.635
ዩ	-10.6352
my	-10.6353
▁pictures	-10.6355
▁fita	-10.6358
▁came	-10.6359
ኖ	-10.636
▁kiyi	-10.6361
▁መንግሥት	-10.6362
▁maana	-10.6364
asi	-10.6364
▁farin	-10.6373
▁imela	-10.6375
▁aza	-10.6377
🤣🤣🤣🤣	-10.638
▁حنا	-10.6382
▁X	-10.6384
▁bazan	-10.6385
▁afọ	-10.6387
▁nhar	-10.6388
▁وعلاش	-10.6389
▁vem	-10.6396
▁ማድረግ	-10.6397
▁سقسي	-10.6398
ስንት	-10.6406
▁ያሉ	-10.6409
▁juru	-10.6411
ቃ	-10.6412
▁nga	-10.6416
▁Kigali	-10.6417
oge	-10.642
▁aso	-10.642
▁party	-10.6422
▁nkoaa	-10.6424
▁hia	-10.643
▁ليس	-10.643
ybody	-10.6431
▁mbere	-10.6438
▁poder	-10.6438
▁Lmao	-10.6441
▁anos	-10.6443
ọmọ	-10.6448
▁white	-10.6453
50	-10.6456
▁bghit	-10.6468
▁orile	-10.6469
▁None	-10.6469
لا	-10.6473
ari	-10.6473
▁ìtumọ̀	-10.6475
▁yunwa	-10.6478
▁dákun	-10.6478
??????	-10.6479
▁lady	-10.648
omo	-10.6489
▁momkin	-10.6489
by	-10.6489
▁fez	-10.649
rd	-10.6493
▁lọ́dún	-10.6499
▁Asante	-10.6499
▁gbàgbé	-10.6504
▁شعب	-10.6505
▁ቁጥር	-10.6509
▁alẹ́	-10.6513
▁ode	-10.6513
▁nziza	-10.6514
▁ṣẹ	-10.6517
▁Òkè	-10.6518
▁sugbon	-10.6521
▁nwannem	-10.6523
▁maisha	-10.6523
▁Ebe	-10.6525
▁xi	-10.6526
gh	-10.6529
▁እዚህ	-10.6531
▁homa	-10.6533
▁ይህንን	-10.6533
▁ደ	-10.6537
eni	-10.6537
▁èèbó	-10.6537
▁ọrọ̀	-10.6539
▁inama	-10.654
▁huu	-10.6547
▁amsa	-10.6549
▁Emi	-10.655
▁wuya	-10.6551
umma	-10.656
njye	-10.656
ers	-10.6566
▁nigerian	-10.6572
▁ናት	-10.6575
وش	-10.6582
bẹ̀	-10.6586
▁Mama	-10.6587
ዳ	-10.659
▁ọlá	-10.659
▁africa	-10.6592
▁trend	-10.6592
▁radio	-10.66
▁Leo	-10.6601
▁act	-10.6604
▁yah	-10.6605
▁Aho	-10.6611
▁ሲል	-10.6613
▁nje	-10.6613
▁ahia	-10.6616
▁Te	-10.6629
▁tele	-10.6635
▁moja	-10.6638
▁wala	-10.6638
▁power	-10.6638
▁rainin	-10.6641
▁ẹṣin	-10.6644
▁church	-10.6644
▁straight	-10.6644
▁ndetse	-10.6644
▁actually	-10.6645
▁alone	-10.6646
OGBO	-10.6649
Asa	-10.6649
▁Orúkọ	-10.665
▁8	-10.665
▁ṣí	-10.6652
▁kuwasilian	-10.6653
▁ntabwo	-10.6655
▁zaben	-10.666
▁jẹun	-10.6662
▁wame	-10.6665
▁rero	-10.6667
▁later	-10.6668
▁òmìnira	-10.6669
▁sometimes	-10.6672
har	-10.6675
▁muita	-10.6676
▁21	-10.6678
▁Ọ̀rọ̀	-10.6679
▁Ìbàdàn	-10.6679
rs	-10.668
▁front	-10.668
vu	-10.6684
يات	-10.6684
▁Minha	-10.669
▁tara	-10.6692
▁Eyin	-10.6695
▁kasarmu	-10.6697
▁town	-10.6699
indai	-10.6706
▁هذي	-10.6708
▁yaro	-10.6709
▁Iyo	-10.671
▁tọ́	-10.6711
▁kasata	-10.6713
ልኝ	-10.6713
▁sị	-10.6717
▁Àṣẹ	-10.6718
Africa	-10.672
▁zanga	-10.6722
▁ebere	-10.6722
▁sukayi	-10.6731
▁خويا	-10.6732
▁yajikan	-10.6736
jya	-10.6743
▁pàdé	-10.6745
▁ያህ	-10.6746
▁Está	-10.6749
dighi	-10.6751
▁speak	-10.6752
▁አባ	-10.6753
▁mati	-10.6762
▁nt	-10.6765
▁red	-10.6769
lẹ́	-10.6777
▁atu	-10.6782
▁saaa	-10.6784
▁dari	-10.6789
▁qual	-10.6797
https	-10.6798
▁Igba	-10.6804
▁Tem	-10.6809
▁wonder	-10.6815
▁Nítorí	-10.6817
▁shoot	-10.6817
▁chairman	-10.6817
▁منيب	-10.6818
▁ይላል	-10.6818
▁slap	-10.6819
▁nchini	-10.6821
▁husband	-10.6822
▁usar	-10.6824
▁ሁለት	-10.6828
.]	-10.6828
▁alá	-10.6831
▁ይልቅ	-10.6832
nti	-10.6832
make	-10.6835
▁sio	-10.684
izi	-10.6843
▁shiyasa	-10.6844
▁child	-10.6847
▁ọdẹ	-10.6849
▁ታህሳስ	-10.6851
▁english	-10.6852
▁rana	-10.6852
يش	-10.686
ú	-10.6862
20	-10.6874
▁يوم	-10.6877
▁weekend	-10.6882
lah	-10.6884
ላይ	-10.6889
▁nn	-10.689
▁23	-10.6896
▁😏😏	-10.6897
▁mishi	-10.6898
up	-10.6899
▁Aku	-10.6902
▁size	-10.6909
▁precisa	-10.691
▁Ja	-10.6934
▁kol	-10.6939
ትን	-10.6945
▁amigo	-10.6957
▁bl	-10.696
▁خو	-10.6961
▁matan	-10.697
▁Vi	-10.6971
▁Hapu	-10.6972
🙏🏾	-10.6975
▁kawae	-10.6977
😜	-10.6978
|	-10.6987
▁father	-10.6987
wà	-10.6987
▁العرب	-10.6989
▁nìyẹn	-10.6992
▁rubbish	-10.6992
▁Murakoze	-10.6992
▁ontop	-10.6993
▁Hoje	-10.6993
▁برك	-10.6993
▁ብለን	-10.6996
▁nwunye	-10.6997
▁አረ	-10.6998
▁especial	-10.6998
▁òmíràn	-10.6998
▁fc	-10.7
▁tweets	-10.7004
▁ግራ	-10.7007
▁trust	-10.7008
▁rufe	-10.7009
▁daddy	-10.701
▁chance	-10.701
▁mmanu	-10.7011
▁tens	-10.7012
▁temos	-10.7015
▁lockdown	-10.7017
▁sh	-10.7018
▁Imela	-10.7021
▁eru	-10.7023
▁ọ̀yọ́	-10.7028
▁አደጋ	-10.7028
▁married	-10.7029
▁فقط	-10.7035
shiga	-10.7039
ín	-10.7041
shukuru	-10.7043
▁kd	-10.7047
▁Mgbe	-10.705
▁under	-10.705
mbe	-10.7052
▁🙏🏾	-10.7057
▁عندو	-10.7058
kò	-10.7058
🤭	-10.706
▁dakchi	-10.7062
▁sabon	-10.7067
▁list	-10.7068
rú	-10.7074
▁kaya	-10.7075
▁àfi	-10.7077
ሮች	-10.7083
▁months	-10.7086
já	-10.7087
▁Ọdún	-10.7091
▁ሞት	-10.7093
▁wawe	-10.7094
ela	-10.7097
▁class	-10.71
masa	-10.71
▁yaje	-10.7105
▁Sir	-10.7106
▁oso	-10.7108
▁wakha	-10.7115
ዴ	-10.7116
▁whats	-10.7117
▁ስር	-10.7122
▁مكان	-10.7123
▁Wata	-10.7125
▁gún	-10.7129
▁Gsky	-10.7132
▁ọ̀pọ̀	-10.7133
😂🤣	-10.7135
▁አላ	-10.7147
-19	-10.7153
▁እነ	-10.7158
▁መሬት	-10.7158
▁virus	-10.7161
🇲🇿	-10.7164
▁👀	-10.7164
▁gal	-10.7167
▁addu	-10.7167
kí	-10.7168
kace	-10.7169
▁barca	-10.7172
Ifa	-10.7172
▁bed	-10.7172
▁hadak	-10.7174
▁àyájọ́	-10.7175
▁kurya	-10.7176
▁ቀ	-10.7176
▁yoòbá	-10.7176
▁ninguém	-10.7176
▁فهاد	-10.7176
▁bindiga	-10.7177
▁كبير	-10.7177
▁aráyé	-10.7178
▁dandan	-10.7179
▁هههههه	-10.7181
▁lost	-10.7182
▁كيف	-10.7183
▁alama	-10.7185
▁until	-10.7186
▁adwuma	-10.7186
▁kúkú	-10.7188
▁መግለጫ	-10.7188
▁young	-10.7189
▁enti	-10.7189
▁Kamar	-10.7194
▁ugwo	-10.7195
▁ọbẹ̀	-10.7195
▁ከባድ	-10.7196
▁Eziokwu	-10.7197
😭😭😭😭	-10.7197
▁ogún	-10.7197
▁😕	-10.7199
▁ለኢትዮጵያ	-10.7203
▁tay	-10.7203
ብን	-10.7206
▁ohùn	-10.7208
▁wiase	-10.7208
.......	-10.7208
▁lord	-10.7215
▁aden	-10.7216
kuhusu	-10.7219
▁😘	-10.7222
▁yazama	-10.7229
ré	-10.7236
▁cena	-10.7236
▁APC	-10.7242
▁nufin	-10.7242
▁manyan	-10.7248
😀😀	-10.7248
ቤ	-10.7249
kuwa	-10.725
▁àtijọ́	-10.7251
▁wasan	-10.7252
▁ህግ	-10.7255
▁talking	-10.7256
▁dinga	-10.7259
▁parte	-10.7263
▁sam	-10.7264
ini	-10.7265
▁nla	-10.727
▁wewe	-10.7271
▁Mazi	-10.7272
Ya	-10.7273
▁Dr	-10.7279
▁owu	-10.7279
▁ገንዘብ	-10.7281
èdè	-10.7284
▁temi	-10.7291
✊	-10.7294
▁agozi	-10.7295
▁oyin	-10.7296
▁دار	-10.7296
▁مي	-10.7299
nwa	-10.7301
▁ዞን	-10.7305
iye	-10.7305
▁الت	-10.7313
▁Olú	-10.7314
▁pin	-10.7324
▁NI	-10.7324
▁Mata	-10.7325
▁mãe	-10.7326
esi	-10.7329
nnalillahi	-10.733
▁nasu	-10.7334
▁aaa	-10.7335
yɛ	-10.7339
ity	-10.7343
▁ወረዳ	-10.7346
▁እንዳይ	-10.7347
▁አካባቢ	-10.735
Iwure	-10.7352
🐎	-10.7352
▁àpẹẹrẹ	-10.7353
▁nnukwu	-10.7353
godi	-10.7353
iwure	-10.7354
▁Can	-10.7354
▁bread	-10.7354
▁orílẹ̀	-10.7358
▁Birthday	-10.7358
ata	-10.7359
▁banxa	-10.7359
▁😂🤣	-10.7365
▁tani	-10.7367
▁iṣu	-10.7368
▁Ganduje	-10.7369
▁zazzau	-10.7369
▁ṣẹlẹ̀	-10.7369
mma	-10.7369
bonye	-10.737
▁congratulations	-10.7371
▁tẹ̀lé	-10.7372
▁jàre	-10.7373
▁zancen	-10.7373
▁د	-10.7374
▁lia	-10.7376
▁bose	-10.7381
lets	-10.7387
▁እናም	-10.7388
pá	-10.739
▁ቡድን	-10.7391
▁existe	-10.7391
▁jare	-10.7393
▁sad	-10.7394
▁seja	-10.7394
ــ	-10.7396
No	-10.7404
▁write	-10.741
▁የምን	-10.7411
▁አሳ	-10.7415
▁kimwe	-10.7417
▁بصحتك	-10.7419
▁amo	-10.7421
▁እስክንድር	-10.7421
ado	-10.7428
▁arziki	-10.7432
▁drag	-10.7435
▁goal	-10.744
aaaa	-10.7443
▁Ìyá	-10.7444
▁Em	-10.7446
▁cup	-10.7446
▁Wani	-10.7449
▁💪	-10.7451
▁card	-10.7453
▁naku	-10.7454
ላችሁ	-10.7457
olu	-10.7464
oko	-10.7466
▁bace	-10.7467
▁nnem	-10.7467
yè	-10.7467
▁Gba	-10.7471
▁logo	-10.7472
▁addinin	-10.7474
😆	-10.7476
▁መረጃ	-10.7478
▁ስን	-10.7481
▁tútù	-10.7485
▁3.	-10.7486
kunda	-10.7504
▁Uban	-10.7509
▁group	-10.751
▁لن	-10.7514
12	-10.7515
▁iro	-10.7517
▁ላ	-10.7519
bin	-10.7519
cada	-10.752
▁ይዞ	-10.752
▁drive	-10.7521
▁seeing	-10.7523
▁wob	-10.7525
sẹ̀	-10.7528
▁kufany	-10.7531
▁Bẹ́ẹ̀	-10.7532
▁ነጋ	-10.7532
▁Cristo	-10.7538
▁pouco	-10.7538
▁ija	-10.7538
▁musamman	-10.7539
▁ይችላል	-10.7539
▁የኛ	-10.7539
▁mteja	-10.754
▁Gaskia	-10.754
▁semana	-10.754
▁ńkọ́	-10.7541
▁lakini	-10.7543
▁wáyé	-10.7543
▁parece	-10.7545
▁níbẹ̀	-10.7545
▁hya	-10.7546
▁Abuja	-10.755
▁Ụmụ	-10.7553
▁🎵	-10.7554
▁ተብሎ	-10.7554
▁እሺ	-10.7556
▁pupo	-10.7557
isha	-10.7558
22	-10.7559
muna	-10.7561
▁16	-10.7562
▁pastor	-10.7566
▁blood	-10.7567
kuna	-10.757
▁rap	-10.7573
▁posting	-10.7577
▁watan	-10.7578
▁kokari	-10.7578
il	-10.7579
▁kọ́kọ́	-10.7579
▁bzaf	-10.7579
▁dela	-10.7581
▁style	-10.7586
ረው	-10.7586
😹	-10.7587
😁😁	-10.7598
▁Com	-10.7599
▁human	-10.7603
àwọn	-10.7604
▁فيك	-10.7612
▁🙂	-10.7613
▁agenda	-10.7615
▁kini	-10.7619
▁great	-10.762
agba	-10.7621
▁rir	-10.7625
enye	-10.7627
▁late	-10.7632
▁oyi	-10.7636
shaka	-10.7637
ቷ	-10.7638
▁kula	-10.7638
▁twi	-10.7644
Ka	-10.7646
Ma	-10.7647
▁kwuru	-10.7648
▁Nima	-10.7649
▁Bro	-10.7654
gire	-10.7657
▁aljanna	-10.7661
▁صح	-10.7664
▁biom	-10.7675
▁concern	-10.7677
▁asiri	-10.7681
ich	-10.7685
aye	-10.769
jẹ	-10.7695
▁area	-10.77
▁ኢትዮጵያውያን	-10.77
▁Alhamdulillah	-10.7705
▁point	-10.7705
▁eba	-10.771
nce	-10.7712
▁ukuri	-10.7712
▁war	-10.7714
banza	-10.7714
▁እጅ	-10.7718
ውጭ	-10.7719
ሞ	-10.772
▁hungry	-10.7726
▁quê	-10.7726
▁jọ̀wọ́	-10.7726
▁aquela	-10.7726
▁እነሱ	-10.7727
▁Kenan	-10.7729
ጉ	-10.7729
17	-10.773
▁alfarma	-10.7732
▁nyansa	-10.7733
▁:(	-10.7733
Be	-10.7733
▁momo	-10.7733
uma	-10.7734
▁Nínú	-10.7735
▁fake	-10.7736
▁Tunda	-10.7742
▁hivi	-10.7743
▁ኖሮ	-10.7743
▁riga	-10.7744
▁mkpa	-10.7746
▁የማ	-10.7746
▁الوطن	-10.7747
▁Muito	-10.7748
▁respect	-10.7748
🥰	-10.775
soma	-10.7751
vo	-10.7752
▁ብት	-10.7753
▁በተለይ	-10.7754
Ogun	-10.7756
menya	-10.7757
إلا	-10.7758
▁የነበረው	-10.776
▁daura	-10.776
▁Una	-10.7762
▁Obodo	-10.7765
▁pole	-10.777
▁ያው	-10.7771
▁Kun	-10.7772
▁saidai	-10.7774
▁nagari	-10.7775
Onye	-10.7777
▁🔥🔥🔥	-10.7784
eri	-10.7791
بقى	-10.7792
▁million	-10.7793
▁book	-10.7797
▁numa	-10.7801
▁qarya	-10.7803
▁kant	-10.7805
▁akwu	-10.7812
▁የመ	-10.7814
▁naki	-10.7815
▁፤	-10.7815
▁ሀ	-10.7817
▁ground	-10.7819
ị	-10.7822
=	-10.7827
▁Ita	-10.7834
▁zafi	-10.7837
▁wlhy	-10.7843
ooo	-10.7846
▁kubwa	-10.7847
▁Nem	-10.785
▁ስብሰባ	-10.7854
▁amara	-10.7855
▁Má	-10.7858
▁uwo	-10.786
▁hh	-10.7861
▁27	-10.7861
▁agwu	-10.7863
▁raji	-10.7867
yà	-10.7869
mai	-10.7877
▁fama	-10.7877
gye	-10.7878
▁kirki	-10.7881
ic	-10.7882
▁dada	-10.7884
▁nema	-10.7891
lè	-10.7893
ቲ	-10.7895
▁منها	-10.7897
▁ògún	-10.7906
ሪያ	-10.7907
hin	-10.7908
awa	-10.7912
ጣ	-10.7916
□	-10.7919
▁hadu	-10.7919
yorubawedding	-10.7919
▁trouble	-10.7919
▁Gozie	-10.7921
▁እያሉ	-10.7923
ፋ	-10.7923
▁fazem	-10.7923
▁sabuwa	-10.7924
▁ààrẹ	-10.7925
▁pm	-10.7926
▁Nijeria	-10.7926
▁njo	-10.7927
▁auren	-10.7928
▁Tab	-10.7931
▁everyday	-10.7936
😍😍	-10.7938
▁ṣiṣẹ́	-10.7947
▁ụwa	-10.7952
▁traffic	-10.7958
▁banga	-10.7962
▁amigos	-10.7966
▁One	-10.7968
▁hadik	-10.7969
▁ሺ	-10.797
▁But	-10.7971
▁ዋጋ	-10.7972
▁kudu	-10.7976
ሬ	-10.7978
▁Quem	-10.7979
nk	-10.7979
ሜ	-10.7979
ሽን	-10.7981
▁Kpo	-10.7983
▁cara	-10.7984
gbà	-10.7989
▁kura	-10.7991
▁means	-10.7993
▁fl	-10.7994
ار	-10.7995
▁كامل	-10.7997
▁مزال	-10.7997
▁El	-10.7999
▁ጥር	-10.8
▁matuka	-10.8
▁በማ	-10.8007
ando	-10.8008
yen	-10.8009
▁ክፉ	-10.8012
lha	-10.8016
bada	-10.8021
▁sanin	-10.8022
▁الع	-10.8028
ise	-10.8029
▁vamos	-10.803
▁እንዲሁ	-10.803
▁outra	-10.8034
▁She	-10.8036
▁Oni	-10.8041
እ	-10.8043
▁uki	-10.8049
▁lai	-10.8054
▁Otu	-10.8054
▁ruo	-10.8055
አዲስ	-10.8057
▁njye	-10.8057
▁pois	-10.8067
▁وزارة	-10.807
ogun	-10.8072
▁Igi	-10.8074
▁Mr	-10.8074
▁xai	-10.8078
في	-10.8084
▁Inna	-10.8086
▁abia	-10.8087
▁ምነው	-10.8091
kuru	-10.8092
ቻ	-10.8097
▁labarina	-10.8101
تهم	-10.8107
ele	-10.8111
▁falta	-10.8112
▁ማርያም	-10.8114
▁mélòó	-10.8114
▁awurade	-10.8115
▁uncle	-10.8115
ÁYÉ	-10.8115
ezi	-10.8116
▁Àmọ́	-10.8117
for	-10.8117
▁🥰😘	-10.8118
▁መካከል	-10.8119
▁Pole	-10.8119
▁ሴት	-10.8121
▁waste	-10.8122
▁eke	-10.8123
▁jihar	-10.8125
▁km	-10.8125
▁hanya	-10.8128
kam	-10.8129
danda	-10.813
▁ደህና	-10.8131
▁shame	-10.8132
▁ere	-10.8133
▁obì	-10.8135
▁ìbà	-10.8138
▁ጎ	-10.8142
▁shock	-10.8144
▁Sim	-10.8144
▁bora	-10.8144
▁siya	-10.8145
lk	-10.8145
▁🙄🙄🙄	-10.8152
▁queen	-10.8152
▁special	-10.8154
▁ሰዓት	-10.8155
▁wadaran	-10.8158
▁mugu	-10.8163
kh	-10.817
▁مرحبا	-10.8174
▁Ṣe	-10.8174
▁niyo	-10.8177
▁እስቲ	-10.8177
▁🤔🤔🤔	-10.8179
▁ዘር	-10.8179
▁line	-10.8182
ችሁን	-10.8182
▁Àwa	-10.8183
gama	-10.8186
▁Nabi	-10.8188
▁gado	-10.8189
رة	-10.8191
▁dana	-10.8193
ወጣ	-10.8197
▁photo	-10.8198
▁👑	-10.8203
▁went	-10.8207
eee	-10.8208
▁khti	-10.8216
▁yose	-10.8222
56	-10.8222
°	-10.8227
▁walo	-10.8227
▁eche	-10.8229
.#	-10.8235
sun	-10.8235
▁ayɛ	-10.8241
▁comer	-10.8245
▁tsoro	-10.8252
▁እንዳለ	-10.8254
▁Adam	-10.8256
foɔ	-10.8259
ታችን	-10.8261
▁jide	-10.8265
▁كت	-10.8267
▁Esta	-10.8268
▁ሙስሊም	-10.8268
▁😥	-10.8269
ام	-10.8277
owo	-10.8278
▁tho	-10.8281
▁saba	-10.8282
▁ogo	-10.8283
▁taka	-10.8285
▁bado	-10.8286
tana	-10.8287
▁ደስታ	-10.829
▁And	-10.8295
▁wedding	-10.8302
▁ካል	-10.8303
24	-10.8305
▁afia	-10.8305
▁clean	-10.831
▁àjà	-10.8311
▁kifurushi	-10.8315
▁vontade	-10.8315
▁Obrigado	-10.8315
▁ìṣẹ̀ṣe	-10.8315
▁kwirinda	-10.8315
▁comigo	-10.8315
▁علينا	-10.8316
▁usiku	-10.8317
▁Muhammad	-10.8319
▁smell	-10.8322
▁bɛ	-10.8322
▁راح	-10.8323
▁sórí	-10.8324
▁كبيرة	-10.8325
▁Ilẹ̀	-10.8327
▁dare	-10.833
Et	-10.8334
▁katsina	-10.8335
▁yourself	-10.8336
▁Èw	-10.8336
ima	-10.8339
▁kutumia	-10.8339
▁Bo	-10.8339
▁bayii	-10.834
▁hano	-10.8341
▁gbìyànjú	-10.8343
▁walakin	-10.8344
▁rak	-10.8348
▁thinking	-10.8348
▁kuto	-10.8349
▁baban	-10.835
iwa	-10.835
▁MA	-10.8351
▁الخير	-10.8352
▁የሆነው	-10.8355
fahamu	-10.836
▁appreciate	-10.836
▁àlà	-10.836
▁fati	-10.8361
▁series	-10.8361
▁iphone	-10.8363
ቁ	-10.8363
▁Uche	-10.8364
▁tà	-10.8371
تك	-10.8372
▁mechie	-10.8375
TA	-10.8378
res	-10.8378
▁የአ	-10.8379
▁akọ	-10.838
▁tuta	-10.8384
▁olú	-10.8386
🙏🏻	-10.8388
▁Kaduna	-10.839
▁uru	-10.8394
▁correct	-10.8394
▁eles	-10.8396
onye	-10.8398
▁àmì	-10.8403
▁Hakan	-10.8405
▁bite	-10.8409
▁Á	-10.841
▁hun	-10.8411
▁bawan	-10.8412
▁Zan	-10.8412
▁hbiba	-10.8415
▁gé	-10.8415
▁maida	-10.8415
▁aare	-10.8428
ayé	-10.8428
▁ohia	-10.8429
تها	-10.843
▁forma	-10.843
▁tace	-10.8431
▁ولد	-10.8432
▁😂😂😂😂😂😂😂	-10.8432
ẹni	-10.8435
▁shin	-10.8435
wọ́	-10.844
ኖች	-10.8445
▁haushi	-10.8447
pínlẹ̀	-10.8448
dem	-10.8461
ቄ	-10.8465
▁mataki	-10.8469
▁owe	-10.8474
▁ohh	-10.8478
▁ppl	-10.8478
▁mbona	-10.848
▁certo	-10.848
▁movie	-10.848
▁soyayya	-10.8485
mọ̀	-10.8487
▁sugar	-10.8489
▁shawara	-10.8496
▁cap	-10.8501
▁eeh	-10.8505
▁ajo	-10.8507
afadhali	-10.8511
▁كون	-10.8513
▁deixar	-10.8514
▁hankalin	-10.8514
wó	-10.8517
▁onitsha	-10.8519
▁ወቅት	-10.8519
limu	-10.8519
▁kedụ	-10.8519
▁stupid	-10.8519
▁بحال	-10.852
▁dịrị	-10.8521
▁بالله	-10.8521
▁seriously	-10.8522
▁craze	-10.8522
▁tsine	-10.8524
▁país	-10.8524
▁Toò	-10.8526
▁enquanto	-10.8529
lam	-10.8529
▁ምርጥ	-10.8531
don	-10.8534
▁ìbí	-10.8534
▁yaran	-10.8535
▁iwájú	-10.8536
▁Domin	-10.8537
▁الصحة	-10.854
▁alive	-10.854
▁rayuwar	-10.8544
▁Go	-10.8544
مجلس	-10.8545
▁عام	-10.8548
▁.....	-10.8549
▁Mungu	-10.8551
▁fee	-10.8552
▁camera	-10.8553
ọwọ́	-10.8555
▁جدا	-10.8556
▁mayb	-10.8557
aja	-10.8558
▁asante	-10.8563
▁السياسة	-10.8567
▁pensar	-10.8568
▁የአዲስ	-10.8571
▁mab	-10.8573
▁yangu	-10.858
▁2023	-10.8584
iz	-10.8585
▁ré	-10.8586
culture	-10.859
ful	-10.8591
Language	-10.8592
tun	-10.8593
▁ụzọ	-10.8595
▁nno	-10.8596
▁Vai	-10.8597
sai	-10.8599
ene	-10.8607
▁shes	-10.8608
▁ẹ́	-10.8608
ton	-10.8615
▁ebea	-10.8616
▁Who	-10.8617
▁pọ́n	-10.8622
▁dore	-10.8622
ፉት	-10.8623
▁kiss	-10.8627
▁Ngo	-10.8628
▁Ṣ	-10.8631
▁oye	-10.8631
▁አንቺ	-10.8633
▁pesa	-10.8636
ori	-10.8636
▁abana	-10.8638
▁kumva	-10.8639
dupe	-10.8646
▁unaweza	-10.8647
▁gate	-10.8649
et	-10.8657
but	-10.8657
🎶	-10.866
▁lówó	-10.8669
▁atiku	-10.8673
▁gyimii	-10.8682
▁اذا	-10.8683
▁😠	-10.8685
▁sanya	-10.8687
▁inji	-10.8688
▁Odi	-10.8689
▁Inda	-10.869
lmost	-10.8691
▁እድሜ	-10.8692
tion	-10.8702
▁وين	-10.8702
▁momento	-10.8704
toa	-10.8706
▁መጀመሪያ	-10.8707
tse	-10.8709
orí	-10.8713
bro	-10.8714
▁Ụ	-10.8714
▁yayan	-10.8715
▁lako	-10.8716
liya	-10.8718
▁2018	-10.8719
kumva	-10.872
▁wajan	-10.8721
▁balance	-10.8721
▁ጥቅም	-10.8721
▁yɜ	-10.8727
▁Kedụ	-10.8727
ajili	-10.8728
▁Tenho	-10.8728
▁Ekele	-10.8728
▁boyfriend	-10.8729
naweza	-10.8729
▁Fún	-10.8729
▁period	-10.8734
▁internet	-10.8734
▁ሙ	-10.8734
▁fuel	-10.8734
▁Ewé	-10.8735
▁الوطنية	-10.8735
mú	-10.8736
▁ጨዋታ	-10.8739
▁On	-10.8739
▁kwamba	-10.874
▁ህወሓት	-10.874
▁እርምጃ	-10.8745
▁ỌMỌ	-10.8748
▁pamoja	-10.8748
▁enwe	-10.8749
▁መሆኑ	-10.8751
▁watching	-10.8752
▁aos	-10.8752
▁Àti	-10.8754
ite	-10.8758
▁OLÚW	-10.8758
▁oòrùn	-10.8758
▁kwasia	-10.876
▁saira	-10.8762
▁gave	-10.8763
▁allow	-10.8766
af	-10.8766
▁ሚ	-10.8767
▁ÀWỌ	-10.8768
▁yeye	-10.8769
▁Trump	-10.8769
▁yesu	-10.877
▁dani	-10.8772
lụ	-10.8773
▁daku	-10.8774
▁🤨	-10.8774
▁መቼ	-10.8775
▁😅😅	-10.8775
▁conta	-10.8777
▁Ń	-10.8781
LI	-10.8782
▁idon	-10.8786
▁ያል	-10.8791
▁ራስ	-10.8791
▁ayélujára	-10.8791
▁ኧረ	-10.8793
▁òwò	-10.8803
▁ወር	-10.8804
▁wode	-10.8816
▁tashin	-10.8816
essas	-10.8816
sọ	-10.882
▁America	-10.8821
▁bag	-10.8824
▁loko	-10.8825
▁okpa	-10.8828
weka	-10.8833
wan	-10.8834
ojú	-10.8835
تمنى	-10.8839
▁Wan	-10.8842
▁PDP	-10.8842
▁zagi	-10.8843
▁yada	-10.8844
▁በየ	-10.8847
▁zina	-10.8848
🙈	-10.8851
obi	-10.8852
▁Ok	-10.8854
▁Ase	-10.8854
▁2021	-10.8857
▁hau	-10.8859
▁መልስ	-10.8861
dọ̀	-10.8865
▁haya	-10.8868
▁bwo	-10.887
▁maku	-10.8874
▁pai	-10.8876
Resurrection	-10.8877
▁حسب	-10.8882
▁viver	-10.8885
▁gbè	-10.8886
▁dauke	-10.8896
ibu	-10.8896
▁ተማሪ	-10.8898
▁bare	-10.89
rb	-10.89
▁Dar	-10.8901
iii	-10.8901
▁mau	-10.8902
▁bli	-10.8903
▁jiki	-10.8904
Orin	-10.8909
▁kaima	-10.8909
ء	-10.8912
▁Eko	-10.8913
kdi	-10.8915
ções	-10.8919
▁Thank	-10.8921
▁tinha	-10.8923
▁😀😀	-10.8926
▁دي	-10.8927
▁kitu	-10.8928
▁rwa	-10.8928
▁ሃ	-10.8932
▁By	-10.8933
tumia	-10.8934
▁😍😍😍	-10.8936
ck	-10.8939
▁talauci	-10.894
asoebi	-10.894
▁ሀይል	-10.8941
▁ለማለት	-10.8943
▁ordinar	-10.8944
▁knw	-10.8944
ụrụ	-10.8945
▁tsiya	-10.8947
▁Serikali	-10.8947
▁ṣíṣe	-10.8948
▁zasuyi	-10.8948
▁ekpere	-10.8949
yorubatv	-10.895
▁air	-10.8951
▁Mudai	-10.8953
ano	-10.8954
▁imbere	-10.8954
28	-10.8954
▁Gẹ̀ẹ́sì	-10.8959
▁lágbára	-10.8959
▁shegiya	-10.8959
▁jehovah	-10.896
▁الدين	-10.8964
▁Boko	-10.8964
Mo	-10.8965
▁شيء	-10.8965
▁ugbua	-10.8965
NI	-10.8966
▁marasa	-10.8969
▁جياحة	-10.8971
▁tausayi	-10.8972
▁general	-10.8972
jí	-10.8973
▁tabbas	-10.8974
▁iba	-10.8976
▁ekene	-10.8977
▁fọ́	-10.8978
dy	-10.8983
▁musa	-10.8984
▁Abba	-10.899
▁China	-10.8993
!?	-10.8994
▁rapu	-10.9001
▁werey	-10.9002
▁በል	-10.9004
ኢትዮጵያ	-10.9004
▁fach	-10.9005
▁አካል	-10.9006
▁ዘ	-10.9007
▁الحمد	-10.9007
▁huwa	-10.901
▁🥰	-10.9016
▁ọjọọ	-10.9016
▁koya	-10.9019
▁gbẹ	-10.9023
▁መከላከያ	-10.9024
▁shekaru	-10.9027
▁wakar	-10.9028
47	-10.9029
▁sala	-10.9029
▁13	-10.9033
▁han	-10.9033
▁cast	-10.9037
nyi	-10.904
▁nnam	-10.9046
▁በአማራ	-10.9047
▁kuva	-10.9049
▁cloth	-10.9063
ናት	-10.9066
▁ac	-10.9069
dos	-10.9072
sema	-10.9076
▁BA	-10.9079
of	-10.908
▁አታ	-10.908
▁kofi	-10.9084
▁ጥቃት	-10.9085
▁numva	-10.9089
▁taimaki	-10.9091
▁State	-10.9094
2020	-10.9095
TV	-10.9096
ሴ	-10.91
▁wangu	-10.9103
umu	-10.9103
fm	-10.9105
▁مغربي	-10.9108
▁pro	-10.9109
▁الصحرا	-10.9109
▁album	-10.9114
▁laa	-10.9114
ዋን	-10.9117
▁db	-10.9117
▁governor	-10.9118
ekwu	-10.9119
▁jagora	-10.9121
ፎ	-10.9121
▁ሳ	-10.9122
▁Saura	-10.9124
▁yaye	-10.9126
bura	-10.9127
shobora	-10.9136
▁ጉድ	-10.914
llah	-10.9144
▁Acho	-10.9144
▁lalace	-10.9148
▁Insha	-10.915
▁às	-10.9155
▁goyo	-10.9157
▁lay	-10.9157
▁بسباب	-10.9157
▁Ebube	-10.9157
▁living	-10.9158
▁kotoko	-10.9158
▁maghribi	-10.9158
▁ìlù	-10.9158
▁hair	-10.9164
▁lókè	-10.9164
▁mother	-10.9165
▁half	-10.9167
▁soft	-10.9168
▁س	-10.917
▁rọ	-10.9178
ውሸት	-10.9178
▁burgeni	-10.9178
▁kugira	-10.9179
▁maame	-10.918
ጡ	-10.9186
▁karibu	-10.9187
▁tears	-10.9188
ance	-10.9188
▁sentir	-10.9188
▁باتنة	-10.9189
▁mum	-10.919
▁Mmadu	-10.9192
اش	-10.9193
▁wale	-10.9195
▁ሃሳብ	-10.9201
▁Aunty	-10.9201
▁Abin	-10.9202
▁Este	-10.9208
ኤል	-10.921
tua	-10.9213
igwe	-10.9213
▁wanka	-10.9216
▁ولكن	-10.9216
▁ipa	-10.9216
▁wors	-10.9218
▁IN	-10.9223
ale	-10.9223
▁addini	-10.9224
▁ስለዚህ	-10.9228
tan	-10.9229
▁tẹ́lẹ̀	-10.923
zz	-10.923
▁????????	-10.9238
siri	-10.924
eh	-10.924
▁early	-10.9243
enda	-10.9245
ez	-10.925
▁With	-10.9256
▁Agba	-10.9258
▁fim	-10.926
▁agbo	-10.9261
▁ocha	-10.9264
br	-10.927
tura	-10.9271
▁🌚	-10.9275
▁aikata	-10.9275
▁tena	-10.9275
▁contra	-10.9281
🙂	-10.9281
▁kaza	-10.9284
▁4.	-10.9285
▁kola	-10.9288
▁Fi	-10.9288
ria	-10.9291
▁tinye	-10.9297
▁nashi	-10.9298
adhi	-10.93
ሥ	-10.9304
▁pu	-10.9305
▁እነዚህ	-10.9305
maze	-10.9306
▁gode	-10.9309
▁Ade	-10.9318
▁shida	-10.9328
▁Aga	-10.9328
▁fadin	-10.9329
▁orò	-10.9331
▁_	-10.9338
▁▶️	-10.9339
▁Chief	-10.9345
▁kejì	-10.9353
▁ነው፡፡	-10.9355
الله	-10.9357
nmu	-10.9358
rika	-10.9358
▁bater	-10.936
wò	-10.9362
▁vs	-10.9366
▁using	-10.9375
▁ẸGBẸ	-10.9375
▁sair	-10.9375
▁لو	-10.9375
ubwo	-10.9377
አለም	-10.9377
▁walahi	-10.9378
▁color	-10.938
▁Ikibazo	-10.9382
▁Anyị	-10.9382
▁للمغرب	-10.9382
▁Umva	-10.9382
▁lugar	-10.9382
▁utd	-10.9382
ته	-10.9382
▁☺️	-10.9382
▁nhyira	-10.9384
▁البلاد	-10.9384
▁claim	-10.9384
▁rajiun	-10.9385
▁ጀምሮ	-10.9386
▁nauyin	-10.9386
▁dunia	-10.9386
▁gimme	-10.9387
▁Nonese	-10.9387
▁boo	-10.9387
▁በጎ	-10.9388
▁kwuo	-10.9388
▁Irú	-10.9389
▁Mallam	-10.9395
▁♥	-10.9398
▁ìsinmi	-10.9398
▁mbo	-10.9399
▁eégún	-10.9403
▁ipò	-10.9403
▁maghribiya	-10.9404
▁kwanza	-10.9405
▁رجل	-10.9406
▁Há	-10.9407
▁gukora	-10.9407
▁umwanya	-10.941
▁zamuyi	-10.9411
▁غاضني	-10.9412
▁wengi	-10.9412
▁chill	-10.9413
▁ለዚህ	-10.9413
▁ak	-10.9415
ካ	-10.9416
▁eiii	-10.9417
oh	-10.9419
▁nù	-10.942
▁page	-10.9421
▁sit	-10.9421
ዕ	-10.9426
iyar	-10.9431
▁wutar	-10.9434
▁ጋ	-10.9434
▁àrùn	-10.9436
▁مرة	-10.9437
▁matsayin	-10.9438
▁nie	-10.9438
▁shikenan	-10.9439
▁luck	-10.9446
▁gbádùn	-10.9449
መድ	-10.9449
▁ibadan	-10.945
▁ሌባ	-10.945
mọ	-10.9451
kwara	-10.9451
▁ex	-10.9451
inna	-10.9451
▁wadda	-10.9451
zie	-10.9456
?🤔	-10.9458
▁loju	-10.9458
▁ይቅርታ	-10.9463
▁ouvir	-10.9464
▁iwu	-10.9464
▁ẹyin	-10.9467
▁rokon	-10.9467
▁ተራ	-10.947
00	-10.9471
▁WhatsApp	-10.9476
▁ẹ̀kọ́	-10.9476
▁desse	-10.9481
▁masifa	-10.9483
▁inyuma	-10.9486
▁af	-10.9489
▁😅😅😅	-10.9489
ور	-10.9489
amin	-10.9491
▁Oh	-10.9491
▁grow	-10.9493
sin	-10.9494
▁leas	-10.9499
ência	-10.9501
ጅ	-10.9504
▁Rashi	-10.9507
▁stand	-10.951
▁وما	-10.9511
▁wumva	-10.9512
▁dinki	-10.9514
▁እምነት	-10.9515
▁et	-10.9517
▁udi	-10.9525
▁dayawa	-10.9526
▁Aha	-10.953
ትምህርት	-10.9535
▁talakawan	-10.9535
🔥🔥	-10.9535
▁😳	-10.9536
ከው	-10.9537
▁china	-10.9537
▁ገ	-10.9538
▁ozi	-10.9542
▁gist	-10.9546
able	-10.9547
▁ale	-10.9548
ሃል	-10.955
▁ጠላት	-10.9554
▁ÀGB	-10.9554
▁እንኳ	-10.9556
▁Ọkwa	-10.9557
▁sún	-10.9557
ps	-10.9558
▁rabi	-10.956
▁babes	-10.9562
▁🤣😂	-10.9563
dì	-10.9566
▁mesma	-10.9567
▁vídeo	-10.9567
▁adam	-10.9567
▁música	-10.9568
fata	-10.9569
▁aiye	-10.9576
nki	-10.9582
lihom	-10.9583
ib	-10.9585
▁kema	-10.9586
▁ታላቅ	-10.9586
😕	-10.9588
▁አያ	-10.959
🤣😂	-10.9591
▁shinkafa	-10.9591
▁مثل	-10.9594
▁duro	-10.9595
▁ibẹ̀	-10.9596
▁ሃገር	-10.9596
▁ira	-10.9599
▁thought	-10.9599
rọ	-10.9599
ké	-10.96
▁Nígbà	-10.9605
▁december	-10.9607
Global	-10.9607
▁network	-10.9607
▁aju	-10.9607
▁outside	-10.9608
▁dike	-10.9609
▁cover	-10.9609
▁chief	-10.9609
من	-10.9609
😪	-10.961
▁ẹ̀wà	-10.9611
▁deixa	-10.9612
▁heat	-10.9613
▁العماري	-10.9614
▁madrid	-10.9614
▁sofrer	-10.9617
▁👇	-10.9618
▁mmoja	-10.9619
▁Oo	-10.9621
amman	-10.9621
▁tẹ̀	-10.9623
▁Ìdí	-10.9623
▁Mahmud	-10.9627
▁ህይወት	-10.9627
▁burúkú	-10.9627
▁Iṣẹ́	-10.9631
▁uk	-10.9635
▁trying	-10.9636
▁elimu	-10.9637
▁ṣẹ̀	-10.9638
das	-10.9639
▁bazamu	-10.9639
▁Ṣàngó	-10.964
▁YouTube	-10.964
▁Aare	-10.964
fẹ́	-10.9642
▁عندنا	-10.9643
▁gurin	-10.9645
▁Iby	-10.9645
nte	-10.9649
▁agbègbè	-10.9651
▁Translation	-10.9653
▁bacci	-10.9654
▁Dalu	-10.9655
▁pple	-10.9658
▁እናት	-10.9659
▁Mechi	-10.9666
▁bghina	-10.9666
▁Èdùmàrè	-10.9666
▁نهار	-10.9668
لو	-10.967
▁alert	-10.9671
هذا	-10.9676
▁manya	-10.9676
nin	-10.9677
▁ኮ	-10.9678
▁Liverpool	-10.9679
▁asusu	-10.9681
ብር	-10.9681
▁ebu	-10.9683
wani	-10.9683
kazi	-10.9686
▁balle	-10.9691
▁qasar	-10.9692
▁agbára	-10.9693
▁Aminu	-10.97
▁ብልጽግና	-10.9706
▁ውሸት	-10.9706
▁//	-10.9713
▁ogwu	-10.9715
▁كلام	-10.9722
▁bura	-10.9733
▁هادي	-10.9734
▁awu	-10.9736
▁allahu	-10.9737
▁shake	-10.974
🤔🤔🤔	-10.9744
▁saida	-10.9746
bla	-10.9749
▁fly	-10.9753
▁nari	-10.9756
♥️	-10.9756
Show	-10.9759
🇳🇬	-10.976
▁dr	-10.9763
ihe	-10.9763
ዎን	-10.9767
▁wace	-10.977
▁protest	-10.9772
uka	-10.9775
▁kaimu	-10.9777
RA	-10.9778
▁titi	-10.978
ሺ	-10.9785
فة	-10.9789
😅😅	-10.9793
‍	-10.9794
▁mugun	-10.9795
▁nufi	-10.9796
▁vc	-10.9801
▁yakai	-10.9804
▁ticket	-10.9804
▁laye	-10.9806
▁tabbata	-10.9806
hind	-10.9807
xa	-10.981
ô	-10.9811
ባል	-10.9812
▁Imo	-10.9815
all	-10.9817
▁ubuzima	-10.9817
hh	-10.9818
▁مبعد	-10.982
ገባ	-10.9823
ije	-10.9824
▁kwan	-10.9826
▁teach	-10.9828
▁el	-10.9832
▁nwayo	-10.9833
▁welu	-10.9837
🇳🇬🇹🇬🇧🇯🇧🇷🇨🇴🇨🇺🇬🇭🇨🇮	-10.9839
▁méjèèjì	-10.9839
IgboAmaka	-10.9839
▁usumbufu	-10.9839
▁Covid	-10.9839
▁lásán	-10.984
▁hospital	-10.984
▁ንግግር	-10.984
tek	-10.984
🤷	-10.9842
▁nkuzi	-10.9844
▁የሚባል	-10.9844
▁corpo	-10.9845
▁الوكيل	-10.9846
▁stream	-10.9847
▁Èdè	-10.9847
▁በአንድ	-10.9847
▁Barcelona	-10.9848
▁agbara	-10.9848
▁Cyane	-10.9848
▁بلادنا	-10.9848
▁የሌለው	-10.9851
▁ሚዲያ	-10.9853
▁ad	-10.9854
▁درهم	-10.9856
adda	-10.9857
▁football	-10.9858
ibi	-10.9858
▁begin	-10.9859
▁ìlà	-10.986
▁mẹ́rin	-10.986
▁novo	-10.9862
▁ìdílé	-10.9862
▁Ekene	-10.9863
▁kuce	-10.9863
▁méje	-10.9865
▁pele	-10.9869
▁agbe	-10.987
▁بعض	-10.9871
ኛል	-10.9875
▁low	-10.9876
▁سعد	-10.9877
▁poor	-10.9878
▁èso	-10.9878
▁kweli	-10.988
▁hail	-10.9883
wahi	-10.9887
▁entrar	-10.9887
ጥር	-10.9888
nne	-10.9889
▁tausaya	-10.989
▁sent	-10.9893
▁ጤና	-10.9893
▁ndigbo	-10.9899
▁100%	-10.99
▁nw	-10.99
▁تقرير	-10.99
▁እጅግ	-10.9901
▁ዓለም	-10.9901
▁Kan	-10.9902
▁meta	-10.9906
ቢ	-10.9908
▁ሀሳብ	-10.9908
▁nchi	-10.9909
▁ههه	-10.9909
▁ònìí	-10.9914
▁iyayen	-10.9918
▁እንደዚህ	-10.9918
▁ìyà	-10.9919
▁báwo	-10.992
ሻል	-10.9935
▁ubundi	-10.9936
▁zwin	-10.994
▁levar	-10.994
fite	-10.994
▁mate	-10.9941
▁ubwenge	-10.9941
▁sàn	-10.9946
isa	-10.9946
▁ig	-10.995
▁proverb	-10.9957
▁Baku	-10.9958
nci	-10.9963
▁fie	-10.9968
▁ero	-10.997
▁Awa	-10.9972
▁insult	-10.9978
▁መሰረት	-10.9987
▁Albarka	-10.9988
▁Kina	-10.9989
▁pack	-10.9991
▁zanyi	-10.9997
👈	-11
▁weeks	-11.0003
uru	-11.0003
▁gwamna	-11.0004
▁afite	-11.0008
▁🤲🤲🤲	-11.0018
cho	-11.002
2015	-11.002
▁azumi	-11.0023
nku	-11.0034
kum	-11.0035
▁oyè	-11.0045
Ife	-11.0046
▁motor	-11.0047
▁Kar	-11.0047
▁Ẹkú	-11.0048
▁local	-11.0048
▁doesn	-11.0049
tou	-11.0049
▁KO	-11.0051
AL	-11.0054
▁Cha	-11.0056
▁tata	-11.0064
▁fẹ	-11.0065
▁dj	-11.0065
▁رائع	-11.0068
▁ani	-11.0069
▁pá	-11.007
qi	-11.0071
▁pic	-11.0073
lla	-11.0074
▁amụ	-11.0074
▁mbalimbali	-11.0077
▁família	-11.0077
▁vifuru	-11.0077
▁primeiro	-11.0077
▁Ọ̀nà	-11.0078
▁التنمية	-11.0078
giving	-11.0081
▁ọgbọ́n	-11.0084
▁gịnị	-11.0085
مدينة	-11.0086
tha	-11.0086
▁fosse	-11.0087
rwa	-11.0091
▁querer	-11.0091
▁manage	-11.0092
وم	-11.0094
▁ليه	-11.0096
▁express	-11.0098
▁ọpọlọ	-11.0098
▁cruise	-11.0098
▁ድምፅ	-11.0098
▁marriage	-11.0099
▁òbí	-11.0099
▁leyin	-11.01
▁customers	-11.0104
▁mpaka	-11.0106
MA	-11.0109
▁Todo	-11.011
▁የስራ	-11.0112
▁kékeré	-11.0113
▁ደህንነት	-11.0113
ደ	-11.0113
▁law	-11.0117
▁raha	-11.0117
▁hmmmm	-11.0118
▁ነገሮች	-11.012
▁gyimi	-11.0121
ali	-11.0121
▁twe	-11.0122
▁hhhhhh	-11.0124
▁ክፍል	-11.013
▁parí	-11.0131
qa	-11.0133
À	-11.0136
▁ወጣት	-11.0139
▁ዐቢይ	-11.014
ቢያ	-11.0142
kobwa	-11.0142
▁jami	-11.0143
ola	-11.0145
▁fura	-11.0148
▁ẹyọ	-11.0148
nyuma	-11.015
▁karfi	-11.0158
andi	-11.0164
▁akoa	-11.0167
▁karewa	-11.0168
▁volta	-11.0176
▁ነሽ	-11.0176
▁Bari	-11.0179
▁Oruko	-11.0179
▁Ra	-11.0186
nyere	-11.0187
▁oto	-11.0187
▁hk	-11.0187
▁ሲሉ	-11.019
▁dash	-11.0197
▁amazi	-11.0198
▁arụ	-11.0198
▁kisa	-11.02
▁sata	-11.02
omi	-11.0203
▁علاه	-11.0209
▁mò	-11.0211
▁إل	-11.0214
▁ilimi	-11.0217
▁ida	-11.022
hhhhhhhhhhhhhhhh	-11.0221
▁kure	-11.0225
▁Ilu	-11.0225
وك	-11.0226
2012	-11.0227
▁park	-11.0229
▁بل	-11.0231
▁Ruwa	-11.0232
noria	-11.0232
▁5.	-11.0234
.""""	-11.0234
Sunday	-11.0235
bia	-11.0239
▁البام	-11.0245
▁wadan	-11.0249
▁maze	-11.0249
▁wahalar	-11.0249
▁kazo	-11.0249
▁apá	-11.0252
▁woho	-11.0252
▁dier	-11.0253
🤨	-11.0253
▁mota	-11.026
JI	-11.0263
▁trump	-11.0264
mmu	-11.0268
To	-11.0269
lagos	-11.0271
ate	-11.0275
ልህ	-11.0276
▁nisan	-11.0277
tuma	-11.0281
▁dalilin	-11.0285
🙄🙄🙄	-11.0286
ubu	-11.0286
▁ልማት	-11.0286
amma	-11.0289
▁nde	-11.029
▁mura	-11.0291
▁ge	-11.0292
▁Subhanallah	-11.0295
Oyo	-11.0299
▁ፊት	-11.03
▁بلد	-11.0305
▁cake	-11.0306
ሞት	-11.0308
▁both	-11.0309
▁nini	-11.0312
▁dí	-11.0313
▁የለውም	-11.0314
penda	-11.0317
▁يارب	-11.0319
▁هنا	-11.0319
▁sauke	-11.032
▁nàìjíríà	-11.0321
▁original	-11.0321
▁charge	-11.0323
eje	-11.0324
EdeYoruba	-11.0325
▁sókè	-11.0326
▁uzi	-11.0326
14	-11.0328
▁carro	-11.0329
▁cold	-11.0329
Np	-11.0329
▁credit	-11.0329
▁against	-11.0331
▁akpu	-11.0333
▁Ede	-11.0334
▁jan	-11.0334
▁Gusa	-11.0336
▁awka	-11.0336
😳	-11.0339
▁البرلمان	-11.0339
45	-11.034
▁adị	-11.034
▁maji	-11.0341
▁NÍ	-11.0341
▁جديد	-11.0342
▁»	-11.0342
▁Arsenal	-11.0343
▁truth	-11.0344
▁hapo	-11.0344
ugire	-11.0345
▁nyɛ	-11.0347
▁ọpẹ́	-11.0347
▁okan	-11.0348
▁disso	-11.0351
▁ifẹ̀	-11.0352
▁munga	-11.0354
▁oògùn	-11.0355
▁dì	-11.0356
▁ọ̀pẹ	-11.0356
▁iye	-11.0358
▁nome	-11.036
▁waiting	-11.0361
▁benshi	-11.0368
▁ድርጅት	-11.0371
▁nam	-11.0372
▁Congratulations	-11.0374
▁fel	-11.0377
bwo	-11.0379
▁hes	-11.0381
▁United	-11.0385
▁mercy	-11.0386
▁Thanks	-11.0387
DC	-11.0387
▁ፎቶ	-11.0387
▁bàjẹ́	-11.0391
▁ባይ	-11.0397
▁ụtụtụ	-11.0399
ssi	-11.04
አንተም	-11.0406
▁yalah	-11.0407
▁akbar	-11.041
▁Muri	-11.0411
gwa	-11.0412
▁mwana	-11.0412
nụ	-11.0414
▁matum	-11.0414
▁ṣọ́	-11.042
▁gwara	-11.0421
هما	-11.0421
▁jack	-11.0423
lia	-11.0425
▁fica	-11.0425
▁jirgi	-11.0426
✌	-11.0427
hhh	-11.0427
▁Jonathan	-11.0428
▁pha	-11.0431
▁ራሱ	-11.0433
AR	-11.044
ول	-11.0442
▁Ju	-11.0445
▁سنة	-11.0447
▁òde	-11.0448
▁ወጣቶች	-11.045
▁zwina	-11.0452
▁theres	-11.0457
🤷‍♂️	-11.0457
▁ኦነግ	-11.0457
▁waki	-11.0459
▁LA	-11.0461
ዋት	-11.0461
▁ድሮ	-11.0463
▁basi	-11.0465
▁ọ̀gá	-11.0469
▁dabi	-11.0472
▁kwara	-11.0473
▁dua	-11.0474
الة	-11.0474
▁حق	-11.0474
▁adé	-11.0478
byo	-11.0481
▁Moz	-11.0487
▁nama	-11.0489
تش	-11.0493
________________	-11.0495
▁afi	-11.0496
itwa	-11.0499
▁sup	-11.0506
يل	-11.0512
▁هل	-11.0515
ሀል	-11.0516
▁hell	-11.0517
▁dog	-11.052
Ni	-11.0521
▁kalla	-11.0523
▁ሁሉን	-11.0526
weza	-11.0526
▁thread	-11.0527
▁Karya	-11.0528
bà	-11.053
እናንተ	-11.054
umva	-11.0544
▁ms	-11.0545
▁snap	-11.0546
Na	-11.0547
▁Ká	-11.0548
▁vais	-11.0552
ik	-11.0552
ፌ	-11.0552
▁sunfi	-11.0553
ojo	-11.0553
▁biha	-11.0556
▁tou	-11.0556
gize	-11.0558
▁منهم	-11.0564
▁KU	-11.0565
▁esses	-11.0566
zama	-11.0569
▁Naija	-11.0569
▁wicked	-11.0571
0001	-11.0571
yobamoodua	-11.0571
▁abínibí	-11.0571
▁mensagem	-11.0571
▁thief	-11.0571
▁ጉዳዮች	-11.0571
▁qualquer	-11.0571
IbtissamTiskat	-11.0571
▁Taifa	-11.0572
▁በኩል	-11.0573
▁olódùmarè	-11.0574
▁ambayo	-11.0574
▁bayyana	-11.0575
▁hɔ	-11.0575
▁atari	-11.0575
▁beans	-11.0577
▁አለኝ	-11.0577
▁bà	-11.0578
▁با	-11.0579
▁በማድረግ	-11.058
▁فاس	-11.058
▁jeje	-11.058
▁meyasa	-11.0584
🔥🔥🔥	-11.0585
▁apenas	-11.0585
tin	-11.0586
▁busy	-11.0587
▁ojoo	-11.0589
▁ayẹyẹ	-11.0589
▁mayar	-11.0591
▁Então	-11.0593
▁hanci	-11.0595
▁ibintu	-11.0597
▁ahh	-11.0598
▁gente	-11.0598
▁በሚል	-11.0599
▁ijó	-11.0599
rem	-11.0601
▁kòkòrò	-11.0601
▁አይደለም።	-11.0601
▁queria	-11.0601
هده	-11.0605
▁Dore	-11.0606
▁algo	-11.0606
▁oburu	-11.0607
▁Bàbá	-11.0608
▁ladies	-11.0608
▁hhhhhhhh	-11.0608
▁grace	-11.0609
▁edumare	-11.0613
▁Ona	-11.0613
▁hahahaha	-11.0614
▁Yes	-11.0615
wai	-11.0615
▁دخل	-11.0617
▁kati	-11.0619
▁skin	-11.0628
ZI	-11.0631
▁فيهم	-11.0632
▁cuta	-11.0633
▁asɛm	-11.0634
▁اخطونا	-11.0637
▁قهوي	-11.0637
▁ntoma	-11.0638
jua	-11.0644
▁pupa	-11.0644
?'	-11.0645
▁kuanzi	-11.0647
RT	-11.0647
▁Jisi	-11.065
▁ɛn	-11.065
tch	-11.065
▁ከነ	-11.0651
▁gaa	-11.0652
▁ብላ	-11.0653
ላት	-11.0653
▁وت	-11.0654
▁leg	-11.0654
▁iku	-11.0654
▁oui	-11.0657
▁asara	-11.0658
▁niger	-11.0659
▁seun	-11.066
▁kuro	-11.0664
41	-11.0665
haka	-11.0666
57	-11.0667
▁shoe	-11.0668
▁Nnem	-11.0672
▁mbu	-11.0674
▁sau	-11.0677
▁غي	-11.0678
▁Yo	-11.068
lú	-11.0681
gbẹ́	-11.0681
🌚	-11.0685
ìmọ̀	-11.0692
▁imo	-11.0692
▁Li	-11.0693
bar	-11.0696
▁ganan	-11.0697
▁2015	-11.0698
▁أي	-11.0705
▁እርሱ	-11.0709
DA	-11.0711
😎😎	-11.0711
africa	-11.0712
▁ነበረ	-11.0712
ሩን	-11.0714
▁yawo	-11.0722
▁master	-11.0728
▁expect	-11.073
▁bio	-11.0731
▁yawe	-11.0733
▁daukar	-11.0736
▁🙏🏻	-11.0737
É	-11.0739
▁dakai	-11.0741
▁ochie	-11.0741
▁ቤተ	-11.0743
▁روحك	-11.0748
ወ	-11.0752
▁shirye	-11.0754
▁አባት	-11.0755
53	-11.0755
▁iskanci	-11.0756
komeza	-11.0756
DO	-11.0761
▁✅	-11.0765
ok	-11.0766
▁🎤	-11.0768
▁6.	-11.0768
▁wèrè	-11.077
▁fact	-11.0771
▁kokarin	-11.0778
eji	-11.0779
▁በደን	-11.0784
km	-11.0786
▁ከመ	-11.079
▁tsari	-11.0791
▁ben	-11.0792
nigerians	-11.0793
hari	-11.0793
▁lmaghrib	-11.0794
Naija	-11.0794
▁✊	-11.0796
cc	-11.0801
▁አድርጎ	-11.0806
►	-11.0808
▁course	-11.0809
▁imi	-11.0809
▁Baki	-11.0814
▁yarinya	-11.0814
25	-11.0815
علابالي	-11.0815
▁بها	-11.0816
ZO	-11.082
🙏🏽	-11.0821
▁እድል	-11.0825
ns	-11.0825
▁afe	-11.0827
}	-11.0828
▁little	-11.0828
▁والتنمية	-11.0828
▁فالمغرب	-11.0828
▁rubuta	-11.0828
▁ụdị	-11.0828
▁ሊሆን	-11.0828
▁wanawake	-11.0829
▁attack	-11.0829
▁ntị	-11.0829
yọ̀	-11.083
▁dìde	-11.083
▁gazie	-11.0831
▁rọra	-11.0834
▁ዩኒቨርሲቲ	-11.0834
▁{	-11.0836
▁Madrid	-11.0836
▁mwese	-11.0836
▁አንተን	-11.0837
▁Ìlú	-11.0837
ɔ	-11.0838
▁pieces	-11.0838
TwitterCommunity	-11.084
▁daadaa	-11.0842
▁health	-11.0843
Quotes	-11.0843
👇	-11.0843
▁በሚ	-11.0843
iri	-11.0844
▁Abinda	-11.0845
▁bido	-11.0845
▁Sana	-11.0846
▁sars	-11.0846
▁crying	-11.0846
▁17	-11.0848
▁kɔ	-11.0848
▁Facebook	-11.085
▁ìgbàlódé	-11.085
▁Ìjẹ̀bú	-11.085
▁owerri	-11.0852
▁mugani	-11.0852
▁òyìnbó	-11.0852
▁Siku	-11.0853
▁pon	-11.0853
▁goma	-11.0853
15	-11.0855
▁FM	-11.0856
▁treat	-11.0856
▁wahed	-11.0857
ṣù	-11.0858
▁የመንግስት	-11.0859
اد	-11.0862
▁abroad	-11.0865
▁Vamos	-11.0867
▁City	-11.0867
▁darajar	-11.0867
▁igbá	-11.087
▁اش	-11.087
▁blessed	-11.087
▁—	-11.0872
▁Kaga	-11.0872
▁sharrin	-11.0873
yìn	-11.0882
ኝነት	-11.0882
▁❤	-11.0882
▁mambo	-11.0882
▁🙏🏽	-11.0882
▁Ori	-11.0883
▁قضية	-11.0885
▁That	-11.0886
▁mọ́lẹ̀	-11.0889
ùn	-11.089
▁غ	-11.089
▁ope	-11.089
▁niyen	-11.0894
kẹ́	-11.0896
▁አና	-11.0898
▁shot	-11.09
2022	-11.0905
▁Du	-11.0907
”..	-11.0907
▁fast	-11.0908
‍️‍️	-11.0908
▁شحال	-11.0909
▁ham	-11.0909
▁ìlera	-11.0909
🏃	-11.0912
▁nine	-11.0914
asụsụ	-11.0917
▁kumasi	-11.0919
▁age	-11.092
▁zako	-11.0926
▁bafite	-11.0929
▁yàn	-11.093
sia	-11.0933
▁aminu	-11.0934
▁kishin	-11.0938
▁KA	-11.094
▁Egbe	-11.094
nshi	-11.0942
▁ansa	-11.0947
▁fish	-11.0951
ሲ	-11.0952
▁pot	-11.0957
iṣẹ́	-11.0957
▁Amman	-11.0958
▁nibi	-11.0959
▁يت	-11.0963
▁antes	-11.0963
▁daki	-11.0963
▁😍😍	-11.0964
▁mutan	-11.0966
21	-11.0972
one	-11.0974
▁turawa	-11.0975
fun	-11.0976
▁aw	-11.0976
▁ifá	-11.0977
▁yam	-11.0977
▁beer	-11.098
SO	-11.098
▁touch	-11.0985
▁ክርስቶስ	-11.0985
ọjọ́	-11.0986
eze	-11.0988
▁nara	-11.0989
▁cross	-11.0989
▁duniyar	-11.0991
kurasa	-11.0998
▁ca	-11.1
▁pk	-11.1001
▁kanku	-11.1002
▁اما	-11.1002
▁وم	-11.1002
▁gihe	-11.1004
▁record	-11.1005
▁ومن	-11.1006
▁praise	-11.1006
▁ère	-11.1007
▁kamu	-11.1009
king	-11.101
▁ሕ	-11.1012
▁አለም	-11.1013
bata	-11.1019
▁sara	-11.1027
likuwa	-11.1028
▁tsoho	-11.1033
reba	-11.1034
▁500	-11.1035
xi	-11.1038
▁olówó	-11.1041
likom	-11.1041
▁ọlọ́	-11.1042
▁eso	-11.1046
▁kishi	-11.1047
▁koni	-11.1051
cu	-11.1052
▁idiot	-11.1054
iza	-11.106
ukwu	-11.1061
يه	-11.1061
kara	-11.1065
▁mani	-11.1066
Cg	-11.1074
▁Ou	-11.1075
☺️	-11.1082
▁curse	-11.1083
bughi	-11.1085
▁አደረሳችሁ	-11.1086
▁ጥ	-11.1087
yobozi	-11.109
▁Director	-11.1091
▁dream	-11.1091
▁ìwádìí	-11.1091
▁😋	-11.1092
▁chorar	-11.1094
ekaaaro	-11.1094
▁nnewi	-11.1094
▁ሁላ	-11.1096
▁Àbí	-11.1096
▁korona	-11.1098
ችንን	-11.11
▁ahịa	-11.11
▁ግንባር	-11.11
▁Karibu	-11.11
▁karanta	-11.11
▁ሲባል	-11.1101
😁😁😁	-11.1102
▁yahoo	-11.1103
dogo	-11.1104
▁عندها	-11.1104
▁ìkà	-11.1104
gira	-11.1104
▁amiga	-11.1106
▁taking	-11.1106
▁worth	-11.1107
▁ህመም	-11.111
▁Onwe	-11.1112
▁ቋንቋ	-11.1114
▁watoto	-11.1118
▁ሚሊዮ	-11.1118
▁ከፍ	-11.1118
▁juo	-11.112
▁negodu	-11.112
▁nsa	-11.1122
▁📌	-11.1122
▁yeah	-11.1124
unua	-11.1124
▁Agozi	-11.1128
▁كيفاش	-11.1129
▁Messi	-11.1129
▁mazi	-11.113
▁كما	-11.1132
▁teacher	-11.1134
39	-11.1134
▁gosto	-11.1136
▁አለው	-11.1139
▁فيديو	-11.114
ife	-11.1142
▁Ibadan	-11.1143
▁nubwo	-11.1144
▁òwúrọ̀	-11.1144
▁زكارة	-11.1145
▁hhhhhhh	-11.1145
▁òfin	-11.1145
▁ምናምን	-11.1145
▁cenas	-11.1148
▁kubona	-11.1153
▁رجال	-11.1155
▁ihu	-11.1156
▁mli	-11.1159
▁ሥራ	-11.116
Wa	-11.116
▁dry	-11.116
▁ንብረት	-11.116
▁علي	-11.1164
▁wacce	-11.1164
ọkwa	-11.1166
uyu	-11.1169
▁ńnú	-11.117
▁mgn	-11.1171
ችው	-11.1171
▁አማርኛ	-11.1175
gbeni	-11.1178
adura	-11.1179
▁isar	-11.1179
▁kureba	-11.1179
▁سن	-11.1179
▁🔥🔥	-11.118
▁tuni	-11.1181
▁jina	-11.1186
ታይ	-11.1193
▁Co	-11.1195
lm	-11.1195
tor	-11.1197
ز	-11.1203
▁ዳር	-11.1204
▁ሲያ	-11.1205
انا	-11.1208
▁ملكنا	-11.1209
▁Ọya	-11.1212
nze	-11.1217
▁kwarai	-11.1217
baze	-11.1223
▁wese	-11.1223
▁chegar	-11.1224
▁لكم	-11.1225
▁voltar	-11.1227
stão	-11.1229
▁otito	-11.1231
▁ሰይጣን	-11.1231
صوت	-11.1232
jibu	-11.1235
▁mallam	-11.1237
▁bayar	-11.1237
▁ችግሩ	-11.1238
▁Masu	-11.1238
▁npe	-11.1239
▁እንግዲህ	-11.124
▁Hali	-11.124
line	-11.1245
rk	-11.1246
▁አንድነት	-11.1246
ther	-11.1247
▁hili	-11.1258
▁kanka	-11.1259
▁mechi	-11.1262
shop	-11.1264
▁st	-11.1265
▁Akwa	-11.1266
alu	-11.1267
▁hwa	-11.1278
dùn	-11.128
ary	-11.1282
▁አብሮ	-11.1283
▁each	-11.1284
▁tear	-11.1285
▁beeni	-11.1286
جهة	-11.1291
▁abẹ́	-11.1294
▁dyalo	-11.1295
▁2022	-11.1297
▁zao	-11.13
▁hela	-11.1302
▁🤲🤲	-11.1306
▁nidai	-11.1314
▁mubi	-11.1314
18	-11.1315
👀	-11.1315
▁🎼	-11.1315
tta	-11.1316
ለያዩ	-11.132
▁trabalho	-11.132
iyya	-11.1321
Praise	-11.1322
▁coz	-11.1323
▁minute	-11.1323
▁Irin	-11.1326
▁àwọ̀	-11.1327
▁kwi	-11.133
▁visit	-11.1331
▁dom	-11.1332
كون	-11.1336
▁See	-11.1336
era	-11.1341
▁count	-11.1344
▁ውሃ	-11.1346
▁rin	-11.1349
▁ብሄር	-11.1349
▁dessa	-11.135
▁hakane	-11.1351
▁shule	-11.1354
بة	-11.1358
ሶ	-11.1358
▁triste	-11.136
BokoHaram	-11.1361
ጌ	-11.1361
▁together	-11.1361
▁bastard	-11.1361
▁ìdàgbàsókè	-11.1361
▁gwụrụ	-11.1361
▁Òjò	-11.1361
▁فالمية	-11.1362
▁remove	-11.1362
▁èkó	-11.1362
▁የበለጠ	-11.1363
▁Tun	-11.1364
▁:-)	-11.1364
▁become	-11.1364
▁anytime	-11.1364
▁povo	-11.1365
ǹ	-11.1365
▁devia	-11.1365
▁ndugu	-11.1365
▁bottle	-11.1366
▁wengine	-11.1366
▁Dole	-11.1366
2018	-11.1366
ለን	-11.1367
▁Ndu	-11.1368
▁taci	-11.1368
▁else	-11.1369
▁ቆንጆ	-11.137
▁ዩኒቨርስቲ	-11.137
▁Hmmmm	-11.1372
▁dormir	-11.1374
▁mental	-11.1376
▁comprar	-11.1377
▁Ikon	-11.1379
70	-11.1382
▁hudu	-11.1383
bọ̀	-11.1383
▁Hhhh	-11.1383
▁sẹ́yìn	-11.1383
▁zaba	-11.1384
😇	-11.1384
▁الغاشي	-11.1385
▁ramadan	-11.1385
▁happened	-11.1387
▁የለም።	-11.1389
anga	-11.1391
▁lara	-11.1392
▁talakan	-11.1393
▁abbl	-11.1394
ban	-11.1395
▁ima	-11.1396
▁otutu	-11.1396
▁Òwe	-11.1396
▁test	-11.1397
ika	-11.1397
▁kere	-11.1399
▁haske	-11.1399
▁31	-11.1402
usi	-11.1403
13	-11.1406
uu	-11.1407
▁addua	-11.1407
▁Cap	-11.1408
▁kuvuga	-11.141
60	-11.1411
▁soja	-11.1411
▁ጋዜጠኛ	-11.1411
😞	-11.1413
jye	-11.1413
▁moto	-11.1414
▁የውጭ	-11.1416
▁zango	-11.1416
▁jawo	-11.1417
mas	-11.1418
▁ìró	-11.1421
car	-11.1422
▁አዲሱ	-11.1425
▁obìrin	-11.1426
▁ሌላው	-11.1429
rah	-11.1429
▁Inú	-11.143
▁bayin	-11.1431
▁nyingi	-11.1432
▁Ọ̀ṣun	-11.1432
▁Ojo	-11.1434
▁anụ	-11.1435
▁تقول	-11.1436
uta	-11.1437
▁✔️	-11.1438
▁biaa	-11.144
▁ክቡር	-11.1444
▁hausawa	-11.1447
▁anambra	-11.1448
▁abụ	-11.1452
😣	-11.1454
▁wah	-11.1455
▁yu	-11.1458
▁anam	-11.146
▁ትግሬ	-11.1463
▁huo	-11.1463
▁síi	-11.1464
▁puto	-11.1465
▁Zamu	-11.1466
▁sukeyi	-11.1466
▁agye	-11.1469
▁lihom	-11.1469
▁All	-11.147
طة	-11.1473
▁ولاية	-11.1473
▁nwelu	-11.1475
ፉ	-11.1476
▁قوة	-11.1476
gbuo	-11.1476
▁kukan	-11.1478
▁tume	-11.1479
onu	-11.148
tari	-11.1483
▁munsan	-11.1487
▁sílé	-11.1488
▁knows	-11.149
▁Quer	-11.1495
▁Afrika	-11.1496
oli	-11.15
▁billion	-11.1501
▁gyai	-11.1503
kwu	-11.1505
love	-11.1506
▁ወሎ	-11.1507
komeze	-11.1508
▁Is	-11.1511
UN	-11.1511
▁yasaka	-11.1517
▁ẹ̀yìn	-11.1518
▁client	-11.1519
▁buga	-11.152
▁lee	-11.1521
▁Wọ	-11.1522
▁በምን	-11.1525
▁muhimu	-11.1527
▁júbà	-11.1528
?""""""""	-11.1531
▁azụ	-11.1533
▁melu	-11.1535
rà	-11.1536
qu	-11.1539
▁madu	-11.1541
▁mwe	-11.1543
▁abandi	-11.1545
▁efe	-11.1546
ago	-11.1547
▁kwallo	-11.1548
▁oooooo	-11.1553
▁عبد	-11.1561
ngozi	-11.1562
▁karawa	-11.1566
▁goat	-11.1568
▁lamarin	-11.157
▁afụ	-11.158
ص	-11.158
▁damar	-11.1582
በትን	-11.1585
ፕ	-11.1587
ane	-11.1587
▁الحال	-11.1588
عة	-11.1588
▁wiki	-11.1592
▁juu	-11.1594
▁😑	-11.1594
▁meji	-11.1596
▁kala	-11.16
▁karka	-11.1601
jọ́	-11.1601
▁magani	-11.1602
▁grand	-11.1607
▁gudun	-11.1614
▁ogbe	-11.1616
▁Ndewo	-11.1619
▁smoke	-11.1625
▁kuki	-11.1629
▁ግ	-11.1634
▁ይገባል	-11.1635
▁clear	-11.1636
▁complete	-11.1636
ẹ́gẹ́	-11.1637
▁Bayan	-11.1638
ቀፍ	-11.1638
ε	-11.1639
▁ففاس	-11.1639
pọ̀lọpọ̀	-11.1639
▁yansh	-11.1639
▁وش	-11.164
▁mmụọ	-11.164
▁Ubundi	-11.164
▁mẹ́wàá	-11.1641
▁ዜጎች	-11.1641
▁àrà	-11.1642
▁Awka	-11.1642
▁ውድ	-11.1642
▁morte	-11.1642
▁lọ́lá	-11.1643
▁khas	-11.1643
▁draw	-11.1644
ንና	-11.1644
yorubaculture	-11.1644
arfa	-11.1644
ngu	-11.1644
▁fault	-11.1649
▁zote	-11.1649
▁الداخلية	-11.165
▁ńbẹ	-11.165
▁fili	-11.1653
▁ነዉ።	-11.1659
▁For	-11.166
▁oríkì	-11.1662
▁ሰልፍ	-11.1663
ፍት	-11.1663
▁liverpool	-11.1664
▁ትክክል	-11.1664
▁christmas	-11.1664
▁ድንጋይ	-11.1664
▁$	-11.1664
CH	-11.1664
▁azi	-11.1665
▁irọ́	-11.1665
olo	-11.1667
lọ	-11.1668
wannan	-11.167
ኒ	-11.1671
▁bayani	-11.1672
▁ehhh	-11.1672
bara	-11.1673
▁hilo	-11.1674
▁br	-11.1675
▁prayer	-11.1676
▁hakkin	-11.1678
▁Won	-11.1679
▁Haram	-11.168
▁bẹ̀	-11.168
▁oyinbo	-11.168
▁majalisa	-11.168
▁Barka	-11.1682
▁òhun	-11.1682
▁entre	-11.1684
▁few	-11.1685
▁heard	-11.1686
bl	-11.1687
ìn	-11.1687
▁yaqara	-11.1688
▁اكبر	-11.1689
▁فرنسا	-11.1694
▁Nifa	-11.1694
ቸውን	-11.1695
▁ሙስሊሞች	-11.1696
▁لازم	-11.1698
▁Ela	-11.17
▁ami	-11.1702
▁laila	-11.1707
▁huku	-11.1708
Mu	-11.171
▁John	-11.1712
God	-11.1712
▁እሱን	-11.1715
raf	-11.1719
▁mb	-11.1721
▁niko	-11.1723
▁aago	-11.173
▁😪	-11.173
▁cool	-11.1732
▁such	-11.1735
▁نفس	-11.1737
▁mutunci	-11.1741
▁saad	-11.1742
▁نريد	-11.1744
bal	-11.1744
▁ẹgbẹ̀rún	-11.1745
▁ẹyẹlé	-11.1746
▁aci	-11.1747
ntumi	-11.1749
▁outras	-11.175
▁ibo	-11.1753
hausa	-11.1755
▁dín	-11.1762
ح	-11.1764
▁kera	-11.1766
tíì	-11.1766
▁ilà	-11.1768
ihi	-11.1772
▁gukoresh	-11.1774
▁Agu	-11.1777
وها	-11.1777
▁enugu	-11.1779
lum	-11.178
oke	-11.1788
▁ስል	-11.1788
Da	-11.179
▁puta	-11.179
ràn	-11.1791
▁instagram	-11.1794
▁public	-11.1796
▁chno	-11.1798
ọ̀rọ̀	-11.18
▁wanjye	-11.1802
ሆን	-11.1804
▁serve	-11.1808
ጦ	-11.1814
▁sisi	-11.1816
kon	-11.182
der	-11.1821
______________	-11.1826
ዛ	-11.1827
▁ያሉት	-11.1827
▁Ab	-11.1831
▁bukwa	-11.1834
SI	-11.1835
mb	-11.1836
▁ሆ	-11.1837
ahu	-11.1837
bb	-11.1838
ዳት	-11.1839
gbé	-11.1845
▁وقت	-11.1849
▁Va	-11.1849
zia	-11.1852
▁ú	-11.1853
▁نعم	-11.1854
ato	-11.1856
▁Iki	-11.1857
ጃ	-11.1858
😑	-11.1864
▁tọ̀	-11.1871
kata	-11.1875
shauri	-11.1875
ede	-11.1876
▁presente	-11.1879
▁يرحم	-11.1881
▁fiz	-11.1885
ES	-11.1885
▁አዎ	-11.1886
▁ሆነው	-11.1886
▁gare	-11.1887
sanga	-11.1888
▁Oke	-11.1891
▁erin	-11.1892
▁ዋና	-11.1893
Ethiopia	-11.1897
Do	-11.1899
▁አፍ	-11.1902
▁wnn	-11.1905
▁የህዝብ	-11.1909
▁bulu	-11.191
▁zance	-11.191
▁jump	-11.191
ዳር	-11.1911
▁muhammad	-11.1911
▁sound	-11.1914
▁palm	-11.1918
▁might	-11.1918
▁quick	-11.1922
▁tori	-11.1923
▁razão	-11.1925
nigerianwedding	-11.1925
▁àtàtà	-11.1925
▁እስካሁን	-11.1925
▁rẹpẹtẹ	-11.1925
▁تبارك	-11.1925
▁welcom	-11.1925
▁Dodoma	-11.1925
▁Agora	-11.1926
▁Hajiya	-11.1926
▁gbangba	-11.1926
▁água	-11.1926
▁mahmud	-11.1926
▁ẹgbẹ	-11.1927
▁Laila	-11.1927
▁mulheres	-11.1928
▁رب	-11.193
▁miji	-11.1931
▁hanze	-11.1931
▁pity	-11.1932
▁Aqui	-11.1932
▁ዘረኛ	-11.1932
▁Vou	-11.1933
▁Lu	-11.1933
▁Nuko	-11.1933
▁kitchen	-11.1934
▁Òrìṣà	-11.1934
▁ድንቅ	-11.1935
▁querem	-11.1935
▁bnt	-11.1936
▁mudace	-11.1937
▁loud	-11.1941
▁ይቅር	-11.1941
GB	-11.1942
▁የሚሉት	-11.1942
▁cell	-11.1943
lin	-11.1945
▁harkar	-11.1945
▁lafia	-11.1946
▁Pls	-11.1946
▁wallah	-11.1947
▁iyán	-11.1948
▁airtime	-11.1949
▁ọ̀gẹ̀dẹ̀	-11.195
▁hashtag	-11.195
▁Ògùn	-11.195
▁Real	-11.1953
▁Bó	-11.1955
▁choke	-11.1955
▁neste	-11.1957
“	-11.1959
having	-11.1962
▁ẹbọ	-11.1962
▁jahar	-11.1964
▁amahirwe	-11.1964
▁stage	-11.1965
▁hakura	-11.1965
▁ቀላል	-11.1966
▁Umunsi	-11.1968
▁Fatan	-11.1973
▁kima	-11.1975
▁Niger	-11.1976
▁muba	-11.1976
▁oil	-11.1976
▁délé	-11.1977
▁ዛሬም	-11.1984
▁hejuru	-11.1984
▁round	-11.1986
▁Nwata	-11.1987
▁صباح	-11.1991
funzi	-11.1994
መጣ	-11.1995
▁alaye	-11.1998
▁fat	-11.1999
▁ምንድነው	-11.2
▁mano	-11.2005
▁taste	-11.2006
▁baghin	-11.2007
▁meter	-11.2008
▁Nice	-11.2008
▁شوف	-11.2008
rọ̀	-11.201
▁ለውጥ	-11.201
▁favor	-11.2012
▁zin	-11.2013
▁ያለበት	-11.2014
▁rèé	-11.2017
▁Am	-11.2017
▁Dkt	-11.2017
▁smh	-11.2021
ble	-11.2023
▁walah	-11.2024
Bi	-11.2025
▁receive	-11.2028
▁Jama	-11.2029
▁kh	-11.2029
▁Vocês	-11.2031
▁karyar	-11.2036
▁Akan	-11.204
▁sami	-11.2043
▁translation	-11.205
▁yini	-11.2051
▁Uri	-11.2052
tò	-11.2053
▁Tou	-11.2058
iwe	-11.2061
▁انه	-11.2062
nwu	-11.2064
bane	-11.2069
puta	-11.2071
▁'#	-11.2071
▁جميع	-11.2072
mata	-11.2072
▁عندي	-11.2076
دعم	-11.2081
▁rà	-11.2086
▁Iwe	-11.2088
▁شفت	-11.209
ubuzima	-11.209
abi	-11.209
▁Let	-11.209
▁hasi	-11.209
▁kutuma	-11.2094
▁😜	-11.2096
▁kashi	-11.2099
▁hands	-11.2101
▁Fara	-11.2108
IN	-11.2113
idade	-11.2115
▁ትውልድ	-11.2116
▁mutuncin	-11.2121
▁ìyáa	-11.2123
ج	-11.2123
muntu	-11.2123
jọ	-11.2124
▁kk	-11.2128
ቦ	-11.2131
▁به	-11.2131
እኛ	-11.2133
▁yabo	-11.2135
▁gafara	-11.2136
▁Dia	-11.2137
80	-11.2138
iyi	-11.2138
ili	-11.2139
▁وأ	-11.2141
▁بكل	-11.2142
▁podem	-11.2142
dha	-11.2142
🤲🤲	-11.2145
▁ليك	-11.2146
▁ìṣẹ́	-11.2152
▁29	-11.2153
▁uso	-11.2155
▁oshi	-11.2155
▁kinga	-11.2156
😂😂😂😂😂😂😂😂😂😂😂😂😂😂😂😂	-11.2157
ወጡ	-11.2158
▁sharri	-11.2159
ያን	-11.216
▁adú	-11.2161
▁tkon	-11.2162
▁lado	-11.2163
▁ìgb	-11.2169
▁jini	-11.217
▁👏👏👏	-11.217
▁ǹkan	-11.2172
iro	-11.2172
▁summa	-11.2173
▁zagin	-11.2177
▁bonito	-11.2179
bel	-11.218
ኦ	-11.2181
riya	-11.2182
▁merda	-11.2186
ኞች	-11.2187
bú	-11.2188
▁yrs	-11.2191
▁New	-11.2192
dio	-11.2193
ህል	-11.2193
▁flex	-11.2195
▁aciki	-11.2196
afak	-11.2197
▁ትግል	-11.2209
▁aligo	-11.2211
órí	-11.2212
95	-11.2213
▁mna	-11.2214
▁result	-11.2215
▁hype	-11.2216
▁መጣ	-11.2216
dia	-11.2217
▁️️	-11.2217
55	-11.2218
NoMore	-11.2219
▁Alkhairi	-11.2219
▁coração	-11.2219
▁ìsàlẹ̀	-11.2219
99	-11.2219
oduduwa	-11.2219
▁mummuna	-11.2219
▁cabelo	-11.222
▁عاجل	-11.222
▁inferno	-11.222
▁القناة	-11.2221
▁mpya	-11.2221
TI	-11.2222
▁ronaldo	-11.2223
▁sulhu	-11.2223
▁Sallah	-11.2226
EdeAbinibi	-11.2226
▁clothes	-11.2226
▁lillahi	-11.2227
▁grupo	-11.2228
▁location	-11.2229
▁mmanya	-11.2229
▁ተቋማት	-11.2229
▁ጀበል	-11.2229
▁Ìjọba	-11.223
▁ሊያ	-11.2232
▁lọ́la	-11.2232
▁wù	-11.2233
▁dress	-11.2233
▁spend	-11.2239
▁alguns	-11.224
▁‍️‍️	-11.224
▁komi	-11.224
▁العامة	-11.2242
▁የሰላም	-11.2242
MU	-11.2243
▁አስተዳደር	-11.2245
▁مغاربة	-11.2245
▁létí	-11.2245
▁onyame	-11.2245
▁ìròyìn	-11.2246
▁girlfriend	-11.2247
▁baghi	-11.2249
▁ልዩነት	-11.2249
▁gaya	-11.225
▁Basu	-11.2251
▁እንድ	-11.2251
▁mohim	-11.2251
▁fala	-11.2254
▁እዛ	-11.2254
▁uns	-11.2255
▁jisie	-11.2257
▁asị	-11.2259
▁hide	-11.2259
▁kasashen	-11.2259
▁kene	-11.2261
▁àìkú	-11.2262
▁anfani	-11.2265
▁confirm	-11.2266
gún	-11.2266
uri	-11.2266
▁gift	-11.2266
▁nyine	-11.2269
▁picha	-11.227
▁ǹ	-11.2272
▁ዜ	-11.2274
▁ሰዉ	-11.2274
imana	-11.2274
▁lekwa	-11.2274
▁lálẹ́	-11.2277
▁Mimi	-11.2279
▁ụnụ	-11.228
ley	-11.2282
▁ያንተ	-11.2282
▁60	-11.2283
ilioni	-11.2285
▁biyan	-11.2286
́	-11.2288
▁Ri	-11.229
ማድረግ	-11.2291
▁lmghrib	-11.2293
▁dois	-11.2294
▁tasa	-11.2297
▁Owó	-11.2297
🎤	-11.2299
▁huru	-11.23
▁return	-11.23
RE	-11.23
hia	-11.2301
▁wlad	-11.2301
▁aiyé	-11.2303
yàn	-11.2304
▁ụlọ	-11.2304
▁dor	-11.2305
▁yanke	-11.2306
▁biyar	-11.2309
CE	-11.2309
▁tsada	-11.231
በል	-11.2311
kar	-11.2312
▁experience	-11.2313
▁ቁጭ	-11.2313
ير	-11.2313
▁kókó	-11.2313
▁wizkid	-11.2314
▁nse	-11.2315
▁||	-11.2316
▁راكي	-11.2317
▁njia	-11.232
▁biki	-11.2321
mara	-11.2323
▁Sarkin	-11.2323
▁burn	-11.2323
▁nesse	-11.2323
▁muta	-11.2323
afya	-11.2324
▁Bai	-11.2324
▁nikan	-11.2329
نة	-11.2331
▁المنتخب	-11.2332
😱	-11.2334
▁wanga	-11.2335
▁broda	-11.2336
▁turi	-11.2339
82	-11.2342
▁rock	-11.2345
▁እር	-11.2345
▁ፖሊስ	-11.2349
piga	-11.235
▁ሌሎች	-11.2352
mun	-11.2353
▁እውነተኛ	-11.2357
AS	-11.236
▁باغي	-11.2368
▁ọ̀sán	-11.2368
▁تم	-11.2369
▁dn	-11.2372
▁nace	-11.2373
ቀ	-11.2375
▁wae	-11.2376
▁amaro	-11.2377
▁አሜሪካ	-11.2377
▁Nawe	-11.2377
▁shigo	-11.2379
▁gt	-11.2381
▁nkwa	-11.2382
ranti	-11.2383
▁Ewu	-11.2387
▁Zai	-11.2388
يرا	-11.2389
iga	-11.2389
▁آ	-11.2404
HO	-11.2407
▁press	-11.241
▁ماي	-11.2414
mwe	-11.2421
▁☹️	-11.2422
pp	-11.2422
▁Haha	-11.2425
az	-11.2429
▁baje	-11.243
▁says	-11.2431
ẹ́ni	-11.2432
vuze	-11.2432
fasi	-11.2434
غ	-11.2445
▁ተሰ	-11.2447
mp	-11.2449
▁deal	-11.2451
kún	-11.2453
▁يقول	-11.2454
▁sex	-11.2458
▁deserve	-11.2459
▁nova	-11.2461
▁hwɛ	-11.2461
▁gbakwa	-11.2462
?😂	-11.2463
▁Hii	-11.2463
iiii	-11.247
▁ديالو	-11.2473
ões	-11.2478
▁ጭ	-11.2481
▁issue	-11.2484
▁yakeyi	-11.2484
▁King	-11.2486
😏😏😏	-11.2486
▁🤦🏾‍♂️	-11.2488
▁dɛ	-11.249
ሙት	-11.2492
gbó	-11.2497
NA	-11.2498
ط	-11.25
▁lashe	-11.2502
▁egg	-11.2503
▁🙏🏼	-11.2506
▁kaka	-11.2507
▁sie	-11.2508
gar	-11.2509
nà	-11.251
▁valor	-11.2513
▁kanta	-11.2513
▁Abi	-11.2513
▁የአሜሪካ	-11.2513
▁dina	-11.2513
▁guess	-11.2515
▁nanka	-11.2515
▁kune	-11.2515
▁uni	-11.2515
▁በር	-11.2517
▁create	-11.2519
▁blessing	-11.2519
▁patient	-11.2519
▁Adé	-11.252
▁pre	-11.2521
▁aniversário	-11.2522
AlayeOro	-11.2522
▁ìgbéyàwó	-11.2522
▁sojoji	-11.2522
▁episode	-11.2522
▁Depoi	-11.2522
▁space	-11.2522
▁cheap	-11.2522
▁አስተያየት	-11.2522
▁ìyàtọ̀	-11.2522
▁ugly	-11.2523
▁steal	-11.2523
ED	-11.2523
▁ntacyo	-11.2523
▁nwaanyị	-11.2523
▁Òní	-11.2523
▁àlàáfíà	-11.2524
▁ujumbe	-11.2524
▁fọ	-11.2526
▁osiso	-11.2527
▁opolopo	-11.2527
▁increase	-11.2527
▁ọsọ	-11.2527
▁abacha	-11.2528
▁Eku	-11.2529
▁Banza	-11.253
ese	-11.253
▁አህመዲን	-11.2532
▁Owerri	-11.2532
▁contigo	-11.2532
▁ወንጀል	-11.2532
▁Ekwensu	-11.2532
▁Elédùmarè	-11.2532
▁العربية	-11.2532
▁ìbùkún	-11.2532
▁status	-11.2535
ń	-11.2536
▁wella	-11.2536
▁maior	-11.2537
▁Nada	-11.2538
▁ههههههه	-11.2539
▁rapha	-11.2539
kufahamish	-11.254
▁aradu	-11.2542
out	-11.2542
▁Babban	-11.2542
▁bukatar	-11.2543
▁tenha	-11.2544
hr	-11.2546
▁leaders	-11.2547
መስራት	-11.2547
▁ሚኒስትር	-11.2548
▁alafia	-11.2548
▁ግልፅ	-11.2549
▁መልዕክት	-11.2549
▁double	-11.2549
▁THE	-11.2551
can	-11.2552
▁obuna	-11.2553
▁ግፍ	-11.2553
▁hukuncin	-11.2553
▁ለማንኛውም	-11.2554
▁makiya	-11.2554
oyo	-11.2556
▁ያላቸው	-11.2557
▁ምድር	-11.2558
▁siyasar	-11.2559
▁players	-11.2561
▁sabem	-11.2564
▁Mais	-11.2565
▁Taa	-11.2565
▁badan	-11.2566
▁ልደቱ	-11.2566
▁ስርዓት	-11.2566
▁Nnukwu	-11.2567
▁gano	-11.2567
▁Banda	-11.2568
▁sis	-11.2573
▁ìbọn	-11.2573
▁enwero	-11.2576
▁burna	-11.2577
▁Omi	-11.2578
ọlá	-11.2578
▁izina	-11.2581
▁hy	-11.2583
▁ụkwụ	-11.2583
▁des	-11.2583
▁:))	-11.2584
▁يع	-11.2585
▁malu	-11.2585
▁ìgbẹ́	-11.2585
tì	-11.2587
▁oló	-11.259
▁drama	-11.2591
▁Naijiria	-11.2591
😐	-11.2593
▁wapi	-11.2594
abo	-11.2597
▁err	-11.2599
يين	-11.2599
haye	-11.2599
▁yakuma	-11.26
pm	-11.2601
ahunda	-11.2601
▁Nnaa	-11.2602
▁akwụkwọ	-11.2606
▁ejò	-11.2608
▁rate	-11.2609
▁አይነቱ	-11.261
▁راهي	-11.2611
▁wú	-11.2612
ገቡ	-11.2612
▁መርዝ	-11.2618
▁اكثر	-11.2618
▁kunyi	-11.262
▁lock	-11.262
▁banye	-11.2622
▁Hahahaha	-11.2622
▁zaayi	-11.2623
✨	-11.2623
ቆም	-11.2626
▁deep	-11.263
▁Kila	-11.2631
▁kids	-11.2638
▁yasha	-11.2638
🤣🤣🤣🤣🤣	-11.2641
▁dere	-11.2645
▁unto	-11.2646
▁Mwa	-11.2647
tarehe	-11.2648
▁anwụ	-11.2649
▁tunani	-11.265
▁kiran	-11.2651
ver	-11.2651
▁others	-11.2652
▁ibyiza	-11.2652
▁ntu	-11.2652
▁mijin	-11.2652
▁haki	-11.2657
▁sabab	-11.2658
chaa	-11.2658
▁wall	-11.2662
Lo	-11.2663
▁Báw	-11.2668
▁hala	-11.2668
▁deles	-11.2668
▁amana	-11.2668
▁Ise	-11.267
▁né	-11.2672
▁agha	-11.2676
▁ìdá	-11.2678
▁kora	-11.2678
▁shirme	-11.2681
▁Nya	-11.2684
Dun	-11.2686
▁efu	-11.2687
😂😂😂😂😂😂	-11.2687
▁evening	-11.269
▁Soma	-11.2692
▁Ch	-11.2695
▁koja	-11.2696
▁hey	-11.2697
mbi	-11.27
ua	-11.2706
▁direct	-11.2708
▁brof	-11.2709
ليون	-11.271
▁haska	-11.2711
▁shigar	-11.2712
2021	-11.2715
▁Cc	-11.2718
▁mashi	-11.2719
ZA	-11.272
88	-11.2721
▁--	-11.2721
▁Ikú	-11.2723
gihe	-11.2723
▁malan	-11.2725
▁nkwu	-11.2726
rè	-11.2726
By	-11.2727
duk	-11.2731
eka	-11.2736
▁fata	-11.2738
•	-11.274
😡😡😡	-11.2742
lly	-11.2743
eeee	-11.2748
▁começar	-11.2748
aj	-11.2748
▁kubi	-11.2749
ace	-11.2752
GH	-11.2752
▁Shin	-11.2758
▁kutu	-11.276
▁bye	-11.2764
▁Isa	-11.2765
unga	-11.2766
ilé	-11.2766
▁يديرو	-11.2773
▁Onu	-11.2774
ጠ	-11.2776
ade	-11.2777
jé	-11.2781
▁Radio	-11.2782
🏽	-11.279
▁dán	-11.279
nn	-11.2792
▁tree	-11.2794
▁akhti	-11.2795
▁Hhhhh	-11.2799
ታት	-11.2799
▁akara	-11.2803
▁ino	-11.2803
nweghị	-11.2804
▁alu	-11.2805
▁keke	-11.2806
vuga	-11.2806
▁Suna	-11.2809
RBA	-11.281
▁player	-11.2816
ል።	-11.2817
▁How	-11.2818
▁28	-11.2818
òun	-11.2818
▁ika	-11.282
▁لاعب	-11.282
▁መከራ	-11.2822
▁dyali	-11.2822
agu	-11.2823
ዘር	-11.2825
▁الجديد	-11.2825
▁feeling	-11.2825
ọrọ	-11.2827
▁crush	-11.2829
▁congrat	-11.2829
▁election	-11.2833
Iseselagba	-11.2834
▁jersey	-11.2834
▁Afinal	-11.2834
Ipinle	-11.2834
▁Mwaramutse	-11.2834
▁perfume	-11.2834
▁ụtọ	-11.2834
ـــ	-11.2834
▁ìtẹ́	-11.2834
▁Ụtụtụ	-11.2834
▁oríṣi	-11.2834
▁ሚኒስቴር	-11.2834
▁afinal	-11.2834
▁ነዋ	-11.2834
▁ozugbo	-11.2834
▁መገርሳ	-11.2835
Music	-11.2835
▁المملكة	-11.2835
▁ፍላጎት	-11.2836
▁loyal	-11.2836
▁garri	-11.2836
▁forgive	-11.2836
▁train	-11.2836
▁Nnewi	-11.2838
ኖር	-11.2838
dade	-11.2838
▁galt	-11.2839
▁lapia	-11.284
▁akaunti	-11.284
▁vivo	-11.2841
▁abubuwan	-11.2841
▁daalụ	-11.2842
▁interview	-11.2843
▁ሜዳ	-11.2844
▁الوحيد	-11.2844
▁ماعلاباليش	-11.2844
▁حاب	-11.2845
▁Mesmo	-11.2845
▁ẹ̀gbá	-11.2845
jó	-11.2845
▁passa	-11.2846
▁chicken	-11.2846
sc	-11.2847
▁nji	-11.2847
▁Gomina	-11.2847
▁ubwoba	-11.2848
kiri	-11.2849
▁مسكين	-11.2852
▁ipo	-11.2852
▁makoma	-11.2852
ard	-11.2853
▁ọ̀ràn	-11.2853
▁بيه	-11.2854
▁መሪዎች	-11.2854
eko	-11.2855
▁erica	-11.2856
▁ọ̀dọ́	-11.2859
▁ጎንደር	-11.2859
▁videos	-11.2861
▁success	-11.2861
▁afternoon	-11.2862
▁barcelona	-11.2862
▁davido	-11.2862
▁bestie	-11.2863
▁youtube	-11.2863
▁champions	-11.2864
▁Yasa	-11.2864
▁ሴቶች	-11.2867
ngwa	-11.2874
ẹ́hìn	-11.2875
▁lenu	-11.2875
ሚያ	-11.2876
FM	-11.2876
▁atọ	-11.2878
▁بلادي	-11.2878
▁ዙሪያ	-11.2879
▁yenye	-11.288
▁صاحب	-11.2881
▁ዘፈን	-11.2881
▁Please	-11.2881
▁sokoto	-11.2883
▁ado	-11.2884
▁kyautata	-11.2888
▁samo	-11.2889
♫	-11.2889
▁🙌🏾	-11.2891
▁1000	-11.2891
▁መልክ	-11.2891
eti	-11.2892
▁مليار	-11.2898
▁àkàrà	-11.2899
▁quanto	-11.29
▁Atiku	-11.2901
▁Mina	-11.2905
▁níbí	-11.2905
▁comes	-11.291
rou	-11.291
▁burú	-11.2914
▁tambayi	-11.2916
▁olè	-11.2917
▁lóko	-11.2917
ms	-11.2918
؟\	-11.2919
▁ከተ	-11.292
▁ubusa	-11.2921
▁ያልተ	-11.2923
▁ṣeré	-11.2924
2016	-11.2926
naija	-11.2927
nny	-11.2929
▁bere	-11.293
▁washa	-11.293
▁ምንድን	-11.2931
▁Koh	-11.2933
hungu	-11.2934
▁ድጋፍ	-11.2935
▁mask	-11.2936
▁كلشي	-11.2936
▁አቋም	-11.2936
☹️	-11.2936
babu	-11.2938
ውም	-11.2939
▁green	-11.2943
▁abaya	-11.2943
▁zage	-11.2944
▁azumin	-11.2944
gera	-11.2947
40	-11.2949
endo	-11.2951
moja	-11.2952
urú	-11.2954
IGO	-11.2956
ህም	-11.2957
nB	-11.2958
▁èrè	-11.2958
▁tanta	-11.2958
▁300	-11.2958
twe	-11.296
▁atụ	-11.2961
▁sati	-11.2961
▁kafi	-11.2962
bari	-11.2963
▁umukobwa	-11.2966
”,	-11.2968
▁Pra	-11.2968
▁kif	-11.2969
ቆ	-11.2969
▁Ope	-11.2972
▁FC	-11.2972
▁kwenu	-11.2973
▁base	-11.2973
▁merci	-11.2973
samu	-11.2975
▁inason	-11.2978
▁maganan	-11.2984
▁jor	-11.2985
▁batu	-11.2986
▁Dai	-11.2987
▁lóde	-11.2989
▁lábẹ́	-11.299
▁wose	-11.299
▁working	-11.2991
ለህ	-11.2992
መንግስት	-11.2993
▁bù	-11.2993
DI	-11.2994
▁parar	-11.2997
▁receber	-11.3003
▁أكثر	-11.3006
sigaye	-11.3006
age	-11.3007
▁barmu	-11.301
▁gufata	-11.3014
▁rawa	-11.3017
▁ofin	-11.3022
▁መስ	-11.3022
▁ወለጋ	-11.3028
▁ዶክተር	-11.3028
▁Tume	-11.3029
▁Nk	-11.3029
▁😂💔	-11.3029
90	-11.3033
▁force	-11.3033
ysc	-11.3033
▁doka	-11.3034
▁መኖር	-11.3037
▁وانا	-11.3042
▁ñ	-11.3046
▁wanao	-11.3047
▁كن	-11.3048
😎😎😎	-11.3051
▁dead	-11.3051
▁male	-11.3051
▁toast	-11.3053
Ewe	-11.3054
geze	-11.3055
▁could	-11.3058
gbu	-11.3059
▁anwu	-11.3062
▁batun	-11.3062
▁abincin	-11.3067
yumva	-11.307
kira	-11.3074
▁àbọ̀	-11.3077
▁ማየት	-11.3078
🏾	-11.3081
▁ate	-11.3082
▁àjò	-11.3086
rùn	-11.3088
▁የምታ	-11.3089
▁achọ	-11.3097
67	-11.3097
▁mcha	-11.31
riki	-11.31
▁Vc	-11.31
▁wari	-11.3102
▁mix	-11.3103
dà	-11.3104
▁Gwa	-11.3104
!!!!!	-11.3104
▁sise	-11.3108
▁ኤርትራ	-11.3109
tanzania	-11.3109
▁muji	-11.3111
▁fiye	-11.3112
▁espera	-11.3113
▁Yaya	-11.3114
▁vibe	-11.3114
ود	-11.3115
BI	-11.3116
▁jikin	-11.312
▁kulle	-11.3121
oooo	-11.3121
▁hukunci	-11.3124
خ	-11.3125
▁News	-11.3127
gbò	-11.3128
ef	-11.3131
100	-11.3133
▁ش	-11.3136
godu	-11.3138
▁annoba	-11.3142
"""".	-11.3152
▁yanka	-11.3155
▁ካልሆነ	-11.3156
riye	-11.3156
▁Nara	-11.3156
GlobalSuperWord	-11.3157
▁difícil	-11.3157
▁ጭምር	-11.3157
▁ìrọ̀lẹ́	-11.3157
▁caminho	-11.3157
▁explain	-11.3157
▁ወሳ	-11.3158
▁Nukuri	-11.316
▁wtf	-11.316
▁stew	-11.3161
▁Nyum	-11.3161
▁Homem	-11.3161
▁Cidade	-11.3161
▁partner	-11.3162
▁ونعم	-11.3162
▁ilẹ̀ẹ	-11.3163
▁milk	-11.3163
▁Ezi	-11.3163
tán	-11.3166
▁dimkpa	-11.3167
▁kanmu	-11.3167
▁.'	-11.3167
▁knack	-11.3168
▁facebook	-11.3168
▁tona	-11.3168
▁pure	-11.3168
▁wenye	-11.3168
▁bímọ	-11.3168
▁ነጻ	-11.3169
▁sinto	-11.317
▁makaranta	-11.3171
fika	-11.3171
▁عندهم	-11.3171
▁osise	-11.3175
▁afẹ́fẹ́	-11.3176
▁nsị	-11.3176
▁شخص	-11.3176
lafu	-11.3178
▁masifar	-11.3178
▁مو	-11.318
JE	-11.318
Keep	-11.3181
masu	-11.3182
▁meaning	-11.3182
ey	-11.3184
▁ዓመታት	-11.3185
▁يبارك	-11.3185
▁ፀረ	-11.3185
▁አስተሳሰብ	-11.3185
▁الأحرار	-11.3185
▁ውጪ	-11.3185
▁እሁድ	-11.3186
▁breast	-11.3186
eb	-11.3186
▁عليا	-11.3188
▁oho	-11.3191
▁ليهم	-11.3192
▁anaaa	-11.3192
▁mene	-11.3195
▁noite	-11.3196
haba	-11.3197
hubwo	-11.3198
▁tafiya	-11.3199
▁ome	-11.3199
▁apc	-11.3202
▁بالتوفيق	-11.3204
▁poverty	-11.3204
pò	-11.3204
▁ሀብት	-11.3209
▁shugabannin	-11.321
▁ugwu	-11.321
ive	-11.321
ora	-11.3214
▁nsuo	-11.3214
▁wawa	-11.3215
▁apa	-11.3217
▁anti	-11.3218
▁Gu	-11.3222
▁nwaanyi	-11.3223
▁London	-11.3223
▁lóòótọ́	-11.3223
▁hotel	-11.3225
▁እንዳንተ	-11.3227
▁boas	-11.323
lb	-11.3231
▁camp	-11.3231
fashe	-11.3233
▁shut	-11.3233
life	-11.3234
▁bayna	-11.3238
▁كلمة	-11.3238
▁pín	-11.3238
▁አስፈላጊ	-11.324
▁mbali	-11.324
abandi	-11.3241
▁mon	-11.3242
▁🤷‍♂️	-11.3244
▁lọ́rùn	-11.3244
▁weak	-11.3248
nzi	-11.325
▁jana	-11.325
Amakuru	-11.3251
▁mazal	-11.3253
በር	-11.3254
dò	-11.3255
፦	-11.3255
▁bibi	-11.3257
▁Nd	-11.3259
▁azo	-11.3264
▁sere	-11.3265
▁♬	-11.3269
😀😀😀	-11.327
▁mins	-11.327
▁ene	-11.3271
▁chale	-11.3275
▁trip	-11.3277
nemi	-11.3278
👉	-11.3278
PE	-11.3278
Osun	-11.328
▁ህፃናት	-11.328
▁ሁላችን	-11.3282
▁Ole	-11.3286
▁nigba	-11.3286
▁جا	-11.3289
▁koraaa	-11.3289
▁ጦር	-11.3293
▁የዚህ	-11.3293
▁Gaba	-11.3293
oju	-11.3294
▁هاذ	-11.3295
ase	-11.3296
▁Ìbà	-11.3297
▁ky	-11.3298
▁joga	-11.3299
oodua	-11.33
ለኝ	-11.33
▁ibibazo	-11.3305
okwe	-11.3308
▁umuriro	-11.3308
▁nasa	-11.3312
▁gbu	-11.3316
takuwa	-11.3319
▁የመጀመሪያው	-11.3324
▁akoko	-11.3325
▁cute	-11.3327
▁🤝	-11.3328
ação	-11.333
▁sakamako	-11.333
🚶	-11.334
YE	-11.3342
▁shaa	-11.3345
▁bruh	-11.3345
وه	-11.3347
toto	-11.3348
▁jirgin	-11.3348
▁igbe	-11.3348
▁és	-11.3349
▁miya	-11.3351
▁eran	-11.3354
▁Kudi	-11.3354
▁rabo	-11.3355
ጠው	-11.3356
▁àwo	-11.3356
imu	-11.3357
men	-11.3357
nwee	-11.3357
yá	-11.3361
▁yak	-11.3361
▁السلام	-11.3364
▁lù	-11.3366
▁zangu	-11.3368
▁Kare	-11.3372
xu	-11.3372
▁neme	-11.3378
You	-11.3383
▁لنا	-11.3387
lh	-11.3388
▁Ih	-11.3388
▁fadar	-11.3395
▁bladi	-11.3395
▁Aiki	-11.3396
▁makan	-11.34
▁باقي	-11.3405
▁دير	-11.3408
▁bẹ́	-11.3408
kora	-11.3409
som	-11.3409
▁حب	-11.3412
▁جد	-11.3415
cyo	-11.3417
جمل	-11.3418
▁ደግ	-11.3419
MO	-11.342
▁لكل	-11.3423
▁hafi	-11.3426
▁حول	-11.3427
ቹን	-11.343
▁Le	-11.3432
▁knt	-11.3433
▁muce	-11.3434
▁nenhum	-11.3435
▁ولاد	-11.3438
▁control	-11.3439
▁yasamu	-11.3443
nah	-11.3448
ሊ	-11.345
▁oore	-11.3453
▁bbu	-11.3455
▁naho	-11.3456
kuta	-11.3457
ntago	-11.3463
▁lédè	-11.3465
▁chest	-11.3465
▁mess	-11.3467
▁ewo	-11.3468
inha	-11.3472
np	-11.3474
▁lot	-11.3476
ụọ	-11.3477
Ubochi	-11.348
▁الحكم	-11.348
▁وصل	-11.3482
؟؟	-11.3483
▁walio	-11.3484
shen	-11.3484
▁tẹ́	-11.3485
▁እራሱ	-11.3486
yé	-11.3487
▁ps	-11.3487
▁Miss	-11.3487
▁yọ̀	-11.3487
▁america	-11.3488
▁DO	-11.349
OfTheSaints	-11.349
SMAFM	-11.349
▁الذاتي	-11.349
▁lantarki	-11.349
▁ráńṣẹ́	-11.349
▁scatter	-11.349
▁ድርጅቶች	-11.349
▁kusan	-11.349
▁àtúnṣe	-11.349
▁female	-11.3491
▁روسيا	-11.3491
▁ajuju	-11.3491
كَود	-11.3491
▁occur	-11.3491
▁gather	-11.3491
▁attention	-11.3492
▁Messias	-11.3492
▁الفساد	-11.3492
▁تبهديلة	-11.3492
اف	-11.3493
▁kesho	-11.3493
▁kyer	-11.3494
▁الوزير	-11.3494
▁evil	-11.3495
▁tonight	-11.3495
▁Afam	-11.3496
▁Yasin	-11.3497
ማንኛውም	-11.3498
▁ẹnikẹ́ni	-11.3499
▁Fun	-11.3499
▁mzn	-11.35
▁Chelsea	-11.3501
▁customer	-11.3502
▁ìbàdàn	-11.3502
ديما	-11.3502
▁ìlànà	-11.3502
▁hivyo	-11.3502
▁ስነ	-11.3502
▁ልደት	-11.3503
buru	-11.3504
▁cuz	-11.3505
▁síbẹ̀	-11.3505
▁nílò	-11.3506
▁Àgbà	-11.3506
▁Ìgbà	-11.3507
▁መሳሪያ	-11.3508
▁frio	-11.3509
▁otú	-11.3511
Now	-11.3511
▁القانون	-11.3511
▁babbar	-11.3513
▁mar	-11.3515
▁سيدنا	-11.3516
▁aslan	-11.3517
😲	-11.3518
▁bety	-11.3519
▁Manchester	-11.352
▁preço	-11.352
▁بعيد	-11.352
▁البوليس	-11.3521
▁knn	-11.3521
ዮች	-11.3522
▁amazing	-11.3522
▁common	-11.3523
▁agwo	-11.3523
▁spirit	-11.3524
▁alaafia	-11.3526
▁uwe	-11.3527
▁gareka	-11.3527
▁márùn	-11.3528
▁imbaraga	-11.3528
▁ahead	-11.3529
▁aswear	-11.3529
راهم	-11.353
▁ማስ	-11.353
▁yaudara	-11.3532
▁energy	-11.3534
▁jarida	-11.3536
kpa	-11.3537
😅😅😅	-11.3537
▁ምግብ	-11.3538
▁tie	-11.3538
▁Link	-11.354
ዜ	-11.3542
▁ፍ	-11.3542
▁tir	-11.3542
▁ekpe	-11.3543
▁kugirang	-11.3546
▁ahye	-11.3547
▁Sunday	-11.355
▁otua	-11.3552
▁علاق	-11.3553
?🙄	-11.3554
▁ndir	-11.3555
▁ፋኖ	-11.3556
VR	-11.3556
▁ozu	-11.3557
like	-11.3558
▁JESUS	-11.3559
▁update	-11.3564
▁ايه	-11.3564
▁ńṣe	-11.3565
HA	-11.3573
▁فوق	-11.3575
HE	-11.3575
▁asiko	-11.3575
▁oorun	-11.3576
▁معاه	-11.3578
Tweet	-11.3583
▁bghiti	-11.3583
▁cow	-11.3585
▁namwe	-11.3585
▁pagar	-11.3587
▁daure	-11.3588
Yan	-11.3588
▁boi	-11.359
▁awọ	-11.3591
▁dalili	-11.3595
▁etu	-11.3595
▁àgbàdo	-11.3598
▁خيار	-11.3598
andha	-11.3599
▁SE	-11.36
baka	-11.3601
52	-11.3601
vyo	-11.3601
😡😡	-11.3602
▁المهم	-11.3603
▁Nwannem	-11.3608
▁èyàn	-11.3608
📻	-11.3611
▁nche	-11.3614
how	-11.3616
▁غاضتني	-11.3618
▁friday	-11.3618
▁òòṣà	-11.3618
▁መን	-11.3619
yín	-11.3623
▁fik	-11.3623
▁gh	-11.3624
▁bú	-11.3628
✌️	-11.3629
▁amfanin	-11.363
lab	-11.363
65	-11.363
Dan	-11.3634
👑	-11.3635
twara	-11.3637
light	-11.3637
▁ẹ̀jẹ̀	-11.3637
▁kuskure	-11.3637
▁Ten	-11.3637
▁አመታት	-11.3638
▁akpọ	-11.3638
▁gen	-11.3641
▁kwata	-11.3642
▁ún	-11.3643
yy	-11.3644
▁ክ	-11.3646
▁kisan	-11.3646
▁Uba	-11.3647
Angola	-11.3647
tembelea	-11.3648
▁ወገን	-11.365
kana	-11.3652
▁yayiwa	-11.3652
▁ከዛ	-11.3653
kere	-11.3653
▁gbadun	-11.3656
▁COVID	-11.3656
gbagbe	-11.3658
▁10.	-11.3663
▁achi	-11.3663
▁🤣🤣🤣🤣🤣🤣	-11.3666
tera	-11.3672
26	-11.3673
▁isto	-11.3675
▁shiri	-11.3675
NG	-11.3678
nos	-11.3682
ulo	-11.3683
▁‍	-11.3686
▁ƙara	-11.3686
Me	-11.3688
Ki	-11.369
▁የሚባለው	-11.3691
yu	-11.3694
▁chega	-11.3695
▁Che	-11.3697
▁push	-11.3701
Se	-11.3703
pin	-11.3703
nso	-11.3703
▁عندك	-11.3705
ex	-11.3705
▁biara	-11.3707
jù	-11.3708
Ì	-11.3709
▁dubai	-11.3709
▁فلسطين	-11.3724
ጽ	-11.3726
▁erh	-11.3728
▁chama	-11.373
▁jus	-11.373
▁lma	-11.373
▁tóó	-11.3731
05	-11.3734
shall	-11.3735
DE	-11.3735
ole	-11.3737
gb	-11.3741
ምንም	-11.3742
▁mzyan	-11.3742
ታችሁ	-11.3743
okwu	-11.375
97	-11.3752
▁muru	-11.3754
▁Kuko	-11.3755
▁kurusha	-11.3757
▁Onitsha	-11.3757
▁podes	-11.376
▁kunyar	-11.3761
ught	-11.3766
túmọ̀	-11.3768
▁hunu	-11.3769
▁mil	-11.3771
▁دعم	-11.3774
tini	-11.3775
ON	-11.3776
▁Kuba	-11.3777
ዲ	-11.3778
▁ochi	-11.3779
دة	-11.378
لهم	-11.3783
يف	-11.3784
▁أنت	-11.3787
boy	-11.3788
gà	-11.3791
▁ura	-11.3791
▁np	-11.3791
genda	-11.3795
BA	-11.3796
▁حساب	-11.3801
▁dollar	-11.3802
▁fool	-11.3802
▁kamlin	-11.3808
▁مات	-11.3808
▁Koda	-11.3809
▁irmão	-11.3809
▁reka	-11.3809
▁Àfi	-11.381
zwa	-11.381
▁Eme	-11.3812
▁key	-11.3816
▁south	-11.3819
▁utu	-11.3822
ndu	-11.3826
▁Love	-11.3828
▁complain	-11.3828
▁jogo	-11.3829
▁Edjo	-11.3829
كود	-11.383
dey	-11.3831
▁Aljanna	-11.3831
▁الوطني	-11.3832
Ó	-11.3834
tọ́	-11.3834
▁ቆይ	-11.3834
tweetinyoruba	-11.3835
▁btissam	-11.3835
▁gẹ̀ẹ́sì	-11.3835
▁Ṣùgbọ́n	-11.3835
▁advice	-11.3835
▁òṣìṣẹ́	-11.3835
▁ìṣẹ̀lẹ̀	-11.3835
▁معاك	-11.3835
▁invite	-11.3835
▁àlejò	-11.3835
▁መልኩ	-11.3835
▁gtgt	-11.3835
DCService	-11.3836
▁Nkuzi	-11.3836
▁ìpàdé	-11.3836
▁الحزب	-11.3836
▁ቅ	-11.3836
▁ምክንያቱም	-11.3836
▁Bbc	-11.3837
IWD	-11.3837
▁Lafiya	-11.3837
▁consigo	-11.3838
▁gharama	-11.3838
▁በጋራ	-11.3838
▁Yaushe	-11.3838
▁wiwi	-11.3838
▁available	-11.3839
▁blame	-11.3839
▁mmanụ	-11.3839
LearnYoruba	-11.384
▁Jehova	-11.384
▁abụọ	-11.384
▁vosso	-11.3841
bẹ	-11.3841
▁joor	-11.3841
▁melhores	-11.3842
▁ዳን	-11.3842
▁gomina	-11.3843
▁Odò	-11.3843
▁gíga	-11.3843
▁ዓይነት	-11.3844
▁ውይ	-11.3844
▁avoid	-11.3844
▁àárín	-11.3844
▁twese	-11.3844
▁uwarsu	-11.3846
▁uwarku	-11.3846
▁Aquele	-11.3846
▁الفايق	-11.3846
▁gbajúmọ̀	-11.3846
▁تفاصيل	-11.3847
▁nesta	-11.3847
▁የተሻለ	-11.3848
▁demais	-11.385
▁dir	-11.385
▁Queen	-11.3851
Wednesday	-11.3851
▁ontem	-11.3853
Glo	-11.3854
▁mtoto	-11.3854
▁walk	-11.3854
▁አር	-11.3855
🙏🙏🙏🙏	-11.3857
▁QUE	-11.3858
▁Oku	-11.3858
▁shayi	-11.3859
▁buriya	-11.3859
▁Shima	-11.3861
▁kíkọ	-11.3863
lp	-11.3865
▁مبروك	-11.3866
▁register	-11.3866
▁Èṣù	-11.3867
▁አፍሪካ	-11.3867
▁ለካ	-11.3867
▁Amaka	-11.3867
▁winning	-11.3867
▁òpin	-11.3868
حاد	-11.3869
▁abba	-11.3872
▁taska	-11.3876
ọ̀gbẹ́	-11.3878
owó	-11.3879
▁Gwamna	-11.3881
▁dyalna	-11.3881
Let	-11.3882
▁wainna	-11.3884
mm	-11.3884
ተን	-11.3886
taba	-11.3889
▁tayari	-11.3889
▁àgbọn	-11.389
▁undi	-11.389
لنا	-11.389
▁blessings	-11.389
▁transfer	-11.389
▁bɛn	-11.3894
au	-11.3895
ጉዳት	-11.3895
▁hahahahaha	-11.3897
rapọ̀	-11.3898
lù	-11.3898
!??	-11.3901
▁ያክል	-11.3901
▁obinrin	-11.3902
▁Anu	-11.3903
2014	-11.3905
▁abuse	-11.3905
▁ቀና	-11.3906
▁kọ̀	-11.3906
▁♫♫	-11.3907
▁እውቀት	-11.3908
▁flow	-11.391
▁ح	-11.3911
▁ganhar	-11.3913
▁canza	-11.3913
▁damn	-11.3914
yí	-11.3914
gari	-11.3915
▁bazata	-11.3916
rw	-11.3916
▁Lo	-11.3919
▁tsawo	-11.392
▁ملك	-11.3922
▁ረቂቅ	-11.3924
▁هاذي	-11.3925
tó	-11.3925
▁gbọ́n	-11.3927
▁bukata	-11.3927
▁kanawa	-11.3928
rega	-11.393
▁تاريخ	-11.3933
▁gùn	-11.3934
▁yakare	-11.3935
▁Mh	-11.3937
▁hadok	-11.3937
31	-11.3938
▁ድንግል	-11.3938
▁hello	-11.3942
▁😤	-11.3942
azu	-11.3943
▁jay	-11.3944
▁dili	-11.3949
ê	-11.3949
▁zuru	-11.3949
▁etinye	-11.3949
▁App	-11.395
ብህ	-11.3953
▁unfollow	-11.3954
😍😍😍	-11.3955
▁‍️‍️‍️	-11.3956
ser	-11.396
▁xaman	-11.3961
▁1)	-11.3961
▁wise	-11.3967
▁dalu	-11.3968
43	-11.397
▁shegen	-11.398
kà	-11.398
dè	-11.3981
kunywa	-11.3983
▁ألف	-11.3985
▁mimi	-11.3986
▁ró	-11.3987
▁ጃዋር	-11.3987
▁kele	-11.3987
▁baiyi	-11.3989
▁ያኔ	-11.3989
gomba	-11.3989
▁دارت	-11.3992
uring	-11.3992
▁فين	-11.3993
dawo	-11.3996
!""""""""	-11.3997
🤓	-11.3997
▁láyọ̀	-11.3998
▁ብሔራዊ	-11.3999
Ẹ	-11.4
eu	-11.4001
▁kwesiri	-11.4003
▁አላህ	-11.4005
nim	-11.4007
😷	-11.4008
▁pɛ	-11.4008
▁coronavirus	-11.4008
pọ̀	-11.4008
▁ወንድ	-11.401
WE	-11.4011
lò	-11.4012
yorùbá	-11.4013
▁🙈	-11.4022
▁ነው፤	-11.4023
يس	-11.4027
tsi	-11.4028
▁umugabo	-11.4028
▁nani	-11.4031
▁Lá	-11.4031
▁8.	-11.4032
▁عدد	-11.4032
▁buryo	-11.4035
▁ናችሁ	-11.4035
▁kabi	-11.4035
▁tóbi	-11.4035
▁Bank	-11.4039
▁የኢትዮጵያን	-11.404
buze	-11.4043
▁ọkà	-11.4045
▁🚶	-11.4045
▁kilo	-11.4048
▁bill	-11.4053
gan	-11.4054
▁Kee	-11.4055
▁akid	-11.4057
ራችን	-11.4058
▁صوت	-11.4058
ምስት	-11.4059
Dj	-11.4059
houm	-11.4059
uo	-11.406
▁Z	-11.406
▁extra	-11.4062
▁jon	-11.4065
▁Bata	-11.4065
àgbà	-11.4067
den	-11.4067
eating	-11.4068
Ko	-11.4069
aku	-11.4072
▁choo	-11.4073
▁Mati	-11.4075
ያችን	-11.4077
▁Pode	-11.4078
▁lala	-11.4078
▁TI	-11.4079
dor	-11.4079
ncheta	-11.4079
LM	-11.408
▁firi	-11.4081
▁força	-11.4081
▁weh	-11.4082
▁hawan	-11.4082
▁😊😊	-11.4084
▁dame	-11.4085
▁alah	-11.4085
▁Odun	-11.4086
patia	-11.4087
▁shegu	-11.4088
▁bike	-11.4088
▁OF	-11.4091
▁تعرف	-11.4094
ṣẹ	-11.4096
kwiye	-11.4101
▁Tá	-11.4102
▁አብ	-11.4104
áyé	-11.4105
▁bale	-11.4106
▁MU	-11.4109
▁umutima	-11.4109
ጂ	-11.4113
sho	-11.4114
▁ik	-11.4114
▁mine	-11.4117
▁muje	-11.413
▁nyi	-11.413
▁damun	-11.4131
KE	-11.4132
▁🏃	-11.4134
▁dounia	-11.4134
▁umwe	-11.4137
her	-11.4139
kali	-11.4141
▁የነበሩ	-11.4144
aho	-11.4144
ÃO	-11.415
▁student	-11.4154
▁አብረ	-11.4154
▁moment	-11.4156
▁sen	-11.4158
ዘ	-11.416
unca	-11.4161
kyi	-11.4161
▁namorado	-11.4162
ati	-11.4163
▁iron	-11.4173
▁strike	-11.4179
kàn	-11.4182
▁award	-11.4184
▁filho	-11.4186
▁حل	-11.4188
dama	-11.4188
▁ọṣẹ	-11.419
ohun	-11.4192
▁bzf	-11.4192
AngolaRepents	-11.4192
̄	-11.4192
▁Instagram	-11.4192
▁mẹ́fà	-11.4192
▁العظيم	-11.4192
▁laptop	-11.4192
▁thunder	-11.4192
▁فأوكرانيا	-11.4192
▁أكبر	-11.4192
▁jollof	-11.4192
▁Wayyo	-11.4192
▁mwisho	-11.4192
▁zamfara	-11.4192
▁በቅርቡ	-11.4192
▁minister	-11.4192
▁everytime	-11.4192
▁chkoun	-11.4192
OjoAje	-11.4193
▁Tabbas	-11.4193
▁larabci	-11.4193
▁vijana	-11.4193
▁respeito	-11.4193
▁البلد	-11.4193
▁subhanallah	-11.4194
▁cinema	-11.4194
▁sehemu	-11.4194
▁Mmiri	-11.4195
▁errado	-11.4195
▁ẹkùn	-11.4196
▁Ngwanu	-11.4197
▁ማነው	-11.4197
▁mês	-11.4198
▁بيها	-11.4199
▁የእግዚአብሔር	-11.4199
▁delivery	-11.4199
kano	-11.42
▁vo	-11.4202
▁እንዲሆን	-11.4203
▁mkubwa	-11.4203
At	-11.4203
▁ص	-11.4203
▁jonathan	-11.4204
▁system	-11.4204
▁obrigado	-11.4204
▁information	-11.4205
▁himself	-11.4205
▁yóó	-11.4205
▁choice	-11.4206
▁kwankwaso	-11.4206
▁impamvu	-11.4206
▁birnin	-11.4207
▁devil	-11.4207
▁jambo	-11.4207
▁(1)	-11.4207
yarda	-11.4207
▁مغربية	-11.4208
▁sports	-11.4212
Re	-11.4212
▁surprise	-11.4216
egbu	-11.4216
vs	-11.4217
▁zu	-11.4217
kopɔn	-11.4218
▁yarn	-11.4218
▁ahantu	-11.4221
▁ነው፣	-11.4223
▁ቆሻሻ	-11.4224
▁celebrity	-11.4224
▁Èkìtì	-11.4224
▁grateful	-11.4224
dúrà	-11.4225
▁نظام	-11.4225
▁ምስኪን	-11.4226
▁tambayar	-11.4226
▁قريب	-11.4226
maka	-11.4226
▁Teka	-11.4226
eke	-11.4227
ido	-11.4227
▁መች	-11.4228
▁ከዚያ	-11.4229
Í	-11.423
ibyo	-11.4231
▁loose	-11.4232
▁yanga	-11.4232
▁notice	-11.4233
ماذا	-11.4235
▁عايش	-11.4237
▁bakora	-11.4238
▁gold	-11.4238
▁mtandao	-11.4238
▁😎😎	-11.4239
▁muitos	-11.424
▁meeting	-11.4242
▁jíire	-11.4242
▁🤭	-11.4242
▁minutes	-11.4243
سيدي	-11.4243
▁ìjẹ̀bú	-11.4244
▁manager	-11.4244
▁Ọ̀rúnmìlà	-11.4245
▁ጎበዝ	-11.4245
wale	-11.4246
ነሳ	-11.4249
chie	-11.4249
▁قد	-11.425
afa	-11.4252
baba	-11.4253
▁lárugẹ	-11.4254
▁የገና	-11.4255
odun	-11.4255
fasha	-11.4256
Á	-11.4256
▁title	-11.4258
▁السيد	-11.426
▁nifa	-11.4261
▁mmoa	-11.4263
▁promise	-11.4264
▁ọ̀dọ̀	-11.4264
▁Abia	-11.4265
▁tọ́jú	-11.4266
▁አፋር	-11.4268
▁visa	-11.4271
▁gbasara	-11.4272
rɛ	-11.4272
😹😹	-11.4272
▁main	-11.4273
▁Ho	-11.4273
▁mention	-11.4273
ምን	-11.4277
▁Nawa	-11.4277
▁mwezi	-11.4278
acha	-11.4279
▁tasha	-11.4283
orubanimi	-11.4285
▁ọtí	-11.4285
77	-11.4286
▁ስህተት	-11.4286
▁noise	-11.4287
91	-11.4288
pics	-11.429
dibo	-11.4292
▁ɔ	-11.4293
▁ìrìn	-11.4293
ayo	-11.4293
▁يحفظك	-11.4297
▁comments	-11.4297
▁keda	-11.43
▁ọ̀tún	-11.4301
following	-11.4302
▁ìta	-11.4303
▁Lekwa	-11.4305
▁beauty	-11.4308
▁Amahoro	-11.4308
Gr	-11.4309
▁fìlà	-11.4309
▁وفي	-11.4309
▁Ije	-11.4317
▁Ozo	-11.4317
62	-11.4318
▁ስምምነት	-11.4318
▁ሸ	-11.4319
▁ear	-11.432
meze	-11.432
▁GA	-11.4321
01	-11.4321
▁kakraa	-11.4321
▁aro	-11.4324
▁nim	-11.4325
▁chuo	-11.4326
🤝	-11.4329
kè	-11.4329
VO	-11.433
▁ملف	-11.433
▁broken	-11.433
bọ	-11.4331
Holy	-11.4332
ጋት	-11.4337
▁tb	-11.4341
▁wé	-11.4341
▁gbére	-11.4343
▁tacha	-11.4343
▁anata	-11.4343
▁Aya	-11.4345
▁ابن	-11.4346
lf	-11.4348
iriya	-11.4349
▁cus	-11.4349
▁حالة	-11.4353
ih	-11.4354
nge	-11.4355
pokea	-11.4358
nìyàn	-11.4358
▁ishi	-11.4359
komeje	-11.4359
jiri	-11.436
▁dawa	-11.4363
▁fitar	-11.4369
joro	-11.437
ummar	-11.437
▁asirin	-11.4371
▁ሳምንት	-11.4372
▁london	-11.4373
▁lẹ́	-11.4374
▁ያስ	-11.4375
▁Nii	-11.4375
ul	-11.4377
▁ولي	-11.438
😓	-11.4381
iti	-11.4386
tafi	-11.4386
rf	-11.4389
iw	-11.4391
▁mutuwar	-11.4391
▁kanki	-11.4393
▁لما	-11.4393
🤦	-11.4394
▁míì	-11.4397
▁build	-11.4397
🙅	-11.4397
▁famba	-11.44
▁ፈ	-11.4402
مة	-11.4405
▁تحت	-11.4407
ታሪክ	-11.4408
koum	-11.4408
Su	-11.4408
rere	-11.4409
oba	-11.4409
▁acha	-11.441
UK	-11.4411
▁😭😭😭😭😭	-11.4411
▁Boa	-11.4413
ዋል።	-11.4418
ham	-11.4426
sị	-11.4427
sar	-11.4428
▁zie	-11.443
▁obo	-11.4432
aza	-11.4432
▁IGBO	-11.4432
تنا	-11.4432
ow	-11.4432
▁እሳት	-11.4433
▁namiji	-11.4434
coming	-11.4435
▁mgba	-11.444
▁aboa	-11.4441
▁elas	-11.4449
▁gwo	-11.4451
ህግ	-11.4452
▁nayo	-11.4453
▁😡😡😡	-11.4455
▁إسبانيا	-11.4458
▁animal	-11.4459
aso	-11.4461
▁mme	-11.4461
▁byiza	-11.4462
gen	-11.4462
▁bgha	-11.4463
eza	-11.4463
▁ጥላቻ	-11.4469
▁kuza	-11.4472
oso	-11.4475
▁😇	-11.4482
▁stan	-11.4485
%	-11.4486
ling	-11.4489
▁😐	-11.4489
▁rashi	-11.449
rab	-11.4493
▁hizi	-11.4496
twa	-11.4503
▁wahad	-11.4503
kk	-11.4505
▁الج	-11.4506
شي	-11.4508
▁Watu	-11.4513
▁eyan	-11.4514
▁الس	-11.4516
reka	-11.4517
▁primeira	-11.4518
▁àṣe	-11.452
▁fé	-11.4521
▁assunto	-11.4522
▁doctor	-11.4522
▁ነ	-11.4525
▁abaturage	-11.4526
▁champion	-11.4528
▁تا	-11.453
Foi	-11.453
▁oooh	-11.453
▁حد	-11.4532
▁itan	-11.4533
kayi	-11.4537
▁process	-11.454
▁ስታ	-11.4549
85	-11.4549
▁Oji	-11.455
World	-11.4551
▁ọbụ	-11.4552
▁mukayi	-11.4552
▁kushiriki	-11.4552
MI	-11.4552
▁wayi	-11.4557
▁view	-11.4557
▁አይችልም	-11.4557
▁بسبب	-11.4559
▁ugo	-11.4562
̶	-11.4562
▁vergonha	-11.4562
▁próximo	-11.4562
ìbánisọ̀rọ̀	-11.4562
▁Amurka	-11.4562
▁Kitikpa	-11.4562
▁possível	-11.4562
▁alhaji	-11.4563
▁deliver	-11.4563
▁ìlẹ̀kẹ̀	-11.4563
▁lmohim	-11.4563
▁hunger	-11.4563
▁dìbò	-11.4564
▁ẹ̀tọ́	-11.4564
▁lọ́sẹ̀	-11.4564
▁hagati	-11.4564
▁Yakamata	-11.4564
▁zinazo	-11.4564
▁የምርጫ	-11.4564
▁gabadaya	-11.4565
▁اصلا	-11.4565
▁sentido	-11.4565
▁segunda	-11.4565
▁gulma	-11.4565
▁nílùú	-11.4566
▁biashara	-11.4566
▁desde	-11.4567
▁Akbar	-11.4567
▁Sou	-11.4567
▁feran	-11.4569
▁yakaimu	-11.4569
▁useless	-11.457
▁ébé	-11.457
▁asofin	-11.457
▁pi	-11.457
▁قدام	-11.4571
▁atrás	-11.4573
▁hhhhhhhhh	-11.4573
our	-11.4573
▁ጠንካራ	-11.4575
▁እባክህ	-11.4575
▁ọlọ́pàá	-11.4575
▁ዝግጅት	-11.4575
▁Ìwọ	-11.4575
▁በኃላ	-11.4576
▁አለበት።	-11.4576
▁dirty	-11.4576
▁nnipa	-11.4576
▁Àmín	-11.4577
▁balẹ̀	-11.4577
▁homens	-11.4577
fanyia	-11.4577
▁ضرب	-11.4577
▁አልነበረም	-11.4578
▁Máà	-11.4579
▁xamu	-11.458
▁onírú	-11.458
▁isinmi	-11.4581
▁ከማ	-11.4582
▁menene	-11.4582
▁ባለው	-11.4586
▁cair	-11.4586
▁aljannah	-11.4587
▁እርስዎ	-11.4588
some	-11.4589
▁Muhammadu	-11.4589
▁nwuru	-11.4589
▁kwance	-11.4589
▁dyalha	-11.4593
▁Torí	-11.4594
▁الح	-11.4594
▁meme	-11.4594
▁lédèe	-11.4595
awon	-11.4595
▁instead	-11.4596
▁ewúrẹ́	-11.4596
▁🇷🇼	-11.4596
ernalWordOfJesus	-11.4597
▁ደደብ	-11.4597
▁الان	-11.4598
ween	-11.4598
▁oríi	-11.4599
▁Ogini	-11.4599
▁judge	-11.4599
▁obele	-11.4599
▁dora	-11.46
▁هناك	-11.46
▁gege	-11.4602
▁Porqu	-11.4602
▁criar	-11.4602
Omo	-11.4602
▁የኢዜማ	-11.4603
▁amsar	-11.4604
▁wateja	-11.4605
ójú	-11.4606
▁efi	-11.4606
▁passado	-11.4608
hiri	-11.4614
pate	-11.4615
▁tètè	-11.4615
▁ቤተክርስቲያን	-11.4616
▁በለው	-11.4617
▁mark	-11.4617
▁lmgharba	-11.4617
ego	-11.4617
▁karin	-11.4618
▁hwan	-11.4618
▁سياسة	-11.4619
KO	-11.4619
▁رغم	-11.462
▁wananchi	-11.4621
ṣebí	-11.4621
▁asking	-11.4624
▁bita	-11.4626
▁المواطن	-11.4626
▁iPhone	-11.4627
▁nata	-11.4627
lewa	-11.4628
▁àdúrà	-11.4628
▁gang	-11.4629
▁lindo	-11.4631
▁ነፃነት	-11.4631
▁yẹ̀	-11.4632
▁nukuri	-11.4634
▁Zama	-11.4634
▁rough	-11.4636
▁asu	-11.4637
▁ماكرون	-11.4639
▁تحياتي	-11.464
gani	-11.464
Fa	-11.464
▁hours	-11.464
▁jesu	-11.4642
▁linda	-11.4643
▁wealth	-11.4643
bintu	-11.4644
▁الصحراء	-11.4644
💃	-11.4644
▁lalle	-11.4646
▁Naga	-11.4646
▁ẹrù	-11.4647
▁gain	-11.4648
▁wura	-11.4649
remos	-11.4649
▁tù	-11.4651
▁sapa	-11.4651
kia	-11.4653
▁جميل	-11.4656
▁በቀለ	-11.4658
pade	-11.4659
▁icyaha	-11.4659
▁Mkoa	-11.4663
Gb	-11.4664
▁ባል	-11.4665
▁kwenda	-11.4666
▁bínú	-11.4667
▁የለ	-11.4667
▁hen	-11.4669
▁vei	-11.4669
▁روح	-11.4671
▁Mal	-11.4672
▁onwu	-11.4673
عني	-11.4673
▁driver	-11.4676
▁morrer	-11.4677
▁agam	-11.4677
▁tallafin	-11.4678
▁ባንክ	-11.4679
▁Ayé	-11.4681
dd	-11.4681
ብኝ	-11.4685
▁òwú	-11.4687
tabwo	-11.469
دي	-11.469
▁playing	-11.4691
በነ	-11.4694
▁ማሰብ	-11.4694
▁ndia	-11.4697
▁🙌🙌	-11.4697
nni	-11.4697
och	-11.47
▁Shugaban	-11.4702
▁passar	-11.4708
አሁን	-11.4708
▁bɔ	-11.4709
▁auto	-11.4715
▁Abum	-11.4715
▁አለች	-11.4715
ፊ	-11.4716
▁niku	-11.4716
ሹ	-11.4718
ዥ	-11.4718
uzi	-11.472
▁ህዝቡን	-11.4722
▁geh	-11.4722
Oruko	-11.4723
oha	-11.4725
▁Ofu	-11.4726
▁الإنسان	-11.4726
▁hadda	-11.4727
▁ወደፊት	-11.4727
Ọ	-11.4733
Saturday	-11.4735
▁Kasa	-11.4735
▁45	-11.4737
▁ns	-11.4737
▁fufu	-11.4738
koani	-11.4738
▁أول	-11.4739
▁كانو	-11.4739
▁kwame	-11.4741
tangiye	-11.4742
ọdún	-11.4742
aworan	-11.4744
▁ràn	-11.4745
▁court	-11.4745
▁pas	-11.4745
ንስ	-11.4747
gg	-11.4749
EN	-11.475
▁vona	-11.475
ኩት	-11.4755
▁benz	-11.4756
Ijebu	-11.4757
▁hug	-11.4758
Iya	-11.4763
azo	-11.4763
nza	-11.4764
▁الب	-11.4764
SH	-11.4765
▁ቀረ	-11.4769
▁kur	-11.477
tani	-11.4772
▁የመጀመሪያ	-11.4776
▁Ati	-11.4779
mikino	-11.4782
▁games	-11.4782
▁agụ	-11.4783
ugenzi	-11.4784
▁لينا	-11.4787
OU	-11.4788
▁ኢየሱስ	-11.4793
Chukwu	-11.4796
▁coach	-11.4796
▁ịbụ	-11.4798
▁Koma	-11.4799
▁jaki	-11.4799
rẹ́	-11.4802
nfa	-11.4803
ìgbà	-11.4806
▁Uki	-11.4814
ewe	-11.4814
▁gbalu	-11.4821
KI	-11.4821
ngiza	-11.4822
SA	-11.4824
▁እኔን	-11.4828
ዲስ	-11.4828
دا	-11.4832
ubundi	-11.4834
eche	-11.4834
▁ẹ̀bù	-11.4838
toh	-11.4839
▁daji	-11.4842
▁nijeri	-11.4843
93	-11.4847
rj	-11.4849
▁aiku	-11.4851
annan	-11.4853
▁kiba	-11.4856
▁tuwo	-11.4857
▁bent	-11.4858
▁ኮሚቴ	-11.486
▁English	-11.4861
▁vive	-11.4863
تم	-11.4863
▁dea	-11.4864
▁gwu	-11.4864
▁koyi	-11.4866
ache	-11.4867
TO	-11.4868
▁mw	-11.4868
▁wonni	-11.4869
▁ول	-11.4871
▁مول	-11.4877
IO	-11.4881
ያንስ	-11.4883
kha	-11.4885
كأس	-11.4888
▁contact	-11.4892
▁ኦ	-11.4893
kù	-11.4897
▁ካላ	-11.4899
ነዉ	-11.4901
▁rabon	-11.4902
42	-11.4903
biri	-11.4904
Up	-11.4904
▁namorada	-11.4906
▁የአብይ	-11.4907
▁Ver	-11.4908
▁bonita	-11.4908
▁simple	-11.4909
▁nono	-11.491
▁greet	-11.4911
▁bii	-11.4911
▁sane	-11.4915
hill	-11.4915
▁لها	-11.4915
▁iran	-11.4917
ልክ	-11.4917
▁kyale	-11.4918
If	-11.4922
.""	-11.4923
▁Oko	-11.4923
▁😢😢	-11.4923
▁wole	-11.4924
▁fí	-11.4924
▁gona	-11.4927
▁አባላት	-11.4928
▁adult	-11.4928
▁bashin	-11.4928
▁وب	-11.4929
▁አየር	-11.4931
▁fasa	-11.4932
▁bone	-11.4934
▁pour	-11.4935
▁hhhhhhhhhh	-11.4939
▁ema	-11.4939
aaaaa	-11.4942
▁punish	-11.4942
▁ይመስላል	-11.4943
▁hat	-11.4943
▁Ban	-11.4945
HtQhxOqgpu	-11.4947
ómìnà	-11.4947
▁alhamdulillah	-11.4947
▁‹‹	-11.4947
▁única	-11.4947
EasterService	-11.4947
▁ọ̀gbìn	-11.4947
▁ṣubú	-11.4947
▁Elédùà	-11.4947
▁anywhere	-11.4947
▁Wllh	-11.4947
▁Katsina	-11.4947
Gelede	-11.4947
▁AGOZ	-11.4947
▁ọhụrụ	-11.4948
▁Ìlọrin	-11.4948
▁chwiya	-11.4948
▁ማወቅ	-11.4948
▁nengi	-11.4948
chagua	-11.4948
▁trumu	-11.4948
▁እግር	-11.4949
NigeriaAt	-11.4949
▁earth	-11.4949
▁pataki	-11.4949
▁lánàá	-11.4949
▁Ìwà	-11.495
▁kullun	-11.495
▁kuliko	-11.495
▁byinshi	-11.4951
▁aláàfin	-11.4952
▁nnọọ	-11.4952
▁bóyá	-11.4952
▁ɔmo	-11.4952
▁Benin	-11.4954
▁gareshi	-11.4955
▁العربي	-11.4955
▁ee	-11.4956
▁munafukai	-11.4956
▁pèsè	-11.4958
▁actress	-11.4958
▁jaruma	-11.4958
▁manzon	-11.4959
▁البوليساريو	-11.4959
ሕ	-11.4959
▁ቦርድ	-11.4959
▁jinjina	-11.496
▁Ojumo	-11.496
▁BABA	-11.496
▁fedha	-11.4961
▁رسمي	-11.4961
▁😹😹😹😹	-11.4962
▁uza	-11.4962
▁በኦሮሚያ	-11.4963
▁olori	-11.4963
▁نتا	-11.4963
▁ደጋፊዎች	-11.4964
▁uwarsa	-11.4964
▁ment	-11.4964
▁habari	-11.4966
kowa	-11.4966
▁ውጤት	-11.4974
▁adiri	-11.4976
star	-11.4976
▁نتي	-11.4977
▁ጨምሮ	-11.4979
▁careful	-11.498
ÇÃO	-11.498
fucking	-11.498
▁jeito	-11.498
▁umeme	-11.498
▁nkwasia	-11.4981
▁Sumayya	-11.4982
▁Perezida	-11.4982
▁dànù	-11.4982
▁ትልቁ	-11.4982
▁ìbẹ̀rẹ̀	-11.4982
▁😒😒	-11.4982
▁òṣùpá	-11.4982
ربي	-11.4983
▁tsaye	-11.4983
▁asked	-11.4984
▁nweta	-11.4985
▁Onwero	-11.4985
▁mak	-11.4985
▁هكذا	-11.4986
▁bazasu	-11.4986
traditional	-11.4988
▁Suma	-11.4988
▁soke	-11.499
▁àpò	-11.4991
▁mengi	-11.4993
▁id	-11.4993
uku	-11.4994
▁áká	-11.4994
▁rafa	-11.4995
▁ውሻ	-11.4996
▁🥲	-11.4996
rọ́	-11.4997
▁neck	-11.4998
▁tentar	-11.4999
▁amabwiriza	-11.5
▁abe	-11.5001
ká	-11.5002
jd	-11.5002
▁Uko	-11.5003
75	-11.5004
▁èèwọ̀	-11.5004
▁😹😹	-11.5004
▁pẹ̀lẹ́	-11.5004
▁didi	-11.5005
eye	-11.5006
▁albarkacin	-11.5006
▁الش	-11.5007
PA	-11.5007
▁ebele	-11.5007
polongo	-11.501
rt	-11.501
▁Beeni	-11.5011
▁ዲ	-11.5011
▁نعرف	-11.5015
SE	-11.5018
▁agaghi	-11.5018
▁akhir	-11.5019
▁hoto	-11.5022
ቸ	-11.5022
▁Saka	-11.5023
▁mini	-11.5023
▁Àṣà	-11.5023
▁mor	-11.5024
▁ጊዮርጊስ	-11.5026
gbọ́n	-11.5026
ming	-11.5027
▁forever	-11.5028
▁tiẹ̀	-11.5029
ore	-11.5029
▁Ukwu	-11.5031
▁MI	-11.5033
▁ዘንድሮ	-11.5034
▁fò	-11.5037
▁✌	-11.5038
▁conseguir	-11.5039
▁ranan	-11.504
ዮ	-11.5043
▁èlò	-11.5044
▁less	-11.5047
▁ምድረ	-11.505
▁ግለሰብ	-11.505
fy	-11.505
▁ሞጣ	-11.5053
81	-11.5054
▁shuwagabannin	-11.5055
▁pais	-11.5056
▁Nri	-11.5058
▁ትናንት	-11.5059
▁መር	-11.5062
▁🥴	-11.5062
ew	-11.5065
▁jade	-11.5065
▁يجب	-11.5065
▁ṣẹ̀ṣẹ̀	-11.5069
▁ute	-11.507
▁Inama	-11.507
▁دارو	-11.507
ነህ	-11.5071
▁fọwọ́	-11.5077
▁አቅም	-11.5077
▁የወያኔ	-11.5079
▁ar	-11.5082
▁shirt	-11.5082
▁iyì	-11.5082
▁amahoro	-11.5083
ጀ	-11.5084
▁òsì	-11.5086
ሃት	-11.5087
▁yard	-11.5089
obu	-11.5094
umwana	-11.5094
▁somos	-11.51
hhhh	-11.5101
Wi	-11.5102
are	-11.5102
11	-11.5102
ml	-11.5104
▁dẹ̀	-11.5104
▁artist	-11.5106
▁♥️	-11.5109
▁💃	-11.511
▁جات	-11.5111
▁bụla	-11.5111
▁Kada	-11.5112
▁inba	-11.5115
▁emere	-11.5116
▁lẹ́sẹ̀	-11.5117
idahun	-11.5123
😂💔	-11.5125
▁وان	-11.5125
▁mm	-11.5126
▁release	-11.5128
▁karuwa	-11.5129
▁Eji	-11.513
▁yankin	-11.5131
▁አንዴ	-11.5133
▁par	-11.5133
▁àì	-11.5136
sùn	-11.514
▁ልት	-11.5141
▁wọ́	-11.5141
ishi	-11.5142
68	-11.5143
▁Ọlá	-11.5145
▁biyo	-11.5146
▁nili	-11.5148
▁ijo	-11.515
▁جوج	-11.515
▁bik	-11.5151
▁hakika	-11.5151
▁Yu	-11.5152
▁likes	-11.5153
▁lm	-11.5154
▁koo	-11.516
▁Jo	-11.5162
sé	-11.5162
▁እንደው	-11.5164
▁songs	-11.5165
dịghị	-11.5166
▁Men	-11.5167
😫	-11.5169
🤦‍♂️	-11.517
kalli	-11.5171
▁Owo	-11.5173
66	-11.5173
afu	-11.518
😤	-11.5181
▁baiwa	-11.5185
▁Kana	-11.5189
▁السي	-11.519
▁kisha	-11.5192
zuru	-11.5197
😄😄	-11.5199
▁تصاور	-11.5201
lar	-11.5201
▁😀😀😀	-11.5202
▁Icyo	-11.5202
▁وانت	-11.5203
▁stone	-11.5203
▁porta	-11.5204
▁sinzi	-11.5204
▁karatu	-11.5208
▁rn	-11.521
▁ጉ	-11.521
Good	-11.5213
🏼	-11.5213
see	-11.5222
▁pan	-11.5222
▁Shugaba	-11.5225
bere	-11.5225
nada	-11.5228
dh	-11.5232
▁Masa	-11.5238
‍️‍️‍️	-11.524
▁የመጨረሻ	-11.524
tangaza	-11.5241
▁sendo	-11.5242
▁muntu	-11.5243
ky	-11.5246
▁sé	-11.5246
▁Enyi	-11.5247
rage	-11.525
▁bebree	-11.525
▁kunci	-11.5251
iba	-11.5253
.😂	-11.5254
▁Guy	-11.5257
▁umubyeyi	-11.5257
▁قتل	-11.5258
▁አለን	-11.5265
keka	-11.5266
😟	-11.5268
TE	-11.527
▁أم	-11.527
lol	-11.5271
▁ciwo	-11.5271
amahoro	-11.5272
▁mike	-11.5278
▁Our	-11.5279
▁kaje	-11.5279
نيش	-11.528
ረን	-11.5286
▁الوداد	-11.5287
▁pop	-11.5288
nigerian	-11.529
koresha	-11.5291
ሰራ	-11.5292
🤤	-11.5293
▁exam	-11.5294
àsà	-11.5295
ሉት	-11.5296
▁ማለ	-11.5296
መንግሥት	-11.5301
▁xuwa	-11.5302
▁plate	-11.5304
▁oportunidade	-11.5306
▁product	-11.5306
▁igihugu	-11.5306
▁maje	-11.5308
▁stuff	-11.5308
▁sério	-11.5309
Ò	-11.531
🙌🙌	-11.5312
TY	-11.5315
RO	-11.5316
▁mk	-11.5317
▁death	-11.532
▁khali	-11.5326
▁bird	-11.5327
▁jé	-11.5328
▁Hhhhhh	-11.5329
kiwa	-11.5331
▁important	-11.5331
▁Osi	-11.5331
ፈ	-11.5336
AH	-11.5337
▁kid	-11.5337
▁gbin	-11.5338
BE	-11.5338
TH	-11.5339
▁mwenye	-11.534
ም፣	-11.5341
▁saudi	-11.5341
مستوى	-11.5342
tes	-11.5342
▁budurwa	-11.5343
▁CCM	-11.5344
▁turo	-11.5344
▁ر	-11.5344
ቀጥታ	-11.5347
▁accept	-11.5347
RI	-11.5347
Simply	-11.5347
HananeElKhader	-11.5347
▁Eterno	-11.5347
WordConference	-11.5347
▁ህልውና	-11.5347
▁cabeça	-11.5347
▁relação	-11.5347
▁naijiria	-11.5347
▁Urakoze	-11.5347
▁uniform	-11.5347
▁stories	-11.5347
▁rusange	-11.5347
▁security	-11.5347
▁በላ	-11.5347
▁ፕሮግራም	-11.5348
▁ቢኖር	-11.5348
▁labarai	-11.5348
▁ashawo	-11.5348
▁اسبانيا	-11.5348
▁ሆድ	-11.5349
hila	-11.5349
▁lásìkò	-11.5349
▁dentro	-11.5349
▁falalu	-11.535
▁Chama	-11.5351
حيث	-11.5351
▁faço	-11.5351
▁alágbára	-11.5352
▁slide	-11.5352
▁ewì	-11.5352
▁tòní	-11.5352
▁gaggawa	-11.5353
▁nguvu	-11.5353
▁ይገባል።	-11.5354
▁package	-11.5354
▁እናመሰግናለን	-11.5354
▁inka	-11.5355
▁Afya	-11.5355
▁cidade	-11.5355
▁anyone	-11.5355
▁trabalhar	-11.5356
▁nyamara	-11.5357
▁wàjà	-11.5358
▁duniani	-11.5358
boda	-11.5358
▁بدون	-11.536
▁uvuga	-11.536
▁طنجة	-11.536
▁cyose	-11.536
▁ممكن	-11.536
▁mahaukata	-11.536
▁ሥቃይ	-11.536
لها	-11.5361
▁Nós	-11.5361
▁ግንኙነት	-11.5361
▁sucesso	-11.5361
▁brincar	-11.5362
▁الكَ	-11.5362
▁tukunna	-11.5363
▁Koko	-11.5364
▁kunce	-11.5366
▁dude	-11.5366
ሐ	-11.5367
▁oníṣẹ́	-11.5369
▁crazy	-11.5369
▁Miki	-11.537
▁Famba	-11.537
▁أما	-11.5371
▁missed	-11.5371
ndirimbo	-11.5372
▁انتم	-11.5372
▁qua	-11.5373
▁الخارجية	-11.5374
▁ናቸው።	-11.5374
▁كلها	-11.5374
▁Kene	-11.5375
fui	-11.5376
▁xata	-11.5376
يني	-11.5378
▁agwụ	-11.5378
▁Iji	-11.5379
▁zose	-11.5379
Man	-11.5381
▁Ààrẹ	-11.5382
▁lekki	-11.5383
▁àgbàlagbà	-11.5383
▁When	-11.5384
▁ɗaya	-11.5384
▁patronize	-11.5385
▁tanto	-11.5386
▁òru	-11.5386
▁leaf	-11.539
▁kolo	-11.539
ena	-11.5391
▁enwere	-11.5391
diri	-11.5392
▁dollars	-11.5392
▁ዘመቻ	-11.5394
RL	-11.5395
▁اخي	-11.5396
iko	-11.5396
▁يد	-11.5396
▁feelings	-11.5396
Ha	-11.5397
▁جاي	-11.5397
▁hehe	-11.5398
▁ịsị	-11.5399
▁àìsàn	-11.5402
wk	-11.5403
▁ynxu	-11.5403
nke	-11.5405
▁ካሳ	-11.5407
▁መጥፎ	-11.5407
lóyè	-11.5407
▁yinki	-11.5407
▁ድርድር	-11.5407
▁mgharba	-11.5408
▁lovely	-11.541
▁tirar	-11.5412
DL	-11.5412
▁lasan	-11.5413
▁inayo	-11.5414
▁text	-11.5414
▁apo	-11.5416
🙆	-11.5416
▁ملي	-11.5417
▁ríi	-11.5418
▁hụrụ	-11.5418
dí	-11.5419
▁ታማኝ	-11.542
rr	-11.5422
tak	-11.5423
nì	-11.5423
▁challenge	-11.5425
psg	-11.5426
▁bih	-11.5427
oku	-11.5428
▁gangan	-11.543
▁chim	-11.543
▁copy	-11.543
▁Asi	-11.5434
▁شباب	-11.5436
xactly	-11.5437
▁itama	-11.5438
نحن	-11.5438
▁janye	-11.5439
tinda	-11.5441
▁ቆ	-11.5441
▁fika	-11.5442
▁masoya	-11.5444
ema	-11.5444
የን	-11.5445
▁bure	-11.5446
▁aliye	-11.5451
abeg	-11.5452
▁nunawa	-11.5453
▁egbò	-11.5456
▁sahihi	-11.546
ide	-11.546
▁Wena	-11.546
▁يلعب	-11.5462
▁yanjye	-11.5462
▁Dede	-11.5462
▁OMA	-11.5462
▁yena	-11.5462
nwelu	-11.5465
▁mates	-11.5465
ጠን	-11.5466
▁fotos	-11.5466
ṣẹ̀	-11.5467
▁ṣẹ́gun	-11.547
😜😜	-11.5474
▁nfa	-11.5474
ake	-11.5474
▁ahhh	-11.5474
mento	-11.5477
▁kíá	-11.5477
▁هم	-11.5477
▁ስሜት	-11.5477
▁múra	-11.5477
▁❌	-11.5478
▁apu	-11.5478
▁2)	-11.5479
▁kwashe	-11.5479
▁onwero	-11.5479
▁fri	-11.5481
FC	-11.5487
OA	-11.5489
èrè	-11.5491
▁አራት	-11.5491
▁Bamu	-11.5491
land	-11.5491
▁مت	-11.5491
▁kauye	-11.5492
▁ቤቶች	-11.5494
HU	-11.5495
▁kúu	-11.5496
▁èdèe	-11.5499
▁بي	-11.5502
▁ባንዳ	-11.5508
rgue	-11.5509
JL	-11.5513
ụ	-11.5513
▁nesa	-11.5517
▁àárọ̀	-11.5517
unaomba	-11.5518
▁India	-11.5518
▁መናገር	-11.5522
▁والم	-11.5523
IR	-11.5523
عيش	-11.5523
▁damuwa	-11.5524
▁kinda	-11.5527
▁angel	-11.5528
▁lli	-11.5531
alam	-11.5531
▁eda	-11.5531
▁ثم	-11.5533
▁weed	-11.5534
▁KI	-11.5535
▁#104	-11.5535
mpa	-11.5537
▁bute	-11.5539
▁mì	-11.5542
♬	-11.5545
ቂ	-11.5546
▁diro	-11.5548
▁ስድብ	-11.5549
ኃ	-11.5554
▁በዛ	-11.5554
nzo	-11.5554
bq	-11.5555
lica	-11.5558
08	-11.5558
ياء	-11.5559
▁usa	-11.556
▁toò	-11.5561
▁Nyama	-11.5563
ddy	-11.5563
▁paz	-11.5565
▁ashi	-11.5567
vel	-11.5567
▁chin	-11.5568
io	-11.5574
خارجية	-11.5576
▁brothers	-11.5576
▁ጥበብ	-11.5578
▁nabo	-11.558
▁olo	-11.558
▁zuciyar	-11.5581
▁80	-11.5581
🤪	-11.5583
▁rabbi	-11.5585
▁Bara	-11.5585
▁raka	-11.5588
▁yacu	-11.5588
Is	-11.5589
▁😏😏😏	-11.5589
▁pena	-11.5589
▁ogbon	-11.5593
▁Kuwa	-11.5596
ial	-11.5598
▁መቀሌ	-11.5598
bnat	-11.56
ራሱን	-11.5607
▁Omalicha	-11.5608
▁kọrin	-11.5608
ራሽ	-11.561
▁ẹ̀ka	-11.5612
ber	-11.5614
▁kanyi	-11.5616
▁bear	-11.5624
▁😎😎😎	-11.5625
ought	-11.5625
obodo	-11.5625
▁uwan	-11.5625
keneye	-11.5627
🥴	-11.563
sse	-11.563
▁suck	-11.563
🌹	-11.5631
wipe	-11.5632
▁ይፋ	-11.5633
ሄድ	-11.5633
▁بدا	-11.5634
▁nessa	-11.5637
Go	-11.5639
▁kodai	-11.564
▁èw	-11.5641
▁በእ	-11.5642
ጠብቅ	-11.5643
▁En	-11.5645
ekuwa	-11.5645
udo	-11.5646
▁obiaa	-11.5649
▁aika	-11.565
▁nikam	-11.565
Eu	-11.5651
▁ስሙ	-11.5651
ሳት	-11.5652
pè	-11.5655
▁acontece	-11.5656
far	-11.5659
▁ض	-11.566
▁12.	-11.5662
▁rú	-11.5664
sì	-11.5664
▁Baby	-11.5665
ፅ	-11.5668
liwa	-11.5668
ụlọ	-11.5669
▁tausayin	-11.5671
▁azar	-11.5671
▁መስጠት	-11.5671
ነሱ	-11.5674
ouch	-11.5676
ureba	-11.568
fer	-11.568
▁anis	-11.5686
ወር	-11.5688
ሸነፍ	-11.5688
▁lil	-11.5689
ኪ	-11.5692
▁omalicha	-11.5692
▁nadi	-11.5696
▁Hhh	-11.57
ረት	-11.57
▁daka	-11.5705
▁merece	-11.5708
soro	-11.5709
gologo	-11.571
▁kbs	-11.571
mr	-11.5712
▁talent	-11.5713
▁alfahari	-11.5718
▁iza	-11.5719
▁اله	-11.5719
▁طريق	-11.5719
▁número	-11.5719
uk	-11.572
gl	-11.572
▁الشر	-11.5721
♥	-11.5721
mk	-11.5723
lek	-11.5723
▁wataran	-11.5724
?""""	-11.5724
▁blue	-11.5724
idan	-11.5724
▁dịkwa	-11.5726
▁ገብቶ	-11.5726
▁moça	-11.5727
▁KWA	-11.5728
▁procura	-11.5731
▁bal	-11.5734
▁david	-11.5736
▁ለማን	-11.5736
▁riri	-11.5736
kiní	-11.5737
JA	-11.5738
▁ፍርድ	-11.574
▁miyar	-11.574
▁አም	-11.5741
▁soso	-11.5742
...""""	-11.5742
▁mistake	-11.5745
▁سير	-11.5745
▁اختي	-11.5746
▁hege	-11.5746
كي	-11.5746
gùn	-11.5746
▁jima	-11.5747
▁sum	-11.5749
نبيلة	-11.575
HQ	-11.5752
▁boye	-11.5752
▁arrest	-11.5759
▁አላውቅም	-11.5759
▁naked	-11.576
▁ይባላል	-11.5761
▁እኩል	-11.5762
▁Nime	-11.5763
››	-11.5764
▁simply	-11.5764
▁Àfọ̀njá	-11.5764
▁ምሽት	-11.5764
▁wọ̀nyìí	-11.5764
▁ፖርቲ	-11.5764
▁angry	-11.5764
▁lawyer	-11.5764
▁alkawari	-11.5764
▁فكازا	-11.5764
▁lukman	-11.5764
▁آخر	-11.5764
▁laycon	-11.5764
ريزو	-11.5764
▁frame	-11.5764
▁maendeleo	-11.5764
▁senior	-11.5764
▁ነዋሪዎች	-11.5764
▁ìlọsíwájú	-11.5764
▁tailor	-11.5765
▁vejo	-11.5765
▁አሕመድ	-11.5765
BBNaija	-11.5765
▁المشكل	-11.5765
▁capaz	-11.5765
dstv	-11.5766
يع	-11.5766
▁certain	-11.5766
▁tarde	-11.5766
▁oghniya	-11.5767
▁ọ̀pá	-11.5767
▁scared	-11.5769
▁preciso	-11.5769
kuba	-11.5769
▁kujerar	-11.577
tweetYoruba	-11.5771
▁አሪፍ	-11.5771
▁bwawe	-11.5772
ft	-11.5773
▁rinne	-11.5773
▁kekere	-11.5774
▁pull	-11.5774
wara	-11.5774
▁የጦር	-11.5775
▁pọn	-11.5776
▁àbá	-11.5776
▁mogya	-11.5776
▁fulani	-11.5776
▁دوك	-11.5777
▁Deixa	-11.5778
▁response	-11.5778
▁kahle	-11.5778
▁ìdáhùn	-11.5778
▁guerra	-11.5778
▁እያል	-11.5778
▁ìkòkò	-11.5778
▁steady	-11.5778
▁nkọ́	-11.5778
It	-11.5779
chiri	-11.5779
?😂😂	-11.578
▁Ogbeni	-11.578
▁Akuko	-11.578
▁lemm	-11.5781
▁Dear	-11.5781
▁የዘር	-11.5781
▁💀	-11.5783
▁Tsh	-11.5784
bò	-11.5785
▁Maganar	-11.5785
ngaji	-11.5786
cewa	-11.5786
▁mmaa	-11.5787
▁avuga	-11.5788
▁bit	-11.5788
▁Harya	-11.579
▁parun	-11.5791
▁ስትል	-11.5792
▁amanhã	-11.5792
▁namorar	-11.5793
ud	-11.5793
▁zakuyi	-11.5796
▁govt	-11.5796
fọ̀n	-11.5797
▁خاصة	-11.5797
▁fess	-11.5799
yawo	-11.58
▁mostrar	-11.5801
▁لوكان	-11.5801
▁دائما	-11.5802
▁በርካ	-11.5802
▁kariya	-11.5805
▁jọba	-11.5805
▁simples	-11.5805
▁ológun	-11.5806
▁አደራ	-11.5808
▁lead	-11.5809
▁Gini	-11.5809
▁yára	-11.5809
▁ansha	-11.581
▁huko	-11.581
▁ajuda	-11.5811
Isese	-11.5812
▁ቢል	-11.5814
ito	-11.5814
▁ikiganiro	-11.5816
▁speaking	-11.5817
african	-11.5817
▁Iwu	-11.5817
▁cinye	-11.5818
▁ይሄንን	-11.5819
▁kujya	-11.582
▁Waye	-11.5823
▁iyọ̀	-11.5823
▁خارج	-11.5824
▁model	-11.5824
▁قلت	-11.5824
▁ትርጉም	-11.5825
▁بنادم	-11.5826
▁loving	-11.5827
▁ማግኘት	-11.5827
35	-11.5828
▁agwula	-11.583
▁🔥🔥🔥🔥	-11.5832
▁giwa	-11.5833
▁Zaki	-11.5834
▁acting	-11.5836
▁dim	-11.5837
▁Nile	-11.5837
▁niwe	-11.5837
▁jiqan	-11.5839
▁umas	-11.584
▁daabi	-11.584
▁responder	-11.5842
▁gamu	-11.5843
amini	-11.5843
▁👍👍	-11.5844
arfin	-11.5844
▁በቂ	-11.5844
▁ግብር	-11.5847
▁kra	-11.5847
▁mfite	-11.5848
▁sakawa	-11.5848
▁umuaka	-11.5849
▁hose	-11.5849
▁mune	-11.5849
▁ቡና	-11.585
fr	-11.5851
▁امبعد	-11.5852
▁ariwo	-11.5853
kye	-11.5855
▁olhar	-11.5855
▁ኃይል	-11.5855
▁ọrùn	-11.5856
▁wando	-11.5858
▁Uwo	-11.5859
▁uwez	-11.586
▁Swa	-11.5862
▁fees	-11.5862
tw	-11.5863
▁Obu	-11.5864
▁afam	-11.5864
▁فات	-11.5868
BO	-11.5869
kwana	-11.5869
▁shehu	-11.587
ẹnu	-11.587
▁door	-11.5871
▁wc	-11.5872
▁alumma	-11.5873
▁mbili	-11.5874
We	-11.5875
▁gajiya	-11.5876
▁imere	-11.5878
ዎችን	-11.5878
54	-11.5878
▁odikwa	-11.5879
▁ليها	-11.5879
▁المال	-11.5883
▁Nkem	-11.5883
▁gaan	-11.5884
ውያን	-11.5884
mz	-11.5885
lz	-11.5886
▁adìẹ	-11.5889
▁هد	-11.589
▁anga	-11.5891
▁kwace	-11.5891
▁ikipe	-11.5892
▁???	-11.5892
ስት	-11.5893
▁rd	-11.5893
ينا	-11.5894
▁inshuti	-11.5894
መጡ	-11.5894
መራ	-11.5894
ካን	-11.5897
▁yafara	-11.5898
▁CHUKWU	-11.59
▁Christmas	-11.59
29	-11.5901
▁ህዝቡ	-11.5902
▁khir	-11.5902
▁ሳያ	-11.5903
▁ጥፋት	-11.591
▁😂😂😂😂😂😂😂😂	-11.5914
bó	-11.5916
Mi	-11.5919
▁bavuga	-11.5919
38	-11.5921
سؤال	-11.5923
qe	-11.5923
87	-11.5928
ṣọ	-11.5928
use	-11.5929
▁slow	-11.5931
▁nekwa	-11.5933
▁Nida	-11.5933
▁abum	-11.5939
LE	-11.5939
▁kabarin	-11.5939
▁ushaka	-11.5939
▁anima	-11.594
▁ifite	-11.5944
him	-11.5946
PC	-11.5947
▁bintu	-11.5949
JU	-11.5949
.\	-11.595
▁ránṣẹ́	-11.595
▁bola	-11.5951
▁ኦሮሚያ	-11.5952
▁YÍ	-11.5955
Zu	-11.5957
▁dájú	-11.5958
yote	-11.5958
ئة	-11.596
kubita	-11.596
ገኝ	-11.5961
▁nr	-11.5962
bw	-11.5964
pira	-11.5964
tomar	-11.5966
▁Oju	-11.5968
▁ሰላማዊ	-11.5971
▁cyang	-11.5971
bra	-11.5973
ça	-11.5977
amazi	-11.5978
▁ደሴ	-11.5979
rawa	-11.598
▁leva	-11.5981
كتب	-11.5982
ጩ	-11.5984
▁kuje	-11.5985
swa	-11.5985
▁fadan	-11.5988
▁الإ	-11.5988
▁faa	-11.599
IB	-11.5991
እኔ	-11.5995
44	-11.5995
ṣé	-11.5996
makon	-11.5996
So	-11.5997
▁pq	-11.5997
79	-11.5999
▁rẹ́	-11.5999
Ba	-11.6
▁nnaa	-11.6
▁____	-11.6001
▁ọjọ	-11.6001
▁Ado	-11.6002
bn	-11.6002
▁west	-11.6003
ሣ	-11.6005
▁ቢያ	-11.6006
▁Pai	-11.6007
ás	-11.601
▁kari	-11.601
reke	-11.6016
▁hancin	-11.6018
▁bụghị	-11.602
radi	-11.602
▁ትክክለኛ	-11.6022
ass	-11.6023
▁amam	-11.6023
▁acaba	-11.6023
▁ተወ	-11.6026
▁pari	-11.6027
▁woy	-11.6027
fanyika	-11.6029
▁نشوف	-11.6032
ዓለም	-11.6039
▁ZA	-11.604
▁khass	-11.604
▁📻	-11.604
قضية	-11.604
▁imyaka	-11.6041
On	-11.6042
▁saki	-11.6044
▁tete	-11.6045
▁river	-11.6046
▁manda	-11.6046
▁sè	-11.6047
▁ዳ	-11.6055
😠😠	-11.6056
hn	-11.6057
▁akin	-11.6058
▁kufurahi	-11.6058
▁tumi	-11.6059
🤧	-11.6062
elewa	-11.6063
▁tah	-11.6064
alo	-11.6064
▁Hu	-11.6065
▁????❤	-11.6067
▁لهم	-11.6068
▁ፍሬ	-11.6069
ው።	-11.6069
▁òkúta	-11.6074
▁abokin	-11.6076
tọ	-11.6076
▁Sh	-11.608
AN	-11.6083
▁travel	-11.6084
▁pale	-11.6084
😰	-11.6084
😃😃	-11.6084
▁مهم	-11.6089
▁ass	-11.6091
▁karatun	-11.6095
▁የመጣ	-11.6095
አዲሱ	-11.6096
Am	-11.6099
▁አጋ	-11.6099
VS	-11.61
▁goli	-11.61
music	-11.6103
nywa	-11.6103
ጊ	-11.6104
Buhari	-11.6104
ቺ	-11.6104
▁Uzi	-11.6105
ess	-11.6106
76	-11.6106
ማን	-11.6108
ist	-11.611
Ranar	-11.6112
▁lbr	-11.6113
▁😱	-11.6114
▁alamu	-11.6118
▁ገበሬ	-11.6119
▁òrò	-11.6119
ረጅም	-11.6119
▁report	-11.6119
otu	-11.6121
óko	-11.6123
خاص	-11.6125
▁ህወሃት	-11.6128
Ga	-11.6129
▁babba	-11.6129
▁bush	-11.6133
▁😂🤣😂	-11.6135
ቅርብ	-11.614
▁tone	-11.6141
lc	-11.6144
▁soul	-11.6149
ዉን	-11.615
▁ekun	-11.6151
bé	-11.6151
▁makana	-11.6152
"".	-11.6153
🎂	-11.6154
▁feito	-11.6155
▁select	-11.6155
▁Sempre	-11.6155
this	-11.6156
▁daughter	-11.6156
▁crime	-11.6156
89	-11.6158
▁tawa	-11.616
▁الخ	-11.6161
ice	-11.6162
▁though	-11.6162
▁dage	-11.6164
▁vos	-11.6165
▁اول	-11.6166
▁wlhi	-11.6167
uweze	-11.6167
▁ባዶ	-11.6173
▁download	-11.6175
▁epp	-11.6177
▁xan	-11.6178
amba	-11.6178
LY	-11.6179
ሃለሁ	-11.6181
▁sina	-11.6185
▁Hehehe	-11.6186
قمة	-11.6187
سي	-11.6187
▁ጥሪ	-11.6187
▁Ìgb	-11.6188
▁abagore	-11.619
▁àjọ	-11.6191
▁الدولي	-11.6191
▁Baza	-11.6191
▁boda	-11.6192
ifa	-11.6194
09	-11.6195
▁xaki	-11.6195
▁dagaske	-11.6196
▁est	-11.6196
tukar	-11.6196
▁البرلماني	-11.6196
gidigba	-11.6196
DF	-11.6197
ṣọ́	-11.6197
▁ƴan	-11.6197
▁flog	-11.6198
ID	-11.6198
Evangelho	-11.6199
Parioweyii	-11.6199
Random	-11.6199
▁akitiyan	-11.6199
▁evangelho	-11.6199
▁fácil	-11.6199
▁ụgwọ	-11.6199
ጠቃላይ	-11.6199
▁dangote	-11.6199
SecureNorth	-11.6199
▁Wilaya	-11.6199
▁eledumare	-11.6199
▁situation	-11.6199
▁ìṣòro	-11.6199
Iseseday	-11.6199
OminiraNigeria	-11.6199
▁الحشيش	-11.6199
▁humanidade	-11.6199
▁character	-11.6199
▁lugha	-11.6199
▁mekunu	-11.6199
▁teeth	-11.62
▁dhidi	-11.62
▁tsufa	-11.62
▁haryanzu	-11.62
▁ነች	-11.62
way	-11.62
▁ìpè	-11.6201
▁በሉ	-11.6201
▁ẹ̀yà	-11.6201
▁innocent	-11.6201
▁አማራጭ	-11.6201
▁remind	-11.6201
▁وزو	-11.6202
▁lọ́kàn	-11.6202
manchester	-11.6202
▁escola	-11.6202
▁dẹ́	-11.6203
▁Oburo	-11.6203
▁ህዝቦች	-11.6203
▁ስጦታ	-11.6203
▁obia	-11.6204
▁gefe	-11.6204
▁noneho	-11.6204
ami	-11.6204
▁egúngún	-11.6205
▁karasa	-11.6205
▁lauje	-11.6206
▁pursue	-11.6206
▁rayukan	-11.6207
▁shift	-11.6207
▁ọmú	-11.6207
▁statement	-11.6207
hdar	-11.6207
▁lalata	-11.6208
▁ከአ	-11.6208
▁òṣèlú	-11.6208
▁እንደዛ	-11.6208
▁يستحق	-11.621
▁Fu	-11.6211
▁hù	-11.6211
▁chofi	-11.6212
▁Parabéns	-11.6213
▁jovem	-11.6213
▁saturday	-11.6213
▁Emmanuel	-11.6213
▁opportunity	-11.6213
▁smart	-11.6213
▁zaune	-11.6213
▁mahaukaci	-11.6213
▁Fúlàní	-11.6213
▁እንጅ	-11.6213
▁أخرى	-11.6214
▁Zazzau	-11.6214
▁ብቸኛ	-11.6214
art	-11.6215
▁Ọpẹ́	-11.6215
▁makeup	-11.6216
▁ọ̀bọ	-11.6217
umugore	-11.6217
▁branch	-11.6217
▁pipo	-11.6218
▁dizem	-11.6219
▁fadawa	-11.622
▁mans	-11.622
wise	-11.622
▁podia	-11.622
▁ibindi	-11.6221
ntes	-11.6222
▁Live	-11.6222
▁انتي	-11.6222
▁Dubai	-11.6222
▁tari	-11.6222
▁Mutum	-11.6224
▁Okpa	-11.6225
▁zabi	-11.6226
▁suya	-11.6226
wakoze	-11.6227
▁Magana	-11.6227
ted	-11.6227
▁akụkọ	-11.6229
▁رائعة	-11.623
▁شوية	-11.623
▁fome	-11.6231
▁ስላ	-11.6231
▁ruru	-11.6231
▁ziri	-11.6232
yiwa	-11.6234
▁nlọ	-11.6234
▁الرجال	-11.6234
▁missing	-11.6234
▁ọgwụ	-11.6235
▁yanayi	-11.6236
▁yab	-11.6237
▁sùúrù	-11.6238
▁òtítọ́	-11.6238
▁adura	-11.6238
▁Iberibe	-11.6238
▁bridge	-11.6238
Oriki	-11.6239
▁ማህበር	-11.6239
▁Boss	-11.6239
▁UM	-11.6239
▁egbon	-11.624
▁Mpa	-11.624
▁principal	-11.6241
▁Taska	-11.6241
▁store	-11.6241
▁national	-11.6242
Ta	-11.6243
▁haifi	-11.6244
▁jazzy	-11.6245
▁banyi	-11.6246
▁meio	-11.6246
CI	-11.6247
▁email	-11.6247
▁በማለት	-11.6247
▁وليس	-11.6249
▁keka	-11.625
▁perguntar	-11.6251
▁personal	-11.6252
urwanya	-11.6252
▁Hello	-11.6252
▁ogini	-11.6252
▁fiya	-11.6253
▁ọnwa	-11.6253
▁issues	-11.6254
▁channel	-11.6254
▁teka	-11.6255
▁Well	-11.6256
▁الشباب	-11.6256
▁baálẹ̀	-11.6257
▁kukeyi	-11.6258
▁Follow	-11.6258
▁èpè	-11.6259
▁kona	-11.6262
▁opin	-11.6263
▁mmaji	-11.6263
▁itegeko	-11.6264
▁Oodua	-11.6265
▁dàbí	-11.6266
▁quality	-11.6266
▁happening	-11.6266
▁baida	-11.6266
▁ajọ	-11.6267
▁ib	-11.6268
▁nea	-11.6268
▁sekt	-11.6268
▁Olisa	-11.6269
▁مليح	-11.6269
▁ṣà	-11.6269
😭🙏	-11.6271
▁nibyo	-11.6271
▁mudar	-11.6271
▁north	-11.6273
▁የኢ	-11.6275
▁amanota	-11.6279
▁paaaa	-11.6279
▁inter	-11.6279
▁ṣàmọ́dún	-11.628
ibadan	-11.628
▁zake	-11.6281
በው	-11.6281
FI	-11.6284
▁waba	-11.6291
ጁ	-11.6292
😭💔	-11.6292
punguza	-11.6293
▁wàá	-11.6293
▁okike	-11.6294
▁bàtà	-11.6295
▁cat	-11.6296
▁كثر	-11.6296
ራቅ	-11.6298
▁njẹ́	-11.6298
OTO	-11.6301
▁começa	-11.6301
▁ዕ	-11.6301
▁upon	-11.6302
AK	-11.6302
inisitiri	-11.6303
iha	-11.6305
koze	-11.6307
▁mbele	-11.6309
LL	-11.6312
▁Q	-11.6312
▁📍	-11.6313
▁📸	-11.6315
▁ṣoṣo	-11.6315
▁villa	-11.6316
▁ቅር	-11.6316
▁pdp	-11.6316
En	-11.6319
▁husika	-11.6319
ለም	-11.6322
ذ	-11.6323
▁fassara	-11.6324
ẹ́nu	-11.6324
▁ampa	-11.6327
▁oche	-11.6328
iyo	-11.6329
▁gee	-11.6332
cl	-11.6333
በቃ	-11.6334
As	-11.6334
duru	-11.6335
▁ታክስ	-11.6335
▁rabu	-11.6337
Of	-11.6338
▁yabar	-11.6338
rafiki	-11.6341
▁obe	-11.6341
▁feira	-11.6341
▁Video	-11.6342
▁seat	-11.6342
ounje	-11.6343
▁😭😭😭😭😭😭	-11.6343
▁إذا	-11.6343
▁leni	-11.6345
▁Ndo	-11.6347
▁binu	-11.6347
pẹ́	-11.6348
▁nuhu	-11.6349
nia	-11.6349
▁imwe	-11.635
▁banku	-11.6352
iru	-11.6357
▁bakwa	-11.6358
TT	-11.6361
.🙏	-11.6362
▁abre	-11.6364
▁kinsa	-11.6366
▁karama	-11.6366
▁بغينا	-11.6367
▁agree	-11.6367
▁ذلك	-11.6368
▁الانتخابات	-11.6368
▁ኳስ	-11.6368
▁TA	-11.6369
anyị	-11.637
▁maghrib	-11.6373
▁الحل	-11.6373
kùnrin	-11.6375
fl	-11.6376
وت	-11.6376
▁Au	-11.6376
ME	-11.6377
▁Ibo	-11.6378
▁ሶስት	-11.6378
▁uweze	-11.638
▁wlah	-11.6382
▁ubona	-11.6383
▁sori	-11.6389
▁دراري	-11.6393
▁andar	-11.6393
ነቱ	-11.6394
ziri	-11.6397
▁cu	-11.6397
lie	-11.6399
▁kwalliya	-11.64
▁Basi	-11.64
▁akaba	-11.6405
▁èwe	-11.6406
▁nwokem	-11.6407
gonna	-11.6407
muden	-11.6407
▁ست	-11.6408
▁kaina	-11.6409
▁يجي	-11.6412
▁dún	-11.6412
▁ወጥ	-11.6413
▁yote	-11.6414
▁አጥ	-11.6415
uuu	-11.6415
tty	-11.6416
▁daily	-11.6416
▁wada	-11.6418
jy	-11.6418
▁lmo	-11.6418
💀	-11.6419
▁አገልግሎት	-11.642
▁አቦ	-11.6422
sẹ́ni	-11.6424
▁akụ	-11.6427
wọ	-11.6429
Vi	-11.643
▁oburo	-11.6431
ደርግ	-11.6434
LA	-11.6435
▁Umar	-11.6438
▁Uwar	-11.6439
rrr	-11.644
▁مند	-11.644
▁Wana	-11.6442
▁ولو	-11.6443
▁ተው	-11.6447
▁ɔnya	-11.6448
TU	-11.6451
▁kugeza	-11.6455
▁ota	-11.6457
▁mede	-11.6457
▁Juma	-11.6458
ئ	-11.6458
Your	-11.646
bcos	-11.646
▁tako	-11.6462
yon	-11.6463
▁buharin	-11.6466
رو	-11.6466
▁pamọ́	-11.6467
▁spot	-11.6467
ue	-11.6467
👍👍	-11.647
▁tji	-11.647
▁goes	-11.6473
nto	-11.6478
😒😒	-11.6479
here	-11.6482
AMA	-11.6483
wájú	-11.6483
eleza	-11.6484
▁naba	-11.6485
▁ወዳጅ	-11.6486
pita	-11.6489
▁wẹ̀	-11.649
▁gbawa	-11.6491
▁🙏🙏🙏🙏	-11.6494
YO	-11.6495
▁indian	-11.6498
▁ag	-11.6499
▁opo	-11.65
ض	-11.6501
imo	-11.6504
baki	-11.6504
ọ́nà	-11.6506
▁አቅጣጫ	-11.6507
▁gawa	-11.6507
hach	-11.6509
▁taku	-11.6512
▁Bama	-11.6512
🙊	-11.6515
መቶ	-11.6516
▁munji	-11.6516
▁ፖሊሲ	-11.6518
▁illa	-11.6519
▁kpọ	-11.652
IL	-11.6522
My	-11.6522
▁90	-11.6526
now	-11.6528
ደው	-11.6529
▁wine	-11.653
▁aah	-11.6533
Av	-11.6534
▁banji	-11.6535
és	-11.6538
anda	-11.654
ጤ	-11.6543
▁merin	-11.6544
😭😭😭😭😭	-11.6544
▁Ará	-11.6545
▁ጉዞ	-11.6547
💖	-11.6548
ሎች	-11.655
▁tada	-11.6556
▁musulma	-11.6557
مين	-11.6558
😬	-11.656
غادي	-11.656
▁planta	-11.6561
▁حر	-11.6562
feira	-11.6565
▁13.	-11.6568
▁Kú	-11.657
monday	-11.657
Ibadan	-11.6573
▁naaa	-11.6573
▁nihi	-11.6578
OT	-11.6579
LX	-11.6579
▁wodi	-11.6581
Qu	-11.6582
▁ኑሮ	-11.6583
😹😹😹	-11.6584
kiyaye	-11.6585
▁fellow	-11.6586
▁داك	-11.6588
yì	-11.6588
وي	-11.6588
🎼	-11.6588
bera	-11.6597
▁ein	-11.6598
▁uda	-11.6599
wd	-11.6599
labu	-11.66
▁jos	-11.6602
▁🙆‍♂️	-11.6603
▁port	-11.6604
86	-11.6605
▁bons	-11.6608
▁ghat	-11.661
▁project	-11.661
▁000	-11.6611
bɔ	-11.6612
▁ideia	-11.6614
ጠፋ	-11.6614
▁adawa	-11.6614
▁fyade	-11.6614
pl	-11.6615
شرف	-11.6615
ጣል	-11.6616
▁Yi	-11.6616
▁izo	-11.6616
▁leader	-11.6617
▁maria	-11.6618
▁shuka	-11.662
nb	-11.662
od	-11.6621
واد	-11.6622
▁Ewo	-11.6625
▁wacu	-11.6625
▁shugabanni	-11.6626
▁anyway	-11.663
▁eeii	-11.6633
▁mese	-11.6633
▁بنت	-11.6636
ጎ	-11.6636
▁☺	-11.6638
▁relax	-11.6638
ccess	-11.664
▁talakka	-11.6641
رى	-11.6641
▁baff	-11.6642
▁desta	-11.6642
▁yawon	-11.6642
ونا	-11.6643
ùpà	-11.6645
ራቸው	-11.6646
▁በመሆኑ	-11.6646
Pa	-11.6647
▁dayake	-11.6647
▁እኛን	-11.6648
▁ደጋፊ	-11.6648
ahom	-11.6648
▁relate	-11.6649
69	-11.6649
على	-11.6649
▁አይሆንም	-11.665
▁زوج	-11.665
▁አደረሰን	-11.6651
لابيجي	-11.6653
▁ebighebi	-11.6653
▁maiduguri	-11.6653
▁bahaushe	-11.6653
▁للبام	-11.6653
▁አካላት	-11.6653
▁egungun	-11.6653
Dream	-11.6653
▁campaign	-11.6653
▁káàkiri	-11.6653
▁three	-11.6653
▁único	-11.6653
▁መድረክ	-11.6653
▁fursa	-11.6653
▁Alheri	-11.6653
▁YDG	-11.6653
▁ያልከው	-11.6654
▁themselves	-11.6654
▁kuni	-11.6654
▁dizendo	-11.6654
▁rijiya	-11.6654
▁Abantu	-11.6654
▁pàápàá	-11.6654
▁láàrín	-11.6654
يد	-11.6654
▁Mwiriwe	-11.6654
▁àpáta	-11.6654
▁ọyẹ́	-11.6654
▁Mwanza	-11.6654
▁salary	-11.6654
▁meanwhile	-11.6654
▁العدل	-11.6655
▁among	-11.6655
▁ndewo	-11.6655
▁Hudu	-11.6655
▁esperança	-11.6655
▁expensive	-11.6655
▁አይቀርም	-11.6655
▁ÀTI	-11.6655
▁Why	-11.6655
▁acabou	-11.6655
▁whine	-11.6656
wibohora	-11.6656
dabona	-11.6656
orisa	-11.6656
▁ለመሆን	-11.6656
▁wheth	-11.6657
▁ekwueme	-11.6657
▁الحبيب	-11.6657
▁بيهم	-11.6658
▁details	-11.6658
ጀምር	-11.6659
yùn	-11.666
▁mwenyewe	-11.6661
▁tupu	-11.6661
ringBackOurGirls	-11.6663
▁mskin	-11.6663
▁Nka	-11.6664
▁ይችላል።	-11.6665
▁brag	-11.6665
▁lyk	-11.6666
▁pains	-11.6667
▁makomar	-11.6667
▁تبهليل	-11.6668
▁studio	-11.6668
▁ዲሞክራሲ	-11.6668
▁Alhaji	-11.6668
▁Àwòrán	-11.6669
▁pressure	-11.6669
▁Sorry	-11.6669
▁ẹiyẹ	-11.6669
ኗ	-11.6669
▁Biri	-11.6669
لجنة	-11.6669
kari	-11.667
▁Yeah	-11.667
BS	-11.667
▁ayò	-11.667
▁honestly	-11.667
▁role	-11.667
▁àgbo	-11.6671
الديمقراطية	-11.6671
▁Abacha	-11.6672
▁akwuna	-11.6673
▁Kuri	-11.6674
nam	-11.6675
▁;)	-11.6675
▁ugbu	-11.6675
▁የሆኑ	-11.6676
cce	-11.6676
▁حقوق	-11.6676
▁Papa	-11.6676
▁nível	-11.6676
▁bayinka	-11.6677
▁Shege	-11.6677
Orisa	-11.6678
▁wate	-11.6679
ries	-11.6682
▁Mhe	-11.6683
▁odù	-11.6686
gaghị	-11.6687
▁እህ	-11.669
▁Ayi	-11.669
▁Simba	-11.669
▁ajụ	-11.6691
▁አባል	-11.6691
lessons	-11.6693
▁Wasu	-11.6693
▁content	-11.6694
▁àkùkọ	-11.6694
▁advance	-11.6694
▁jomhor	-11.6694
▁Também	-11.6694
▁እንጀራ	-11.6694
▁bnadm	-11.6694
▁èdùmàrè	-11.6694
▁ታዲያ	-11.6694
▁birth	-11.6694
▁sexual	-11.6695
▁yarinyar	-11.6695
▁ONYE	-11.6695
▁nsọ	-11.6697
▁Ìpínlẹ̀	-11.6697
▁زيار	-11.6698
ربنا	-11.6699
▁ጎን	-11.6699
tanga	-11.6699
rị	-11.67
gede	-11.67
àkókò	-11.67
▁kuona	-11.67
▁علم	-11.6701
▁Odikwa	-11.6702
▁qarshen	-11.6702
▁አቤት	-11.6702
▁nobi	-11.6702
Otito	-11.6703
▁jazz	-11.6703
Watch	-11.6705
▁kasha	-11.6709
▁ambaye	-11.6711
▁Ẹní	-11.6711
▁ibitekerezo	-11.6712
▁kece	-11.6712
ተት	-11.6712
ተህ	-11.6713
▁ibada	-11.6714
كوم	-11.6714
▁soap	-11.6714
▁zoo	-11.6716
ND	-11.6717
▁nkita	-11.6718
▁uli	-11.6719
▁أحسن	-11.672
▁address	-11.672
ló	-11.6721
▁company	-11.6721
▁glad	-11.6722
▁delete	-11.6722
▁gender	-11.6723
▁ob	-11.6724
▁Bem	-11.6724
▁beef	-11.6725
ሃ	-11.6725
▁gbagbuo	-11.6726
▁chhal	-11.6726
▁عفا	-11.6727
▁kanwar	-11.6727
▁🤪	-11.6728
▁yavuze	-11.6729
▁onwere	-11.6729
🤐	-11.673
▁nkoaaa	-11.6733
kintu	-11.6733
▁isnt	-11.6737
▁lucky	-11.6737
▁muza	-11.6738
▁orileede	-11.674
▁monday	-11.674
MB	-11.6741
▁ፈተና	-11.6742
egun	-11.6745
▁ቢሮ	-11.6745
▁ogu	-11.6746
yán	-11.6747
▁amaghi	-11.6747
32	-11.6748
▁አዋጅ	-11.6748
▁nkwo	-11.6748
▁ሊግ	-11.6748
▁delta	-11.6749
▁Edumare	-11.6749
US	-11.675
▁mochkil	-11.675
▁ፓርቲዎች	-11.6752
La	-11.6753
▁unfortunate	-11.6755
▁؟؟	-11.6757
▁Aje	-11.6757
▁anci	-11.6759
African	-11.6759
ቦች	-11.6761
▁INA	-11.6764
▁ciwon	-11.6764
▁😹😹😹	-11.6767
▁nyem	-11.6768
▁juna	-11.6769
unu	-11.677
hw	-11.6771
▁stock	-11.6771
▁mke	-11.6771
ጄ	-11.6771
▁Mali	-11.6772
ejo	-11.6772
▁وسط	-11.6773
▁alikuwa	-11.6773
buka	-11.6774
▁الرباط	-11.6775
▁anzo	-11.6776
▁sáré	-11.6776
ሰሞኑ	-11.6777
▁souka	-11.6778
▁sbah	-11.6778
07	-11.6781
▁እንዲያ	-11.6782
▁lojo	-11.6784
▁Karo	-11.6786
▁ɗan	-11.679
▁Waya	-11.679
NT	-11.6791
▁طرف	-11.6793
هوم	-11.6793
▁ọlụ	-11.6793
▁دور	-11.6794
▁ignore	-11.6795
laka	-11.6795
baza	-11.6796
▁التاريخ	-11.6797
DU	-11.6798
▁ኤ	-11.68
azi	-11.6801
chana	-11.6803
▁salama	-11.6804
▁ሰላምን	-11.6805
▁inshingano	-11.6805
mhm	-11.6806
▁kuhakiki	-11.6806
napatikana	-11.6806
▁eee	-11.6807
▁inaga	-11.6808
▁Ima	-11.6809
▁Qual	-11.681
▁ohhh	-11.6811
▁lomo	-11.6811
▁عل	-11.6812
QW	-11.6812
▁ure	-11.6813
gura	-11.6813
IH	-11.6814
▁لأن	-11.6814
▁tazama	-11.6815
▁gats	-11.682
▁ቀይ	-11.6821
▁Show	-11.6822
ገና	-11.6823
ço	-11.6823
▁bei	-11.6823
bc	-11.6823
HN	-11.6825
▁ሰማይ	-11.6826
▁gra	-11.6826
▁Ila	-11.6827
▁قالو	-11.6828
TM	-11.683
▁ẹ̀fọ́	-11.683
▁mam	-11.683
▁muni	-11.6831
ሁን	-11.6834
Cabo	-11.6834
▁በአል	-11.6835
▁መጠበቅ	-11.6835
▁dudu	-11.6835
▁David	-11.6836
▁taji	-11.6837
▁شا	-11.6838
▁lon	-11.684
▁Pelo	-11.6842
▁gake	-11.6843
نصره	-11.6843
egwu	-11.6844
▁abar	-11.6844
▁اسم	-11.6847
▁ያሉትን	-11.6848
▁krom	-11.685
▁cedo	-11.685
RV	-11.6851
▁ሶ	-11.6852
▁طيح	-11.6853
▁😂😂😂😂😂😂😂😂😂	-11.6853
▁ق	-11.6854
▁ኢትዮ	-11.6856
tumi	-11.6856
▁Alá	-11.6857
▁ትህነግ	-11.6858
▁tutù	-11.6859
▁🤦‍♂️	-11.6859
▁insta	-11.686
▁Eje	-11.686
▁tusa	-11.6861
▁🤣😂🤣	-11.6868
▁fm	-11.687
رب	-11.6872
▁ያላ	-11.6873
▁ምት	-11.6878
▁swag	-11.6879
▁chekwa	-11.688
▁faça	-11.6881
▁ion	-11.6882
▁2000	-11.6883
dir	-11.6884
▁fuo	-11.6884
▁Make	-11.6884
▁Maza	-11.6886
▁ግንባታ	-11.6886
▁ተግባር	-11.6888
▁ወዲ	-11.689
▁Ethiopia	-11.6893
▁tìrẹ	-11.6893
▁ibí	-11.6897
▁sɛn	-11.6899
homa	-11.69
follow	-11.69
▁qa	-11.6902
▁Njye	-11.6902
uto	-11.6905
▁fix	-11.6908
▁takaici	-11.6908
▁kash	-11.691
OR	-11.691
▁roll	-11.6912
bwiye	-11.6912
tel	-11.6913
▁Fo	-11.6915
▁33	-11.6916
▁ስንቱ	-11.6917
▁gina	-11.6917
▁7.	-11.6919
ርት	-11.6921
RC	-11.6927
gbàtí	-11.6928
▁kayna	-11.6931
▁رجع	-11.6931
hy	-11.6933
👊	-11.6934
▁hka	-11.6935
ጣት	-11.6935
▁shekarun	-11.6937
عاش	-11.6938
▁ቤ	-11.6939
2013	-11.6941
tabiri	-11.6941
▁Cho	-11.6942
sk	-11.6944
በላ	-11.6948
▁Ugo	-11.695
▁dau	-11.6951
▁lazim	-11.6952
àtọ̀	-11.6958
▁past	-11.6958
▁እስ	-11.6959
▁ቤቱ	-11.6959
▁ባህል	-11.6963
زة	-11.6964
اً	-11.6965
▁èé	-11.6965
▁ወግ	-11.6966
▁promo	-11.6966
شكل	-11.6967
▁Ọwọ́	-11.6968
▁kabari	-11.6968
بناء	-11.6968
acho	-11.697
▁Ekiti	-11.697
ገር	-11.6972
▁وكي	-11.6975
Te	-11.6982
▁ɛbɛ	-11.6984
▁jinin	-11.6985
tangira	-11.6986
ሀ	-11.6987
não	-11.6987
▁يدير	-11.6988
...""""""""	-11.6988
▁raise	-11.6989
dìẹ	-11.6989
▁hwee	-11.6993
▁spec	-11.6993
▁raye	-11.6995
▁ulio	-11.6996
wal	-11.6997
Aba	-11.7002
kc	-11.7005
ናቸው	-11.7007
goro	-11.7008
▁izi	-11.7009
old	-11.701
▁bomb	-11.7011
Kz	-11.7013
▁foo	-11.7013
CR	-11.7013
ssan	-11.7014
▁የነበረ	-11.7015
ob	-11.7016
ፓርቲው	-11.7018
▁الر	-11.702
ING	-11.7021
▁Dun	-11.7024
▁በሆነ	-11.7025
▁ሐ	-11.7025
▁pere	-11.7025
▁transport	-11.7026
▁wire	-11.7028
😈	-11.7028
▁dabo	-11.7029
▁senhor	-11.7029
mt	-11.703
▁xasu	-11.7031
ziz	-11.7031
keji	-11.7031
🎵	-11.7032
▁loool	-11.7032
BU	-11.704
afi	-11.7041
▁bb	-11.7041
▁ምክ	-11.7041
fada	-11.7043
▁boolu	-11.7043
ልም	-11.7045
▁Amu	-11.7046
sie	-11.7048
binrin	-11.705
▁❤️❤️	-11.705
amesema	-11.7053
▁rwo	-11.7053
▁Usi	-11.7056
▁obaa	-11.7056
ero	-11.7057
op	-11.7061
▁dok	-11.7066
▁kipin	-11.7067
▁Ro	-11.7067
🤲🤲🤲	-11.7067
▁Ọlọ́	-11.7072
📌	-11.7072
▁takun	-11.7072
gana	-11.7073
🚶🚶🚶	-11.7077
aje	-11.7077
▁aina	-11.7079
▁👏👏	-11.708
▁እዳ	-11.7082
حتى	-11.7082
ትም	-11.7083
▁deh	-11.7083
ish	-11.7086
▁fahimta	-11.7088
▁ojire	-11.7091
▁turanci	-11.7094
▁ṣè	-11.7094
▁idea	-11.7098
GA	-11.71
▁داير	-11.71
▁member	-11.7101
OG	-11.7102
▁estado	-11.7104
▁مازال	-11.7104
▁fill	-11.7105
▁🙌🏽	-11.7106
▁iby	-11.7108
▁cum	-11.7109
▁ቤተሰብ	-11.711
▁yaja	-11.7111
▁kbir	-11.7111
▁positive	-11.7112
ìdí	-11.7113
▁Yah	-11.7113
rki	-11.7116
▁jíjẹ	-11.7117
▁ተላላኪ	-11.7119
ታከለ	-11.712
▁fair	-11.7122
▁lada	-11.7122
▁mitandao	-11.7123
▁ያስፈልጋል	-11.7123
▁ይመስለኛል	-11.7124
▁የመኪና	-11.7124
▁kujiunga	-11.7124
▁መሰለኝ	-11.7125
▁💥	-11.7125
Al	-11.7125
Le	-11.7126
▁sonho	-11.7127
▁Nma	-11.7127
▁ከየት	-11.7128
▁Mulher	-11.7128
▁Ahh	-11.7129
▁oje	-11.7129
IseseLagba	-11.7129
Magufuli	-11.7129
NigeriaDecides	-11.7129
OwoEyo	-11.7129
PariOweYii	-11.7129
idanoripapa	-11.7129
riousEndtimeWord	-11.7129
▁Problema	-11.7129
▁disturb	-11.7129
▁➡️	-11.7129
▁Tolulope	-11.7129
▁جيجل	-11.7129
▁cerveja	-11.7129
▁95.3	-11.7129
▁البيجيدي	-11.7129
▁ተከታዮች	-11.7129
ዉስጥ	-11.713
▁በየቀኑ	-11.713
àdánù	-11.713
▁Eledua	-11.713
▁للحكومة	-11.713
▁aghani	-11.713
▁wuri	-11.713
▁ààfin	-11.713
▁😂🤣😂🤣	-11.713
▁Oríkì	-11.713
▁Ome	-11.713
▁mapema	-11.713
▁الحرب	-11.713
▁puff	-11.713
▁sunwọ̀n	-11.713
▁munafurci	-11.7131
▁frente	-11.7131
▁ónyé	-11.7131
▁graça	-11.7131
▁ogbenye	-11.7131
▁akili	-11.7131
▁tsoran	-11.7131
▁فعلا	-11.7131
PP	-11.7132
▁يرجع	-11.7132
▁Mkur	-11.7132
▁kasance	-11.7132
▁TÍ	-11.7133
▁Wahala	-11.7133
▁Gị	-11.7133
▁በተግባር	-11.7134
▁ugbo	-11.7134
▁nyingine	-11.7134
tk	-11.7135
▁ẹdìẹ	-11.7136
▁choose	-11.7136
ዶላር	-11.7136
▁waɗan	-11.7136
▁seguir	-11.7137
▁saraha	-11.7137
▁murugo	-11.7137
▁umunna	-11.7137
gboProverbFriday	-11.7137
▁ọbụla	-11.7138
rom	-11.7138
▁የለውም።	-11.7138
korobia	-11.7139
🙌🏾	-11.7139
▁ሆና	-11.7139
kura	-11.7139
▁بلاد	-11.714
▁ይችላሉ	-11.714
▁ìgbé	-11.714
▁nmadu	-11.714
sambo	-11.7141
▁ajiye	-11.7141
▁presdo	-11.7141
▁Bikonu	-11.7143
▁army	-11.7143
▁ይሆናል።	-11.7145
▁private	-11.7145
▁Àsìkò	-11.7145
▁battery	-11.7146
▁gostar	-11.7147
▁tirẹ̀	-11.7147
▁ìgbàgbọ́	-11.7147
tik	-11.7147
igi	-11.7147
▁የሞጣ	-11.7148
▁trending	-11.7148
▁breathe	-11.7148
▁ẹlẹ́	-11.7148
RU	-11.7148
mail	-11.7148
▁Tudo	-11.7148
▁fẹ́ẹ́	-11.7148
▁landlord	-11.7149
64	-11.7149
▁የሀገር	-11.7149
▁degree	-11.715
▁̊°!	-11.715
▁ክብረት	-11.715
መን	-11.7151
▁ካንተ	-11.7151
▁ponto	-11.7153
▁Neman	-11.7153
▁የህወሓት	-11.7155
▁ọcha	-11.7155
▁popular	-11.7156
▁àlàyé	-11.7156
▁kumenya	-11.7156
▁Lokacin	-11.7157
▁borí	-11.7158
▁talakkawa	-11.7158
▁መጨረሻ	-11.7158
▁namna	-11.7159
▁ከሚ	-11.7159
▁track	-11.716
▁እየሰራ	-11.7161
▁الريف	-11.7162
▁ውሳኔ	-11.7162
▁continua	-11.7162
▁niki	-11.7164
idnapping	-11.7165
▁fojú	-11.7166
unapenda	-11.7167
oòrùn	-11.7167
▁manjo	-11.7168
▁focus	-11.7168
dánwò	-11.7169
▁kah	-11.7169
▁crianças	-11.7172
▁speech	-11.7172
▁December	-11.7172
▁Ẹlẹ́dàá	-11.7172
▁university	-11.7173
▁ግለሰቦች	-11.7174
▁ባለፈው	-11.7174
▁kikayi	-11.7174
▁káàbọ̀	-11.7174
uda	-11.7174
▁kifach	-11.7174
▁chako	-11.7174
▁empty	-11.7174
▁Doki	-11.7175
▁በመጨረሻ	-11.7176
▁voz	-11.7176
▁taimakawa	-11.7177
▁sms	-11.7177
kama	-11.7177
▁lóore	-11.7178
▁jefa	-11.7179
▁traze	-11.7179
▁لقد	-11.7181
▁vitu	-11.7181
▁Paul	-11.7182
▁እንባ	-11.7183
▁boom	-11.7184
▁ቆይታ	-11.7185
bele	-11.7186
▁ይዘው	-11.7186
eeeee	-11.7189
tokea	-11.7189
▁entender	-11.7189
▁near	-11.7193
▁تونس	-11.7194
▁ሚና	-11.7194
▁falhar	-11.7195
▁fihom	-11.7195
▁MB	-11.7196
▁fitowa	-11.7198
▁Ekaaro	-11.7201
▁ፕሮፌሰር	-11.7201
▁medi	-11.7201
▁bbchausa	-11.7202
▁راس	-11.7202
▁Obì	-11.7203
tendo	-11.7204
▁lab	-11.7205
▁Olo	-11.7205
were	-11.7206
▁ibem	-11.7206
MW	-11.7206
▁haquri	-11.7206
▁Bet	-11.7207
دار	-11.7208
▁ìjìnlẹ	-11.7208
ròhìn	-11.7211
▁mimba	-11.7211
▁amala	-11.7213
دين	-11.7218
tatu	-11.7219
▁menshi	-11.722
▁mummy	-11.722
▁inzira	-11.7221
▁wagira	-11.7221
▁Sasa	-11.7223
deɛ	-11.7224
▁zakayi	-11.7224
▁فرق	-11.7225
ws	-11.7229
▁enweghi	-11.7229
▁sonki	-11.7229
▁loss	-11.7229
▁Uwiteka	-11.7229
▁idà	-11.7229
▁ምስጋና	-11.7231
▁They	-11.7232
▁ọlọ	-11.7232
▁Leta	-11.7232
ilikuwa	-11.7234
▁godi	-11.7234
ልሽ	-11.7237
▁goals	-11.7237
▁bible	-11.7238
▁mão	-11.7239
▁خدام	-11.724
▁Musa	-11.724
ናገር	-11.7242
▁ተራራ	-11.7244
▁ikpu	-11.7245
kó	-11.7246
▁Bịa	-11.7246
kutan	-11.7247
wanda	-11.7248
▁neva	-11.7249
ዎት	-11.7249
▁ለሚ	-11.725
aram	-11.725
▁ሠው	-11.7251
▁agadi	-11.7252
lhe	-11.7252
▁Agẹmọ	-11.7254
tl	-11.7254
▁gala	-11.7254
▁خاطر	-11.7255
▁wụ	-11.7255
▁Ayo	-11.7256
Have	-11.7256
jẹ̀ẹ́	-11.7259
ọ̀wọ̀	-11.7259
▁Jana	-11.7261
▁Sabi	-11.7262
▁etiti	-11.7262
▁مك	-11.7263
وية	-11.7264
▁ቀድሞ	-11.7264
▁ilá	-11.7268
▁asin	-11.7271
▁points	-11.7271
▁را	-11.7273
gbue	-11.7273
▁jèrè	-11.7274
▁ብዛት	-11.7274
▁ውሰ	-11.7274
▁ehe	-11.7275
kipe	-11.7279
▁gajos	-11.7279
kwala	-11.728
▁ሰፈር	-11.7282
▁importa	-11.7282
▁ሕግ	-11.7283
▁Jan	-11.7283
مدة	-11.7283
▁بك	-11.7285
▁taata	-11.7286
▁ነፍጠኛ	-11.7286
▁àlè	-11.7287
▁Abo	-11.7287
wetara	-11.7288
enu	-11.7289
ug	-11.7289
▁ጭራ	-11.729
▁ወንበ	-11.729
afọ	-11.7291
▁ilo	-11.7291
ራችሁ	-11.7291
jar	-11.7291
▁🥂	-11.7295
محكمة	-11.7296
▁tra	-11.7296
miki	-11.7297
ሄዱ	-11.73
▁sán	-11.7305
teye	-11.7306
▁sanyi	-11.7306
▁ጥቁር	-11.7311
▁ماكان	-11.7312
▁ቀርቶ	-11.7312
ókè	-11.7312
▁🎂	-11.7314
▁trash	-11.7314
▁bákan	-11.7315
▁làgbà	-11.7318
andna	-11.7323
ولة	-11.7324
▁ring	-11.7324
▁kuzi	-11.7325
PK	-11.7326
kosa	-11.7328
hum	-11.7331
ዛሬ	-11.7333
osha	-11.7334
fia	-11.7334
▁jat	-11.7335
▁gbẹ́	-11.7337
▁kwala	-11.7342
bd	-11.7344
▁Wanan	-11.7344
▁ujo	-11.7344
▁وحدة	-11.7344
▁mbi	-11.7345
▁ቢሆንም	-11.7345
▁AND	-11.7347
▁tax	-11.7348
ادة	-11.7348
▁NO	-11.7349
ዶች	-11.7349
ahụ	-11.735
▁التعليم	-11.7352
▁gutanga	-11.7354
ነትን	-11.7357
Rw	-11.7357
▁yabi	-11.7358
وهم	-11.7359
▁مرا	-11.7361
▁kéré	-11.7362
ንድ	-11.7364
gbá	-11.7365
صحاب	-11.7366
nama	-11.7366
▁ስጋ	-11.7367
ster	-11.7367
▁منك	-11.7369
nc	-11.737
xq	-11.7371
▁كنا	-11.7371
يك	-11.7373
VB	-11.7375
▁😄😄	-11.7376
▁kiganiro	-11.7376
BBC	-11.7378
▁devem	-11.7378
▁dad	-11.738
ako	-11.7385
▁abịa	-11.7386
GO	-11.7387
ث	-11.7388
ትል	-11.7388
▁حال	-11.7389
▁ጉባኤ	-11.7389
▁nyankop	-11.7391
▁باه	-11.7392
Aka	-11.7392
▁agya	-11.7397
▁ሠ	-11.7397
▁ሞ	-11.7398
▁iskan	-11.7399
akom	-11.7399
ጦርነት	-11.7399
▁2014	-11.7399
بو	-11.7399
▁sukai	-11.74
▁ras	-11.74
▁mpamvu	-11.7401
▁مصر	-11.7404
▁❤️❤️❤️	-11.7404
▁sba	-11.7405
CA	-11.7405
py	-11.7407
▁ብሔር	-11.7407
▁tàn	-11.7407
rụ	-11.7409
▁70	-11.7409
jikansa	-11.7409
▁bda	-11.741
▁bil	-11.7411
▁ماشاء	-11.7412
mmy	-11.7413
▁Baka	-11.7414
▁Are	-11.7414
😂😂😂😂😂😂😂	-11.7414
▁tf	-11.7415
▁sah	-11.7417
gamba	-11.7417
▁😫	-11.7417
▁دول	-11.7419
gere	-11.7419
eru	-11.742
ally	-11.7421
▁Shan	-11.7421
▁kwụ	-11.7421
▁adom	-11.7422
▁ìbò	-11.7424
▁dawowa	-11.7425
DS	-11.7426
▁hrs	-11.7427
ds	-11.7428
▁olù	-11.7431
▁Ru	-11.7432
▁غا	-11.7432
ጋዊ	-11.7433
▁Zaman	-11.7434
VV	-11.7434
▁الاستقلال	-11.7437
biba	-11.7438
▁maara	-11.7438
▁Kuber	-11.7439
rù	-11.744
tiha	-11.7443
▁Qarya	-11.7443
ፒ	-11.7444
🤩	-11.7447
GE	-11.7448
▁mom	-11.7449
▁uyo	-11.7449
مع	-11.7451
XD	-11.7452
▁2-	-11.7453
▁fico	-11.7453
▁Nye	-11.7455
▁መንፈስ	-11.7455
▁Nu	-11.7456
ሁለት	-11.7457
▁chu	-11.7459
▁dinka	-11.746
▁okun	-11.7461
▁fá	-11.7465
iji	-11.7468
▁chini	-11.747
▁gay	-11.7471
ረግ	-11.7471
ነገሩ	-11.7471
▁zuba	-11.7471
▁sinmi	-11.7475
▁Un	-11.7475
NV	-11.7477
▁moral	-11.7479
▁Kati	-11.7482
▁basta	-11.7483
▁Gari	-11.7484
gé	-11.7484
Ag	-11.7485
An	-11.7486
🤫	-11.7488
buzima	-11.7489
▁mbe	-11.7495
▁Agam	-11.7495
▁pẹ	-11.7499
▁jar	-11.75
▁iliyo	-11.7503
▁فلا	-11.7505
▁Afo	-11.7505
shimira	-11.7507
▁yale	-11.7509
▁bára	-11.751
▁zamanin	-11.751
▁miye	-11.751
MK	-11.7512
ቱም	-11.7512
▁mukam	-11.7513
▁sowo	-11.7513
bj	-11.7515
59	-11.7515
ابة	-11.7517
▁biba	-11.7517
▁rọ́	-11.7518
▁kata	-11.7522
bet	-11.7522
tẹ̀	-11.7524
gufasha	-11.7526
🥲	-11.7528
▁makayn	-11.7531
▁muci	-11.7533
ጓ	-11.7533
▁የቀ	-11.7533
GU	-11.7533
sta	-11.7534
▁iti	-11.7535
▁shugabanci	-11.7537
▁Nkan	-11.754
Live	-11.754
▁jìn	-11.7543
rasa	-11.7544
ደር	-11.7545
ناش	-11.7545
abu	-11.7553
sịrị	-11.7554
Oduduwa	-11.7555
🚀	-11.7557
▁rent	-11.7558
▁odiro	-11.7561
🌍	-11.7561
wina	-11.7562
wl	-11.7563
▁ayée	-11.7564
▁igbu	-11.7566
ናል።	-11.7566
▁legend	-11.7567
ህወሓት	-11.7567
amos	-11.7567
😶	-11.7568
xx	-11.7568
RY	-11.7569
ወች	-11.7571
▁siyar	-11.7571
▁tsaka	-11.7571
ls	-11.7572
▁ربح	-11.7573
**	-11.7574
▁MT	-11.7574
تكم	-11.7575
igikombe	-11.7575
94	-11.7577
yeho	-11.7577
Friday	-11.7578
rar	-11.758
nini	-11.758
shatse	-11.758
▁Lall	-11.7582
▁edi	-11.7586
tete	-11.7587
👋	-11.7588
ህዝብ	-11.7588
▁preach	-11.7589
▁rue	-11.7589
🙃	-11.7589
▁birgeni	-11.7591
▁prison	-11.7592
▁الجزائري	-11.7592
▁والا	-11.7593
▁Oru	-11.7594
▁dè	-11.7594
▁isah	-11.7594
ውጤት	-11.7595
naomba	-11.7595
▁Tana	-11.7599
gha	-11.76
▁Gbà	-11.7601
Abuja	-11.7601
òkè	-11.7602
Moçambique	-11.7603
▁ዝ	-11.7604
▁beta	-11.7605
▁pizza	-11.7605
▁Cin	-11.7606
bwa	-11.7606
▁ghan	-11.7606
Nw	-11.7606
toka	-11.761
▁قانون	-11.761
▁ለአ	-11.7613
tashi	-11.7614
linda	-11.7616
▁Adi	-11.7617
▁😞	-11.7618
rm	-11.7618
ልና	-11.7619
▁sese	-11.7619
DM	-11.762
▁፥	-11.762
▁dena	-11.7621
▁قدم	-11.7621
مجرد	-11.7623
▁يعرف	-11.7624
شهيد	-11.7625
Jesus	-11.7626
▁mole	-11.7627
ሊት	-11.7628
▁فنان	-11.7629
Express	-11.7629
Nigbatiwonde	-11.7629
independence	-11.7629
▁current	-11.7629
▁industry	-11.7629
▁scratch	-11.7629
▁ውለታ	-11.7629
҈	-11.7629
▁Junho	-11.7629
▁Wizara	-11.7629
▁è̟tó̟	-11.7629
IMLD	-11.7629
▁ወዳጄ	-11.7629
👩‍	-11.7629
▁smiling	-11.7629
▁Eledumare	-11.7629
▁አጋጣሚ	-11.7629
▁አይመስለኝም	-11.7629
▁screen	-11.7629
▁Ọ̀gá	-11.7629
Lounge	-11.7629
tẹ́gùn	-11.763
▁ተቀባይነት	-11.763
▁pátá	-11.763
▁ምላሽ	-11.763
▁ዕድል	-11.763
▁álbum	-11.763
▁hassada	-11.763
guzi	-11.763
mùsùlùmí	-11.763
▁anymore	-11.763
ሀገራዊ	-11.763
▁elédùmarè	-11.763
▁reduce	-11.763
▁Nyagasani	-11.763
▁tòótọ́	-11.763
▁mkono	-11.763
▁በትክክል	-11.7631
▁اخرى	-11.7631
▁ሪፖርት	-11.7631
▁quiet	-11.7631
▁kwishyura	-11.7631
gaskiya	-11.7631
▁ኃላፊ	-11.7631
Ondo	-11.7632
▁ሰአት	-11.7632
▁المسؤولين	-11.7632
▁lyrics	-11.7632
sibye	-11.7632
Iroyin	-11.7632
▁tight	-11.7632
▁ሃይል	-11.7632
Life	-11.7632
▁የሚያደርግ	-11.7633
▁kalaman	-11.7633
▁ከምርጫ	-11.7633
▁የመከላከያ	-11.7633
▁engineer	-11.7633
yanxu	-11.7633
شهد	-11.7633
▁tried	-11.7633
▁jadda	-11.7634
▁omumu	-11.7634
▁mwanamke	-11.7634
▁هههههههه	-11.7635
▁ለህዝብ	-11.7635
▁የግል	-11.7635
▁futuro	-11.7635
▁Dalụ	-11.7635
▁💕	-11.7635
▁hurt	-11.7635
▁faint	-11.7635
▁ewiase	-11.7636
▁slay	-11.7636
▁massa	-11.7636
▁jẹ̀	-11.7637
رانا	-11.7637
▁nǹkankan	-11.7637
Imana	-11.7637
▁vibes	-11.7638
▁nkiti	-11.7638
▁sáyé	-11.7639
kọ̀ọ̀kan	-11.764
▁hatua	-11.764
▁Jide	-11.764
domin	-11.764
▁Rapu	-11.7641
▁Òwu	-11.7642
▁fàá	-11.7642
funga	-11.7643
▁Akpa	-11.7644
KJ	-11.7645
kasa	-11.7645
▁except	-11.7646
▁strength	-11.7646
▁Yèyé	-11.7646
▁برافو	-11.7646
▁catfish	-11.7646
▁IGWE	-11.7646
▁مجموع	-11.7646
hl	-11.7646
▁ገዳይ	-11.7646
uke	-11.7647
▁zita	-11.7647
akace	-11.7648
▁kasi	-11.7649
▁الخاصة	-11.7649
▁መሠረ	-11.7649
ino	-11.7649
▁chokran	-11.765
▁rasmi	-11.765
▁ወንድም	-11.765
▁ለሁሉም	-11.765
▁isu	-11.7651
▁redes	-11.7651
▁vê	-11.7651
▁òdodo	-11.7651
▁أش	-11.7652
▁xaku	-11.7652
▁banho	-11.7652
rh	-11.7653
▁Ejo	-11.7653
▁mbọ	-11.7653
▁olhos	-11.7654
▁dur	-11.7654
EP	-11.7655
▁tuza	-11.7657
▁tiyín	-11.7658
▁كلش	-11.7658
🙌🙌🙌	-11.7659
”.	-11.7659
▁morale	-11.7659
▁tweeter	-11.7659
▁😢😢😢	-11.7659
▁machine	-11.766
wana	-11.7661
▁يعيش	-11.7661
ìwé	-11.7661
sem	-11.7663
▁omume	-11.7663
👌👌	-11.7664
▁karku	-11.7666
▁profile	-11.7668
▁njọ	-11.7668
▁youths	-11.7669
▁Dike	-11.7672
▁repeat	-11.7673
▁التفاصيل	-11.7674
▁سانشيث	-11.7675
▁ቅዳሜ	-11.7675
▁ògbufọ̀	-11.7675
▁dokar	-11.7676
▁hayyu	-11.7676
▁souhaila	-11.7676
▁subscribe	-11.7677
▁አመራር	-11.7677
▁Gaza	-11.7677
▁sakon	-11.7677
▁agogo	-11.7677
▁roko	-11.7678
▁Gobe	-11.7678
▁osun	-11.7678
▁above	-11.7679
emos	-11.7679
▁beating	-11.7681
▁murnar	-11.7681
IP	-11.7681
▁Mutumin	-11.7683
▁የብልፅግና	-11.7684
▁compte	-11.7685
▁rasu	-11.7685
gyina	-11.7685
bah	-11.7686
▁kwako	-11.7686
▁kinfi	-11.7686
▁sda	-11.7689
▁banana	-11.7691
▁malta	-11.7691
▁عادي	-11.7691
🥰🥰	-11.7693
▁Kace	-11.7694
▁tayaya	-11.7694
▁aktar	-11.7695
▁sur	-11.7695
cW	-11.7697
▁julgar	-11.7697
▁gaskiyane	-11.7701
xl	-11.7701
▁garesu	-11.7703
▁ሰውዬ	-11.7704
Ej	-11.7704
▁ngwo	-11.7704
▁Prof	-11.7704
▁àmín	-11.7704
▁አመራሮች	-11.7705
▁ከተሞች	-11.7705
▁àlááfíà	-11.7706
ashaka	-11.7706
▁Ẹyẹ	-11.7706
▁ዕለት	-11.7707
▁miran	-11.7707
papọ̀	-11.7708
▁Ìfẹ́	-11.7708
uli	-11.7708
▁عندكم	-11.7708
fọdụ	-11.7711
▁singing	-11.7711
▁deste	-11.7712
▁wàhál	-11.7712
tal	-11.7713
▁ngwanu	-11.7714
▁building	-11.7716
▁apɔ	-11.7716
▁Eré	-11.7716
▁قرار	-11.7717
▁lya	-11.7719
▁wayar	-11.772
ማለት	-11.772
ፊያ	-11.7722
▁damemu	-11.7723
▁bóo	-11.7723
▁acontecer	-11.7723
▁ọ̀tọ̀	-11.7724
▁اين	-11.7725
▁ያለዉ	-11.7728
▁Dá	-11.7729
side	-11.7731
▁አለቃ	-11.7731
▁عارف	-11.7731
▁ባህር	-11.7732
PS	-11.7733
Kd	-11.7733
▁ማህበረሰብ	-11.7734
▁eeeh	-11.7736
ጡን	-11.7736
▁chaa	-11.7736
▁finished	-11.7736
▁ለኔ	-11.7737
▁ማንነት	-11.7738
ላቹ	-11.7738
▁የክልሉ	-11.7738
ukuri	-11.7738
ارة	-11.774
▁ph	-11.774
korera	-11.7742
▁ukiwa	-11.7744
▁yaso	-11.7745
▁okùn	-11.7748
تربية	-11.7752
▁vcs	-11.7752
▁sayar	-11.7753
▁مشكل	-11.7753
▁seconds	-11.7755
ዘጋ	-11.7755
▁قطر	-11.776
ula	-11.7761
kuku	-11.7761
▁ነጭ	-11.7762
cg	-11.7764
▁وهران	-11.7764
▁meho	-11.7766
▁ijebu	-11.7768
▁alaji	-11.7769
▁horas	-11.7769
ub	-11.7771
ብሽ	-11.7774
mel	-11.7774
▁Bar	-11.7775
urar	-11.7775
wiya	-11.7776
▁chat	-11.778
nje	-11.778
▁mọ́ra	-11.7782
yj	-11.7782
▁tive	-11.7782
▁kódà	-11.7783
▁nsem	-11.7783
lay	-11.7786
▁gwamnan	-11.7787
▁kuda	-11.7787
▁asaba	-11.7788
JK	-11.7789
▁Ore	-11.779
▁فينا	-11.7791
▁Alẹ́	-11.7791
ደገፍ	-11.7792
▁concorre	-11.7794
▁LÁ	-11.7796
▁yitwa	-11.7797
▁survive	-11.7797
TZ	-11.7797
▁furu	-11.78
▁Anayi	-11.7801
rẹ̀	-11.7802
ን፣	-11.7803
▁urubyiruko	-11.7804
▁የከተማ	-11.7805
sp	-11.7807
MS	-11.7808
▁letu	-11.781
achi	-11.781
▁ukwa	-11.7811
▁kwam	-11.7812
kongera	-11.7815
▁شر	-11.7817
òfin	-11.7818
▁marar	-11.7819
▁طاح	-11.7821
laini	-11.7821
ንግ	-11.7822
▁ህዝባዊ	-11.7824
▁taimakon	-11.7824
àlàyé	-11.7825
▁ኢህአዴግ	-11.7826
▁umutwe	-11.7827
PZ	-11.7827
▁Mutane	-11.7828
▁ግብፅ	-11.7828
▁ج	-11.7829
▁abani	-11.783
▁liga	-11.7831
▁kashewa	-11.7831
hm	-11.7833
yọ	-11.7833
Kw	-11.7834
▁orders	-11.7835
les	-11.7837
▁ịma	-11.7839
kumbuka	-11.7839
▁gihugu	-11.784
▁familia	-11.784
▁Fati	-11.7841
▁kalẹ̀	-11.7841
▁SAW	-11.7845
▁parts	-11.7847
▁Kayi	-11.7848
▁seria	-11.7849
PH	-11.785
▁ńlẹ̀	-11.7851
▁ቲቪ	-11.7854
ري	-11.7854
ékè	-11.7855
ọ̀run	-11.7857
▁سلام	-11.7858
ተኞች	-11.7858
الي	-11.7858
▁tuka	-11.786
NO	-11.7861
▁😝	-11.7861
XX	-11.7862
ዛሬው	-11.7863
▁Jee	-11.7863
▁hụ	-11.7864
njo	-11.7867
▁است	-11.7868
▁cama	-11.7869
▁kenn	-11.787
▁haven	-11.787
▁ግልጽ	-11.7872
▁coro	-11.7875
▁kori	-11.7881
▁sannu	-11.7882
umwa	-11.7884
▁خبر	-11.7885
▁ኢትዮጵያዊነት	-11.7886
▁مشي	-11.7886
barshi	-11.7887
▁Katib	-11.7887
hab	-11.7887
▁🤦🏽‍♂️	-11.7889
▁Iwo	-11.7889
qp	-11.7889
IFA	-11.789
ራት	-11.789
YI	-11.7891
eaten	-11.7893
ተር	-11.7895
ነታቸው	-11.7899
▁SU	-11.79
▁kumwe	-11.7903
▁Jin	-11.7903
dara	-11.7905
▁mtn	-11.7906
▁Negod	-11.7906
▁Ume	-11.7907
rai	-11.7911
Ise	-11.7911
▁tri	-11.7915
▁برا	-11.7922
▁kut	-11.7922
▁ndiro	-11.7924
qui	-11.793
▁Daya	-11.7931
ten	-11.7931
▁😡😡	-11.7932
yayi	-11.7932
ize	-11.7936
▁Yaa	-11.7936
▁تجي	-11.7937
▁Hata	-11.794
▁Ani	-11.7941
uwar	-11.7942
▁Azu	-11.7942
▁نقول	-11.7943
ሴት	-11.7943
▁kuongez	-11.7944
▁SS	-11.7945
✅	-11.7947
▁dafa	-11.7947
Cl	-11.7947
ziza	-11.7948
▁kẹ̀	-11.7951
▁15.	-11.7951
▁guru	-11.7952
▁tatu	-11.7952
yun	-11.7952
▁gosta	-11.7957
▁የተባለ	-11.7959
▁Swi	-11.7965
ለች	-11.7968
▁suro	-11.7968
▁Po	-11.7968
ooooo	-11.797
ሄ	-11.7971
▁mood	-11.7972
▁ìb	-11.7972
▁Tó	-11.7972
98	-11.7972
▁Kini	-11.7975
DH	-11.7977
ሊያ	-11.7977
▁hapụ	-11.7978
▁😊😊😊	-11.7979
▁Day	-11.7979
▁kuu	-11.7981
▁upand	-11.7982
▁tuo	-11.7988
end	-11.7989
▁meza	-11.7989
nko	-11.7992
▁Zo	-11.7992
▁postar	-11.7992
ks	-11.7994
ሩት	-11.7994
▁maso	-11.7995
▁الرئيس	-11.7997
▁èsì	-11.7998
shize	-11.8002
💙	-11.8003
????????	-11.8004
▁2016	-11.8005
Yx	-11.8006
▁العمل	-11.8007
▁አፈር	-11.801
▁🎧	-11.8012
▁taki	-11.8013
mutu	-11.8014
ቀጥ	-11.8016
▁zalunci	-11.8016
daga	-11.8016
▁hanu	-11.8021
🔥🔥🔥🔥	-11.8021
ዚ	-11.8022
▁عمل	-11.8023
▁bagha	-11.8024
▁ahn	-11.8024
▁shuwagabanni	-11.8028
▁entra	-11.8031
blo	-11.8033
▁av	-11.8033
Ty	-11.8034
▁💵	-11.8037
áyọ̀	-11.804
akiwa	-11.804
▁sand	-11.804
▁nude	-11.8041
▁ሊቀ	-11.8042
اتمنى	-11.8042
أ	-11.8043
▁Des	-11.8043
▁lmfao	-11.8045
▁tattar	-11.8047
▁خط	-11.805
FO	-11.8051
▁adìyẹ	-11.8052
▁tê	-11.8054
መነ	-11.8054
▁sáà	-11.8059
▁kui	-11.806
TB	-11.8061
▁TO	-11.8062
▁nazo	-11.8062
tanze	-11.8064
▁sà	-11.8064
▁الدول	-11.8065
وال	-11.8067
▁የእኔ	-11.8068
▁kiji	-11.8069
oc	-11.808
ሾ	-11.8084
ቧ	-11.8085
▁risk	-11.8085
اه	-11.8086
▁harya	-11.8088
mahirwe	-11.8089
▁ሄ	-11.809
▁abubuwa	-11.8092
▁awal	-11.8095
▁conversa	-11.8096
pc	-11.8098
▁yajin	-11.8099
kili	-11.8099
ማር	-11.8103
▁slim	-11.8104
hal	-11.8106
LS	-11.8109
fc	-11.811
▁Like	-11.8111
Nz	-11.8112
▁elder	-11.8113
▁sozinho	-11.8113
▁kha	-11.8113
46	-11.8115
▁Oṣù	-11.8115
▁dah	-11.8116
▁drug	-11.8117
?😂😂😂	-11.8118
ፈልግ	-11.8118
▁christ	-11.8118
▁kete	-11.8118
▁valentine	-11.8118
▁chamado	-11.8118
▁struggle	-11.8119
huta	-11.812
▁ṣú	-11.8122
▁በሬ	-11.8123
ሱዳን	-11.8124
UMA	-11.8124
▁nee	-11.8125
▁assist	-11.8125
أن	-11.8126
HY	-11.8127
▁Ola	-11.8127
sum	-11.8128
▁bloc	-11.8132
WI	-11.8133
▁culpa	-11.8133
▁ይዘ	-11.8133
▁🚨	-11.8134
▁material	-11.8134
▁Àṣèyí	-11.8134
dị	-11.8135
▁አዳ	-11.8137
👆	-11.8138
▁nnoo	-11.8139
Benin	-11.8139
ozo	-11.814
qC	-11.814
YU	-11.8142
ኢዜማ	-11.8142
▁àgbá	-11.8143
▁achoro	-11.8143
▁amarya	-11.8144
▁የገባ	-11.8146
▁مزيان	-11.8146
▁fal	-11.8146
▁وهو	-11.8147
zazi	-11.8147
▁chouf	-11.8148
kristo	-11.8148
dole	-11.8149
▁ይቻላል	-11.8151
▁ẹkú	-11.8151
ባይ	-11.8151
💗	-11.8151
▁الأمن	-11.8152
▁importante	-11.8152
ጠቃሚ	-11.8154
fari	-11.8155
Covid	-11.8155
gged	-11.8155
▁mango	-11.8156
OBINWANNE	-11.8156
▁Delgado	-11.8156
▁Vodacom	-11.8156
▁mechanic	-11.8156
▁ọmụmụ	-11.8156
▁Ẹṣeun	-11.8156
▁agẹmọ	-11.8156
▁certeza	-11.8156
▁ESTÁ	-11.8156
▁premium	-11.8156
▁yẹ̀yẹ́	-11.8156
▁ቤተሰቦች	-11.8156
▁sido	-11.8156
▁تهدر	-11.8156
▁grammy	-11.8156
RanarHausa	-11.8156
▁position	-11.8156
▁አዳራሽ	-11.8156
▁Pior	-11.8156
▁gostei	-11.8156
▁[[	-11.8156
▁Fẹlá	-11.8156
▁competition	-11.8156
▁Addu	-11.8156
መልሶ	-11.8156
ወላጅ	-11.8156
▁brown	-11.8156
▁የተለየ	-11.8156
▁floor	-11.8156
▁راجعون	-11.8156
▁window	-11.8156
▁بكري	-11.8156
▁favorite	-11.8156
▁laidis	-11.8156
▁الوزراء	-11.8156
▁wákàtí	-11.8156
▁fizeram	-11.8156
▁ترجع	-11.8156
▁gym	-11.8156
▁PARA	-11.8156
▁ጆሮ	-11.8156
▁alright	-11.8156
▁itumo	-11.8156
▁የኤርትራ	-11.8156
▁staff	-11.8157
ẹṣin	-11.8157
Kwibuka	-11.8157
▁chkon	-11.8157
▁notification	-11.8157
▁ẹlòmíràn	-11.8157
▁Bunge	-11.8157
▁snake	-11.8157
▁Ọọ̀ni	-11.8158
Thoughts	-11.8158
▁yy	-11.8158
▁الحياة	-11.8158
▁احنا	-11.8158
▁دبا	-11.8159
▁Congrats	-11.8159
SẸ̀	-11.8159
▁በሞጣ	-11.8159
▁hicho	-11.8159
😢😢😢	-11.8159
▁dárúkọ	-11.8159
▁ciniki	-11.816
▁bakidaya	-11.816
▁ufodu	-11.816
▁በራሱ	-11.816
▁toilet	-11.816
▁timeline	-11.816
▁የሚችል	-11.816
dim	-11.816
▁lóhùn	-11.816
▁bghaw	-11.8161
▁cream	-11.8161
▁inbox	-11.8161
▁የናንተ	-11.8161
▁nyumbani	-11.8161
Happy	-11.8162
▁akẹ́kọ̀ọ́	-11.8162
▁warke	-11.8162
▁clip	-11.8162
▁Godiya	-11.8162
▁decided	-11.8162
▁Jẹ́	-11.8162
istas	-11.8162
▁john	-11.8163
▁الفتنة	-11.8163
▁misali	-11.8163
▁ثانية	-11.8163
▁النقل	-11.8163
▁qare	-11.8164
▁منذ	-11.8164
▁bazar	-11.8164
▁መሃል	-11.8164
▁izu	-11.8164
▁moço	-11.8165
▁Níbo	-11.8165
▁odds	-11.8165
نواحي	-11.8165
▁kulingan	-11.8166
choro	-11.8166
▁orílẹ̀èdè	-11.8167
▁ọbụna	-11.8168
onyesha	-11.8168
▁char	-11.8168
▁sallar	-11.8168
▁makaryaci	-11.8169
▁جميلة	-11.8169
▁olisa	-11.817
▁kidogo	-11.817
▁resto	-11.817
▁oselu	-11.8171
▁vendor	-11.8171
▁bulala	-11.8171
▁አመሰግናለሁ	-11.8171
▁Cikin	-11.8171
▁መስመር	-11.8173
▁África	-11.8173
▁جامي	-11.8173
▁Ìtàn	-11.8174
▁zatayi	-11.8174
▁politic	-11.8174
▁ሰራዊት	-11.8174
▁Bello	-11.8175
▁labaran	-11.8175
mon	-11.8175
▁Sudan	-11.8176
wɔ	-11.8177
▁ለሀገር	-11.8177
▁jikanshi	-11.8177
▁byanze	-11.8177
▁kunga	-11.8177
nle	-11.8177
▁baraka	-11.8179
▁dacewa	-11.8179
▁ogiri	-11.8179
▁نتاع	-11.8179
jọba	-11.818
ron	-11.818
▁hal	-11.8181
ማርያም	-11.8182
▁ekwela	-11.8182
▁فتح	-11.8182
▁inye	-11.8183
▁اح	-11.8183
بعد	-11.8183
▁Hahahah	-11.8184
VY	-11.8184
▁parents	-11.8186
OO	-11.8186
💕	-11.8188
▁action	-11.8189
▁selfie	-11.8189
ሉን	-11.8189
رات	-11.819
▁Uta	-11.8191
▁قلب	-11.8191
▁bangaren	-11.8192
SU	-11.8194
▁palavra	-11.8194
▁مريض	-11.8195
▁minista	-11.8195
▁rimwe	-11.8195
▁የተባለው	-11.8195
▁Aja	-11.8196
▁Life	-11.8197
▁gbam	-11.8197
▁takura	-11.8197
▁queres	-11.8198
▁saina	-11.8198
ሬሽን	-11.8199
▁bíbí	-11.8199
pia	-11.82
▁ọ̀tá	-11.82
▁jagun	-11.8201
▁ńbọ̀	-11.8201
▁kanya	-11.8202
▁ẹkún	-11.8202
▁wulakanta	-11.8202
▁bant	-11.8202
▁jókòó	-11.8203
kaze	-11.8203
▁guhangana	-11.8203
▁àlọ́	-11.8203
▁indomie	-11.8204
▁ኦቦ	-11.8204
▁Àìkú	-11.8204
umubiri	-11.8205
Fo	-11.8205
▁kundi	-11.8205
▁Ẹ̀yọ̀	-11.8206
DY	-11.8206
▁ṣẹ́	-11.8206
▁تزاد	-11.8207
▁karyane	-11.8207
▁እምቢ	-11.8207
▁Nigerian	-11.8209
▁Up	-11.8209
▁ranka	-11.8209
▁dubawa	-11.821
Fi	-11.8211
▁zamani	-11.8211
time	-11.8212
▁students	-11.8213
▁ይሄው	-11.8214
ọ̀pá	-11.8214
▁weight	-11.8215
▁sunci	-11.8215
▁verse	-11.8217
▁achar	-11.8217
self	-11.822
▁acct	-11.822
ọ́jọ́	-11.8221
صر	-11.8221
▁خلق	-11.8222
رحلة	-11.8222
▁nwayi	-11.8222
yanda	-11.8224
▁መኪና	-11.8225
▁ተወካ	-11.8226
▁zabo	-11.8227
▁tiger	-11.8229
▁djo	-11.8229
▁ط	-11.8229
▁Eyi	-11.8231
▁eleyi	-11.8231
▁station	-11.8231
▁hadin	-11.8232
▁ስጋት	-11.8234
محسن	-11.8234
71	-11.8234
▁corruption	-11.8235
▁odó	-11.8236
▁bacu	-11.8236
▁shekarar	-11.8237
▁worker	-11.8237
▁gbọ	-11.8238
▁ለማስ	-11.8238
02	-11.8238
tafuta	-11.8239
▁madini	-11.8239
jijini	-11.8239
▁mɛ	-11.8241
▁دم	-11.8241
▁ሴራ	-11.8242
Eto	-11.8242
ntu	-11.8243
▁watarana	-11.8243
▁ስርአት	-11.8245
▁urumva	-11.8246
▁ẹ̀bà	-11.8247
▁......	-11.8248
▁አልባ	-11.8252
▁نص	-11.8253
▁tweeting	-11.8255
dou	-11.8256
▁kalma	-11.8256
knew	-11.8256
▁البحر	-11.8257
▁😬	-11.8257
▁direito	-11.8259
kwalu	-11.8261
▁popo	-11.8262
▁ወራሪ	-11.8265
▁wofi	-11.8268
▁adùn	-11.827
tere	-11.8271
داء	-11.8271
▁ዋናው	-11.8272
▁ክፍ	-11.8276
▁loo	-11.8277
ቃቸው	-11.8278
▁ተባለ	-11.8279
▁lb	-11.8279
▁adu	-11.828
▁Sani	-11.8281
▁ọlà	-11.8282
▁yabawa	-11.8283
▁vile	-11.8284
መያዝ	-11.8285
He	-11.8285
mini	-11.8287
▁bati	-11.8288
▁NE	-11.8288
ben	-11.8289
🤲🏻	-11.8291
alb	-11.8293
fẹ̀	-11.8293
▁😠😠	-11.8293
▁pedi	-11.8294
bù	-11.8295
▁gozi	-11.8295
bani	-11.8296
▁هؤلاء	-11.8296
nji	-11.8297
▁ብርሃኑ	-11.8298
bakar	-11.8299
▁wonderful	-11.8299
▁yabashi	-11.8299
ግጠኛ	-11.83
inho	-11.8302
اني	-11.8306
🏻	-11.8306
▁ńpa	-11.831
amento	-11.8313
bha	-11.8313
▁gbéra	-11.8316
▁problemas	-11.8321
▁santa	-11.8323
áà	-11.8323
▁cholu	-11.8325
▁suji	-11.8325
LF	-11.8326
▁akiwa	-11.8327
▁asalin	-11.8329
▁yasani	-11.833
قة	-11.833
▁موقف	-11.833
▁mostra	-11.8332
▁plane	-11.8333
▁Kenya	-11.8334
▁Aji	-11.8335
ፈው	-11.8335
▁arh	-11.8337
rry	-11.8337
dw	-11.8338
▁fathers	-11.8339
▁bida	-11.8341
▁😁😁😁😁	-11.8342
▁نسبة	-11.8342
ኝ።	-11.8342
▁روحي	-11.8343
kporo	-11.8345
💥	-11.8347
ጥፍ	-11.8348
▁cheat	-11.8348
Gw	-11.8349
ṣu	-11.8349
▁tsarin	-11.835
imi	-11.835
ሶች	-11.8351
"""""""",	-11.8355
▁koshi	-11.8357
▁Baya	-11.8358
▁gaisuwa	-11.8359
▁blad	-11.836
▁prepare	-11.8361
Love	-11.8362
bụrụ	-11.8364
▁pipu	-11.8365
▁lool	-11.8366
ቷል።	-11.8368
▁taro	-11.8368
óró	-11.837
▁waju	-11.8371
▁pense	-11.8372
rbi	-11.8375
with	-11.8377
▁ON	-11.8378
▁acabar	-11.8379
yafi	-11.8379
▁تعلم	-11.8379
▁woke	-11.838
ለመናገር	-11.838
nwanyi	-11.8382
▁maghreb	-11.8382
tem	-11.8382
▁Taya	-11.8383
▁አላማ	-11.8385
gas	-11.8385
▁ስሙን	-11.8386
End	-11.8387
▁knowing	-11.8388
miliki	-11.8389
ክስ	-11.8389
▁Sam	-11.8389
▁khoya	-11.839
▁ጽ	-11.8392
nodu	-11.8394
its	-11.8395
LO	-11.8395
▁nyinaaa	-11.8395
alamun	-11.8398
ọọ	-11.8399
▁ibya	-11.8401
kuko	-11.8404
▁agyimi	-11.8406
jah	-11.8406
▁😂😂😂😂😂😂😂😂😂😂	-11.8407
▁CO	-11.841
ihu	-11.841
▁ilimin	-11.8411
wasilian	-11.8413
▁xama	-11.8413
▁Inu	-11.8415
▁Jos	-11.8415
fah	-11.8415
▁hadra	-11.8419
▁Jay	-11.842
▁ብን	-11.8423
▁kanshi	-11.8423
▁places	-11.8424
▁passo	-11.8424
▁Maning	-11.8426
▁fav	-11.8426
▁فا	-11.8426
▁drip	-11.8427
▁እንዳል	-11.8427
▁ìrè	-11.8428
▁Britain	-11.8429
fra	-11.843
ፉን	-11.843
▁Xa	-11.8434
💃💃	-11.8434
ኬ	-11.8434
▁raki	-11.8435
▁mey	-11.8436
biya	-11.8438
doro	-11.8439
▁gbon	-11.8439
▁choi	-11.8441
▁oti	-11.8441
▁ṣi	-11.8443
sukuma	-11.8443
oj	-11.8443
▁Aure	-11.8444
▁zone	-11.8444
KC	-11.8445
▁طلب	-11.8445
fuor	-11.8445
pper	-11.8446
Qh	-11.8447
▁uburyo	-11.8449
EE	-11.845
CO	-11.8451
▁names	-11.8451
▁Zi	-11.8452
صورة	-11.8454
الك	-11.8457
mie	-11.8458
▁Ramadan	-11.8462
▁worship	-11.8464
jh	-11.8469
▁shirmen	-11.847
nasema	-11.8474
▁ጀ	-11.8478
▁Kuu	-11.8478
ነበረው	-11.8479
ጠይቅ	-11.848
▁nelu	-11.848
▁prince	-11.8481
▁es	-11.8482
IS	-11.8484
▁خرج	-11.8487
based	-11.8488
▁Star	-11.8488
mera	-11.8489
VI	-11.8489
▁ምርጫው	-11.849
ّ	-11.8491
▁mnin	-11.8492
▁mandar	-11.8494
ebu	-11.8497
emo	-11.8498
❓	-11.8498
▁vipi	-11.8498
▁taje	-11.85
tún	-11.85
ፍር	-11.8506
▁Oun	-11.8506
▁wanne	-11.8506
hp	-11.8507
▁anayi	-11.8507
▁sm	-11.8509
▁longe	-11.8509
▁àyà	-11.8509
▁jeun	-11.851
▁bàbà	-11.8511
▁shouldn	-11.8511
▁Niku	-11.8512
▁Ako	-11.8514
▁sú	-11.8516
▁noma	-11.8517
raw	-11.8518
▁obara	-11.852
እግዚአብሔር	-11.852
▁dibo	-11.852
pfuye	-11.8528
▁consegui	-11.8531
▁😭😂	-11.8536
tic	-11.8537
asanga	-11.8537
ibindi	-11.8537
▁bebe	-11.8538
▁Ge	-11.8538
pd	-11.8539
▁magic	-11.8539
▁cost	-11.8539
▁kibazo	-11.8542
taifa	-11.8543
▁abt	-11.8544
▁ጨ	-11.8545
▁aró	-11.8545
VE	-11.8547
▁trek	-11.8548
pele	-11.8548
🥺🥺	-11.8549
ction	-11.8549
db	-11.855
ቃን	-11.855
▁kwanan	-11.855
ship	-11.8552
uje	-11.8556
bQ	-11.8557
Hz	-11.8558
▁gej	-11.856
mujyi	-11.8561
▁fail	-11.8561
▁كفا	-11.8561
▁adikwa	-11.8563
kubwira	-11.8565
ZE	-11.8566
▁respond	-11.8567
▁morre	-11.8567
"""",	-11.8567
▁خلي	-11.8569
?""	-11.8569
▁haku	-11.8573
rity	-11.8574
GW	-11.8575
▁mentir	-11.8576
kyau	-11.8577
uf	-11.8579
▁beba	-11.8579
ሟ	-11.8582
▁swt	-11.8583
ሃገር	-11.8585
Ge	-11.8585
▁munwa	-11.8586
▁Kó	-11.8586
tb	-11.8588
,,,	-11.8589
oya	-11.8591
kùn	-11.8591
▁🧐	-11.8592
SB	-11.8597
▁bake	-11.8598
▁kuju	-11.8599
baho	-11.86
▁ውነ	-11.8602
zI	-11.8605
▁xaka	-11.8607
ኤ	-11.8609
Ai	-11.8611
ọ́dún	-11.8613
▁paro	-11.8615
▁فالصحرا	-11.8615
ብሄር	-11.8617
bye	-11.8617
▁لان	-11.8617
▁nuru	-11.8618
▁lava	-11.8618
mil	-11.8618
የኢትዮጵያ	-11.8621
▁🤷🏽‍♂️	-11.8623
▁Iwa	-11.8624
▁9.	-11.8625
let	-11.8626
▁ụ	-11.8627
rg	-11.8627
ayin	-11.8628
▁chere	-11.8631
▁ሀገራችን	-11.8632
mark	-11.8632
تكون	-11.8633
▁kakawo	-11.8633
abagore	-11.8633
uza	-11.8634
XO	-11.8634
▁ẹmu	-11.8638
ቀን	-11.8638
van	-11.8639
▁ògùn	-11.8641
▁فى	-11.8643
▁Ọ̀pọ̀	-11.8643
RM	-11.8645
oul	-11.8645
▁kawaii	-11.8645
▁ifea	-11.8646
AF	-11.8646
ኢ	-11.865
▁dierr	-11.865
▁عاد	-11.8652
hara	-11.8652
▁mó	-11.8653
▁mika	-11.8654
▁ነገሩ	-11.8659
god	-11.866
መለስ	-11.866
orin	-11.8661
▁corner	-11.8662
▁vindo	-11.8663
▁Eke	-11.8663
▁ogbu	-11.8663
▁maneira	-11.8663
▁rants	-11.8664
ወራ	-11.8665
▁irmã	-11.8665
▁Anam	-11.8666
tina	-11.8666
BC	-11.8667
▁zuo	-11.8667
▁نحب	-11.8668
😋😋	-11.8668
▁secret	-11.8668
▁Céu	-11.8669
▁throw	-11.8669
▁pobre	-11.867
▁balai	-11.8671
........	-11.8676
▁መጠን	-11.8677
▁uh	-11.8677
▁musiba	-11.8678
hawe	-11.8679
راء	-11.8679
shan	-11.8679
▁indi	-11.868
▁felicidade	-11.868
▁Rana	-11.8681
rìnàjò	-11.8682
Si	-11.8682
Ada	-11.8684
▁gostam	-11.8684
▁አየ	-11.8684
▁TL	-11.8685
▁ጥፋ	-11.8685
UL	-11.8685
more	-11.8685
▁ogba	-11.8685
▁hm	-11.8686
▁😆😆	-11.8687
▁source	-11.8688
▁ههههههههه	-11.8688
▁الغرب	-11.8688
Itan	-11.8688
▁abada	-11.8688
Midday	-11.8689
""""""""?	-11.869
▁ahun	-11.8692
miri	-11.8694
▁alguma	-11.8696
▁beber	-11.8697
▁كاع	-11.8698
▁tsinc	-11.8698
▁ቀበሌ	-11.8698
▁صغير	-11.8701
ሁኑ	-11.8702
▁jdid	-11.8705
▁walou	-11.8705
▁bincike	-11.8705
▁تاني	-11.8706
🤥	-11.8707
▁OK	-11.8707
▁borrow	-11.8707
▁መስሎኝ	-11.8707
▁እርስ	-11.8707
جنايات	-11.8707
▁matasa	-11.8707
▁❓	-11.8708
▁bezaf	-11.8709
▁honest	-11.8709
ጽዮን	-11.871
OIANUK	-11.8711
PulpitOfHoliness	-11.8711
TheGospelOfLight	-11.8711
lessedWordOfLife	-11.8711
▁Arrependimento	-11.8711
▁alegria	-11.8711
▁stomach	-11.8711
▁እንቅስቃሴ	-11.8711
▁takuntakun	-11.8711
▁በስተቀር	-11.8711
ìwòsàn	-11.8711
▁yakyauta	-11.8711
OsuOgun	-11.8711
▁Mmadụ	-11.8711
▁coragem	-11.8711
▁Àgbáyé	-11.8711
▁durante	-11.8711
▁moving	-11.8711
thursday	-11.8711
ጋሚ	-11.8711
kaftantv	-11.8711
▁badamasi	-11.8711
▁ọlọ́jọ́	-11.8711
▁àyíká	-11.8711
▁Lẹ́yìn	-11.8712
▁karịrị	-11.8712
▁እየሆነ	-11.8712
▁regard	-11.8712
▁àǹfààní	-11.8712
▁sábàbí	-11.8712
▁salvação	-11.8712
▁Mwenyekiti	-11.8712
▁Matola	-11.8712
owambe	-11.8712
▁Ronaldo	-11.8712
▁bruno	-11.8712
▁በቁጥጥ	-11.8712
▁ከንቱ	-11.8712
▁rọrùn	-11.8712
▁situação	-11.8712
▁eternidade	-11.8712
▁kemgbe	-11.8712
▁BUHARI	-11.8712
▁eledua	-11.8712
▁reign	-11.8712
▁ìhè	-11.8712
▁darling	-11.8712
▁መልእክት	-11.8712
▁Ìgbàgbọ́	-11.8713
▁vyetu	-11.8713
▁condom	-11.8713
▁emprego	-11.8714
▁thamani	-11.8714
▁jụrụ	-11.8714
Àyájọ́	-11.8714
▁apologize	-11.8714
▁أمام	-11.8714
▁kedere	-11.8714
وبية	-11.8714
▁الرجل	-11.8714
😨	-11.8715
▁NVI	-11.8715
twitter	-11.8715
▁Matsalar	-11.8715
▁Jisike	-11.8715
▁ይሻላል	-11.8715
▁weather	-11.8715
▁معاهم	-11.8715
▁በሀገር	-11.8716
▁Ur	-11.8716
▁safari	-11.8716
▁ብየ	-11.8716
️️	-11.8716
▁preparar	-11.8717
▁utaratibu	-11.8717
▁Beira	-11.8717
▁casamento	-11.8717
▁sunkún	-11.8717
▁Arusha	-11.8717
▁amince	-11.8717
▁mmienu	-11.8717
CC	-11.8717
aah	-11.8717
▁hukumar	-11.8717
▁Mambo	-11.8717
▁marido	-11.8719
▁Only	-11.8719
▁muntuba	-11.8719
mous	-11.872
▁ikindi	-11.872
▁kungiyar	-11.872
eyi	-11.8721
▁kárí	-11.8721
▁ከጎን	-11.8721
▁ryari	-11.8721
▁mutwe	-11.8722
▁dufite	-11.8722
▁bnadem	-11.8722
▁Emeka	-11.8723
ሌሎች	-11.8723
▁dressing	-11.8724
aligo	-11.8724
Books	-11.8724
▁ler	-11.8724
▁በቅርብ	-11.8725
mani	-11.8725
▁usajili	-11.8725
▁sabulu	-11.8725
▁Ahmed	-11.8725
▁òkùnkùn	-11.8726
▁morreu	-11.8726
🙌🏽	-11.8726
▁kikeyi	-11.8726
mvura	-11.8727
ሼ	-11.8728
▁contract	-11.8729
▁dói	-11.873
▁próprio	-11.873
▁generation	-11.873
▁afárá	-11.873
▁Ameeen	-11.873
▁makarantu	-11.873
▁الصبر	-11.873
chara	-11.8731
▁knock	-11.8732
▁hatari	-11.8733
▁forward	-11.8733
ov	-11.8733
yeye	-11.8733
▁አሉ።	-11.8734
🚨	-11.8734
kaji	-11.8734
▁مدير	-11.8734
▁حيت	-11.8735
▁along	-11.8735
Hausa	-11.8735
▁perceber	-11.8735
positive	-11.8735
▁Odù	-11.8736
olórin	-11.8736
ger	-11.8737
▁tsaremu	-11.8737
زيادة	-11.8738
rudi	-11.8738
مشروع	-11.8738
▁Tom	-11.8739
▁gone	-11.8739
▁muhammadu	-11.874
▁Watoto	-11.874
▁أين	-11.8741
▁🙌🙌🙌	-11.8741
▁tala	-11.8742
shuka	-11.8743
nquanto	-11.8744
hb	-11.8744
▁Mwana	-11.8745
service	-11.8746
ዳቸው	-11.8747
shey	-11.8748
▁fẹ̀	-11.8748
▁ማሳ	-11.8748
ግን	-11.8749
▁malamai	-11.8749
jíṣẹ́	-11.8749
😆😆	-11.875
Moz	-11.8751
▁ńbẹ̀	-11.8751
▁imvura	-11.8751
▁👋	-11.8752
▁palavras	-11.8752
▁likom	-11.8752
🙏🏼	-11.8752
▁members	-11.8753
▁የጊዜ	-11.8753
▁npa	-11.8753
ọpẹ́	-11.8753
فكري	-11.8754
ዙ	-11.8754
▁ruwanmu	-11.8755
▁🙃	-11.8755
▁tarihin	-11.8755
▁jigawa	-11.8755
▁comida	-11.8756
▁lwa	-11.8756
▁kòsí	-11.8757
▁nyina	-11.8757
Sbd	-11.8757
▁ọmọge	-11.8758
▁ከም	-11.8758
▁Oyo	-11.8759
▁ትርፍ	-11.876
▁ńlọ	-11.876
▁ghada	-11.876
▁fuska	-11.8761
▁fuskar	-11.8761
▁kunji	-11.8761
▁መቀጠል	-11.8762
እነዚህ	-11.8762
▁Bayern	-11.8762
▁ሚኒስትሩ	-11.8762
▁Ekwueme	-11.8762
▁yyi	-11.8762
▁نجاح	-11.8762
pà	-11.8762
▁فلوس	-11.8763
▁lkhir	-11.8764
▁maimaita	-11.8764
▁interested	-11.8764
▁ìgbín	-11.8764
▁ለአማራ	-11.8765
ባችሁ	-11.8766
▁kuendelea	-11.8766
puni	-11.8768
ገደል	-11.8768
▁أجل	-11.8768
▁enta	-11.8769
▁education	-11.8769
▁mímọ́	-11.877
▁kugenda	-11.877
▁ብርቱ	-11.877
▁ታምራት	-11.8771
▁último	-11.8771
▁killed	-11.8771
ig	-11.8771
▁Uza	-11.8772
tting	-11.8772
▁amanar	-11.8772
▁actor	-11.8773
ትና	-11.8774
▁mezie	-11.8774
▁Echi	-11.8775
▁waist	-11.8776
سياسية	-11.8778
shwa	-11.8782
▁igbadun	-11.8782
▁Gashi	-11.8783
zwe	-11.8783
▁kaunar	-11.8785
▁bibinii	-11.8786
▁jú	-11.8786
▁sexy	-11.8788
▁جماع	-11.8789
OC	-11.879
Jo	-11.879
▁هذ	-11.8791
▁saya	-11.8791
▁Mar	-11.8792
enza	-11.8794
ubochi	-11.8794
Bí	-11.8794
▁pfuka	-11.8795
▁ወታደር	-11.8796
▁mukeso	-11.8797
▁Daura	-11.8797
▁load	-11.8797
مات	-11.8797
mal	-11.8798
Ms	-11.8798
▁olólùfẹ́	-11.8798
kiya	-11.8798
▁ɔn	-11.8799
▁رايح	-11.88
▁legs	-11.88
▁rẹwà	-11.88
▁mẹ́jọ	-11.8801
kubwa	-11.8801
▁ete	-11.8805
سوق	-11.8805
iiiii	-11.8806
96	-11.8807
òlò	-11.8807
▁Ajá	-11.8808
ezie	-11.8808
▁salma	-11.8808
▁killing	-11.8808
rS	-11.8808
ፍርድ	-11.8808
▁Nje	-11.8809
▁ምንጭ	-11.881
▁kaiwa	-11.881
▁በደ	-11.8811
▁ቅድሚ	-11.8811
YP	-11.8812
መለከተ	-11.8813
UR	-11.8814
▁wálé	-11.8815
▁lutar	-11.8816
shinda	-11.8816
NS	-11.8816
▁kyere	-11.8819
▁eli	-11.8821
wingine	-11.8821
kunze	-11.8821
▁eluigwe	-11.8823
▁Big	-11.8824
▁الحبس	-11.8826
sheria	-11.8827
▁kuya	-11.8827
▁kidd	-11.8827
▁سبتة	-11.8829
▁🤷‍♀️	-11.8829
▁hayo	-11.8829
▁HBD	-11.8829
▁google	-11.883
▁papo	-11.883
FE	-11.8832
▁عندما	-11.8832
▁Nnam	-11.8833
▁peoples	-11.8833
▁ụka	-11.8834
▁🤣🤣🤣🤣🤣🤣🤣🤣	-11.8835
▁Shine	-11.8838
▁ahla	-11.8838
▁Okaka	-11.8839
tabo	-11.884
▁kpe	-11.8841
awd	-11.8842
▁amaghị	-11.8842
rwanya	-11.8843
lq	-11.8844
▁የማት	-11.8845
▁wanted	-11.8845
▁Hon	-11.8845
▁حرب	-11.8849
▁nsu	-11.8849
▁الدنيا	-11.885
▁الحدود	-11.885
ose	-11.8851
▁láí	-11.8854
▁zulum	-11.8854
▁zawe	-11.8855
abia	-11.8855
FL	-11.8856
dhi	-11.8856
▁gatan	-11.8856
መሬት	-11.8858
▁kpọrọ	-11.8859
▁ክልሎች	-11.8861
▁conhece	-11.8862
nwe	-11.8862
▁naeme	-11.8866
▁manu	-11.8866
▁معروف	-11.8866
show	-11.8867
ሳል	-11.8867
Amin	-11.8867
ys	-11.8868
fs	-11.8869
zaza	-11.887
▁የራስ	-11.8871
▁Chan	-11.8873
▁pà	-11.8874
▁ol	-11.8874
post	-11.8876
fikia	-11.8876
▁chọ	-11.8876
▁ọ̀sà	-11.888
▁odika	-11.8883
▁kán	-11.8883
sos	-11.8884
▁code	-11.8886
▁ፓ	-11.8887
ባዶ	-11.8888
▁ሸዋ	-11.8889
mmer	-11.889
eto	-11.889
አመት	-11.8892
AT	-11.8892
▁Zaku	-11.8894
▁Gidan	-11.8895
▁gaskiyar	-11.8895
▁Orin	-11.8896
gom	-11.8896
▁gaja	-11.8899
▁akeso	-11.8901
▁toni	-11.8901
▁bobo	-11.8902
▁الق	-11.8904
▁umuyobozi	-11.8906
صدر	-11.8907
▁sauri	-11.8908
RD	-11.8909
▁namijin	-11.8909
?????	-11.891
▁يدخل	-11.8911
damu	-11.8911
▁tọ	-11.8912
▁🤧	-11.8914
አየር	-11.8917
gbon	-11.8918
karia	-11.8918
wh	-11.892
▁box	-11.892
▁dinmu	-11.892
▁humu	-11.8921
▁akasa	-11.8924
▁Cya	-11.8924
bikorwa	-11.8925
dìí	-11.8926
ክፈል	-11.8927
ሚለው	-11.8927
▁አስቸኳይ	-11.8928
▁rike	-11.8928
▁እሷ	-11.8928
GI	-11.8929
▁jùlọ	-11.893
▁biza	-11.8931
makuru	-11.8932
ph	-11.8934
niya	-11.8934
GP	-11.8936
ቡን	-11.8936
▁ebido	-11.8939
▁nation	-11.8939
▁síwájú	-11.894
Qq	-11.8941
▁الاول	-11.8941
VJ	-11.8944
GG	-11.8944
▁agbasa	-11.8944
odi	-11.8944
▁🤦	-11.8946
▁kwiga	-11.8946
▁uti	-11.8946
74	-11.8947
anze	-11.895
▁islam	-11.895
WB	-11.8952
tag	-11.8955
yd	-11.8955
izzy	-11.8956
vl	-11.8956
▁maam	-11.8956
▁شغل	-11.8957
ለሁ	-11.8958
álẹ̀	-11.8958
اعة	-11.8958
▁Fe	-11.8961
Gh	-11.8963
▁People	-11.8964
▁kadi	-11.8966
▁እስር	-11.8966
▁Kagame	-11.8968
▁تيز	-11.8968
▁mukuru	-11.8968
▁wó	-11.897
▁keji	-11.8973
▁sii	-11.8974
oje	-11.8975
▁four	-11.8976
nger	-11.8977
▁board	-11.8977
▁💪💪	-11.8979
▁raya	-11.8979
▁kunsa	-11.898
▁ስልክ	-11.8982
▁doki	-11.8983
▁🤷	-11.8983
▁እም	-11.8983
Ye	-11.8986
▁glo	-11.8989
DP	-11.8989
wala	-11.899
▁አክሱም	-11.899
ی	-11.8991
rinka	-11.8991
مبعد	-11.8991
▁kawar	-11.8992
▁ጥረት	-11.8995
▁hhhhhhhhhhhh	-11.8995
ውል	-11.8996
▁Angola	-11.8997
▁ክርስቲያን	-11.8998
▁deɛn	-11.8999
▁Ay	-11.8999
▁الدزاير	-11.9
YN	-11.9
▁تويتر	-11.9001
OZ	-11.9002
▁اخر	-11.9002
Motivation	-11.9002
▁ìp	-11.9003
▁lola	-11.9006
▁ኢትዮጲያ	-11.9006
▁rape	-11.9006
ሊን	-11.9007
Ri	-11.9008
▁ماذا	-11.9008
ct	-11.901
hel	-11.9012
▁nanya	-11.9013
nch	-11.9014
ታቸውን	-11.9015
▁حي	-11.9017
utu	-11.9017
▁nínu	-11.9017
ምነው	-11.9017
▁bay	-11.9017
▁Mutanen	-11.9022
lhes	-11.9025
▁deu	-11.9026
waa	-11.9027
lérí	-11.9027
▁نشر	-11.9027
▁bango	-11.903
ungana	-11.9032
AD	-11.9036
ówó	-11.9038
amuzi	-11.9039
▁tama	-11.9042
▁ezigbot	-11.9043
▁zamo	-11.9048
pot	-11.9048
▁Ọ̀gb	-11.905
▁halitta	-11.9052
baya	-11.9052
uche	-11.9055
ስለ	-11.9056
▁lion	-11.9056
ọ́wọ́	-11.9056
▁تجار	-11.9057
▁የማያ	-11.9057
mó	-11.9059
▁አሰ	-11.906
pewa	-11.9061
ቀየር	-11.9061
nìkan	-11.9069
Oh	-11.9072
bwe	-11.9072
putara	-11.9077
▁ተገ	-11.9078
▁ought	-11.9082
▁😩😩😩	-11.9083
▁attend	-11.9085
▁karu	-11.9085
fẹ	-11.9086
▁js	-11.9087
ችል	-11.9091
rfo	-11.9092
red	-11.9093
▁fb	-11.9093
dc	-11.9094
▁Rein	-11.9095
▁شنو	-11.9096
▁riko	-11.9098
▁ite	-11.91
▁nika	-11.91
▁rika	-11.9101
▁خ	-11.9107
arabi	-11.9109
▁Islam	-11.911
▁àdán	-11.9111
zidi	-11.9111
▁ፊ	-11.9114
rya	-11.9117
▁agbawa	-11.9118
chalu	-11.9118
▁tallafi	-11.9119
▁Allahumma	-11.9121
Mt	-11.9122
▁የተማረ	-11.9123
foju	-11.9123
bh	-11.9123
▁رد	-11.9124
▁oyo	-11.9124
▁ebute	-11.9124
▁Tho	-11.9124
ፌስቡክ	-11.9125
የም	-11.9126
▁yere	-11.9126
▁Yake	-11.9127
ping	-11.9127
انة	-11.9127
▁amata	-11.9127
FZ	-11.9127
GC	-11.9128
kunle	-11.9129
▁lẹ̀	-11.9133
ገዝ	-11.9134
uwo	-11.9136
▁african	-11.9136
korwa	-11.9137
▁lọmọ	-11.9138
tq	-11.9138
ref	-11.9138
▁dza	-11.9138
▁inaso	-11.9138
EA	-11.9139
▁yingisel	-11.914
▁barin	-11.9144
ዪ	-11.9144
▁duhu	-11.9145
84	-11.9147
سة	-11.9149
▁بخير	-11.915
▁hutu	-11.915
lengo	-11.9151
▁awe	-11.9153
▁kẹ	-11.9155
umuntu	-11.9155
gyimi	-11.9155
▁bira	-11.9155
▁Wach	-11.9156
▁فأ	-11.9158
DN	-11.9159
mchi	-11.9159
▁ìwọ̀	-11.916
▁ቦ	-11.9163
▁dube	-11.9163
اب	-11.9164
FF	-11.9164
▁gushyira	-11.9165
Je	-11.9166
▁rua	-11.9169
▁mc	-11.9169
▁esu	-11.9171
biko	-11.9172
▁دون	-11.9173
▁hade	-11.9174
▁ọ̀f	-11.9174
KURU	-11.9176
CG	-11.9177
qE	-11.9179
▁wil	-11.9179
ቴን	-11.918
dr	-11.918
[...]
