<unk>	0
<s>	0
</s>	0
<pad>	0
<mask>	0
<sep>	0
<cls>	0
’	-2.79555
▁	-3.67773
▁n	-3.75516
▁y	-4.20791
a	-4.20812
▁w	-4.77335
▁i	-5.15799
▁rwanda	-5.1663
e	-5.17684
▁b	-5.21368
▁z	-5.48732
▁u	-5.52742
▁kandi	-5.52777
▁mu	-5.60074
▁kuko	-5.65076
i	-5.69766
▁cy	-5.71555
▁ndetse	-5.76343
▁ariko	-5.76485
u	-5.77675
▁nk	-5.77785
▁by	-5.77987
▁hari	-5.90646
▁avuga	-5.93705
▁bw	-5.94321
▁ry	-5.95977
▁cyane	-5.96049
ho	-5.9831
▁mbere	-6.0567
▁kuba	-6.06793
▁gihe	-6.07311
▁kugira	-6.07688
▁ku	-6.08968
▁rw	-6.09463
mo	-6.12259
▁nyuma	-6.12552
▁abantu	-6.15973
o	-6.17643
uko	-6.19803
▁k	-6.21089
ye	-6.27728
ga	-6.28235
wa	-6.31542
▁a	-6.31998
we	-6.34013
▁neza	-6.34792
igihugu	-6.36525
-	-6.44396
▁mwaka	-6.44956
▁akaba	-6.45019
user	-6.49173
@	-6.49415
▁ba	-6.49533
▁imbere	-6.57167
▁cyangwa	-6.58534
▁tariki	-6.59202
▁gusa	-6.60677
▁yavuze	-6.61066
▁gihugu	-6.6325
▁buryo	-6.63839
▁c	-6.64328
▁kubera	-6.6435
▁amafaranga	-6.66645
▁yagize	-6.68377
▁karere	-6.68727
▁leta	-6.68897
▁igihe	-6.69269
s	-6.70962
▁benshi	-6.71009
▁kigali	-6.77201
▁buri	-6.77356
▁hamwe	-6.77907
▁umwe	-6.78171
▁jenoside	-6.80283
▁abaturage	-6.86245
▁umuyobozi	-6.88114
▁ca	-6.88208
▁gukora	-6.88907
▁aba	-6.90209
▁fc	-6.93074
▁kugeza	-6.93109
▁muri	-6.94318
na	-6.946
▁umuntu	-6.95711
▁rwego	-6.96155
▁ni	-6.97354
▁kw	-6.9853
▁munsi	-6.99898
▁ibi	-7.00358
▁hagati	-7.0137
▁perezida	-7.02068
▁kabiri	-7.0208
▁ikipe	-7.02365
▁bamwe	-7.03141
▁gahunda	-7.0589
▁imyaka	-7.0615
ko	-7.08376
▁burundi	-7.08562
▁abandi	-7.10208
▁bi	-7.10531
▁-	-7.13665
▁jean	-7.14135
▁m	-7.1431
▁ati	-7.15135
abandi	-7.15983
▁miliyoni	-7.16107
ra	-7.19128
▁kimwe	-7.19253
▁afite	-7.19276
▁harimo	-7.19426
▁uyu	-7.20769
▁ibikorwa	-7.21376
▁uburyo	-7.22503
▁bafite	-7.22699
▁bakaba	-7.22867
abantu	-7.23828
▁afurika	-7.23895
▁rayon	-7.24981
za	-7.26256
▁ya	-7.264
▁h	-7.26437
▁abanyarwanda	-7.27594
▁indirimbo	-7.28084
imyaka	-7.29517
▁bavuga	-7.29533
▁ntara	-7.2991
▁bikorwa	-7.31084
ibindi	-7.31822
▁ikibazo	-7.32721
▁ru	-7.32732
▁abana	-7.35395
▁amakuru	-7.3557
▁zi	-7.36094
.	-7.36587
▁bihugu	-7.37237
▁igihugu	-7.37486
▁mujyi	-7.39631
▁tw	-7.40325
▁agira	-7.40362
▁aka	-7.40419
▁byose	-7.40926
aba	-7.41528
▁isi	-7.42338
▁r	-7.42814
▁polisi	-7.43246
▁inyuma	-7.43946
▁ntabwo	-7.44908
▁mukuru	-7.45481
▁kuri	-7.45984
▁minisitiri	-7.4627
▁coronavirus	-7.46929
▁kubona	-7.4729
▁uganda	-7.49047
▁ahubwo	-7.49183
▁mwanya	-7.49842
▁murenge	-7.50241
▁ibintu	-7.50933
▁hanze	-7.5141
▁kibazo	-7.51542
▁apr	-7.52203
▁se	-7.53752
▁sports	-7.53828
▁byinshi	-7.5386
akarere	-7.53952
▁umugore	-7.54952
▁kagame	-7.55298
▁bamaze	-7.56167
▁de	-7.56697
▁kwezi	-7.58034
▁umu	-7.58635
▁gatatu	-7.58875
▁umutekano	-7.59363
▁iyi	-7.60179
▁ibihumbi	-7.60212
▁inama	-7.60456
amafaranga	-7.60961
▁nubwo	-7.61402
uyu	-7.61564
▁bitandukanye	-7.61788
▁imana	-7.62188
▁iyo	-7.62275
n	-7.6346
▁ubuyobozi	-7.63711
▁bikaba	-7.64062
▁bagiye	-7.64255
▁kujya	-7.64266
▁wese	-7.64293
▁vy	-7.6444
▁umugabo	-7.65341
▁ifite	-7.66162
▁mukino	-7.66215
t	-7.66429
▁minisiteri	-7.66433
▁abatutsi	-7.6647
▁gutanga	-7.66494
▁kaminuza	-7.68547
▁umwaka	-7.68592
▁ikaba	-7.68647
▁atari	-7.68833
▁nyinshi	-7.69521
▁uruhare	-7.70582
je	-7.70711
▁nama	-7.70886
▁ubuzima	-7.71006
▁nayo	-7.71593
imana	-7.7215
▁amaze	-7.73269
▁yatangaje	-7.73532
▁abakinnyi	-7.73733
▁nabo	-7.74569
▁bu	-7.74885
▁umwanya	-7.75339
▁cane	-7.75505
▁rusange	-7.76092
▁du	-7.76482
▁usanga	-7.76586
▁umusaruro	-7.76642
ubuzima	-7.767
ubwo	-7.78129
▁isoko	-7.78605
▁iki	-7.78706
▁kenya	-7.78711
zi	-7.7874
▁ha	-7.78905
co	-7.78908
aho	-7.79415
▁gufasha	-7.80115
▁ubu	-7.80195
▁mw	-7.80602
▁haba	-7.8068
▁muntu	-7.80914
▁dr	-7.80926
abaturage	-7.81073
ngo	-7.81318
▁nkuru	-7.8155
amakipe	-7.81925
▁ikindi	-7.82156
▁kuwa	-7.82172
▁ivyo	-7.82797
▁yakorewe	-7.83515
▁cyumweru	-7.83833
▁si	-7.83925
▁barimo	-7.84126
▁ushinzwe	-7.84222
▁bityo	-7.84223
uburundi	-7.8448
▁agaciro	-7.8448
▁ndirimbo	-7.85136
▁ibibazo	-7.85418
▁kane	-7.85521
▁rimwe	-7.85667
▁birimo	-7.85985
▁tu	-7.86266
▁ri	-7.86283
▁kubaka	-7.86313
y	-7.86487
▁akazi	-7.86902
▁myaka	-7.86973
▁yaba	-7.8706
▁bakora	-7.87521
▁buzima	-7.88067
▁nibwo	-7.8817
▁nta	-7.8847
▁ryo	-7.90097
isi	-7.9015
▁gikorwa	-7.9033
▁ico	-7.90565
▁bimwe	-7.9107
▁kwibuka	-7.91323
▁bantu	-7.91769
iki	-7.92162
▁ufite	-7.92386
▁umwana	-7.92822
▁saa	-7.93199
▁mpuzamahanga	-7.93694
▁impamvu	-7.93829
▁umukino	-7.93888
▁kumenya	-7.93949
▁itsinda	-7.94059
yo	-7.94061
▁gatanu	-7.94641
▁canke	-7.94692
▁umukobwa	-7.94982
▁biri	-7.94991
▁kiganiro	-7.95066
▁mpamvu	-7.95158
▁igikombe	-7.95447
▁uru	-7.95472
abanyarwanda	-7.956
▁kugera	-7.95885
▁bitewe	-7.96062
ibihugu	-7.96262
▁amerika	-7.96417
iyi	-7.96453
▁umuryango	-7.96469
▁d	-7.9669
imari	-7.97724
▁nabi	-7.97859
▁gushyira	-7.98126
▁hano	-7.98452
▁gutera	-7.98695
▁inka	-7.99049
▁banki	-7.99253
▁kwirinda	-7.99255
▁ata	-7.99983
▁babiri	-8.00123
▁byiza	-8.0021
▁minsi	-8.00309
iyo	-8.0049
▁kigo	-8.00803
ubu	-8.00956
▁iryo	-8.01441
▁gufata	-8.01806
▁mikino	-8.0187
▁bituma	-8.01944
shobora	-8.02073
▁gukoresha	-8.02161
▁gatandatu	-8.02816
▁miliyari	-8.03036
▁witwa	-8.03192
ira	-8.03355
▁nkuko	-8.04097
▁indwara	-8.04129
ya	-8.04141
▁menshi	-8.04173
▁ibihugu	-8.04203
▁amahoro	-8.04316
:	-8.04353
▁bijyanye	-8.0473
▁iminsi	-8.05935
▁rugo	-8.05967
▁the	-8.05989
▁muryango	-8.0629
re	-8.06468
▁myiza	-8.06491
▁shampiyona	-8.06787
▁wa	-8.06827
uburyo	-8.07116
▁izina	-8.07409
▁gushaka	-8.07736
▁byari	-8.07937
▁kipe	-8.07969
▁umunyamabanga	-8.07973
▁kongera	-8.08225
▁ibindi	-8.08505
▁ashobora	-8.08585
▁imikino	-8.08792
▁mugabo	-8.08965
▁ubumwe	-8.09295
▁ibiri	-8.09529
▁https	-8.10295
▁yatangiye	-8.10335
▁niyo	-8.11381
▁baturage	-8.1155
▁yombi	-8.11667
▁umurwi	-8.11708
▁marie	-8.1191
abo	-8.12071
▁paul	-8.12217
▁iterambere	-8.12532
▁bagera	-8.1277
▁g	-8.1292
▁nko	-8.12965
▁umukuru	-8.12995
▁ngo	-8.13131
▁iby	-8.13272
▁zitandukanye	-8.1329
▁ndwara	-8.13379
▁ki	-8.13487
▁ab	-8.13495
▁amahirwe	-8.13533
▁uretse	-8.13557
nye	-8.13731
▁agiye	-8.13756
▁bar	-8.13882
▁abagore	-8.13989
▁kurwanya	-8.1401
▁amanota	-8.14147
▁ma	-8.14407
izindi	-8.1458
▁muhanga	-8.14916
▁sport	-8.15337
▁mafaranga	-8.1539
▁biba	-8.15735
▁yabwiye	-8.15828
▁kurusha	-8.16089
umuryango	-8.16249
▁kumwe	-8.16837
//	-8.16882
▁congo	-8.16889
▁covid	-8.16915
▁yitwa	-8.17081
ibi	-8.17166
▁aza	-8.17416
▁dore	-8.17433
▁ubwo	-8.17461
ka	-8.17617
▁inkunga	-8.17698
▁yagiye	-8.1787
▁emmanuel	-8.1802
▁gukomeza	-8.1831
uwo	-8.18559
/	-8.19032
▁kuza	-8.19034
▁rubavu	-8.19495
▁bana	-8.19565
▁uwa	-8.19669
▁bita	-8.19919
umujyi	-8.20314
▁huye	-8.20435
abana	-8.20557
umwaka	-8.20662
▁aha	-8.20768
▁ivuga	-8.20958
▁imirimo	-8.21069
▁yabaye	-8.21262
▁baza	-8.2135
mwo	-8.21466
▁imodoka	-8.21617
amaguru	-8.22275
ri	-8.22365
▁amateka	-8.22613
▁ama	-8.23332
▁gace	-8.23358
▁hanyuma	-8.23394
▁guteza	-8.23555
yakomeje	-8.23792
▁frw	-8.24528
▁urukundo	-8.24533
shyirahamwe	-8.24535
▁imbaraga	-8.24664
▁kibuga	-8.24664
▁police	-8.24671
▁la	-8.24918
▁stade	-8.25299
▁ushize	-8.2544
▁hose	-8.25566
▁amazi	-8.2565
▁bagenzi	-8.25831
umutekano	-8.26327
▁none	-8.26704
▁abari	-8.26757
▁gitaramo	-8.27286
▁abayobozi	-8.27516
ibyo	-8.27671
ikigo	-8.27812
▁bibiri	-8.28393
▁igikorwa	-8.29335
▁bihe	-8.29399
▁zose	-8.29595
▁miss	-8.29706
▁co	-8.2982
▁urwo	-8.30199
▁sentare	-8.30225
▁repubulika	-8.30327
▁ahantu	-8.30637
▁ikigo	-8.30703
,	-8.30707
amategeko	-8.30786
▁yaje	-8.31165
umukuru	-8.31264
ze	-8.31973
▁imaze	-8.32138
▁itariki	-8.32231
▁ho	-8.32394
▁mwiza	-8.32904
▁gi	-8.33382
▁yar	-8.3348
iterambere	-8.33755
▁makuru	-8.33782
▁ingaruka	-8.33818
▁akarere	-8.33825
▁bitaro	-8.33832
▁nzu	-8.34131
epfo	-8.34197
ikipe	-8.34311
▁uburenganzira	-8.34354
gamije	-8.34408
▁mata	-8.34473
▁urubyiruko	-8.35006
▁amatora	-8.35091
▁bujumbura	-8.35178
▁hejuru	-8.3523
▁amategeko	-8.35336
▁yasabye	-8.35954
▁yanditswe	-8.36119
▁amasezerano	-8.3641
▁zabo	-8.36539
▁zirimo	-8.36641
▁umunsi	-8.36691
▁wawe	-8.36766
▁ingamba	-8.36778
▁serivisi	-8.36808
▁inzu	-8.37284
▁indi	-8.37595
▁ikintu	-8.37761
▁kuvuga	-8.38016
▁nshya	-8.38159
▁gu	-8.38203
▁vyo	-8.38991
▁zunze	-8.39471
▁ubushobozi	-8.39543
▁nziza	-8.39647
▁twa	-8.4041
▁ubundi	-8.40422
▁werurwe	-8.40498
'	-8.40766
▁bagomba	-8.41062
▁ejo	-8.41119
▁wabo	-8.41248
▁ubutumwa	-8.41266
▁imiryango	-8.41559
▁ako	-8.41731
umurenge	-8.41857
▁ibikoresho	-8.42224
▁kazi	-8.42281
bijyanye	-8.42351
▁bashobora	-8.42449
▁ibyo	-8.42483
▁ze	-8.42549
▁iza	-8.42589
▁gukina	-8.42648
▁muganga	-8.43138
umupira	-8.43187
▁nshuro	-8.43344
▁kiri	-8.43545
▁akora	-8.4368
▁uba	-8.44028
umwe	-8.44053
▁iri	-8.44259
▁umuhanzi	-8.4446
▁ngombwa	-8.44543
▁guhangana	-8.44547
▁icumu	-8.44605
▁bikomeye	-8.44797
▁abakobwa	-8.45045
▁hakaba	-8.45655
▁umutoza	-8.45714
▁vya	-8.45903
▁abagabo	-8.46003
▁asaba	-8.46169
r	-8.4628
▁hirya	-8.46399
▁matora	-8.46601
▁bagize	-8.46842
▁kuva	-8.46996
▁babona	-8.47283
▁inyungu	-8.47701
ro	-8.4775
▁bara	-8.47863
jwe	-8.47985
▁ikinyamakuru	-8.48475
ubuyobozi	-8.48518
▁ibitego	-8.49153
▁ubwa	-8.49215
▁kwiga	-8.49216
▁inshuro	-8.49242
▁makipe	-8.49245
▁yakoze	-8.49261
▁gukorera	-8.49487
▁guha	-8.49677
▁irushanwa	-8.49769
▁#	-8.49877
▁atatu	-8.49932
▁turere	-8.50002
sha	-8.50079
▁mukobwa	-8.50088
▁ruhande	-8.5012
igihe	-8.50127
umugore	-8.50219
▁mpuzabitsina	-8.50349
▁abakozi	-8.50668
▁hino	-8.50749
▁inkuru	-8.50916
▁vuba	-8.50963
▁tanzania	-8.51077
▁nkurunziza	-8.51144
▁bwabo	-8.51458
▁nyarwanda	-8.51516
amerika	-8.5181
▁ishuri	-8.5197
▁zari	-8.52002
▁itatu	-8.52182
▁umuvugiz	-8.52456
▁in	-8.52528
ubucuruzi	-8.52712
▁abiri	-8.52869
▁abo	-8.53021
▁gice	-8.5315
▁barenga	-8.53266
abagore	-8.53308
▁akomeza	-8.53507
▁ikoranabuhanga	-8.53535
▁butumwa	-8.53599
▁urugero	-8.53615
▁cyose	-8.53712
ingabo	-8.53788
▁kwishyura	-8.54009
▁ukwakira	-8.54026
▁mudugudu	-8.54143
bishobora	-8.54219
▁umubare	-8.54283
▁ibiciro	-8.54317
▁ijambo	-8.54717
▁raporo	-8.54921
▁izindi	-8.55287
▁yayo	-8.55442
▁ibyaha	-8.55767
▁niwe	-8.55855
▁kwita	-8.5591
▁guverinoma	-8.55921
▁ishize	-8.55948
▁muhanda	-8.56794
umwihariko	-8.56948
▁ibiganiro	-8.57083
▁gato	-8.57281
▁turi	-8.57287
▁internet	-8.575
▁eric	-8.57584
▁kwa	-8.57692
▁of	-8.57789
▁yamaze	-8.57879
▁nabyo	-8.58086
▁uwo	-8.58287
umuyobozi	-8.58335
▁bwe	-8.58783
▁kuzamura	-8.58805
hagarariye	-8.58809
▁izaba	-8.58915
▁star	-8.58951
▁nyakanga	-8.58983
▁kureba	-8.59259
▁bakoze	-8.59266
▁ar	-8.59357
▁ziri	-8.59425
▁kanyanga	-8.59435
▁amagambo	-8.59445
▁bashaka	-8.59464
▁abahanzi	-8.59624
▁rusizi	-8.59741
▁akamaro	-8.59762
▁iya	-8.59847
▁kwinjira	-8.60187
inzego	-8.60272
▁irimo	-8.6065
umuntu	-8.60651
▁bigaragara	-8.60909
▁uku	-8.61127
▁guhera	-8.61147
▁bugesera	-8.61204
▁arimo	-8.61315
▁kenshi	-8.61405
▁yahise	-8.61459
▁amafoto	-8.61506
▁icyo	-8.61632
▁ukaba	-8.61766
▁gutsinda	-8.61855
ama	-8.62043
▁sida	-8.62135
▁byabo	-8.62196
▁ahanini	-8.6224
▁ntacyo	-8.62464
▁ebyiri	-8.62552
▁kure	-8.62683
umugabo	-8.62737
▁magambo	-8.6277
▁ashaka	-8.62883
▁akenshi	-8.63029
▁album	-8.63427
▁batatu	-8.63532
▁aribo	-8.63544
▁bibazo	-8.63564
bacitse	-8.63802
▁kugura	-8.63846
▁bufaransa	-8.63918
▁icyizere	-8.64056
▁bigatuma	-8.64108
▁urukiko	-8.64174
▁bajya	-8.64217
▁ariyo	-8.64354
▁amavubi	-8.64646
▁zimwe	-8.64646
▁inzego	-8.65003
indege	-8.65158
▁imibereho	-8.65268
▁igice	-8.65271
umukobwa	-8.6539
▁mugihe	-8.65474
▁mahanga	-8.65658
▁kare	-8.66038
▁ahagaragara	-8.66222
▁munota	-8.66258
▁bat	-8.66288
▁kamena	-8.66288
▁umukunzi	-8.66364
▁igenekerezo	-8.66486
▁gicurasi	-8.666
▁bata	-8.66691
▁bahawe	-8.66789
▁batandukanye	-8.6697
▁azaba	-8.67006
▁batangiye	-8.67115
▁urwego	-8.67282
▁mpera	-8.67443
le	-8.67509
▁ka	-8.68017
ibanze	-8.68108
amazi	-8.68211
▁rutonde	-8.68341
▁bifite	-8.68623
▁kumva	-8.68738
inama	-8.68743
▁iba	-8.68767
▁bazi	-8.68868
▁uburundi	-8.69002
▁l	-8.69033
▁kwica	-8.69267
igice	-8.69286
tse	-8.69415
▁mugenzi	-8.69469
▁rumwe	-8.69526
muhaburarw	-8.69589
mu	-8.6967
▁rukundo	-8.69741
▁byaba	-8.69819
▁ubushakashatsi	-8.7
▁umuco	-8.7014
▁uw	-8.70309
▁city	-8.70748
▁basanzwe	-8.70814
▁baje	-8.7085
▁nda	-8.70902
▁afrika	-8.70928
▁burundu	-8.71016
▁pierre	-8.71396
▁imvura	-8.71468
▁ibimenyetso	-8.71483
intara	-8.71641
▁musore	-8.71704
▁nyamara	-8.71828
▁nyene	-8.71828
iminota	-8.7198
▁ndi	-8.71997
▁make	-8.72018
▁bake	-8.72021
▁umutwe	-8.72301
▁itangazo	-8.72348
▁nshingwabikorwa	-8.72467
▁batuye	-8.72585
▁muzika	-8.72634
▁imibonano	-8.72661
▁yongera	-8.72699
▁hasi	-8.72809
▁bagira	-8.72852
▁asanzwe	-8.72973
icyo	-8.73122
▁gashyantare	-8.73127
▁mateka	-8.73208
▁ibiro	-8.73289
▁ishobora	-8.73326
▁yuko	-8.73361
▁ugushyingo	-8.73483
▁kur	-8.73528
akoresheje	-8.73558
iburasirazuba	-8.73615
▁ababyeyi	-8.7366
▁aya	-8.7366
▁nti	-8.73693
▁ruswa	-8.73742
▁mutwe	-8.73864
▁musanze	-8.73954
▁gukorana	-8.74004
▁bakinnyi	-8.74025
agomba	-8.74107
▁gisagara	-8.74354
▁ingabo	-8.74559
▁umuziki	-8.74615
▁umaze	-8.74979
▁kikaba	-8.75144
▁biza	-8.75177
▁ingingo	-8.75392
▁filime	-8.75652
▁yaho	-8.75675
▁as	-8.75703
▁impano	-8.7571
▁nigeria	-8.75799
▁mudasobwa	-8.75934
▁ingendo	-8.75961
▁abona	-8.76025
▁kwakira	-8.76041
▁icyemezo	-8.76095
▁nyanza	-8.76207
kazi	-8.76283
ire	-8.76414
▁icyorezo	-8.76423
li	-8.76536
▁rushanwa	-8.76571
▁batari	-8.76596
▁kongo	-8.76931
▁byatumye	-8.77002
▁club	-8.77013
amahoro	-8.77086
▁umurenge	-8.7727
▁gusaba	-8.77284
▁yahawe	-8.77475
▁dufite	-8.77551
▁bane	-8.77579
▁bigo	-8.77882
kagari	-8.77953
▁at	-8.77996
▁bice	-8.78019
▁amezi	-8.78305
▁dream	-8.78315
▁cyorezo	-8.78477
▁nkoranyambaga	-8.78556
iri	-8.78566
▁rubuga	-8.78785
▁amazu	-8.78862
▁ibigo	-8.78944
▁ukuri	-8.78944
ne	-8.79072
abakobwa	-8.79113
▁intwaro	-8.79119
▁bindi	-8.79195
▁nibura	-8.79359
umukino	-8.79468
▁abafana	-8.79507
▁yatsinze	-8.79577
▁reta	-8.79598
▁inguzanyo	-8.79739
▁gishinzwe	-8.7978
▁muhaburarw	-8.8002
▁cyiciro	-8.80163
▁inshuti	-8.80231
▁uruganda	-8.80384
▁komisiyo	-8.80406
▁kugaragara	-8.805
ayo	-8.80545
abikorera	-8.80679
▁baka	-8.80704
▁kwitabira	-8.80892
▁ukuboza	-8.80918
▁africa	-8.8099
▁birori	-8.81272
▁mbuga	-8.81299
▁aho	-8.81451
▁ruri	-8.81516
▁ahandi	-8.81733
▁igitego	-8.81781
ba	-8.81814
▁kugenda	-8.81832
▁igiye	-8.81856
umu	-8.81937
▁iharanira	-8.8194
umurwi	-8.82034
ije	-8.8209
▁gutwara	-8.82116
▁abagenzi	-8.82132
▁ko	-8.82141
▁nzira	-8.82513
▁mugaragaro	-8.82611
▁gushika	-8.82719
▁abafite	-8.82815
▁bakunda	-8.82893
▁gutegura	-8.83121
nya	-8.83147
▁ajya	-8.83147
▁rufite	-8.83221
▁itanu	-8.83335
ubuhinzi	-8.83465
▁kurya	-8.83594
▁ubwoba	-8.83656
▁gito	-8.84045
▁uzwi	-8.84446
▁wanjye	-8.84744
▁bacu	-8.84772
▁komine	-8.84789
iye	-8.8483
▁j	-8.84897
▁wayo	-8.84904
▁rugamba	-8.84942
▁sosiyete	-8.85007
▁bahanzi	-8.85099
▁muhanzi	-8.85103
era	-8.85212
afurika	-8.85536
▁bagore	-8.85595
▁gukorwa	-8.85705
rwa	-8.85723
▁bbc	-8.85789
▁bageze	-8.86051
▁demokarasi	-8.86051
▁mashuri	-8.86157
▁united	-8.86205
atangiye	-8.86213
▁wungirije	-8.86324
▁riri	-8.86335
▁ngozi	-8.86364
▁bwongereza	-8.86459
▁imiti	-8.86524
▁biteganyijwe	-8.86577
▁bakoresha	-8.86672
▁umukinnyi	-8.86762
▁bintu	-8.86794
▁diamond	-8.8693
▁imishinga	-8.86947
▁yemeza	-8.87031
igizwe	-8.8714
▁ngingo	-8.87173
▁intara	-8.8723
▁umunani	-8.87257
▁guca	-8.87283
▁agera	-8.87304
▁bwiza	-8.87319
▁cyari	-8.87448
ibikorwa	-8.875
▁nisingizwe	-8.8752
▁nyagatare	-8.87523
▁uza	-8.87681
▁banyarwanda	-8.87726
▁nzego	-8.87759
urukundo	-8.87965
▁vs	-8.88027
akunze	-8.8815
iryo	-8.88272
▁ubusanzwe	-8.8843
▁inshingano	-8.88596
▁amashuri	-8.88643
▁ariwe	-8.88751
▁abarundi	-8.88837
amajyepfo	-8.88933
▁kurushaho	-8.89044
amahanga	-8.8908
▁ingabire	-8.89192
▁kwi	-8.89208
ni	-8.89373
iminsi	-8.89441
▁yagiranye	-8.89534
▁bombi	-8.89537
▁inda	-8.89587
ce	-8.89724
▁yatanze	-8.89732
▁umwuga	-8.89873
▁bivugwa	-8.89896
amajyaruguru	-8.89912
▁bato	-8.89952
▁burayi	-8.9003
▁ahita	-8.90059
▁bakorera	-8.90083
▁radio	-8.90107
▁boys	-8.90225
▁umukozi	-8.90279
▁byombi	-8.90328
▁joseph	-8.90371
▁kubura	-8.90431
▁igitaramo	-8.90493
ukwezi	-8.90591
▁guhabwa	-8.90669
▁mutarama	-8.90826
▁abanyeshuri	-8.90946
▁gikomeye	-8.90992
bamenyeshamakuru	-8.91152
▁ubukungu	-8.91177
▁ugasanga	-8.91304
▁umushinga	-8.91462
▁muhango	-8.91728
z	-8.91843
amavuko	-8.91872
▁itegeko	-8.91884
nwa	-8.92207
▁itike	-8.92208
▁olivier	-8.92401
agaciro	-8.92472
umugambwe	-8.92735
▁bayo	-8.92749
▁icyaha	-8.92756
▁toni	-8.92869
▁nd	-8.92885
▁ruhango	-8.92892
▁claude	-8.93
▁inzira	-8.93172
ma	-8.93178
▁koperative	-8.93322
▁james	-8.93621
▁nabwo	-8.93632
abakozi	-8.93697
binyuze	-8.93703
▁kinini	-8.9384
▁cyiza	-8.93873
▁yashyize	-8.93951
▁ari	-8.94006
urubyiruko	-8.94099
▁bak	-8.94125
▁koko	-8.94209
▁siporo	-8.94362
▁gitondo	-8.9437
abarundi	-8.9449
▁mugore	-8.94514
▁bufatanye	-8.9458
▁kwivuza	-8.94593
▁sacco	-8.94674
▁muto	-8.94774
▁imbabazi	-8.94887
h	-8.94972
ubushikiranganji	-8.95118
indirimbo	-8.9544
▁intego	-8.95455
ahandi	-8.95488
▁ukwezi	-8.95546
▁mahugurwa	-8.95625
▁niba	-8.95759
▁biga	-8.95777
▁ubucuruzi	-8.95978
▁telefoni	-8.96272
▁les	-8.96283
▁iwabo	-8.96283
▁ushobor	-8.96375
▁umusore	-8.96401
▁ishami	-8.96463
▁kanama	-8.96486
▁rwe	-8.96536
▁ubumenyi	-8.96709
itabiriwe	-8.96931
▁facebook	-8.97135
▁umunyamakuru	-8.97153
▁and	-8.97534
▁ukuvuga	-8.97537
amanota	-8.97628
▁hotel	-8.97689
▁babonye	-8.97825
▁bisanzwe	-8.97866
▁isuku	-8.98061
▁murwi	-8.98093
nda	-8.98184
▁meza	-8.98275
▁umugambwe	-8.984
▁mwana	-8.98432
▁iwacu	-8.98511
ikoranabuhanga	-8.98708
▁hamaze	-8.98861
▁ubusa	-8.98862
▁tanzaniya	-8.98874
▁mugabane	-8.98939
igikombe	-8.98973
▁john	-8.98994
▁ijoro	-8.9912
imikino	-8.9922
▁bafise	-8.99386
amateka	-8.99653
▁mbi	-8.99764
▁umuti	-9.00107
ubukungu	-9.00308
▁umugwi	-9.00325
▁nibo	-9.0035
▁bakwiye	-9.00359
▁kera	-9.0046
▁ferwafa	-9.00699
izo	-9.0075
▁bitatu	-9.00826
▁mur	-9.00985
▁batanga	-9.00987
▁kubahiriza	-9.0101
ing	-9.01091
▁iperereza	-9.01117
▁ikiganiro	-9.01274
indi	-9.01349
▁bitabiriye	-9.0147
▁igiciro	-9.01591
▁umutima	-9.01611
abanyamuryango	-9.01719
▁abenshi	-9.01804
▁ugomba	-9.01948
▁twari	-9.02019
undi	-9.02059
▁yumva	-9.02176
▁itandukanye	-9.02206
▁intambwe	-9.0227
▁ntumbero	-9.0235
▁rdb	-9.02366
▁kubungabunga	-9.02432
amaze	-9.02458
▁amasaha	-9.02481
▁ebola	-9.02725
▁urutonde	-9.02768
▁mbabazi	-9.02769
igenekerezo	-9.02799
▁rivuga	-9.02826
▁kiza	-9.02836
▁gisirikare	-9.0289
▁ibihembo	-9.02895
▁tom	-9.02962
▁ndayishimiye	-9.02975
▁nzeri	-9.03174
amashuri	-9.03207
ine	-9.03325
ingenzi	-9.03369
ubutegetsi	-9.03516
▁telefone	-9.03538
▁gutuma	-9.03637
▁ibice	-9.03726
▁hashize	-9.03801
▁burya	-9.03842
▁yacu	-9.03846
ongeyeho	-9.03875
▁rwamagana	-9.03929
d	-9.03973
▁cye	-9.03977
abakinnyi	-9.04128
c	-9.04159
▁nshimiyimana	-9.04195
▁inzoga	-9.04219
▁izi	-9.04332
▁abacuruzi	-9.04378
▁amashusho	-9.04379
▁bushakashatsi	-9.0445
▁bwoko	-9.04528
▁mtn	-9.0457
▁le	-9.04589
▁pariki	-9.04676
▁bahabwa	-9.04756
▁akavuga	-9.04881
▁icya	-9.05181
ijoro	-9.05196
▁gikombe	-9.0531
nga	-9.05649
▁ngoma	-9.05685
▁kibanza	-9.05719
▁nyina	-9.05955
▁tsinda	-9.0597
?	-9.05979
abagabo	-9.06152
abibumbye	-9.0622
▁busanzwe	-9.06357
▁ibicuruzwa	-9.06377
▁ubona	-9.06423
▁yisumbuye	-9.06433
fasha	-9.06453
▁kwerekana	-9.06501
▁kubaho	-9.06549
▁rukino	-9.0661
▁yamenyesheje	-9.06614
▁bakomeje	-9.06743
▁ntib	-9.06758
▁gutangira	-9.06867
▁umupira	-9.06922
▁ijana	-9.07074
▁usanzwe	-9.07195
▁ugereranyije	-9.07322
zo	-9.07323
▁muka	-9.07456
▁bazajya	-9.07702
▁hakiri	-9.08001
▁league	-9.08032
▁yawe	-9.08044
▁intege	-9.08045
▁afise	-9.0831
▁twitter	-9.08338
▁ingufu	-9.08351
inshuti	-9.08379
▁yagaragaje	-9.08499
▁biro	-9.0863
▁bagabo	-9.08653
go	-9.08726
▁yara	-9.08731
▁ine	-9.08746
▁cndd	-9.08974
▁igihano	-9.09051
▁nari	-9.09069
ibiciro	-9.09218
amezi	-9.09283
▁azi	-9.09363
▁papa	-9.0938
imwe	-9.09594
▁ruganda	-9.09614
▁canada	-9.09677
▁akunda	-9.09679
▁gicumbi	-9.09713
▁umubano	-9.09715
▁mezi	-9.09768
ukuri	-9.09883
▁buvuga	-9.09897
▁uwu	-9.09999
▁amwe	-9.10094
umwana	-9.10158
▁ubukwe	-9.10214
▁ayo	-9.10277
▁primus	-9.10353
fatanyije	-9.10515
▁bati	-9.10572
▁umuriro	-9.10587
▁ak	-9.11068
▁gukura	-9.11116
▁imbuto	-9.11161
▁gereza	-9.11213
▁yongeye	-9.11219
▁bazaba	-9.11278
▁abahinzi	-9.11323
▁guhindura	-9.1137
▁igira	-9.11396
▁remera	-9.11427
▁bag	-9.11451
▁ibiyobyabwenge	-9.11554
intebe	-9.11635
▁urukino	-9.11645
▁modoka	-9.11744
▁kugaragaza	-9.11762
▁ibitekerezo	-9.11783
▁new	-9.12094
▁baptiste	-9.12106
amanyarwanda	-9.12121
▁isaha	-9.12361
▁bagaragaza	-9.12377
imyumbati	-9.12472
▁mike	-9.12495
▁gutyo	-9.12543
ishirahamwe	-9.12548
▁bwose	-9.12577
umushikiranganji	-9.12632
atwaye	-9.12736
▁t	-9.12773
▁abakunzi	-9.12857
▁ziba	-9.12967
▁atandukanye	-9.12996
▁s	-9.13285
▁ikora	-9.13328
se	-9.13491
▁jose	-9.13504
▁mushinga	-9.13516
▁king	-9.13647
▁haza	-9.13675
▁kuja	-9.13743
l	-9.1412
▁gen	-9.14167
ha	-9.14187
▁myinshi	-9.14194
▁nibyo	-9.1421
▁theoneste	-9.1425
▁yabonye	-9.14558
ibihumbi	-9.14642
▁yasobanuye	-9.14728
▁noneho	-9.14784
▁amenyesha	-9.14815
▁ikorera	-9.14944
▁mibi	-9.14961
umuco	-9.1503
▁gitega	-9.15158
▁bihingwa	-9.15212
▁musi	-9.15258
▁icy	-9.15289
▁icumi	-9.15391
▁rwasa	-9.15403
▁guhura	-9.15631
▁ubuhamya	-9.15733
▁ubutaka	-9.15943
▁gucuruza	-9.16098
▁busa	-9.161
▁ukuntu	-9.16192
▁miryango	-9.16294
kesha	-9.1637
ingendo	-9.16374
▁kumi	-9.16611
▁bakobwa	-9.16678
▁umuhungu	-9.16683
▁bayobozi	-9.16706
▁amazina	-9.16786
▁ava	-9.16978
▁itorero	-9.17169
ubundi	-9.172
▁gerard	-9.17257
abashije	-9.17583
▁instagram	-9.17804
▁espoir	-9.17836
▁marushanwa	-9.17926
inyama	-9.17981
▁amaso	-9.18024
▁yise	-9.18032
▁komit	-9.18114
ta	-9.1812
▁igihembo	-9.18286
▁fdlr	-9.18315
k	-9.18453
▁akiri	-9.18461
kunze	-9.18467
▁atanga	-9.18492
com	-9.1861
▁eshatu	-9.1862
si	-9.18645
▁niko	-9.18656
arangije	-9.18722
▁bwana	-9.18806
▁yafashe	-9.18829
▁ikomeye	-9.18934
▁p	-9.19
zwa	-9.19013
▁ishirahamwe	-9.19049
▁bifuza	-9.19101
▁urugo	-9.19106
▁abasirikare	-9.19171
▁kugabanya	-9.19245
▁kigero	-9.19687
▁zikaba	-9.197
▁uko	-9.19701
▁rikaba	-9.19714
▁munini	-9.19775
▁zikomeye	-9.19828
er	-9.1986
ibigo	-9.19878
▁amabwiriza	-9.19927
abanyamakuru	-9.19936
rwayi	-9.19941
▁imikorere	-9.19987
▁urugendo	-9.20269
▁umuturage	-9.2028
▁cnl	-9.20356
▁nako	-9.20481
▁ryari	-9.20482
amagara	-9.20576
▁biganiro	-9.20598
▁nshingiro	-9.20616
▁mfite	-9.20616
▁zayo	-9.20618
▁numva	-9.20699
▁utaha	-9.20701
▁bavuye	-9.20742
bajije	-9.20776
▁gukumira	-9.20786
▁cumi	-9.20904
indwara	-9.20962
emerewe	-9.2106
▁itari	-9.21143
igicuri	-9.21144
▁ibirori	-9.21377
▁itangazamakuru	-9.21383
▁bubiligi	-9.21459
▁igera	-9.21572
▁amasoko	-9.21616
▁guhagarika	-9.21637
▁masaha	-9.21656
iwe	-9.21708
abahanzi	-9.21716
▁manchester	-9.21881
▁atandatu	-9.21905
▁yageze	-9.21952
▁tour	-9.22008
▁butandukanye	-9.22046
izi	-9.22122
▁ukora	-9.22203
▁cyabo	-9.22251
▁uyo	-9.2226
abayobozi	-9.22276
▁virusi	-9.22475
▁andi	-9.2249
▁igaragaza	-9.22615
▁umwanzuro	-9.22872
▁moto	-9.22954
▁nde	-9.23004
▁bushinwa	-9.23137
▁umutungo	-9.23144
▁njye	-9.23223
▁umubyeyi	-9.23332
▁rwose	-9.23399
▁ushaka	-9.23795
▁imari	-9.23897
▁ahitwa	-9.23956
▁gakenke	-9.23987
▁icyumweru	-9.24069
▁ibitsindo	-9.2412
▁ubuhinzi	-9.24123
▁muyobozi	-9.24208
▁rubyiruko	-9.24273
imvura	-9.24285
▁guhita	-9.24292
▁kintu	-9.2438
▁nyampinga	-9.24596
ingengo	-9.24614
▁bavuze	-9.24736
▁innocent	-9.24969
▁yaciye	-9.2504
▁izo	-9.25248
▁urubanza	-9.25296
ububanyi	-9.25322
▁basaba	-9.2555
▁imisoro	-9.25649
uyobora	-9.25684
▁bemeza	-9.25728
▁guta	-9.25736
▁basketball	-9.25849
▁gutangiza	-9.25887
▁abakiriya	-9.25949
▁yahaye	-9.26148
▁nyamasheke	-9.26157
▁imyitozo	-9.26185
ivyo	-9.26366
▁sitade	-9.26462
▁bwinshi	-9.26468
▁gusura	-9.26634
▁hazaza	-9.26746
▁indege	-9.2675
dashobora	-9.26767
▁mushya	-9.26913
▁des	-9.27061
▁gukunda	-9.27084
▁bukaba	-9.27116
gira	-9.27136
amatora	-9.27197
▁basabwa	-9.27264
▁gukurikirana	-9.27459
▁bnr	-9.27598
aga	-9.27624
!	-9.27735
gomba	-9.27763
▁yari	-9.27808
urwego	-9.27892
▁rubanza	-9.27995
▁giti	-9.2802
▁kunywa	-9.2803
▁uzi	-9.28113
▁bakomeye	-9.28244
▁rib	-9.28303
▁ahari	-9.28351
▁mugoroba	-9.28354
ishyaka	-9.28362
▁ibiti	-9.28489
▁f	-9.28507
uru	-9.28552
▁arongoye	-9.28694
▁video	-9.28738
m	-9.28893
ti	-9.2891
▁wowe	-9.29032
▁ariho	-9.29199
▁guverineri	-9.29259
ishuri	-9.29298
▁wiwe	-9.29302
▁yoba	-9.29476
siganwa	-9.29544
icyiciro	-9.29555
▁bigize	-9.29609
▁buhinzi	-9.29693
▁batanu	-9.29697
▁cyemezo	-9.29707
▁masezerano	-9.29733
▁zifite	-9.29737
▁amahugurwa	-9.29823
▁arenga	-9.29917
▁litir	-9.29935
▁politiki	-9.29939
▁yashimiye	-9.29968
▁natwe	-9.30088
▁umunyarwanda	-9.3025
ana	-9.30268
▁martin	-9.30287
▁rye	-9.3051
iteguye	-9.30691
▁amajwi	-9.30778
ahawe	-9.30824
▁yabereye	-9.30829
▁igeze	-9.30988
▁hitimana	-9.31063
▁kiyovu	-9.31093
▁ibidukikije	-9.3111
▁madrid	-9.31343
▁yanditse	-9.31412
ungane	-9.31603
▁al	-9.31719
no	-9.31771
amadolari	-9.31784
▁twese	-9.31846
fdd	-9.31944
▁umubiri	-9.32022
▁bakajya	-9.32127
▁ukomeye	-9.3227
agerageje	-9.32316
▁kubana	-9.32321
▁butaka	-9.32456
▁maso	-9.32528
ubworozi	-9.32614
▁gute	-9.3266
▁kuririmba	-9.32691
▁zombi	-9.32693
▁wacu	-9.32712
▁bakuru	-9.32722
▁bwite	-9.33
▁gifite	-9.33151
atangaje	-9.33223
▁amarushanwa	-9.33282
▁mupaka	-9.33505
▁kicukiro	-9.33527
uturere	-9.33563
▁burera	-9.33587
▁mbona	-9.33608
▁kuganira	-9.33619
▁imyenda	-9.33671
▁kayiranga	-9.33704
▁denis	-9.33725
▁kuzana	-9.33814
▁amakosa	-9.33859
▁safari	-9.3386
▁byabaye	-9.33931
▁wenyine	-9.34038
▁intsinzi	-9.34046
isoko	-9.34058
umubiri	-9.34059
akomeje	-9.34114
▁ibwirizwa	-9.34128
▁isanzwe	-9.34259
▁yemeje	-9.34374
▁ukuriye	-9.34389
▁wabaye	-9.34426
▁inter	-9.34515
▁bitari	-9.34556
▁abashoramari	-9.34688
▁mutima	-9.3487
▁adepr	-9.3493
▁bakina	-9.3499
▁duce	-9.35016
▁ubufatanye	-9.35088
akazi	-9.35136
▁byaha	-9.35182
▁inkino	-9.35376
▁kurinda	-9.35395
▁yan	-9.35399
ikinyamakuru	-9.3549
yi	-9.35511
▁U	-9.35561
▁abanyamakuru	-9.35619
▁ivy	-9.35623
▁agatho	-9.35795
▁bacuruzi	-9.35888
▁pascal	-9.35959
▁noir	-9.35979
▁asanga	-9.35989
▁mategeko	-9.36027
▁butare	-9.36205
▁ese	-9.36215
▁bizimana	-9.3628
▁bijanye	-9.36314
▁ibihe	-9.36365
▁sita	-9.36395
▁ara	-9.36418
▁niho	-9.36501
▁njyana	-9.36594
▁bakeneye	-9.36643
yatangajwe	-9.36696
▁yifuza	-9.36789
▁ahabwa	-9.36805
▁gishize	-9.3685
▁akomeye	-9.36947
itangazwa	-9.37067
▁abarwayi	-9.37171
▁ijejwe	-9.37172
▁bariko	-9.37195
▁bishop	-9.37242
amashanyarazi	-9.3731
imbere	-9.37338
▁abagize	-9.37342
▁rusama	-9.3735
▁runaka	-9.37493
▁bivuze	-9.37511
▁eshanu	-9.37513
▁gupfa	-9.37558
▁kuyobora	-9.37631
▁lisansi	-9.37649
▁mazi	-9.37685
▁abakinyi	-9.37751
huye	-9.37834
▁bahise	-9.37936
▁mirongo	-9.38038
▁gufungura	-9.38063
▁ntaho	-9.38096
▁aigle	-9.38199
▁ica	-9.38223
inka	-9.38264
▁habaye	-9.38329
▁kubakwa	-9.38335
▁ugiye	-9.38513
▁abanya	-9.38571
▁uburwayi	-9.38599
icyorezo	-9.3864
▁zone	-9.38658
▁caf	-9.38743
▁agaragaza	-9.38767
▁rulindo	-9.38807
▁bye	-9.38839
▁nshingano	-9.38843
▁jay	-9.3885
▁yanjye	-9.38917
▁bakiri	-9.3897
▁gukemura	-9.38982
▁gasabo	-9.38991
▁yo	-9.39034
ikibazo	-9.39194
ry	-9.39217
▁close	-9.39272
▁rukiko	-9.39322
inteko	-9.39342
▁angana	-9.39424
▁iti	-9.39476
▁amaraso	-9.3949
abari	-9.39501
▁bahita	-9.39701
▁ndikumana	-9.39721
▁ambasaderi	-9.3979
▁nkino	-9.39861
igomba	-9.39932
▁inyubako	-9.39948
▁utuye	-9.39982
▁bwari	-9.4
▁kwigisha	-9.40025
▁guhanga	-9.40064
▁bisaba	-9.401
▁abivuga	-9.40116
▁avuye	-9.40146
▁bimaze	-9.40168
▁bagenda	-9.40303
urwanda	-9.40382
▁muke	-9.40773
▁nazo	-9.40827
▁guhinga	-9.40832
▁gutandukana	-9.40873
▁an	-9.40907
▁tuba	-9.40931
rwanda	-9.40942
▁umwuka	-9.41029
agateganyo	-9.41075
▁kanya	-9.41168
imyitwarire	-9.41174
A	-9.41323
▁cyenda	-9.41352
ikomeje	-9.41396
▁rwari	-9.41516
▁agace	-9.41536
▁byiciro	-9.41638
▁kiliziya	-9.41638
▁munyarwanda	-9.41666
▁kiba	-9.41717
▁igamije	-9.41752
▁kivu	-9.41778
▁wahoze	-9.41834
▁bushya	-9.41868
▁arsenal	-9.41988
▁oms	-9.42116
▁baturutse	-9.42131
▁abaganga	-9.42248
uburezi	-9.42321
▁clemen	-9.42357
▁abakora	-9.42358
▁evariste	-9.42498
▁chief	-9.42582
▁yegukanye	-9.42654
▁mirimo	-9.42706
▁nyira	-9.4279
▁aribw	-9.42804
▁basanze	-9.4281
to	-9.42841
▁bucuruzi	-9.43004
▁gutunganya	-9.43042
▁kwandura	-9.43054
▁I	-9.43179
▁bandi	-9.43187
▁million	-9.43254
▁yafashwe	-9.43532
▁bubanza	-9.43548
▁patrick	-9.43548
▁ceni	-9.43561
sa	-9.43609
▁harimwo	-9.43624
▁kub	-9.43637
atumye	-9.43645
▁yavuye	-9.43655
▁ibyangombwa	-9.43759
▁rwa	-9.43771
▁kwambara	-9.43799
▁nyabihu	-9.43929
▁vyinshi	-9.43955
▁impungenge	-9.43968
▁yerekana	-9.43982
habwa	-9.44022
▁kayonza	-9.44064
▁mpuzamakungu	-9.44091
▁gufatanya	-9.44103
▁vyose	-9.4412
▁gufungwa	-9.44212
▁bumva	-9.44243
ateye	-9.44556
▁ubutegetsi	-9.44608
atangajwe	-9.44617
▁isonga	-9.44619
▁richard	-9.44634
▁tura	-9.44659
▁ageze	-9.44942
▁ibuka	-9.44945
▁messager	-9.45063
ibibazo	-9.45104
umuhanzi	-9.4516
▁inganda	-9.45265
▁masoko	-9.45536
▁volleyball	-9.45813
▁mugwi	-9.45817
rushaho	-9.45822
▁bakorana	-9.45838
amabuye	-9.45937
▁bumwe	-9.46047
▁real	-9.46066
aganira	-9.46104
▁reba	-9.46132
▁ltd	-9.46145
▁guhungabanya	-9.46169
umugoroba	-9.46294
▁ukomoka	-9.46296
▁mirenge	-9.46332
▁kari	-9.46346
▁kubafasha	-9.4651
▁intamba	-9.46524
▁international	-9.46543
▁ngororero	-9.46735
▁ubwenge	-9.46804
▁ubumuga	-9.46913
▁mukura	-9.46944
▁naho	-9.4695
▁myanya	-9.46954
komeje	-9.46956
▁yabitangaje	-9.47132
▁uwari	-9.47135
▁wose	-9.47185
▁urubuga	-9.4725
▁et	-9.47295
▁abasore	-9.47398
▁rwabo	-9.47491
▁for	-9.47606
▁agenda	-9.47607
amabanki	-9.47643
▁niyonzima	-9.47797
▁abapolisi	-9.47797
▁vital	-9.47828
igeze	-9.47859
fise	-9.47948
▁baciye	-9.47965
▁baga	-9.47988
▁academy	-9.48124
▁karongi	-9.4817
▁izajya	-9.4825
▁ubushinjacyaha	-9.48259
▁azajya	-9.48399
▁abanyagihugu	-9.48542
▁bimeze	-9.48562
▁bene	-9.48653
▁basanga	-9.48679
▁ukunda	-9.48755
▁nyamirambo	-9.48923
▁kuboneka	-9.49065
▁aga	-9.4914
komeza	-9.49151
▁guma	-9.49241
▁remezo	-9.49265
▁ishinga	-9.4947
agaragaje	-9.49507
▁kugaruka	-9.49541
▁gisenyi	-9.4959
▁gushakish	-9.49614
▁kwizera	-9.49669
inzobere	-9.49709
▁uzaba	-9.49772
▁rugendo	-9.4983
jyanye	-9.49884
▁ishyirwa	-9.49884
▁har	-9.49925
▁umuririmbyi	-9.49968
▁yigeze	-9.49996
▁akorera	-9.50013
▁nanjye	-9.50031
▁nshuti	-9.50048
▁ndege	-9.50086
▁kuvura	-9.50108
tuma	-9.50346
▁hazaba	-9.50516
▁nini	-9.50521
urugendo	-9.50624
▁kwandika	-9.50652
▁misiri	-9.50931
▁nsengiyumva	-9.5096
▁kizaba	-9.51138
abanyeshuri	-9.51205
▁gakondo	-9.5124
▁kumurika	-9.5126
hifashishijwe	-9.5129
▁aje	-9.51305
al	-9.51354
andi	-9.51392
▁basaga	-9.5145
▁buholandi	-9.51599
▁ane	-9.51621
teza	-9.51713
▁tugiye	-9.51872
▁bizaba	-9.52024
icyumweru	-9.52069
▁iy	-9.52086
▁ahabona	-9.52255
▁bigeze	-9.52308
▁itera	-9.52335
aka	-9.52475
▁abajejwe	-9.52556
gitoli	-9.52612
itsinda	-9.52693
ishure	-9.52728
▁uwitwa	-9.52833
agombaga	-9.52864
▁telephone	-9.52916
▁gukangurir	-9.52934
▁petero	-9.52948
ubuvuzi	-9.52965
b	-9.5298
ibiro	-9.53079
▁waba	-9.53258
▁gusubiza	-9.53438
▁umusanzu	-9.53488
▁uk	-9.53515
▁gutora	-9.53537
▁twe	-9.53628
▁intera	-9.53673
▁murongo	-9.5372
▁gutsindwa	-9.5374
▁urupfu	-9.53938
▁mubiri	-9.54001
▁usibye	-9.54126
▁zirenga	-9.5435
ishami	-9.54485
ihiganwa	-9.54487
▁M	-9.54527
abavandimwe	-9.54537
mbogamizi	-9.54542
▁imideli	-9.54567
▁burasirazuba	-9.54638
▁am	-9.5465
imiryango	-9.54693
amadorari	-9.54714
itabiriye	-9.54767
▁abarokotse	-9.54818
▁nyakwigendera	-9.54872
▁munani	-9.54882
icyunamo	-9.54909
▁ibyiza	-9.54946
▁kabo	-9.55015
ujuje	-9.55084
rabuzima	-9.55215
▁kamichi	-9.55216
▁yatangarij	-9.55217
▁mugihugu	-9.55239
▁bosco	-9.55266
▁guhuza	-9.55309
te	-9.55321
▁kwiba	-9.55322
0	-9.55431
▁v	-9.55439
▁ligue	-9.55439
▁nyine	-9.55476
▁ibitaramo	-9.55518
▁gatsibo	-9.55566
hamwe	-9.55608
▁aca	-9.55639
▁imyumvire	-9.55671
▁bava	-9.55707
abaminisitiri	-9.55719
▁impanuka	-9.55761
▁yitabiriye	-9.55779
▁guterwa	-9.55784
▁abanza	-9.55811
▁mubi	-9.55816
▁byakozwe	-9.55824
▁bafashe	-9.55843
aya	-9.5586
igenamigambi	-9.55863
▁norbert	-9.55996
bafatanyabikorwa	-9.56026
▁umukono	-9.56072
▁igi	-9.56081
▁umurambo	-9.5627
▁amasomo	-9.56283
muhango	-9.56295
▁biterwa	-9.56379
▁museveni	-9.56395
▁gusubira	-9.56431
▁rdc	-9.56503
▁akwiye	-9.56586
nze	-9.56613
▁paris	-9.56628
▁rwandair	-9.56762
▁umugambi	-9.56817
intumwa	-9.56945
ibintu	-9.56962
▁african	-9.56969
▁gutaha	-9.57023
▁waje	-9.57037
▁taliki	-9.5712
arangiye	-9.5712
▁kugurisha	-9.57134
▁yiga	-9.57196
umutoza	-9.57307
▁isukari	-9.57319
▁yapfuye	-9.57358
▁viateur	-9.57373
▁ben	-9.57377
▁kwiyongera	-9.57463
▁ubanza	-9.57478
inzara	-9.57496
▁ubuhanga	-9.57569
▁bwicanyi	-9.57573
▁ik	-9.57577
▁bumenyi	-9.57661
abafana	-9.57725
▁bafashwe	-9.57822
▁amashanyarazi	-9.57854
▁kimaze	-9.57865
tunganya	-9.57896
▁imibar	-9.57947
▁it	-9.58259
▁kinyamakuru	-9.58398
umuziki	-9.58412
▁cup	-9.58471
iya	-9.58506
ishinzwe	-9.58516
▁umunya	-9.58527
▁nshingamateka	-9.58697
g	-9.58737
ibihe	-9.58826
umuririmbyi	-9.58926
▁ikibanza	-9.58988
isaha	-9.59017
▁za	-9.59159
▁muziki	-9.59185
▁berekeza	-9.59261
impapuro	-9.59302
▁higanwa	-9.59439
▁gutangaza	-9.59482
p	-9.59523
▁niyizurugero	-9.59577
▁mukerarugendo	-9.5964
▁ibisabwa	-9.59732
▁ngufu	-9.60036
▁ubwe	-9.6005
▁bikoresho	-9.60103
▁kirekire	-9.60208
▁bo	-9.60215
yobowe	-9.60476
▁bigaragaza	-9.60526
wo	-9.60564
▁amagara	-9.60745
▁ingenzi	-9.60868
ijana	-9.60879
▁bagaragaje	-9.61087
ubutaka	-9.61126
▁tuza	-9.61147
▁tugomb	-9.61159
▁kunoza	-9.61242
mibare	-9.61333
▁bikwiye	-9.61337
▁imyiyerekano	-9.61373
I	-9.61375
▁aherutse	-9.61394
siyo	-9.61398
twara	-9.61407
ubutabera	-9.61441
▁muco	-9.61595
▁mozambique	-9.61633
▁baha	-9.61662
▁centre	-9.61696
▁abatishoboye	-9.61708
▁kijyambere	-9.61834
▁nyarugenge	-9.61845
▁ethiopia	-9.61862
inganda	-9.61886
▁aribyo	-9.61916
▁uwimana	-9.61944
waho	-9.61952
▁isano	-9.62072
▁byagaragaye	-9.6208
▁messi	-9.621
▁kapiteni	-9.62121
umunsi	-9.62129
abakoze	-9.62165
▁yaguye	-9.62177
rurema	-9.62177
▁ikibasumba	-9.62247
▁hoteli	-9.62263
▁bakundana	-9.62265
mirwi	-9.62358
▁kuguma	-9.62391
▁yafatiwe	-9.6241
fitiye	-9.62433
▁rumaze	-9.62511
▁ngwara	-9.62525
▁zindi	-9.62585
▁kurangiza	-9.62655
▁batangira	-9.62663
▁umuhanda	-9.6272
jyanama	-9.62834
▁rukaba	-9.62862
▁A	-9.62941
▁kwitwara	-9.6296
▁yadutangarije	-9.63018
▁impinduka	-9.63027
▁zishobor	-9.63134
▁konti	-9.63185
▁parik	-9.63234
▁egide	-9.633
kwiye	-9.63319
ubukerarugendo	-9.63357
▁bazo	-9.63368
▁politike	-9.63445
▁atanu	-9.63505
rwibutso	-9.63518
▁undi	-9.6352
▁bayi	-9.63523
▁biciye	-9.63537
umunyamabanga	-9.63621
ibikoresho	-9.63639
▁musongati	-9.63824
▁ifoto	-9.63967
▁kubandanya	-9.63986
▁jacques	-9.64076
▁saint	-9.64102
▁nyir	-9.64115
▁kwegukana	-9.64171
umutima	-9.6423
▁bihagije	-9.6425
itiriwe	-9.64281
ejo	-9.6441
▁wenda	-9.64488
▁yambaye	-9.6453
▁radiyo	-9.64537
▁bigera	-9.64689
▁abagera	-9.64742
▁bernard	-9.64743
▁afata	-9.64744
▁hagamijw	-9.64791
▁benin	-9.64907
▁icyenda	-9.64949
▁bralirwa	-9.6499
▁rwiyemezamirimo	-9.65042
▁gufatwa	-9.65047
shaka	-9.65086
girango	-9.65168
▁yindi	-9.65171
▁bibi	-9.65198
▁atangaza	-9.65286
imodoka	-9.6529
▁pour	-9.65306
ahagaritse	-9.65316
▁imihanda	-9.65362
ku	-9.65366
▁nyafurika	-9.65495
intamba	-9.65501
▁olympic	-9.65518
▁televiziyo	-9.65653
▁ibyishimo	-9.65662
▁akinira	-9.6573
▁ir	-9.65801
▁uwamariya	-9.65854
▁mwuga	-9.65888
▁zigera	-9.65908
▁mupira	-9.65911
▁ngendo	-9.65931
▁soko	-9.66008
▁bafata	-9.66105
▁kumu	-9.66126
▁group	-9.6625
▁kindi	-9.66252
▁kwemera	-9.66253
▁asobanura	-9.66287
▁yakozwe	-9.66307
▁bigamije	-9.66319
▁turimo	-9.66335
▁corneil	-9.66577
▁umurimo	-9.66583
▁ikoreshwa	-9.66674
▁kugenzura	-9.66708
pasiteri	-9.66709
uburengerazuba	-9.66716
▁uvuga	-9.66716
▁im	-9.66717
▁ronaldo	-9.66795
▁mugambwe	-9.66863
bwa	-9.66896
▁ihiganwa	-9.66952
▁nyubako	-9.66989
▁gusanga	-9.6712
▁bari	-9.67123
▁ubutabera	-9.67136
▁bambaye	-9.6714
▁ibitaro	-9.67205
▁basabye	-9.67223
▁bakozi	-9.67245
▁imibiri	-9.67371
▁heza	-9.67517
▁bahuye	-9.67562
▁ubukene	-9.67623
▁un	-9.67656
bafasha	-9.6771
▁ryita	-9.67727
w	-9.6778
▁wumva	-9.67816
garagaje	-9.67833
ababyeyi	-9.67855
umwanya	-9.67859
andikiye	-9.67882
▁bigenda	-9.67891
▁mama	-9.67898
son	-9.6792
▁bwakozwe	-9.67926
abahungu	-9.6793
itegeko	-9.68067
▁ubukerarugendo	-9.68184
▁gushyigikira	-9.68201
abadepite	-9.68268
▁fashion	-9.68276
▁mini	-9.68307
▁kubikora	-9.68375
▁binyuranye	-9.6843
▁bibaye	-9.68483
▁zisaga	-9.68531
▁inzara	-9.68562
▁polly	-9.68703
▁bashya	-9.68729
abaganga	-9.68741
▁gutoza	-9.68754
▁bimenyetso	-9.6878
▁albert	-9.68798
ibasiye	-9.68823
▁micomyiza	-9.68916
▁gukoreshwa	-9.68942
▁kuzamuka	-9.68952
kiciro	-9.68998
▁au	-9.69001
▁bigira	-9.69003
▁bokota	-9.69141
amasegonda	-9.69165
▁gusohoka	-9.69168
ca	-9.69227
uwahoze	-9.69327
umukunzi	-9.69374
▁numero	-9.69406
▁kwagura	-9.69424
ashyizeho	-9.69431
▁ubwicanyi	-9.69528
▁igitsindo	-9.69609
▁gusohora	-9.6961
▁yabivuze	-9.69663
▁ubushake	-9.69733
meze	-9.69816
itorero	-9.69818
ingaruka	-9.69825
▁nanone	-9.69835
▁ishoramari	-9.69886
▁nacyo	-9.69902
mukinnyi	-9.69902
▁zimaze	-9.69926
ikomeza	-9.69951
▁yatsinzwe	-9.69951
▁nyamagabe	-9.70063
▁zina	-9.70098
▁kwitegura	-9.70158
▁bizatuma	-9.70163
▁ibanga	-9.70262
▁liverpool	-9.70275
▁bitanga	-9.70277
▁yibukij	-9.70303
▁ga	-9.70313
ijyanye	-9.70323
ibishoboka	-9.70542
▁umumenyereza	-9.70614
▁bakomeza	-9.70615
▁kohereza	-9.70647
ramutse	-9.70729
▁bihumbi	-9.7076
▁yatumye	-9.7076
▁wabereye	-9.70779
▁muturage	-9.70789
▁kwitez	-9.70792
▁maroc	-9.70803
▁atangira	-9.70921
shimira	-9.70924
▁naeb	-9.70941
myiteguro	-9.70945
isuku	-9.70976
▁bifasha	-9.71045
▁umwami	-9.71088
akoze	-9.71155
▁macadamia	-9.71166
▁niyonshuti	-9.71167
uwa	-9.7117
▁mwashakanye	-9.71193
▁ibyago	-9.71226
▁charles	-9.71228
▁bishoboka	-9.71328
▁cyabereye	-9.7153
ura	-9.71614
▁kuya	-9.71741
▁kubwira	-9.71833
▁vincent	-9.71854
▁bira	-9.71879
▁uta	-9.71931
▁nke	-9.71982
ico	-9.71989
▁boyz	-9.72083
▁nyamata	-9.72085
icyayi	-9.72149
gura	-9.72157
korwa	-9.72161
▁byagiye	-9.72196
byumba	-9.72256
▁ururimi	-9.7226
▁uwimanimpaye	-9.7231
inyungu	-9.72372
▁enye	-9.72393
urwo	-9.72397
▁antoine	-9.72555
amadorali	-9.72579
▁yakatiwe	-9.72597
ariko	-9.72604
▁cg	-9.72686
ifashishije	-9.7272
▁nyungu	-9.72754
▁gushora	-9.72827
▁ban	-9.72983
▁ngabo	-9.72989
▁ur	-9.73016
▁ishinzwe	-9.73069
▁gukinira	-9.73109
▁banduye	-9.7312
▁tigo	-9.73121
abajijwe	-9.73165
▁ut	-9.73309
▁kirere	-9.73436
icaha	-9.73491
▁to	-9.73563
▁akagari	-9.73568
▁umukinyi	-9.73569
inkino	-9.7363
▁rukora	-9.73699
▁champions	-9.73705
▁biyemeje	-9.73732
▁nteko	-9.73767
▁anne	-9.73804
shumba	-9.73872
▁Ni	-9.73874
cyuho	-9.73901
▁butegetsi	-9.73956
▁atuye	-9.73994
abakinyi	-9.7403
▁lt	-9.74032
▁muti	-9.74133
▁rutahizamu	-9.74214
▁kwitaba	-9.74227
▁bakaza	-9.74313
ataye	-9.74339
ishimiye	-9.74356
tsi	-9.74373
▁gusoza	-9.74436
▁ambasade	-9.74437
▁duke	-9.7452
igifungo	-9.7454
▁eac	-9.74581
▁yateguwe	-9.74591
▁kubyara	-9.74591
ari	-9.74633
▁cyacu	-9.7466
iburengerazuba	-9.74776
▁padiri	-9.74877
koresha	-9.74977
umudugudu	-9.75053
▁cha	-9.7507
▁today	-9.75207
▁igitekerezo	-9.75212
▁bahora	-9.75273
▁abahungu	-9.7533
▁akajya	-9.75352
▁babaga	-9.75384
irwa	-9.75464
1	-9.75539
▁kigalitodaycom	-9.7559
▁madamu	-9.75602
▁ziza	-9.75632
▁ingwara	-9.75714
▁man	-9.75757
ahisemo	-9.75835
▁N	-9.75885
▁rura	-9.75896
▁ntago	-9.75901
ngana	-9.75924
nsanganyamatsiko	-9.75959
ranye	-9.75987
▁izabera	-9.75994
▁tur	-9.76017
▁igihombo	-9.76077
▁gusoma	-9.76175
▁ubufasha	-9.76326
▁algeria	-9.76355
itangazamakuru	-9.76437
▁mbese	-9.76445
▁sudani	-9.76445
▁fbu	-9.76495
ikirere	-9.76495
urukiko	-9.76512
▁yatewe	-9.7658
▁ikamba	-9.76599
▁week	-9.76615
▁airtel	-9.76636
▁azwi	-9.76636
▁imbuga	-9.76657
▁robert	-9.76686
▁ira	-9.76695
▁intebe	-9.76702
▁ntawe	-9.76708
▁bashakanye	-9.76739
▁knowless	-9.76819
2	-9.76877
▁watsinze	-9.76905
▁mba	-9.76972
imibereho	-9.76975
▁bisa	-9.76988
▁francis	-9.76998
▁studio	-9.77083
▁gitsina	-9.77245
▁atwara	-9.77272
▁paruwasi	-9.77321
ahakanye	-9.77442
▁yaraye	-9.77541
neza	-9.77593
▁rusangi	-9.77596
▁yabaga	-9.7764
▁uno	-9.77676
imirire	-9.77703
▁mishinga	-9.77773
▁ifasha	-9.77859
mpande	-9.77891
▁kanseri	-9.77902
▁kwifatany	-9.77949
kezi	-9.7795
▁asaga	-9.7797
ngengabitekerezo	-9.77999
inzu	-9.78026
▁hakizimana	-9.78082
▁michel	-9.78105
bashe	-9.78119
en	-9.78177
▁ikiza	-9.78195
ibireti	-9.78215
▁louis	-9.78247
ikawa	-9.7846
▁bitaramo	-9.78525
▁kuyi	-9.78529
▁ugereranije	-9.78582
▁kose	-9.78705
▁mugambi	-9.78775
mwiza	-9.78803
on	-9.78817
▁yashyizwe	-9.78972
▁grace	-9.7899
▁imigabane	-9.79018
▁fund	-9.79044
▁ujya	-9.79164
▁senegal	-9.79292
▁habyarimana	-9.79468
▁loni	-9.79472
▁yishwe	-9.79494
▁ugira	-9.79545
▁bigoye	-9.79547
▁byagenze	-9.79589
▁akina	-9.79628
▁imisi	-9.79634
or	-9.79638
gwa	-9.79721
▁ngamba	-9.79797
▁ukwiye	-9.79797
▁yemera	-9.79898
iy	-9.79972
▁yinjiye	-9.80179
▁karisimbi	-9.8021
▁ishema	-9.80237
▁amabuye	-9.80324
▁kivuga	-9.8037
▁bahuriye	-9.80391
giye	-9.80408
bipimo	-9.80443
▁alain	-9.80463
▁haje	-9.80742
zitabira	-9.80784
▁tv	-9.80833
▁ubwoko	-9.80877
▁babi	-9.81098
▁bishwe	-9.81135
▁global	-9.81264
▁abaturanyi	-9.81283
▁ubwiza	-9.8135
▁igenda	-9.81458
▁itanga	-9.81512
▁kama	-9.81517
▁ubujura	-9.81517
▁dieu	-9.81678
▁francois	-9.81731
▁alexis	-9.81737
▁yerekeza	-9.81772
▁bukene	-9.81831
▁umuganda	-9.8187
abanyamahanga	-9.81886
us	-9.81944
muyoboke	-9.8197
▁guteka	-9.81976
▁ibiribwa	-9.81995
▁guhora	-9.82017
▁ryitwa	-9.82047
▁yagarutse	-9.82056
▁kumara	-9.82112
▁rugagi	-9.82228
▁tubona	-9.82231
ashyizweho	-9.82273
▁gasana	-9.82312
▁metero	-9.82373
iganjemo	-9.82417
▁can	-9.82473
▁mazu	-9.82482
▁ababa	-9.8251
▁biturutse	-9.82514
▁kubi	-9.8254
▁kuvugurura	-9.8258
▁yavutse	-9.82674
afashe	-9.82706
▁yagombaga	-9.82712
▁rubanda	-9.8274
▁yakiriye	-9.8278
imideli	-9.82829
▁pe	-9.82878
▁amavuta	-9.82967
▁maboko	-9.83019
▁trump	-9.83063
hazabu	-9.83077
▁aheruka	-9.8309
▁hato	-9.83092
▁zivuga	-9.83118
▁ahora	-9.83132
▁utari	-9.83132
▁kar	-9.83153
▁kuki	-9.83224
▁abahanga	-9.83231
▁tangazo	-9.83252
▁ikaza	-9.83334
▁chan	-9.83348
tsinze	-9.83366
▁ukorera	-9.83428
idini	-9.83428
▁ikimenyetso	-9.83434
▁kugirang	-9.83453
▁ayobora	-9.83587
▁tukaba	-9.83625
▁two	-9.83634
▁angola	-9.8364
▁iz	-9.8364
▁batewe	-9.83657
▁nkunga	-9.83701
umukinnyi	-9.83708
umusore	-9.83799
▁nyamukuru	-9.8381
▁aricyo	-9.83828
▁kagali	-9.84058
▁yabisobanuye	-9.84071
▁kwinjiza	-9.8416
▁gishobora	-9.84188
▁kigiye	-9.84237
▁ruza	-9.84286
▁gitabo	-9.84288
▁bidasanzwe	-9.84289
▁ihuriro	-9.84292
▁yamu	-9.84309
bukungu	-9.8449
▁umwihariko	-9.84529
▁riderman	-9.84539
▁isaba	-9.84544
▁fifa	-9.84587
▁idasanzwe	-9.8461
uburasirazuba	-9.84673
▁ibijanye	-9.84739
yanditswe	-9.84757
▁ingoma	-9.84831
▁ishyamba	-9.84987
▁amakimbirane	-9.85073
atanzwe	-9.85152
ronka	-9.85229
▁kugwa	-9.85233
ikindi	-9.85298
▁abatoza	-9.85321
▁kabaya	-9.85348
ibinyobwa	-9.85501
▁sylidio	-9.85581
▁hakoreshejwe	-9.85595
▁hagiye	-9.85609
ubumwe	-9.85631
▁inyigisho	-9.85726
▁urumogi	-9.8585
▁majyaruguru	-9.85855
▁yavuga	-9.85865
▁batandatu	-9.85866
▁kubijanye	-9.85883
▁amashirahamwe	-9.85886
▁kwamamaza	-9.85921
▁david	-9.8593
yeho	-9.85952
▁wundi	-9.8598
▁gushishikariz	-9.85998
▁tuzi	-9.86085
▁nyabugogo	-9.86108
▁team	-9.8612
▁mibereho	-9.86125
▁guhagarara	-9.86132
▁ferwaba	-9.86165
▁magana	-9.86207
▁habonetse	-9.86213
▁imipaka	-9.86321
▁iterwa	-9.8638
▁rikomeye	-9.86394
▁buvuzi	-9.86395
bahagarariye	-9.86757
▁bya	-9.86823
▁ashinjwa	-9.86826
abapolisi	-9.86885
▁sebuharara	-9.86904
▁leonard	-9.86942
▁yizeye	-9.86977
▁kubw	-9.87055
▁dj	-9.87065
▁cose	-9.87092
▁matsinda	-9.87164
nzi	-9.87203
▁kwerekeza	-9.87214
▁abe	-9.87223
▁isura	-9.87235
▁bakuze	-9.87236
▁ikigega	-9.87239
▁shingiro	-9.87327
ab	-9.87352
imyanya	-9.87354
▁gisata	-9.87495
▁nganda	-9.87518
osora	-9.87703
▁foundation	-9.87716
▁guhimbaza	-9.87767
nywe	-9.87864
▁gukaraba	-9.87918
▁ghana	-9.8793
ubumenyi	-9.8795
▁darfur	-9.87975
▁musozi	-9.87989
mirenge	-9.88016
▁ana	-9.88078
▁bitanu	-9.88108
ubufatanye	-9.88162
▁avugako	-9.88209
▁menya	-9.88213
▁air	-9.88224
▁intoki	-9.88231
▁chelsea	-9.88262
fashwe	-9.88281
izina	-9.88512
abasirikare	-9.88515
▁ibikombe	-9.88532
▁mucyo	-9.88554
▁kumenyekanish	-9.88565
saba	-9.88628
▁igitsina	-9.88639
▁ibyumweru	-9.88646
intwaro	-9.88778
▁young	-9.88857
bandanya	-9.88869
▁baca	-9.88928
▁mugisha	-9.88945
▁inyama	-9.8896
▁ubuhahirane	-9.88978
▁icyi	-9.89003
▁amagare	-9.89027
imyenda	-9.89048
iza	-9.89083
▁kamonyi	-9.89154
▁bibaza	-9.89166
▁ihagaze	-9.89237
▁mitwe	-9.89238
▁bine	-9.89287
imihango	-9.8933
▁budage	-9.89332
▁yavugaga	-9.89416
▁ntego	-9.89439
▁sur	-9.89481
▁noel	-9.89507
▁kato	-9.89536
ashakaga	-9.89636
▁iteka	-9.89638
▁bafana	-9.89667
ment	-9.89798
▁basigaye	-9.8985
▁buke	-9.89857
▁barasaba	-9.89886
▁cip	-9.89977
▁basore	-9.89986
vugabutumwa	-9.89991
▁bise	-9.90096
▁ruheshi	-9.90152
▁bushikiranganji	-9.90153
▁he	-9.90242
▁badafite	-9.90397
▁umugera	-9.90555
▁hasigaye	-9.9057
▁bizwi	-9.90586
▁prof	-9.90621
▁kompanyi	-9.90731
▁akayezu	-9.90735
▁ay	-9.90758
▁yesu	-9.90783
gusa	-9.90786
▁byayo	-9.90808
▁ikawa	-9.90837
▁byabereye	-9.90854
▁kuruyu	-9.90871
▁izwi	-9.90933
gihingwa	-9.91002
▁ugeze	-9.91079
bera	-9.91136
▁kitoko	-9.91263
byiciro	-9.91276
▁yiyemeje	-9.91279
amajyambere	-9.91302
▁ijwi	-9.91346
▁njyewe	-9.91383
ibura	-9.91484
▁amaboko	-9.91498
▁ah	-9.91559
▁aririmba	-9.91653
▁bangana	-9.9166
umunya	-9.91662
▁usa	-9.91689
▁basabwe	-9.91706
▁mi	-9.91709
▁barasabw	-9.91747
▁yemeye	-9.91769
▁ingo	-9.91771
▁byaje	-9.91781
▁yiteguye	-9.91799
▁virus	-9.91875
abatutsi	-9.919
▁mashya	-9.91922
itabye	-9.91969
la	-9.92
▁izuba	-9.92155
ntangiriro	-9.92155
▁gucunga	-9.92214
▁gushyirwa	-9.92272
akagari	-9.92276
▁dukora	-9.92283
▁akoresha	-9.92293
▁ingana	-9.92309
▁cyaha	-9.92321
▁ibigori	-9.92395
fite	-9.9247
mungu	-9.92486
▁ifumbire	-9.92523
▁wasanga	-9.92564
▁ibyemezo	-9.92617
▁naason	-9.92659
▁kanini	-9.92682
▁hantu	-9.92741
ashinze	-9.92742
▁kurondera	-9.92777
▁seren	-9.92845
▁barcelona	-9.92917
▁buntu	-9.92957
▁djamali	-9.92958
▁yishimiye	-9.92977
▁urban	-9.93002
▁kigega	-9.9303
impunzi	-9.93035
▁basa	-9.9306
hura	-9.93087
▁kutagira	-9.93107
▁ngaruka	-9.93107
▁uriya	-9.9312
▁babanje	-9.93122
▁cnddfdd	-9.93271
bitabiriye	-9.93289
▁gat	-9.93332
▁zituma	-9.93408
▁uri	-9.93445
batuye	-9.93446
▁bigomba	-9.93465
▁iherereye	-9.93495
uburwayi	-9.93496
▁runini	-9.93541
▁awards	-9.93596
es	-9.9368
ihungabana	-9.93763
▁kanimba	-9.93795
abatwara	-9.93828
abagize	-9.93848
▁umuhinzi	-9.93868
▁bitarenze	-9.93892
▁kwitabwaho	-9.93943
▁but	-9.94021
afashije	-9.94067
iteganijwe	-9.9407
▁rusengero	-9.94081
▁ibihano	-9.94111
ahuye	-9.94134
▁nicyo	-9.94233
▁eka	-9.94339
▁platnumz	-9.94366
▁bk	-9.94445
▁ikizere	-9.94454
▁guhatanir	-9.94469
▁yashize	-9.94481
▁kitari	-9.94539
▁bahinga	-9.94564
▁yasohoye	-9.9458
▁ewsa	-9.94653
imisozi	-9.94658
▁reka	-9.94682
aha	-9.947
▁baturuka	-9.94709
▁gatolika	-9.94753
▁bashoboye	-9.94781
▁igifungo	-9.94808
▁ngiye	-9.94835
▁cecafa	-9.94862
▁irenga	-9.94881
rijwe	-9.94901
▁ntiy	-9.94944
tombora	-9.94945
ayange	-9.94982
▁amashami	-9.94992
▁ririmo	-9.95018
▁bahoze	-9.95023
miriyoni	-9.95076
ashimira	-9.95088
▁amb	-9.95107
gana	-9.95213
nywa	-9.95228
▁filimi	-9.95247
▁kubaha	-9.95257
keneye	-9.95455
binyamakuru	-9.95539
▁nyungwe	-9.95556
amarundi	-9.95682
▁gukorerwa	-9.95747
▁umusoro	-9.95773
▁kuwu	-9.95817
urukino	-9.95818
▁uka	-9.95829
▁bahura	-9.95943
▁batera	-9.95963
▁justin	-9.95977
▁abanyeshure	-9.96037
▁imi	-9.96068
▁ukina	-9.96092
▁umupaka	-9.96121
▁rutsiro	-9.96121
▁kawa	-9.96163
▁yasanze	-9.9625
ajyanye	-9.96315
▁ingagi	-9.96341
▁ig	-9.96348
▁mashusho	-9.9642
▁umuhoza	-9.96425
▁akaza	-9.9643
▁iriho	-9.9646
wamo	-9.96502
▁ib	-9.96512
▁uburaya	-9.96525
▁yves	-9.96557
▁hateganyijwe	-9.96568
umunyarwanda	-9.96578
▁impunzi	-9.96609
▁abanywanyi	-9.96617
▁kuvugana	-9.96645
hari	-9.96686
▁imyambaro	-9.96864
urupfu	-9.96966
▁mwinshi	-9.9699
atowe	-9.96997
▁bigogwe	-9.97011
▁fao	-9.97098
▁baba	-9.97138
▁utu	-9.97155
ebyiri	-9.97177
agize	-9.97212
▁bushobor	-9.97267
▁1	-9.97267
▁nzeli	-9.9728
▁abamaze	-9.97293
eretse	-9.9738
▁buba	-9.97407
▁ibisubizo	-9.97409
ifatwa	-9.9754
ateguwe	-9.97586
▁kurenger	-9.97603
▁gusuzuma	-9.97633
iby	-9.97645
▁hassan	-9.97669
▁sin	-9.9767
▁ndende	-9.97673
abasore	-9.9771
uku	-9.97725
▁munya	-9.97761
▁cyabaye	-9.9777
umuhanzikazi	-9.97776
▁yabanje	-9.97779
▁zafashwe	-9.97841
▁gushize	-9.97875
▁banga	-9.97935
▁kigaragara	-9.97951
▁espagne	-9.97959
▁gushira	-9.97983
▁munyakazi	-9.98039
bihingwa	-9.98049
▁bukomeye	-9.98059
▁banjye	-9.9806
▁indwi	-9.98137
▁nyiri	-9.9814
▁icyakor	-9.98212
▁imboga	-9.98267
▁akayabo	-9.98284
▁uprona	-9.98292
▁ibya	-9.98314
▁sena	-9.98323
▁amata	-9.9838
▁kayumb	-9.98398
▁umugisha	-9.98451
▁skol	-9.98466
▁bishya	-9.98561
▁mihigo	-9.98616
▁ihungabana	-9.98634
▁ukinira	-9.98652
umuhungu	-9.9869
mba	-9.98704
▁mafoto	-9.98768
▁yaronse	-9.98773
kazajya	-9.98785
▁gucika	-9.98822
dafite	-9.99015
nette	-9.99019
giciro	-9.99039
▁mazutu	-9.99068
▁gupima	-9.99121
▁bituruka	-9.99129
▁umudugudu	-9.99192
kiyaga	-9.99217
mitali	-9.99382
▁bivuga	-9.99436
▁bakavuga	-9.99478
▁abakuru	-9.99502
uza	-9.99542
▁igisubizo	-9.99555
▁habayeho	-9.99569
▁ibona	-9.99613
▁gutekereza	-9.99656
▁inyamaswa	-9.99668
▁yateye	-9.99672
▁josiane	-9.99673
▁batishoboye	-9.99738
▁itangaza	-9.99775
▁yatanzwe	-9.99865
▁kirimo	-9.9987
▁big	-9.99895
▁ernest	-9.999
▁shyaka	-9.99922
▁ubukanguramba	-9.99969
▁twagiranye	-10
▁company	-10.0028
▁adrien	-10.0029
▁musaza	-10.0034
▁zisanzwe	-10.0038
▁mali	-10.0039
ibyaha	-10.0041
▁biwe	-10.0042
▁hategeka	-10.005
▁zikora	-10.0053
utu	-10.0054
ayoboye	-10.0056
▁malaria	-10.0059
▁guharanir	-10.006
▁mashure	-10.0068
▁ujejwe	-10.0068
yobozi	-10.0072
ateguye	-10.0076
agenga	-10.0076
▁hi	-10.0079
▁yiwe	-10.0085
▁basirikare	-10.0094
▁nawe	-10.0095
▁faustin	-10.0096
▁zitari	-10.0103
▁beza	-10.0106
▁east	-10.0107
mibonano	-10.0121
ibitaro	-10.0128
▁umunyeshuri	-10.0131
▁goma	-10.0136
▁umwanditsi	-10.0142
▁guhinduka	-10.0158
mipira	-10.0162
abanya	-10.0163
▁ryabo	-10.017
▁abatu	-10.0176
▁ruhand	-10.0178
▁ariwo	-10.0183
▁kwiyubaka	-10.0184
▁asigaye	-10.0185
abafasha	-10.0188
▁dans	-10.0195
▁babana	-10.0204
▁yako	-10.0206
▁bikaza	-10.0209
ibiganiro	-10.0217
tangarije	-10.0218
ubwoko	-10.0221
▁yanga	-10.0222
▁bundi	-10.0235
▁gakwaya	-10.0252
▁uhereye	-10.0259
▁ifata	-10.0263
umuriro	-10.0267
inzoga	-10.0273
musenyeri	-10.0278
▁banyeshuri	-10.0278
um	-10.0287
▁hagaragaye	-10.0289
depite	-10.0298
▁thoneste	-10.0305
▁service	-10.0308
umwami	-10.0309
▁urwaruka	-10.0313
itabirwa	-10.0314
▁muribo	-10.0316
▁bwayo	-10.0317
▁bike	-10.0332
haranira	-10.0335
▁fabien	-10.0337
▁kigarama	-10.0338
retse	-10.0339
▁uherutse	-10.0341
▁abitangaza	-10.0341
▁sa	-10.0341
inyuma	-10.0354
▁leo	-10.0355
▁umurongo	-10.0356
▁mbwa	-10.0357
▁ibitero	-10.0366
▁ictr	-10.0369
▁ahamya	-10.0372
▁siko	-10.0383
▁niyomugabo	-10.0383
▁apple	-10.04
▁mpanuka	-10.04
▁frank	-10.0401
shishikariza	-10.0403
▁bakareba	-10.041
▁ange	-10.0416
abagenzi	-10.0416
▁kayanza	-10.0416
▁imiterere	-10.0417
▁babash	-10.0428
▁kizito	-10.0432
erekanye	-10.0446
hungabanya	-10.0447
▁kurenga	-10.045
▁ntiba	-10.0453
▁umuganga	-10.0454
▁bit	-10.0456
▁bwawe	-10.0463
janye	-10.0463
▁abi	-10.0463
▁pggss	-10.0464
ubwicanyi	-10.0472
▁imitungo	-10.0477
itavye	-10.0477
▁yabyo	-10.0486
ibikomoka	-10.0491
▁ruba	-10.0491
▁abanyamahanga	-10.0494
▁mara	-10.0494
▁danny	-10.0496
▁ikiro	-10.0497
▁intambara	-10.0502
▁buyobozi	-10.0504
isukari	-10.0506
nimana	-10.0509
▁tumwe	-10.0511
▁wamenyekanye	-10.0522
▁abaziz	-10.0523
▁kugeraho	-10.0523
▁promoter	-10.0527
▁abarimu	-10.0529
▁peter	-10.0529
ivoire	-10.0531
▁rizaba	-10.0533
umuganda	-10.0533
▁rukuru	-10.0533
▁meya	-10.0538
▁babone	-10.0541
▁bukeye	-10.055
▁ada	-10.055
ifuje	-10.0557
▁ntoya	-10.0559
▁ndwi	-10.0561
▁mwomenya	-10.0564
akunzwe	-10.0564
▁igabanuka	-10.0565
▁mukundana	-10.0572
nyororo	-10.0573
▁kurangira	-10.0573
an	-10.0583
▁yatangije	-10.059
▁abakoresha	-10.059
▁war	-10.0594
▁manota	-10.0595
▁bakabona	-10.06
▁yihariye	-10.0611
abakunzi	-10.0611
▁yagaragaye	-10.0621
▁onu	-10.0627
▁hariya	-10.0628
▁akabariro	-10.063
ibanki	-10.0631
iro	-10.0632
▁rumonge	-10.0641
▁party	-10.0647
▁amajyambere	-10.0651
f	-10.0651
▁bik	-10.0654
▁etienne	-10.0657
reka	-10.0657
▁agahita	-10.066
▁bagizwe	-10.0666
hawe	-10.0679
▁yashimye	-10.068
muri	-10.0681
▁abarenga	-10.0682
▁kwenye	-10.0683
intambara	-10.0684
▁bika	-10.0688
▁ntwarante	-10.0688
▁misozi	-10.0688
iz	-10.069
▁yatawe	-10.0702
▁yagizwe	-10.0702
▁flambeau	-10.0703
▁une	-10.0705
▁abaza	-10.0717
▁kubanza	-10.0717
▁bibiliya	-10.0723
▁el	-10.0725
▁visi	-10.0728
▁rundi	-10.073
▁ikosa	-10.0734
▁cyitwa	-10.0741
▁gs	-10.0751
▁fondation	-10.0753
▁murumuna	-10.0757
▁dutandukanye	-10.0757
▁uwase	-10.0757
▁cyatangiye	-10.0759
itwaje	-10.076
▁nyandiko	-10.0764
ikirenga	-10.0768
▁kie	-10.0768
itumanaho	-10.0775
▁yakoresheje	-10.0777
uwitwa	-10.0779
▁atangwa	-10.0782
▁biriya	-10.0787
▁narwo	-10.0789
▁katika	-10.0789
gurisha	-10.0791
▁maurice	-10.0792
▁byatewe	-10.0795
▁bushobozi	-10.08
enda	-10.0806
kunzwe	-10.0811
amahirwe	-10.0811
que	-10.0811
▁irindi	-10.0815
byo	-10.082
▁kuramya	-10.0823
▁umushahara	-10.0826
ibidukikije	-10.0837
▁ngaho	-10.0838
▁inkomoko	-10.0839
abatarengeje	-10.0851
▁mijyi	-10.0853
▁buhagije	-10.0853
amata	-10.0855
▁kinyarwanda	-10.0857
▁football	-10.0863
▁maguru	-10.0864
▁aravuga	-10.0865
▁ugu	-10.0865
▁yandi	-10.0871
▁sinzi	-10.0874
amashusho	-10.0887
▁ngiro	-10.0888
▁ingorane	-10.0889
ubwongereza	-10.089
▁mubyeyi	-10.0892
▁kujyana	-10.0893
▁inzoka	-10.09
▁ifaranga	-10.0902
▁shirahamwe	-10.0907
utundi	-10.0907
▁rutayisire	-10.0919
▁is	-10.092
▁mihanda	-10.0921
▁gatete	-10.0922
▁namba	-10.0924
▁gufunga	-10.0926
▁kizabera	-10.0927
▁abatari	-10.0931
ion	-10.0932
nditsimuhaburarw	-10.0934
mukunda	-10.0938
▁snappy	-10.0945
▁kwegera	-10.0952
▁henshi	-10.0952
uzi	-10.0953
▁urwibutso	-10.0954
▁hashobora	-10.0959
▁kaga	-10.0962
▁nserukiragihugu	-10.0962
mashini	-10.0962
▁hafashwe	-10.0963
▁sana	-10.0965
▁abashinzwe	-10.0973
▁rutanga	-10.0974
▁uburezi	-10.0974
▁jeunes	-10.0974
▁torero	-10.0984
▁rurimi	-10.0989
▁bamu	-10.0993
bo	-10.0998
▁bwonko	-10.1001
▁bahatanira	-10.1003
umva	-10.1004
▁ahagan	-10.1004
▁ibaruw	-10.1008
▁kwibaza	-10.1009
bishimiye	-10.1012
▁kureka	-10.1013
▁live	-10.1022
▁zambia	-10.1022
▁kwizihiz	-10.1022
▁umuvuduko	-10.1025
gire	-10.1026
▁ntambara	-10.1026
irangiza	-10.1027
▁sifa	-10.1027
▁babyeyi	-10.1033
▁asa	-10.1043
▁bamenye	-10.1047
▁biyobyabwenge	-10.1053
▁irondo	-10.1055
▁yakinnye	-10.1056
▁rugero	-10.1056
iswe	-10.1061
rira	-10.1066
amagare	-10.107
▁wi	-10.107
amajwi	-10.1072
mikorere	-10.1076
▁bugufi	-10.1076
girira	-10.108
▁yateguye	-10.1081
▁itandatu	-10.1082
▁gituma	-10.1092
▁ryayo	-10.1095
▁nimero	-10.1098
▁bitoroshye	-10.11
▁myugariro	-10.1102
eho	-10.1111
▁bikorerwa	-10.1111
▁bafitanye	-10.1113
abaturanyi	-10.1115
agarutse	-10.1118
▁victoire	-10.1123
▁ntahangwa	-10.1125
▁col	-10.1128
▁nto	-10.113
▁bikunze	-10.1131
▁nahimana	-10.1141
zahabwa	-10.1143
▁ikwiye	-10.1146
▁igitero	-10.1147
▁uz	-10.1148
▁ita	-10.1155
▁email	-10.1157
▁twaganiriye	-10.1159
shimishije	-10.116
igare	-10.1168
▁ag	-10.1169
▁wagize	-10.1174
▁kugwanya	-10.1176
▁byar	-10.1184
▁urimo	-10.1187
erekana	-10.1187
▁rihanna	-10.1195
▁tumaze	-10.1196
▁ukiri	-10.1199
▁kim	-10.12
▁keza	-10.1202
▁intwari	-10.1208
▁ibiza	-10.1212
▁ashize	-10.1215
ubwiyunge	-10.1223
▁ishaka	-10.1225
▁gusenya	-10.1227
atanze	-10.123
▁ituma	-10.1232
amaraso	-10.1234
▁imico	-10.1242
▁wiga	-10.1242
▁urunani	-10.1245
▁yabuze	-10.1256
nira	-10.1258
▁fpr	-10.1258
▁ikiri	-10.1259
▁yarangije	-10.1259
umutwe	-10.1259
▁kuronka	-10.1266
▁nyakubahwa	-10.1266
▁zinyuranye	-10.1268
twaye	-10.1272
▁ikarita	-10.1275
▁amoko	-10.1276
▁abakunda	-10.1277
▁abaririmbyi	-10.1283
ijwe	-10.1293
▁mugitondo	-10.1295
▁nyaruguru	-10.1296
bert	-10.1297
▁zawe	-10.1298
▁udushya	-10.1308
▁miti	-10.1308
mashami	-10.1311
kwirakwizwa	-10.1324
▁mwiherero	-10.1326
▁kuzaba	-10.133
▁alubumu	-10.1331
▁music	-10.1337
▁iwawa	-10.1337
igiye	-10.1339
mera	-10.134
sabukuru	-10.1341
tegura	-10.1343
ubwikorezi	-10.1358
▁batazi	-10.1361
▁mwiseneza	-10.1361
▁ntagwabira	-10.1362
▁akanama	-10.1367
▁abonye	-10.1373
▁mashirahamwe	-10.1376
▁amatungo	-10.1376
▁yakoreye	-10.1389
▁ishimwe	-10.1393
umusaruro	-10.1395
▁ikwirakwir	-10.1396
▁abakiliya	-10.1396
▁porogaram	-10.1396
▁yahisemo	-10.1398
▁uti	-10.1401
▁abasha	-10.1402
weho	-10.1403
▁hegitari	-10.1406
rigenga	-10.1409
itsinze	-10.1411
▁muny	-10.1411
▁ali	-10.1414
none	-10.1427
gize	-10.1429
▁akurikiranyweho	-10.143
psf	-10.1436
reba	-10.1436
▁mana	-10.1436
▁gihembwe	-10.1438
▁neymar	-10.144
ubusa	-10.1441
▁ijya	-10.1455
avuga	-10.1456
▁alex	-10.1457
zafasha	-10.1458
akeneye	-10.1458
injije	-10.1462
▁kimironko	-10.1466
uruganda	-10.1467
▁atazi	-10.1469
mpinduka	-10.1475
▁bakunzwe	-10.1493
▁gukundana	-10.1494
▁family	-10.1501
▁claire	-10.1502
▁zibiri	-10.1504
▁kurangura	-10.1506
▁ihagije	-10.1507
▁do	-10.1509
▁akana	-10.1512
▁abasaba	-10.1514
▁yibwe	-10.1517
▁nya	-10.1526
▁bategereje	-10.153
▁bizajya	-10.1531
mbe	-10.1535
she	-10.1536
▁niyungeko	-10.1536
▁type	-10.1538
umugwi	-10.1544
▁imurikagurisha	-10.1547
▁misi	-10.1557
▁gukira	-10.1558
abagizi	-10.1573
▁bacuruza	-10.1574
▁ataco	-10.1576
▁michael	-10.1579
▁ukundi	-10.1579
▁jambo	-10.1582
▁bin	-10.1585
▁amakoperative	-10.1588
▁bwacu	-10.1594
▁bikora	-10.1598
▁boba	-10.1601
▁kwitwa	-10.1601
ubujurire	-10.1605
▁esheshatu	-10.1611
▁vyari	-10.1626
▁ibyabaye	-10.1627
▁all	-10.1631
ubukwe	-10.1634
▁taxi	-10.1636
ge	-10.1639
▁abaha	-10.164
▁cyumba	-10.1644
▁bahinzi	-10.1645
▁primusic	-10.1645
▁majyepfo	-10.1646
▁meddy	-10.1647
▁rushinzwe	-10.1657
▁byukusenge	-10.1659
▁abu	-10.1665
▁ayoboye	-10.1673
▁kirehe	-10.1685
abategetsi	-10.1688
▁babaye	-10.1696
ke	-10.1696
▁bakekwaho	-10.1697
▁mugi	-10.1697
▁atigeze	-10.1701
▁murwa	-10.1706
uw	-10.1707
maze	-10.1719
▁mabwiriza	-10.172
▁jado	-10.172
▁kuruno	-10.172
▁kwigira	-10.1724
▁han	-10.1725
▁azam	-10.1726
geza	-10.1726
teganywa	-10.1729
▁cristian	-10.1741
▁imicung	-10.1749
▁damascene	-10.1751
▁one	-10.1754
ikunze	-10.1761
▁ziterwa	-10.1763
ubushakashatsi	-10.1764
umugenzi	-10.1764
▁ihene	-10.1771
▁imikorani	-10.1771
▁bigirimana	-10.1778
teye	-10.1792
▁cameroun	-10.1794
ibuye	-10.1795
ubwishingizi	-10.1795
ibiyobyabwenge	-10.1795
▁namwe	-10.18
in	-10.1802
▁beyonce	-10.1803
▁yishe	-10.1805
▁murima	-10.1812
serukira	-10.1813
▁yuzuye	-10.1814
▁van	-10.1816
akwiriye	-10.1819
▁agnes	-10.1824
abafite	-10.1827
▁christian	-10.1827
menya	-10.1832
abaririmbyi	-10.1833
▁ikirere	-10.1834
▁yakoraga	-10.1834
▁byoroshye	-10.1836
▁kumenyekana	-10.1836
▁mahirwe	-10.1837
▁gabon	-10.1838
▁akagira	-10.1839
▁nshinga	-10.1845
▁iva	-10.1855
▁gushinga	-10.1859
▁imigambi	-10.1859
▁bigiye	-10.1859
▁hab	-10.186
▁gusobanukirwa	-10.1861
▁rifite	-10.1873
▁isomo	-10.188
tera	-10.1881
line	-10.1886
▁gira	-10.1891
▁kbs	-10.1895
▁baririmba	-10.1896
▁ngurukana	-10.19
▁icyayi	-10.1907
▁haboneka	-10.1907
▁abere	-10.1909
▁uvuye	-10.1915
▁bemerewe	-10.1923
▁gihingwa	-10.1923
▁west	-10.1923
▁araba	-10.1928
▁twinshi	-10.1934
▁aki	-10.1934
fatabuguzi	-10.1935
▁ministeri	-10.1936
▁yanduye	-10.1937
nkindi	-10.1938
▁ugenda	-10.1938
▁hama	-10.1938
▁gitero	-10.1939
▁aregwa	-10.1939
▁rukomeye	-10.1941
afunguye	-10.1944
▁izagenda	-10.1948
▁sc	-10.1956
shinzwe	-10.1957
ibanga	-10.196
▁bab	-10.1962
▁bada	-10.1964
hinduka	-10.1967
▁fabrice	-10.1971
▁manager	-10.1978
geze	-10.1979
▁bihuriye	-10.1983
imisoro	-10.1983
▁etincelles	-10.1985
▁iriya	-10.1993
▁tegeko	-10.2003
garagaza	-10.2004
▁butaliyani	-10.2008
ijambo	-10.2009
afitanye	-10.2013
▁ubwabo	-10.2015
▁bizeye	-10.2016
▁akomeje	-10.2017
▁bukuru	-10.2021
raga	-10.2021
▁bose	-10.2021
▁ijisho	-10.2024
uma	-10.2024
uruza	-10.2024
tigeze	-10.2027
▁zizaba	-10.2027
ibijumba	-10.203
▁kwemeza	-10.2032
▁me	-10.2034
▁makamba	-10.2035
▁akabona	-10.204
▁iruhande	-10.2048
▁bushingiye	-10.2048
▁hussein	-10.2049
yerekanye	-10.2053
▁twavuga	-10.2055
▁gishira	-10.2055
▁interineti	-10.2055
▁nawo	-10.2059
▁kira	-10.206
mugabane	-10.2069
ashimye	-10.207
kira	-10.2071
▁imigambwe	-10.2074
▁jonathan	-10.2082
▁serivise	-10.2082
abasabye	-10.2098
▁bitera	-10.2106
▁ruvuga	-10.2111
▁bisabwa	-10.212
mutekano	-10.2123
mufashije	-10.2124
▁eritrea	-10.2127
▁kuvugwa	-10.2142
▁ihinduka	-10.2145
▁ibishyimbo	-10.2146
icaro	-10.2151
gorofa	-10.2158
▁kamere	-10.2166
▁diane	-10.2167
▁minota	-10.217
▁koral	-10.2171
▁bazwi	-10.2172
abashoramari	-10.2175
imyuga	-10.2178
icyaha	-10.218
▁ingene	-10.2183
▁izamu	-10.2186
amasoko	-10.2186
nzoga	-10.2186
vamo	-10.2193
ki	-10.2193
▁christophe	-10.2194
▁vianne	-10.2195
igipolisi	-10.2196
▁ubwis	-10.22
ratangaza	-10.22
▁imanza	-10.2202
▁biribwa	-10.2204
amakungu	-10.2205
▁mukeba	-10.2207
abazungu	-10.2209
riye	-10.2212
▁kitwa	-10.2216
imiti	-10.222
▁iheruka	-10.2225
▁ihuza	-10.2234
▁george	-10.2234
▁bazakomeza	-10.2235
▁mutabazi	-10.2235
▁ic	-10.2236
▁bica	-10.224
▁editor	-10.2245
▁birenga	-10.2246
▁abwira	-10.2246
huza	-10.2253
▁inyandiko	-10.2255
▁times	-10.2255
kalisa	-10.2258
onyine	-10.2262
▁umwimbu	-10.2263
▁adafite	-10.2264
▁batanze	-10.2265
shyigikiye	-10.2266
▁cyprien	-10.227
▁gipimo	-10.2272
▁girinka	-10.2272
▁isigaye	-10.2273
be	-10.2276
di	-10.2277
▁munyamakuru	-10.2278
▁majwi	-10.2279
▁reg	-10.2283
gerageza	-10.2285
▁ugera	-10.2289
teganya	-10.229
▁uwundi	-10.2291
abagwanyi	-10.2291
▁ntu	-10.2292
▁abaye	-10.2293
▁gukwirakwiz	-10.2306
amazu	-10.2308
▁premier	-10.2309
▁fanta	-10.2314
▁ndimi	-10.2319
▁bukwiye	-10.2323
▁yahoze	-10.2324
▁ruhago	-10.2328
abacuruzi	-10.2332
abanyagihugu	-10.2334
▁twifuza	-10.2335
▁inkweto	-10.2336
ashimangira	-10.2336
umukinyi	-10.2338
▁guhashy	-10.2339
▁ikiringo	-10.234
▁muriyo	-10.2343
shoboye	-10.2344
▁ngendahimana	-10.2347
▁imitwe	-10.2348
▁econet	-10.2348
terwa	-10.2353
▁nt	-10.2353
▁babashije	-10.2356
agombye	-10.2365
▁T	-10.237
aheze	-10.237
▁kwicwa	-10.237
cicaro	-10.2374
▁ububasha	-10.2378
zandurira	-10.2378
▁akan	-10.2381
igenga	-10.2382
▁bivuye	-10.2391
▁brd	-10.2395
▁rukinzo	-10.2399
▁kwihutish	-10.2409
ur	-10.241
▁ibaye	-10.2415
bonye	-10.2416
▁kimenyi	-10.2428
umura	-10.2428
▁kongerer	-10.243
▁yijeje	-10.243
▁gukinga	-10.2432
▁bagakora	-10.2437
▁world	-10.2441
▁intandaro	-10.2447
▁batawe	-10.2447
matsinda	-10.245
ubushobozi	-10.2459
▁brazil	-10.246
▁karindwi	-10.2464
▁zizajya	-10.247
eri	-10.247
▁ihita	-10.2478
korera	-10.2482
ubushinwa	-10.249
▁ibihuha	-10.2492
▁super	-10.2504
▁sibomana	-10.2508
▁akimara	-10.251
▁kunganya	-10.2511
▁udukingirizo	-10.2521
uhabwa	-10.2522
ruhare	-10.2525
▁amahanga	-10.2527
▁agateka	-10.2528
ibyamamare	-10.2529
▁ingeso	-10.253
▁simba	-10.2533
▁google	-10.2534
...	-10.2535
▁tubikesha	-10.2542
▁arusha	-10.2544
▁kugarur	-10.2548
hagararira	-10.255
haye	-10.2557
est	-10.2557
▁butera	-10.256
▁miriyoni	-10.2561
asabye	-10.2567
▁yahuye	-10.2567
kunda	-10.2572
▁bitaba	-10.2573
▁rab	-10.2575
rangiza	-10.2576
▁ishusho	-10.2577
▁bakunz	-10.258
▁nsanzimana	-10.2581
ways	-10.2585
▁mahoro	-10.2594
ayandi	-10.2597
▁gukurikiranwa	-10.2597
▁hakurikij	-10.2599
▁yiswe	-10.2599
▁amatsiko	-10.2607
▁abakenyezi	-10.2608
ugirango	-10.2611
da	-10.2612
▁ubuntu	-10.2612
▁abicanyi	-10.2612
▁ambwira	-10.2615
▁lady	-10.2616
zwe	-10.2619
▁ubuvuzi	-10.262
▁ayandi	-10.2622
▁magingo	-10.2623
ugaragaza	-10.2626
ahariwe	-10.2632
▁bank	-10.2643
amagambo	-10.2648
▁icyunamo	-10.2658
▁aimable	-10.2659
▁dufitanye	-10.2663
▁platini	-10.2663
▁ubuvugizi	-10.2666
▁kurangwa	-10.2668
▁wamamaye	-10.2674
▁zagiye	-10.2676
ure	-10.2682
▁agahinda	-10.2683
▁mabi	-10.269
imiyoborere	-10.2691
ingo	-10.2691
kozwe	-10.2698
ubutumwa	-10.27
▁zit	-10.2701
▁peterol	-10.2704
▁yahora	-10.2707
ose	-10.2708
eza	-10.2712
rwanya	-10.2713
▁aturuka	-10.272
▁tike	-10.2724
▁cyafashwe	-10.2724
ikirundi	-10.2742
zamura	-10.2742
▁sadate	-10.2746
▁ibitangaza	-10.2747
igisagara	-10.2747
▁yunze	-10.2748
▁butari	-10.2751
▁kuruhande	-10.2753
vuze	-10.2754
▁ihabwa	-10.2765
▁ashyira	-10.2766
myitozo	-10.2772
▁akarusho	-10.2775
indwi	-10.2783
▁kumenyesha	-10.2788
▁biganjemo	-10.2792
irinde	-10.2793
▁babasha	-10.2795
▁habiyambere	-10.2796
▁bubi	-10.2803
ihinga	-10.2806
izuba	-10.2806
▁baganiriye	-10.2806
▁pro	-10.2808
▁tatu	-10.2808
▁bah	-10.2811
he	-10.2815
▁munezero	-10.2815
▁bitwaje	-10.2816
ubusanzwe	-10.2818
▁amatike	-10.2825
▁rut	-10.2838
akagera	-10.2844
▁watanze	-10.2845
ajejwe	-10.2845
amakuru	-10.2846
▁nsabimana	-10.2848
▁handball	-10.2859
▁mukakaro	-10.2859
▁yasuye	-10.2859
▁kwimur	-10.2861
amatungo	-10.2861
▁omar	-10.2861
▁bungana	-10.2866
▁arasaba	-10.2868
▁yaboneye	-10.2874
▁uheze	-10.2876
▁nserukira	-10.2884
fashe	-10.2884
▁kwiyamamaza	-10.2888
▁ja	-10.2892
enyezi	-10.2894
▁israel	-10.2894
ibirunga	-10.2896
▁amenyeshako	-10.2897
▁imvugo	-10.2897
ubukene	-10.2898
urugamba	-10.2898
▁bashyira	-10.2899
▁yiyungur	-10.2899
▁bukerarugendo	-10.2899
▁bakinyi	-10.2901
▁general	-10.2904
▁nimba	-10.2904
▁kwabo	-10.291
▁ad	-10.2913
▁afasha	-10.2914
▁igitabo	-10.2919
▁ifise	-10.2919
▁nyanja	-10.2925
abonetse	-10.2931
▁umeze	-10.2933
▁ikaze	-10.2941
imyidagaduro	-10.2942
▁uva	-10.2942
▁batagira	-10.2943
▁coast	-10.2945
▁abashoferi	-10.2946
▁day	-10.2951
▁bikuru	-10.2952
▁kubaza	-10.2966
urugo	-10.2969
▁mvura	-10.2969
▁kuz	-10.2976
▁ivo	-10.2977
yaranze	-10.298
▁ibinyabiziga	-10.2981
▁rnc	-10.2981
▁sinema	-10.2985
aranzwe	-10.2987
▁bazabona	-10.2988
▁cyamunara	-10.2993
▁akoreshwa	-10.2999
▁bariya	-10.2999
▁bikiri	-10.3001
▁zatanzwe	-10.3001
▁janvier	-10.3002
▁arwaye	-10.3003
agenewe	-10.3007
▁urumva	-10.3011
▁abinyujije	-10.3014
▁bwanjye	-10.3015
tangiye	-10.3016
▁bishyura	-10.302
▁dushobor	-10.302
magare	-10.302
yitabiriye	-10.3023
▁amashure	-10.3023
ano	-10.3026
▁bwakorewe	-10.3028
kwiriye	-10.3029
▁kingana	-10.3034
▁sim	-10.3037
▁yamenyekanye	-10.3039
▁ibisobanuro	-10.304
▁amahera	-10.3041
▁mc	-10.3042
▁umuraperi	-10.3051
abanje	-10.3057
▁wakoze	-10.306
▁nouvelle	-10.3064
▁muba	-10.3069
▁yayi	-10.3074
▁riti	-10.3082
jyana	-10.3088
▁bufite	-10.3094
abigeme	-10.3103
▁impande	-10.3103
abafaransa	-10.3104
▁gitugutu	-10.3104
▁gisozi	-10.3105
torero	-10.3105
▁ubwikorezi	-10.3108
▁hakenewe	-10.3109
uburenganzira	-10.311
▁yaryo	-10.311
▁rwabaye	-10.311
E	-10.3112
▁mukunzi	-10.3113
▁binjiye	-10.3116
de	-10.3116
▁agize	-10.3116
am	-10.3117
▁minani	-10.3119
iramo	-10.3126
▁kwikingir	-10.3126
umurimo	-10.3129
▁maj	-10.313
▁imwe	-10.3139
▁umukenyezi	-10.3141
▁kuzi	-10.3142
▁austin	-10.3148
bikoresha	-10.3148
▁kbc	-10.3149
▁celestin	-10.315
mufasha	-10.315
▁urugamba	-10.3151
▁ubworozi	-10.3151
▁juventus	-10.3153
▁icegera	-10.3154
▁bushake	-10.3155
ubatse	-10.3156
urumogi	-10.3157
▁muyinga	-10.316
▁guhemb	-10.3162
▁bishimira	-10.3162
▁gasore	-10.3165
atangijwe	-10.3165
ishengero	-10.3169
▁daniel	-10.3171
mpaka	-10.3173
asoje	-10.3179
esheje	-10.3181
▁nzaba	-10.3183
▁yarwo	-10.3185
▁manda	-10.3186
▁victor	-10.3187
▁yaran	-10.3188
▁rushashi	-10.3188
▁zidasanzwe	-10.3189
indero	-10.3192
▁cibitoke	-10.3199
▁rafiki	-10.32
▁ibyamamare	-10.32
▁on	-10.3203
▁itangira	-10.3206
afrika	-10.3208
▁cya	-10.3213
▁umupolisi	-10.3217
▁byatuma	-10.3219
▁demukarasi	-10.323
▁muririmbyi	-10.3231
▁gaga	-10.3232
▁stage	-10.3234
▁budasanzwe	-10.3234
▁kali	-10.3236
▁en	-10.3239
▁nduhungirehe	-10.3241
▁ubwandu	-10.3244
▁mirwi	-10.3248
riza	-10.3249
▁bivanye	-10.3249
▁bashyize	-10.3257
▁film	-10.3258
▁chris	-10.3259
▁niyons	-10.326
tundi	-10.3261
▁munyonyo	-10.3271
▁singapore	-10.3272
▁irengero	-10.3274
ako	-10.3274
▁jeanne	-10.3275
▁zijya	-10.3277
▁yitiriwe	-10.3277
▁kuvugururwa	-10.3278
▁center	-10.328
▁biva	-10.3285
mfashanyo	-10.329
▁kugabanuka	-10.3296
sanzwe	-10.3297
▁kuta	-10.3301
emeye	-10.3305
ingingo	-10.331
▁umwarimu	-10.3312
ahinze	-10.3314
▁perefe	-10.3314
▁gushima	-10.3316
vara	-10.332
▁koronavirusi	-10.3321
▁barwayi	-10.3321
▁igisata	-10.3323
ahembwe	-10.3323
▁gutura	-10.3323
▁stars	-10.3324
▁kiriya	-10.3326
▁udasanzwe	-10.3331
▁incu	-10.3331
▁ntera	-10.3334
▁mibare	-10.3339
by	-10.3341
rengera	-10.3344
bona	-10.3347
▁zitwara	-10.3356
▁bukabije	-10.3358
▁qatar	-10.3359
▁ndamukiza	-10.3359
▁umuhuzabikorwa	-10.3362
kenya	-10.3365
▁vyiza	-10.3371
burundi	-10.3372
▁islam	-10.3375
ndi	-10.3376
emejwe	-10.3378
▁shuri	-10.3383
gera	-10.3397
uwari	-10.3398
▁ngarukamwaka	-10.3399
ukuntu	-10.34
▁kurwara	-10.3401
icyerekezo	-10.3409
icyizere	-10.3409
▁brazzaville	-10.3423
nyezamu	-10.3428
U	-10.3432
ibishyimbo	-10.3432
▁kigamije	-10.3437
▁kiz	-10.3437
uncle	-10.3441
asabwe	-10.3444
▁migwi	-10.3448
▁bakomoka	-10.3451
▁ibitabo	-10.3456
▁uririmba	-10.3466
▁bakana	-10.3468
▁ubuso	-10.3473
▁bagahita	-10.3476
▁nzi	-10.3491
▁bateganya	-10.3491
igisirikare	-10.3493
▁B	-10.3495
agira	-10.3503
abatoza	-10.3505
▁baki	-10.3505
zatwara	-10.3509
▁gusiga	-10.351
▁st	-10.351
ubwis	-10.3512
▁babanye	-10.3521
mero	-10.3521
▁umusi	-10.3523
▁bahungu	-10.3527
ubakiwe	-10.3528
▁samsung	-10.3528
▁university	-10.3528
▁cyaro	-10.3529
bwambere	-10.3531
▁caption	-10.3537
dege	-10.3548
anga	-10.3549
▁gukusany	-10.3551
imibonano	-10.3551
▁biciro	-10.3552
ibice	-10.3554
▁mukaba	-10.3557
▁asubiza	-10.3558
▁yonyine	-10.3564
ja	-10.3565
▁babayeho	-10.3567
▁miremire	-10.357
mwe	-10.3571
▁kampala	-10.3573
▁umulisa	-10.3578
▁best	-10.3579
egukana	-10.3582
abakuru	-10.3584
imirimo	-10.3586
▁es	-10.3587
▁bikomeje	-10.3588
aragiye	-10.359
▁imfubyi	-10.3592
▁atera	-10.3595
perezida	-10.3598
iyemeje	-10.3599
▁kigeze	-10.3602
▁x	-10.3602
gifite	-10.3603
▁bajejwe	-10.3606
▁muk	-10.3609
▁ibyuma	-10.3612
▁nyaburanga	-10.3614
▁imitima	-10.3615
▁icanyuma	-10.3617
▁ciwe	-10.3618
▁bukanguramba	-10.3618
▁yinjije	-10.362
▁wewe	-10.3623
buza	-10.3623
▁izakina	-10.3625
▁rra	-10.3627
ubuseruko	-10.3628
▁utwo	-10.3629
ahuje	-10.3638
umutungo	-10.364
▁bito	-10.3644
atanguye	-10.3651
▁umwenda	-10.3654
▁bikavugwa	-10.3655
mwemerera	-10.3657
▁ukugira	-10.3658
ikozwe	-10.3662
▁augustin	-10.3665
▁bapfuye	-10.3672
▁aramutse	-10.3672
imikorere	-10.3675
ubushinjacyaha	-10.3683
iyaremye	-10.3687
▁madam	-10.3694
▁Na	-10.3696
▁batwara	-10.3699
M	-10.37
▁nguzanyo	-10.3702
▁gilbert	-10.3704
▁rbc	-10.3705
▁whatsapp	-10.371
▁baguye	-10.3711
▁yize	-10.3714
angombwa	-10.3717
amasaha	-10.3718
abwiye	-10.3719
▁bashatse	-10.372
▁kugirana	-10.3722
▁dusanga	-10.3724
gihombo	-10.3726
▁kuzakin	-10.3727
rubavu	-10.373
yitabye	-10.3731
ibigori	-10.3735
▁yinjiza	-10.3736
emeje	-10.3737
icumi	-10.3739
▁batoza	-10.3741
▁bagahabwa	-10.3744
igikorwa	-10.3745
▁ntakirutimana	-10.3747
▁siganwa	-10.3747
▁kwibasira	-10.3751
▁ihari	-10.3755
▁irya	-10.3756
▁nizo	-10.3776
▁gushakira	-10.3783
yajyaga	-10.3784
▁gikomeje	-10.3786
▁bwagaragaj	-10.3787
▁irindwi	-10.3788
igi	-10.379
binyujije	-10.3791
▁prosper	-10.3793
takaje	-10.3795
umwimerere	-10.3796
▁urubyaro	-10.3798
▁bukorwa	-10.3802
▁barwaye	-10.3812
▁yabitangarij	-10.3813
▁avuka	-10.3815
▁you	-10.3824
teguye	-10.3824
anye	-10.3826
ingwara	-10.3828
ahaye	-10.3828
▁amahotel	-10.3832
▁akanya	-10.3833
ameze	-10.3834
▁furaha	-10.3835
▁byagabanutse	-10.3838
▁munyaneza	-10.384
▁ibibanza	-10.3841
bakunzi	-10.3843
rinda	-10.3846
▁kaba	-10.3847
ashyiriweho	-10.3849
baturiye	-10.3856
izakomeza	-10.3856
▁duto	-10.3857
ugarije	-10.3857
umunyamerika	-10.3857
▁kuzuza	-10.3862
▁azo	-10.3865
▁yah	-10.3866
▁babikora	-10.387
▁yahishu	-10.3876
▁byuma	-10.3884
▁naba	-10.3895
▁guhaha	-10.3897
▁ferwacy	-10.3899
amanywa	-10.3899
▁niwo	-10.3902
▁kuda	-10.3904
editormuhaburarw	-10.391
rika	-10.3915
▁batangaje	-10.3916
icyamamare	-10.3918
adutse	-10.3918
▁abasiganwa	-10.3921
acuruza	-10.3925
▁avugwa	-10.3926
ji	-10.3929
▁wan	-10.393
bumaze	-10.3935
▁iradukunda	-10.3935
▁kibu	-10.3937
▁bibanza	-10.3939
▁zigezweho	-10.3945
igitsina	-10.3948
it	-10.3949
▁gitanga	-10.3963
▁ibiryo	-10.3964
▁inkotanyi	-10.3965
emezwa	-10.3969
izihiwe	-10.3969
▁claver	-10.3974
▁yigenga	-10.3975
▁barushe	-10.3975
▁tanasha	-10.3976
kangurira	-10.3979
itegura	-10.3984
▁ruhame	-10.3986
▁lil	-10.3987
▁cyaje	-10.3992
ozi	-10.3997
ubugenzacyaha	-10.4001
igize	-10.4004
▁urundi	-10.4007
▁ke	-10.4009
▁inzozi	-10.4013
▁soya	-10.4015
▁ika	-10.4023
koresheje	-10.4025
▁buhoro	-10.4026
▁my	-10.4028
rw	-10.4029
▁sunrise	-10.403
x	-10.4032
▁inyeshyamba	-10.4032
▁abanyafurika	-10.4036
umwuka	-10.4041
▁igaragara	-10.4047
▁gukurikira	-10.4047
▁2	-10.4048
azanye	-10.4051
▁bugaragaz	-10.4051
▁bakinira	-10.4054
▁top	-10.4058
banze	-10.4059
▁protais	-10.4059
▁ino	-10.406
▁izatangira	-10.4067
▁ubwitabir	-10.4068
▁york	-10.4069
▁ubuhinga	-10.4069
umuturage	-10.407
▁abaguzi	-10.407
▁bir	-10.4075
▁baganira	-10.4076
zeyimana	-10.4078
▁batazira	-10.4079
▁bitabira	-10.408
uburaya	-10.4088
umubyeyi	-10.4092
impamvu	-10.4093
▁prince	-10.4093
▁safi	-10.4101
ashikirije	-10.4103
▁qhubeka	-10.4105
▁church	-10.4106
▁mwurire	-10.4106
▁hegita	-10.4107
▁bahame	-10.4108
▁serbia	-10.4111
▁ruhumuriza	-10.4111
▁yaseruki	-10.4113
tandukanye	-10.4116
▁zimbabwe	-10.4117
▁mugongo	-10.4121
kennye	-10.4125
▁gushimira	-10.4126
▁akumva	-10.4134
▁abavuga	-10.4135
▁rikuru	-10.4137
▁talent	-10.414
urwa	-10.4151
adakwiye	-10.4152
abahutu	-10.4153
▁gufashwa	-10.4154
▁kurwana	-10.4157
▁kwamagan	-10.4162
tsinda	-10.4166
▁ibe	-10.4166
▁jack	-10.4173
tunguranye	-10.4176
▁akajagari	-10.4176
▁ivuye	-10.4179
▁hadi	-10.418
▁hagaragara	-10.4182
▁gake	-10.4186
▁itwara	-10.4186
▁kubika	-10.4187
▁bakagira	-10.4187
urebye	-10.4187
itangazo	-10.4197
sabwa	-10.4197
▁rwagati	-10.4198
▁mashyamba	-10.42
nge	-10.4205
▁ikubitiro	-10.4205
isha	-10.4206
▁bworoshye	-10.4209
akiriye	-10.4225
ed	-10.4229
iterabwoba	-10.4229
enyeri	-10.423
inyigisho	-10.4235
▁youtube	-10.4247
▁hata	-10.4248
▁biboneka	-10.4249
▁kwizigamira	-10.4251
▁twagiye	-10.4254
▁bifata	-10.4255
▁buhinde	-10.4256
▁ikibuga	-10.4257
▁byumweru	-10.4262
▁kirundo	-10.4262
▁itara	-10.4263
▁ryatangiye	-10.4264
▁love	-10.4267
▁ally	-10.4272
▁gusezera	-10.4273
is	-10.4273
▁kuzajya	-10.4274
burwayi	-10.4274
▁kwereka	-10.4276
ishoramari	-10.4278
▁icyerekezo	-10.428
▁kurara	-10.4282
▁aruko	-10.4284
aratangaza	-10.4285
▁south	-10.4286
▁washize	-10.4292
▁esperance	-10.4293
wako	-10.4295
▁ahamagarira	-10.4302
▁bishobor	-10.4305
▁just	-10.4307
▁ibirayi	-10.4311
▁hakorwa	-10.4312
▁agasaba	-10.4315
▁yanze	-10.4319
▁imyanzuro	-10.432
▁samp	-10.4321
ibiti	-10.4321
▁abandanya	-10.4323
▁bagendeye	-10.4327
▁mut	-10.4333
▁amatwi	-10.4338
▁bruce	-10.434
▁zahabu	-10.4344
▁guhitana	-10.4355
▁oya	-10.4355
ikigega	-10.4373
▁bufasha	-10.4381
▁gitangaza	-10.4383
amasezerano	-10.4384
▁eugene	-10.4384
▁bitemewe	-10.4387
▁amubwira	-10.4392
▁nur	-10.4392
▁moya	-10.4394
▁twebwe	-10.4395
▁kwanga	-10.4405
▁nkora	-10.4406
▁umushoferi	-10.4406
▁yagiriye	-10.4407
atashye	-10.4413
ifashe	-10.4428
▁nemba	-10.4429
▁ecobank	-10.4431
▁zaidi	-10.4433
curuza	-10.4434
▁harerimana	-10.4437
▁kevin	-10.4439
▁wahariwe	-10.4439
▁rwatangiye	-10.4441
▁imbaga	-10.4443
▁kabeho	-10.4443
▁business	-10.4443
▁mihango	-10.4448
ifuza	-10.4454
▁bitegura	-10.4459
▁banyuranye	-10.446
bisobanuye	-10.4462
▁abashaka	-10.4463
ubufaransa	-10.4469
ngero	-10.4469
umunyamakuru	-10.447
shoferi	-10.4471
▁uyoboye	-10.4471
▁theogene	-10.4478
▁laptop	-10.4481
▁black	-10.4482
▁abarongoye	-10.4485
▁kurebera	-10.4488
▁nkiko	-10.449
▁uhagije	-10.4491
ibiza	-10.45
umuhanda	-10.45
▁wegukanye	-10.4503
gurira	-10.4506
▁kitarenz	-10.4512
▁biteye	-10.4516
koreshwa	-10.4519
▁bifitiye	-10.4519
▁riba	-10.452
fungura	-10.4526
▁kabanda	-10.4529
▁vyabo	-10.4536
▁kugerageza	-10.4537
jonjora	-10.4538
▁kwitura	-10.4541
▁kita	-10.4547
igamba	-10.4548
▁yita	-10.455
▁amabanga	-10.4553
enga	-10.4554
▁abakirisitu	-10.4557
▁amajan	-10.4558
▁babu	-10.4562
fasoni	-10.4566
bujije	-10.4569
▁gutangwa	-10.4575
▁rwiza	-10.4577
korana	-10.4578
ahamwe	-10.4579
▁musaby	-10.4582
▁yaramaze	-10.4583
▁hc	-10.4586
inyoni	-10.4587
▁batsinze	-10.4588
▁ubonye	-10.4592
▁iny	-10.4596
ubushize	-10.4605
▁bukwe	-10.4608
▁kumvikana	-10.4609
ubuhanzi	-10.4615
▁yakira	-10.4616
▁kuraba	-10.4617
▁kibi	-10.4622
▁money	-10.4624
▁rero	-10.4632
▁bakize	-10.4639
omero	-10.4642
amashirahamwe	-10.465
▁umugaba	-10.4656
▁zikoreshwa	-10.4656
▁yemereye	-10.4657
▁major	-10.4657
▁nshikiranganji	-10.4659
kuri	-10.4661
hagarika	-10.4661
▁ibyavuye	-10.4664
▁gusenga	-10.4665
▁bagaruka	-10.4666
▁asigura	-10.4667
▁amu	-10.4668
▁kwikura	-10.4668
▁zituruka	-10.4671
umuvugiz	-10.4672
▁bagura	-10.4673
▁ijosi	-10.4677
umwijima	-10.4677
zatuma	-10.4681
▁gusinya	-10.4683
atangije	-10.4687
▁ntambwe	-10.4688
▁nyundo	-10.4688
▁amajambo	-10.469
▁ukabona	-10.469
▁petit	-10.4691
abigizemo	-10.4694
umba	-10.4699
▁hip	-10.4699
ciye	-10.4699
menyereye	-10.4707
ikubye	-10.4707
▁iwe	-10.4709
▁iciriritse	-10.4719
▁habineza	-10.4719
▁kamembe	-10.4719
abashakanye	-10.4719
▁ffb	-10.472
▁gufatirwa	-10.4721
▁thomas	-10.4722
▁ubw	-10.4728
hirwa	-10.4729
ukesha	-10.4729
garurira	-10.4744
▁iyindi	-10.4744
▁icyuma	-10.4745
▁kwiyandikisha	-10.4745
▁zita	-10.4749
ahagije	-10.4756
▁lione	-10.476
▁akagera	-10.4761
akeka	-10.4761
▁yica	-10.4765
▁havugwa	-10.4766
▁cecab	-10.4767
▁kabgayi	-10.4768
▁gukurikiza	-10.4768
▁gutya	-10.4769
ubutunzi	-10.4771
▁biranga	-10.4772
vura	-10.4772
uyo	-10.4778
▁babivuga	-10.4779
▁cote	-10.478
▁mobile	-10.478
▁iherutse	-10.4784
oherejwe	-10.4784
▁ntoki	-10.4786
▁manirakiza	-10.4789
▁vc	-10.4789
▁kamwe	-10.4789
iwabo	-10.4793
akiniye	-10.4801
▁umucuruzi	-10.4807
▁nzahabwa	-10.4814
▁uzato	-10.4814
inkeragutabara	-10.4816
▁wigaraga	-10.4816
▁midugudu	-10.4818
▁kwivana	-10.4818
▁bicamu	-10.4818
▁gashumba	-10.482
▁ameze	-10.482
▁risanzwe	-10.4821
▁ukoresheje	-10.4823
▁bajye	-10.4824
▁mpanga	-10.4825
▁yacyo	-10.4831
▁icyubahiro	-10.4835
▁bimenyerewe	-10.4836
▁mutagatifu	-10.4839
umunyarwandakazi	-10.4839
▁wigeze	-10.4839
▁urupapuro	-10.4845
▁ubwanditsi	-10.4847
▁iheze	-10.4847
aranze	-10.4848
▁ruzaba	-10.4851
▁abaminisitiri	-10.4852
▁card	-10.4857
▁hop	-10.4858
▁cyayo	-10.4859
kuko	-10.4865
ngengo	-10.4867
seti	-10.4872
▁bifashisha	-10.4878
ndo	-10.4881
▁agakingirizo	-10.4881
ndika	-10.4885
▁imyanda	-10.4889
▁utagira	-10.4891
uriye	-10.4895
▁sudan	-10.4902
▁komiseri	-10.4903
amafoto	-10.4904
▁bad	-10.4906
▁rica	-10.4915
▁umurego	-10.4916
▁baririmbyi	-10.4916
▁ruhuhuma	-10.4919
▁umukunda	-10.4923
▁twasanze	-10.4925
wezo	-10.4928
▁zingana	-10.4931
asezeye	-10.4934
▁ivangura	-10.4938
akwiye	-10.4947
▁yana	-10.4948
▁itarik	-10.4952
▁yakoranye	-10.4956
inzitizi	-10.4957
▁afatwa	-10.4958
▁amasasu	-10.496
▁ibikomere	-10.4962
▁rubyiniro	-10.4965
▁amarangamutima	-10.4965
▁kabiligi	-10.4968
▁ikorwa	-10.497
▁batowe	-10.4971
▁kabari	-10.4973
abahinzi	-10.4978
▁ibizamini	-10.4978
tumba	-10.4985
itariki	-10.4991
▁kino	-10.4994
▁uhora	-10.4994
▁isaga	-10.4995
▁moko	-10.4996
▁kavum	-10.5001
▁gusigan	-10.5006
O	-10.5007
▁nyabarongo	-10.5013
▁mutibagirana	-10.5015
▁modem	-10.5015
▁alpha	-10.5019
aburiye	-10.502
▁cycling	-10.5021
geraho	-10.5021
hwanye	-10.5028
▁babanza	-10.5033
▁imurika	-10.5034
▁rwanyu	-10.5035
ibiribwa	-10.5037
▁yiyongera	-10.504
shyitsi	-10.5041
▁kumuha	-10.5041
nyuma	-10.5042
▁kubwa	-10.5044
▁hafatwa	-10.5045
▁birenze	-10.505
▁sasa	-10.5055
▁buso	-10.5056
mpapuro	-10.5056
▁amacakubiri	-10.5061
asuye	-10.5062
bahoze	-10.5064
▁nkikabahizi	-10.5065
▁asabwa	-10.5066
▁burengerazuba	-10.5066
aririmbye	-10.5069
▁abisobanura	-10.5072
▁kampan	-10.5077
kubera	-10.5081
▁ingano	-10.5082
▁kigalitoday	-10.5082
rera	-10.5085
▁ng	-10.5088
▁bahari	-10.509
yahuje	-10.5091
▁yahagaritswe	-10.5095
mwanzuro	-10.5095
▁hamenyekan	-10.51
▁bakan	-10.5102
bamwe	-10.5108
zahuza	-10.5117
▁ubutunzi	-10.5118
▁franois	-10.5119
daste	-10.5122
koranabuhanga	-10.5122
mye	-10.5124
▁haruguru	-10.5125
▁kijejwe	-10.5128
urikire	-10.5131
▁kuruta	-10.5133
▁baravuga	-10.5136
▁psg	-10.5145
▁iry	-10.5145
ananiwe	-10.5148
▁ireme	-10.515
▁bashika	-10.5151
▁ubwishingizi	-10.5155
▁amadorali	-10.5156
ashinzwe	-10.5156
▁twabitanga	-10.5159
amusaba	-10.5162
▁nsengimana	-10.5162
▁guhamagara	-10.5164
vurwa	-10.5165
▁hagendewe	-10.5167
ouvre	-10.5168
▁cyateguwe	-10.5169
ivy	-10.5171
▁idat	-10.5177
ashoboye	-10.5179
gwiza	-10.5181
▁atwite	-10.5182
▁agukunda	-10.5186
▁yasubije	-10.5186
▁batabasha	-10.5188
▁komini	-10.5191
▁mutoza	-10.5195
erega	-10.5196
▁theo	-10.5197
itabira	-10.5199
▁yashimangiye	-10.5207
ntara	-10.521
▁Ku	-10.521
▁simon	-10.5213
ahavuye	-10.5214
▁guhomb	-10.5215
aragize	-10.5217
▁fulgence	-10.5218
▁bisobanura	-10.5219
kurikiyeho	-10.5219
▁uefa	-10.522
▁igenzura	-10.522
▁K	-10.5222
▁bitwara	-10.5225
▁kangana	-10.5226
tzig	-10.523
▁www	-10.5234
▁wake	-10.5238
▁up	-10.5238
▁biruta	-10.5241
icyaro	-10.5244
▁citwa	-10.5249
himbaza	-10.5253
mbere	-10.5258
▁abacuruza	-10.5258
▁ahana	-10.5266
▁rihuz	-10.5268
▁kwiyubakira	-10.527
▁ndagijimana	-10.5271
ibiraro	-10.5279
▁itangwa	-10.5279
▁liliane	-10.5279
▁bagaragara	-10.5286
ururimi	-10.5291
▁batabona	-10.5297
▁sam	-10.5299
▁cyarangiye	-10.5301
▁src	-10.5305
▁agezweho	-10.5306
▁kwishimira	-10.5307
▁amashyamba	-10.5309
ngeri	-10.5312
▁afrique	-10.5312
▁twos	-10.532
▁yitwaye	-10.532
▁nicodem	-10.5321
▁kanyankore	-10.5324
▁yanyu	-10.5324
▁birashoboka	-10.533
▁zacu	-10.5334
atinze	-10.5335
hira	-10.5337
▁yubatswe	-10.5338
▁niger	-10.5338
tach	-10.534
▁ibura	-10.5342
shimisha	-10.5343
upp	-10.5346
cyifuzo	-10.5348
▁ufise	-10.535
rije	-10.5363
▁yabi	-10.5368
▁abraham	-10.5373
▁bakurikirana	-10.5376
bagire	-10.5378
ifitiye	-10.5379
▁naryo	-10.5381
▁mohamed	-10.5385
▁bakongera	-10.5387
minega	-10.5389
▁byemewe	-10.5391
▁bongera	-10.5391
▁binini	-10.5394
▁muhire	-10.5397
hanishwa	-10.5401
isabune	-10.5402
▁gaciro	-10.5402
▁akomoka	-10.5403
▁ac	-10.5404
▁ugizwe	-10.5414
arushaho	-10.5417
asohoye	-10.5418
ahitanye	-10.542
inota	-10.5421
injiriza	-10.5423
▁gacaca	-10.5424
▁edouard	-10.5426
▁nairobi	-10.5428
▁rugeze	-10.5436
▁mo	-10.5439
▁agaragara	-10.5442
▁bamubwira	-10.5446
v	-10.5447
▁njyanama	-10.5447
mirima	-10.5448
▁twizer	-10.545
ukuboza	-10.5452
▁gishanga	-10.5458
▁barundi	-10.5458
▁bafatwa	-10.546
rometero	-10.5461
▁hagomba	-10.5462
ndangagaciro	-10.5462
▁wana	-10.5464
uri	-10.5465
▁yahitanye	-10.547
▁jye	-10.5476
▁barcelone	-10.5479
▁somalia	-10.5479
▁igwa	-10.5479
▁confederation	-10.548
▁ibireti	-10.5481
▁gasogi	-10.5484
▁gisanzwe	-10.5492
▁indaya	-10.5493
▁ingoro	-10.5497
▁rukuta	-10.55
▁bazakora	-10.5501
▁kwifashisha	-10.5503
▁bakumva	-10.5507
uye	-10.5508
▁isoni	-10.551
▁kubiba	-10.552
ashyiraho	-10.5524
▁tugeze	-10.5526
inyamaswa	-10.5526
▁Habari	-10.553
▁batangaza	-10.553
▁Wa	-10.5531
▁guhana	-10.5532
▁kidasanzwe	-10.5533
▁umunezero	-10.5533
▁kanombe	-10.5537
▁mwese	-10.5539
▁arizo	-10.5539
▁kurenza	-10.554
▁samuel	-10.5542
▁bagiranye	-10.5543
▁buhinga	-10.5547
▁baherutse	-10.555
▁batekereza	-10.5551
ubw	-10.5554
▁bahungiye	-10.5554
fatwa	-10.5556
▁afungura	-10.5556
▁ahawe	-10.5558
ungana	-10.556
▁ntibi	-10.5562
gurirwa	-10.5563
▁yabonetse	-10.5565
katiye	-10.5578
idth	-10.5581
▁kunyerez	-10.5581
guye	-10.5582
mibanire	-10.5586
▁ryose	-10.5588
▁urukingo	-10.5589
▁itegam	-10.5599
▁habura	-10.56
imbuto	-10.5602
▁ubushyuhe	-10.5604
aranduye	-10.5607
▁icyamamare	-10.561
ihuriro	-10.5615
▁bateye	-10.5616
▁akato	-10.5618
bereye	-10.5622
▁udafite	-10.5626
agaragayemo	-10.563
▁thierry	-10.5633
ibarabara	-10.5637
▁tubamenyesheko	-10.564
▁ndagukunda	-10.5642
bashinzwe	-10.5649
▁uhita	-10.5657
▁gare	-10.5658
▁abatura	-10.5661
▁ikiciro	-10.5664
▁je	-10.5665
ent	-10.5671
keka	-10.5672
amahotel	-10.5674
sifuzi	-10.5679
bageraho	-10.5682
▁ihohoterwa	-10.5685
▁alignalign	-10.5689
▁baguze	-10.5689
▁mahano	-10.5689
▁gakomeye	-10.5689
irushanwa	-10.569
ahageze	-10.5691
ati	-10.5693
▁makosa	-10.5695
uka	-10.5696
▁afatanyije	-10.5696
▁twizeye	-10.5697
▁mugera	-10.57
▁yego	-10.5702
▁re	-10.5704
▁gushyikiriz	-10.5705
igenza	-10.5707
▁igihumbi	-10.5708
▁nabonye	-10.5709
▁itabi	-10.5711
sugira	-10.572
▁isa	-10.5722
▁bikorera	-10.5722
▁id	-10.5728
▁ikinyarwanda	-10.5735
▁yatubwiye	-10.5742
▁bacitse	-10.5747
▁riherereye	-10.5749
▁biragoye	-10.5749
▁uduce	-10.5751
▁twabonye	-10.5752
▁bitandatu	-10.5752
▁bicwa	-10.5756
▁byafasha	-10.5775
▁mazina	-10.5782
bu	-10.5785
▁rugira	-10.5789
▁umurundi	-10.5789
▁yerekeje	-10.5792
▁kanye	-10.5792
my	-10.5795
▁da	-10.5796
ister	-10.5796
▁paccy	-10.5797
▁twahirwa	-10.5799
ungu	-10.58
▁didier	-10.58
▁mutesi	-10.58
▁mureke	-10.5802
▁musaruro	-10.5803
▁kinshasa	-10.5806
shatse	-10.5807
▁bagaragaye	-10.5808
▁gutega	-10.5812
▁lyce	-10.5812
▁kurushinga	-10.5815
anje	-10.5816
arifuza	-10.5826
▁rca	-10.5827
▁kubatera	-10.5827
toza	-10.583
shema	-10.5835
▁yajya	-10.5835
agahinda	-10.5841
▁munyuma	-10.5843
▁nathan	-10.5845
amoko	-10.5848
umwanzi	-10.585
ubutinyanka	-10.5851
▁bafungiye	-10.5851
▁mugesera	-10.5851
▁kubitsa	-10.5855
abapfakazi	-10.5855
▁malawi	-10.5857
▁byiyongera	-10.5858
▁penaliti	-10.5859
imbaraga	-10.5861
▁madagascar	-10.5861
▁nubu	-10.5862
▁korora	-10.5864
▁bagana	-10.5866
▁murugo	-10.5869
▁abayoboke	-10.5872
▁umushinjacyaha	-10.5878
▁fm	-10.588
▁bagerageza	-10.5885
▁jya	-10.5887
ongera	-10.5892
ikorera	-10.5893
▁tennis	-10.5906
▁rwagasore	-10.5906
▁abanduye	-10.5908
▁inguvu	-10.5908
▁imig	-10.5908
▁news	-10.5909
▁floyd	-10.591
▁akoze	-10.5911
▁urugaga	-10.5913
▁ngaha	-10.5916
▁foto	-10.5917
▁buraya	-10.5917
▁niyonkuru	-10.5918
▁abakundana	-10.5919
▁corona	-10.5924
ic	-10.5929
kenerwa	-10.5931
asezeranye	-10.5934
akuramo	-10.5947
▁nagiye	-10.5948
▁kugendera	-10.5953
▁marine	-10.5953
akozwe	-10.5954
▁injyana	-10.5954
▁wavuze	-10.5959
▁Ari	-10.5961
▁bikana	-10.5962
ingoboka	-10.5964
▁zaba	-10.5968
▁rimaze	-10.5968
▁tube	-10.5968
▁murenzi	-10.5968
▁gitifu	-10.597
umukandida	-10.5972
rench	-10.5972
▁murukino	-10.5976
▁rwihaye	-10.5981
▁rigiye	-10.5983
ahagarariye	-10.5984
▁bagifite	-10.5984
▁cyakora	-10.5985
▁asubira	-10.5986
amakoperative	-10.599
▁urw	-10.599
▁ukuba	-10.5991
abanyafurika	-10.5991
▁akandi	-10.5991
gisigaye	-10.5995
kora	-10.6002
▁inararibonye	-10.6002
▁ashingiye	-10.6003
▁kiringo	-10.6005
▁nick	-10.6008
▁gutahukan	-10.6014
igiporisi	-10.6016
▁ntibya	-10.6016
▁bihembo	-10.6019
▁rupfu	-10.6019
aratangiye	-10.602
ubwiza	-10.6021
▁barindwi	-10.6022
▁olympique	-10.6029
▁bapfa	-10.6032
▁bitwaye	-10.6033
kiza	-10.6035
amenyesha	-10.6035
▁burezi	-10.6038
▁kwegura	-10.604
▁igura	-10.6042
▁magara	-10.6042
▁nivyo	-10.6046
ibyumweru	-10.6048
▁wakora	-10.6051
azize	-10.6058
inkwi	-10.6061
▁bijya	-10.6065
▁nkambi	-10.6066
▁twigir	-10.6068
▁azoba	-10.6071
▁bukinanyana	-10.6071
▁twakora	-10.6072
▁dubai	-10.6073
▁bibaho	-10.6077
▁yicaye	-10.6078
▁Rwanda	-10.6079
▁nkemurampaka	-10.608
rangije	-10.6088
▁jewe	-10.6091
▁ijuru	-10.6091
▁kuzura	-10.6094
tangaje	-10.6097
injiye	-10.6099
aganiraga	-10.61
▁gushigikira	-10.6101
▁so	-10.6104
▁ubugenzacyaha	-10.6107
▁ukwo	-10.611
agaju	-10.6114
imihindag	-10.6118
▁bataha	-10.6119
▁abasiga	-10.6119
▁yasavye	-10.6119
▁rurangir	-10.6128
▁tshisekedi	-10.6129
injijwe	-10.613
▁ukwezicom	-10.6132
▁muzima	-10.6135
ronswa	-10.6137
▁twumva	-10.6138
▁Mu	-10.6144
▁gusambany	-10.616
inyeshyamba	-10.6162
▁agatok	-10.6163
rishingiye	-10.6165
▁vip	-10.6165
▁portugal	-10.6168
▁akongera	-10.6169
dore	-10.617
▁gukingira	-10.6173
bura	-10.6175
▁umwih	-10.6177
tegekanijwe	-10.6177
▁nawen	-10.6182
rwo	-10.6183
▁development	-10.6184
▁camp	-10.6185
udahunga	-10.6187
▁tombola	-10.619
▁afirika	-10.6191
▁nsengero	-10.6194
▁bidakwiye	-10.6195
▁station	-10.6197
▁rinini	-10.6202
▁bafatanyije	-10.6207
▁birinda	-10.6211
▁bitangwa	-10.6212
▁muzungu	-10.6213
izeye	-10.6215
▁house	-10.6221
basuye	-10.6221
iciwe	-10.6224
▁baturanyi	-10.6224
gabanya	-10.6225
▁bikenewe	-10.6227
▁banditse	-10.624
▁gusenywa	-10.624
▁kayites	-10.624
pr	-10.6241
▁bujura	-10.6242
▁rirambye	-10.6242
▁mwe	-10.6243
▁nyayo	-10.6244
▁misa	-10.6249
▁nshyashya	-10.6254
▁fan	-10.6256
▁gutangura	-10.626
▁ikoresha	-10.6265
▁hashyirwa	-10.6268
angiza	-10.627
▁ukeneye	-10.627
▁gishya	-10.6273
gitura	-10.6275
▁car	-10.6277
▁njya	-10.6277
▁baririmban	-10.6278
▁dushaka	-10.6279
▁imishahara	-10.6282
▁rose	-10.6283
me	-10.6283
▁ubunararibonye	-10.6284
▁zitanga	-10.629
▁yi	-10.6291
▁amande	-10.6293
▁fentreclique	-10.6297
▁lierres	-10.6299
▁tuyisenge	-10.6299
iriza	-10.63
▁arabi	-10.63
intera	-10.6301
itsura	-10.6301
agezeho	-10.6301
▁bihari	-10.6303
▁mukinyi	-10.6303
tsinzwe	-10.6304
kiyobyabwenge	-10.6312
▁america	-10.6314
▁runani	-10.6316
nde	-10.6316
zanira	-10.6317
▁luc	-10.6318
▁ubuziranenge	-10.6321
urwaruka	-10.6324
▁buriri	-10.6326
▁kwitoza	-10.633
▁zitangwa	-10.6332
bangamiye	-10.6335
agizwe	-10.6338
watangiye	-10.6338
▁ibihangano	-10.634
ikiyaga	-10.6341
▁ukumva	-10.6341
genze	-10.6342
▁baby	-10.6345
gatatu	-10.6353
▁uzajya	-10.6353
bihangano	-10.6357
komeze	-10.6357
▁shoferi	-10.6358
▁benjamin	-10.6358
▁bwagiye	-10.6365
▁kugurishwa	-10.6365
▁ashinzwe	-10.6366
uburayi	-10.6368
▁iteganya	-10.6371
▁yezu	-10.6371
▁gutandukany	-10.6377
inkunga	-10.6397
hangayikishije	-10.64
▁sp	-10.64
▁apotre	-10.6411
twari	-10.6414
ububaji	-10.6415
kid	-10.6421
▁babura	-10.6423
▁play	-10.6423
▁bakibaza	-10.6425
▁amakenga	-10.6426
▁wagiye	-10.6429
▁uheruka	-10.6431
kirwa	-10.6433
▁yavukiye	-10.6436
▁vision	-10.6437
▁tpi	-10.6439
covid	-10.6441
izafasha	-10.6441
▁uturuka	-10.6444
ora	-10.6444
ahanishwa	-10.6445
▁mugari	-10.6451
▁ishingiye	-10.6454
inkiko	-10.6455
tre	-10.6455
ihaye	-10.6455
▁yokwiteg	-10.6456
▁hatari	-10.6457
vyahahora	-10.6458
bwira	-10.6459
as	-10.6463
▁jules	-10.647
▁burusiya	-10.647
▁ije	-10.647
▁qui	-10.6472
garagaramo	-10.6474
▁hatandukanye	-10.6476
▁youth	-10.6478
▁kwigaragaza	-10.6479
tanzwe	-10.6481
▁irusha	-10.6482
▁saidi	-10.6482
▁rugiye	-10.6493
▁zanjye	-10.6494
kekwaho	-10.6496
▁urwaye	-10.6497
▁mubare	-10.6503
vuga	-10.6504
▁ij	-10.6508
▁dar	-10.6509
▁kubakira	-10.651
ifuzaga	-10.6512
zuka	-10.6515
ushinzwe	-10.6516
▁ti	-10.6516
mwa	-10.6519
ubwubatsi	-10.6522
▁serukiramuco	-10.6527
▁bahereye	-10.6528
▁bucumi	-10.6528
▁brown	-10.653
▁kubuza	-10.6534
hize	-10.6535
▁nzabonima	-10.6544
duka	-10.6547
▁umup	-10.6552
▁mubano	-10.6558
▁baz	-10.6559
tekereza	-10.6561
bumvise	-10.6562
▁kunyura	-10.6568
amacumbi	-10.6569
▁kabera	-10.657
▁mico	-10.6571
ingamba	-10.6572
gitekerezo	-10.6572
▁call	-10.6573
▁yakiriwe	-10.6574
▁ubarizwa	-10.6574
ubujura	-10.6574
▁binjira	-10.6576
▁mori	-10.6577
▁est	-10.6579
abarimu	-10.658
▁kamenge	-10.6586
mbaraga	-10.6586
▁cancer	-10.6588
▁burimo	-10.6591
▁impaka	-10.6592
akinnye	-10.6592
▁zitera	-10.6595
▁kuru	-10.6597
▁yababwiye	-10.6599
shuli	-10.66
▁umuhanga	-10.6601
▁azira	-10.6603
▁ikireg	-10.6604
yinywa	-10.6605
▁nkaho	-10.6607
▁byanze	-10.6608
▁season	-10.6609
teganyijwe	-10.6612
▁bifitanye	-10.6614
▁yakoreshejwe	-10.6615
▁rikorera	-10.6615
▁bikurikira	-10.6616
▁ibikorerwa	-10.663
imishinga	-10.6636
▁ukoresha	-10.6636
▁bashobor	-10.6637
▁mwarimu	-10.6638
▁nshaka	-10.6645
▁butinyanka	-10.6645
▁amara	-10.6645
▁gucukura	-10.6645
▁revenu	-10.6646
▁cyber	-10.6648
▁inyigo	-10.6648
▁sheikh	-10.6649
▁obama	-10.6649
▁gihanga	-10.6651
▁ingurane	-10.6654
yicuruza	-10.6656
▁brb	-10.6656
▁ntawuku	-10.6659
▁tho	-10.666
herutse	-10.6663
umushumba	-10.6666
▁banywanyi	-10.6668
hanzwe	-10.6669
▁ubucuti	-10.6672
▁iyitwa	-10.6673
▁bagakomeza	-10.6675
▁imirwano	-10.6677
murwa	-10.6679
abibonye	-10.6682
shyaka	-10.6685
abuze	-10.6686
▁yanenz	-10.6687
kawa	-10.6687
▁kubyo	-10.669
▁jup	-10.6691
imigabane	-10.6696
igisha	-10.6697
▁steve	-10.6699
▁media	-10.6701
hindura	-10.6706
▁mito	-10.6707
cor	-10.6708
▁gukubita	-10.6711
▁kugirira	-10.6715
▁afungiye	-10.6718
iyamiriza	-10.6723
▁rwabereye	-10.6724
ndetse	-10.6727
nini	-10.6727
ubutwari	-10.6729
bishyimbo	-10.6736
▁ny	-10.6738
▁azize	-10.674
gereranya	-10.6745
fitanye	-10.6748
▁gutabara	-10.6748
▁yaza	-10.6754
▁hon	-10.6757
nk	-10.6758
▁kanda	-10.6759
▁qubec	-10.6763
▁tujya	-10.6764
▁dan	-10.6765
▁ntabanduka	-10.6765
▁magendu	-10.6768
uno	-10.6769
▁kum	-10.6769
kabuza	-10.677
▁ntangere	-10.6771
uhoraho	-10.6772
dasaba	-10.6774
▁bafasha	-10.6774
▁gusumba	-10.6782
▁aloys	-10.6782
▁mpa	-10.6782
hava	-10.6783
▁umw	-10.6786
▁muvyo	-10.6793
et	-10.6794
▁ababwira	-10.6799
shyiraho	-10.68
sura	-10.6801
▁inaha	-10.6802
abashakashatsi	-10.6807
new	-10.6809
▁hashingi	-10.6811
▁ibis	-10.6812
urugaga	-10.6817
▁cyiswe	-10.6818
▁buta	-10.6819
▁ministries	-10.6824
kagabo	-10.6825
▁ubucuku	-10.6827
▁byatanzwe	-10.6834
▁ntihagire	-10.6835
bagiye	-10.6838
▁ateka	-10.6838
▁atletico	-10.6839
▁ntebe	-10.684
imbaga	-10.6845
▁nkunda	-10.6848
intwari	-10.685
▁sant	-10.6851
▁kuryama	-10.6852
▁gushimangir	-10.686
▁begukanye	-10.686
bashakira	-10.686
▁bazira	-10.686
▁navyo	-10.6877
▁mafisango	-10.6883
▁rugerero	-10.6883
▁agerageza	-10.6884
ishimwe	-10.6887
▁unique	-10.6887
▁umenye	-10.6887
ajyanwa	-10.6888
▁bakabasha	-10.6888
▁mukindo	-10.6896
▁hambere	-10.6897
▁aturutse	-10.6898
▁benedict	-10.6899
▁gicamunsi	-10.69
▁yasinye	-10.6904
acitse	-10.6908
▁imigwi	-10.6909
ubuhinga	-10.6909
▁rutare	-10.6912
▁ubukana	-10.6912
urubuga	-10.6918
▁atar	-10.6919
▁dosiye	-10.6925
▁bugera	-10.6925
▁zifata	-10.6929
▁aim	-10.6929
▁twaba	-10.693
▁ibara	-10.6939
facebook	-10.6941
▁icenda	-10.6942
ishingiye	-10.6944
▁tubibutse	-10.6944
▁gitwaza	-10.6946
▁utanga	-10.6948
▁buhagaze	-10.6948
ivuriro	-10.6949
▁guhiga	-10.6952
▁impamyabumenyi	-10.6956
▁imiyoborere	-10.6956
▁kamabuye	-10.6956
▁thadde	-10.6957
zirikana	-10.6959
umuvunyi	-10.6964
▁sina	-10.6969
▁hoba	-10.6973
ashatse	-10.6975
▁kubivuga	-10.6982
ny	-10.6984
▁bakamu	-10.6988
ishobora	-10.6993
urira	-10.6993
ar	-10.6996
▁rwawe	-10.6996
iteka	-10.6998
▁kubeshya	-10.7003
▁fdd	-10.7005
▁mabanki	-10.7005
▁jadf	-10.7005
▁umwanda	-10.7006
akabije	-10.7007
umubare	-10.7008
▁yazo	-10.701
▁ruzind	-10.7016
▁kiel	-10.7019
▁kumubona	-10.702
▁ataha	-10.702
▁twakoze	-10.7022
▁byitezwe	-10.7025
▁gitaha	-10.7026
▁umuriyoni	-10.7026
▁buriya	-10.7026
anya	-10.7027
▁nina	-10.7027
▁abazo	-10.7028
▁par	-10.7029
▁ngeso	-10.7035
umukozi	-10.7037
ibutso	-10.704
▁babafata	-10.7051
abarore	-10.7051
▁yagejeje	-10.7057
▁bashyirwa	-10.7057
▁bitabaye	-10.7062
air	-10.7063
martin	-10.7066
▁beach	-10.7068
▁ateganya	-10.7072
▁dusanzwe	-10.7072
▁mpano	-10.7074
▁kilometero	-10.7074
suzuma	-10.7076
▁kutabona	-10.708
▁ahakana	-10.7083
▁gusobanur	-10.7085
▁batoye	-10.7085
ibiyag	-10.7086
cungira	-10.7088
▁byan	-10.7089
▁yifashishije	-10.7091
▁agaruka	-10.7096
ubwitabir	-10.7096
pa	-10.7099
▁babuze	-10.7101
urw	-10.7102
ndura	-10.7104
afunze	-10.7105
▁amikoro	-10.7106
inkari	-10.7112
zajya	-10.7114
▁byara	-10.7114
▁don	-10.7117
emereye	-10.7118
gizwe	-10.7122
▁abasaga	-10.7124
sigaye	-10.7126
▁ngororamubiri	-10.7128
▁zitatu	-10.7129
▁donald	-10.7129
▁waryo	-10.713
▁bahati	-10.7135
amashuli	-10.7135
▁nkurikiye	-10.7137
ingufu	-10.7138
hungabana	-10.7139
▁nkaba	-10.7145
▁bugezweho	-10.7149
▁wabyo	-10.7149
▁karuko	-10.7151
▁phil	-10.7151
▁gatera	-10.7152
lily	-10.7154
▁wambaye	-10.7154
▁urwa	-10.7154
▁eddy	-10.7155
▁byerekana	-10.716
▁andre	-10.7164
▁kwaduka	-10.7165
▁abadandaza	-10.7167
▁partage	-10.7168
▁kwiha	-10.7171
ahize	-10.7178
▁intore	-10.7179
▁ibirego	-10.7179
▁abahabwa	-10.7183
▁kurera	-10.7186
▁ashikiriza	-10.7187
▁rutembe	-10.7191
▁juvenal	-10.7191
▁gospel	-10.7194
▁amabere	-10.7194
mugozi	-10.7195
anisha	-10.7195
▁kuriha	-10.7196
▁birumvikana	-10.7196
▁kuruhuka	-10.7198
▁yashikirije	-10.7199
▁djuma	-10.7205
abonaga	-10.7206
▁yasize	-10.7207
▁icyongereza	-10.7208
▁anavuga	-10.7211
eurs	-10.7211
juru	-10.7212
▁ujye	-10.7214
▁habe	-10.7215
▁udupfukamunwa	-10.7215
▁cari	-10.7216
shatsi	-10.7228
▁eu	-10.7234
▁ziriya	-10.7237
▁bigisha	-10.7237
▁yatsindiye	-10.7238
▁gas	-10.724
rifuza	-10.7243
▁kurandura	-10.7244
▁dukoresh	-10.7245
imyitozo	-10.7245
▁azwiho	-10.7252
▁mai	-10.7252
iburayi	-10.7255
tsinzi	-10.7256
▁zije	-10.7259
▁dieudonn	-10.726
▁bibuga	-10.726
▁gutinda	-10.7261
▁manzi	-10.7261
▁buza	-10.7261
munezero	-10.7265
agutse	-10.7267
im	-10.7272
wca	-10.7274
▁kwihangana	-10.7274
va	-10.7277
irangira	-10.728
▁turebe	-10.7285
agaragajwe	-10.7285
▁jrm	-10.7286
ers	-10.729
bicishije	-10.7294
lin	-10.7294
menyekana	-10.7295
abajejwe	-10.7297
▁bicaye	-10.7297
nzwe	-10.7303
▁fred	-10.7308
▁icyari	-10.7309
▁S	-10.7309
intangarugero	-10.7312
angijwe	-10.7313
ababa	-10.7314
itora	-10.7315
▁bib	-10.7316
▁hakiyongera	-10.7317
▁mucuruzi	-10.7317
▁kumbuga	-10.7323
hagarikwa	-10.7324
amacakubiri	-10.7328
▁yishimira	-10.7328
aremera	-10.7331
▁zishyirwa	-10.7337
▁buzaba	-10.7339
agahabwa	-10.734
▁mugiraneza	-10.7341
gufasha	-10.7345
▁cyita	-10.7346
▁ryakozwe	-10.7346
▁mvugo	-10.7348
▁korohereza	-10.7353
▁uhuza	-10.7355
imitwe	-10.7361
mabuye	-10.7361
hitamo	-10.7362
▁hatangiye	-10.7363
abaririmvyi	-10.7376
▁bivugwako	-10.7376
▁min	-10.7379
▁obed	-10.7379
▁farg	-10.7379
▁myandagaro	-10.7379
▁bahanganye	-10.7383
▁views	-10.7384
▁llb	-10.7385
▁ibigwanisho	-10.7385
▁kumubwira	-10.739
▁masengesho	-10.7392
lady	-10.7392
mukozi	-10.7393
geneye	-10.7395
ah	-10.7396
asoza	-10.7398
▁ikina	-10.7402
▁impeta	-10.7402
rigira	-10.7404
▁gifasha	-10.7404
abashinzwe	-10.7405
▁bagenerwa	-10.741
▁itegurwa	-10.7413
▁gitera	-10.7417
shi	-10.7419
inkuru	-10.742
kinyobwa	-10.7428
nyeshuli	-10.7429
riwe	-10.743
atunguwe	-10.7433
abakora	-10.7434
ubatswe	-10.7435
▁kubigish	-10.744
▁busuwisi	-10.7443
▁made	-10.7444
▁kabuga	-10.7445
▁athletic	-10.7448
umuhondo	-10.745
▁csk	-10.745
umurundi	-10.7451
mail	-10.7452
▁ryiza	-10.7453
▁abashakanye	-10.7453
▁cyerekezo	-10.7456
▁iran	-10.7457
▁gite	-10.7458
iperereza	-10.7458
▁ge	-10.7459
rirwa	-10.7461
amaboko	-10.7463
▁giterwa	-10.7465
▁bwihuse	-10.7468
▁ngoro	-10.7469
▁imbibe	-10.7469
▁wavuye	-10.7471
mbuye	-10.7475
izamu	-10.7477
amande	-10.7477
▁yambara	-10.7481
ib	-10.7483
▁byazamutse	-10.7483
T	-10.7491
▁bafashwa	-10.7498
▁bahurira	-10.7499
▁bakabi	-10.7502
umuko	-10.7504
▁babe	-10.7506
majambo	-10.7506
▁karegeya	-10.7507
▁pam	-10.7507
▁gicuti	-10.7507
ikubiyemo	-10.7508
▁tuta	-10.7508
▁kirwa	-10.751
▁ingaragu	-10.7512
▁kwibohora	-10.7513
▁gucuranga	-10.7513
▁iteye	-10.7515
▁muzinga	-10.7515
indashyikirwa	-10.7517
google	-10.7518
twitter	-10.7518
ikinyarwanda	-10.7519
▁mary	-10.752
▁yabigarutseho	-10.7522
▁gutunga	-10.7523
▁usengimana	-10.7523
aguzwe	-10.7523
▁fatizo	-10.7524
rebana	-10.7526
▁kwaka	-10.7526
▁ahasanzwe	-10.7528
▁abazi	-10.7528
kiriho	-10.753
akatiwe	-10.7537
▁joe	-10.7538
amavuta	-10.7541
nza	-10.7551
ishimira	-10.7554
▁igendanwa	-10.7556
baramaze	-10.7563
▁rev	-10.7563
▁ibisasu	-10.7565
▁abigisha	-10.7569
dutangarije	-10.757
kigaragaza	-10.7572
▁peace	-10.7572
iboneye	-10.7573
▁gikondo	-10.7574
▁cyera	-10.7574
▁yishyura	-10.7574
ganya	-10.7575
▁byagarutswe	-10.7577
ishe	-10.7578
▁bamusaba	-10.7579
▁producer	-10.758
first	-10.758
▁gukomera	-10.7581
▁life	-10.7584
impanuka	-10.7584
▁imbib	-10.7586
▁bacika	-10.7587
▁kubahirizwa	-10.7589
savye	-10.7589
▁ibyari	-10.759
▁kurekurwa	-10.7591
▁barara	-10.7591
▁imbunda	-10.7592
genda	-10.7592
▁kut	-10.7594
nyi	-10.7603
▁zar	-10.7603
▁amafunguro	-10.7604
▁bigezweho	-10.7606
▁frodebu	-10.761
▁bakoreye	-10.7617
ahanganye	-10.7618
kumva	-10.7625
▁rubangura	-10.7632
▁arena	-10.7633
▁ubwiherero	-10.7633
abakuze	-10.7636
mara	-10.7637
▁christine	-10.7639
▁igitum	-10.764
▁bus	-10.764
▁jimmy	-10.764
dakwiye	-10.7649
j	-10.765
igifaransa	-10.7652
abaziz	-10.7652
▁akorana	-10.7652
umumenyereza	-10.7652
ihuse	-10.7653
rayo	-10.7656
▁ishure	-10.7657
▁ngorane	-10.766
▁rba	-10.766
gakoko	-10.766
sozwa	-10.7662
▁guhurira	-10.7662
▁acibwa	-10.7669
▁kizajya	-10.7675
bajwe	-10.7679
▁yashatse	-10.768
▁gushimisha	-10.768
munota	-10.7688
▁nababwira	-10.7691
▁buroko	-10.7691
karengane	-10.7693
bamotari	-10.7695
▁ruzi	-10.7696
▁wifuza	-10.7696
▁zizakomeza	-10.7699
kurikirana	-10.7702
▁gutaramir	-10.7706
▁biziyaremye	-10.7707
▁wubatse	-10.7709
▁imbwa	-10.7709
▁iwayo	-10.7709
▁bura	-10.7711
▁kwivuriza	-10.7712
▁ramadhan	-10.7713
▁obr	-10.7714
▁gihan	-10.7717
ihariye	-10.7719
▁urabona	-10.7719
amashyamba	-10.772
abavuga	-10.7721
▁cyan	-10.7722
▁itandukaniro	-10.7724
ahantu	-10.7727
▁bwishyura	-10.7731
▁ugushaka	-10.7732
shinjwa	-10.7736
▁ubwonko	-10.7738
orohereza	-10.774
▁imbonerakure	-10.7743
afashwe	-10.7747
▁rwitwa	-10.7747
▁asimbuye	-10.7755
▁va	-10.7758
bwo	-10.7766
▁wishwe	-10.7767
▁fnl	-10.7767
ixte	-10.7767
ategerezwa	-10.777
▁hirindw	-10.777
▁uruhu	-10.7772
▁sarpong	-10.7773
▁ethiopie	-10.7774
▁ntiya	-10.7774
▁rema	-10.7776
▁wo	-10.7782
▁ntahinyuzwa	-10.7787
tagira	-10.7791
▁ifunguro	-10.7792
imihanda	-10.7793
▁mishya	-10.7795
▁uruhara	-10.7796
▁kwegerez	-10.7798
▁bakura	-10.7799
▁kuzirikana	-10.7802
sanga	-10.7802
▁utazi	-10.7803
inzira	-10.7804
▁ida	-10.7808
▁bikekwa	-10.7809
abigisha	-10.7815
yigo	-10.7816
▁uga	-10.7817
▁yiyongereye	-10.7817
▁bwabyo	-10.7817
▁festival	-10.782
▁vyashikirijwe	-10.7824
▁iriko	-10.7826
▁yitaba	-10.7826
ganira	-10.7829
ishavu	-10.7831
▁azana	-10.7833
▁chantal	-10.7834
▁usaba	-10.7837
▁atm	-10.7838
▁bidatinze	-10.784
▁basura	-10.7841
▁way	-10.7841
▁rujya	-10.7842
▁cyaba	-10.7842
▁birababaje	-10.7846
▁rishyira	-10.7848
▁fest	-10.7849
▁munama	-10.785
▁ryashyizwe	-10.7855
▁yashinjw	-10.7855
hembwa	-10.7858
▁yajan	-10.7858
▁kwihanganira	-10.786
tazongera	-10.7862
▁gusigasir	-10.7863
▁bubatse	-10.7864
atoranyijwe	-10.7865
▁yegukana	-10.7869
▁yaratanze	-10.7871
▁watu	-10.7871
▁yabonaga	-10.7873
▁byafashwe	-10.7874
▁berekeje	-10.7878
ika	-10.7888
▁baruwa	-10.7893
▁mbonyi	-10.7897
rehe	-10.7898
▁abasenateri	-10.79
▁anastase	-10.7903
vugurura	-10.7904
▁entertainment	-10.7904
▁nico	-10.7904
▁mitungo	-10.7905
▁byibuze	-10.7905
▁kugirwa	-10.7906
▁vi	-10.7907
fata	-10.7908
▁chameleone	-10.7909
▁shure	-10.7913
▁pop	-10.7921
umupolisi	-10.7922
▁makungu	-10.7925
▁anita	-10.7927
▁urugwiro	-10.7928
▁hagakurikira	-10.7931
nisha	-10.7931
▁yiyahuye	-10.7931
▁yarangiye	-10.7936
▁atekereza	-10.7938
▁barebe	-10.7941
▁imigenderanire	-10.7942
▁abashe	-10.7943
▁bitegekanijwe	-10.7944
▁umushikirizaman	-10.7946
▁itsindwa	-10.7947
man	-10.7948
▁akurikirwa	-10.7949
▁hat	-10.7952
ugarijwe	-10.7954
ahura	-10.7955
kandi	-10.7955
amwe	-10.7959
agire	-10.796
▁baja	-10.7961
▁umunyamerika	-10.7968
▁ribivuga	-10.7971
▁mpungenge	-10.7971
▁gutegereza	-10.7973
umunani	-10.7973
▁ndikuriyo	-10.7977
▁yanavuze	-10.7977
▁mupolisi	-10.7978
ashimishije	-10.7983
▁fiston	-10.7983
▁zivuye	-10.7984
gaho	-10.7986
▁mabanga	-10.7993
▁bongeye	-10.7994
▁cyatsinzwe	-10.7997
ane	-10.8
▁kiro	-10.8004
▁nshimirimana	-10.8004
▁umufasha	-10.8006
▁gukundwa	-10.8007
▁ababo	-10.8009
▁bicuruzwa	-10.801
▁batubwira	-10.801
ahabereye	-10.8012
▁kwambur	-10.8019
▁ububi	-10.8022
matungo	-10.8023
▁abavyeyi	-10.8026
▁yabona	-10.8031
bana	-10.8032
shyamba	-10.8034
▁agahigo	-10.8035
▁spears	-10.8035
script	-10.8035
▁tuzaba	-10.8035
▁pacifique	-10.8036
▁mpita	-10.8036
▁rukumbi	-10.8036
▁migambwe	-10.8036
▁patient	-10.8039
▁bihano	-10.804
▁kwisobanura	-10.804
▁bavandimwe	-10.804
amour	-10.8041
ubuganga	-10.8043
amikoro	-10.8048
subiza	-10.8052
▁gisigaye	-10.8055
▁byacu	-10.8056
amufashe	-10.8058
▁babizi	-10.8059
▁ashima	-10.806
liza	-10.8062
ibitego	-10.8062
▁ryabaye	-10.8063
▁gusangira	-10.8064
abanyamerika	-10.8065
zakira	-10.8066
bashije	-10.8066
aguze	-10.8067
▁ikana	-10.8069
▁kugan	-10.8075
▁babitangaje	-10.8078
bashigikiye	-10.8078
▁icyumba	-10.8082
▁watangijwe	-10.8082
▁national	-10.8083
▁guhagararir	-10.8083
▁ruguru	-10.8085
▁kuvugisha	-10.8086
umwuga	-10.8087
▁del	-10.8091
ikiganiro	-10.8093
▁queen	-10.8094
▁inkoko	-10.8104
ngira	-10.8106
▁britney	-10.8107
ikintu	-10.8113
▁umwigisha	-10.8113
dafise	-10.8114
▁byumba	-10.8118
abarokotse	-10.8119
▁diyosez	-10.8121
▁wamaze	-10.8124
▁ngira	-10.8129
ubutungane	-10.813
akababaro	-10.8132
akaba	-10.8134
▁amadini	-10.8134
▁ukoze	-10.814
igitaramo	-10.8142
▁kwangiza	-10.8147
▁ivyiyumviro	-10.8148
kenera	-10.815
ryo	-10.8152
turanye	-10.8155
urunani	-10.8155
▁bakorewe	-10.816
▁umucamanza	-10.8162
ubahirije	-10.8167
▁amakarita	-10.8169
▁ross	-10.8171
▁soma	-10.8172
▁catholi	-10.8173
▁republi	-10.8176
▁bizagenda	-10.8177
▁cankuzo	-10.8177
▁green	-10.8177
▁isesengura	-10.8181
▁yasohotse	-10.8181
ubushake	-10.8183
▁abura	-10.8186
▁isugi	-10.8188
▁binag	-10.8191
kanye	-10.8191
▁kuha	-10.8192
nen	-10.8193
▁tuna	-10.8196
abiri	-10.8196
inkorano	-10.8197
▁bwis	-10.8199
abakene	-10.8201
teraniye	-10.8202
el	-10.8204
▁amabi	-10.8205
▁byageze	-10.8205
rekurwa	-10.8206
▁argentine	-10.8207
sanze	-10.8208
ibisasu	-10.8213
gerageje	-10.8215
▁siku	-10.8223
▁yewe	-10.8224
hahoze	-10.8227
gakomeza	-10.8228
▁huriro	-10.8229
▁murimo	-10.8232
shyiramo	-10.8232
▁cte	-10.8235
▁tuka	-10.8235
▁koreya	-10.8236
ababwiye	-10.8236
▁post	-10.8238
ronse	-10.8239
tangaza	-10.8239
▁sugar	-10.8243
▁makimbirane	-10.8245
▁kwihuta	-10.8252
▁fidele	-10.8254
▁imirambo	-10.8258
▁woba	-10.826
▁impuguke	-10.8264
▁tanu	-10.8264
▁numwe	-10.8265
▁ineza	-10.8265
abatarenz	-10.8266
▁bonyine	-10.8269
ly	-10.8271
abakoresha	-10.8272
ayisumbuye	-10.8272
▁riza	-10.8278
▁umurava	-10.8281
bahaye	-10.8282
▁naco	-10.8283
gurwa	-10.8286
▁butum	-10.8287
▁urujya	-10.8288
▁bareba	-10.8288
▁batab	-10.8289
rerekana	-10.8289
fashije	-10.8289
▁bipimo	-10.8296
abakenyezi	-10.8297
▁gisa	-10.8299
bibafasha	-10.8303
▁nyirizina	-10.8311
▁yasaba	-10.8313
▁imiho	-10.8313
▁show	-10.8315
▁kariy	-10.8318
▁gerageza	-10.8319
▁mwuka	-10.8319
▁mumu	-10.8319
▁bagasanga	-10.8322
▁yitwara	-10.8323
▁yaberaga	-10.8325
abarabu	-10.8329
▁ukabije	-10.833
▁kwimurir	-10.8331
▁habereye	-10.8331
▁yariko	-10.8331
bye	-10.8334
▁bubiko	-10.8335
zagerageza	-10.8335
uruhande	-10.8337
▁yatsinda	-10.8338
▁yigisha	-10.8341
▁byavuzwe	-10.8342
▁yinjira	-10.8342
nyigo	-10.8343
▁reb	-10.835
▁izamuka	-10.8356
▁hasu	-10.8362
▁bigoranye	-10.8366
▁ajye	-10.8368
▁nijoro	-10.837
▁ufata	-10.8371
kinira	-10.8373
rwaye	-10.8374
yemo	-10.8378
▁banyuze	-10.8379
▁bite	-10.8379
▁zacharie	-10.838
▁umusaza	-10.838
▁sonatube	-10.8381
iwacu	-10.8382
▁melody	-10.8384
ndimwo	-10.8386
▁gusatira	-10.8389
terankunga	-10.8393
itandukanyije	-10.8395
▁zigira	-10.8398
▁wine	-10.8399
▁arashaka	-10.8402
▁bakeka	-10.8407
fungwa	-10.8413
▁bizim	-10.8419
▁bafunzwe	-10.8419
imyigaragambyo	-10.8423
dukwiye	-10.8428
▁kage	-10.8428
▁akamenyesha	-10.8431
▁bakagera	-10.8433
yobora	-10.8435
▁una	-10.8438
▁ziva	-10.844
imfura	-10.8443
▁gutembera	-10.8443
▁wazo	-10.8448
▁kuzo	-10.8448
▁bareka	-10.8449
▁airlines	-10.845
▁kuyinyw	-10.8451
wafashe	-10.8453
▁minisante	-10.8454
▁naje	-10.8457
▁kiretse	-10.8458
vugizi	-10.8459
▁bakoraga	-10.8459
▁sngal	-10.8461
yezu	-10.8461
▁kwari	-10.8461
▁arthur	-10.8463
▁yagenze	-10.8465
▁diddy	-10.8471
video	-10.8472
kwe	-10.8472
abamaze	-10.8474
▁guhererekany	-10.8474
▁masomo	-10.8475
mbo	-10.8475
kabakaba	-10.8476
▁ivan	-10.8476
urutonde	-10.8477
bakangurira	-10.8482
genekerezo	-10.8488
▁uje	-10.8493
▁bibumbiye	-10.8497
ikwiye	-10.8498
amaso	-10.8503
▁bebe	-10.8503
ahamagaye	-10.8505
▁kardashian	-10.8509
dakunze	-10.8509
▁nkenguzamateka	-10.8511
shingamateka	-10.8513
the	-10.8516
▁yine	-10.8518
▁birangira	-10.8519
▁turquoise	-10.8521
▁buyapani	-10.8521
▁nimugoroba	-10.8521
▁clarisse	-10.8522
▁kaburimbo	-10.8524
▁satani	-10.8524
▁zidane	-10.8525
▁bushoboka	-10.8526
▁shop	-10.8527
▁ikirori	-10.8529
▁manywa	-10.8532
▁gukosora	-10.8533
▁byagezweho	-10.8539
▁leone	-10.854
▁babishaka	-10.8542
yatunguye	-10.8544
▁bakame	-10.8545
▁baharanira	-10.8547
▁agatanga	-10.8551
▁sud	-10.8552
▁batara	-10.8552
▁zihari	-10.8552
▁bafatanya	-10.8553
huguwe	-10.8559
▁agahaz	-10.856
▁urumuri	-10.8562
▁byamu	-10.8566
agiranye	-10.8567
▁yakuye	-10.8567
▁byaturutse	-10.8569
▁kwirukana	-10.857
▁km	-10.8574
▁abakiri	-10.8578
menyereza	-10.8582
zifashishwa	-10.8584
▁urya	-10.8584
▁stadium	-10.8588
ikiza	-10.8588
rutse	-10.8588
▁gaspard	-10.8592
▁tablet	-10.8593
▁marc	-10.8596
kundwa	-10.8597
▁mpunzi	-10.8598
kugeza	-10.8599
▁kigera	-10.86
bagezaho	-10.8601
▁gusinyish	-10.8601
fa	-10.8603
▁gor	-10.8603
▁bagi	-10.8604
▁back	-10.8614
amadini	-10.862
▁bitekerezo	-10.8622
erra	-10.8624
▁abarimyi	-10.8625
uburimyi	-10.8632
▁sekaman	-10.8634
yerekwa	-10.8635
ababiligi	-10.8635
ibirayi	-10.8635
▁abanyonzi	-10.8642
os	-10.8642
muhire	-10.8644
▁kige	-10.8646
▁bunini	-10.8653
▁hanga	-10.8656
abinjira	-10.8656
amuteye	-10.866
ajyaga	-10.8662
ishyura	-10.8663
▁mugezi	-10.8665
▁ruto	-10.8666
buhamya	-10.8668
▁inspect	-10.867
▁tottenham	-10.8671
ubuhumekero	-10.8671
senateri	-10.8673
makuru	-10.8674
▁sawa	-10.8674
▁nyandwi	-10.8674
▁kuzigama	-10.8674
▁kubyina	-10.8675
egeranye	-10.8677
heza	-10.868
etse	-10.8683
▁munyank	-10.8685
▁basiganwa	-10.8685
amatagisi	-10.8687
▁photo	-10.8689
▁vyavuye	-10.8692
▁nyamaswa	-10.8693
▁ibisheke	-10.8695
▁gihari	-10.8695
tion	-10.8696
▁bireba	-10.8696
▁abat	-10.8697
▁batagomba	-10.8699
▁muga	-10.8701
▁yatombo	-10.8701
▁guinea	-10.8704
▁biteze	-10.8709
▁kurira	-10.871
inzoka	-10.8712
▁rishya	-10.8713
▁amafi	-10.8714
ongeye	-10.8718
▁yenda	-10.872
bifitiye	-10.8722
▁cp	-10.8722
bwiyongere	-10.8722
▁hubakwa	-10.8724
▁bihagaze	-10.8728
▁ntayo	-10.8729
▁yegereye	-10.8731
▁yasobanuri	-10.8732
▁ube	-10.8733
▁kabone	-10.8735
▁gusezerera	-10.8738
▁rweru	-10.874
▁zanzibar	-10.8741
▁bihana	-10.8744
kuba	-10.8748
▁zizwi	-10.8754
▁ubwenegihugu	-10.8757
byoherezwa	-10.8759
▁nkusi	-10.8759
ff	-10.8762
▁ukumenya	-10.8765
▁basanganywe	-10.8773
▁mahiganwa	-10.8777
▁berekanye	-10.8779
▁year	-10.8779
kiganiro	-10.878
ibicuruzwa	-10.8783
▁abagiye	-10.8784
zenguruka	-10.8785
icya	-10.8787
amo	-10.8788
icyubahiro	-10.8796
hamagarira	-10.8802
ingagi	-10.8802
▁yubatse	-10.8802
gure	-10.8803
▁jos	-10.8804
▁yabahaye	-10.8805
itwaye	-10.8809
kina	-10.881
▁gore	-10.881
genzura	-10.8811
▁ruhagaze	-10.8812
▁libya	-10.8812
▁atyo	-10.8813
▁kwamamara	-10.8815
😂	-10.8817
▁banyamuryango	-10.8822
▁bakaguma	-10.8825
▁indabo	-10.8826
gamo	-10.8828
gabanuka	-10.8828
▁yabajijwe	-10.8828
▁base	-10.8833
▁kungana	-10.8834
▁ibera	-10.8835
K	-10.8838
▁bakiriye	-10.8839
▁rwayo	-10.8839
▁gabriel	-10.884
akekwaho	-10.8841
▁mudende	-10.8841
▁ukaza	-10.8842
amakomine	-10.8846
▁baze	-10.8848
ton	-10.885
ance	-10.8851
▁abdul	-10.8858
bityo	-10.8859
▁mwumva	-10.8863
ita	-10.8866
bukode	-10.8866
boneza	-10.8867
▁lodge	-10.887
▁wambere	-10.8875
ngwa	-10.8876
hesha	-10.888
B	-10.8883
▁junior	-10.8883
▁ndadaye	-10.8883
akagombye	-10.8884
▁majyambere	-10.8884
▁atabona	-10.8884
▁,	-10.8885
▁brarudi	-10.8886
▁misigaro	-10.8886
ubudandaji	-10.8887
yoborwa	-10.8889
▁bemera	-10.8889
amabwiriza	-10.8889
gendeye	-10.8889
▁nsanga	-10.8891
▁nusu	-10.8892
▁bacye	-10.8892
▁kumubaza	-10.8892
ivugabutumwa	-10.8895
▁kuzifata	-10.8895
abashe	-10.8896
umwigeme	-10.89
▁umuturanyi	-10.89
▁ashoboye	-10.8901
▁hakozwe	-10.8902
▁mipaka	-10.8903
▁bemeje	-10.8907
▁gukurura	-10.8909
▁zihanganye	-10.891
▁urwango	-10.8911
▁ahagaze	-10.8917
▁cyihariye	-10.892
igiciro	-10.892
▁kumenyereza	-10.8924
▁abone	-10.8925
▁asize	-10.8926
abarwayi	-10.8929
atangazwa	-10.893
▁isengesho	-10.893
▁iserukiramuco	-10.8931
▁amagaju	-10.8934
amavubi	-10.8934
▁byahise	-10.8936
imico	-10.8936
S	-10.8939
urugomo	-10.8943
▁point	-10.8943
ay	-10.8944
▁izahita	-10.895
▁imeze	-10.8951
▁zifasha	-10.8954
▁bwiwe	-10.8955
▁mikuru	-10.8958
▁uwizeyimana	-10.8959
▁kuvurirwa	-10.896
▁kinazi	-10.8962
▁kugezwa	-10.8965
▁bakab	-10.8966
▁alphonse	-10.8967
▁rizwi	-10.8967
imigambwe	-10.8967
▁akarorero	-10.8968
▁bategura	-10.8969
shingiye	-10.897
▁ikizamini	-10.8971
▁kwiyahura	-10.8973
▁kwihangir	-10.8978
G	-10.8981
▁azashyirwa	-10.8985
▁wayne	-10.8986
yaragize	-10.8988
▁yabyaye	-10.8988
▁akaryo	-10.8989
▁hagize	-10.8992
▁um	-10.8992
▁bida	-10.8996
▁nkawe	-10.9002
atete	-10.9005
C	-10.9005
▁zabaye	-10.9006
▁areba	-10.9011
▁nimwe	-10.9023
shimangira	-10.9024
▁tugira	-10.9026
▁nyigisho	-10.9029
▁clement	-10.9031
abashaka	-10.9031
▁okapi	-10.9032
▁katauti	-10.9032
▁sindikubwabo	-10.9032
▁gratien	-10.9032
▁umusirikar	-10.9036
▁baheruka	-10.9037
▁uriko	-10.9038
▁rwaruka	-10.9039
▁mil	-10.904
wahuje	-10.9041
▁ip	-10.9042
abonye	-10.9042
▁umwete	-10.9045
▁tuk	-10.9047
▁mahia	-10.9048
▁babikunda	-10.9048
▁twamu	-10.9049
▁😂	-10.905
iruhuko	-10.905
▁gifata	-10.9052
▁kora	-10.9053
tewe	-10.9059
▁rwaba	-10.9059
ibinyabuzima	-10.906
azakomeza	-10.9065
abimana	-10.9066
▁yaherukaga	-10.907
ifaranga	-10.9072
▁shami	-10.9075
▁baturany	-10.9076
▁bidahu	-10.9085
▁andr	-10.9085
ngabo	-10.9085
impano	-10.9088
▁umurwa	-10.9088
icyongereza	-10.9089
▁yagira	-10.9089
gumiza	-10.909
akangurira	-10.9096
▁zavuye	-10.9097
▁iphone	-10.9099
▁ndeb	-10.9103
hanze	-10.9104
▁serge	-10.9106
komeretsa	-10.9107
▁usigaye	-10.9107
▁umugenzu	-10.9107
▁bamenya	-10.9109
▁insti	-10.911
▁nyabyo	-10.911
▁yashinzwe	-10.9111
▁nelson	-10.9112
▁ibrahim	-10.9113
madosiye	-10.9114
▁dynamo	-10.9117
▁icyangombwa	-10.9119
▁rock	-10.912
▁gatuna	-10.912
▁zihagarara	-10.9124
sohora	-10.9125
▁drones	-10.9127
aboneraho	-10.9127
ngewe	-10.9129
▁bongere	-10.9131
avuzwe	-10.9133
ctis	-10.9134
▁bwaje	-10.9136
▁ili	-10.9138
▁inkingi	-10.914
▁kwicara	-10.9144
▁batinya	-10.9146
ashyikirijwe	-10.9147
abagoror	-10.9147
ant	-10.9149
tugize	-10.9151
▁bahatuye	-10.9155
ishakiye	-10.9156
▁nyirayo	-10.9157
zongera	-10.9162
agace	-10.9164
▁igikoresh	-10.9164
utoza	-10.9169
▁amatohoza	-10.9169
▁ugashi	-10.9172
▁binyamakuru	-10.9173
▁wari	-10.9174
▁amashyi	-10.9175
aserukira	-10.9176
baganga	-10.9177
▁bizo	-10.9177
▁kubice	-10.9179
ategetse	-10.9179
▁abazungu	-10.9181
▁bikomoka	-10.9181
▁gahongayire	-10.9183
healing	-10.9183
▁cool	-10.9184
▁sarongo	-10.9185
▁kikavuga	-10.9186
▁transport	-10.9186
▁solange	-10.9186
▁kazihise	-10.9186
▁byamamare	-10.9187
▁bikabije	-10.9187
▁intare	-10.9188
▁bishingiye	-10.9188
atsinzwe	-10.919
▁banyeshure	-10.919
▁ndahiro	-10.919
▁ngomba	-10.9191
▁amadolari	-10.9191
▁amaguru	-10.9196
▁emile	-10.9197
umusi	-10.92
▁uburyohe	-10.9202
▁patriot	-10.9205
▁cyawe	-10.9205
▁azahura	-10.9205
imirima	-10.9209
▁abenegihugu	-10.921
▁butanga	-10.9216
caption	-10.9216
▁ndashaka	-10.9217
▁bazana	-10.9221
▁poritike	-10.9224
▁bishimishije	-10.9225
aylor	-10.9227
buze	-10.9234
erekani	-10.9235
▁utangira	-10.9236
▁ugana	-10.9239
vu	-10.924
▁yitegura	-10.9243
imikorani	-10.9243
▁davido	-10.9244
▁utuma	-10.9254
▁authority	-10.9259
atoza	-10.9261
▁senderi	-10.9262
tandukanya	-10.9264
▁mwa	-10.9265
▁ndayisaba	-10.9266
▁kano	-10.9266
iyindi	-10.9267
▁association	-10.9268
zumuremyi	-10.9269
▁village	-10.927
▁ubura	-10.927
▁rwaje	-10.9272
amuhaye	-10.9272
▁bock	-10.9278
▁lydi	-10.928
▁wange	-10.9281
asuraga	-10.9283
▁kuryamana	-10.9286
boneka	-10.9292
▁kwitegurira	-10.9298
▁umukecuru	-10.9298
ibitangazamakuru	-10.9299
imi	-10.9303
iyemeza	-10.9303
▁mimi	-10.9303
▁park	-10.9309
tinya	-10.9311
▁kigira	-10.9311
kagere	-10.9312
nsi	-10.9313
▁leon	-10.9313
▁ntitu	-10.9314
▁akamu	-10.9319
▁maze	-10.9321
umushahara	-10.9321
igihumbi	-10.9324
itegurwa	-10.9325
▁bugiye	-10.9327
impuguke	-10.9327
▁az	-10.9327
iwawa	-10.9328
imyumvire	-10.9328
▁banza	-10.9329
▁bahig	-10.9329
buye	-10.9333
▁yakanguri	-10.9335
▁deborah	-10.9337
▁muha	-10.9339
ina	-10.934
avugira	-10.9341
▁akamo	-10.9342
▁jackson	-10.9342
▁gitwari	-10.9343
▁bobo	-10.9346
▁kumufata	-10.9346
▁gitego	-10.9346
▁twavuze	-10.9347
▁kuntu	-10.9348
▁myitwarire	-10.9349
▁birwa	-10.935
▁bacururiza	-10.9352
▁induru	-10.9352
▁irakoze	-10.9358
abarimo	-10.936
▁inkiko	-10.9361
▁mutuz	-10.9361
▁kubyaz	-10.9363
▁inyishu	-10.9367
ikenewe	-10.9371
▁bije	-10.9372
▁yakora	-10.9376
magazinecom	-10.9376
▁mbili	-10.938
gihembo	-10.9381
▁impanuro	-10.9384
abishoboye	-10.9387
▁yaririmbye	-10.9388
itanu	-10.9391
▁iha	-10.9391
▁kubamo	-10.9392
yagenewe	-10.9394
kinshasa	-10.9396
igihangange	-10.9403
▁yarakoze	-10.9403
ore	-10.9404
▁imitsi	-10.9405
▁mtu	-10.9405
▁nza	-10.941
▁sheki	-10.9414
▁bize	-10.9414
▁tekinike	-10.9415
▁bubaka	-10.9415
▁apfa	-10.9416
▁mugice	-10.9417
▁uki	-10.9417
ritish	-10.9417
▁akarengany	-10.9419
▁isuzuma	-10.942
▁kumenyera	-10.9421
▁bakira	-10.9422
▁nyakuri	-10.9424
▁intyozacom	-10.9425
▁kayibanda	-10.9425
▁izagwa	-10.9428
▁kwiheba	-10.943
▁gifaransa	-10.9433
▁umunyamideli	-10.9433
▁nyirabahi	-10.9436
▁azaza	-10.9436
buranira	-10.9436
ejeje	-10.944
▁bashumb	-10.9441
▁kumwereka	-10.9443
▁gutangazwa	-10.9445
bubasha	-10.9448
akundaga	-10.945
iyoboye	-10.9452
▁akurikiran	-10.9452
▁imisatsi	-10.9453
▁mvut	-10.9458
impuhwe	-10.9458
▁bahagaze	-10.946
▁bajyanwa	-10.9461
jojo	-10.9461
▁harabaye	-10.9461
ateje	-10.9462
▁ryisumbuye	-10.9473
▁witwaye	-10.9473
▁muzi	-10.9475
▁insengero	-10.9475
barokotse	-10.9477
inkumi	-10.948
▁school	-10.948
▁buja	-10.9481
▁ruka	-10.9481
ipfuza	-10.9482
abahanga	-10.9483
begereye	-10.9483
▁binjiza	-10.9484
ishimirwa	-10.9486
cmp	-10.9486
aronse	-10.949
▁abagwayi	-10.9491
▁gucibwa	-10.9492
▁avurw	-10.9493
▁ahavugwa	-10.9493
▁bagwanyi	-10.9493
▁jobs	-10.9494
▁kimisagara	-10.9495
kiriyo	-10.9497
▁kwishima	-10.95
muntu	-10.95
▁muhabura	-10.9501
▁abajya	-10.9502
▁christ	-10.9502
▁gifumb	-10.9503
▁gabiro	-10.9504
ubucuku	-10.9505
▁yannick	-10.9507
▁kwe	-10.9507
▁byishimo	-10.9509
▁kwangirika	-10.951
abyaranye	-10.9512
▁yavuzwe	-10.9512
▁dukeneye	-10.9512
▁rukeneye	-10.9513
agumije	-10.9514
gendanwa	-10.9516
kopf	-10.9519
▁utera	-10.9519
▁bapolisi	-10.9519
kigero	-10.9522
ibyorezo	-10.9523
▁amahano	-10.9523
▁ishingiro	-10.9525
▁rwf	-10.9528
uwundi	-10.9529
▁action	-10.9531
abereye	-10.9531
▁amarira	-10.9533
taraboneka	-10.9533
▁bamaranye	-10.9534
ahitamo	-10.9539
barizwamo	-10.9541
reshya	-10.9542
▁ubwawe	-10.9547
ingano	-10.9548
▁wageze	-10.955
▁rwahuje	-10.9551
inkoko	-10.9552
reresi	-10.9553
▁igitutu	-10.9556
nganire	-10.9558
myanzuro	-10.9559
▁bwar	-10.9561
▁karate	-10.9563
▁kanwa	-10.9563
▁gutahur	-10.9565
▁que	-10.9566
▁nshingwa	-10.957
▁noheli	-10.9571
▁thade	-10.9574
kabuye	-10.9574
▁micung	-10.9575
▁plus	-10.9575
▁gusiba	-10.9576
babarira	-10.9578
akarorero	-10.9579
▁inyarwanda	-10.958
ipatant	-10.9581
▁abanyamideli	-10.9582
▁byuzuye	-10.9586
biceri	-10.9587
renga	-10.9588
▁kurekura	-10.959
▁twabaye	-10.9592
▁byashize	-10.9592
▁yavaga	-10.9592
biciwe	-10.9595
rereye	-10.9595
▁impfubyi	-10.9596
▁ushira	-10.9598
▁kubabarira	-10.9602
resitora	-10.9603
abwiwe	-10.9604
▁bashikirizw	-10.9604
▁kibaye	-10.9608
rwanira	-10.9612
W	-10.9617
▁band	-10.9618
erekeye	-10.9619
korewe	-10.9623
▁yemewe	-10.9624
▁social	-10.9627
▁zaje	-10.9627
ahamagawe	-10.9629
▁batayo	-10.9629
▁kubwe	-10.9631
▁yake	-10.9634
▁amatara	-10.9635
▁abagoro	-10.9643
ibihano	-10.9643
akanama	-10.9646
hly	-10.9648
▁intumbero	-10.965
▁babarirwa	-10.965
arikumwe	-10.965
▁girma	-10.965
▁dominique	-10.9651
▁malariya	-10.9651
▁uburari	-10.9653
▁vanessa	-10.9654
ndumva	-10.9655
▁gutorwa	-10.9655
▁lick	-10.9657
▁urujijo	-10.9657
▁arrow	-10.9661
reij	-10.9663
▁muhanzikazi	-10.9667
umushinga	-10.9668
▁bushasha	-10.9671
ndwi	-10.9671
cibwa	-10.9671
▁umuram	-10.9676
▁teta	-10.9679
▁bwafatan	-10.968
ukwakira	-10.9683
reye	-10.9685
igabanya	-10.9687
anze	-10.9689
▁kubafata	-10.9689
▁bigizwe	-10.9694
▁ryacu	-10.9697
ahembwa	-10.9697
▁kwongera	-10.9705
▁wema	-10.9706
evic	-10.9708
anyuma	-10.971
▁ryar	-10.9711
▁amakori	-10.9718
▁byemejwe	-10.9718
▁af	-10.9719
▁yak	-10.972
▁habaga	-10.9722
umurengera	-10.9722
▁bashinja	-10.9728
▁swift	-10.973
▁sylvestre	-10.973
▁bazanye	-10.9731
kotanyi	-10.9731
D	-10.9731
aline	-10.9733
tuye	-10.9734
▁udu	-10.9739
▁gorilla	-10.9741
▁bizabera	-10.9743
▁apfuye	-10.9745
▁bataramenyekana	-10.9747
▁jr	-10.9748
▁ikinamico	-10.9752
▁mukunda	-10.9752
▁bihenze	-10.9756
▁kazungu	-10.9756
▁bijyanwa	-10.9764
bakomeze	-10.9767
▁zitwa	-10.9767
▁ndimo	-10.9769
▁costa	-10.9774
ubutumw	-10.9776
huje	-10.9777
▁urangira	-10.9778
▁bavugaga	-10.9782
▁izabafash	-10.9783
▁nguvu	-10.9786
▁quarti	-10.9789
▁imfungwa	-10.979
▁yasigaye	-10.9791
ibagirwa	-10.9793
fadikanij	-10.9804
bimenyesha	-10.9807
erekeje	-10.9809
▁mpanabyaha	-10.9811
▁zitarahunguka	-10.9811
▁luanda	-10.9811
▁investment	-10.9811
▁labama	-10.9811
▁kaberuka	-10.9812
niye	-10.9815
▁haruna	-10.9815
▁siyansi	-10.9816
▁mourinho	-10.9818
▁ndoli	-10.982
ikibuga	-10.9821
▁terefone	-10.9821
▁rurema	-10.9823
umutuku	-10.9825
▁kidumu	-10.9827
aturutse	-10.9829
▁abikora	-10.983
▁gupim	-10.9831
▁cyagiye	-10.9834
▁yongereye	-10.9838
▁akarengane	-10.9841
▁gutakaza	-10.9841
▁grand	-10.9842
aratangajwe	-10.9842
▁salaam	-10.9843
▁bigaragarir	-10.9846
menyeshamakuru	-10.9846
▁bidashoboka	-10.9847
▁di	-10.9848
izigera	-10.9853
▁agashimwe	-10.9853
▁riz	-10.9857
hindagurika	-10.9857
▁rugaragara	-10.9859
▁kwishyuz	-10.986
kurikirwa	-10.9867
▁germain	-10.9871
▁kumufasha	-10.9871
▁ruherereye	-10.9872
▁yaha	-10.9874
bare	-10.9879
▁bobi	-10.9879
agerwaho	-10.9882
▁ikoze	-10.9882
▁biyambaj	-10.9883
tazigera	-10.9883
▁diyoseze	-10.9884
▁bimeny	-10.9886
▁nshasha	-10.9888
▁time	-10.9888
rutoki	-10.9889
▁baramu	-10.989
▁mutanga	-10.989
▁oswald	-10.9892
▁rurerure	-10.9892
▁seychelles	-10.9893
▁london	-10.9893
ubugeni	-10.9893
▁kacyiru	-10.9894
▁iduka	-10.9894
▁zibishinzwe	-10.9896
▁sop	-10.9896
▁yashishikarij	-10.9897
▁indimi	-10.9901
▁biraboneka	-10.9902
▁byereke	-10.9906
shimiye	-10.991
kigali	-10.991
nzero	-10.9911
▁washaka	-10.9911
▁amasengesho	-10.9912
▁uruhushya	-10.9912
▁donna	-10.9913
▁joro	-10.9913
▁wahise	-10.9914
▁umunyeshure	-10.9914
▁tuga	-10.9914
▁abagizwe	-10.9923
▁ubwatsi	-10.9924
▁wako	-10.9926
herekejwe	-10.9935
▁wabonaga	-10.9937
bourg	-10.9937
amzo	-10.9943
▁ham	-10.9943
▁hasanzwe	-10.9943
N	-10.9952
▁abagiriz	-10.9952
ijima	-10.9954
▁gikora	-10.9955
▁bazoba	-10.9956
▁abacu	-10.9957
▁zion	-10.9962
atunganije	-10.9968
▁karenge	-10.9969
▁kigenda	-10.9969
saac	-10.9969
▁bigatera	-10.997
azokwitwara	-10.9973
▁myiyama	-10.9974
▁pulasitik	-10.9974
▁mirwano	-10.9974
▁mukarwem	-10.9976
▁utuntu	-10.9976
onyene	-10.9976
▁bcr	-10.9978
abatari	-10.9979
▁style	-10.998
tura	-10.9981
▁roma	-10.9981
zohuza	-10.9982
▁zitemewe	-10.9982
teganyagihe	-10.9983
rwaga	-10.9984
anofi	-10.9987
▁imyirondo	-10.9991
▁kibe	-10.9992
▁gako	-10.9992
tubwira	-10.9993
▁bigari	-11.0006
mutashye	-11.001
ucuruza	-11.001
ibya	-11.0011
uro	-11.0011
▁umenya	-11.0015
▁twi	-11.0017
oroshe	-11.0017
▁bimu	-11.0021
▁buriho	-11.0024
menyesha	-11.0026
▁saba	-11.0031
uhura	-11.0034
▁hagenda	-11.0035
▁umusatirizi	-11.0036
▁abasivili	-11.0036
▁kwera	-11.0039
▁zine	-11.004
▁afashe	-11.0041
▁abdoul	-11.0043
▁gusezerana	-11.0044
▁bagishik	-11.0045
▁abagwanyi	-11.0046
▁ibanza	-11.0048
rumva	-11.0051
▁batajya	-11.0052
orali	-11.0054
▁johannesburg	-11.0056
▁stromae	-11.0058
▁guhagarikwa	-11.0059
▁gupfobya	-11.0062
▁nicolas	-11.0065
uruhare	-11.0065
fitaniye	-11.0066
▁itunganya	-11.0066
▁safal	-11.0066
▁mwene	-11.0067
▁ugukunda	-11.0068
ingirakamaro	-11.0072
▁migambi	-11.0073
▁gihindur	-11.0073
ashakisha	-11.0073
▁kwishyurwa	-11.0073
tegerezwa	-11.0076
▁bashoye	-11.0077
kosora	-11.0077
▁th	-11.0078
tuelle	-11.0078
harangwa	-11.0079
▁ntaganda	-11.0081
▁nivy	-11.0082
ririmba	-11.0083
▁inc	-11.0084
baza	-11.0084
▁cyatuma	-11.0085
▁cyanjye	-11.0085
▁uda	-11.0085
yavuze	-11.0086
??	-11.0086
iburyo	-11.0088
▁abanye	-11.0088
horaho	-11.0088
▁kamba	-11.0089
▁ntekereza	-11.0104
vogera	-11.0105
▁gufashanya	-11.0106
▁yageraga	-11.0108
▁koroshy	-11.0114
bigeraho	-11.012
kura	-11.0124
agenze	-11.0124
▁ugushyira	-11.0125
ino	-11.0125
pima	-11.0133
guha	-11.0138
▁bajyaga	-11.0139
RwOT	-11.014
▁ponceuse	-11.014
▁milan	-11.0143
▁huduma	-11.0143
▁bagwayi	-11.0143
rerwa	-11.0144
atumiwemo	-11.0144
▁icyatum	-11.0144
inguzanyo	-11.0146
▁kenzo	-11.0147
ihingiraga	-11.0147
▁wena	-11.0148
amagr	-11.0148
▁algerie	-11.0149
▁imibu	-11.0149
▁sahara	-11.015
▁azatangira	-11.015
▁uzabona	-11.0152
▁kibungo	-11.0152
bikoreshwa	-11.0154
▁biravugwa	-11.0155
▁gutorera	-11.0156
▁jan	-11.0156
▁batar	-11.0158
▁mp	-11.0158
▁ruyigi	-11.016
generwa	-11.0161
▁abagwany	-11.0163
akurikiranyweho	-11.0164
umuyaga	-11.0165
▁hapfa	-11.0169
amasomo	-11.0169
buryo	-11.0174
▁nte	-11.0175
▁bagasaba	-11.0176
yrwa	-11.0176
▁rwacu	-11.018
▁amase	-11.0193
subira	-11.0196
▁yatinze	-11.0197
▁ikireng	-11.0202
▁kworoz	-11.0202
▁bugaragara	-11.0206
rwe	-11.0208
▁kun	-11.0212
▁hiyo	-11.0212
bimwe	-11.0213
▁yashobora	-11.0217
ahuriye	-11.0219
▁award	-11.0219
▁twar	-11.0219
▁yaturutse	-11.0222
▁abategura	-11.0223
▁derulo	-11.0224
▁galaxy	-11.0224
▁gukinirwa	-11.0224
kumira	-11.0226
▁rukingo	-11.0226
▁yaganiriye	-11.0227
▁manishimwe	-11.0227
gereza	-11.0228
fatiye	-11.0229
myambaro	-11.023
▁hii	-11.0231
▁kwibasirwa	-11.0232
▁muvunyi	-11.0233
tishoboye	-11.0234
inyubako	-11.0234
▁yose	-11.0234
▁rugwiro	-11.0235
icenda	-11.0235
R	-11.0236
henze	-11.0236
▁cyongereza	-11.0237
▁mbarushimana	-11.024
gipimo	-11.024
▁kirundi	-11.0241
▁rifash	-11.0245
▁gasig	-11.0245
▁aja	-11.0247
▁gusobanurir	-11.0248
ihindagurik	-11.0253
▁bisata	-11.0254
zibera	-11.0255
▁bapfan	-11.0255
bashimiye	-11.0257
▁gusukur	-11.0262
ibirwa	-11.0269
eruye	-11.0275
tesha	-11.0277
vyavuye	-11.0278
▁il	-11.028
amasasu	-11.0287
▁barya	-11.0293
▁yasubiye	-11.0302
▁yatangajwe	-11.0307
novic	-11.0307
yakoresha	-11.0308
▁jenocide	-11.0309
▁supt	-11.031
▁bisesero	-11.0312
▁ruhengeri	-11.0312
▁ntibishoboka	-11.0315
▁byanatumye	-11.0316
▁mushasha	-11.0317
▁mac	-11.0318
▁centrafrique	-11.0318
▁xavier	-11.0321
▁bibuka	-11.0324
aramaze	-11.0326
iranzi	-11.0326
▁agasanga	-11.0327
imyama	-11.0328
▁buteye	-11.0328
▁macye	-11.0329
▁mibanire	-11.0331
gwaga	-11.0334
▁pac	-11.0334
▁yatuma	-11.0338
emmy	-11.034
▁bwihariye	-11.0341
fc	-11.0342
▁umuganwa	-11.0343
▁atsinda	-11.0343
uwu	-11.0343
▁yatorewe	-11.0347
▁imitahe	-11.0348
ugomba	-11.0349
▁bihuza	-11.0351
abimukira	-11.0351
arie	-11.0353
▁yahamijwe	-11.0357
shoboka	-11.0359
kugira	-11.0366
sohotse	-11.0367
amuguriye	-11.0368
miye	-11.0368
nyamabanga	-11.0373
▁bella	-11.0378
▁bwa	-11.0379
hana	-11.0382
▁turasab	-11.0385
▁abakerarugendo	-11.0386
▁yandika	-11.0386
kani	-11.0387
igaragaza	-11.0392
▁joyeuse	-11.0394
▁tifo	-11.0394
▁gushyingura	-11.0396
▁rirashe	-11.0396
▁miterere	-11.0397
▁gushiraho	-11.0399
▁kug	-11.0399
▁zikajya	-11.0401
inkondo	-11.0403
▁zikiri	-11.0406
▁nakoze	-11.0408
uzajya	-11.041
▁yapfiriye	-11.0415
▁bwigunge	-11.0417
arunguru	-11.042
tumye	-11.042
▁bavutse	-11.0421
▁ruzoba	-11.0421
▁free	-11.0423
shora	-11.0425
▁bipfuza	-11.0426
▁ura	-11.0427
ikorwa	-11.043
ubuhanga	-11.0432
▁zig	-11.0432
▁akubwira	-11.0434
yimana	-11.0434
▁kundi	-11.0439
babwiye	-11.0441
▁bucuku	-11.0442
girwa	-11.0447
▁kutoka	-11.0451
▁ibarizwa	-11.0452
▁nz	-11.0459
yabiri	-11.046
▁yihuta	-11.0463
▁kwishyira	-11.0464
▁ritanga	-11.0465
▁hatob	-11.0466
▁steven	-11.0466
banje	-11.0467
▁zatuma	-11.0473
▁bwizacom	-11.0475
▁cyahoze	-11.0477
▁ntwaro	-11.0479
▁nzabamwita	-11.048
atigeze	-11.0481
▁australia	-11.0482
▁bidasubirwaho	-11.0482
yagize	-11.0483
▁iyamuremye	-11.0484
▁plc	-11.0486
▁gukaza	-11.0488
▁ndayizeye	-11.0489
▁yabasha	-11.049
▁ngarambe	-11.049
ateganya	-11.0491
▁agashya	-11.0495
genewe	-11.0495
byakira	-11.0499
▁murugamba	-11.05
▁hashyizwe	-11.0501
▁intererano	-11.0501
▁mushiki	-11.0501
▁kwisiga	-11.0503
gikomeza	-11.0504
▁bahejeje	-11.0509
ehe	-11.0511
▁tuvuga	-11.0511
abakundana	-11.0512
Rwanda	-11.0514
▁kir	-11.0518
▁kizwi	-11.052
▁france	-11.0522
▁kelly	-11.0524
bonera	-11.0524
▁ikozwe	-11.053
uruhu	-11.0534
▁makum	-11.0535
▁urusengero	-11.0535
▁rukiri	-11.0535
▁bakazi	-11.0536
▁umusozi	-11.0537
kibazo	-11.0538
▁bwaho	-11.0539
akabaye	-11.0541
hasanga	-11.0542
▁muhungu	-11.0544
umusonga	-11.0544
il	-11.055
shikiriza	-11.0552
▁san	-11.0553
▁yahavuye	-11.0554
gusubiriza	-11.0556
▁buhoraho	-11.0565
▁batan	-11.0566
▁inkeke	-11.0569
aux	-11.057
▁camera	-11.057
▁fardc	-11.0571
▁madiba	-11.0571
▁ta	-11.0571
yide	-11.0572
▁binyobwa	-11.0572
▁rutamu	-11.0572
▁bavugwa	-11.0574
▁bwatanzwe	-11.0577
atazokwemer	-11.0579
ahinduye	-11.0587
▁bakamenya	-11.0587
▁araza	-11.0589
▁yohani	-11.0595
zakomeza	-11.0596
birango	-11.0597
▁cyakozwe	-11.0598
▁yasezerewe	-11.0598
amusabye	-11.0602
hagira	-11.0605
▁yafunzwe	-11.0607
▁inoti	-11.061
aramuka	-11.0611
▁bitangazamakuru	-11.0613
▁nyaka	-11.0613
▁igiti	-11.0614
▁ncur	-11.0619
▁yakoreraga	-11.062
ture	-11.062
isesengura	-11.0622
▁umukiriya	-11.0624
ylan	-11.0627
▁yarimo	-11.0632
ruhuko	-11.0632
▁abakene	-11.0634
usoza	-11.0636
▁minwe	-11.064
rongowe	-11.0646
nka	-11.0647
isabwa	-11.0649
bibabaje	-11.065
▁nsanzabaga	-11.0652
▁sepetu	-11.0655
▁rwagasana	-11.0655
▁ikagera	-11.0655
▁kwambuka	-11.0655
▁ub	-11.0657
▁guhumeka	-11.0657
ukomeje	-11.0659
umukiza	-11.0661
abajyanama	-11.0661
▁ndabona	-11.0661
▁haracyari	-11.0662
▁johnson	-11.0662
▁biriho	-11.0664
▁bashyizwe	-11.0665
mbitswe	-11.0665
ard	-11.0665
▁bakinnye	-11.0666
▁gukiza	-11.0667
▁bumamuru	-11.0668
ikitegererezo	-11.0669
▁yateranye	-11.067
uburinganire	-11.0673
▁ntari	-11.0673
▁mashini	-11.0675
kwirakwira	-11.0678
abahaye	-11.0679
▁biyongera	-11.068
myaka	-11.068
▁tanganyika	-11.068
▁yagera	-11.068
kwemerera	-11.0681
▁hatabaye	-11.0682
enyene	-11.0682
bungabunga	-11.0684
abasanzwe	-11.0692
▁aime	-11.0695
▁bitaga	-11.0698
umvise	-11.0699
▁cash	-11.0699
rezo	-11.07
oshobora	-11.0701
▁ntare	-11.0701
avugaga	-11.0702
ukurikije	-11.0703
penzi	-11.0704
tiro	-11.0707
▁bafashany	-11.0708
▁umufana	-11.0708
▁flori	-11.0709
▁rugera	-11.0711
ubusabe	-11.0712
bika	-11.0713
motors	-11.0713
ity	-11.0714
aburiwe	-11.0716
▁patric	-11.0721
▁iteganyijwe	-11.0722
▁hazakorw	-11.0722
ibihangano	-11.0724
aratangaje	-11.0725
ingoma	-11.0726
▁bur	-11.0727
goye	-11.0731
▁abaje	-11.0731
ingene	-11.0731
umwambar	-11.0735
▁avuze	-11.0739
shyira	-11.0741
icuruzwa	-11.0742
▁kanjo	-11.0744
▁nyamvumba	-11.0745
▁byakorewe	-11.0745
▁kenyatta	-11.0746
▁irenze	-11.0747
atsindiye	-11.0749
hamya	-11.0749
▁turize	-11.0749
▁maremare	-11.0754
dusaba	-11.0757
time	-11.0763
▁hada	-11.0763
▁akantu	-11.0768
inshingano	-11.0768
abanye	-11.0769
abanyeshure	-11.0769
rurembo	-11.0772
▁umujinya	-11.0773
▁tubamenyeshe	-11.0773
▁rwandiko	-11.0777
▁yatanguye	-11.0779
ihutirwa	-11.0785
▁ribaye	-11.0785
▁gutema	-11.0788
▁imvano	-11.0792
koreramwo	-11.0794
▁byibasi	-11.0796
gugu	-11.0799
▁myumvire	-11.0799
▁azenguruka	-11.0802
kwibutsa	-11.081
▁bwerekanye	-11.0812
▁zika	-11.0813
▁imyuka	-11.0814
ifurije	-11.0815
▁bull	-11.0817
▁mariya	-11.0818
▁flavor	-11.0833
▁jerome	-11.0833
▁sebutege	-11.0833
▁melchior	-11.0833
▁tmc	-11.0834
▁cyangugu	-11.0834
▁gusezererwa	-11.0835
▁busingye	-11.0835
▁gusubizwa	-11.0835
▁ntezirya	-11.0836
▁cooperative	-11.0836
▁bibagora	-11.0837
▁rotar	-11.0837
▁zikoresha	-11.0843
▁cyayi	-11.0843
▁kwitwararika	-11.0848
▁ivyig	-11.0849
▁nor	-11.085
▁guhugura	-11.0851
▁arivyo	-11.0854
▁zakunzwe	-11.0856
▁bay	-11.086
▁mumutwe	-11.086
zakoreshwa	-11.086
▁with	-11.0863
abizeza	-11.0867
butasi	-11.0869
▁kurongora	-11.0869
▁ibaci	-11.087
▁gusomana	-11.0872
▁gifise	-11.0872
▁giterane	-11.0879
▁imiriyaridi	-11.0881
▁ikagira	-11.0882
vc	-11.0887
bijumba	-11.0888
▁byarangiye	-11.089
▁imyuga	-11.0891
▁byemezwa	-11.0892
▁kazoza	-11.0893
▁tut	-11.0896
taliki	-11.0902
muhanga	-11.0903
ahitwa	-11.0905
ilima	-11.0905
ibiri	-11.0906
▁ciza	-11.0908
▁bamwereka	-11.091
amazina	-11.091
abitangaje	-11.0919
▁bahera	-11.0919
▁agahora	-11.0919
▁worship	-11.0923
▁magufuli	-11.0923
▁shalom	-11.0923
▁makoperative	-11.0923
▁meghan	-11.0924
▁djabel	-11.0924
▁gukomeretsa	-11.0926
▁rgb	-11.093
▁aid	-11.093
▁tuzakomeza	-11.093
sigaranye	-11.0933
▁azagera	-11.0936
▁conference	-11.0938
▁umumaro	-11.094
▁hategek	-11.0941
▁go	-11.0945
▁bahuje	-11.0946
umuceri	-11.0951
imishahara	-11.0951
▁bikajya	-11.0954
ukwa	-11.0956
abanywanyi	-11.0956
▁murek	-11.0957
ugu	-11.0957
ihohoterwa	-11.0958
▁bingana	-11.0961
▁hak	-11.0963
▁atsinze	-11.0966
▁barwana	-11.0967
nafite	-11.0967
▁nibaza	-11.0967
garutse	-11.0968
raho	-11.097
▁ikinwa	-11.0971
▁indoto	-11.0972
▁mb	-11.0973
▁adashak	-11.0975
▁ubwisanzure	-11.0979
▁position	-11.098
mashanyarazi	-11.0985
koze	-11.0985
▁imirw	-11.0985
genga	-11.0989
remy	-11.0989
ngiriza	-11.0991
▁rugomb	-11.0991
abashingamateka	-11.0993
▁imitak	-11.0993
▁iv	-11.0994
▁gusimbura	-11.0995
▁indashyikirwa	-11.0999
▁bawu	-11.1003
▁mr	-11.1004
▁bariyer	-11.1005
▁unicef	-11.1014
▁bipfubusa	-11.1014
▁felix	-11.1015
▁valens	-11.1015
▁ngirente	-11.1016
▁smart	-11.1017
▁final	-11.1018
▁fizzo	-11.1018
▁emery	-11.1018
▁umutesi	-11.1018
▁kirazira	-11.102
▁kumvikanisha	-11.1021
umunaniro	-11.1023
▁mwijima	-11.1023
cy	-11.1024
▁gold	-11.1026
bijejwe	-11.1026
onese	-11.1028
▁bambuka	-11.1029
▁ap	-11.103
▁this	-11.103
▁kuma	-11.1031
umweru	-11.1033
amagana	-11.1034
▁cyagaragaye	-11.1034
▁kwib	-11.1034
imidugudu	-11.1038
▁ud	-11.1039
ngoga	-11.1041
▁bishize	-11.1042
umuraperi	-11.1042
▁bashinjwa	-11.1044
▁bishikirizwa	-11.1045
soma	-11.1046
▁mikorobe	-11.1048
▁gucyur	-11.105
ibikorwaremezo	-11.1052
itirirwa	-11.1054
▁bagwaye	-11.1055
▁ntarama	-11.1058
▁repubu	-11.1058
▁uwiringiyima	-11.1059
▁abangavu	-11.1061
▁Kwa	-11.1065
▁bakenera	-11.1066
inho	-11.1069
▁barenze	-11.1071
▁ivya	-11.1075
hagaritse	-11.1082
▁ivugururwa	-11.1085
▁batoranyijwe	-11.1085
ubutayu	-11.1085
▁cyabonetse	-11.1086
▁abarizwa	-11.1087
▁tuzajya	-11.1088
dashaka	-11.1091
▁ntabaku	-11.1093
▁turashak	-11.1095
▁iyari	-11.1097
▁imiduga	-11.1104
▁rikomez	-11.1104
▁clip	-11.1106
adutangarije	-11.1107
▁community	-11.1107
▁batarishyurwa	-11.1108
▁niyongabo	-11.1109
agufasha	-11.111
▁wabimburi	-11.1111
rasabwa	-11.1111
▁yipfuza	-11.1112
▁williams	-11.1114
rambye	-11.1115
▁ivyamwa	-11.1116
arabashije	-11.1116
▁twubaka	-11.1118
▁baduha	-11.112
▁utwite	-11.1122
▁yatunguwe	-11.1126
▁imizi	-11.1128
ungo	-11.1132
▁mbumbe	-11.1133
▁nduwimana	-11.1133
bujumbura	-11.1137
▁kid	-11.1142
yoboye	-11.1142
▁mwami	-11.1143
▁kitagomba	-11.1143
H	-11.115
▁moussa	-11.1152
▁ibyabo	-11.1154
▁bashima	-11.1159
inyota	-11.1159
▁yujuje	-11.1162
▁nange	-11.1162
▁yatandukanye	-11.1166
▁kan	-11.1167
ababazwa	-11.1174
▁lac	-11.1177
▁wanyu	-11.118
▁laurent	-11.118
▁byawe	-11.1187
▁bazava	-11.1187
▁wanditse	-11.1188
buri	-11.1193
sabiye	-11.1195
▁god	-11.1198
▁munich	-11.1199
▁bisobanurwa	-11.1199
▁bunyuranyij	-11.1199
azakorwa	-11.1201
▁nar	-11.1201
▁mugisagara	-11.1202
▁mandela	-11.1202
▁narirya	-11.1202
▁ballon	-11.1204
atangiriye	-11.1205
tte	-11.1207
▁ubwigenge	-11.1209
▁Uyu	-11.1213
▁kunguka	-11.1215
▁dufise	-11.1217
emewe	-11.1223
turutse	-11.1223
wavu	-11.1223
guriye	-11.1227
▁madini	-11.1228
▁mane	-11.1229
▁arushaho	-11.123
▁rpa	-11.1234
▁masosiyet	-11.1234
▁byagaragajwe	-11.1236
umunyamuryango	-11.1238
ibutsa	-11.1239
▁cassa	-11.1239
ubwenge	-11.124
mari	-11.1241
▁twakira	-11.1242
▁bakagenda	-11.1242
muhungu	-11.1244
zana	-11.1247
▁yarayi	-11.1248
ibuka	-11.1248
mutungo	-11.1252
▁imashin	-11.1253
▁hatangwa	-11.1255
▁barimu	-11.1261
▁rigeze	-11.1268
bakuze	-11.1272
▁wagira	-11.1274
▁abanyepolitik	-11.1274
abacamanza	-11.1275
▁ikiguzi	-11.1275
impande	-11.1277
mbibi	-11.128
ahagaritswe	-11.1281
▁ibikorwaremezo	-11.1282
▁guhahira	-11.1282
▁ex	-11.1284
kana	-11.1284
▁yabikoze	-11.1285
▁mvuga	-11.1286
▁kutumv	-11.1286
▁agura	-11.1287
▁journal	-11.1288
asobanuye	-11.129
iciriritse	-11.1291
▁ihenze	-11.1293
pantalo	-11.1293
▁navuga	-11.1294
umbira	-11.1299
▁yumvikana	-11.13
▁butemewe	-11.13
mahiganwa	-11.1304
▁kwibaruka	-11.1304
▁mukan	-11.1305
▁utar	-11.1306
gihari	-11.1306
▁mpaka	-11.1307
esha	-11.1308
sobanura	-11.1309
▁kungurana	-11.1311
▁boo	-11.1312
▁impumuro	-11.1312
dakomeza	-11.1314
▁barebye	-11.1316
▁biha	-11.1317
▁yeguye	-11.1318
▁visa	-11.132
kenura	-11.1324
abandanije	-11.1326
umvaga	-11.1327
menyerewe	-11.1328
imigenderanire	-11.1328
impungenge	-11.1329
ibihembo	-11.1329
abakirisitu	-11.133
▁sosiyet	-11.1332
▁zizere	-11.1334
▁wabona	-11.1335
bonekamo	-11.1339
yubakire	-11.1341
▁ubugenzu	-11.1341
▁nyange	-11.1341
eux	-11.1342
▁marines	-11.1344
vuza	-11.1344
▁yawo	-11.1345
agateka	-11.1351
▁tun	-11.1353
▁buka	-11.1355
▁uharanira	-11.1358
bisabira	-11.1361
tangira	-11.1361
▁kina	-11.1362
▁zikunzwe	-11.1362
▁bamuha	-11.1363
▁hazubakw	-11.1368
smara	-11.1375
▁intanga	-11.1378
afatwaga	-11.1382
▁ariya	-11.1383
▁abahinga	-11.1384
▁kubonera	-11.1385
gendekeye	-11.1385
▁temple	-11.1386
▁nsengumuremyi	-11.1386
▁ikiremwamuntu	-11.1386
▁marcellin	-11.1387
▁forbes	-11.1387
▁katolika	-11.1388
▁dortmund	-11.1388
semburo	-11.1389
▁yashoboye	-11.1389
▁sahwanya	-11.139
zabera	-11.139
▁kuzuzanya	-11.139
▁rudovi	-11.1391
amapawundi	-11.1393
▁yambere	-11.1393
▁issa	-11.1393
▁muza	-11.1394
▁rigezweho	-11.1395
▁gukenera	-11.1395
▁imvo	-11.1395
▁philippe	-11.1397
zitwara	-11.1398
byutse	-11.14
▁hisunzwe	-11.14
▁royal	-11.1401
vyerekeye	-11.1406
▁bakurikira	-11.1407
▁bisigaye	-11.1408
imicung	-11.1408
▁kubabara	-11.1409
▁bagirizwa	-11.141
muvuduko	-11.141
▁umutoni	-11.1414
fi	-11.1415
▁ashyirwa	-11.1417
rengeje	-11.1417
▁ibiharuro	-11.142
▁atakiri	-11.1427
▁wamenya	-11.1428
ruka	-11.1432
▁bienvenue	-11.1436
▁byihariye	-11.1438
rangira	-11.1439
▁nyirahab	-11.1439
▁kirenga	-11.1442
▁bataza	-11.1444
▁umukene	-11.1451
▁C	-11.1454
ijanye	-11.1455
▁baguma	-11.1458
yamaganye	-11.1459
▁yihaye	-11.1459
sigiye	-11.146
▁ateye	-11.1463
▁bakorerwa	-11.147
▁abashingamateka	-11.148
▁melodie	-11.1481
▁claudine	-11.1481
▁evode	-11.1482
▁kubikuza	-11.1483
▁yoweri	-11.1483
igenewe	-11.1484
▁yatangira	-11.1484
▁bizatangira	-11.1485
▁abicishije	-11.1486
▁bamara	-11.1487
▁uzo	-11.1487
▁myenda	-11.1488
▁ntibavug	-11.1489
▁shaddy	-11.149
po	-11.149
▁kwimakaz	-11.1491
▁pastor	-11.1492
▁batwite	-11.1493
▁azahita	-11.1494
byakozwe	-11.1496
▁bigabanuka	-11.1501
▁rit	-11.1501
▁basangiye	-11.1504
▁kiriko	-11.1506
▁biriko	-11.1506
byifuzo	-11.1508
▁mufuka	-11.1508
▁iravuga	-11.151
tangazwa	-11.1512
mushikiranganji	-11.1516
▁sab	-11.1516
vier	-11.1516
atwawe	-11.1517
▁rwink	-11.1521
▁atubwira	-11.1523
tsura	-11.1523
amarushanwa	-11.1525
egereye	-11.1525
imiziki	-11.1528
▁vyukuri	-11.1529
▁gikwiye	-11.1529
aborozi	-11.1529
▁rwabonye	-11.153
genzurwa	-11.1533
bimusaba	-11.1535
▁haciye	-11.1538
urugero	-11.1539
yongera	-11.154
q	-11.154
twa	-11.1541
▁imfura	-11.1542
byangiza	-11.1544
▁bitangaje	-11.1544
agashaka	-11.1547
gikunze	-11.1548
giheruka	-11.155
yifashe	-11.1551
▁urebe	-11.1561
zero	-11.1562
▁api	-11.1562
▁yahabwaga	-11.1562
itatu	-11.1568
moto	-11.1571
▁bikagera	-11.1573
asohowe	-11.1574
ereye	-11.1574
▁mina	-11.1576
▁ishyize	-11.1576
ubugiz	-11.1577
▁convention	-11.1577
▁total	-11.1577
▁rachid	-11.1579
▁birebire	-11.1581
▁commonwealth	-11.1581
▁kwihugura	-11.1583
▁zik	-11.1583
▁masasu	-11.1584
▁ntibivuze	-11.1584
▁ludi	-11.1587
zahita	-11.1588
▁ingirakamaro	-11.1588
▁shelt	-11.1591
▁llbsa	-11.1591
▁abyemeza	-11.1595
▁ahenshi	-11.1596
▁rwagiye	-11.1598
ambaye	-11.16
dogite	-11.1601
▁utegerejwe	-11.1607
▁icyiza	-11.1607
▁ubushinwa	-11.161
▁ibitigiri	-11.161
eur	-11.1613
▁juma	-11.1619
▁vyabon	-11.162
imiterere	-11.1623
gitangira	-11.1627
▁mibiri	-11.1629
wanjye	-11.1629
▁rizatangir	-11.1631
▁kubabwira	-11.1634
bayigana	-11.1639
umuremyi	-11.1641
▁umututs	-11.1645
birebera	-11.1646
▁busaba	-11.1657
▁kuvana	-11.1657
tunganije	-11.1659
bihindura	-11.1669
▁akigera	-11.1669
▁yandura	-11.167
bwato	-11.167
tpr	-11.1671
▁kuriyo	-11.1674
gitoro	-11.1674
▁kuyafata	-11.1677
▁utwabo	-11.1677
▁rapport	-11.1678
▁amaherezo	-11.1679
▁kugurana	-11.168
▁ibibug	-11.1681
▁byitwa	-11.1686
ishije	-11.1686
akaranga	-11.1686
abafashe	-11.1687
hora	-11.1687
▁blue	-11.1688
▁tunisie	-11.1689
abanywa	-11.169
abasohoka	-11.1691
cupa	-11.1694
▁wihariye	-11.1697
▁wetu	-11.1697
ir	-11.1698
▁nkeya	-11.1698
▁zira	-11.1699
ifise	-11.1699
▁wiyongereye	-11.1702
izamara	-11.1703
murirwa	-11.1704
▁babibona	-11.1704
▁gis	-11.1712
ibuza	-11.1714
▁senat	-11.1715
atangiranye	-11.1717
▁ababiligi	-11.1718
imikoresherez	-11.172
▁wabonetse	-11.1721
after	-11.1722
▁urunana	-11.1724
▁guhanahan	-11.1724
inyandiko	-11.1726
ihorere	-11.1727
poritike	-11.1728
▁ishing	-11.1728
▁bireban	-11.1729
▁H	-11.1729
abireka	-11.1731
ikanga	-11.1731
tu	-11.1735
gwaho	-11.1735
igamije	-11.1737
ilingi	-11.1738
▁khan	-11.1738
posts	-11.174
▁abanyamerika	-11.1743
▁basize	-11.1744
▁bwato	-11.1745
▁kirangira	-11.1749
▁batavuga	-11.1751
atunganijwe	-11.1751
kunguka	-11.1751
▁hehe	-11.1752
▁umurungi	-11.1752
arishimira	-11.1755
wemo	-11.1757
kinnye	-11.1757
▁yerekeye	-11.1758
abivugiye	-11.1758
▁karim	-11.176
anganije	-11.1766
▁kabisa	-11.1771
▁bahungira	-11.1772
mwaka	-11.1773
▁suarez	-11.1774
▁icyarimwe	-11.1774
▁maison	-11.1776
▁ibibi	-11.1777
▁umuseke	-11.1777
bi	-11.1778
▁umubyara	-11.1779
▁charly	-11.1779
▁ikazaba	-11.1779
▁inzika	-11.1779
▁Ese	-11.1785
zengurutse	-11.1785
▁byagaragaraga	-11.1785
azabanza	-11.1786
yituye	-11.1786
ringa	-11.1787
▁princess	-11.1788
▁flash	-11.1789
▁theodor	-11.179
zobera	-11.1791
yumva	-11.1791
ingimbi	-11.1793
▁muhima	-11.1793
hambaye	-11.1794
▁muganza	-11.1796
▁umudendezo	-11.1797
▁tanzanie	-11.1798
▁liberia	-11.1799
▁bazajye	-11.18
▁aramu	-11.1801
▁yumvise	-11.1802
▁twafashe	-11.1802
ck	-11.1802
▁itangiye	-11.1805
▁R	-11.1805
▁bishira	-11.1809
egerejwe	-11.1814
df	-11.1816
▁dukorana	-11.1816
▁rutana	-11.1817
▁isanduku	-11.1819
▁coupe	-11.1821
ori	-11.1822
germain	-11.1822
gusaba	-11.1823
▁yasezereye	-11.1823
▁nkana	-11.1823
imfubyi	-11.1824
▁igicaniro	-11.1827
ikori	-11.1829
ubudehe	-11.1829
▁kujyanwa	-11.1831
▁mitumba	-11.1831
▁umwiherero	-11.1831
▁uburemere	-11.1831
azamutseho	-11.1838
▁mulind	-11.1843
▁babyaranye	-11.1844
ibimenyetso	-11.1854
emerera	-11.1854
▁baracya	-11.1854
▁nyamit	-11.1854
▁ibidandazwa	-11.1856
▁kumugor	-11.1866
▁gutab	-11.1869
▁umurage	-11.1871
lifted	-11.1871
▁gushyushya	-11.1872
▁londres	-11.1872
gabanyirizwa	-11.1872
▁kabarebe	-11.1873
▁bwishingizi	-11.1874
▁kabe	-11.1876
▁munzu	-11.1876
▁kirori	-11.1876
▁contre	-11.1877
▁gentil	-11.1878
▁gufatira	-11.188
▁cameroon	-11.188
▁prsident	-11.188
atorewe	-11.1882
kristu	-11.1885
▁kwigarurir	-11.189
▁kuranga	-11.1893
abashinwa	-11.1894
▁ubaye	-11.1895
asinye	-11.1896
asigaye	-11.1902
ahoze	-11.1905
▁kuzenguruka	-11.1906
▁ibereye	-11.1908
afise	-11.1909
▁baraha	-11.1912
▁coba	-11.1912
▁mufite	-11.1912
▁force	-11.1913
▁rwatangaje	-11.1916
▁mark	-11.1916
rekura	-11.1917
▁byihuse	-11.1917
▁ababikora	-11.1918
ryoherwa	-11.1919
amusubiza	-11.1922
▁amadosiye	-11.1924
▁gutsindira	-11.1924
igitabo	-11.1925
baze	-11.1927
ng	-11.1931
▁bumvikanye	-11.1934
▁abafasha	-11.1937
▁berekana	-11.1937
imirije	-11.1937
batunze	-11.1939
arahungiye	-11.1939
▁ubwira	-11.1939
▁uha	-11.194
▁tuyi	-11.1941
▁kizaza	-11.1942
▁iracyari	-11.1942
works	-11.1946
shyikiriza	-11.1947
▁bikurur	-11.1947
▁umugongo	-11.195
▁jacque	-11.1951
birego	-11.1951
▁bibera	-11.1957
▁ireba	-11.1959
▁bahembwa	-11.1965
▁rukorera	-11.1965
ishanga	-11.1968
anjye	-11.1969
tvcoke	-11.1971
imihurura	-11.1971
▁amazamu	-11.1972
▁mayor	-11.1973
ahagaze	-11.1974
▁mpyisi	-11.1975
▁zihamye	-11.1975
▁haravugwa	-11.1976
▁micye	-11.1976
ubwonko	-11.1977
▁ntazi	-11.1978
▁iprc	-11.1978
▁Ahsante	-11.198
afunzwe	-11.1981
▁joel	-11.1981
ivuge	-11.1982
byariye	-11.1983
▁jimbere	-11.1984
▁mbega	-11.1985
▁utc	-11.1988
▁ntira	-11.1988
igiti	-11.1989
▁kwubaka	-11.1989
gabirwa	-11.1989
▁maraso	-11.1993
▁birenge	-11.1994
ibyiza	-11.1997
zubakwa	-11.1997
▁gusengera	-11.1997
gushakwa	-11.2001
▁cabo	-11.2001
00	-11.2001
▁kwifashishwa	-11.2003
▁yabishikirije	-11.2006
▁guine	-11.2006
▁kunenga	-11.2007
▁bwanyu	-11.2009
mumenyereza	-11.201
irondoka	-11.2011
ndamutsa	-11.2012
imyororokere	-11.2013
▁mutara	-11.2014
nyene	-11.2015
▁ahatanira	-11.2015
▁itemewe	-11.2018
▁arongera	-11.202
tora	-11.2023
umuzungu	-11.2024
ahagurukiye	-11.2024
kwitonda	-11.2027
▁igiteran	-11.2027
times	-11.2027
abapfuye	-11.203
imbonerakure	-11.2031
aciye	-11.2033
▁igitigiri	-11.2035
muzingi	-11.2036
▁urusobe	-11.2036
ituye	-11.2038
▁agurisha	-11.2039
▁harebw	-11.2039
▁agafata	-11.204
amakarita	-11.2041
▁impuzu	-11.2044
▁abakekwa	-11.2046
▁batwaye	-11.2048
▁umuceri	-11.2049
rnd	-11.2049
▁hatita	-11.2053
▁ukan	-11.2062
▁kwiruka	-11.2069
▁islamu	-11.2072
▁ferdinand	-11.2072
abishe	-11.2072
▁meddie	-11.2072
▁utaba	-11.2073
girirwa	-11.2073
▁kubageza	-11.2074
▁gift	-11.2075
▁ikurikira	-11.2075
▁ingorabahizi	-11.2076
▁ubikora	-11.2077
▁knc	-11.2078
▁wenger	-11.2078
▁ahmed	-11.2079
▁norway	-11.2079
▁maria	-11.2082
▁ububiko	-11.2085
ingemwe	-11.2086
▁yarabaye	-11.2088
▁amamodoka	-11.2088
▁institute	-11.2088
keye	-11.2089
▁batangije	-11.2089
▁heroes	-11.2089
gitwaye	-11.209
▁petro	-11.2091
▁ahazaza	-11.2093
irwaye	-11.2093
irondo	-11.2094
▁mpuzabi	-11.2094
eat	-11.2095
▁bitajya	-11.2096
banza	-11.2096
mukiriya	-11.2098
▁buti	-11.2098
cyatanzwe	-11.2098
▁ute	-11.2103
▁acp	-11.2108
asabiye	-11.2109
▁kwandikira	-11.2111
herekeza	-11.2112
yandura	-11.2113
kamanzi	-11.2114
bihaye	-11.212
▁rushobor	-11.2124
▁yasobanura	-11.2125
vyeyi	-11.2127
▁umufuk	-11.2127
▁karimo	-11.213
▁kit	-11.2131
▁aborozi	-11.2132
tumvikana	-11.2132
ssb	-11.2133
imitahe	-11.2134
imitungo	-11.2135
atsinze	-11.2136
▁icicaro	-11.2136
miliyoni	-11.2137
intego	-11.2137
▁kayon	-11.2148
kundisha	-11.2149
▁ataza	-11.2149
ru	-11.215
▁asohoka	-11.2151
▁yakoreshwaga	-11.2152
▁yazanywe	-11.2153
▁musanab	-11.2154
ation	-11.2156
▁impyiko	-11.2156
▁ayi	-11.2158
▁baramutse	-11.2158
asimburwa	-11.2158
baruwa	-11.2158
▁boy	-11.2159
▁aziya	-11.2161
▁rap	-11.2162
ifumbire	-11.217
ibyoherezwa	-11.2174
▁country	-11.2175
▁wuhan	-11.2175
▁gikuru	-11.2175
▁umuyaga	-11.2175
▁gusora	-11.2176
▁tuniziya	-11.2176
▁abatar	-11.2176
▁misoro	-11.2177
▁bazikoresh	-11.2178
▁kabuhariwe	-11.2178
▁musitanteri	-11.2179
▁birangiye	-11.218
▁abatanga	-11.218
▁gatanya	-11.2181
▁christopher	-11.2181
▁concert	-11.2181
▁die	-11.2185
▁rdf	-11.2186
▁gutinya	-11.2186
▁yagwaga	-11.2189
▁ngenga	-11.219
▁migabane	-11.2191
tinze	-11.2191
▁gutahuka	-11.2194
▁bagabanutse	-11.2194
rabyo	-11.2196
▁bivur	-11.2196
ntwari	-11.2197
▁sec	-11.2202
▁kunganira	-11.2202
▁bagirana	-11.2205
ibeshaho	-11.2207
kuramo	-11.2208
▁umucyo	-11.221
▁kujuririr	-11.2217
ambwe	-11.2217
bere	-11.2218
▁ryabereye	-11.2219
▁imanzi	-11.2221
imbogo	-11.2221
indu	-11.2223
▁abakandida	-11.2223
igura	-11.2224
▁bazatsind	-11.2226
▁sos	-11.2227
▁wanduye	-11.223
▁irambona	-11.2234
▁ukuboko	-11.2236
▁ibarura	-11.224
imigwi	-11.224
banyamakuru	-11.2241
mbura	-11.2242
▁bwakwira	-11.2242
nyundo	-11.2243
▁kazwi	-11.2244
akamaro	-11.2244
▁inz	-11.2245
▁umuhate	-11.2247
▁imfu	-11.2252
▁ibikubiye	-11.2257
▁zigamij	-11.226
umunezero	-11.2261
ikimenyetso	-11.2262
▁kugaba	-11.2262
▁kuziba	-11.2262
umve	-11.2263
▁project	-11.2265
babishinzwe	-11.227
asize	-11.2271
▁batsinzwe	-11.2271
▁johan	-11.2273
▁maguf	-11.2273
mana	-11.2275
tamenya	-11.2276
▁lit	-11.2276
▁brig	-11.2278
icyitegererezo	-11.2278
▁bategerezwa	-11.2279
▁ndangagitsina	-11.2279
▁nyarutarama	-11.2279
▁kuyirwanya	-11.228
▁gutegurwa	-11.228
▁rachel	-11.2281
gihembwe	-11.2281
▁akorwa	-11.2284
▁kuhagera	-11.2285
eze	-11.229
fiche	-11.2292
▁rusanzwe	-11.2293
▁abayisilamu	-11.2293
imigenzo	-11.2295
rigaragaza	-11.2298
▁cyazamutse	-11.2299
kosa	-11.23
▁ataba	-11.2302
▁kuzahura	-11.2303
▁batiri	-11.2305
▁kinigi	-11.2305
ang	-11.2306
▁bashyinguwe	-11.2306
▁murama	-11.2308
ugahabwa	-11.2308
▁mon	-11.2308
fu	-11.2309
inanasi	-11.2312
▁inzuki	-11.2313
▁byo	-11.2314
zakina	-11.2315
▁groupe	-11.2322
▁ugahita	-11.2324
▁agenewe	-11.2326
▁uwer	-11.2327
▁afungwa	-11.2329
▁uwi	-11.2329
der	-11.2331
▁ernestin	-11.2334
▁gukubit	-11.2334
▁kubasha	-11.2336
bahawe	-11.2336
karere	-11.2337
▁zir	-11.2342
ivangura	-11.2345
ubushyuhe	-11.2348
▁olive	-11.2349
▁waguri	-11.2349
bangamira	-11.235
komokaho	-11.2353
▁bavuka	-11.2355
▁zikorwa	-11.2361
▁batangiza	-11.2362
bigaragaza	-11.2363
▁atazonger	-11.2365
tangizwa	-11.2368
▁atanze	-11.2368
▁po	-11.2369
itegekanijwe	-11.2371
▁hope	-11.2374
shinjacyaha	-11.2375
engero	-11.2376
▁atara	-11.2377
dy	-11.238
asanze	-11.2381
▁boutros	-11.2382
▁ndangamurage	-11.2382
bapfumu	-11.2382
kuyobya	-11.2382
ashyaka	-11.2383
▁guhatana	-11.2383
▁kayirebwa	-11.2383
▁changamoto	-11.2384
▁gucana	-11.2384
▁kitaragera	-11.2385
▁cnared	-11.2386
kombe	-11.2387
▁batujwe	-11.2387
▁barakomereka	-11.2388
isabuni	-11.239
zwi	-11.239
amarira	-11.2391
▁habarurwa	-11.2391
▁tuganira	-11.2392
▁cinema	-11.2393
hazwi	-11.2395
▁gafite	-11.2395
▁bambara	-11.2406
▁abacururiza	-11.2411
▁byifashishwa	-11.2411
ungukira	-11.2415
▁cyanditse	-11.2415
▁mbanza	-11.2416
▁mbaga	-11.2416
▁petite	-11.2417
▁azava	-11.2417
▁kila	-11.2419
inkuba	-11.242
▁namu	-11.2421
▁bambwira	-11.2421
▁basab	-11.2421
▁byagenda	-11.2421
shyigikira	-11.2427
▁zabaga	-11.2427
▁bright	-11.2428
▁rwar	-11.2428
▁abunganira	-11.2429
▁pas	-11.2434
▁komeza	-11.2435
▁sobanukirwa	-11.2438
▁vyabaye	-11.2441
ss	-11.2441
▁yakubise	-11.2441
▁tutari	-11.2442
▁iyicarubozo	-11.2444
shwa	-11.2448
ubumuga	-11.2453
document	-11.2453
mwalimu	-11.2454
▁iii	-11.2454
twibutsa	-11.2458
▁kubereka	-11.2459
▁umuririmvyi	-11.246
kubohora	-11.2461
▁kubutegetsi	-11.2462
emeza	-11.2466
jeje	-11.2467
▁bwenge	-11.2474
▁umuzamu	-11.2475
murimo	-11.2476
▁ibitera	-11.2476
mbavu	-11.2481
yigisha	-11.2481
▁muma	-11.2484
ishamba	-11.2487
rukuta	-11.2487
amenyekanye	-11.2488
▁europa	-11.2489
▁bazafatany	-11.2491
▁inkingo	-11.2491
hahurira	-11.2491
▁agathe	-11.2491
▁commission	-11.2491
▁daily	-11.2491
kwifuza	-11.2496
▁tonzi	-11.2496
▁byahungabanyije	-11.2496
▁vumbi	-11.2497
hetse	-11.2497
nyubakwa	-11.2499
mubuza	-11.2502
▁mato	-11.2502
▁kubyarira	-11.2503
▁arapfa	-11.2503
▁kizira	-11.2504
▁butangaza	-11.2506
▁uburebure	-11.2507
funga	-11.2513
imisi	-11.2513
▁arara	-11.2516
▁wabaga	-11.2518
▁bazakina	-11.2521
kwakira	-11.2521
karanze	-11.2521
atahukanye	-11.2523
▁amenyereza	-11.2523
▁qu	-11.2524
gafatwa	-11.2524
▁atagira	-11.2524
▁bihita	-11.2525
▁basubira	-11.2525
ubije	-11.2527
▁data	-11.2528
tswe	-11.2528
▁kigoma	-11.2528
▁bishe	-11.2529
▁karangwa	-11.2529
elle	-11.2535
▁batanguye	-11.2537
▁bimutera	-11.2537
▁wagaragaye	-11.2538
▁batumva	-11.2538
▁ntaco	-11.254
▁mizi	-11.254
kurikije	-11.2541
nyegori	-11.2543
▁kab	-11.2543
▁biz	-11.2545
fatiwe	-11.2546
▁ikorana	-11.2548
fund	-11.2549
▁hara	-11.2549
asobanukiwe	-11.2549
▁kaje	-11.2549
▁imvune	-11.2552
▁sol	-11.2554
nnye	-11.2555
itabwaho	-11.2557
shakira	-11.2559
▁abakina	-11.2559
▁bitegur	-11.256
▁atunze	-11.2561
▁shaban	-11.2561
▁koherezwa	-11.2561
▁wumve	-11.2563
contract	-11.2567
▁kunyong	-11.2568
▁sat	-11.2569
▁sh	-11.2569
▁yanabone	-11.257
▁kurema	-11.2573
▁bigaragaz	-11.2573
gereranywa	-11.2574
iringaniye	-11.2575
jana	-11.2575
▁koga	-11.2576
bikorwa	-11.2577
▁bikoreye	-11.2579
▁icyicar	-11.258
▁vyoba	-11.2581
ihishe	-11.2581
▁uhari	-11.2582
▁mbabwir	-11.2585
byaza	-11.2588
cyura	-11.2592
abigenga	-11.2592
▁college	-11.2593
▁sophia	-11.2593
ibonekeje	-11.2593
▁mbonimpa	-11.2593
▁sandrine	-11.2595
▁kuyitoza	-11.2595
▁ruremesha	-11.2595
▁yamuhaye	-11.2595
▁mwobo	-11.2596
▁basket	-11.2597
▁gatorika	-11.2599
▁buca	-11.2599
buzwa	-11.26
▁masaka	-11.2601
▁naomie	-11.2601
▁bazahita	-11.2602
▁rutabana	-11.2603
matwi	-11.2603
▁gushyamiran	-11.2606
▁marali	-11.2606
▁programme	-11.2606
ve	-11.2607
▁kuburanishwa	-11.2607
▁aryamye	-11.2608
▁bwarwo	-11.2608
▁indatwanet	-11.2609
▁yunganira	-11.261
mukecuru	-11.2611
▁guhimiriza	-11.2614
▁bagatera	-11.2617
▁cvr	-11.2617
▁kwemez	-11.2618
▁nizeyimana	-11.2618
wi	-11.2623
▁barandagiye	-11.2625
▁emeli	-11.2626
▁clo	-11.2627
▁babeshya	-11.2627
▁inkoho	-11.2627
▁bizamuka	-11.2628
▁fr	-11.2633
yakabaye	-11.2633
▁yafata	-11.2637
▁abagan	-11.2637
▁imf	-11.2638
▁mwenda	-11.2639
▁barabona	-11.264
▁visit	-11.2642
▁muvy	-11.2649
▁inganya	-11.2649
▁ahereye	-11.2654
▁twita	-11.2654
▁buk	-11.2655
▁guhohotera	-11.2655
▁abakorera	-11.2656
inzovu	-11.266
igisonga	-11.2662
▁bukora	-11.2663
▁kubu	-11.2664
tegetsi	-11.2665
mura	-11.2669
ubutwererane	-11.267
▁mvo	-11.267
▁nkajya	-11.267
impfubyi	-11.2671
arokotse	-11.2673
ubwandu	-11.2673
gihuza	-11.2675
▁yab	-11.2677
▁yaduhaye	-11.2677
abatishoboye	-11.2679
▁akura	-11.2679
dahita	-11.268
usesuye	-11.268
ingoro	-11.2681
▁baran	-11.2686
▁kika	-11.2691
ibitekerezo	-11.2694
void	-11.2701
▁motema	-11.2701
▁mugabe	-11.2701
▁rugende	-11.2702
▁wireless	-11.2702
▁lucky	-11.2702
▁ntarengwa	-11.2702
▁your	-11.2702
ubaka	-11.2704
▁gukurwa	-11.2704
▁gukinwa	-11.2704
▁kumar	-11.2704
▁willy	-11.2704
▁nzozi	-11.2705
kimwe	-11.2708
▁akemera	-11.271
ubahiriza	-11.2711
▁gusetsa	-11.2712
▁yakuriki	-11.2713
▁bagaca	-11.2714
▁rihana	-11.2715
▁zerekeza	-11.2715
▁vyerekana	-11.2716
▁etoile	-11.2719
▁muganda	-11.2719
▁murikagurisha	-11.2721
▁ubumuntu	-11.2731
omba	-11.2733
▁burambye	-11.2734
akoranye	-11.2735
▁yibanda	-11.2743
▁bakiriwe	-11.2743
▁taba	-11.2744
banyamahanga	-11.2747
▁bonaven	-11.2747
subije	-11.2748
akabiri	-11.2748
agishakishwa	-11.275
▁agifite	-11.2756
▁Imana	-11.2756
▁azitabira	-11.2762
▁bahasiga	-11.2765
▁ball	-11.2767
▁uruzi	-11.2768
tone	-11.2769
▁ziyongera	-11.2771
ner	-11.2773
urirwa	-11.2774
izamuka	-11.2775
abongereza	-11.2777
▁atwaye	-11.2777
gihango	-11.2777
inzuki	-11.2782
▁kubonana	-11.2784
▁ibitand	-11.2785
gakorwa	-11.2785
ayoboraga	-11.2787
bikoze	-11.2787
▁izafasha	-11.2787
ramira	-11.2792
bafashe	-11.2795
▁ubusugi	-11.2799
umugenzu	-11.28
mwunganira	-11.2802
▁gusana	-11.2803
▁kongerwa	-11.2809
▁chogm	-11.281
▁biruhuko	-11.281
▁buravan	-11.281
▁undp	-11.281
▁mpuza	-11.281
ishyikiriza	-11.281
▁gaston	-11.2811
▁restaurant	-11.2813
▁management	-11.2814
▁byavugwaga	-11.2815
▁byawo	-11.2816
▁bidukikije	-11.2817
cookie	-11.2817
▁ureba	-11.2818
▁sandra	-11.2818
sengera	-11.2819
▁murizo	-11.2819
▁mugheni	-11.2819
▁ibyagezweho	-11.282
▁makomine	-11.282
▁bieber	-11.282
mubwire	-11.2823
▁pays	-11.2825
▁cyobo	-11.2825
himbye	-11.2826
mererwa	-11.2826
▁ikini	-11.2827
▁bakimara	-11.283
▁birunga	-11.2831
▁yiyemerera	-11.2833
▁umutamb	-11.2834
rashaka	-11.2835
▁wica	-11.2837
shakisha	-11.2838
abitewe	-11.2839
▁bac	-11.2842
▁euro	-11.2842
▁azakora	-11.2846
▁byiringiro	-11.2848
▁indiri	-11.285
▁yajuririye	-11.2851
abamwunganira	-11.2854
zanye	-11.2855
asesekaye	-11.2856
▁yibaza	-11.2857
▁ikanzu	-11.2857
sude	-11.2857
▁utara	-11.2858
ikete	-11.2859
▁bwoba	-11.2861
▁yotang	-11.2861
▁bahunze	-11.2862
▁byatwara	-11.2864
▁imideri	-11.2865
dushimishije	-11.2866
wera	-11.2866
▁deo	-11.2866
▁inkoni	-11.2869
urukozasoni	-11.2872
teguriye	-11.2872
erwa	-11.2873
▁irangira	-11.2873
ndwe	-11.2874
▁tuyishimir	-11.2874
▁rikomeje	-11.2876
nije	-11.288
▁uburere	-11.2884
▁umva	-11.2889
▁hakomeje	-11.289
bitumizwa	-11.2891
▁izasohok	-11.2892
▁salama	-11.2893
ubushuhe	-11.2894
mvururu	-11.2898
▁volley	-11.2904
ifashishwa	-11.2905
▁imijyi	-11.2908
ibihangange	-11.291
▁gaz	-11.2912
▁yama	-11.2915
ive	-11.2916
▁ug	-11.2918
▁kumusi	-11.2918
hisemo	-11.2918
▁mumwaka	-11.2919
▁sentore	-11.2919
▁charlotte	-11.2919
▁lagos	-11.2919
▁julienne	-11.292
▁bakiga	-11.2923
eka	-11.2923
▁nkenger	-11.2923
▁nyabis	-11.2924
▁igere	-11.2924
▁kubyemera	-11.2926
▁bafungiwe	-11.2926
▁faso	-11.2926
▁kizamini	-11.2927
▁boherejwe	-11.2927
▁diaspora	-11.2929
▁yasinywe	-11.2932
▁adolphe	-11.2932
▁bagafata	-11.2933
▁icese	-11.2935
▁bakoranye	-11.2937
itezweho	-11.2943
rwandiko	-11.2944
▁kwubahiriza	-11.2944
▁buciriritse	-11.2945
▁bizi	-11.2946
▁kamaro	-11.2946
injizwa	-11.2947
▁guham	-11.2948
▁kumusaba	-11.2953
ibwirizwa	-11.2954
▁mva	-11.2958
▁irangiye	-11.296
▁ken	-11.2961
▁los	-11.2962
▁kubangamira	-11.2963
▁utubari	-11.2967
▁mutoni	-11.2972
▁Ma	-11.2972
haraniye	-11.2972
abe	-11.2972
amasengesho	-11.2974
▁gasozi	-11.2975
ons	-11.2976
ibafasha	-11.2976
▁igituntu	-11.2977
▁bazongera	-11.2979
▁ubutaha	-11.2979
▁ayisumbuye	-11.2982
▁resto	-11.2982
▁bigaragazw	-11.2983
▁yamamaye	-11.2985
▁masa	-11.299
▁ituruka	-11.2993
▁cr	-11.2993
▁hospital	-11.2994
▁sms	-11.2994
ifunga	-11.2998
▁ren	-11.3
atunguye	-11.3001
▁biti	-11.3004
ikoreshwa	-11.3006
abigezeho	-11.3006
▁nifuza	-11.3007
zen	-11.3008
merewe	-11.3009
▁uwaba	-11.301
▁fa	-11.3011
mira	-11.3012
▁ubusambanyi	-11.3013
▁Tu	-11.3015
▁bikoze	-11.3016
▁hall	-11.3016
▁integuro	-11.3017
▁uca	-11.3017
ubona	-11.302
ahindutse	-11.3023
ishasha	-11.3024
▁zitaha	-11.3025
▁icyakorwa	-11.3029
umyumiuosumcuncu	-11.303
dwl	-11.303
iuqiu	-11.303
athfloordatenowe	-11.3031
zrsu	-11.3031
▁tekutangije	-11.3031
▁ispg	-11.3031
caleb	-11.3031
▁mairie	-11.3032
▁future	-11.3032
▁mount	-11.3035
▁burenze	-11.3039
▁cyubahiro	-11.3039
ibere	-11.3039
▁barangajwe	-11.3041
▁tunisia	-11.3041
nguka	-11.3041
▁kuzitaho	-11.3042
bgoba	-11.3042
▁gusom	-11.3044
▁bitero	-11.3048
▁cnlg	-11.3049
▁mukamira	-11.305
▁beer	-11.3051
▁collection	-11.3053
▁mah	-11.3053
▁kupata	-11.3055
▁ugufasha	-11.3056
▁igp	-11.3057
▁amakamyo	-11.3058
▁kager	-11.3058
▁buto	-11.3059
itegereje	-11.306
▁kubigeraho	-11.306
▁yagaragazaga	-11.3061
▁dukura	-11.3065
akurikije	-11.3065
▁anyuze	-11.3065
gutera	-11.3068
itangire	-11.3068
igenzura	-11.3073
▁byafashe	-11.3073
ifitemo	-11.3074
ngurukanabumenyi	-11.3078
▁hapa	-11.3078
▁ivugabutumwa	-11.3079
▁bongo	-11.308
▁abiga	-11.3081
yashyizweho	-11.3082
▁igihecom	-11.3085
▁ugaragara	-11.3086
▁uburakari	-11.3087
▁boe	-11.3088
▁yishimye	-11.3091
osursu	-11.3092
suyriu	-11.3092
rimwe	-11.3092
▁biraba	-11.3094
amacupa	-11.3096
lometero	-11.3096
iddy	-11.3096
▁cyara	-11.3096
gezaho	-11.3097
▁izabo	-11.3098
▁son	-11.31
▁bakomeretse	-11.3101
▁ntibazi	-11.3102
▁kagiye	-11.3104
impinduka	-11.3109
biciriritse	-11.3111
kurikiye	-11.3112
anwa	-11.3113
umufasha	-11.3115
myiyamamazo	-11.3116
kinjira	-11.3116
▁wakozwe	-11.3116
ngombwa	-11.3121
▁kwugurur	-11.3121
inyongera	-11.3123
numero	-11.3125
kuraho	-11.3128
▁ft	-11.3129
zotangura	-11.313
▁bahanga	-11.313
▁mukaru	-11.3132
▁uyirwaye	-11.3133
ahazaza	-11.3134
tiye	-11.3137
▁yohereje	-11.3137
ymc	-11.3137
▁yaby	-11.3138
bishoboye	-11.3142
bidufasha	-11.3143
▁brigadier	-11.3143
▁jovani	-11.3143
▁olempike	-11.3143
▁corporation	-11.3143
deon	-11.3143
▁miyoborere	-11.3143
▁promotion	-11.3144
▁bisobanuro	-11.3145
▁atraco	-11.3145
▁kazu	-11.3147
▁burkina	-11.3148
▁afp	-11.3148
▁khalid	-11.3148
▁jolie	-11.3148
egere	-11.3148
▁mumena	-11.3148
▁uzasanga	-11.3149
▁shaddyboo	-11.315
atanguje	-11.3151
▁abereye	-11.3151
▁yvan	-11.3154
aberaga	-11.3154
kurikiza	-11.3156
▁agapfukamunwa	-11.3156
▁sov	-11.3157
▁special	-11.3157
▁kakaba	-11.3158
▁byemezo	-11.3159
nyinshi	-11.316
▁abarwanyi	-11.3162
muhira	-11.3162
▁akunze	-11.3167
▁amahame	-11.3167
▁uwamahoro	-11.3169
gara	-11.317
nt	-11.317
▁akanyamuneza	-11.317
▁umunwa	-11.3171
wiyemeje	-11.3171
▁ibiganza	-11.3173
▁per	-11.3173
ruhago	-11.3173
kwifashishwa	-11.3179
▁simu	-11.318
hangana	-11.3181
▁haguye	-11.3184
▁bagatangira	-11.3186
▁yiyita	-11.3187
avuyemo	-11.3188
shake	-11.3189
▁giseke	-11.319
▁bamuzi	-11.319
▁giterany	-11.3196
▁kwirukanwa	-11.3196
▁handi	-11.3196
aremeza	-11.3199
iyongereyeho	-11.3205
▁saha	-11.3208
hereza	-11.3208
arafashe	-11.3208
▁twaj	-11.3208
▁nyab	-11.3211
▁uruzind	-11.3211
▁ngabir	-11.3214
▁zisabwa	-11.3215
mbi	-11.3217
ateganywa	-11.322
ongozi	-11.322
bikunda	-11.3222
▁atarenga	-11.3225
cyumweru	-11.3226
bihugu	-11.3227
▁amagi	-11.3227
ezi	-11.3228
▁ivanwa	-11.3231
▁laurenc	-11.3238
▁duha	-11.3238
ingurane	-11.3238
▁awu	-11.3238
indabo	-11.3239
▁kugaragariza	-11.3241
▁igerageza	-11.3242
▁mushaka	-11.3243
▁wemewe	-11.3243
ahigwag	-11.3243
▁kayo	-11.3243
vomo	-11.3245
▁kuburana	-11.3246
▁tugera	-11.3246
▁turagira	-11.3248
uwuserukira	-11.325
yakiriye	-11.325
▁wamu	-11.3253
▁umuhin	-11.3253
▁nseng	-11.3253
▁public	-11.3254
rsil	-11.3255
▁buhanzi	-11.3257
▁nil	-11.3258
▁somaliya	-11.3258
▁cyanika	-11.3259
▁cdric	-11.326
ubururu	-11.326
▁bayern	-11.326
igitsinagore	-11.3261
▁kupitia	-11.3262
▁guhungira	-11.3263
▁amatelefon	-11.3264
▁hiyongera	-11.3264
▁bafatanye	-11.3266
cika	-11.3267
▁kurot	-11.3268
inda	-11.3268
▁Tanzania	-11.327
mavugo	-11.3271
ubwa	-11.3271
▁atuma	-11.3272
▁hakorera	-11.3273
sezerano	-11.3273
▁papy	-11.3273
ubwirinzi	-11.3276
▁bob	-11.3276
▁mifuka	-11.3277
amapfa	-11.3277
gero	-11.3279
kwinjira	-11.3279
▁valentin	-11.3283
▁ivi	-11.3284
▁urangiye	-11.3285
akomeza	-11.3285
anyuranye	-11.3286
uganda	-11.3287
emererwa	-11.3289
▁abashobora	-11.329
▁ziteye	-11.3293
amafranga	-11.3295
▁bafatiwe	-11.3297
▁imp	-11.3298
kamo	-11.3299
gezweho	-11.33
abajije	-11.3301
▁kugi	-11.3302
▁asi	-11.3303
▁power	-11.3303
igaragazwa	-11.3303
▁banyuzemo	-11.3305
😂😂	-11.3305
▁amenyo	-11.3307
▁ubwongereza	-11.3308
abatabaz	-11.3308
▁ndera	-11.3314
▁ikiba	-11.3317
▁rikorerwa	-11.3319
byemeje	-11.332
▁kuyikora	-11.332
▁atangaje	-11.3322
▁ntsinzi	-11.3323
▁biheruka	-11.3325
▁E	-11.3325
▁itangaje	-11.3326
▁bayobora	-11.3331
▁amenye	-11.3331
▁umuhang	-11.3333
ndiro	-11.3338
▁minisiter	-11.3338
ukanyi	-11.3338
irinda	-11.3339
tegetswe	-11.3342
▁imb	-11.3345
mi	-11.3346
▁bakundanye	-11.3347
▁itumanaho	-11.3351
garuka	-11.3352
tubutse	-11.3354
▁bakin	-11.3354
abarwanyi	-11.3355
igisata	-11.3359
arc	-11.336
▁zigendan	-11.3363
ani	-11.3363
▁rishobor	-11.3363
▁pembe	-11.3363
umuturanyi	-11.3364
irwanya	-11.3366
ihagije	-11.3369
anafite	-11.3369
imbunda	-11.3372
abat	-11.3373
▁gervai	-11.3373
▁guturuka	-11.3374
▁avance	-11.3374
▁kirangiye	-11.3374
gi	-11.3375
▁mushahara	-11.3376
▁inyoko	-11.3376
▁kuvuts	-11.3376
tambwe	-11.3377
▁yvonne	-11.3377
▁butabera	-11.3378
▁pierrot	-11.3379
▁bidahagije	-11.338
▁mushikiwabo	-11.3382
▁jazz	-11.3383
▁kubikurikirana	-11.3385
▁twatsinzwe	-11.3385
▁Nta	-11.3387
▁hene	-11.3388
▁akundana	-11.3388
▁banya	-11.3388
▁arebe	-11.3391
▁uwizeye	-11.3391
araye	-11.3393
▁kworoherez	-11.3393
▁babarizwa	-11.3397
▁dutuye	-11.3399
▁sun	-11.3401
aherukaga	-11.3404
▁frws	-11.3405
▁buga	-11.3406
▁ubutwari	-11.3406
▁union	-11.3408
▁mar	-11.3409
▁byashoboka	-11.341
▁amaduka	-11.3412
▁rira	-11.3412
▁yahamije	-11.3413
▁amissi	-11.3413
▁app	-11.3418
▁amakaro	-11.3421
awundi	-11.3422
▁yibutsa	-11.3425
▁comment	-11.3427
sanamu	-11.3427
asinyanye	-11.3431
rikoresha	-11.3431
hagati	-11.3432
jije	-11.3433
▁rushwan	-11.3434
▁watewe	-11.3435
▁survi	-11.3435
▁president	-11.3437
vp	-11.3437
▁ushingiye	-11.3439
▁buzi	-11.3442
▁iraba	-11.3443
▁bahombe	-11.3445
ahoraga	-11.3445
▁niki	-11.3453
▁ubugiz	-11.3456
umugambi	-11.3456
news	-11.3457
▁bagejeje	-11.3457
▁aheze	-11.3461
▁jordan	-11.3462
mfasha	-11.3462
▁D	-11.3464
▁avunj	-11.3465
▁uburinganire	-11.3466
▁izongera	-11.3466
croatia	-11.3469
ubuyapani	-11.3472
▁afunze	-11.3472
▁bitangira	-11.3474
icumu	-11.3475
general	-11.3476
▁cyagenewe	-11.3477
▁ntiki	-11.3477
izakomereza	-11.3478
ugushyingo	-11.3482
▁kuvuka	-11.3486
▁professionnel	-11.3488
▁mohammed	-11.3488
▁jolly	-11.3488
▁kiriziya	-11.3488
▁sall	-11.3489
▁uwurongoye	-11.3489
▁weasel	-11.3489
▁salongo	-11.349
▁hakurikiye	-11.349
▁guhesh	-11.349
ahunze	-11.3491
▁tito	-11.3491
dushya	-11.3492
▁kibanyi	-11.3492
▁rupangu	-11.3492
▁kwiyumanganya	-11.3492
▁gukwirakwira	-11.3492
▁ndizera	-11.3494
tunzwe	-11.3494
▁urusimbi	-11.3494
▁G	-11.3495
▁megawatt	-11.3495
▁minaloc	-11.3495
icy	-11.3495
ifungwa	-11.3497
▁yishyurwa	-11.3497
▁eco	-11.3499
▁bangal	-11.3503
▁kubyumva	-11.3504
▁kirenze	-11.3504
abayisilamu	-11.3505
▁atabasha	-11.3505
ikopi	-11.3506
▁abaterankunga	-11.3507
▁ateganyijwe	-11.3508
▁yaroherej	-11.3508
umukecuru	-11.351
ibyishimo	-11.3511
▁kumena	-11.3511
sezererwa	-11.3515
yaguze	-11.3516
▁eto	-11.3517
▁wapfuye	-11.3519
bakungu	-11.3521
▁yizewe	-11.3521
ex	-11.3522
ganisha	-11.3522
▁dufatanyije	-11.3526
▁buramatari	-11.3528
sigaje	-11.3529
agendeye	-11.3529
▁ibisanzwe	-11.3529
▁ntumwa	-11.3537
gayitse	-11.3537
nganya	-11.3539
▁Aba	-11.354
▁mbogo	-11.3541
▁imihigo	-11.3545
▁mal	-11.3546
shya	-11.3546
▁bashakaga	-11.3547
▁inyura	-11.3548
▁inkongi	-11.3551
cdp	-11.3551
▁yatangiriye	-11.3552
▁yarashwe	-11.3553
hatanira	-11.3553
▁ugize	-11.3555
alici	-11.3562
abategarugori	-11.3564
▁bagurirwa	-11.3564
▁umuyobor	-11.3568
▁good	-11.357
▁ruriho	-11.357
▁zanyu	-11.357
▁akurikira	-11.3571
▁gukwa	-11.3572
endelea	-11.3572
▁ikine	-11.3576
akundanye	-11.3578
▁rishinz	-11.3578
▁ate	-11.358
kwirinda	-11.358
dandaza	-11.3581
wiza	-11.3582
▁bitabo	-11.3583
abajura	-11.3584
▁guturits	-11.3585
fungurwa	-11.3585
▁risab	-11.3586
isonga	-11.3589
ambwiye	-11.359
aji	-11.359
▁bishyize	-11.3596
amavuriro	-11.3596
▁yamenye	-11.3596
icyemezo	-11.3597
▁wita	-11.3598
▁rwamu	-11.3599
▁kolone	-11.3599
▁uja	-11.3601
▁equity	-11.3605
▁etiyopiya	-11.3605
▁idakingiye	-11.3606
▁jennifer	-11.3607
▁yazamutse	-11.3608
▁gisivil	-11.3608
▁rushya	-11.3609
▁gutumiza	-11.361
▁darling	-11.3611
sheje	-11.3611
▁market	-11.3614
▁nyabuna	-11.3614
▁nahise	-11.3616
▁dukundana	-11.3616
▁li	-11.3616
▁urangwa	-11.3617
▁inzirakarengan	-11.3617
▁yirirwa	-11.3618
▁yavugiye	-11.3619
▁yubaka	-11.3619
asoreshwa	-11.362
▁phone	-11.3621
bibutse	-11.3621
▁gahoro	-11.3621
▁WA	-11.3621
▁agaheng	-11.3622
▁akaboko	-11.3623
▁kugerwaho	-11.3624
▁kukubwira	-11.3625
▁yahinze	-11.3628
▁communication	-11.3632
▁batandukana	-11.3633
▁murakoze	-11.3633
▁ibifungurwa	-11.3634
▁atajya	-11.3635
▁kuyikoresha	-11.3636
mirire	-11.3639
vomesh	-11.364
▁inkuba	-11.3641
▁abacuku	-11.3643
▁afrob	-11.3644
▁bakaz	-11.3647
sekeje	-11.3649
▁umugani	-11.3649
▁gusur	-11.3649
abaza	-11.365
urutok	-11.365
▁anganya	-11.3651
bayicuruza	-11.3654
dahagije	-11.3655
▁adahera	-11.3656
▁tp	-11.3658
▁kubakish	-11.366
▁izatanga	-11.3661
tabire	-11.3661
umw	-11.3664
isekuru	-11.3664
ns	-11.3666
sohoka	-11.3666
▁tunis	-11.3669
ibarutse	-11.3676
itubere	-11.3676
▁ubutungane	-11.3679
▁mutego	-11.368
▁yigaga	-11.3681
diction	-11.3682
▁guhungaban	-11.3685
kigura	-11.3685
▁ruzakin	-11.3686
▁amenya	-11.3689
banyonzi	-11.3691
ford	-11.3692
▁kubwo	-11.3692
asubirwamo	-11.3693
▁sky	-11.3694
▁ingurube	-11.3699
▁afro	-11.37
▁ituze	-11.3702
kuye	-11.3704
▁kuku	-11.3704
▁gasa	-11.3705
▁Ubu	-11.3705
▁umuhinga	-11.3706
▁kutitab	-11.3707
▁yakubiswe	-11.3707
nta	-11.3709
▁kwisi	-11.371
▁sindi	-11.3712
rdles	-11.3714
amugiriye	-11.3714
▁bibasi	-11.3715
▁yabugenewe	-11.3716
asaga	-11.3718
▁gahonzire	-11.3724
▁baraba	-11.3725
▁superstar	-11.3725
▁vel	-11.3725
atanye	-11.3725
▁botswana	-11.3726
▁itazajya	-11.3726
▁olomide	-11.3726
ahungiye	-11.3727
▁wasafi	-11.3727
▁ridasanzwe	-11.3727
thilde	-11.3727
umbaguz	-11.3728
▁singit	-11.3729
▁kwandikish	-11.3733
▁hashoboka	-11.3734
▁bashasha	-11.3734
amakimbirane	-11.3734
▁ssp	-11.374
▁agirwa	-11.3743
▁urenga	-11.3743
▁ndengera	-11.3743
icet	-11.3745
▁lui	-11.3746
▁unr	-11.3746
▁buhari	-11.3747
▁byifashe	-11.3748
▁bikarangira	-11.3754
teguriwe	-11.3755
▁yaguzwe	-11.3756
▁abanyamitahe	-11.3756
▁bishika	-11.3757
▁uburozi	-11.3759
▁amayobera	-11.376
▁yat	-11.3761
▁byatera	-11.3762
▁bwaki	-11.3763
▁twara	-11.3764
▁bagatanga	-11.3764
▁kurihir	-11.3764
▁icyemez	-11.3767
ikiciro	-11.3769
▁iterabwoba	-11.3769
▁vyiwe	-11.377
▁ibigwi	-11.3771
ukagabanuka	-11.3772
▁tub	-11.3773
▁source	-11.3775
▁ndere	-11.3775
▁zida	-11.3779
urubanza	-11.3782
▁yakuwe	-11.3786
▁jo	-11.3787
▁bigaragaye	-11.3787
▁civil	-11.3788
▁bijyan	-11.379
ement	-11.3791
▁ihumany	-11.3794
naho	-11.3796
▁byibasira	-11.3802
▁Kama	-11.3804
ubwigenge	-11.3804
▁karusi	-11.3806
▁gushikiriza	-11.3807
▁rikora	-11.3808
▁yariye	-11.3811
▁barwanya	-11.3812
anashinjwa	-11.3814
▁abirabura	-11.3816
anda	-11.382
▁kahise	-11.382
ihohotera	-11.3822
ica	-11.3824
▁impush	-11.3825
wakoze	-11.3825
tanga	-11.3828
▁yadu	-11.3828
▁tutibagi	-11.3835
▁anania	-11.3835
▁amuha	-11.3835
amikazi	-11.3835
▁yitabirwa	-11.3837
abarongoye	-11.3837
▁dieudonne	-11.3837
▁yamara	-11.3838
▁bahunga	-11.3839
mwaduko	-11.3841
amayero	-11.3842
▁max	-11.3842
▁byiyongereye	-11.3842
▁cyavuye	-11.3843
▁atuyemo	-11.3844
▁regional	-11.3845
▁nyabagendwa	-11.3847
▁ntibibuza	-11.3847
▁gasanzwe	-11.385
▁robot	-11.385
abatoye	-11.385
▁guhunga	-11.3854
▁dukurikije	-11.3854
bose	-11.3856
▁yoherezwa	-11.3857
▁biraro	-11.3857
ibisanzwe	-11.3857
ise	-11.3862
▁priscilla	-11.3863
▁kwid	-11.3864
tanze	-11.3864
migambwe	-11.3868
▁ngenzi	-11.3869
▁isabell	-11.387
▁uhagaze	-11.387
▁abaserukir	-11.3875
▁sha	-11.3876
▁bizakomeza	-11.3884
▁sake	-11.3885
tangazo	-11.3888
▁byanjye	-11.3889
kuru	-11.3889
ariryo	-11.3891
atekereje	-11.3892
▁kworor	-11.3892
▁uduha	-11.3893
▁byabaga	-11.3894
▁ibinyoma	-11.3895
▁gashya	-11.3896
ibazwa	-11.3897
▁mbonera	-11.3905
▁ignac	-11.3905
▁disp	-11.3907
▁muhizi	-11.391
baganyi	-11.391
mwigira	-11.3911
▁abarara	-11.3911
▁abarezi	-11.3912
▁imvaho	-11.3913
▁bumvaga	-11.3913
agarukaga	-11.3914
▁umuhire	-11.3914
nzira	-11.3915
▁badashak	-11.3917
▁agata	-11.3917
mbuke	-11.3917
▁baraye	-11.3921
titabira	-11.3922
nzungu	-11.3923
▁sima	-11.3923
▁zajya	-11.3924
aguraga	-11.3924
gurutse	-11.3925
▁babanaga	-11.3925
▁yarushije	-11.3926
▁zijanye	-11.3928
▁uteye	-11.3929
▁hamad	-11.393
▁batarya	-11.3932
ziyaremye	-11.3933
padiri	-11.3936
▁ibigaragaza	-11.3942
▁yongere	-11.3943
!!	-11.3943
▁yamamaza	-11.3945
unamira	-11.3948
▁rond	-11.3949
imbabazi	-11.3949
rppa	-11.3951
▁batangura	-11.3951
▁iranga	-11.3953
okora	-11.3956
▁kabare	-11.3957
umuhanuzi	-11.3957
voiture	-11.3958
▁havug	-11.3961
▁kubara	-11.3962
miller	-11.3962
▁grande	-11.3963
ram	-11.3963
zera	-11.3964
▁rwafashe	-11.3964
▁habamo	-11.3965
▁ntitwa	-11.3966
▁imifuk	-11.3967
▁amazon	-11.3967
▁zoubed	-11.3967
mikurire	-11.3968
▁network	-11.3969
▁gatabazi	-11.3969
▁mazembe	-11.3969
▁baririmbye	-11.397
egukanye	-11.3971
▁yatangazwa	-11.3971
▁kavukire	-11.3971
▁mubikorwa	-11.3972
ibibanza	-11.3972
pfushije	-11.3973
▁kugabira	-11.3974
▁babisikana	-11.3974
▁alice	-11.3975
▁barivuye	-11.3975
bakenyezi	-11.3976
ujyanye	-11.3978
▁gutuza	-11.3978
▁dukomeze	-11.398
▁bahangayikish	-11.3982
▁aguma	-11.3983
rofa	-11.3983
▁pia	-11.3983
▁kacu	-11.3985
▁zafatiwe	-11.3986
▁bushimishije	-11.3987
▁cyegukany	-11.3987
ufite	-11.3987
▁igitangaza	-11.3988
▁bibangamira	-11.3989
▁byasobanu	-11.399
ies	-11.3992
▁ababagana	-11.3993
inkono	-11.3995
▁ukuze	-11.3996
▁rwigira	-11.3996
amubwiye	-11.4
injiramo	-11.4
ungirije	-11.4005
hingura	-11.4006
▁utangiye	-11.4007
▁inyangamugayo	-11.4008
▁goran	-11.4009
▁akagenda	-11.401
▁abatora	-11.4011
ukwiriye	-11.4011
bya	-11.4011
ashimwe	-11.4012
▁drone	-11.4012
▁ruta	-11.4013
azoca	-11.4015
▁yatahukanye	-11.4018
▁cla	-11.4019
▁ntiwa	-11.402
arekurwa	-11.402
pfobya	-11.4026
▁dusabe	-11.4028
fate	-11.4031
▁waciye	-11.4032
▁nyama	-11.4033
▁rwemeza	-11.4036
▁umushakashatsi	-11.4038
akarengane	-11.4041
▁gukurikiranwaho	-11.4041
▁ngenda	-11.4044
▁yagirizwa	-11.4047
▁nkura	-11.4048
▁ibicurane	-11.405
ihingwa	-11.4051
bazwa	-11.4052
nova	-11.4052
wigeze	-11.4052
▁ifu	-11.4053
▁bakayi	-11.4054
imba	-11.4055
zihuza	-11.4055
babyaye	-11.4057
▁ntirwaba	-11.406
uriho	-11.4061
▁twaraba	-11.4061
amasosiyet	-11.4061
nyifat	-11.4062
▁ingwate	-11.4062
tsinsi	-11.4062
▁babigize	-11.4067
caller	-11.4069
▁mitima	-11.407
▁bagendana	-11.4071
▁hakwiy	-11.4072
▁201	-11.4074
▁uherereye	-11.4075
▁miriyari	-11.408
▁bonif	-11.4084
teje	-11.4084
▁bakore	-11.4085
▁ngeri	-11.4086
▁bakabikora	-11.4087
wari	-11.4088
▁bon	-11.4089
▁coul	-11.409
▁murandasi	-11.409
▁cogebanque	-11.409
▁yaruhinze	-11.409
▁gisembe	-11.4091
▁twizeyimana	-11.4091
▁gukurikizwa	-11.4091
▁sheh	-11.4092
▁moise	-11.4092
▁angelique	-11.4093
vette	-11.4094
▁angel	-11.4094
▁kwirwanaho	-11.4095
▁birushijeho	-11.4096
▁yagaruka	-11.4096
▁china	-11.4097
ihanganye	-11.4097
▁salon	-11.4098
▁ntango	-11.4098
inzibacyuho	-11.4098
▁bruxelles	-11.4098
▁kwikinisha	-11.4099
▁kugendana	-11.4102
▁moses	-11.4102
▁babigenza	-11.4104
▁musozo	-11.4104
kangara	-11.4105
▁uwacu	-11.4105
yange	-11.4107
bwirwa	-11.4109
▁zizo	-11.4109
▁yetu	-11.4109
▁yifashisha	-11.411
▁zuzuye	-11.4111
▁kumanur	-11.4113
▁bababwira	-11.4116
▁saido	-11.4116
ubukanguramba	-11.4116
▁bwazo	-11.4117
▁cyageze	-11.4118
▁ubwubatsi	-11.4119
ibirori	-11.4119
▁barajuri	-11.412
▁cine	-11.4122
▁may	-11.4124
▁wiyongera	-11.4124
heze	-11.4127
▁wawo	-11.4128
▁guterera	-11.4128
▁gisaka	-11.4128
gose	-11.413
▁mer	-11.4132
oroshye	-11.4135
▁kurubuga	-11.4136
▁abifuza	-11.4138
▁chumb	-11.4141
ariho	-11.4148
cp	-11.4149
arenze	-11.4151
▁intambamyi	-11.4152
mvye	-11.4153
badashoboye	-11.4155
bakize	-11.4156
▁bukavu	-11.4158
▁yagen	-11.4159
▁viza	-11.4161
utugari	-11.4162
atyazo	-11.4163
cacu	-11.4164
▁aze	-11.4168
▁basi	-11.4169
shimiwe	-11.4171
▁aurelie	-11.4172
▁serb	-11.4174
▁manza	-11.4175
nyuranye	-11.4175
▁shyira	-11.4176
igezweho	-11.4179
▁karera	-11.4182
▁abize	-11.4184
abatanze	-11.4188
▁steph	-11.419
▁aniz	-11.419
kemera	-11.4191
▁white	-11.4193
ideni	-11.4197
ace	-11.4197
▁twibuka	-11.4198
▁zo	-11.4198
nyuramo	-11.4198
▁bugira	-11.4199
▁gut	-11.42
▁nationa	-11.4201
▁wize	-11.4204
▁vide	-11.4204
▁bisaga	-11.4207
▁musego	-11.4208
murikwa	-11.4211
wihesha	-11.4213
▁yangije	-11.4213
musanze	-11.4214
afatanije	-11.4215
▁igakurikir	-11.4215
▁agbenonci	-11.4215
▁microsoft	-11.4215
▁faisal	-11.4215
pagaritswenimana	-11.4215
▁mavuriro	-11.4216
▁ismail	-11.4217
▁yakinaga	-11.4217
▁gaherereye	-11.4218
▁gufungurwa	-11.4218
uburusiya	-11.4219
▁saoudite	-11.422
size	-11.422
▁apdr	-11.422
▁kivandimwe	-11.4221
abagwayi	-11.4222
▁yikata	-11.4223
uwurongoye	-11.4223
adege	-11.4224
▁adaharanira	-11.4224
▁matoni	-11.4225
ivugiye	-11.4225
lo	-11.4226
minisitiri	-11.4226
▁gutoroka	-11.423
▁lakini	-11.423
ariya	-11.423
▁bicara	-11.4231
▁ntir	-11.4231
▁gihamya	-11.4234
▁byimbitse	-11.4235
▁canecane	-11.4235
imirasire	-11.424
▁barinda	-11.4241
▁arsene	-11.4241
▁bemeye	-11.4243
amazuru	-11.4244
▁baburanishi	-11.4246
hejeje	-11.4249
tegereje	-11.4252
age	-11.4252
abihinze	-11.4253
guriwe	-11.4255
shigikiye	-11.4257
▁dukomeje	-11.4257
butumire	-11.4258
amashure	-11.4259
▁dutanga	-11.4263
gozi	-11.4264
wounds	-11.4264
oroheye	-11.4266
eretswe	-11.4266
guma	-11.4267
▁ikibuno	-11.4269
imetero	-11.4276
buto	-11.4278
ara	-11.4278
▁kurasa	-11.4279
abikesha	-11.4281
▁yimirije	-11.4281
▁judith	-11.4281
amaranye	-11.4281
▁ronald	-11.4281
cegeranyo	-11.4282
etat	-11.4282
▁imizigo	-11.4283
▁nasi	-11.4285
▁uhana	-11.4286
▁burenganzira	-11.4288
▁barongoye	-11.4292
▁guide	-11.4294
ukinwa	-11.4294
▁oda	-11.4299
so	-11.43
▁bagurisha	-11.4302
barira	-11.4305
▁wigisha	-11.4306
ish	-11.431
bwami	-11.4311
▁yiteze	-11.4312
▁yanahamij	-11.4319
▁ibirenge	-11.432
fatanije	-11.4322
▁bagakura	-11.4325
▁ov	-11.4328
ungutse	-11.4329
▁kwama	-11.433
▁ntan	-11.4331
les	-11.4335
▁bakinana	-11.4336
menyeshako	-11.4338
▁udukoko	-11.434
▁nyamwasa	-11.4342
▁ina	-11.4344
▁munyeshuri	-11.4344
▁guhumbik	-11.4345
▁kwibonekeza	-11.4346
▁abasanzwe	-11.4347
▁palace	-11.4348
▁dogg	-11.4349
▁Kandi	-11.435
▁manini	-11.4351
ibikomere	-11.4351
dahari	-11.4351
▁kuzamurwa	-11.4352
▁odette	-11.4354
▁kuk	-11.4354
umurage	-11.4355
incuti	-11.4356
▁uhamye	-11.4356
yatanze	-11.4359
sibo	-11.4361
▁nicole	-11.4363
▁mwari	-11.4365
abanduye	-11.4365
▁ukwi	-11.4365
yegukana	-11.4371
▁ndiri	-11.4372
▁yemwe	-11.4377
gora	-11.4377
terambere	-11.4378
rondera	-11.4378
abitabira	-11.4379
▁wabigize	-11.4383
▁red	-11.4387
kuranga	-11.4387
uvuze	-11.4387
▁barangiza	-11.4389
▁gihano	-11.4389
▁mujye	-11.439
ulation	-11.4394
ibiterwa	-11.4395
▁batura	-11.4399
usi	-11.4399
ituze	-11.4401
▁ntizi	-11.4401
imyambaro	-11.4401
yitiriye	-11.4405
tinyuka	-11.4408
▁duter	-11.4409
bambwe	-11.441
utwaye	-11.4411
igurwa	-11.4414
▁yumve	-11.4417
▁ukubura	-11.4423
▁yatangiraga	-11.4425
▁ikigamij	-11.4426
abakiliya	-11.4429
ads	-11.443
▁yiyongereyeho	-11.443
nduye	-11.4431
ubwizigam	-11.4433
nonosoye	-11.4434
ifatiye	-11.444
▁gal	-11.4442
ibimera	-11.4444
▁icyate	-11.4445
atson	-11.4446
▁arimwo	-11.4446
▁kuyishyira	-11.4447
▁dufata	-11.4448
▁ahava	-11.4448
igira	-11.4451
avec	-11.4455
▁ruva	-11.4456
▁message	-11.4457
▁guhakan	-11.4458
▁bisi	-11.4458
▁haraca	-11.4465
▁ibaha	-11.4465
▁william	-11.4466
ogratias	-11.4467
▁juvnal	-11.447
▁tropical	-11.4471
▁are	-11.4471
▁hazatorwa	-11.4473
▁akamuha	-11.4473
▁tukabona	-11.4475
bahungabanyiri	-11.4476
▁ahabera	-11.4476
▁master	-11.4477
▁bitego	-11.4478
▁ubungub	-11.4479
▁amste	-11.448
ikinyabupfura	-11.448
▁inyarwandacom	-11.4483
▁guhaza	-11.4483
mubwira	-11.4484
▁agatar	-11.4485
▁tudafite	-11.4486
arashobora	-11.4489
yikoresha	-11.449
▁bagakoresha	-11.449
▁bururi	-11.449
dayimoni	-11.4493
▁binubira	-11.4493
▁sal	-11.4493
kinga	-11.4494
kenewe	-11.4494
▁bwabaye	-11.4495
▁kwipimisha	-11.4495
abashoferi	-11.4496
▁muramvya	-11.4497
▁ihangir	-11.4499
kubita	-11.4501
▁ndizeye	-11.4502
▁tukiri	-11.4504
tunze	-11.4506
▁bikazarangira	-11.4506
akiniraga	-11.4509
impuzama	-11.4509
▁gifatw	-11.4513
▁birush	-11.4518
▁ubuzi	-11.4519
▁murabo	-11.452
▁sibyo	-11.4521
▁kutubahiriz	-11.4525
▁guhisha	-11.4526
ngagi	-11.4526
temewe	-11.4527
kaba	-11.4527
ishwe	-11.4529
▁ave	-11.4529
▁intonde	-11.453
rangwa	-11.4531
▁rukwiye	-11.4532
▁freddy	-11.4532
▁local	-11.4532
ak	-11.4533
▁nota	-11.4537
▁umwamikazi	-11.4539
▁babyifuza	-11.454
mv	-11.4544
▁ngagara	-11.4545
▁mose	-11.4551
ishyamba	-11.4552
▁maka	-11.4555
▁kwishur	-11.4559
▁ibivugwa	-11.456
▁ibitsina	-11.456
tanguye	-11.4561
marembo	-11.4563
garura	-11.4566
asimbuye	-11.457
ahiye	-11.4571
nd	-11.4572
ngi	-11.4573
gu	-11.4573
kabanza	-11.4574
▁yahuriye	-11.4575
▁myigire	-11.4578
▁kantu	-11.4578
▁rusha	-11.4578
garama	-11.4583
▁var	-11.4586
▁ibiba	-11.4587
▁wabonye	-11.4587
▁ubizi	-11.4587
▁abasenyeri	-11.4589
▁zuba	-11.4592
▁barungik	-11.4592
▁bazagera	-11.4593
igitondo	-11.4594
▁ayita	-11.4594
▁kurokoka	-11.4595
▁kwongerez	-11.4597
ambulance	-11.46
▁bado	-11.46
▁karubanda	-11.46
umubano	-11.4601
▁pogba	-11.4602
mabarabara	-11.4602
ingorane	-11.4604
▁korea	-11.4605
▁nyeshyamba	-11.4605
▁ryacyo	-11.4606
▁omo	-11.4606
ishijwe	-11.4607
▁nibintije	-11.4608
▁vestine	-11.4609
▁hageze	-11.4609
▁agence	-11.461
▁yahita	-11.4611
▁kuyitsinda	-11.4612
imijyi	-11.4615
otse	-11.4616
inkotanyi	-11.4617
▁havuka	-11.4617
▁mukora	-11.4618
▁yazi	-11.4619
▁butangaje	-11.462
▁ruganzu	-11.4622
▁namibia	-11.4622
▁utd	-11.4623
izabukuru	-11.4625
▁taifa	-11.4627
akora	-11.463
bagabo	-11.4631
▁zititab	-11.4632
funguzo	-11.4632
▁zibwe	-11.4633
ntumbero	-11.4634
gurishwa	-11.4637
▁murangwa	-11.4637
▁ubusitani	-11.4638
▁kwifata	-11.4638
ihanganisha	-11.464
▁akagali	-11.4646
▁babifata	-11.4647
▁yajany	-11.4648
ateze	-11.465
▁gusaka	-11.4651
abuzi	-11.4652
▁bitwa	-11.4653
muhesha	-11.4654
src	-11.4656
ameza	-11.4657
bwiriza	-11.4662
▁bahamya	-11.4663
▁ububabare	-11.4667
▁kwegerany	-11.467
utegura	-11.4672
▁tubi	-11.4673
▁beyonc	-11.4674
▁africans	-11.4677
▁ruhu	-11.4683
teganijwe	-11.4683
▁barayi	-11.4684
dahagaze	-11.4685
▁mbund	-11.4685
▁ih	-11.4686
huriro	-11.4687
itangwa	-11.469
▁dukomeza	-11.4696
▁umunyamahanga	-11.4696
▁bakoreraga	-11.47
▁bakamuha	-11.4701
▁kdi	-11.4703
▁ihuriye	-11.4703
▁nab	-11.4703
azana	-11.4705
kigereranyo	-11.4706
▁afatiye	-11.4706
▁express	-11.4707
▁batishimi	-11.4708
▁zigaragaza	-11.471
▁umusing	-11.471
▁regis	-11.4711
▁imitekerereze	-11.4712
mariya	-11.4714
▁bufata	-11.4715
▁bwami	-11.4716
ngunguru	-11.4717
akatirwa	-11.4719
▁akava	-11.4719
yura	-11.472
▁rutari	-11.4721
▁tubasha	-11.4723
vaho	-11.4723
utaratanga	-11.4725
imirongo	-11.4731
▁ibimenyes	-11.4731
kubwira	-11.4732
▁kanyosha	-11.4732
▁ngendakumana	-11.4732
▁kunyica	-11.4732
gamiye	-11.4733
▁rukerera	-11.4733
twigisha	-11.4734
▁brothers	-11.4734
▁yaraje	-11.4734
▁zishaje	-11.4735
▁ndishimye	-11.4736
▁abagira	-11.4736
▁mombasa	-11.4737
▁bujejwe	-11.4737
▁atetse	-11.4739
▁yozef	-11.474
▁umwirondoro	-11.4741
ashaje	-11.4741
▁rwinshi	-11.4742
▁bwacyo	-11.4742
▁migi	-11.4743
imuriwe	-11.4743
▁weekend	-11.4744
radiyo	-11.4745
ombe	-11.4745
yatangiye	-11.4746
▁butunguranye	-11.4747
▁kwirara	-11.4748
mwereka	-11.4749
▁mvune	-11.4749
▁notre	-11.475
umucamanza	-11.475
▁droit	-11.475
agaragarije	-11.4751
▁wang	-11.4751
yatangijwe	-11.4754
▁arangwa	-11.4755
▁bizakorwa	-11.4755
intoki	-11.4756
ibyuma	-11.4758
abasaga	-11.4758
▁yatumiye	-11.4759
hanahana	-11.4762
▁isango	-11.4763
goboka	-11.4763
▁gambia	-11.4763
▁wabashije	-11.4765
▁birahari	-11.4766
bihuru	-11.4767
▁kate	-11.4768
▁bagiriza	-11.4771
▁tune	-11.4771
▁kubagwa	-11.4773
▁mwaba	-11.4775
land	-11.4776
▁habonek	-11.4777
▁uzava	-11.4777
▁rb	-11.4778
▁batarenz	-11.478
▁ulimwengu	-11.4781
▁bazahaguruk	-11.4781
▁mugiye	-11.4782
injiza	-11.4784
▁kutumvikan	-11.4785
ganga	-11.4785
asohora	-11.4786
▁zinjirir	-11.4787
▁nelly	-11.4787
▁komin	-11.479
shuti	-11.479
▁Ka	-11.479
▁umuvandimwe	-11.4791
▁ndamu	-11.4791
zaramba	-11.4791
sebya	-11.4797
▁yafungura	-11.4797
haza	-11.4804
..	-11.4806
isubiza	-11.4806
▁kugarukana	-11.4807
isoza	-11.4809
apimwa	-11.481
▁uyi	-11.4812
isumbuye	-11.4813
twitse	-11.4817
▁amahitamo	-11.482
▁ibige	-11.4821
ikinyabiziga	-11.4822
▁mbogamizi	-11.4824
gakingirizo	-11.4824
ukoreshwa	-11.4828
▁rwung	-11.4828
▁arashima	-11.4831
▁ntiyari	-11.4831
abavyeyi	-11.4831
kabiri	-11.4833
▁gus	-11.4835
kageza	-11.4835
abiciwe	-11.4836
giraho	-11.4837
pata	-11.4838
▁bawe	-11.4838
ice	-11.4839
renza	-11.4839
▁babaza	-11.4839
▁mwo	-11.4844
▁croatia	-11.4845
▁cyonyine	-11.4846
▁ndani	-11.4848
dc	-11.485
genera	-11.4853
iherereye	-11.4853
oms	-11.4854
▁utuzu	-11.4859
dufasha	-11.4862
▁umunyu	-11.4862
elmay	-11.4863
hamara	-11.4863
ian	-11.4864
▁ladisla	-11.4865
▁xaver	-11.4865
▁alarm	-11.4865
▁sheeba	-11.4866
▁kinyinya	-11.4866
▁franck	-11.4866
▁ryakeye	-11.4867
▁leicester	-11.4867
baha	-11.4867
funguye	-11.4868
ndora	-11.4869
ubukure	-11.4869
rondereza	-11.487
agaragazaga	-11.487
avuze	-11.4871
ihumure	-11.4871
▁ihumure	-11.4872
▁magazine	-11.4874
▁couple	-11.4875
▁ndayisenga	-11.4875
▁ukubiri	-11.4875
▁yaratsinze	-11.4876
▁kuyirinda	-11.4876
▁bibujijwe	-11.4878
▁adasanzwe	-11.4879
▁eid	-11.4879
irwo	-11.488
▁Hari	-11.4881
yazanye	-11.4881
▁kudu	-11.4881
▁abatavuga	-11.4882
▁bakirind	-11.4883
▁zikorera	-11.4884
▁ubald	-11.4884
▁bizabafash	-11.4886
▁push	-11.4886
ubusambanyi	-11.4887
umusekerw	-11.4887
▁challenge	-11.4887
ohoza	-11.4888
▁yakiniraga	-11.4889
ibonyeko	-11.4889
▁bwakoreshejwe	-11.4893
▁kwigishwa	-11.4894
▁yamubwiye	-11.4895
igwa	-11.4895
abahinga	-11.4895
kabona	-11.4898
bagaburira	-11.4899
tangiranye	-11.49
imvugo	-11.49
njira	-11.4902
hororo	-11.4903
▁hitabwa	-11.4904
▁akabura	-11.4904
▁urudandazwa	-11.4904
ole	-11.4905
▁azabona	-11.4905
▁basubiye	-11.4906
taratunganywa	-11.4908
▁cyatangiriye	-11.4909
▁buts	-11.4912
▁mari	-11.4913
▁nagize	-11.4913
vugururwa	-11.4914
▁muzo	-11.4914
izanye	-11.4915
▁rutangira	-11.4916
▁ishyari	-11.4916
takaza	-11.4916
giro	-11.4917
isimbi	-11.4918
▁batsinda	-11.4921
▁winjije	-11.4921
▁abacunguwe	-11.4922
▁abahiganw	-11.4923
▁window	-11.4924
▁makeya	-11.4926
▁wavutse	-11.4927
okorera	-11.4928
myiyerekano	-11.4935
▁bafatanije	-11.494
▁barangwa	-11.494
ngane	-11.4945
▁sean	-11.4945
ikiro	-11.4946
▁agi	-11.4948
▁ikibi	-11.4949
imihoro	-11.4952
uzabera	-11.4952
bahizi	-11.4954
▁gukinish	-11.4954
▁amadeviz	-11.4955
▁iboneka	-11.4956
▁murika	-11.4956
uretse	-11.4959
▁agahimbazamusyi	-11.4961
chorale	-11.4961
▁kububakir	-11.4962
▁bitura	-11.4964
ohererejwe	-11.4964
ubuhamya	-11.4966
▁kibaho	-11.4966
ijyana	-11.4967
▁ngir	-11.4968
▁harebwa	-11.4969
ingwa	-11.4972
isuri	-11.4972
uwe	-11.4972
▁amabara	-11.4972
byitabira	-11.4976
byakorewe	-11.4976
endaga	-11.4976
▁igifaransa	-11.4979
igurishwa	-11.4981
▁guinee	-11.4982
▁imigani	-11.4984
▁gusama	-11.4988
▁muda	-11.4988
▁indero	-11.499
tira	-11.4991
fanya	-11.4993
▁teka	-11.4994
▁bamenyesha	-11.4996
▁gymkhana	-11.5
▁regideso	-11.5
▁shyogwe	-11.5
▁washington	-11.5
▁aurore	-11.5
▁gusambana	-11.5002
▁agacibwa	-11.5003
▁guhaguruka	-11.5003
▁tatizo	-11.5005
▁gihagije	-11.5005
▁essence	-11.5005
▁andrew	-11.5006
ikoraniro	-11.5006
▁djor	-11.5007
ikambi	-11.5011
▁his	-11.5012
▁gusarura	-11.5012
▁izarangira	-11.5012
▁drake	-11.5014
▁kumushyigikira	-11.5014
ganji	-11.5015
arakozwe	-11.5015
▁gusakaza	-11.5016
▁yasimbuye	-11.5016
▁rapid	-11.5017
genza	-11.5017
dutse	-11.5019
▁yanagarutse	-11.502
▁ubud	-11.5022
▁bakizi	-11.5025
▁bitunguranye	-11.5026
▁ruhuz	-11.5026
umucuruzi	-11.5026
▁amayeri	-11.5027
▁ubufaransa	-11.5028
bigenze	-11.5029
▁haiti	-11.5031
▁akamanzi	-11.5033
▁bizemer	-11.5033
▁health	-11.5036
▁gusesa	-11.5037
abicanyi	-11.5037
▁badandaza	-11.504
▁bazahabw	-11.5042
▁ashika	-11.5042
▁twobamenyesha	-11.5043
▁rwubatswe	-11.5047
▁ubwitang	-11.5048
oko	-11.505
▁gutungura	-11.5051
kuta	-11.5052
▁amis	-11.5055
rongoye	-11.5058
ababonye	-11.506
oli	-11.5062
ngiro	-11.5066
kibanza	-11.5067
▁ntagan	-11.5067
toni	-11.5069
▁umukiliya	-11.5069
▁igiterek	-11.5077
bavugako	-11.5077
▁xi	-11.508
▁kuvuz	-11.508
▁asanze	-11.5082
▁ashobore	-11.5084
▁gikoreshw	-11.5084
▁ukw	-11.5085
▁kubibona	-11.5088
▁ubushomeri	-11.509
tonda	-11.5093
▁slim	-11.5094
▁washinzwe	-11.5096
gashora	-11.5098
▁noti	-11.5099
▁kwigana	-11.51
▁tutazi	-11.5103
▁baraza	-11.5104
byihanganira	-11.5107
▁unyura	-11.5109
▁babazwa	-11.511
▁izakira	-11.5111
oroheje	-11.5111
mbuzi	-11.5115
akurikirana	-11.5115
▁ugufata	-11.5118
ona	-11.5118
▁kopi	-11.5121
atorwa	-11.5121
rupapuro	-11.5122
▁bigana	-11.5123
corp	-11.5124
▁yabafasha	-11.5125
rabeshuz	-11.5136
▁hitayezu	-11.5137
▁bikagorana	-11.5138
▁byimazeyo	-11.5138
▁gitanda	-11.5138
▁licence	-11.5138
▁salah	-11.5138
▁buyenzi	-11.5138
▁baronse	-11.5138
▁modest	-11.5139
▁legacy	-11.514
▁ambassador	-11.5142
▁izatsind	-11.5146
ubuntu	-11.5148
ugerageza	-11.5149
▁colomb	-11.5149
▁colonel	-11.515
▁bitez	-11.515
▁kiguzi	-11.515
▁wwwmuhaburarw	-11.515
▁amavuriro	-11.5151
▁tubonye	-11.5151
▁yanyujije	-11.5153
▁maisha	-11.5153
eta	-11.5154
▁buhamy	-11.5154
▁abakrist	-11.5154
▁ubwumvikane	-11.5155
▁twabuze	-11.5156
▁Ko	-11.5156
▁baracyari	-11.5156
▁berahino	-11.5156
mwanya	-11.5161
▁ame	-11.5162
▁abibona	-11.5163
▁roho	-11.5165
ingurube	-11.5166
zifashisha	-11.5168
amwunganira	-11.5169
▁wacyo	-11.5169
▁ntaw	-11.517
▁baru	-11.5173
▁kabili	-11.5174
abanyororo	-11.5176
mikono	-11.5176
▁nderer	-11.5177
iry	-11.5178
byifuza	-11.5179
▁ibinogo	-11.5181
dj	-11.5185
kemura	-11.5191
▁kuvur	-11.5191
nkuba	-11.5192
▁amakara	-11.5192
umusanzu	-11.5192
eau	-11.5192
ugiye	-11.5195
▁utw	-11.5196
ruhutse	-11.5196
▁izasoz	-11.5196
▁hafi	-11.5199
▁ibikenewe	-11.5199
▁program	-11.5201
▁bashyikirizwa	-11.5201
iteguriye	-11.5204
nura	-11.5207
▁zirenze	-11.5211
zimuha	-11.5213
▁baada	-11.5213
ishora	-11.5214
▁bagezwa	-11.5214
▁kizo	-11.5219
▁guherekez	-11.5221
▁abyumva	-11.5225
▁mwezi	-11.5225
abamenyesha	-11.5225
▁flavie	-11.5226
stry	-11.5227
▁imidar	-11.5227
▁barwo	-11.5228
uzongera	-11.5228
inzahabu	-11.523
▁kwivuga	-11.5232
▁yahinduye	-11.5232
akomeze	-11.5233
▁bazatanga	-11.5235
rasaba	-11.5239
avuye	-11.5239
subiramo	-11.524
ajurira	-11.5244
▁bwatanze	-11.5246
▁irembo	-11.5247
▁gushing	-11.5248
iracyari	-11.5248
▁ihagaritse	-11.5248
▁bivurwa	-11.5249
uherekejwe	-11.5249
amubaza	-11.525
▁ubupfura	-11.5252
▁tig	-11.5252
tegerejwe	-11.5253
▁ataho	-11.5256
▁bizadufash	-11.5258
gano	-11.5264
▁akab	-11.5266
zindi	-11.5266
amwishe	-11.5267
▁impfu	-11.5267
▁bushikirangan	-11.527
gingo	-11.5276
▁nyandungu	-11.5276
▁mabano	-11.5276
▁yeze	-11.5276
▁msaada	-11.5277
▁mizero	-11.5277
amavuka	-11.5277
imali	-11.5278
▁gitarama	-11.5278
▁agency	-11.5279
bibwa	-11.528
▁taarifa	-11.5282
▁henry	-11.5282
▁kesho	-11.5282
igihombo	-11.5282
▁makuza	-11.5283
▁bwumvikane	-11.5283
▁ashirwa	-11.5285
▁zigenda	-11.5286
agasigara	-11.5287
▁guserukira	-11.5287
izwe	-11.5289
ubutaliyani	-11.5289
ihuje	-11.5291
▁bibona	-11.5292
bwe	-11.5294
▁ecole	-11.5294
▁gutumatumanako	-11.5296
▁zabukuru	-11.5296
abasenyeri	-11.5298
kwerekana	-11.5299
▁umurima	-11.53
▁kwiyemez	-11.5302
▁kudufasha	-11.5302
un	-11.5302
▁bucya	-11.5303
▁bill	-11.5303
▁igenewe	-11.5304
▁bakiriya	-11.5308
rema	-11.531
▁abamo	-11.531
▁bikanga	-11.5311
▁kat	-11.5313
▁rukaza	-11.5316
▁hakaza	-11.5316
▁dufasha	-11.5317
▁davi	-11.5319
bitoza	-11.5319
▁uyobor	-11.5321
▁umunywanyi	-11.5321
▁nkokora	-11.5322
▁bakirwa	-11.5323
▁mwaro	-11.5323
▁iherezo	-11.5324
rwaje	-11.5324
▁byahoze	-11.5324
▁bishyurwa	-11.5325
ibitsindo	-11.5329
▁shar	-11.5329
▁abany	-11.533
▁mel	-11.5331
bagenerwabikorwa	-11.5332
abami	-11.5333
ruzuza	-11.5333
▁bagizi	-11.5334
tanzania	-11.5334
▁ibendera	-11.5335
▁yakiraga	-11.5335
korwaho	-11.5335
▁isai	-11.5337
▁ihame	-11.5337
▁musinga	-11.5339
▁babikoze	-11.534
zamwita	-11.5346
▁ikinyurany	-11.5346
hegereye	-11.5348
▁kereka	-11.5349
▁ritararangi	-11.5349
▁karasira	-11.5349
ty	-11.535
sabe	-11.535
▁kiga	-11.5351
▁irani	-11.5353
▁yange	-11.5354
umuvuduko	-11.5356
▁masamb	-11.5361
arahindutse	-11.5362
kiye	-11.5364
▁poste	-11.5364
▁rinoz	-11.5365
asanganywe	-11.5366
▁zigeze	-11.5367
▁kabaye	-11.5371
do	-11.5372
udu	-11.5375
▁byagize	-11.5377
▁bariho	-11.5378
▁bazaza	-11.5379
▁akanaba	-11.5379
hindukira	-11.538
aza	-11.5383
▁ps	-11.5384
jojob	-11.5386
▁wafashwe	-11.5386
ahesha	-11.5387
▁myiteguro	-11.5391
▁kugaruz	-11.5391
ayoborwaga	-11.5393
ufatwa	-11.5394
shimiyimana	-11.5398
tsindiye	-11.5401
▁abimenyesh	-11.5401
▁franc	-11.5403
iciro	-11.5403
▁biran	-11.5403
▁ababona	-11.5405
▁amukunda	-11.5406
▁ahindura	-11.5409
surwa	-11.541
masaha	-11.5413
▁application	-11.5414
▁camber	-11.5414
gereranyije	-11.5415
▁rubaya	-11.5415
▁reuters	-11.5417
▁gasutamo	-11.5417
▁clapton	-11.5417
▁vedaste	-11.5417
ineza	-11.5417
▁yitabira	-11.5418
▁protected	-11.5419
▁yohereza	-11.5419
▁yadusobanuri	-11.5419
▁uzoba	-11.542
▁gashoboka	-11.542
▁rindi	-11.5421
giraneza	-11.5422
▁yisanga	-11.5425
▁moshions	-11.5426
▁bakemera	-11.5426
gutsimbataza	-11.5427
atty	-11.5428
▁bazica	-11.5428
▁bible	-11.5428
hi	-11.5428
▁ugutora	-11.5429
ets	-11.5429
▁pr	-11.543
▁california	-11.5431
itagira	-11.5431
▁ibivuga	-11.5433
▁kwimenyereza	-11.5433
▁number	-11.5434
akubwiye	-11.5436
▁kabila	-11.5437
tler	-11.5437
▁ukuza	-11.5438
tienne	-11.5438
▁kwikubit	-11.544
▁batange	-11.5442
hamijwe	-11.5443
banyi	-11.5443
▁kurindira	-11.5445
▁tunaomba	-11.5446
▁nayandi	-11.5448
▁pole	-11.5448
▁bwakoreshwa	-11.5449
▁bizafash	-11.5449
▁wajyanywe	-11.5451
▁birindwi	-11.5452
▁murambi	-11.5453
ashimishwa	-11.5454
inararibonye	-11.5459
ibibi	-11.546
▁amarenga	-11.5462
▁gani	-11.5463
kimara	-11.5464
ongererwa	-11.5468
▁nyubakwa	-11.5471
▁ryihariye	-11.5471
bubirigi	-11.5472
▁ikamyo	-11.5477
zarangiza	-11.5478
gutwika	-11.5479
▁seconda	-11.548
▁fer	-11.5481
▁batoya	-11.5484
▁akira	-11.5485
vyo	-11.5485
▁twahawe	-11.5486
▁ukureba	-11.5487
asohotse	-11.5488
▁yanganyije	-11.5488
▁bagafung	-11.5489
▁abapfuye	-11.5489
▁model	-11.5489
akoraga	-11.5493
irego	-11.5493
▁rukura	-11.5494
rifise	-11.5495
▁yahamagari	-11.5496
guze	-11.5497
▁gutwar	-11.5498
sange	-11.5498
miryango	-11.5502
nyije	-11.5505
ubufasha	-11.5505
vuzi	-11.5507
▁yarana	-11.5507
▁ritegany	-11.5508
▁vatican	-11.5524
yanatangiye	-11.5525
mwegereye	-11.5526
kwakirwa	-11.5528
abahatanira	-11.5528
▁kuyo	-11.5531
itse	-11.5532
▁zihabwa	-11.5534
oreka	-11.5535
▁sources	-11.5535
mfatakibanza	-11.5535
▁abitar	-11.5535
▁bwo	-11.5536
▁abera	-11.5537
▁ntez	-11.5538
kinyejana	-11.5538
▁imiyobor	-11.5538
▁batorwa	-11.5539
▁kinyobwa	-11.5539
▁yaciwe	-11.5539
akana	-11.5542
▁kuzatanga	-11.5543
▁inite	-11.5544
▁rigen	-11.5546
shyikirano	-11.5546
▁wareba	-11.5546
byaye	-11.555
▁ataja	-11.5551
agezweho	-11.5552
tari	-11.5552
angisha	-11.5552
▁zin	-11.5553
harimo	-11.5556
▁umuherwe	-11.5557
▁byateguwe	-11.5558
zerere	-11.5558
umutsindo	-11.556
olucome	-11.556
▁busasamana	-11.556
▁khartoum	-11.556
▁mikoresherez	-11.556
▁virgil	-11.556
▁lonce	-11.556
▁yibuka	-11.5561
▁ntangir	-11.5562
▁hills	-11.5564
▁mwigeme	-11.5567
▁rikomoka	-11.5568
▁kugeragezwa	-11.5568
turage	-11.5568
icegera	-11.5569
▁bibyar	-11.557
▁ve	-11.557
▁bahungutse	-11.557
▁mwogo	-11.5575
utsindwa	-11.5576
▁ukubeshya	-11.5577
kongoro	-11.5578
abato	-11.5579
▁dasso	-11.558
▁tuda	-11.558
ngabire	-11.5582
imbwa	-11.5583
▁ringana	-11.5584
▁akemeza	-11.5587
▁barwara	-11.5588
▁wasoma	-11.5588
▁buda	-11.559
▁nguru	-11.5591
ashakanye	-11.5591
▁kurugero	-11.5591
uje	-11.5591
mvya	-11.5592
himbazwa	-11.5594
ububiligi	-11.5599
▁ihamye	-11.5601
uzwi	-11.5602
inkweto	-11.5602
▁ushimishije	-11.5603
datekereza	-11.5604
▁inatsind	-11.5605
hu	-11.5605
▁kubigira	-11.5611
▁badakora	-11.5611
zatsinda	-11.5614
▁gushirwa	-11.5615
▁bihinduka	-11.5616
▁bagaraga	-11.5617
▁aran	-11.5617
umunyamahanga	-11.5617
▁yitabwaho	-11.5618
▁wakira	-11.5619
▁rud	-11.562
▁ou	-11.562
▁ukongera	-11.562
▁mit	-11.5621
badepite	-11.5621
▁nkondo	-11.5624
▁ufit	-11.5625
▁itukura	-11.5627
▁sadi	-11.5628
abakundanye	-11.5628
bindi	-11.563
ategereje	-11.5631
▁ikava	-11.5632
maradiyo	-11.5633
▁ikigaragara	-11.5633
nkorora	-11.5636
hombya	-11.5637
jean	-11.5639
abamenyereza	-11.5639
igerweho	-11.5645
▁off	-11.5645
▁ritum	-11.5645
zamara	-11.5646
ramo	-11.5652
▁vyatumye	-11.5652
▁ataki	-11.5653
badage	-11.5654
buzo	-11.5655
injira	-11.5655
teguwe	-11.5656
yateye	-11.5658
hanganye	-11.5659
eguriwe	-11.5659
▁😂😂😂	-11.5659
▁nyabwo	-11.5663
imigambi	-11.5663
imbona	-11.5665
▁dion	-11.5666
tegekanya	-11.5666
▁barikumwe	-11.5666
kubona	-11.5667
ruhura	-11.5667
ibasira	-11.5668
arico	-11.567
kurikiranyweho	-11.567
tafari	-11.5672
▁hazajya	-11.5676
bwiwe	-11.5676
▁yizera	-11.5681
▁akunzwe	-11.5683
angoga	-11.5685
ley	-11.5687
▁nageze	-11.5688
dot	-11.5688
▁amasosiyet	-11.569
wicwa	-11.569
hanwa	-11.5692
uzashyingur	-11.5693
burira	-11.5695
akerekeza	-11.5697
bibonamo	-11.5697
▁aman	-11.5698
▁gukwira	-11.5699
▁yahera	-11.5699
lac	-11.5699
angiritse	-11.5704
▁fistul	-11.5705
▁vup	-11.5705
▁kubibungabunga	-11.5706
▁kwirebera	-11.5706
▁kwigwa	-11.5707
ungere	-11.5707
ahurije	-11.571
ahasanze	-11.571
▁genocide	-11.571
unguka	-11.5711
shira	-11.5714
▁reber	-11.5714
namo	-11.5714
▁kwitonder	-11.5715
▁kwisuzumisha	-11.5715
▁tumu	-11.5715
▁birakwiye	-11.5718
▁yangiza	-11.5718
▁wakoraga	-11.5718
▁zitandura	-11.572
▁turush	-11.5722
kagira	-11.5722
▁abel	-11.5723
▁kutavuga	-11.5724
▁manegeka	-11.5725
ntandaro	-11.5728
▁nan	-11.5728
▁barwanye	-11.5729
babaza	-11.5731
patit	-11.5732
▁bazahura	-11.5732
▁economic	-11.5733
▁amarembo	-11.5735
▁rubona	-11.5738
▁ibone	-11.574
▁yabigezeho	-11.5742
▁karitiye	-11.5743
▁bitwaza	-11.5743
basuraga	-11.5743
▁servis	-11.5744
▁nzara	-11.5744
😂😂😂	-11.5745
avuganye	-11.5746
▁herve	-11.5746
▁gusuzugura	-11.5746
▁gang	-11.5748
▁gushidikanya	-11.5748
▁bige	-11.5749
nigeria	-11.575
▁adel	-11.5751
▁urusaku	-11.5751
▁bafashijwe	-11.5753
abakiriya	-11.5755
▁uzamuka	-11.5755
abigenje	-11.5757
sirikare	-11.5759
ruta	-11.5761
sunzu	-11.5763
▁izatangwa	-11.5767
imigani	-11.5769
▁yabayemo	-11.577
▁bakiba	-11.577
rimo	-11.5773
iragira	-11.5775
▁banavuga	-11.5776
zitunganya	-11.5776
▁ashatse	-11.5777
isunze	-11.5777
tiri	-11.5778
▁bamufasha	-11.5782
ingiyimana	-11.5784
▁baziba	-11.5786
▁wigenga	-11.5788
▁yanyuma	-11.5788
angamuntu	-11.5789
▁ndang	-11.5792
zapfa	-11.5792
diye	-11.5794
kern	-11.5796
kurambere	-11.58
▁zashyizwe	-11.5801
▁binyurany	-11.5805
▁izoba	-11.5807
igire	-11.581
gisobanuro	-11.581
koherezwa	-11.5812
ziboneka	-11.5812
renze	-11.5813
assim	-11.5816
binure	-11.5816
rambirwa	-11.5817
▁bazaga	-11.5818
▁wakati	-11.5819
akinaga	-11.5819
yanditseho	-11.5821
inz	-11.5821
emed	-11.5822
yifata	-11.5825
umupfumu	-11.5827
hariwe	-11.583
avumbuye	-11.5831
▁kigereranyo	-11.5832
gitangwa	-11.5833
bwiye	-11.5835
arenganye	-11.5837
▁kwitanga	-11.584
▁muby	-11.5842
ariyongereye	-11.5847
▁kuvanga	-11.5848
▁eala	-11.5852
▁kayij	-11.5854
▁hibonekeza	-11.5855
▁ushoboye	-11.5855
▁salomon	-11.5856
▁hakurikira	-11.5857
▁antoni	-11.5857
▁cossesona	-11.5857
▁twagirayezu	-11.5857
akurikiye	-11.5858
ihabwa	-11.5858
abahinde	-11.5858
▁lyon	-11.5861
▁yirukanwe	-11.5861
▁europe	-11.5861
▁games	-11.5862
▁bagafatanya	-11.5862
▁bishobotse	-11.5862
▁zetu	-11.5862
aganiriye	-11.5863
▁imyambarire	-11.5864
▁ubuki	-11.5864
beat	-11.5865
▁mug	-11.5866
▁rusumo	-11.5869
ororoka	-11.5869
▁bikubiye	-11.5871
▁daniella	-11.5871
▁ndio	-11.5872
aguye	-11.5872
▁radi	-11.5873
vuganira	-11.5876
▁mudacumura	-11.5876
▁itarenga	-11.5877
▁rfi	-11.5879
▁kiss	-11.5881
evar	-11.5882
ata	-11.5882
▁abatangabuhamya	-11.5882
!!!	-11.5885
baririmvyi	-11.5887
▁pendo	-11.5887
▁kutishyur	-11.5887
▁icizere	-11.5889
▁nations	-11.5889
▁yahindutse	-11.5897
hageze	-11.5897
▁drc	-11.5898
▁ukabi	-11.5899
▁gica	-11.5901
gombwa	-11.5902
▁insiguro	-11.5902
▁kugurwa	-11.5907
▁nous	-11.5908
itakaza	-11.591
▁Ba	-11.5911
▁ajyana	-11.5911
umwanditsi	-11.5912
ubudo	-11.5913
ezra	-11.5914
▁yishuye	-11.5914
▁nimwiza	-11.5915
oca	-11.5915
macumbi	-11.5916
▁ninde	-11.5919
▁indishyi	-11.5921
abafatanya	-11.5924
sabye	-11.5925
▁ryab	-11.5927
▁ribera	-11.5927
▁bidu	-11.5927
bitekerezo	-11.5928
▁zageze	-11.5928
musoni	-11.5928
asenyutse	-11.5929
gaya	-11.593
▁bace	-11.5932
▁kubakirwa	-11.5933
ibinyabiziga	-11.5933
▁tugenda	-11.5936
▁or	-11.5938
makambi	-11.5942
byangombwa	-11.5942
banditsi	-11.5943
ration	-11.5945
▁ananir	-11.5947
▁twahise	-11.5947
▁barakora	-11.595
org	-11.5951
▁pan	-11.5952
gishanga	-11.5952
▁bishatse	-11.5952
▁maman	-11.5953
suzumwa	-11.5955
dogere	-11.5956
bugingo	-11.5957
atarenze	-11.5959
▁eng	-11.5959
ganiriza	-11.5965
▁umunyarwenya	-11.597
▁ababi	-11.5974
ogosha	-11.5976
rimbura	-11.5979
amenyereye	-11.5981
▁W	-11.5982
▁rweza	-11.5982
▁bakuye	-11.5983
▁vyashiz	-11.5983
batashye	-11.5983
inzirakarengan	-11.5986
mbuza	-11.5987
rukomoka	-11.5992
ambitse	-11.5995
▁laboratwari	-11.6001
▁mv	-11.6001
▁alfred	-11.6001
▁gahogo	-11.6001
inusu	-11.6001
▁utwatsi	-11.6001
▁hazard	-11.6001
hakana	-11.6002
▁marley	-11.6002
▁kugurizanya	-11.6002
▁mumatora	-11.6002
▁gupagasa	-11.6002
▁turahirwa	-11.6003
▁myambarire	-11.6003
▁technology	-11.6003
▁gitumo	-11.6003
▁hakurya	-11.6004
▁forum	-11.6005
▁kanamugir	-11.6006
▁bibwira	-11.6006
▁roger	-11.6006
▁gnral	-11.6006
▁yatemberej	-11.6006
sh	-11.6007
andikirwa	-11.6007
▁uburanga	-11.6007
byara	-11.6008
▁busoni	-11.6008
▁wasac	-11.6009
▁bibe	-11.6012
isobanura	-11.6012
▁lucas	-11.6016
▁ibito	-11.6016
▁urwenya	-11.6017
▁tukagira	-11.6018
▁minini	-11.6021
iyemerera	-11.6021
bugande	-11.6025
▁Kuna	-11.6027
▁gikundiro	-11.603
▁azakorera	-11.6031
▁epfo	-11.6031
birigi	-11.6034
yerekeye	-11.6034
▁gikurikira	-11.6037
burindi	-11.6039
▁kwicish	-11.6042
▁uburambe	-11.6042
▁ikavuga	-11.6042
▁babwirwa	-11.6043
andiko	-11.6043
▁ndo	-11.6045
▁avia	-11.6045
dwa	-11.6046
itongo	-11.6046
▁gitsinz	-11.605
▁munwa	-11.6051
▁mpesh	-11.6052
▁gupfush	-11.6054
urire	-11.6055
ubutabazi	-11.6058
▁ukwa	-11.6059
urusengero	-11.6059
kurikiranira	-11.6061
mbona	-11.6061
bashakashatsi	-11.6061
▁abamukurikira	-11.6062
akirangwa	-11.6062
▁igeragezwa	-11.6065
ibihuha	-11.6068
▁biruko	-11.6074
tsima	-11.6075
ette	-11.6077
aburanye	-11.6077
avurirwa	-11.6078
▁kigana	-11.6079
▁nizera	-11.608
▁bashak	-11.6082
ashize	-11.6083
kintu	-11.6083
▁kuby	-11.6083
yasoje	-11.6084
house	-11.6087
▁adam	-11.6088
▁yababaj	-11.6088
himbiye	-11.609
▁itazongera	-11.6092
▁haka	-11.6093
izewe	-11.6097
andurwa	-11.6099
yatanga	-11.6101
▁gususuruts	-11.6101
jejwe	-11.6101
▁kibiri	-11.6101
bungo	-11.6102
swahili	-11.6103
itangira	-11.6105
abanyacyubahiro	-11.6106
▁chuk	-11.6106
▁ral	-11.6106
mushimisha	-11.6108
agatangira	-11.611
▁idashaka	-11.6112
sson	-11.6114
▁muhoza	-11.612
▁babafashe	-11.6121
injyana	-11.6123
▁atewe	-11.6127
▁iruta	-11.6129
▁bwerekana	-11.6131
tinda	-11.6131
bora	-11.6132
gan	-11.6133
abakiri	-11.6133
▁walk	-11.6134
komine	-11.6135
▁kristo	-11.6136
▁bahimba	-11.6136
▁zitez	-11.6136
▁winjiye	-11.6136
▁gusinyan	-11.6139
aronkejwe	-11.614
gihagaze	-11.614
eke	-11.6141
imufasha	-11.6143
igitangazamakuru	-11.6143
icyi	-11.6143
dr	-11.6144
▁wabanje	-11.6145
▁indyo	-11.615
ulika	-11.6152
▁tedros	-11.6152
▁mubuga	-11.6153
▁muhamed	-11.6153
▁humura	-11.6153
▁bakicwa	-11.6153
▁babili	-11.6154
▁Waziri	-11.6158
▁asinah	-11.6158
▁mbyin	-11.6158
▁sosumo	-11.6159
igisho	-11.6159
▁tafadhali	-11.6159
▁narin	-11.6159
▁murambo	-11.6161
▁abitwa	-11.6162
▁bemeranyijwe	-11.6162
▁inenge	-11.6162
▁djibouti	-11.6162
yirukanwa	-11.6162
▁😂😂	-11.6164
▁abasigaye	-11.6165
▁kubibwira	-11.6165
uzashaka	-11.6167
▁muhazi	-11.6168
▁human	-11.6168
▁ukamu	-11.617
▁amatera	-11.617
waraye	-11.6171
▁bwaba	-11.6171
zahangana	-11.6171
▁ryazo	-11.6172
▁ndunduro	-11.6173
itekereza	-11.6173
▁butatu	-11.6173
▁nasanze	-11.6177
▁turukiya	-11.6178
▁uwusanzwe	-11.6178
▁adil	-11.6179
hakorerwa	-11.6179
▁kuvugira	-11.6179
▁kuguranana	-11.6181
kagaruka	-11.6182
iny	-11.6182
pasitori	-11.6185
▁yarakozwe	-11.6187
intama	-11.6188
ikomeze	-11.6189
▁lin	-11.6191
ova	-11.6191
▁gahanga	-11.6191
▁sarr	-11.6193
abitse	-11.6193
offi	-11.6194
▁0	-11.6194
▁wavukiye	-11.6194
tandukanyije	-11.6196
▁cyar	-11.6196
bahatuye	-11.6196
basaba	-11.6198
itunganywa	-11.6198
menyesheje	-11.62
▁byaterwa	-11.62
▁abato	-11.6201
abunzi	-11.6202
▁ubi	-11.6202
basenyeri	-11.6202
kuva	-11.6202
▁izahura	-11.6205
komera	-11.6207
▁fauc	-11.6207
amwereka	-11.6208
shimirwa	-11.6209
status	-11.621
nkovu	-11.6211
munyamabanga	-11.6212
▁umuzi	-11.6212
ibyatsi	-11.6213
ndikumana	-11.6213
▁bama	-11.6214
cisha	-11.6215
tishyurwa	-11.6215
oba	-11.6216
urwung	-11.6217
agahararo	-11.6217
▁ubwinshi	-11.622
azagaragara	-11.6221
▁akuriki	-11.6224
▁Ha	-11.6225
abak	-11.6226
▁ahera	-11.6227
▁ajanw	-11.6227
▁bufise	-11.6228
ingwate	-11.6228
▁rube	-11.6232
ibwami	-11.6232
▁after	-11.6233
▁bunoz	-11.6234
integuro	-11.6237
vb	-11.6239
hurikiyemwo	-11.6239
gashimwe	-11.6241
▁rije	-11.6242
azajya	-11.6243
▁ibitari	-11.6245
subirira	-11.6246
▁kuhakorer	-11.6248
▁zubatswe	-11.6249
isa	-11.6249
rushaka	-11.6249
uzuza	-11.6251
moteri	-11.6252
▁cyandika	-11.6253
▁agashyi	-11.6256
turiye	-11.6256
▁ce	-11.6256
▁mbiri	-11.6257
urundi	-11.6257
▁bafatiye	-11.6261
▁yatangaza	-11.6262
▁itegerejwe	-11.6262
umuhanga	-11.6262
anguriye	-11.6265
▁atagaragara	-11.6268
vugana	-11.627
▁baho	-11.6273
kane	-11.6274
▁atere	-11.6275
▁violet	-11.6275
▁isuri	-11.6275
▁ntiri	-11.6276
▁bakishyur	-11.6276
atejwe	-11.6276
▁banyir	-11.6278
fatanyabikorwa	-11.6279
▁amag	-11.628
gabisha	-11.628
isazi	-11.6281
zatangwa	-11.6284
uni	-11.6285
▁mikorob	-11.6285
▁abanje	-11.6286
▁amaka	-11.6287
▁guhoza	-11.6289
▁djihad	-11.6291
▁document	-11.6293
azafasha	-11.6295
ogira	-11.6296
panze	-11.63
▁gutorany	-11.6301
gumana	-11.6301
aciwe	-11.6302
ihutishwa	-11.6302
▁bizoba	-11.6302
▁yabibwi	-11.6303
abirabura	-11.6303
tahura	-11.6304
▁baranga	-11.6306
▁cepgl	-11.6306
▁tuyishime	-11.6306
chukwu	-11.6306
amahina	-11.6307
▁gusubika	-11.6307
▁gusubukurwa	-11.6307
▁nadine	-11.6308
▁bitagoranye	-11.6308
▁celebration	-11.6308
▁people	-11.6308
▁bagakorerwa	-11.6309
▁movie	-11.6309
tagenda	-11.6309
▁kaboneka	-11.631
▁Rais	-11.631
▁monde	-11.631
▁yag	-11.631
▁kanaka	-11.6312
▁rukumberi	-11.6312
isanzuye	-11.6312
▁addis	-11.6313
▁joachi	-11.6313
▁mpimbano	-11.6313
▁zikurikira	-11.6314
tangura	-11.6314
▁sportifs	-11.6314
▁ndayambaje	-11.6316
▁ryinshi	-11.6318
▁ipad	-11.6319
▁ndabizi	-11.6319
umvikana	-11.6321
▁hita	-11.6321
shigikira	-11.6322
▁aciye	-11.6322
ugizi	-11.6324
arabuze	-11.6325
mahera	-11.6325
▁maduka	-11.6329
▁ikiraro	-11.633
batarengeje	-11.633
▁algrie	-11.633
nuka	-11.6332
▁inkumi	-11.6332
▁barapfa	-11.6333
hita	-11.6333
umubabar	-11.6333
yaga	-11.6335
bibemerera	-11.6337
▁ishot	-11.6337
▁iracya	-11.6338
arabaye	-11.6338
▁abazamu	-11.634
▁fans	-11.6341
▁ok	-11.6342
▁zakoreshejwe	-11.6343
career	-11.6343
▁baregwa	-11.6345
ishoza	-11.6347
mbwira	-11.6347
▁ntajya	-11.6349
buriro	-11.6349
▁ukamenya	-11.635
▁bwemewe	-11.6351
▁Niba	-11.6352
▁kubateza	-11.6352
▁basavye	-11.6354
▁bakava	-11.6354
zibona	-11.6356
▁yaririmbaga	-11.6357
giranye	-11.6359
▁tuzo	-11.6359
▁guy	-11.636
▁amarozi	-11.6361
▁agu	-11.6361
ubunani	-11.6362
ndengakamere	-11.6362
▁mber	-11.6364
▁yiyahura	-11.6364
bagoye	-11.6368
▁guh	-11.6368
▁umufaransa	-11.6371
tabariza	-11.6374
imvune	-11.6377
zize	-11.6378
▁boro	-11.6379
▁rede	-11.6379
bifuriza	-11.6379
irimwo	-11.638
hasanze	-11.6382
[...]
