#version: 0.2
e r
a n
▁ n
u s
▁ m
▁ a
us er
@ user
▁ @user
▁ k
▁ d
▁ t
▁ s
i n
▁ b
▁ w
a r
▁ o
▁ y
▁ i
▁ g
▁ h
▁ l
u n
▁ f
o r
▁ e
a s
a m
▁ c
. .
o n
▁ p
a t
e n
a k
" "
ا ل
a l
▁n a
w a
▁ A
b a
▁ #
a h
▁ r
▁d e
a i
u r
a y
h i
▁ ال
a d
h e
l l
i k
i r
u m
e s
▁y a
o m
i t
▁n i
▁ j
▁ የ
u k
▁ አ
▁d a
y a
c o
t t
g b
▁ an
i s
▁ N
ọ ́
▁ እ
😂 😂
u t
▁ M
l e
a b
/ t
tt p
: /
:/ /t
▁h ttp
://t .
://t. co
://t.co /
"" ""
y e
▁http s
d a
ẹ ̀
▁https ://t.co/
o s
▁ O
▁ ọ
o u
▁de y
in g
▁ à
o o
▁ K
ẹ ́
▁ I
▁b a
▁ م
▁ و
.. .
t i
e m
h a
▁n o
▁m e
ll ah
i a
w e
▁ z
▁ በ
i m
▁ u
e t
▁k a
an a
▁ in
r e
ar a
▁o n
d i
g a
▁t o
ọ ̀
▁w a
▁t he
m a
▁m a
▁ S
c e
▁ B
▁ ì
▁s e
c h
k e
l a
▁k u
▁m u
k a
▁ ነ
q u
▁ v
▁ E
▁ T
t a
▁b e
y i
▁n í
▁a b
u ba
h o
r a
? ?
er e
▁w e
▁ D
▁w an
▁g o
r i
▁a m
d e
▁ መ
a a
i g
▁A llah
▁ ب
ak a
un a
▁y ou
ú n
▁n e
▁ R
w u
▁ ل
l i
or uba
d o
▁t i
▁g b
r o
b i
▁f or
▁k o
h h
w o
z i
▁ ṣ
g o
▁ ò
▁ ف
z a
▁i s
▁g i
t e
am a
ak e
▁t h
▁ C
w an
j i
v e
▁ W
▁ ع
▁ H
s e
um a
▁ qu
ar i
▁d i
at a
▁ Y
ã o
ا ن
▁ ń
▁t a
▁ ẹ
▁t í
▁d o
▁ ت
▁እ ን
b e
▁ G
▁a s
al l
▁a l
n a
▁ ከ
▁ ይ
▁ U
c i
gb o
▁f i
ọ n
▁d on
▁s o
🤣 🤣
ik e
k i
▁ነ ው
▁ ي
g e
t o
▁l o
as a
▁ ለ
ل ا
"""" """"
▁h a
▁c om
▁a k
▁ 3
hi s
▁an d
▁g a
e d
Y oruba
▁o f
! !
l o
an i
▁m y
▁s u
▁m o
s a
k o
▁k an
▁c h
n i
▁ ó
f i
▁ '
▁t his
ي ة
s o
▁r e
t er
à n
l u
n an
▁m i
p o
b o
▁ ك
j e
▁e s
ن ا
y o
▁w o
▁ 😂😂
▁ L
▁k i
▁qu e
v er
ر ا
▁l ike
▁ ያ
▁i m
▁ ተ
▁ ا
at i
▁ um
g u
ad a
b u
in e
▁l a
▁ P
▁ṣ e
e e
g i
▁b u
z e
▁ Ọ
▁s h
o w
d u
▁ال م
i i
▁@user :
m o
in a
▁s a
p a
t h
▁e n
😭 😭
j a
▁ ወ
▁b i
ه ا
en t
ay i
ir a
▁# Yoruba
▁R T
▁ ብ
▁b á
r í
ar e
ọ́ n
f e
▁p e
ي ن
am u
▁ 1
▁s hi
▁ ስ
p e
▁a llah
s i
an e
▁l á
w ọn
▁h e
al i
ا ر
c k
▁ è
▁ 😂
g h
▁ J
▁y o
▁l i
u l
r in
as u
ir i
m ọ
n e
p p
▁s i
▁ é
▁l e
ur i
▁k í
ل ي
al a
▁s ay
▁ ም
ي ر
▁ 2
▁ọ ̀
▁s í
▁w h
▁y an
▁f a
▁s ai
ay a
t u
ik a
ur u
▁l ó
▁we y
ù n
ا ت
▁ ن
▁ F
ì í
uk a
c hi
an d
▁የ ሚ
▁م ن
m e
er ia
▁ us
▁ Ẹ
ه ه
▁k wa
l é
ì n
j o
on e
u b
▁ una
▁ ማ
▁on ye
▁ À
▁ ሰ
l ẹ̀
▁a d
m i
▁ ح
er s
▁t e
k u
l y
.. ..
z o
us t
▁s t
▁i t
f a
m u
ak i
b á
▁b o
د ي
ur a
▁k w
k an
▁b í
▁à wọn
▁wan nan
▁ف ي
j ú
▁a r
▁ un
_ _
▁m an
ur e
er i
▁k ar
▁p a
at e
▁n '
▁# I
▁g u
d ay
▁n ão
▁c on
ir e
▁th at
ነ ት
c a
ر ب
▁h o
▁de m
es s
▁ (
▁ أ
d an
u wa
r y
ik i
▁m á
ቸ ው
▁t ó
á n
▁m ai
و ن
y in
▁k uma
ل ه
▁f ún
▁ ẹ̀
▁m ana
l h
ik o
or e
▁m ake
▁እ ና
y an
▁z a
v i
▁a g
▁o r
as h
▁ -
▁ọ mọ
▁t s
▁w it
▁r a
▁ Ì
▁O n
▁w ọ́n
b an
ر ي
▁b an
▁a t
▁m at
am e
om e
▁an a
c t
á à
▁ ه
▁አ ይ
uk wu
▁yo ur
▁C h
▁n di
▁ ግ
g un
í n
▁a h
ad e
▁m ut
in i
▁se e
ab i
ላ ይ
w i
en d
l d
ad i
wa i
0 0
▁c o
▁ ش
▁ س
s u
▁d ai
▁o h
▁à ti
▁s un
▁w i
w ar
as hi
l ú
ች ን
▁ ት
er a
or o
▁i f
e g
▁s he
u g
ገ ር
▁d an
ه م
?? ??
▁h an
we et
▁ ደ
▁ ق
▁و ال
hh hh
gb à
s t
z u
▁gb o
▁n ke
▁m un
▁y i
▁a f
▁k ò
▁on e
r an
▁b ab
ለ ው
▁p o
▁a ka
م ا
▁k am
ak o
▁ á
v a
▁wit h
▁አ ን
▁es t
▁o k
▁v i
▁n d
▁n an
▁ .
m m
on a
ik in
▁م ا
y ar
▁m m
ad o
ي ا
ut a
و ل
os e
b í
▁t al
▁f it
😂😂 😂😂
▁o oo
▁ ል
▁j ust
▁t u
ig eria
o p
ل ى
▁a ll
▁f un
es t
j ọ́
▁ د
▁A m
▁h ar
ah a
or a
as s
▁w á
r ọ̀
▁f o
▁j i
▁እን ደ
c he
▁ ው
▁g et
as e
▁g ba
ኢ ት
y oruba
▁' @user
is h
و ا
▁ ج
in d
oo d
uk o
▁b ut
▁a re
y é
▁k as
▁c e
▁p ara
▁ال ح
▁e m
▁k ú
om a
▁c hi
j u
▁p r
ak u
w on
▁j ẹ́
▁# O
ኢት ዮ
uk e
▁i b
▁A n
▁a ra
▁d is
▁o o
us a
▁ال ع
▁ 🙏
▁an y
▁a i
▁የ ተ
▁l ọ
▁p l
م ة
▁m as
▁gbo gbo
▁ í
▁ خ
▁Y a
ati on
▁ ባ
w ọ́
▁On ye
▁# A
▁an yi
ا ش
l ó
▁n k
▁d in
▁😂😂 😂
g an
▁y ìí
▁c an
it e
l á
it a
▁ ህ
ir o
c ha
▁ ላይ
▁ع لى
▁ V
▁ ጥ
▁w et
▁se f
un t
f in
▁má a
♂ ️
▁m us
▁no w
it i
▁ab eg
ù bá
g wu
▁k e
it o
qu e
ጵ ያ
▁ """"""""
▁f r
all ah
gb e
v en
▁a c
▁ ሲ
or ùbá
▁N i
▁ال له
▁I n
▁no t
ا م
ا ب
▁k un
▁i he
▁p ro
ኢትዮ ጵያ
ad u
▁ ر
▁r i
ዎ ች
is t
en an
▁N a
w n
us e
▁ x
▁g ị
ig h
ay e
▁w on
▁z ai
▁o mo
r u
‍ ♂️
▁M o
▁n wan
▁a ga
g ba
▁s an
im e
▁ ان
▁w at
ar t
▁com e
▁c ho
in da
un i
h an
s hi
as i
ar o
▁# T
በ ት
▁ ...
▁y ayi
▁r ah
▁ Ò
im a
▁w ọn
ሆ ን
▁H a
as ki
😂😂 😂
▁ba ba
▁d á
▁w ai
ለ ም
▁s ha
▁r í
▁ :
▁j e
‍ ️
▁d uk
▁n áà
▁k n
▁k ai
▁r ẹ̀
▁ غ
op le
▁i k
am i
▁in a
▁gu y
س ت
▁p é
▁l ọ́
or i
ab o
و ر
▁n y
▁m en
▁# yoruba
ṣ ẹ́
▁w or
as t
▁wet in
g hi
▁o .
w ó
▁ Z
gb u
k ọ
▁T o
▁ ድ
▁f e
▁ ክ
▁ 🤣🤣
\ n
▁ም ን
r un
▁h i
▁pe ople
▁ ሁ
▁ q
▁u p
0 1
on g
▁g an
▁D a
▁ ቀ
y àn
▁ “
!! !
f o
f u
ar in
aski ya
or t
ች ሁ
▁y e
▁ni g
▁K a
▁wan i
▁ ታ
▁p ers
▁# E
A N
l ọ́
በ ር
▁k enan
n ú
▁ل ا
▁j o
▁م ع
▁ال ت
▁the m
o l
🔥 🔥
▁lá ti
▁a p
w it
▁t oo
d ún
▁b y
en e
al e
▁pers on
▁p or
▁o b
ak an
os t
s h
▁m ar
▁w à
c in
▁w as
n u
▁y 3
▁B a
▁e x
▁ل ل
غ رب
🙏 🙏
ስ ት
▁b ar
▁M a
▁i re
▁N igeria
▁ka wai
b ar
❤ ️
▁ل ي
▁# N
س ي
▁m ma
ው ን
▁h ad
ز ا
▁ È
▁r o
i d
▁m in
k in
n o
▁n u
h ari
ሆ ነ
▁የ አ
▁c he
ك م
un da
▁d ay
am ba
on i
am b
__ __
▁w í
د ا
ur o
▁l '
▁m una
▁e ven
one y
▁ uk
▁t em
▁n ti
▁b ro
oo k
▁ ገ
▁و ا
ي ل
ል ።
▁A l
igh t
▁n t
k ú
▁y ake
▁g ir
at an
▁ ,
is a
p u
d er
m an
ን ግ
▁m ak
▁go d
▁i ke
s s
en te
▁kn ow
▁n wa
k wa
m ọ́
v u
▁Ọ ̀
h u
à á
▁ 7
ç ão
هه هه
▁ ụ
am an
d è
▁ ص
▁e me
p é
▁t r
▁y ak
an t
▁y asa
▁s ì
ال ي
▁i ya
▁ 🤣
d y
▁k ya
▁o ut
▁አ ስ
b er
▁ال ب
▁አ ለ
pp y
▁k at
en i
y í
r ú
▁w ah
▁W an
en a
▁እ የ
▁b ir
▁p i
▁m oney
r ò
▁D e
y u
▁ 9
▁ ur
▁o rí
▁gb é
▁h aka
▁ግ ን
▁lo ve
▁Ch ukwu
f f
▁h ow
▁ ዘ
▁b ụ
▁ ሀ
▁ ሳ
▁w ay
▁ ??
▁ነው ።
▁ 🤔
▁b ay
en ye
it y
▁u b
▁ال ا
▁s ho
▁aga in
▁y ó
hi r
ab an
j ì
al u
ሁ ን
k w
▁w lh
▁c ar
▁ Q
▁ را
▁h er
▁ال س
ut o
▁wi ll
ك و
oo oo
ti on
▁t ake
▁የ ም
▁ إ
▁o s
▁am ma
wit ter
d in
▁k ó
▁v er
▁b l
us h
▁s ome
▁o u
▁r u
d ai
o c
▁s in
▁M u
▁v e
▁ ጋ
k ò
▁n so
gb á
▁fr om
▁c y
▁j á
▁k h
ar an
zi e
ا د
▁h im
▁d aya
▁e be
t í
ደ ር
▁j ẹ
▁ع لا
be ere
uk u
▁m es
▁የ መ
er o
w é
▁s ti
is i
r è
▁ ካ
am o
b à
▁e ver
aa a
▁f ẹ́
▁e h
is s
d é
ṣ e
A R
g ún
▁s ọ
▁s er
▁w ho
▁d ị
a ch
n í
em a
e l
▁j a
▁th ing
ን ድ
▁e zi
▁ẹ ni
l à
▁a ma
th er
or d
▁wh en
k h
im i
▁ku wa
▁m asu
▁b iko
▁ب ال
k wu
j ọ
▁um u
▁wh at
▁n w
▁ì y
p i
▁a ke
ለ ት
▁ ቢ
▁ 😁
▁ 😭😭
ደ ረ
▁ ጠ
▁l è
wa y
🙄 🙄
or n
ዚ ህ
▁o ma
▁A b
▁Y orùbá
▁sti ll
▁f in
j à
▁ف ال
▁D an
' a
: :
u u
ب ي
▁k in
▁i dan
ر و
▁a won
u o
ማ ራ
▁k ay
▁t ime
▁ 5
▁cho p
an s
▁m ú
ف ا
in u
▁ال ج
g ar
ي د
▁a ti
ẹ́ ẹ̀
i l
w w
▁s ó
▁nig eria
▁ሰ ው
▁est á
▁m al
ll ow
p er
ن ي
▁oh un
ذ ا
▁# R
▁wí pé
t s
▁m ọ́
▁ال أ
ah ah
▁ 4
▁tal k
ọ̀ n
▁g w
d un
or í
▁ي ا
▁ወ ደ
f an
ع ب
▁y in
d á
▁mai s
▁m aka
▁ní nú
▁ስ ለ
k un
is e
▁ọ jọ́
is ha
▁mm adu
▁ع لي
▁እን ዲ
▁y ar
▁a y
ዝ ብ
▁ለ ማ
ل م
▁g h
ṣ à
▁i lé
▁ ị
▁s m
▁በ አ
▁ab o
ت ي
▁ለ መ
ل ك
▁b ak
▁i rin
▁ع ن
▁http ://t.co/
▁ك ي
▁ever y
▁w u
▁p er
▁k ì
▁# S
f un
▁አ ል
▁da ga
all y
an do
wan da
▁ال ش
▁እ ያ
an o
▁n go
፡ ፡
▁a ba
▁K o
▁us e
▁m 3
▁الم غرب
k è
at o
ع د
▁e u
▁e gwu
▁the y
e k
z z
▁ ها
▁i fe
▁ uma
ik u
▁o jú
▁bo y
h un
▁c ikin
ch o
▁k um
▁ነ ገር
▁com o
m ar
in k
w á
▁ er
d ade
ም ን
aa aa
▁3 la
▁wh y
▁yó ò
▁ /
▁ ut
▁m ọ̀
▁ ط
▁s ar
▁f u
ai s
0 2
p r
▁ ?
▁z an
▁በ መ
▁lo l
▁n as
▁c ha
le ase
▁d u
▁gir l
▁ دي
▁k á
▁de s
f ar
l ẹ́
▁a la
▁b r
▁i bi
▁gi ve
es e
▁ ጉ
an k
▁k asa
▁ ኢትዮጵያ
a g
ر ة
▁ ????
▁# i
▁I gbo
▁nd ị
L A
▁g askiya
▁እ ስ
b le
▁ ሚ
ህ ን
I N
▁ ሊ
em e
w ò
▁t un
▁ọ dún
d ù
▁ ፍ
ለ ን
ት ን
▁b ur
▁ነ በር
m ọ̀
ب الي
allah i
om o
▁K í
n ì
y ìn
ا ء
ስ ጥ
ገ ባ
▁y ín
▁g ood
▁e le
s an
u d
د و
▁o ur
🇳 🇬
▁ال ف
r àn
r à
▁ ቤ
▁d é
l p
j ẹ́
▁c a
uk i
ص ح
▁t er
ق ي
▁n g
▁f ar
▁Q u
▁ab i
ل و
as ha
▁na -
ig o
y ẹ
on s
▁ka wo
▁is i
k ó
▁p ar
▁ab in
uni ya
▁p es
en da
um i
▁don t
▁a j
l es
z er
▁h ere
▁K u
m í
r ụ
ለ ሁ
▁# B
▁N di
wo ke
ب ة
ت و
▁ 😭
▁m uri
n y
▁g y
▁ك ل
▁😂😂 😂😂
▁N wan
▁ch an
oc ê
f t
▁i g
▁on ly
hh h
h ar
▁p re
▁m asa
.. ...
r ọ
s í
▁s uka
ut u
▁d ia
▁sh ine
▁m ad
▁b ai
▁wan da
▁al á
▁ha ve
ine ke
▁p ass
v o
▁ Ó
oo l
▁m w
▁s ab
▁c i
▁ì lú
ash in
k ọ́
▁y ɛ
am bi
▁የ ማ
M A
ر ف
ad an
c y
▁o !
▁እን ዴ
ቶ ች
▁u ban
▁ብ ቻ
▁የሚ ያ
▁k ara
▁y ana
th day
▁n or
▁o ló
▁r es
▁መ ል
o d
s ì
▁ ና
▁nwan ne
O R
▁i r
un d
as o
▁S e
th ing
▁li fe
▁Wan nan
l ọ
▁m b
@user :
▁s ika
▁p lease
▁# M
▁N ão
ع لا
▁h ak
▁Ẹ ̀
▁አይ ደ
▁bab u
▁i gi
▁ba ck
د ة
▁ab u
at s
▁م ح
▁ma gan
▁un u
▁ጋ ር
h am
y al
ش ي
▁d ama
▁t '
▁j u
▁ọ ba
▁o bi
▁any ị
▁ሁ ሉ
ا ع
▁A r
▁on u
▁ok wu
▁fo llow
▁ =
▁ Ṣ
▁ال د
▁gb à
🤣🤣 🤣🤣
ግ ና
▁n n
▁እ ኔ
im o
l m
é m
▁ال و
▁he lp
▁te ll
▁ ز
▁l ẹ́
p ọ̀
▁n ta
▁o l
▁e go
▁r an
b r
w à
▁ ቅ
▁t ún
▁s em
▁c or
▁ga ba
▁it s
n t
▁ ️
▁k ọ́
▁b at
om in
▁kya u
r ó
ك ون
▁M e
▁s uke
en s
t à
م ي
م و
ን ም
ን ተ
▁i gbo
re e
▁ọ̀ rọ̀
ik an
▁K ai
k à
▁m ọ
▁A k
▁U m
is hi
fi ya
▁è è
c ar
▁t ab
ድ ር
▁b aki
▁l ab
▁ne ver
😍 😍
▁k wan
os s
▁ba z
n d
▁ ኢ
▁w ata
▁علا بالي
س ب
ـ ـ
ل ة
▁l à
ed u
lọ́ run
▁n ne
▁m n
▁w al
ut i
h er
▁و لا
▁è dè
▁pl ay
d í
f ri
▁n ’
▁a ri
▁k ọ
E N
j ẹ
ف ي
▁n em
▁d at
▁as s
j í
♀ ️
▁t à
▁s on
▁s abi
m ent
▁s al
▁#T weet
▁w en
▁b ẹ́ẹ̀
en ce
▁ko wa
▁#I beere
im u
▁B u
▁እን ዳ
t ar
በ ረ
ur an
▁ ‍️
▁k uri
▁l ook
▁A s
d d
g r
▁i ki
ou ld
▁yan zu
l f
🤔 🤔
▁l ma
▁ال ق
▁ب ن
م ن
us i
▁a yé
▁sm all
▁b 3
▁i le
▁አ ብ
▁ak an
▁ ሆ
▁ku b
▁th ere
▁d ar
▁to day
s ẹ̀
ṣ ẹ
ll e
▁g hir
as an
gh t
▁kas ar
ق ة
▁ !
▁m é
▁አ ሁን
▁ت ح
ṣ ù
▁ ɛ
▁t ak
▁l é
ut e
▁ch ukwu
😹 😹
ad da
gb é
▁ye ar
e p
j á
ك ي
▁a w
▁s aa
كو مة
▁o ri
ሪ ያ
ተ ኛ
▁m í
▁k ama
▁T a
c on
y è
▁ ፣
ar d
am p
um u
ان ي
r ùn
ር ት
▁ọ k
▁ው ስጥ
r ẹ
ب ا
ር ስ
tt er
▁bir thday
2 01
▁t weet
▁d uniya
▁h as
at u
▁kas he
▁t witter
ah o
um va
▁ezi gbo
ç a
ላ ም
▁ ..
▁n na
▁m ẹ́
▁دي ال
▁ |
▁o wó
▁p è
ad y
▁K uma
▁f ara
▁wan t
▁wah ala
▁bu hari
▁ve x
▁ban za
j in
▁on í
▁አን ድ
ላ ል
▁y ẹ
h om
▁ ፈ
ai m
▁ló rí
▁wor k
▁E s
as on
ab u
abo da
ق ت
▁f ine
ያ ን
▁bu y
p ort
▁ ን
▁m ay
to p
d ú
j ò
ዛ ሬ
▁c all
I n
ar y
▁con t
▁ag ba
▁cy ane
orn ing
r ẹ́
‍ ♀️
▁S ai
▁ab un
▁ያ ለው
g ana
n à
p ẹ́
gb ó
E R
y 3
▁ 6
▁d ak
▁g ani
▁م ز
▁i h
▁i ṣẹ́
▁an ya
▁በ ተ
▁ወ ይ
▁o ,
am os
▁r ẹ
▁E u
▁ያ ለ
▁ሳ ይ
B C
f ul
l ò
▁n woke
gh ị
ነ ው
▁i lẹ̀
▁mus ul
ر ج
▁b ig
▁i ta
▁e k
r ẹ̀
▁m ata
▁w ak
▁አ መ
▁ak wai
▁rah ama
an u
▁W a
▁ህ ዝብ
ራ ት
▁ ጀ
▁s en
▁n os
▁m on
▁d ú
or es
* *
▁b as
qu i
😀 😀
▁n ka
▁s 3
▁b amu
at ar
▁ho use
b ẹ̀
ai l
ve l
▁ha ppy
c er
i b
ሰ ብ
▁ 😅
▁B í
▁መ ንግ
▁st r
▁tal aka
s ha
un g
▁do wn
▁s una
' s
😁 😁
▁b ia
p á
ن ت
ዲ ስ
▁w hi
▁# G
ul t
h y
▁n we
▁b ane
▁አን ተ
9 a
ል ል
ም ።
en to
▁# W
"""""""" """"""""
f ore
r ì
▁ ሃ
▁ከ ተ
▁2 01
G B
ك ر
▁ ዓ
▁ هههه
▁b asu
▁: )
i le
p in
▁ 😎
▁f al
▁we ll
م د
an ga
▁I na
g in
መ ስ
ar n
▁o ga
▁መ ስ
ح ة
ብ ር
▁k ind
▁b ah
▁i l
▁h is
▁N ne
▁is so
▁a di
gu a
ي ش
▁ ሌ
▁ """"
▁t an
uk an
▁th ank
ሆ ኑ
▁w allahi
▁mut ane
ረ ት
▁ ض
▁ah u
o us
t ọ̀
ግ ራ
😂 🤣
▁o wn
▁h hhhh
es us
y à
ك ل
▁ 🙄
▁k ur
▁N na
▁pes so
ጊ ዜ
r á
▁ 🇳🇬
▁com p
▁han k
▁b à
▁o gun
▁h al
▁እ ው
▁v ocê
ii ii
c tion
ي ت
▁n du
▁mut um
ambi que
ب ر
▁ 8
▁# C
▁me u
▁ይ ሄ
▁kam ar
ول ة
▁ É
▁de 3
▁N d
▁"""""""" """"""""
▁🤣🤣 🤣
▁ ሙ
▁w in
▁o lu
as he
en de
ut h
▁um un
k on
😏 😏
▁p ẹ̀
ga ba
▁G askiya
vi ce
▁car ry
ع ة
▁ ኣ
▁s c
▁j í
▁go zie
j ye
w er
ቅ ር
▁m ara
▁A L
O N
n n
و م
ዋ ል
▁n am
▁a ch
▁k are
▁s ana
▁la fiya
▁nwan yi
▁sin ce
▁አይደ ለም
v ing
ና ል
▁e ni
▁p ra
▁be fore
▁th ink
t an
us u
▁ال خ
ir an
▁be tter
▁pa in
x t
▁k ad
▁b aya
ca use
k ar
ح د
س ا
▁ 🤲
▁k om
▁R ah
è rè
▁i y
ار ة
▁wh ere
▁mat s
w ọ̀
▁m ah
U N
c u
l ù
▁ \n
▁k ut
▁l ai
▁ال ن
▁mu l
و ف
W A
▁m ur
▁a a
▁b re
▁l ik
am ar
et a
▁èè yàn
w ana
▁t ur
al m
▁እን ኳ
🤣🤣 🤣
▁c l
▁na h
ik wa
um e
▁ت ع
r é
ስ ተ
▁o mi
▁y orùbá
▁የ ት
▁be cause
▁ne w
▁ha pp
نا س
▁en t
▁De us
B A
k y
ر ح
ai r
de o
▁W ai
▁d omin
▁b ad
▁# L
▁ì t
▁À wọn
▁Am ma
▁n um
▁a gb
▁d yal
ll a
▁gb ọ́
bo dy
▁he ad
▁sho w
d s
ا ص
ا ف
▁g r
▁A h
▁the ir
😭😭 😭😭
▁mes mo
l ik
ر ك
ụ rụ
▁am e
b ọ
f or
s in
▁m uk
▁b in
▁N í
▁mus u
d à
g t
ለ ህ
or un
▁j am
▁M as
em u
▁mu ito
▁T he
E S
d os
e le
h one
z an
▁m orning
ay o
▁1 0
gh ri
c an
▁ ዝ
▁w om
es u
▁K i
▁B BC
?? ?
▁gb e
▁ه ذا
H A
▁k '
▁lọ́ wọ́
d ò
i x
p ata
▁an o
▁bí i
f ite
ድ ረ
▁r ay
▁kw enye
g os
j an
س ن
ል ን
ኦ ሮ
▁l u
om ba
را ت
▁Nwan ne
D A
ع م
▁A i
▁N o
▁am in
▁en ter
ير ان
ran s
▁Ha ppy
▁a yi
▁o tu
▁c in
▁I ke
▁in ú
▁ባ ለ
▁ ቆ
▁c r
ah i
ad in
ing s
ci al
▁غ ا
way s
f ẹ́
us he
▁s ou
▁# o
▁ya u
▁የ እ
▁እን ጂ
▁ìy á
d ì
▁s amu
▁h and
▁f ri
ay in
ing a
▁mu ch
▁ب زا
▁ooo o
▁#N igeria
e w
ا ج
ገ ራ
ግ ር
us hi
▁t w
am n
▁ab inda
te d
▁tà bí
ab ari
▁Ọ lọ́run
▁ar á
▁Bu hari
a p
▁m ore
▁j in
gb ẹ́
▁በ ማ
▁To h
▁kat ika
LA H
k àn
ي س
ር ቲ
ቱ ን
▁S o
▁ku din
▁ne ed
▁fi lm
▁su pp
▁Ọ mọ
▁2 02
▁Ba ba
p re
w ọ
😡 😡
▁h akan
▁M ai
▁u wa
▁ki ll
ee ee
▁Ọ ba
ቸው ን
j en
م ع
L I
k ì
▁w ọ
▁f ee
▁ب لا
▁kan o
gu e
t ì
ṣ ọ
▁n s
▁r un
▁እ ኮ
▁z amu
▁ه و
መ ን
▁ ።
▁U mu
ver b
▁abo ut
T A
f er
g wa
ላ ት
on go
▁# P
ug aban
▁happ en
t orí
▁b ata
▁v o
▁Y oruba
____ ____
▁fin ish
x u
و و
▁ ፓ
▁s aboda
▁w ana
oo o
gi ji
ጣ ም
▁ 🙌
▁m gbe
▁y '
▁l et
▁C hi
ق د
▁t in
▁l ati
▁f ir
es i
ا ا
▁h u
ال ة
▁የ ሰ
▁z asu
▁E st
▁ك ان
▁Ch ineke
ت ى
▁ ሕ
▁l ast
▁I f
bo do
▁sar ki
b in
m ụ
▁ ጊዜ
▁n ì
▁بزا ف
1 9
w ú
▁a z
▁k or
▁d í
▁o ku
um o
ab e
ou gh
▁lo ka
h ìn
p ọ
y á
ي ب
ሔ ር
▁ ዛሬ
▁و علا
▁ብ ሎ
▁ce wa
ç o
ú kọ
▁m am
▁b em
▁w ar
▁ال ك
▁ì gbà
▁le a
▁bay an
ለ ቲ
▁r et
ur in
▁ال لي
▁በ እ
d ar
i c
k ùn
ፈ ል
▁n ma
▁m p
▁k al
▁o m
it u
▁à gbà
▁di e
▁st art
ق ل
አ ብ
▁m k
▁y ako
▁i lu
ai ri
▁የ ኢትዮጵያ
▁غ ير
ت ح
▁ ጎ
▁s om
▁f ada
▁አ ላ
ke le
▁E zi
▁re ach
▁ም ክ
l an
ا و
ن ة
am un
▁አ ማራ
▁to h
▁መ ን
▁Y an
du a
y y
ግ ዚ
▁ì ṣ
eri ya
unt un
▁عن د
nì yàn
h in
ị a
▁a pp
▁k ana
▁e l
am in
▁የ ነ
gb on
▁z i
▁u war
▁the se
▁S u
▁ب ا
▁😂😂 😂😂😂😂
▁im e
▁ማ ን
' m
h ùn
p it
ሚ ያ
ረ ው
▁ ɔ
ut ar
▁pẹ̀ lú
t y
y ìí
▁ ❤️
▁a li
▁k oma
▁t ra
▁b lo
▁l m
▁p à
▁p os
▁u g
▁S hi
si de
O T
m ú
▁k uka
llah i
▁R e
▁al ways
ii i
sh en
b ọ̀
r is
ب ل
▁ 0
▁b b
▁e b
▁gi dan
vi d
▁min ha
▁hank ali
▁እንኳ ን
▁k ab
▁g ar
ba zo
▁z uwa
▁gi da
g y
▁o jo
▁y as
▁A na
▁sh ould
ìn rin
▁t una
▁o ko
▁y adda
▁ọ ma
▁😂😂 😂😂😂
c s
k á
w ara
▁t ayi
▁i la
▁g e
▁e t
▁e ji
▁ni .
00 0
ت ك
▁ ،
▁ ሞ
▁i d
▁r uwa
gb ọ́n
▁እ ነ
▁S a
ada u
▁ደ ግ
▁guy s
f r
g er
g ùn
u p
خ ل
ق و
▁b ra
en do
ad à
▁I m
chi e
v es
▁ ላ
▁a o
▁k una
▁s ir
▁we ek
▁ي ح
▁af ter
▁b us
▁f ind
▁na a
▁es sa
▁wai t
y asa
ባ ል
ጀ መ
▁m ere
▁A d
ll i
▁ku di
▁vi da
ን ት
▁t ry
▁b al
▁b ọ̀
▁l ah
▁p ost
ak wa
gb è
▁di d
▁እየ ተ
▁bl ess
ك ن
▁s weet
▁ال ص
is o
▁on we
▁se i
▁as k
▁pr es
U S
d ia
y am
ط ن
ኛ ው
▁ *
▁n ko
▁f '
en u
ah aha
▁የ ወ
os i
😭😭 😭
▁shi ga
▁ẹ̀ yin
ct or
▁መንግ ስት
ق ول
uk un
▁ọ n
em i
▁u bu
▁v ai
ǹ kan
م ية
▁ ፖ
▁k ee
▁g as
▁c iki
gb ẹ̀
ار ي
رب ي
▁ጉ ዳ
c es
ه و
▁a ikin
▁o ver
▁# H
▁r ere
▁qu ando
▁sh ugaban
1 0
A S
t ò
ማ ሪ
▁d r
▁t aim
▁w ere
ak in
▁in s
▁ل م
▁or úkọ
▁l' ó
T I
j eriya
የ ት
▁ ....
in t
ar am
▁ይ ህ
▁AL LAH
ል ም
👏 👏
an ce
▁k à
▁d à
on t
▁N wa
et e
ro w
▁J e
▁fa zer
▁eh n
w ụ
ፊ ት
▁a u
▁s top
▁b en
▁ال إ
▁ya b
▁z o
▁በ ጣም
▁ي ع
▁ا خ
▁are wa
bar ka
▁nso gbu
▁nw ere
ا ح
ካ ም
😢 😢
▁t ay
▁i di
ad ụ
os o
▁z ama
▁z aman
ig i
do gwu
▁gb ó
▁ብ ዙ
▁ቤ ት
▁d ashi
en ge
▁ال ي
▁I s
▁be en
▁shi r
▁sai d
K A
n ìí
▁s ɛ
▁ማ ለት
▁አስ ተ
iss am
U R
b al
ሪ ካ
▁k all
▁p art
co unt
▁E n
▁m3 a
▁kom ai
r án
▁ ች
▁h mm
▁አ በ
et h
▁H e
e f
f à
t issam
و ج
ስ ታ
▁m uke
▁t á
ay ya
▁as a
t ọ́
▁h ada
▁م ت
li z
▁è yí
▁ም ር
me en
Y A
d ọ̀
p ò
ج ل
▁ 😊
😅 😅
an di
▁p ọ̀
at ch
▁# e
▁fa ce
▁ver y
▁مز ية
ز ي
ك ا
▁a ce
▁t untun
▁y á
en g
ak ar
▁M an
▁es se
▁ح تى
▁t' ó
I S
▁m er
▁k uke
▁s aka
▁s pe
▁to p
▁ak o
ter n
▁è nìyàn
▁😭😭 😭
g ira
h ere
p t
و ت
▁ ዋ
an yi
▁an aa
▁ب ي
▁G o
c yo
▁m om
▁አ ት
em o
' t
c ia
h n
l s
r ù
ط ي
ل ب
ገ ድ
▁s á
▁b est
▁o p
▁# D
▁j ọ
▁አ ም
▁ma gana
▁ne za
▁bab y
▁الح كومة
▁የም ት
a f
j é
p ẹ
r ìn
ሰ ራ
▁ ቁ
al in
▁አ ባ
▁م ش
et u
▁ت ب
▁su b
▁ا ح
▁he ar
▁wat ch
b ó
m in
▁d ara
▁t án
▁s ão
▁o bu
▁f ah
es h
is ter
▁እ ር
em ber
▁1 9
▁#I n
▁ክ ልል
g et
k ù
t ù
س ة
▁n ye
▁m or
▁m ba
▁d un
▁d os
▁t unda
▁i ma
▁p u
▁# K
le a
▁O b
ro verb
▁ከ መ
▁of f
gi ye
f ara
h or
ለ ች
ሉ ት
▁ ♫
▁ ọ́
▁a da
▁a ho
▁b ik
▁g uk
▁e de
▁kar ya
▁ان ا
▁gan in
▁ቀ ን
▁እንዴ ት
t ụ
x a
ሰ ማ
▁ 😏
er vice
▁w asu
▁M ana
▁in da
▁B iko
ch ool
▁be g
▁ያ ል
▁#i beere
k í
y ị
▁ 👌
▁m à
▁o ro
▁e e
▁sh ar
mar è
ግዚ አብ
▁ ""
▁d amu
▁o ge
▁Y o
▁en d
c c
õ es
በ ል
▁ 😍
▁k us
▁b om
um p
ab ar
▁ì p
▁H mm
▁mm adụ
dù marè
I R
h at
p ó
ا ه
ና ት
ደ ራ
ጣ ን
▁ +
▁ ቦ
▁ 🎶
▁b ashi
on u
os a
▁ọ wọ́
▁do le
▁mat ter
▁ه ذ
O f
l t
o kwu
ል ፅ
▁ ኮ
▁ ጨ
😠 😠
▁s tu
▁s eri
▁o ṣù
or y
▁ya fi
gb ò
▁on i
▁re p
▁fir st
f y
z ọ
▁A meen
▁wa .
▁ṣ é
▁kar shen
▁ac count
A M
b re
o t
ኖ ር
▁ [
▁a iki
▁o j
▁f an
es a
▁አ ያ
▁I re
▁z u
▁ta ba
rí n
▁ad iro
▁ho t
▁pl s
▁lma o
g en
ر ق
ም ር
ኞ ች
▁a qui
▁s im
ar s
▁ba ,
▁ne xt
▁ha usa
▁ብ ር
▁bab e
jọ ba
▁mé jì
ግራ ይ
g l
ተ ው
ar ya
▁f ans
al o
▁r ashin
▁B e
!! !!
ير ة
shi p
gua ge
▁እው ነት
g ó
r r
ም ህ
▁m um
▁s p
▁s ure
in Yoruba
ou d
re d
▁B i
▁is a
لا ت
ማ ር
▁ 🔥
▁m ama
un di
al ar
▁እ ኛ
▁O lu
▁و م
▁qu er
▁G a
▁G od
▁co unt
▁Rah ama
ك ان
▁t ar
▁i yo
we za
▁is e
▁zai di
ለቲ ካ
s à
ط و
ع و
ጦ ር
▁y oruba
os ai
▁و ت
‍️ ‍️
🔥🔥 🔥🔥
amb ém
▁ru wan
k ọ̀
k ún
l ine
ج ي
ك ت
ቀ ር
▁ 👍
▁k é
▁t so
▁p ri
ال م
▁na da
▁ni le
▁አ ካ
▁M una
▁ní torí
▁bo dy
▁ል ጅ
▁pro ble
vu ga
ag os
D ay
ቅ ም
an da
▁t ir
▁b aka
▁c os
▁አ ዲስ
▁ò ní
ver s
▁mut u
▁kam ata
▁can t
▁ان ت
▁وعلا ه
3 a
k é
n abi
ግ ባ
▁ya ce
▁አ ው
▁በ ሚ
▁ነ ዉ
▁th ose
▁ẹ ran
▁U b
▁kya uta
▁ass im
▁ፓ ርቲ
u a
ገ ው
▁n á
▁s ame
▁N ke
ẹ̀ rẹ̀
▁Y ou
▁sí lẹ̀
▁ny ame
▁fee l
p on
▁ &
▁s end
▁# n
▁da uk
▁pa pa
▁mut an
ako ze
▁como t
▁magan ar
ግዚአብ ሔር
y en
ع ي
▁ ራ
▁n ame
▁a ta
▁k ina
▁d iri
▁o wo
▁የ ለም
uk wa
▁B o
▁kan di
▁te am
fan ya
▁ደግ ሞ
b wa
g ine
ا ئ
ታ ቸው
▁ ዶ
▁t om
al am
መ ት
ድ ን
ụ ọ
▁k ayi
▁s chool
es hi
ub wo
▁mun si
▁vi deo
▁ጥ ሩ
▁ها د
▁#Tweet inYoruba
▁ame en
- -
y ɛ
z ima
መ ለ
ዳ ን
▁t are
▁t amba
▁y í
▁f atan
▁A g
ad os
▁ì b
▁ي ت
▁J esus
ችን ን
g g
j ẹ̀
l in
ا ي
و لي
▁ 😒
▁d adi
▁b it
▁b aku
▁y es
▁g ut
▁O ló
▁v ir
▁fo i
▁ر و
▁ex p
▁መል ካም
b d
f ah
g ẹ́
y or
ك يران
ላ ችሁ
🏃 🏃
▁b ada
▁o t
▁na i
▁O l
▁K ò
▁D o
▁L e
I D
S ervice
f í
s en
ص ل
▁ ሆነ
▁o lo
▁# Y
▁da wo
▁M un
لا م
▁la gos
m à
▁ ሥ
▁ ኤ
▁m ind
▁a ha
▁d as
▁t en
▁# p
▁و ز
▁ka ji
▁H abari
▁ይ ህን
▁fa z
▁ho pe
▁bak in
▁የማ ይ
f ur
à ì
غ ار
ك ري
ሰ ው
ያ ኔ
▁ ƙ
💯 💯
▁k ir
un ci
▁de ar
▁im p
▁Am in
▁gw amn
▁whi ch
A llah
v al
▁ 😀
️ ️
▁k po
▁y à
hi a
▁ya wa
ut se
▁O k
▁ab an
se lf
fi c
▁أ ن
زا ئ
d ùn
k ẹ́
م ر
▁t wa
▁b ẹ
▁o zo
▁p adà
ak uru
▁https://t.co/ N
go la
▁ከ አ
▁ከ ፍ
▁re ally
▁Mo z
b y
መ ድ
🤲 🤲
▁h na
am ata
▁p ut
▁# F
▁in side
ኦሮ ሞ
d um
i o
r ị
ክ ል
an ta
▁y ah
▁h adi
▁O rí
ing i
▁à ì
▁z ata
▁ma chi
▁S h
▁B ar
li e
▁re al
▁ش ي
▁cor ona
fri ca
p s
▁n ǹkan
▁i gba
▁https://t.co/ H
▁O mo
▁I he
ri o
▁3 li
▁ስ ራ
▁est ou
G O
u gh
w ere
▁h um
ya e
▁ọ lọ́
▁ì dí
▁ab unda
ig n
▁R wanda
all ai
a ce
n á
t r
ي ات
▁ ؟
▁ 🤦
▁p hone
▁r w
▁M A
re et
ọ̀ rọ̀
▁ak wa
▁P o
ent s
▁ọ̀ nà
▁tu do
▁pesso as
▁wom an
p ar
y ọ́
ረ ዳ
🏾 ‍♂️
▁n inu
▁k edu
▁j ikan
▁à t
▁à ṣà
▁و اش
ho w
▁L i
p uto
ò bá
▁ ጭ
▁o di
▁i bu
▁E le
ari ya
▁Qu e
▁uban giji
▁tab b
g as
ሎ ች
ሮ ች
ወ ጣ
▁ 🙄🙄
▁n una
▁k ak
▁t ú
▁s osai
▁l ò
on ye
ke d
▁ب اش
▁ነው ?
▁ለ ምን
▁1 2
▁1 00
▁est ão
ff er
▁ሀ ገር
wá jú
▁ና ቸው
▁بن كيران
b ú
g em
▁k uko
▁k uto
▁t ambém
▁w ad
ar u
▁i li
▁f ood
▁e wé
▁c er
en se
▁ال صح
▁Y A
▁ተ ወ
▁en jo
▁وال له
▁fri end
3 3
م ل
ላ ቸው
▁ !!
▁w ò
am bo
▁A ba
ll h
▁ma a
▁th en
se d
▁bá yìí
▁#I gbo
▁at é
▁ምን ም
▁ih ab
f ani
g ani
l ation
ئ يس
و ق
▁ ፡፡
▁w ọ̀n
▁h am
it ed
▁N n
▁م ب
▁C o
▁W ọ́n
▁al barka
ee e
▁ሰ ዎች
▁any thing
▁mon th
m as
s un
ن و
ታ ው
ọ rọ
▁ X
▁ ሽ
▁ ዜ
an g
▁s ing
▁o lú
▁f at
re at
▁W A
hhhh hhhh
kh airi
▁አበ ባ
I A
U K
W ord
c r
c om
d ers
f ia
l ia
z in
▁a inda
▁i ba
▁https://t.co/ 5
▁https://t.co/ F
oo t
re ady
▁ku ba
▁D uk
▁ch ineke
▁ሰ ላም
▁magan in
ق يل
መ ጣ
ማ ት
ን ያ
▁ ቃ
🇲 🇿
🏽 ‍♂️
▁d ùn
▁b la
▁b all
▁w '
▁o dun
▁y am
▁l as
▁I dan
▁و قت
▁L o
▁L ol
▁1 5
.... ..
▁thing s
san te
▁مح مد
▁ሌ ላ
▁Ezi gbo
eth ing
t ó
ل ق
😎 😎
an ya
▁s ong
▁w ake
▁p la
▁na we
▁የ ህ
▁አ ሳ
▁M i
▁https://t.co/ q
▁ko ko
p è
ረ ስ
▁ 😢
▁ uko
😆 😆
▁m s
▁t ire
▁g ari
▁e bu
al le
▁ነ ገ
▁መ ሪ
▁W e
ين ة
▁she y
▁የአ ማራ
▁وا حد
▁ከተ ማ
b ia
k ia
n in
s ìn
▁k p
▁o bodo
▁l ori
on o
▁https://t.co/ 0
▁م س
em os
▁D i
▁al ready
▁ለ አ
▁ك ا
▁es ta
▁ا و
▁ስ ት
▁yak ara
▁som ething
▁bb c
c ado
k et
k ara
▁s or
▁b ó
▁b oss
▁l ẹ
on al
wa ,
▁A ka
▁የ ሆነ
▁https://t.co/ 7
▁https://t.co/ X
▁O jú
▁à à
▁E ze
▁3 lik
▁mm iri
▁Nd ị
i ce
v ah
د م
ል ቅ
ረ ጃ
▁ ፕ
▁n ake
▁t ì
▁o ba
▁h in
▁c ry
at in
▁de ɛ
om i
▁v a
▁ga -
po is
▁1 8
▁ድ ር
▁Ma puto
▁mal am
▁boy s
ham m
L E
n ali
د ير
ኛ ል
ገ ና
▁k uk
▁s um
▁b ari
▁w r
▁A da
▁r ab
ai ja
ay an
▁ni ,
▁https://t.co/ W
▁su a
▁ن ح
▁wi pe
😂😂😂😂 😂😂😂😂
▁loka cin
▁ret weet
A m
x o
▁t rans
▁y ọ
on d
▁M asha
▁T u
را ء
▁ا ست
▁he art
▁day s
▁الش عب
T O
h al
k s
▁ ቡ
👇 👇
an te
▁a se
▁h it
▁p ay
ab le
▁https://t.co/ R
▁z aku
▁to dos
▁v ou
▁T witter
▁ko h
ji ya
▁sa w
🙏🙏 🙏
خ ر
ف ت
ዲ ያ
▁ ዳ
▁a ṣọ
▁k áà
▁d m
▁s we
▁A t
▁O lú
▁ba .
▁me lh
▁u ba
ch ị
ro und
▁ነው !
▁#T he
▁enjo y
b ò
j ya
m y
ሳ ብ
▁ Ǹ
▁k it
▁k ìí
▁i rú
un e
▁e ze
▁https://t.co/ V
▁K e
▁በ ላይ
▁ko l
▁ò kè
▁ስ ል
▁ah ụ
gbá ra
yor ub
, ,
M o
n gola
ح ي
س م
ه د
▁ 🤷
▁n kan
▁a ki
▁t it
▁t ẹ̀
▁h ome
▁l he
or s
▁na wa
it ar
▁https://t.co/ 3
▁https://t.co/ D
▁https://t.co/ G
▁https://t.co/ J
▁https://t.co/ Y
▁wa jen
ان يا
du je
eri an
▁ه ي
▁po de
▁tur n
▁count ry
y ọ̀
z we
ሱ ን
ቀ ው
▁ Ụ
▁ ukwu
▁m t
▁d ire
▁s po
▁w aka
▁o d
▁i j
as ar
▁# le
▁ni ile
▁j ù
▁አ ር
▁K edu
ti m
▁መ ሰ
▁G i
▁ያ ስ
▁V i
▁እንዲ ህ
▁غا دي
غار بة
2 02
t es
▁k àn
▁t è
▁s ur
▁s le
▁o le
▁l 3
▁f l
▁A bu
ll o
es o
es si
▁አ ደ
▁an ka
▁https://t.co/ E
▁https://t.co/ L
▁https://t.co/ g
▁à mọ́
▁ب عد
▁ha ba
▁ن ت
ation s
▁num ber
G A
l ess
ف س
ራ ዊ
ያ ቄ
an guage
in ess
▁g hi
▁r án
▁አ ሜ
://t.co /t
▁https://t.co/ K
▁S an
ho vah
▁D E
▁An yi
▁gy imi
gt ;
sen al
l ho
s ky
መ ል
ታ ወ
ነ ግ
▁ ing
▁k y
in o
ti c
▁S he
wan u
▁U ban
▁por que
▁wípé ,
3 0
d as
h ún
k om
z za
ታ ል
▁d uba
▁t ana
▁ال ط
▁ال غ
▁https://t.co/ C
▁https://t.co/ Z
▁S un
ún jẹ
▁af o
▁ọn ụ
D O
r ia
w or
w ure
ي ي
▁ 💔
▁s ak
▁h om
▁p ẹ́
▁# t
▁r á
▁r è
▁https://t.co/ 6
▁https://t.co/ p
▁https://t.co/ x
▁ar iko
▁ሲ ያ
▁ob ìnrin
▁mẹ́ ta
▁bà bá
d ẹ
h ali
ይ ወ
ገ ን
ጥ ር
▁a tt
▁d asu
▁b et
▁l ight
al ụ
um b
ẹ̀ ẹ́
▁https://t.co/ 8
▁https://t.co/ s
▁ì wé
▁ب صح
ver n
▁ተ ማሪ
ار ك
▁st ate
end er
▁ụ mụ
I C
c l
w am
w asi
ረ ን
ክ ራ
▁ uri
▁ eri
▁w adan
▁y en
▁i we
▁e la
▁da ba
▁I b
▁in ter
▁re ason
▁P r
▁ad d
▁"""""""" @user:
▁wat er
▁الس اد
▁sem pre
amp ;
▁ሳይ ሆን
' i
ó s
ላ ከ
ẹ rẹ
▁a ye
▁s allah
▁h hhh
▁e kele
▁c asa
en ya
▁አ ድር
is ho
▁https://t.co/ 2
▁https://t.co/ Q
▁https://t.co/ S
ti me
▁sh u
▁lá ra
▁2 0
▁ce le
▁ib yo
▁ቤ ተ
ርስ ቲ
▁Ǹ jẹ́
O V
h on
l è
m ì
o k
p à
ê n
ا ط
ب و
ታ ት
▁ ሴ
😄 😄
an in
▁m wi
▁t aa
▁s te
or on
wa .
▁r ub
co s
▁me an
im we
▁S en
▁ku g
▁ነ ኝ
▁gb á
▁mo uth
▁ch ar
▁tu a
wò rán
ልፅ ግና
nali llahi
▁الساد س
▁s adau
▁g ame
▁be a
▁ta fi
▁U n
▁J i
▁ló nìí
▁ጥ ያቄ
▁gw uru
ሪ ክ
ብ ት
▁a go
▁d ake
ir in
▁https ://t.co/t
▁ma 3
▁se ll
▁ب ل
▁P or
▁sa u
▁bi ya
▁yan xu
▁lọ .
ru e
▁ìy à
▁mul kin
f ad
m un
t á
u .
غ ي
ታ ችን
ዜ ማ
▁ ث
▁n amba
▁a wa
▁a ji
▁k we
▁d ri
▁b uru
▁o rin
▁i ri
▁g al
▁r em
▁M w
▁https://t.co/ 1
▁https://t.co/ f
▁በ ደ
▁ì jọba
▁ku ll
ان ية
▁lo wo
▁n' e
▁እንደ ሚ
❤️ ❤️
▁some one
▁girl s
▁አብ ይ
E M
s ọ
v yo
ሩ ት
ቦ ች
💪 💪
▁n yin
▁m ost
▁k uku
▁y ii
▁f ami
▁e bi
▁r y
is as
▁https://t.co/ I
▁https://t.co/ M
▁https://t.co/ O
▁https://t.co/ v
▁ب ين
▁H o
▁U t
▁😂 🤣
▁ra in
▁Ha usa
▁لل م
Z I
l ay
ط ة
መ ር
ስ ሊ
ደ ው
ọ wọ́
▁ uru
▁a que
▁t wo
▁# yorub
▁የ በ
▁se lf
▁ní gbà
▁G bo
▁ተ ጠ
▁kw ana
▁ho wa
▁#E nd
▁lea ve
d es
m ai
p ụ
ع ت
▁m iki
▁a de
▁d ata
▁s ani
▁g en
▁j à
▁https://t.co/ 4
▁https://t.co/ A
▁à bí
▁no thing
re am
▁D ama
▁ch am
▁ch ai
▁ወ ን
▁ho je
▁bro ther
▁ጉዳ ይ
▁mutan en
B O
u war
v ir
ح ت
ص ر
ራ ል
ስ ፋ
▁ ኦ
▁ ዕ
▁ ጌ
😩 😩
in ka
▁p as
um ia
▁የ ው
▁و ي
▁ma f
▁ní pa
▁ò un
▁ak w
▁ik on
▁wor ld
▁Moz ambique
▁#le arn
9 i
g ado
n ess
r ún
ራ ው
ṣ in
Ẹ ̀
▁ ኃ
▁ ፀ
▁ 👏
an ge
▁s '
▁g usa
▁g yae
▁A f
▁https://t.co/ 9
ẹ́ gẹ́
▁ba g
▁ba za
▁በ ር
▁ka zi
▁ì bí
▁we i
▁am ba
▁ل و
ghri b
▁wọ̀n yí
5 0
x i
ا س
ለ ኝ
▁i yi
▁g wa
▁r ai
hi m
▁ya .
▁v ia
rí à
▁1 4
▁kun ya
ور ة
▁ካ ል
▁ran ar
b 3
l im
ቤ ት
ኝ ነት
ገ ል
ገ ኘ
▁ نا
♥ ️
▁n do
▁a cho
▁t as
▁g ama
at ur
▁አ ደረ
▁N A
▁https://t.co/ d
▁ka ce
▁S er
▁gb ọ
▁mi .
▁li e
▁ደ ሞ
▁chi ld
ult ure
dum are
E x
ባ ት
▁m im
▁m iss
▁k on
▁d en
▁s uk
▁e wu
▁p aa
▁r ush
▁N e
▁https://t.co/ r
▁I g
▁z aka
▁al khairi
adi o
▁ድ ን
ud uma
▁sle ep
3 m
O M
و ي
ን ን
ከ ተ
ክ ት
ጨ ረ
ṣ ẹ̀
😃 😃
▁d ro
▁o g
▁e i
am ente
▁c ya
▁አ ገር
▁https://t.co/ B
▁u z
▁be at
▁wan an
ri d
▁th an
▁H ar
▁ẹ yẹ
▁ስ ር
▁ad ị
▁wat o
▁jo in
▁fu ll
▁ca use
▁sen se
▁kee p
a w
b l
b ì
b ere
y ane
z ama
ç ões
ስ ራ
🙌 🙌
▁m uka
▁@user ,
▁s asa
▁s iku
▁b ya
▁w uta
▁c u
at ul
▁I fe
▁S t
▁ṣ à
▁ṣ á
▁ṣ í
▁ከ እ
▁P ro
▁sa uran
▁en ye
▁ስ ም
▁lá yé
▁gu du
▁oo h
▁ህ ዝ
▁???? ??
zan ia
ጀመ ሪያ
▁#In Yoruba
زائ ر
O S
p y
ح ك
ም ሮ
ሩ ን
▁ !!!
▁a gu
▁s w
▁g un
▁h hh
▁A jé
▁de le
ur s
▁da uki
▁https://t.co/ j
▁https://t.co/ w
▁O s
▁ነ ህ
yi za
li ce
▁um ug
▁le o
▁ag ora
▁ib tissam
▁pi ct
▁bre ak
ድረ ግ
r en
u ,
ç ambique
ẹ ni
💃 💃
▁s am
▁c g
on ge
▁A lh
▁ال ذ
ab al
▁K ano
▁be lle
▁ne h
▁do es
bo chi
▁ك ت
▁J o
unt y
▁ve z
R A
h m
h ad
k ere
r s
y uma
á rọ̀
ا ك
ه ي
▁n it
▁n ri
▁a to
▁b am
▁l es
▁e kwu
▁ال ناس
▁ya ba
▁https://t.co/ e
▁https://t.co/ h
▁di z
را م
▁خ و
iti on
▁እስ ከ
jí ríà
n ye
p end
s c
y es
y ya
ل ف
ه ر
ባ ቸው
ጆ ች
▁k ada
▁o se
▁f all
▁e mi
▁M ar
▁O ga
▁በ ሰ
▁በ ቀ
▁u li
di o
▁v ol
▁ko k
▁ሆ ኖ
▁talaka wa
▁ano ther
▁Gbo gbo
c le
f ata
l at
r os
▁ ሸ
er es
▁a v
▁b ẹ̀rẹ̀
or ar
▁e gbe
▁p ikin
ir wa
▁ni ght
▁https://t.co/ T
▁https://t.co/ U
▁I si
di ya
▁B A
▁D A
▁te y
▁co lle
▁🤣🤣 🤣🤣
▁وا قيل
▁bas ira
) .
n em
w ẹ̀
ث ر
ሳ ት
▁ ዩ
▁ ፡
▁ ربي
▁m z
▁d ì
▁b ɛ
▁b on
▁o ke
at er
ir u
es ti
▁K ar
▁ba ch
▁in d
▁S ar
▁T i
▁gi .
se a
ان ا
▁as i
▁U r
ọ́n à
▁V ocê
▁wat u
▁ver dade
▁nem an
** **
l ing
ز ب
ص و
ف ر
መ ሰ
ታ ዊ
ደ ት
። '
▁m ent
▁s ister
▁h á
▁h ai
▁አ ፍ
▁https://t.co/ b
▁O bi
▁on a
▁መ ቀ
▁for m
▁ይ ሁን
▁ak u
▁ban k
▁br os
▁Ṣ é
▁umun tu
▁ምር ጫ
▁وقت اش
T he
c al
t and
w ood
ص ب
ع ما
ق ر
ኋ ላ
ዎ ችን
ይ ል
ጠ ብ
Ọ ́
▁m ab
▁k wu
▁d am
▁t rue
or an
▁e je
am ento
▁A re
▁# s
▁r ight
▁de pois
▁https://t.co/ P
▁م لي
▁و ل
▁il ai
àì jíríà
I M
O ro
b ẹ
k en
l sea
s án
y ọ
ò ó
ህ ል
▁n ụ
▁n ya
▁m ust
▁t at
▁o yi
▁e lu
▁na yi
▁r est
▁ya ushe
it s
▁እ ድ
▁እ ግዚአብሔር
▁https://t.co/ n
im b
▁am fani
▁of e
▁1 .
▁yo ure
▁má à
▁Am en
▁خ اص
▁chan ge
ghri bi
d ẹ̀
l as
q i
r as
y um
z ia
ن س
ጠ በ
▁k ing
▁o go
un tu
▁# U
▁M in
▁https://t.co/ o
▁በ ፊት
▁as he
▁un ders
▁د ار
▁🙏 🙏
▁ng wa
▁ምክ ንያ
R E
j ar
w here
ج ب
ح ال
م ت
ት ህ
ይ ት
▁ ረ
▁n ak
▁d y
▁d adin
▁b w
▁b uk
▁g ane
▁h igh
▁h ahah
▁e kw
▁c ur
▁p at
al la
ah unda
▁https://t.co/ z
▁م ي
▁C he
را ر
▁الم لك
▁le g
▁ش كون
سي مة
▁tem po
? !
c ul
ራ ን
ር ድ
ፋ ት
▁ 🥺
an za
▁m ade
▁m uku
▁@user .
▁d ad
▁y oo
▁h ii
▁l ong
▁l fy
▁e ye
on do
▁A lá
▁an an
▁م د
▁ب ع
▁don e
▁ga far
▁ك ب
▁ተ ከ
pe ct
▁kw i
ww ww
▁ojú mọ́
▁olu wa
▁kad ai
▁kor aa
▁dauk aka
▁cele br
▁Sen hor
H E
b w
ሳ ይ
ጣ ት
▁ ذ
▁n amu
▁t im
▁w llh
un gu
▁f am
▁na ga
▁# m
▁an k
▁እ ም
▁م و
▁wa ch
▁ma j
▁E se
▁go vern
▁መ ከ
▁መ ግ
▁qu em
▁ń lá
لا د
▁ት ን
▁han an
vu ze
▁já de
sì kò
▁አመ ት
rì ṣà
▁& amp;
A L
p l
p os
s he
s àn
z iri
ብ ረ
▁m ìí
▁k ike
▁d ra
in di
or row
▁c c
▁p á
▁ال ر
▁N an
▁https://t.co/ l
▁https://t.co/ y
▁و ح
et o
▁T an
▁D on
▁go t
▁3 0
▁1 1
▁F e
▁ማ ስ
▁st ay
▁ق ال
▁fit o
▁pr ay
▁ro ad
rú kọ
▁year s
▁ወይ ም
▁هذ ه
▁pla ce
U M
b b
ا ز
و د
ኖ ች
ፈ ው
😥 😥
▁a wo
▁a ure
▁d '
▁o ò
▁o un
▁o únjẹ
▁y at
▁y aka
▁i ko
▁https://t.co/ c
▁https://t.co/ k
▁à gbá
▁በ ዚህ
et se
▁ي ب
▁' የ
▁si de
▁man y
ري ق
▁mun do
▁ر ئيس
▁x a
amb ra
oooo oooo
ገራ ችን
▁seri ous
T E
b é
g ha
h as
l ẹ
r ist
á a
؟ ؟
ጣ ሪ
ṣ ì
▁ ~
▁n es
▁b ara
▁i ll
un ga
▁f lo
▁an nabi
▁እ ሱ
▁M ut
we .
▁we e
▁ف كري
▁tí tí
▁ت ف
▁L á
▁bi yu
▁ẹ̀ rọ
▁አይ ነት
pin le
اج ة
▁zu ci
▁melh or
▁#learn yoruba
ጨረ ሻ
. '
d àn
i z
n un
y ere
በ ላ
ተ ር
ኒ ቨ
ን ዳ
ወ ሓ
ፈ ር
▁ Ị
▁ 🥰
🙏 🏾
▁n un
▁i je
▁l it
▁A la
is he
▁በ ዓ
▁በ የ
▁u yu
▁T e
▁ní lé
▁qu al
▁di zer
ان ت
▁ló jú
▁co isas
▁😁 😁
▁#R w
▁hak uri
uti ful
▁pesso a
▁ray uwa
▁dí ẹ̀
▁Yo òbá
ምህ ርት
c re
w al
س ط
ش وف
ብ ን
ṣ è
▁ ሠ
▁ 😔
☺ ️
🚶 🚶
an to
▁a ya
▁w ɔ
▁h uduma
▁f à
▁A ra
▁የ ዘ
▁O r
▁me e
▁wa ,
▁ì dá
▁ti wa
▁ṣ ẹ
▁W allahi
▁ta us
▁Ẹ ni
▁في ها
▁#I s
▁Wan da
▁unders tand
H OR
b s
c en
g ara
g ra
l ah
p le
ف ة
ق ا
ሰ ባ
ሽ ን
ቀ ት
ቢ ያ
ካ ከ
▁ 👉
▁ ጦር
▁a ju
▁t ẹ
▁t orí
▁w aye
▁h ari
▁e gbu
▁c ra
▁c atch
▁p 3
▁de ix
▁ni pa
▁I t
▁و ن
ti v
▁in v
▁ṣ '
▁H ahah
▁ت اع
▁ha ja
▁2 .
ura ge
▁yak amata
▁fu ck
▁مح سن
▁Es se
▁ች ግር
▁#p roverb
▁#Rw OT
ر ت
ዮ ች
ዮ ን
ገ ደ
▁n ọ
▁n aka
▁k ika
▁t ọ́
▁t aya
▁s ent
▁b uri
▁w ena
▁o ya
▁g os
▁l k
▁l ist
or ona
▁e ko
al s
ai se
▁an u
ing o
▁ba a
▁ba ako
▁و ها
▁ka ga
▁B ia
▁መ ሆኑ
▁ti ll
▁H i
▁so on
▁ا م
▁ወ ያኔ
▁ል ክ
▁ል ዩ
▁har d
ام ل
▁È kó
▁ub wo
▁adi ghi
▁ቦ ታ
▁colle ct
& gt;
b ụ
d ó
j ir
l am
ق ط
ረ ጋ
ው ም
ዎ ቹ
ግ ል
▁ 😍😍
▁m is
▁m uma
▁a le
▁k asu
▁s ad
▁b ani
▁e ar
▁የ ኢ
▁አ ህ
▁https://t.co/ i
▁https://t.co/ m
▁O dogwu
▁ọ jà
▁K an
▁in t
▁G u
▁ነው ::
▁su per
▁ተ ቀ
▁P a
▁lá ì
▁st ar
▁wi fe
▁nd ụ
▁الع د
▁Ò gún
▁ezi okwu
▁علي ه
gr am
▁cont inu
for m
▁taim aka
▁nai ja
Z A
c ess
d án
ر ض
ስ ብ
ፈ ለ
▁b '
▁i be
▁e yin
▁c ika
▁p ú
▁na ira
ll y
▁an s
is te
▁እ ጅ
▁https://t.co/ a
▁و ب
▁ò we
▁is ka
▁ta g
▁pe cado
▁ts aro
▁sun an
▁lọ́ jọ́
▁fe ar
▁kay an
▁الد ولة
ــ ــ
▁dú pẹ́
H O
k ana
l ha
w as
ባ ለ
ነ ቱ
▁ ር
▁ uta
❤ ❤
▁m tu
▁a yo
▁s mi
▁h at
▁h ana
▁A won
▁ال ى
▁N so
▁M aka
▁ọ kọ
▁و ج
▁we ar
de d
▁for get
▁do ing
▁as o
▁ይ መስ
▁ki la
pp er
ku wa
▁ج دي
▁علي ك
▁ebu be
▁gafar ta
/ ር
g on
خ ص
ر د
ስ ል
ባ ቢ
ይ ማ
▁ ǹ
▁ ɗ
▁n ni
▁t ri
▁b ọ́
▁na u
▁r ọ
um ma
▁ya fe
om be
▁ni ce
▁j an
▁M ur
▁z aki
▁S EN
ra a
▁ò kú
▁C om
▁ይ ች
▁of uma
▁re ce
▁ا ي
▁la ugh
▁ወ ንድ
▁ar senal
▁س ي
▁han ane
▁#N P
▁አለ በት
▁الس يا
▁baz ai
▁Est ou
lli on
▁kall o
▁ten ho
W E
c ur
k k
l k
ዓ ት
ጠ ው
ọ ọ
▁a ct
▁t y
▁s ake
ar ar
▁i wa
▁h ta
▁l oni
en su
▁# J
▁r as
▁K wa
▁z aa
▁mu g
▁E m
▁መ ቼ
▁W lh
▁di al
▁mi ,
▁ተ ስፋ
▁li ve
fí à
▁SEN HOR
B I
f aran
v em
ቻ ችን
ጠ ኛ
▁n ch
▁a ir
▁b wa
tt le
▁I bi
▁م ات
ce l
▁mu da
ta in
▁ተ ብ
▁Ọ jọ́
▁ብ ልፅግና
▁ስ ብ
rin k
▁n' i
wi ye
▁وال م
▁bab ban
▁mar ket
▁Ọ̀ yọ́
ant ar
▁ሊ ያ
▁ز عما
▁dú ró
GB O
▁supp ort
▁መን ገድ
▁aban tu
fad hali
m al
p at
z wa
ሸ ት
ው ያን
er t
▁n ku
▁d or
▁d ali
▁o ther
▁i z
▁l ay
▁f ree
▁c are
ad or
▁አ ሉ
▁N woke
▁M ad
▁se u
▁E k
▁ከ ሆነ
▁U do
▁ለ እ
▁3 n
po lo
▁ki y
▁en u
▁J á
▁ن ع
▁st reet
▁un i
▁ra p
▁mas i
▁ዝ ም
▁rw ose
▁spo il
f asha
j eria
s á
t v
ف ظ
ق ات
ه ة
ዘ ጋ
▁h ust
un u
un ye
▁f t
▁c lo
▁r ọ̀
es day
▁የ ቀ
▁https://t.co/ u
▁ku ji
▁am en
▁መ ር
▁ẹ lẹ́
be le
lu b
▁es s
▁yan da
▁ts are
▁ra ji
▁ق بل
yar wanda
▁won t
▁q ara
▁ቢ ሆን
▁Qu ando
▁lẹ́ yìn
▁ọk ọ̀
▁mul ki
alm ente
▁ìṣ ẹ̀
▁tè mi
2 0
N A
m ìn
ባ ሪ
ኩ ል
ጠ ር
us ha
▁m ina
▁t uba
▁o ju
▁y é
▁l and
▁e j
▁c ri
um ar
▁ni b
▁an i
▁و أ
ho ut
▁D M
▁ل ك
li c
▁ẹ nu
▁of u
▁pe lu
▁shi rin
▁في ه
ري د
▁#O we
▁gh adi
▁bus iness
▁كا ين
ይማ ኖ
3 n
L i
P C
ገ ኝ
ṣ ọ́
▁ 😡
▁m aki
▁a du
▁b ghi
▁i do
▁e chi
▁c le
▁r ema
ad es
▁N k
▁N gwa
▁M y
os ,
▁ba wa
▁ní lẹ̀
ig we
▁R a
▁ṣ ẹ̀
wan i
sa ge
bo zi
را ئ
gi di
▁shi ma
▁የሚ ል
jo ba
▁con f
▁ra ba
▁dá ra
▁ሚ ኒ
▁mìí ràn
) ,
9 o
D E
R e
k at
o .
v ar
w at
w ọ̀n
y on
ع ا
و ك
ሉ ም
ማ ን
er é
▁t l
▁b ayi
▁y asan
▁i p
▁g t
▁g ẹ́gẹ́
▁ال ز
is an
▁M ah
▁ka fin
▁ì wọ
▁T ab
▁ò jò
▁ا ب
▁2 4
▁2 00
▁F a
▁ح اجة
▁ar u
▁con s
▁الح سيمة
▁san nan
▁y3 n
▁ص ح
▁😁 😁😁
▁Ar iko
201 9
8 8
o ko
p enda
r es
á s
ي م
መ ው
Ọ ̀
▁ 🙆
▁m po
▁a e
▁k ẹ́
▁s ah
▁w asa
▁o ld
un .
un ge
▁c as
▁A ss
ay en
▁ya ci
ya .
▁M m
▁u zo
ke a
▁T his
ta ,
▁al jan
▁ይ ሆ
▁U yu
▁ي خ
▁ak ayi
▁P e
▁pe lo
mu d
▁ẹ̀ dá
▁or u
▁mut un
▁ش اء
▁وال ت
ju a
▁hi ya
▁igi he
▁አሜ ን
▁fami ly
ر لم
ሄ ር
ለ ያ
ሥ ት
ች ል
ክ ር
💔 💔
er al
▁n de
▁a zu
▁d aman
▁s iri
▁g ashi
▁e at
▁na bi
▁# a
he he
▁j ar
uk uru
▁ነ ፃ
▁T V
ho to
▁መ ሆን
ari bu
"""""""" @user:
fi ce
▁im ani
▁um e
▁en we
and an
zu zu
▁gan duje
▁المغرب ي
▁chan g
▁pre c
▁እንዳ ይ
▁supp ose
▁tom orrow
▁ፕ ሮ
▁bea utiful
2 2
a ck
b am
c ked
w in
س و
ك اش
ላ ማ
ላ ክ
ዋ ል።
▁ آ
😋 😋
😜 😜
🙏 🏻
▁m ụ
▁k ù
▁t ò
▁t ura
▁b n
▁w ako
▁o dogwu
▁i ji
▁f ight
▁e we
ak ara
▁j ó
▁ọ lọ́run
▁à wòrán
▁K una
▁በ ነ
▁v is
▁ل ـ
wan ya
▁al h
lo go
▁ó ò
▁bu h
▁pe ace
▁mat ch
▁af ri
▁Mo çambique
▁Z a
akan in
▁uk u
amo to
bà dàn
AR A
▁yar da
▁ሁሉ ም
dd ing
pit ia
▁proble m
7 7
A ngola
I F
g á
k t
p ẹ̀
z am
ف و
ላ ው
ሞ ች
በ ው
▁ –
▁ •
▁k usa
▁t sa
▁y ’
▁i cyo
▁l ak
▁e po
▁na jeriya
ad ar
▁ya ji
▁አ ቶ
▁in sha
▁se ason
ta .
▁gi ,
▁ت خ
▁so bre
▁com ment
▁3 .
▁es te
▁ح كومة
eri be
▁n' a
▁ግ ድ
▁ok wa
▁ው ይ
▁ኢትዮጵያ ዊ
▁Nwan yi
▁lab arin
▁ek we
ores ha
▁hal in
▁ሙ ስሊ
▁gyimi e
▁nyin aa
▁Nso gbu
c ulture
d em
d ìí
h ab
j ó
j ọ̀
n ing
w 3
ف ض
و ع
ል ድ
ቃ ት
ተ ን
ጠ ቀ
▁n à
▁m r
▁d ir
▁d rink
▁s amun
▁s bd
in do
▁w ould
▁g ra
▁g ini
as ,
as .
at her
ال ية
▁ni m
▁ni ma
▁የ ሌ
ye .
▁K A
▁በ ት
▁ka wa
la ,
▁mu lh
▁go ing
te l
▁ت ش
▁re ad
▁ብ ት
▁ስ ን
▁è mi
▁è tò
▁n' o
▁est ar
▁Ha ba
▁ታ ሪክ
🔥🔥 🔥
hu gu
▁wu ce
▁Ak wai
▁lab ari
▁#Tweet Yoruba
In Yoruba
bọ chị
▁nì kan
▁spe ak
▁sor ry
ên cia
atul ations
3 o
I K
I T
o ,
w om
á rio
ع ل
በ ሩ
▁k ik
▁d ima
▁b or
▁b orn
▁h us
▁e v
ba b
▁de c
▁ni i
▁ni ba
▁da ina
▁እ ራ
ing u
em b
▁በ ኋላ
▁ku h
▁v ya
▁T una
ere za
▁ل ح
▁C on
▁ẹ rú
▁L agos
▁man ta
▁that s
ash en
▁ts oron
▁Da alu
ons ense
mí ràn
▁الو طن
😂🤣 😂🤣
▁mats ala
▁Im ana
gl ish
▁ጌ ታ
U L
g n
l í
z ar
ሞ ክራ
ነ ሳ
ግ ብ
ị rị
▁ ፅ
▁ ፋ
🚶 ‍♂️
▁n j
▁t ut
in s
▁w ọ̀
▁y ay
▁f ire
ak un
▁A ri
ah u
▁የ ታ
le e
ye yi
os .
▁O ma
ou p
ou ch
▁K ama
▁S A
▁mu yi
▁wan na
▁ب لي
▁R o
▁ف ر
▁ت ج
▁L a
▁le vel
.... ....
eri ca
▁han nu
▁ما شي
▁🙏 🙏🙏
▁rah ma
▁mar ry
▁che ck
▁ci gaba
▁abu ja
▁iki bazo
port s
▁thank s
▁Ah sante
▁202 0
▁ምክ ር
▁blo w
▁Olu wa
▁gwamn ati
▁kull um
b at
g ari
ت ه
ض ي
ወ ቅ
▁ ሐ
▁k ake
▁t ão
▁g arin
▁h ali
▁e lé
ال ك
ur en
es tion
▁ya f
it h
▁da ce
▁M us
▁M ba
im in
▁S i
▁B ab
▁ف م
si on
ck et
▁te u
▁or der
▁Ch ai
▁har am
ló hùn
▁wet u
▁ክ ፍ
▁የም ን
fan y
▁كي ف
قي لا
▁ọk ụ
▁mam aki
▁op en
▁Oló dùmarè
▁ቃ ል
▁hom em
1 2
8 0
I I
I L
N igeria
z y
ك را
ه ل
ሃ ት
ር ያ
ሳ ስ
ና ገር
ገ ኙ
▁ ♪
▁ 😏😏
an go
▁k ure
▁d ade
▁s é
▁g sky
▁l ina
▁e se
▁p ia
es ha
▁j ah
ig erian
lo bal
mo t
▁con gr
▁أ و
▁wit hout
▁አን ዱ
▁vi lla
▁د ولة
che s
▁ny uma
▁hi yo
▁را ه
▁5 0
▁br ing
▁dú dú
▁ìt àn
▁mwi za
D P
l ar
t he
w s
ت ش
ም ና
ዚ ያ
▁ ዞ
▁ ✊
▁ 🤗
▁k iri
▁s ama
▁j ama
▁K U
▁I ki
▁م ج
▁و ش
▁z e
▁ma z
▁ku d
▁T s
▁al k
▁ከ ነ
ed ụ
ter day
gi ya
du li
▁الم غاربة
ين ي
▁lá àá
▁ọ̀ pọ̀
▁ad w
▁te le
▁za 'a
▁co isa
▁dai dai
▁she kara
▁af u
▁wọn .
ንግ ስት
AR S
▁فال م
▁gy ara
▁ig we
▁sab e
▁k' á
▁#e ka
▁yes terday
▁ከፍ ተኛ
6 7
a .
h en
ك َ
ሄ ድ
ባ ር
▁ Á
▁ 💪
▁n yan
▁n asi
▁a je
▁a round
▁t ẹ́
▁y ara
▁i gb
▁c al
al ah
um in
▁አ ታ
▁O kwa
▁ọ zọ
▁S ó
▁B ir
▁ب د
▁ل ب
▁ይ ገባ
gu ém
▁الم س
th ers
▁ብ ለህ
▁kí ni
▁ም ስ
▁ag wu
era ção
iro yin
▁الت ي
▁كل نا
▁swe ar
ወሓ ት
▁chang amoto
E E
p ere
q a
u bu
w ata
ል ኝ
ከ ር
ፖ ለቲካ
’ a
✌ ️
▁d ika
▁d uka
▁t ashi
▁s wi
▁w la
▁o gb
▁o dò
▁g ree
▁h ahaha
▁e d
▁e ku
ba g
▁r t
▁ya ,
▁አ ረ
ab wo
▁u che
▁ì wà
▁ነ ን
▁T r
▁gi di
▁ከ ሚ
▁ا ت
▁sh an
ent ar
▁lá à
▁le ad
áà fin
▁yìí .
id ent
▁ገ ና
▁الج زائر
▁እያ ለ
▁musul mi
▁#W ord
▁هههه ه
▁ض د
ende lea
▁mats alar
▁pri ce
▁ዩ ኒቨ
▁rema in
' in
- se
G E
e ver
r ar
s è
t un
w ero
í s
ض ية
ن د
ን ብ
ጠ ን
▁n z
▁d im
▁i che
▁e jo
ba dan
▁de de
ay é
he iro
uk wo
uk uri
gb ọ
gb ọ́
▁N g
▁K ara
▁in á
▁ma za
▁ì gbé
▁E gwu
▁T í
▁Allah ,
▁R i
▁ل ه
bi ba
▁ع اش
▁ẹ nì
▁ከ ዚህ
▁fi car
▁bu de
▁li ha
▁bo ko
▁han nun
▁po lice
▁Na jeriya
▁che lsea
ይወ ት
OV ID
▁ìbí lẹ̀
faran ga
b ara
c ome
d ọ́
j ù
t ẹ̀
v ug
ز و
ሬ ት
ና ገ
ኔ ታ
የ ር
ያ ስ
ጠ ራ
▁ ̊
▁ ዲ
▁ 😌
▁ uka
▁ 😀😀
☹ ️
▁n one
▁o la
▁l am
wa ye
um bu
▁N ai
▁z ab
▁በ ል
im ento
▁on line
▁B abu
▁ku j
▁ነ ፍ
▁v al
▁መ ጥ
"""""""" .
▁ch oro
▁ki d
▁ا ك
ub w
▁الع الم
▁Ya u
▁In nalillahi
▁every thing
fri end
▁As he
▁kad una
▁Je hovah
hamm ad
▁ǹ jẹ́
D I
T u
Y E
c as
y ì
y le
ò .
ù gbọ́n
أ س
ش ر
ለ ማ
ሉ ን
ል ፍ
ች ው
የ ው
ዶ ች
ፍ ት
ẹ n
▁ 😄
▁ رب
▁k en
▁t on
▁s ẹ́
▁o yin
▁y ada
▁g l
un si
en ga
al th
ai fa
▁à wa
▁م غرب
▁me et
▁ò pó
▁ẹ ní
▁ይ ቅር
نا ت
▁um wana
▁ብ ዬ
ار ج
▁F i
▁con se
▁kas an
▁wor d
▁Ka ji
▁ጠ ቅ
zz zz
▁lah ira
▁gbó lóhùn
tụ tụ
▁gbọ dọ̀
Ex po
b t
b ù
b ẹ́
d om
o we
p ool
t ara
w ù
y ah
z iki
ح و
ል ጽ
ሰ ን
ቱ ም
ና ንተ
ኤ ል
ግ ን
ጣ ል
▁ 😹😹
an ar
▁n in
▁n ós
▁k ún
▁c am
en as
ak on
▁na ji
▁A ma
▁ال ل
gb ẹ
ab ona
ou ble
▁à á
▁u we
▁ma fi
▁S ub
▁S aboda
▁W hat
▁qu ero
▁Y ana
ان ة
▁ẹ sẹ̀
▁ይ ሆን
▁so l
▁L ma
ار ب
دي و
▁أ م
▁On í
▁ል ብ
▁fun ny
▁ri ce
▁rẹ̀ .
▁ik ú
▁ዘ ንድ
▁🤔 🤔
▁sho ut
▁ነበር ።
▁ሆ ይ
▁wọ lé
▁gas ke
▁kall on
fur ushi
R O
W U
b ook
f ik
k ing
k uma
p f
s on
t hi
y ín
ق ى
ن مية
▁ 😉
👍 👍
▁n en
▁m wa
▁a í
▁b ri
ar ab
▁o re
▁g us
▁h on
▁l àá
▁f ut
▁c ut
▁c ust
▁c ook
▁p ah
▁ال ث
it sha
▁ni ?
▁j ee
▁በ ህ
▁u lo
▁in na
▁ì wọ́
▁ì mọ̀
ch in
▁T em
▁H A
▁di ffer
all am
▁lo ck
▁re la
àn à
▁ያ ሳ
▁P ara
▁الم ت
▁sa ba
gh ar
▁she kar
▁ደ ስ
▁الع رب
ation al
▁إ ن
▁If á
▁የነ በረ
▁kol chi
▁Tan zania
B U
N i
T o
d ị
e c
خ ب
ከ ው
▁ 🎵
🙏 🏽
▁n da
▁n cha
▁a ik
▁b ama
▁f ì
▁c ity
▁p ed
ur t
▁j us
▁የ ሀ
▁የ ኔ
uk ar
▁M alam
▁à ṣẹ
ha a
▁v ão
▁E ni
▁T han
ig an
▁ي د
▁ያ ው
ala ce
▁ts akanin
▁ban da
???? ??
▁gba a
▁lọ ,
▁ر ج
ችሁ ን
▁وا قيلا
▁ዘ መን
▁علا ش
fri can
ris to
▁الي وم
! '
6 0
G U
b ghi
c ti
i ṣẹ́
w ak
è dè
ሃ ል
ም ት
ቀ ጥ
ዳ ር
▁ ኖ
▁ 😹
▁n ana
▁m mo
▁a tu
▁d ariya
▁s oro
▁b oo
▁w ali
ar ,
▁o si
ال ب
▁r ò
ad as
ad áa
▁ya j
▁ya zo
▁የ ራ
ou ght
▁و ع
▁u do
▁to do
▁ma ghribi
▁E lé
▁gb uo
▁qu estion
▁as em
▁com m
▁ak po
▁mo ve
▁' yan
▁re ady
▁shi t
ala u
▁ن يش
▁የሚ ለው
له م
ín ú
war d
▁nke a
▁nan so
ish y
▁ac tu
▁ሁ ኔታ
▁ob ì
🙏🙏 🙏🙏
▁na- e
▁lẹ́ nu
▁war ri
ኛው ም
▁shu gaba
▁Are wa
ሞክራ ሲ
H I
P A
j am
n ah
p or
p ia
t é
y ana
ና ው
ፈ ን
▁ _
▁s wa
▁s et
▁b iri
▁i pinle
▁g aban
▁g eração
▁l y
▁l allai
▁e che
ba ,
▁r am
▁de ve
ur es
▁ال فا
▁da uka
▁N t
▁M al
▁I lé
▁B á
▁B om
▁se y
▁T un
▁ní bi
zi za
▁ت ن
▁ي ن
▁' አ
▁es i
ver pool
ها د
لي ل
▁ọmọ dé
▁س ب
▁. @user
▁ri ch
▁duk kan
▁bro ke
▁bụ rụ
▁😭😭 😭😭
▁gh ana
▁ዓ መት
▁هههه هه
▁ima gine
▁yà tọ̀
wasi li
▁dro p
▁ምክንያ ት
▁tim es
▁nun ca
▁نيش ان
R I
b um
l or
n er
y s
س يا
ص ا
ض ر
ق سي
ለ ጠ
ል ህ
ቡ ን
ዘ ብ
ዱ ስ
ገ ሪ
▁ ún
▶ ️
▁n at
▁n si
▁a ja
▁s it
▁o ji
▁i ve
▁c li
on te
▁የ ደ
▁N '
▁O gun
▁و خ
▁ì ran
▁ku pata
▁ku pitia
ta g
▁am o
▁ل له
▁W ato
▁ت و
▁U bu
▁fi h
sa pp
▁kan t
▁re c
▁F o
▁yìí ,
اب ة
اب ات
▁dá adáa
yàn jú
▁ap em
▁ገ ብ
يل ة
ደረ ገ
uu uu
▁ay 3
▁Kí ni
▁follow ers
▁lab ar
▁look ing
▁የት ግራይ
▁ray uwar
▁rem ember
▁العد الة
▁hust le
B Á
L e
f ò
f atan
h d
m á
p 3
s .
أ ن
ت ها
ط ر
ق را
ለ ጫ
ሙ ሉ
ስ ን
ጋ ት
▁d uni
▁w l
▁y et
▁h y
▁l 7
or ia
as y
▁c lub
▁p are
at ed
ah oro
▁r in
▁r asa
ik or
▁j ir
▁የ ብ
▁አ ሸ
▁N àìjíríà
▁K am
▁م ست
▁on ce
▁ku yi
ere d
ig e
go du
te le
▁ከ ማ
▁ያ ሉ
ati zo
▁ن ج
ku u
ín lẹ̀
▁ደ ም
▁fun fun
▁won der
▁by ose
▁tr end
▁tr abal
▁er é
▁nas an
▁kọ já
▁str ong
▁ሙ ሉ
ولي س
▁bla ck
▁yaka wo
4 7
g eni
r ess
s ,
è è
ع ية
و ض
ለ ይ
በ ብ
ጥ ታ
▁ 😩
😊 😊
▁n et
▁n onsense
▁s ùn
▁b ana
▁y u
▁i ro
ur ar
▁ọ g
▁K in
▁I N
▁z am
▁in to
▁ma ch
▁se con
▁go be
▁am or
ig ali
ari fa
▁al guém
▁so y
▁su yi
▁ك نت
▁ki i
▁1 3
▁ọ̀ run
▁te ach
mu o
😂😂😂😂 😂
▁#O jo
▁din heiro
▁ac ikin
▁🤣🤣 🤣🤣🤣🤣
▁gir ma
▁را ك
▁#R wanda
▁aj é
ny wood
▁ol orun
▁#Tweet InYoruba
▁አሁን ም
________ ________
▁ፖ ለቲካ
▁tso hon
▁Uban giji
ላከ ያ
▁Ig we
▁nit ori
1 1
3 i
D e
I V
g aban
س ية
ص د
ራ ሽ
ደ ብ
ṣ ò
▁ ጽ
an an
▁n ik
▁n zuzu
▁a wọn
▁a way
▁d ik
▁b ọ
▁w ash
▁g ọ
▁g ahunda
▁h uta
▁h ung
▁l em
▁e ti
▁e ee
▁የ ባ
▁አ ድ
▁O kwu
▁በ ሀ
la .
▁wan e
ri ed
▁ti po
▁C orona
▁ي كون
لا ح
▁com mot
▁ak ai
àn í
▁ا ش
ati ve
▁ṣe un
▁ብ ለው
▁ọ̀ hún
▁st at
▁እና ንተ
▁pr ime
▁ባ ይ
▁pi ck
▁gw am
aaaa aaaa
pr ess
▁du pe
▁ፍ ቅር
▁b3 n
In Angola
▁غا ض
gy imi
▁bra in
zza u
▁ተማሪ ዎች
▁#End S
▁akw ukwo
▁#Is ese
▁#Word Expo
S A
b ora
h ana
j we
ሻ ል
ጅ ት
▁ ሂ
▁ ሶ
▁m sa
▁a fa
▁k adan
un wa
as ho
▁p ens
▁ال ض
▁እ ረ
le ,
▁O hun
▁à kọ́
re ad
▁S ha
▁ì jà
▁be ing
do wn
▁ko da
▁Y e
ci l
yo bozi
▁wo te
ow er
▁الم ش
ent y
▁si yasa
▁2 2
▁أ خ
▁ẹ̀ mí
vi do
▁ra ina
▁mat ar
▁mut uwa
▁እንደ ሆነ
▁ج م
▁kú rò
▁nwan yị
▁#E sin
AN A
▁mma .
▁እስ ኪ
▁እንዴ ?
▁res pon
▁kub era
▁201 9
▁vo ice
▁gas kia
▁rep ly
mà rè
▁Ut utu
ይማኖ ት
▁#WordExpo InAngola
▁#Esin Oro
1 8
I gbo
d am
p an
v or
ላ ሉ
ላ ፊ
ማ ይ
በ ቃ
ብ ረት
ን ታ
አ ዴ
ጋ ል
ጠ ይ
▁ «
▁ era
us s
us an
▁t wi
▁b yo
▁y aya
▁g are
▁h ay
▁h ata
▁l im
▁f á
▁c utar
▁p rin
en ti
▁# iroyin
ik ana
um ba
▁ya ga
▁የ ለው
is ta
▁me ye
we e
▁u bochi
▁ì l
▁E l
▁ab uro
▁am i
▁am aka
▁ل ن
▁ي ست
▁ak pa
▁of fice
▁' እ
▁ወ ዳ
▁he a
▁ra ge
hhhh h
▁ooo oo
▁mus ic
▁ድ ም
no t
▁ụ bọchị
▁every body
▁abin ci
▁umun si
▁بلا د
▁yas in
▁káà árọ̀
▁cust om
▁yaj ikan
9 0
c ce
g à
m er
y ẹ́
y ama
ç ar
ɛ m
ث ل
ج ت
د ين
س ر
ل ت
م ات
አ ት
ጠ ል
ṣ í
▁ 😆
▁ ناس
🏃 ‍♂️
😒 😒
🙌 🏾
▁n ass
▁m umu
▁a unty
▁k im
▁k pa
▁t ro
▁t amu
▁s ign
▁l b
or ship
on at
▁A w
ba .
ba ye
▁r ed
▁የ ለ
is u
is sa
▁O L
▁O d
▁ba 'a
▁በ ወ
▁u d
▁ka in
▁on de
▁be e
▁is kan
▁ت كون
ge ze
▁um ut
▁sh are
pp ing
▁le arn
▁2 5
▁kam an
▁mas o
▁الب رلم
▁الا ست
oooo o
din in
▁cy '
🇳🇬 🇳🇬
▁Ẹ̀ yin
🤔🤔 🤔
▁ጀ ግና
▁sc am
pọ lọ
thi op
A t
d ín
g ur
h um
l ina
l àá
y er
ط ل
غ ل
ላ ል።
መ ረ
መ ራ
ረ ኛ
ገ ኛ
▁ ►
▁ 😘
▁ ኦሮሞ
🇷 🇼
▁n tu
▁t um
▁w am
▁w aya
▁o pp
▁o su
▁y all
▁y etu
▁g om
▁h àn
ال ح
▁na b
▁ya wan
it os
▁da ban
tt ing
▁N I
▁K andi
ia .
▁በ ግ
▁ka u
▁on es
ri gado
▁ل كن
▁th r
▁እን ድ
na p
▁ha uka
ent es
ùn rin
▁ه د
▁ት ር
▁ት ምህርት
▁fo to
▁الع ام
▁🙏 🏾
▁#yoruba ,
isi e
▁who le
▁sar kin
yẹ n
▁yẹ n
▁musul mai
▁fal ar
▁hmm m
▁ẹran ko
▁Maputo ,
▁láàá rín
- ì
2 7
3 t
O n
a u
e ,
g ì
n s
ህ ር
ላ ችን
ር ሲ
ክ ስ
የ ን
▁m os
▁d ikwa
▁t v
▁s imu
▁b asa
▁w ame
▁y ari
▁y aran
▁e yes
at un
ال له
▁A N
▁de st
ur ú
▁ni e
▁N P
▁N ta
▁me t
▁በ ቃ
re ci
▁ì f
▁ì kàn
ch ukwu
▁ṣ ì
▁ò rìṣà
▁ẹ gbẹ́
▁እን ግ
▁al '
▁so cial
▁ak h
▁ga jo
lo w
▁ያ ህል
▁ወ ሬ
ير ي
▁ማ ህ
▁con cer
▁ag wa
ome za
▁po l
▁nk '
gbu o
▁jo b
▁ro om
▁ake yi
▁ter ra
▁aj á
▁تح ية
▁whi le
▁كان ت
▁obu la
▁oj umo
ẹ̀ẹ́ sì
▁Alh am
▁ትን ሽ
▁Sub han
▁#iroyin ,
onat han
- an
1 7
3 d
U U
b all
b ìnrin
f s
غ ير
ን ደር
ያ ው
ጠ ና
▁ ሱ
▁ ቴ
▁ 🇲🇿
▁n m
▁k ẹ
▁s la
▁s uma
▁w ab
▁y aki
▁i gbó
▁i joba
▁l ink
▁e to
uk in
▁አ ጋ
▁an no
▁O lo
▁à gbẹ̀
▁በ ም
▁በ ው
▁in u
▁wan ke
▁go diya
▁am man
▁ب رك
▁ne ,
▁ع ا
▁Y OR
ان ون
▁G ood
ci on
▁ي ش
▁mo t
▁kan sa
▁es pe
▁L allai
▁ተ ራ
▁sh ort
▁sa ve
▁li h
▁ọ̀ kan
▁ọ̀ rẹ́
▁ho ld
▁أ نا
▁tal la
▁ል ጆች
▁An ambra
▁ባ ል
▁“ @user:
▁È yí
▁ካ ለ
▁ay ọ̀
▁every where
▁المغرب ية
▁er r
▁የሚያ ስ
سب انيا
▁ọk ùnrin
▁ያለው ን
▁você s
▁blo ck
▁kab isa
▁proble ma
▁adị ghị
cel ona
mìn ira
duli llah
- o
3 r
9 t
B S
C h
S I
l ate
r ọ́
s ù
ç as
ح ر
ል ክ
ረ ድ
ር ቶ
ሳ ችሁ
ታ ይ
ከ ት
ዲ ህ
ጠ ፋ
▁ 😃
▁ 🙂
▁m and
▁t ub
▁b ala
▁o zu
▁h ukun
▁l ose
▁f adi
▁c alm
▁p ast
en o
▁A c
um ọ̀
▁no body
▁me hn
re ja
▁se ttle
▁T A
ig hi
▁ب سب
se l
▁ت ت
▁3 ar
▁su ffer
▁ك اش
▁ا س
▁الم ع
▁sí nú
▁ad ú
▁st ory
▁con he
▁ق د
▁bab an
mm m
▁An nabi
▁nk em
▁ድ ረስ
▁q ar
nu gu
▁had chi
▁È mi
▁#i gbo
dù màrè
▁bur ú
▁ና ት
▁kwan u
▁ɛ yɛ
با ح
▁musul unci
▁Rah ma
رح م
▁shar p
▁tir ed
▁kuto ka
▁pict ure
' o
- 19
2 00
7 a
D U
F M
b ọ́
g le
t ẹ́
ح ق
ق ب
ه دي
و ة
و ى
و ية
ሞ ት
ተ ት
ኑ ን
ዋ ር
ọ mọ
▁ )
▁ uto
▁ .....
▁d ari
ar ia
▁o de
▁o do
▁l ọ́nà
▁e g
as ia
am man
▁p aaa
en di
ak uwa
▁A de
ir we
▁የ ገ
▁የ ኦሮሞ
▁አ ክ
os h
ou l
▁م خ
▁م لك
▁و لي
ti l
we ,
we zi
▁z abe
▁wa 7
▁B ro
za f
▁Y ar
▁Y ayi
▁fi ha
▁com ing
ko un
ter s
▁ك يران
▁es p
▁la w
▁un ited
ash aka
▁yi e
▁ji ya
▁#O r
▁kat s
kò ó
▁ها ذ
▁ኢትዮጵያ ን
▁lẹ́ hìn
▁Es sa
▁هههه هههه
▁eni yan
▁new s
yá jọ́
▁Ol orun
▁tabb atar
▁ዜ ና
▁maf ita
▁oyi bo
▁villa ge
J I
S u
p tion
é èrè
ህ ና
ወ ዳ
ጤ ና
🇦 🇹
🇩 🇿
👌 👌
▁n ga
▁a fe
▁k ira
▁d ate
▁t am
▁o ?
▁f em
en in
▁r ak
ur ik
▁da a
ya u
ab in
ye ,
▁O ro
▁à là
▁K á
▁I le
▁I me
▁me dia
▁በ ኢትዮጵያ
▁in f
▁mu b
▁E x
ta gram
▁am u
▁ت ي
▁al m
▁U nu
▁ا ع
▁الم وا
▁ወ ር
▁shi ru
▁è rò
▁st and
▁أ ك
▁س يا
ran de
▁ما كاش
▁pr oud
▁náà ,
▁rẹ̀ ,
▁🤣🤣 🤣🤣🤣
▁yak ai
▁orí lẹ̀
▁علي ها
ለሁ ።
▁ኢ ዜማ
▁wom en
▁pres ident
▁ጨ ዋ
▁#Y orùbá
▁gwamn atin
▁በሰ ላም
▁ilai hi
▁ጦር ነት
▁smi le
▁ይሆ ናል
▁thr ough
- ún
1 6
K E
L o
c ation
g ẹ̀
l er
p id
ج ة
ح ب
ر م
ለ ኛ
ሰ ጥ
ቢ ይ
ብ ይ
ኩ ት
ዎ ን
ጉ ት
ግ ሬ
▁ ፎ
▁ ፤
▁ ‘
▁m ã
▁m bi
▁m pa
▁b hal
▁i wo
▁i te
▁i cy
▁g ye
▁l 9
▁f arin
▁e yi
▁e tí
at h
al á
al ci
▁r é
▁ال ان
▁j esus
▁አ ሰ
▁M ma
oo dua
▁I se
im ba
▁u wan
▁ka f
▁in di
▁ma ce
▁ku p
ho t
ra ẹni
▁D es
▁ne ?
do ,
▁H ahaha
▁do do
to .
▁3 and
▁my self
▁ṣe .
gi ze
▁sa uki
pe l
▁ن س
▁kar fin
▁ib eribe
▁san da
ور و
▁pi or
▁ዘ ር
▁إ لى
▁ser á
▁kay n
▁str ess
wer ri
jẹ̀ bú
▁ham we
▁olú wa
▁tit un
atur day
▁ank asa
thiop ia
2 5
H a
m ù
s ó
t ú
w ari
z igo
ت ني
ر ش
ص ة
ظ ر
ف ق
መ ና
ሱ ም
ቷ ል
ጠ ረ
’ m
▁ ፌ
▁ 💯
an ci
▁a .
▁a aa
▁d án
▁i ga
▁i ru
▁f us
am bu
▁p in
wa a
wa hi
▁A frica
ba h
▁r ir
▁de f
▁de li
ad ai
▁አ ጥ
em be
▁in dai
▁B r
▁ì gb
▁ì fẹ́
▁mu dai
qu er
▁be lie
▁C ong
▁H ari
▁ha pa
▁com pr
▁re lation
▁L A
▁um ur
▁sh in
du wa
▁ወ ቅ
si ya
▁ن ب
▁ح زب
.... ...
▁kar o
▁con ta
▁co vid
▁har da
▁dis se
▁الع م
▁pl an
▁mas ha
▁fe liz
▁ክ ብር
▁Da alụ
▁“ ال
▁Ka wai
▁ገ ን
kò rò
ንድ ር
▁Ab un
▁kin yi
▁oló rí
▁ቅ ዱስ
▁lai fin
▁loka ci
▁rán tí
òó tọ́
▁àgbá yé
▁جدي دة
▁msa ada
ርሲ ቲ
2 4
4 9
A b
K I
O jo
P L
d on
d ir
f fic
j um
y ir
y ou
y ata
ب ية
ሜ ሪካ
ን ደ
ወ ር
ዋ ን
ገ ነ
ṣ u
▁ ú
▁ ዐ
▁ 😕
▁ ere
er an
▁n on
▁g ha
▁g ún
▁g ost
▁e ii
▁c amp
▁p an
ak w
▁A li
he m
▁አ ቀ
▁da e
▁M ay
▁O m
▁O o
▁ọ jọ
▁I di
▁ba ada
▁to ld
ka ,
▁ነ ዋ
qu anto
▁መ ብ
▁ne .
do .
▁C omo
▁ت س
▁G I
▁ለ ህ
▁ለ ም
▁ch air
▁mi l
▁ወ ጣ
▁kw ir
▁un der
▁or un
▁ndi o
▁ግ ለ
▁ግ ዜ
▁ش كرا
▁sun e
▁sun yi
▁ት ክ
▁fr esh
▁الله م
▁muna f
▁out ro
ደረ ግ
▁Yorùbá .
▁far u
▁gy im
▁sab er
▁nor mal
▁#M o
usi c
iran go
▁#o we
▁ሕ ዝብ
▁tuna omba
جل س
tern al
▁esta va
ond on
▁Sar ki
▁pú pọ̀
▁kiy aye
ingu ém
▁differ ent
7 0
7 al
T h
a way
b ir
b and
e bi
f 9
f ashe
p as
t ún
t àn
Ã O
Ù BÁ
ب اب
ح ن
ز يد
ሆ ና
ለ መ
ል ና
ባ ይ
ቹ ን
ን ስ
ጠ ቅ
▁ ጅ
▁ 👏👏
🤭 🤭
▁k ah
▁d er
▁d ana
▁t atizo
▁w ish
▁o so
▁y n
▁i de
▁i run
▁l ug
▁f ẹ
▁f ọ́
ak h
▁r ó
▁r ìn
ur ch
▁ال سي
▁የ ፈ
gb ọn
▁N em
▁N ig
▁M essi
▁O ge
▁à fi
▁to da
▁ነ ጋ
▁ነ በረ
▁E go
▁Allah u
▁ل ع
wan e
▁H ak
▁ak p
▁kan kan
نا ء
▁say ing
▁2 1
▁ማ ለ
▁ح س
ነት ን
ون ي
vi e
▁ah ubwo
▁An ya
▁خ ير
▁din nan
▁zai yi
▁wor ry
▁gir man
▁ጋ ዜ
🙄🙄 🙄
▁4 0
▁m3 ak
▁nas ara
▁yɛ n
علا بالي
من ى
▁ita ce
▁201 2
▁nam or
sin mi
ኦሮ ሚያ
▁lea gue
▁hot on
▁wad ai
tim es
▁ìyà wó
rist mas
▁መሆኑ ን
▁alh eri
ልጽ ግና
' re
2 8
B N
C A
L a
O W
b ut
h ind
k we
m ana
t ọ
w l
y án
é gún
و ش
ሊ ስ
ላ ላ
ሪ ዎች
ሳ ቸው
ብ ህ
ን ቅ
ክ ንድር
ወ ሰ
ፋ ር
Ẹ ́
▁ 👀
▁m ati
▁k he
▁d ah
▁d ur
▁d om
▁t hi
▁w urin
▁l py
▁e hh
at ing
al ẹ̀
▁j ú
▁j iri
▁da alu
▁O ba
▁ọ bụ
▁à sìkò
▁z in
▁u gbu
▁di as
▁ت م
▁G an
▁ከ ባ
▁U ma
▁ለ ተ
▁kan ,
▁ch ọrọ
ver y
را ك
▁us ed
▁ad dinin
▁ts in
▁ش عب
▁yi o
▁po der
▁ok ay
▁الح ق
▁pl z
▁wat an
▁Da ga
▁#E de
▁jo ke
id ade
▁out ros
▁way o
▁را ئ
▁per der
sí raẹni
▁#G lobal
▁#P r
وو وو
▁Is so
▁وز ير
▁wr ong
wor k
ጠበ ቅ
▁govern ment
▁Ass im
▁ìkàn síraẹni
. """"""""
N o
b ɛ
d en
g s
g es
l and
l ori
m ir
m ed
t le
w uru
ب د
ع ات
و ه
ሰ ር
ቂ ያ
ብ ኝ
ዋ ት
▁ ẹ́
▁a za
▁t es
▁s ún
▁i ra
▁h ate
un day
▁c ase
ur re
hi ri
ik ali
it se
▁j ọ̀
▁j ami
▁j iran
▁N ew
▁እ ባ
▁M ara
▁O di
▁I gi
▁م ك
▁z ina
▁በ ጎ
▁u fite
▁B ẹ́ẹ̀
▁ku fanya
▁ل ت
▁G as
▁U na
▁wo we
▁sa fe
▁en ough
▁lá ṣẹ
▁J a
lẹ̀ .
▁ad du
▁kar emu
▁kar she
vi l
▁ts aya
▁ه نا
▁ደ ጋ
▁af ọ
▁fit a
በት ን
▁ሁ ሌ
▁wah d
ደር ግ
amo ja
▁ja g
▁está s
▁አል ተ
▁pes in
ርት ራ
▁ፈ ጣሪ
▁comp le
▁sou p
▁Yan zu
▁et c
▁ች ግ
💯💯 💯💯
▁friend s
▁نح ن
▁DE US
▁vez es
▁àkọ́ kọ́
🇦🇹 🇦🇹
▁relation ship
S S
S T
Z O
c iro
e .
k enan
n ụ
p àá
s ar
u li
w ì
w ake
y at
ɔ n
ل عب
و ز
ማ ማ
ረ ጥ
ት ና
ከ ፍ
ụ s
▁ 👇
▁ 😡😡
🇬 🇭
▁m '
▁m ani
▁a gbo
▁t abi
▁b gh
▁y ai
▁i ye
▁g ute
▁h aha
▁l f
▁f ur
am ana
▁c yo
▁c ire
▁p on
▁p en
▁p ub
ak ka
▁A ban
▁ال دا
ad hi
ik uwa
is on
is kat
▁N one
▁O N
▁O gb
em ent
▁me at
▁በ ረ
▁በ ሙሉ
im bo
re b
▁ma p
▁ì bà
▁se x
▁ku l
▁mu gu
▁D r
aa aaa
▁ò kun
▁qu i
▁ت ست
▁al so
▁ي م
▁ha pu
fi ca
▁wo w
gi za
▁الم ن
▁sa fi
▁sa uka
▁ar t
ري ب
▁ه دا
▁ት ልቅ
▁she ge
▁nd ani
▁د ا
▁can not
▁ድ ል
▁nig ga
▁mak ing
▁bl ood
▁fẹ́ ràn
▁ama faranga
▁fin al
▁fin ally
▁ut utu
▁mw aka
مي ع
▁ɛ n
▁did nt
اري خ
▁bik onu
▁Hmm m
▁Ojú mọ́
▁Olú wa
▁child ren
▁umug ore
▁Fe liz
▁አህ መድ
▁mulh er
▁ped ir
E J
O L
S e
f ai
k r
k pa
k uru
l ụ
ደ ቱ
ገ ረ
ፈ ራ
ṣ o
▁ 😳
▁ ኢትዮ
▁n gu
▁n uko
▁m .
▁d ó
▁t b
▁s y
▁s ọ̀rọ̀
▁b are
▁b isa
▁p ai
▁p ou
al li
▁A bi
▁ni me
▁የ ል
▁M U
▁M at
▁K un
▁I bu
▁z etu
▁በ ስ
▁B à
▁B an
▁ì rò
ri c
▁gb è
▁ṣ ọ́
▁ò wú
▁ń '
▁ta fadhali
▁ẹ bí
▁ي قول
ge za
ها ر
▁yo ung
▁le ft
▁ọ̀ sẹ̀
▁ح ق
▁gu da
ما م
▁kú kú
▁pl enty
▁Ni ba
▁pro du
▁ر ح
▁wor ds
▁ub w
▁her h
▁nw ata
▁ìy ẹn
ww w
▁ስለ ሆነ
▁???? ????
▁ca usa
ny ɛ
▁cor re
▁Wa ziri
▁mutum in
▁pà tà
pẹ ẹrẹ
▁kak ra
▁dire ctor
▁ogo logo
▁#EndS ARS
▁YOR ÙBÁ
▁Cong r
. A
1 4
P o
T witter
c ent
g í
i ve
k ai
m os
y wa
z ing
ؤ ول
ق ع
م ال
ላ ለ
▁ ሄ
▁ ጫ
▁ ure
▁m ọ́n
▁m aha
▁a hia
▁k ita
▁s ite
ar .
▁o zi
▁y arin
▁g on
▁h un
▁l an
▁l anguage
un an
am ma
▁c ru
▁c abe
▁p ower
▁A M
▁A sa
▁j ira
▁የ ፖለቲካ
▁N on
▁ọ lá
▁I ya
re en
di e
▁v í
▁E be
▁ab ẹ́
ri day
de ,
▁መ ለ
▁R u
▁R ais
go di
▁ò ò
▁ف أ
te i
▁ta arifa
▁al ẹ́
▁ي س
▁ለ ሚ
▁3 y3
▁ga ji
▁ك ن
▁es co
gu du
▁الم ح
▁bi la
ub wa
▁ማ ድረግ
▁ሰ ይ
▁ts ar
▁وال و
▁د ر
▁pr ó
▁Z an
ong era
▁ob ere
▁mes si
▁mes sage
▁ser vice
▁what sapp
▁per gun
ለን ።
▁bur st
▁ọk àn
lò ó
▁#L agos
▁dà gbà
▁shir ya
▁shir ye
▁አካ ባቢ
▁tamba ya
▁ìb éèrè
▁rá rá
▁ወን ጀ
▁በዓ ል
▁ጠቅ ላይ
wasili ana
! ?
' an
B E
D i
H U
M U
T U
U E
Y É
b es
g ir
i f
m ó
t in
y umva
د ار
ع لي
ف هم
ه '
ላ ቅ
ቀ ል
ባ ለው
ና ል።
ከ ብ
ጡ ት
” :
▁ ቋ
▁ ንግ
er u
▁n je
▁n su
▁a pa
▁k raa
▁w ú
▁y ayan
▁g é
▁g ay
▁e asy
▁p s
at es
▁A p
▁A ikin
ay n
▁ال رج
ad aa
▁M b
▁M ul
da ,
▁ọ rụ
▁I r
▁م نا
▁و ص
ti ce
▁u h
▁ka aro
▁wa je
▁S in
ch ar
la in
ka .
▁E h
▁T en
▁ab uo
▁am ig
▁am akuru
▁ب ت
▁ṣ ẹ́
▁C an
▁ይ ዞ
lo ad
▁kan .
▁kan su
▁re g
▁sa ce
▁pe la
▁li ya
▁2 3
▁ẹ̀ sìn
▁or uko
▁mat an
▁ግ ብ
▁dan ce
▁yi wa
ish wa
uko bwa
cha a
▁ac onte
ام ي
▁dá a
▁ny ere
▁men os
▁Al áàfin
▁sho p
▁علي كم
▁3la ch
▁na- a
▁mb ere
▁tab le
▁ይሄ ን
▁mur na
▁gr and
▁202 2
▁ekw ensu
ካከ ል
▁መቼ ም
▁ẹnì kan
igan iro
▁gọ zie
▁hea ven
▁belie ve
1 3
C H
F C
Y I
a in
e b
j umo
p uru
y aka
غ ا
ረ ብ
ቸ ዉ
ክ ህ
ወ ድ
ደ ግ
ṣ un
ẹ mọ
▁ ري
🤷 ‍♂️
us o
▁m wan
▁m bo
▁k d
▁k r
▁k is
▁d ani
▁t ara
▁s ị
▁b z
▁g ara
▁l aa
▁l ate
▁f í
▁c ash
at or
▁r ara
ll ing
es sed
▁an ce
▁M kuu
▁à jà
▁à ná
▁و ما
▁me do
▁in de
▁in sh
▁S ir
▁ì ṣe
ke jì
▁E d
▁gb ara
▁ò gún
▁ta zo
▁ẹ ja
▁ت ق
▁don 't
▁ga 3
▁kan nywood
fi e
▁' በ
▁ك امل
▁P re
▁Ọ dún
▁الم خ
▁sa e
▁ብ ለ
▁1 6
▁J esu
▁ም ና
▁ن فس
lẹ̀ ,
▁ት ግራይ
▁mun yi
▁#O gun
▁any how
▁خ ط
▁ባ ን
▁ر اني
▁7 na
▁9 al
▁some body
بي ب
▁Ko wa
▁ig reja
▁ወይ ስ
▁እው ነ
▁ent ão
▁lu ck
▁If ẹ̀
tern et
▁አም ላክ
ግባ ር
▁ራ ስ
▁ስል ጣን
▁#t weet
mun ity
▁list en
▁kasu wa
▁bghi t
▁fut ure
▁secon d
K O
O C
P E
b iri
b ish
c to
f á
f ọ̀
h ats
m t
n g
t al
ئ ة
د ية
ز ال
ي ح
ህ ሳስ
ለ ጋ
ሎ ት
ም ነት
ቤ ተ
ገ ሬ
ጋ ይ
ṣ i
ṣ á
’ s
▁m gbu
▁a jo
▁@user '
▁@user ...
▁t we
▁s me
▁b ook
▁b ịa
▁w ala
▁i c
▁g í
▁h ia
▁h ora
▁h adu
▁l oo
▁l ady
▁f oot
or th
▁c re
on day
▁p hoto
al ia
▁A dé
ll s
it wa
▁M t
ga wa
▁S adau
▁B Í
ch u
▁ku la
▁mu ,
▁mu .
▁E nugu
▁T al
ta ba
▁መ ረጃ
▁ለ ኢትዮጵያ
▁ha wa
▁ak uko
àn gó
▁im port
▁sh uwa
▁sa wa
▁J ust
▁pa ís
▁za una
▁ana ghi
▁sun day
▁aka zi
▁ው ድ
▁pr om
▁#A tele
▁jo y
▁مع ا
▁🤔 🤔🤔
AR I
▁ለማ ን
▁nas o
▁du bu
▁give away
▁ca p
ny 3
▁Ẹ̀ gbá
▁ol ù
في ق
▁lai fi
HA HA
▁እነ ዚህ
▁dara ja
▁sum ayya
▁wadan nan
▁zuci ya
jir ia
▁ስብ ሰባ
▁ውይ ይት
▁alk airi
▁pàtà kì
▁#Atele wo
C E
C om
O D
W a
Y e
f ana
j ana
t ing
t est
w k
y un
Ú N
ê s
ب عد
ش اء
ض اء
ሁ ሉም
ቁ ር
ተ ህ
ው ና
ገ ዛ
ጠ የ
ፉ ት
▁ ♥
▁ 😢😢
✔ ️
🏻 ‍♂️
🏾 ‍♀️
▁n asu
▁n har
▁n jye
▁a gh
▁k m
▁t est
▁t alau
in ye
▁b t
▁y aro
▁g rande
▁l ia
un ar
or ld
as ter
am vu
▁c ame
▁p ada
at ter
ak ing
▁r wa
ai ght
ur n
ur wa
ur ade
ad una
um v
▁j uru
▁የ ኛ
▁አ ዳ
▁K w
▁K igali
▁م كان
we d
▁ka fa
▁in c
▁wa gyimi
ch an
▁E nt
▁be d
▁ب ش
▁gb ì
bi ya
▁ṣ ùgbọ́n
▁di er
▁G ba
▁ከ ወ
▁so fr
▁ለ ው
▁ተ ቋ
▁sh ame
▁ح نا
▁ግ ራ
▁س قسي
▁han yar
▁ደ ረጃ
▁የተ ሰ
iti es
▁ሲ ሆን
▁ri e
▁nwan nem
▁7 ta
▁😭😭 😭😭😭😭
▁علي هم
▁every one
▁ፍ ትህ
▁far ko
▁mad am
▁الو ز
▁baz an
▁ori le
▁wak ati
▁cl ose
▁jam aa
▁وعلا ش
▁pos so
ris ti
ont ade
▁بي ك
▁stu pid
▁Ub wo
-- --
▁3li ha
▁tẹ̀ lé
ርስቲ ያን
▁pict ures
▁celebr ate
▁መግ ለጫ
▁ans wer
9 9
B e
C on
F or
J A
J E
b uka
h aye
i ld
n k
n yi
u la
ب ط
ض ع
ف ع
ك يل
ባ ረ
ቶ ችን
ቻ ል
ነ ፍ
ዛ ት
▁ ዉ
🤗 🤗
🤪 🤪
▁n ar
▁n che
▁n ziza
▁a ci
▁k pọ
▁t ani
▁s aaa
ar wa
▁h oma
▁l alace
▁f ọ
▁e p
am s
▁A ho
▁# V
▁ال ه
▁j ikin
▁አ ቅ
▁እ ዚህ
le wa
▁O tu
▁ọ rọ̀
▁I yi
▁و ين
ia a
▁በ ራ
▁በ ብ
▁wa we
▁ma g
▁ì bá
▁D ar
▁ب م
li ca
▁ف ت
▁ف قط
▁H aka
▁ẹ ṣin
▁ي ج
▁su gbon
lu já
▁ki yi
▁ا ص
▁ا غ
▁ṣe ,
▁sa ura
▁si o
▁ad alci
▁kar bi
ash ara
ome je
▁ش خص
▁ج ي
▁pro f
▁x i
▁Ò kè
▁dá kun
▁lọ́ dún
▁fe z
▁لي س
▁mais ha
▁tun anin
▁abu bu
▁gbà gbé
▁èè bó
▁መንግ ሥት
▁hhhhh hhhhhhhh
▁sc ore
▁ìt umọ̀
▁bin di
▁let s
▁nko aa
▁ben in
▁mom kin
▁ቁ ጥር
▁hum an
alle d
▁afri ca
▁concer n
lujá ra
1 5
F A
M B
M O
P O
c ri
g ú
q e
t em
w un
ر ى
ن ية
ن سا
ي ف
ሉ ።
ም ፣
ራ ቸው
ቡ ር
ን ፈ
ከ ለ
ወ ራ
ጀ ት
ፖ ርት
▁ ዱ
▁ 😥
🏽 ‍♀️
▁m it
▁m akan
▁k aka
▁d are
▁t ọ̀
▁s n
▁s ta
in y
▁g reat
▁l ine
▁l mo
▁l ater
▁f c
▁f re
▁e ke
▁p un
▁na f
ah e
▁r ya
▁r ig
▁r ero
ai la
ll ar
ik ora
▁ya je
▁da z
ya ,
▁an im
▁N de
▁M r
le .
▁O g
▁O rúkọ
▁à tà
▁K amar
▁I yo
▁z it
▁በ ፍ
im p
im ana
▁in ama
re .
▁to wn
▁ma ana
▁v em
▁E mi
▁E yin
▁be gin
▁gb ẹ́
go ,
▁ò mìnira
te ja
▁ع م
▁bu d
are ba
▁À ṣẹ
▁Ì bàdàn
su e
▁አን ዳ
▁nd etse
ado ,
▁د را
ish in
▁pr ess
▁fr ont
▁ሲ ል
▁ሁ ለት
fo llow
ort un
▁nig erian
ስት ር
▁nt abwo
▁Ọ̀ rọ̀
▁ዘ መ
▁some times
▁ir m
dú rà
▁str aight
▁whi te
▁ቆ ይ
▁ime la
▁pà dé
▁eb ere
هو ي
▁part y
▁هذ ي
ማር ኛ
▁wadan da
▁rain in
▁cham pi
▁الذ ي
▁خو يا
esti val
▁ty pe
▁cle an
▁#eka aro
▁conse gu
ghar ba
▁actu ally
- me
4 2
D D
H o
I s
T V
Y a
c us
c ci
d aya
f m
h ttp
j ia
p h
r ug
t ra
z uri
ط ية
ط ار
ሀ ል
ላ ቻ
ሙ ት
ቃ ል
ኖ ሩ
ዳ ደር
▁ ጃ
🇧 🇷
▁n ama
▁n ashi
▁m ishi
▁a wu
▁a gbe
▁a uren
▁k aya
▁d j
▁d ada
▁d ore
▁d andan
▁t uk
ar ch
▁o we
▁o gún
▁y unwa
▁h or
▁h es
▁f ik
▁e f
▁p m
▁p ẹ
▁A se
▁de ci
▁N go
os pit
▁ọ dẹ
▁à bá
ẹ́ ni
▁ba ce
▁م رح
▁me us
we ka
▁በ ጥ
▁ku wasiliana
▁T rans
▁am ar
▁G BO
▁al one
▁ይ ዘ
▁ይ ላል
▁ይ ልቅ
▁U k
▁U s
▁U wa
▁ي دير
▁ha jiya
▁3 a
▁mo ja
ko to
ow ó
▁الم ج
▁en glish
▁ወ ረዳ
▁ብ ላ
si ca
▁من يب
▁bo a
▁س ن
▁wá .
▁An d
▁any body
▁#A ngola
▁ጥ ር
▁men sa
▁ታ ህሳስ
دا ء
▁?? ?
▁ru fe
▁ቢ ያ
▁አል ነ
▁zan ga
▁ሚ ሊ
▁አይደ ል
▁Me u
▁kasar mu
▁tak ai
201 2
▁cont ra
▁😅 😅😅
GB Á
▁ዓ ይ
yà wó
fer ence
▁የሰ ው
ፈል ግ
▁week end
▁ዋ ጋ
kọ̀ ọ́
▁Le o
▁fat her
▁Ụ mụ
▁suk ayi
▁continu e
▁nch ini
▁hus band
ches ter
▁ዞ ን
▁zab en
▁chair man
▁GBO GBO
, a
A l
S t
e zi
f ra
g é
j ini
k ẹ̀
m ín
t f
t è
v ia
z on
ز م
س ك
ص يل
ض ة
ط ا
ع رف
ف ل
ም !
ገ ለ
ገ ሩ
▁ ሺ
er em
an ça
▁m em
▁t ant
▁s ọ́
▁b ú
▁o chi
▁o lh
▁h h
▁h uu
or in
am es
▁c ora
▁p et
en ze
ak ai
▁r ana
▁r adio
ur se
es urre
▁የ ድ
▁የ ግ
▁አ ማ
gb ìn
gb ọ̀n
os hi
▁K ut
▁on top
▁se gu
▁mu gun
▁E bu
▁am igo
▁መ ብት
▁ل ان
▁ò míràn
▁ف ا
▁W ata
▁ta '
▁ي وم
▁im i
du duwa
▁en yi
▁ብ ለን
▁1 7
▁ọ̀ yọ́
▁ar re
▁mm anu
▁እንደ ተ
▁ج دا
▁are a
▁kas ata
▁🙏 🏻
▁🙏 🏽
▁pl us
▁#A sa
▁mar ried
▁لل ح
ደር ጋ
▁የመ ጀመሪያ
▁what s
▁nw unye
▁Ab in
▁عن دو
▁ጉ ድ
▁الف ر
▁sab on
▁res pe
▁እኔ ም
▁lé dè
▁dak chi
▁cl ass
▁Ní torí
kì tì
▁nì yẹn
▁ዶ /ር
fah am
▁month s
▁አደ ጋ
▁Ho je
▁aque le
vir us
▁Min ha
▁dad dy
▁Mur akoze
▁لـ ”
ርያ ም
▁lock down
▁aik ata
làá fíà
▁ጨዋ ታ
5 6
A pp
D a
N G
W AN
b n
b ùn
b ona
d àá
f ọ̀n
g ati
h t
h aka
r er
r ab
s k
t ẹ
u e
v y
w d
w ɛ
z ira
ላ ዊ
ሙ ን
ረ ግ
ቅ ድ
ቸ ዋል
ድ ሞ
ጲ ያ
Ọ N
▁ ኩ
▁ ጓ
▁ 👑
▁ 🔥🔥🔥
er n
er wa
▁n la
▁n aki
▁n inguém
▁d inga
▁t ens
▁s li
▁s pa
▁w aki
▁o wu
▁l on
▁l ost
▁e les
as sa
▁c ara
▁c ena
▁c up
▁p ọ́n
▁na d
▁A go
▁A PC
es ta
▁j are
▁da b
▁an g
▁N am
▁M á
▁M gbe
▁O bodo
▁ọ bẹ̀
ing ine
▁à yájọ́
▁K '
▁በ ዘ
et s
▁mu hi
▁ní bẹ̀
ho va
▁we we
▁am sa
▁for ma
▁ف اس
▁ع ام
▁ẹ gbẹ̀
▁G sky
▁al g
ci p
▁fi e
ge ko
▁ch urch
▁sh oot
▁en ti
▁shi ry
▁shi yasa
ali dade
ck s
▁yo òbá
ul ani
iri za
▁2 7
دي د
▁أ ح
yan go
ome ze
▁oh ùn
▁àti jọ́
▁wi ase
???? ?
▁han o
▁ደ ስታ
وا ج
ló dé
▁ህ ግ
han ga
▁ክ ፉ
▁nu fin
▁tem i
▁pi e
din ary
▁bl ad
▁talk ing
ርስ ቶ
▁tweet s
▁cont ro
▁wak ha
▁sen ti
😂🤣 😂
▁#C OVID
▁hand le
▁ará yé
▁202 1
ለቲ ከ
▁Ezi okwu
▁ug wo
▁ሞ ት
▁vir us
▁sing le
▁rub bish
▁كب ير
▁adw uma
▁ገን ዘብ
▁ከባ ድ
' un
. ]
3 9
5 7
7 i
R D
b as
b 9a
d ah
g ye
n ị
n ia
n esday
p uta
s ://t.co/
w t
w í
w àá
y ira
ق بل
ሁ ም
ም ጃ
ሰ ቦች
ቀ ቅ
ቆ ም
ቲ ቪ
ኪ ና
ክ ተር
ደ ን
▁ ሪ
▁ ኪ
▁ 😠
▁ 😪
▁ 🙈
▁ ☺️
▁ ▶️
🏿 ‍♂️
er in
an yị
▁n sh
▁a do
▁k imwe
▁t ari
▁s to
▁b ose
▁o ye
▁i da
▁g aa
▁l ord
▁f ran
▁e ba
▁e du
as ara
as ema
am ọ́
▁c alled
▁p f
at ure
en ta
ba ba
▁r '
ur ire
es ,
▁ya zama
▁j ul
▁የ ስ
▁የ ጥ
▁አ ና
▁አ ለው
is ar
▁N du
▁O ri
▁à kó
▁à kà
▁à pẹẹrẹ
▁I gba
▁م ص
ha ji
▁u wo
▁in nalillahi
▁B ut
ke y
▁መ ሬት
▁Allah .
▁ل ق
▁ف هاد
▁al ama
▁ይ ቀ
ed ia
▁ك ون
نا ة
▁L u
▁ተ ነ
▁P i
▁sh inka
▁sa ur
▁en de
▁si l
▁ọ̀ la
▁fa vor
▁ن ص
▁F ún
▁us ar
▁ማ ንም
▁ሰ ብ
▁ad é
▁kw ar
▁man yan
▁#I wure
án ú
▁እና ም
▁ts oro
▁see ing
▁ት ው
▁#A ya
gan da
▁was an
▁bar ka
▁bar ca
▁Ma zi
▁#N o
▁had ak
▁È wo
____ __
▁l' o
▁tem os
ção .
▁الب وليس
▁kh ay
يد ة
▁er u
▁zan cen
▁እስ ካ
▁እስ ክንድር
▁par te
▁ig n
sí wájú
▁mé lòó
▁nos so
LI LI
▁vo te
▁app reci
▁اح سن
▁ያል ተ
▁ìp ínlẹ̀
ምር ጫ
▁#n igerian
▁tú tù
▁ቡ ድን
▁Abu ja
▁بصح تك
▁ry '
▁#yorub at
▁ess as
Li fe
▁congr atulations
▁Bir thday
http s://t.co/
esurre ction
8 1
H e
I G
M W
M Ọ
O G
T S
T ER
a aro
f ti
g ou
p oro
u h
v ol
w ala
ባ ብ
ኧ ረ
ወ ሃት
ያ ዝ
ደ ል
ደ ኛ
ጠ ት
ፈ ረ
ፈ ጥ
ẹ yẹ
▁ Ń
▁ ዙ
▁ ❤
▁ 🌚
▁ 🔥🔥🔥🔥
▁n sa
▁n aku
▁n ema
▁m ch
▁m muo
▁a te
▁a ge
▁k ini
▁d ut
▁d ẹ̀
▁t 9
▁t f
▁t ug
▁s nap
▁b ite
▁o ...
▁o gh
▁i ku
▁g im
▁g aski
un ia
▁f ad
as in
am ani
▁p eri
at urage
al um
▁# c
▁r ọ́
ad em
he d
it as
▁የ ቆ
▁የ ከ
▁እ ሺ
▁M ak
▁M ama
▁O h
▁K O
▁I je
▁و س
▁و ك
ọ̀ kan
▁wa ce
▁ma gh
▁ì s
ke e
▁mu ga
▁E me
▁D aman
▁go al
▁ب ج
ro ad
▁ko to
wo k
▁C risto
▁W ani
▁ń kọ́
▁ت ص
▁ak ọ
▁su p
▁mi llion
gi c
▁الم نا
▁ስ ንት
▁kwa do
▁ad en
▁st yle
▁في ك
▁n' um
▁Ì yá
ct s
▁wá yé
▁#A l
▁mus amman
▁pro verb
▁: :
▁náà .
fo ɔ
▁uk i
▁out ra
isi on
رو ح
fan in
لك ن
zz y
▁ኢትዮጵያ ውያን
▁#i wure
dù à
▁par ti
▁chan ce
▁nn em
▁kọ́ kọ́
hy ira
▁🤲 🤲🤲
▁bre ad
▁post ing
▁hmm mm
▁pu po
▁ይህን ን
▁3li h
▁🙄🙄 🙄
▁wr ite
▁ሴ ት
▁dri ve
▁ይች ላል
▁ተብ ሎ
▁kawa e
🚶‍♂️ 🚶‍♂️
▁kats ina
▁Gan duje
4 0
4 3
G i
Q uo
U m
_ ال
a ji
c or
h os
l ì
p lo
r am
s ùn
t en
v os
y n
ز ة
ق ال
و س
ሁ ት
ም ?
ሱ ስ
ቁ ት
ቅ ና
ታ ም
ኘ ት
ጋ ራ
▁ »
▁ 🎼
▁ 🏃
▁ 🤨
👏 🏾
😔 😔
🤣 😂
er 3
er ve
▁n uma
▁n ari
▁n jo
▁n ami
▁n no
▁m uru
▁m alu
▁m teja
▁t or
▁t ou
▁t re
▁s ara
▁s àn
▁b wo
▁b rin
▁b zaf
▁l ẹ̀
▁c at
on y
▁na gari
wa ju
▁A .
▁A mm
ah irwe
▁r us
▁de a
es ho
▁የ ሞ
▁የ ጎ
▁an os
is m
▁N ima
▁N ínú
ye m
▁K it
▁K enan
▁I k
▁م م
▁z win
▁በ ታ
▁wa a
▁S E
▁ku z
▁v os
▁T ur
▁be i
ri os
de .
▁ل لا
▁ل ما
go l
▁qu ê
▁al far
▁ነው '
▁lo go
▁ለ ሀ
لا ق
▁3 nd
lo gy
▁ch u
▁re f
▁re l
ter no
lu wa
▁ያ ደረ
▁im o
▁Ọ lọ́
▁bi om
▁pe pper
▁ስ ላ
iri ye
▁si ze
▁sai dai
and ukan
lé ,
ub yeyi
▁kw uru
▁un til
▁con st
▁co lo
▁wi z
▁ق ت
▁የተ ከ
▁: (
▁ድ ሮ
▁uk uri
▁ገ ለ
▁tr ust
▁🤣 😂
▁الب ي
kw ụ
▁kh ti
▁mọ́ .
fun d
▁ሚ ዲያ
▁far uwa
🤣🤣🤣🤣 🤣🤣🤣🤣
▁nn ukwu
▁ቅ ድ
▁sem ana
▁በተ ለይ
▁ዓ መ
▁Nne ,
▁hhhhh hhhh
▁kur ya
اف ة
▁gr oup
اا اا
▁sim p
يات ي
**** ****
▁lak ini
▁kuh usu
▁ኖ ሮ
▁hung ry
▁Alham dulillah
▁jọ̀ wọ́
▁Gas kia
hats App
' ar
/ 2
A F
C M
G o
K U
S o
U A
W D
e h
g ò
g era
j wa
j ira
j iri
k ina
z ere
í ni
ò kú
و ب
و ري
ي را
ሸ ን
▁ ሜ
▁ ጣ
▁ 📻
▁ 😑
▁n ù
▁m ,
▁m omo
▁k ọ̀
▁k ishi
▁t ho
▁t ume
▁b ado
▁b ora
▁b ru
▁w ent
▁w ate
▁l í
un ti
▁f im
▁e z
al ik
▁A ll
▁A sante
ai da
he ad
ik ia
▁da ura
gb ati
is it
▁እ ርስ
▁O ya
▁O ne
▁K po
▁I 'm
▁و ه
▁me ans
▁wa e
▁ma ji
▁ì wá
▁se ja
▁se gun
▁v amos
▁T unda
▁am an
▁መ ደ
▁ب حال
li fe
▁gb an
▁ṣ iṣẹ́
▁ف ل
▁ta ce
▁ẹ n
▁as iri
ci o
to to
▁3 lina
▁ch in
▁' ni
ية ,
ati bu
▁bi o
pe le
▁si le
▁le v
▁ም ነው
▁À W
▁kw ak
▁ar ziki
eri ans
▁#I tan
▁za fi
▁ban xa
▁وال ح
▁po int
▁est amos
▁የተ ቀ
▁ر س
▁x ai
▁Ha pu
▁: -
▁ny 3
▁#yoruba we
\n و
▁hi vi
▁q arya
▁had ik
amb ia
▁አስ ፈ
▁bay in
▁wlh y
▁car d
▁ru o
فا صيل
▁الأ ح
▁እንዲ ያ
▁በአ ማራ
▁every day
IN G
▁Qu em
▁mw ana
▁sal am
▁kub wa
▁ori gin
كر انيا
▁hank alin
▁iy ayen
▁id on
▁#H a
▁dr ess
▁spe cial
▁Go zie
መለ ስ
▁وز ارة
▁faz em
▁الصح را
202 0
▁بل د
ụs ụ
, 000
- à
5 .
M a
V E
Z E
e la
f ika
g am
j uru
k iti
p ir
p ọ́n
r or
r it
t on
w ina
y ún
Ù N
ب ع
ع ار
ቃ ይ
ተ ና
ዲ ሱ
ዲ ን
▁ ;
▁ ኑ
🎶 🎶
▁m na
▁m ko
▁k ashi
▁k iss
▁t ah
▁t all
▁s k
▁s is
▁b ẹ̀
▁y ẹ̀
▁y ose
▁y esu
▁g round
▁h uk
▁h ado
▁f le
▁f ake
▁e so
am ara
▁c ada
▁p ur
at aka
▁A u
ba wa
▁# b
ah ita
ay ar
om an
▁አ ዋ
▁N ya
▁M wan
▁M ata
le d
▁I G
▁ba x
▁ba wan
▁و إ
▁B .
▁ì ṣẹ́
▁ì ró
▁se us
ke za
▁D uniya
▁መ ሳ
▁መ ው
▁ب ات
▁ti cket
▁ṣ o
za ba
▁is h
ji b
▁U che
▁lo w
لا ء
لا ي
▁com er
▁mi li
▁que en
ent os
▁he alth
ali cha
▁F or
▁من ها
هه ه
▁À mọ́
▁ሰ ዓት
▁ح ي
▁أ س
ct ly
war am
▁ደ ህና
▁ق لب
▁po le
▁ok un
▁ji har
▁ج يا
▁ib in
▁ጥ ቅም
iti ve
▁Ni jeria
▁In sha
▁gị .
▁pé ,
▁q asa
oooo oo
فا ق
▁الأ م
▁ay ɛ
▁/ /
▁እስ ቲ
▁‍️ ‍️‍️
dd ings
▁aw urade
رج ع
▁አመ ራ
▁tin ye
▁يح فظ
▁bal ance
UR U
red it
▁wad aran
▁gen er
▁kok ari
▁እድ ሜ
▁🥰 😘
▁ዩኒቨ ርሲቲ
▁labar ina
جت ما
▁OL Ú
▁sla p
▁مرح با
' u
6 8
I P
Q n
b c
b tissam
c ing
g ere
g ire
i ção
j os
k eré
l os
q an
r at
t ak
ت م
ن ى
ه ور
መ ጥ
ቀ ረ
ቻ ቸው
ን ቃ
ገ ብ
ገ ት
▁ ✌
▁a os
▁a po
▁a are
▁k di
▁d ín
▁t aka
▁t ukun
▁s all
▁b ura
▁b aha
▁b asi
▁w /
▁i ka
▁g ado
▁g ush
▁h ist
▁f ama
▁e wú
▁c ik
ال ا
▁A R
▁A kan
ik isha
▁ni yo
▁da bi
▁N y
▁N abi
ut s
▁K aduna
ha ch
▁me chie
▁z al
▁to das
ce pt
▁mu z
▁ነ ሽ
▁v ontade
ho .
▁we dding
▁D ire
▁መ ጀመሪያ
▁መ ካከል
▁ṣ è
▁ta f
▁do c
▁ለ ነ
▁ha u
▁com igo
▁ak wu
po l
▁ki furushi
▁ተ ን
▁bi d
▁us iku
▁ማ ስተ
▁À wa
▁kw es
رب ية
vi ew
▁On we
▁ban ga
▁your self
ini bi
▁she s
▁po p
▁ji de
▁الح مد
que le
اب ا
زا ير
▁ụ wa
▁bay ii
▁jẹ un
▁só rí
▁علي نا
▁wu ya
▁እያ ሉ
▁kum va
yìn bó
▁mw enye
ail s
▁😅 😅
▁201 8
kon o
▁think ing
▁agb è
ongo zi
▁Chi ef
▁Ob rigado
اه ل
▁exp eri
onal do
▁àà rẹ
▁ول د
▁كب يرة
▁dra g
▁ṣẹ lẹ̀
▁ìṣẹ̀ ṣe
ارج ية
▁የነበረ ው
ገሪ ቱ
▁#EsinOro 🐎
▁espe ci
▁kwir inda
▁gyim ii
▁ሁሌ ም
▁pou co
▁ń' nú
▁shuwa gaban
▁gbì yànjú
ርስቶ ስ
▁#Aya jo
N E
P S
T M
b ak
d p
d ọ
d is
d ent
f ọ́
g w
g om
i .
j y
j ah
m en
n 't
p fa
p fu
v in
ب ت
ب ات
خ ير
و ها
ሏ ል
መ ም
ሜ ን
ሰ ሩ
ነ ቱን
ን ካ
ደ ም
ገ ቡ
ጫ ወ
▁ $
▁ ፊ
▁ 🚶
👊 👊
🤩 🤩
▁m usa
▁a ut
▁a chi
▁k edụ
▁d aku
▁o hh
▁i ja
▁i wájú
▁h air
▁f ed
▁f ool
or era
▁p ati
ak ora
▁A ga
▁A ku
▁r à
▁r emo
▁ya a
▁የ ፍ
uk ai
▁አ ቋ
▁O t
we ar
▁z ak
▁በ ቅር
▁in st
▁on itsha
ga ,
▁B y
▁B ó
▁ab ụ
▁ab ia
ho ,
ra ,
▁D .
▁መ ዝ
do go
▁gb ẹ
▁al bum
▁ي رحم
▁ha ushi
sa ,
▁wo de
du à
▁الم د
▁en con
▁en quanto
▁ብ ሄር
ala v
▁sai r
▁ló wó
▁una weza
▁ማ ርያም
دي م
▁kw asia
▁n' u
▁n' ụ
▁gu h
vi val
▁ts ine
▁Ì gbà
▁mat aki
▁Ch ina
adi es
▁wi cked
???? ????
▁af ia
▁አን ቺ
▁ው ጤ
ló gún
▁ke jì
▁pro test
▁ክ ል
▁ye ye
▁የአ ዲስ
▁ገ በ
▁ụ zọ
▁sho ck
▁را ح
▁Mu hammad
▁dị rị
▁biko .
▁بال له
▁5 .
▁4 .
ምን ት
ህን ነት
mí ì
▁mb ona
▁nn am
▁may be
▁مز ي
▁الخ ير
▁kut umia
▁ent re
▁Ní gbà
▁hand s
▁202 3
▁😂😂😂😂😂😂 😂
▁ali ve
▁tra ffic
▁ምር ጥ
cc ess
gen zi
طو نا
▁#n igeria
▁Bo ko
️️ ️️
▁Po le
▁الصح ة
ange lho
▁tat t
▁بع ض
▁oò rùn
▁serious ly
&gt; &gt;
▁😍😍 😍
▁السيا سة
▁ip hone
bam oodua
▁pare ce
▁🥰😘 🔥
' ayi
4 5
6 5
9 7
B D
O r
Q h
S U
b ye
c ika
f ẹ̀
f ord
k um
l 3
m s
p hy
u z
v s
w aka
y ẹ̀
y ara
ج ع
د خل
ط ات
ط ني
ف ريق
و ان
ሀ ት
ማ ል
ች ልም
ወ ስ
ወ ደ
ድ ብ
ጎ ት
▁ ቻ
▁ 😋
▁ ኧረ
🥴 🥴
an de
▁n 3
▁m be
▁k ’
▁d ou
▁t ashin
▁b li
▁w ó
▁o w
▁o polo
▁y ɜ
▁i bo
▁g at
▁g ate
▁g han
▁h uwa
▁h biba
▁l ako
▁l kh
▁f os
▁c us
▁r ú
▁የ ገባ
▁da u
tt y
is mo
le jò
▁O R
▁ọ pọlọ
▁à mì
▁K edụ
▁I mo
▁I lẹ̀
▁u di
▁in te
▁in ji
▁in ternet
ara c
▁wa jan
▁E ko
▁E wé
▁E kele
▁ab e
▁go yon
ri ght
li wa
▁ko ya
wo ,
▁ò wò
▁C ha
▁C ho
▁C ap
▁W ho
▁ይ በ
▁ለ ዘ
▁su gar
▁mo vie
sa .
▁wo b3
▁ا ما
▁ا ذا
▁P DP
▁Ọ MỌ
▁الم ست
▁ወ ጥ
▁si ya
▁yan gu
▁À à
▁À ti
▁ad v
▁un cle
▁mai da
▁za zzau
ome ye
▁mun ga
▁vi ver
▁all ow
ite kere
▁san in
▁Z ai
▁wà ,
▁was te
▁Al barka
▁tr ump
▁tr ouble
▁إ لا
▁Mu ito
▁بال م
رو ك
فا س
▁كي ما
▁boy friend
▁fu el
▁res pect
▁መል ስ
▁Ṣ e
▁ቅ ር
▁wal o
▁ayé lujára
▁مز ال
▁ض رب
▁"""""""""""""""" @user:
dà gbà
▁🙌 🏾
lan guage
▁mom ento
▁watch ing
▁እር ምጃ
Of The
▁oj oo
👇👇 👇👇
▁Ib yo
قر ير
▁መከ ላከያ
▁aljan na
▁nyan sa
▁Tr ump
ikor wa
▁ፎ ቶ
▁ደጋ ፊ
▁Ten ho
▁peri od
C I
J esus
L D
N a
O nye
P a
W O
\ u
b ra
b yo
d c
d at
e u
e z
e ze
f ẹ
l isha
m n
m ah
m ente
q ara
t 3
t k
x O
y d
د ات
س ان
ط ق
ظ يم
ف ار
ق ص
ق ف
ك ارة
ለ ቅ
ር ግ
ሰ ቡ
ስ ቱ
ባ ዊ
ታ ቸውን
ን ጆ
ዎ ት
ዘ ን
ፈ ስ
▁ ጊ
🇬 🇧
🙏 🏼
🥺 🥺
▁n ini
▁n umva
▁m ò
▁m aku
▁k ere
▁k ura
▁k itu
▁d amun
▁s us
▁s itu
▁w ale
▁o to
▁i ch
▁h ya
▁l al
▁l ess
▁c yan
▁c ast
▁p h
▁p pl
en zi
ur ira
▁ال نا
▁ya ud
▁ni bi
ya a
▁an ti
is ed
▁N E
▁M p
▁M s
▁M uk
▁M ais
▁O ni
▁à rà
▁በ ሌ
▁በ ቁ
ch en
▁E kw
▁T O
ho bora
▁መ ተ
▁R E
▁ṣ ò
▁ò ǹ
▁ف ب
▁gi ?
▁G ẹ̀ẹ́sì
▁fi co
لا ص
▁ak wụ
▁3 ad
▁ga ve
▁mo ther
je ct
▁L ẹ́
▁im bere
▁ተ ሰ
▁ተ መል
▁ا عت
▁bu ild
▁ወ ገ
▁lá gbára
ul ar
ne l
▁fa ch
▁ن قول
▁ad ì
▁kw amba
▁#I fa
▁( 1
▁أ ش
▁እና ት
▁za gi
▁at iku
▁mm an
▁Am erica
▁ው ጭ
▁jẹ́ .
▁V er
▁In na
▁ri ga
▁san ya
▁je hovah
▁Z A
▁q asar
▁gan -an
▁ታ ላቅ
ene ye
▁wà .
▁Al jan
▁አለ ኝ
▁ሀ ይል
▁?? '
▁የም ታ
▁Mu dai
▁ለማ ለት
لك ة
▁er an
▁sabi da
▁iki ?
▁Nna ,
▁mats ayin
▁ዝ ግ
▁k' ó
▁zasu yi
▁seri es
▁አካ ል
▁Mun gu
▁kir ki
▁شي ء
▁At é
هد ر
ria ge
▁St ate
▁ṣí ṣe
sc ri
▁maj al
▁nau yin
▁cam era
▁pens ar
ላችን ም
▁pol iti
▁alm ost
▁mã e
▁ወቅ ት
▁ọjọ ọ
▁foot ball
▁#COVID 19
▁#yorubat v
▁ÀW ỌN
▁جيا حة
▁OLÚ WA
6 6
9 4
C o
E D
M S
O O
T H
T r
b ti
c ra
d ẹ́
f at
g ama
j èè
k m
t os
w en
ç ambi
ط ف
ك ين
ም '
ቀ ን
ቃ ሚ
ቡ ብ
ቴ ር
ካ ሄ
ያ የት
▁ 🎤
▁ 😄😄
🇲 🇦
😲 😲
▁m we
▁m bu
▁m ate
▁k oo
▁k ari
▁k amu
▁k aribu
in de
▁b ù
▁b ast
▁w é
▁o cha
▁o gwu
▁i ṣu
▁g ist
▁c ro
▁c ent
▁p amoja
ال ات
al t
al an
▁A unty
▁# l
▁# aso
▁r ou
▁ال ام
ad d
he mu
▁j iki
gb ara
ut un
▁M en
▁O u
▁à lá
▁à ṣe
▁K ub
▁I ma
▁I ṣẹ́
▁م ق
▁و لكن
▁me chi
we ze
▁z '
▁በ ክ
▁ma '
▁ma ame
▁S em
▁ì lù
▁se ?
▁D omin
▁go de
▁መ ጣ
ig aye
▁ne pa
li p
▁ko la
zi l
te ad
▁W i
▁W ow
▁ت قول
▁so und
▁ነው ፡፡
▁lo ko
▁ለ ብ
لا ب
▁ak ụ
po te
▁es que
▁ተ መ
ira .
▁ስ ታ
▁allah u
▁J am
▁li ving
pp ed
▁le ast
▁sai ra
▁ló kè
▁F ace
▁Ẹ GB
▁ح ا
▁te ars
▁kw ara
▁man ya
▁ag enda
▁ه م
wi li
▁س عد
▁وال ن
▁ما ي
▁chi ef
اش ي
▁ጥ ቃት
han da
▁kai ma
▁ny ɛ
▁ቀ ጥ
AN I
▁mar asa
▁bro fo
▁ገ ዳ
▁الب ل
اد ة
▁ስለ ዚህ
▁በአ ንድ
▁bur geni
mọ̀ ṣọ́
▁na- eme
▁pes a
201 8
▁ek pere
▁ጀ ምሮ
▁talaka wan
▁ሃ ሳብ
▁fal ta
▁tin ha
▁mk pa
▁taim aki
▁#e bi
▁fah im
▁ee h
▁sp end
▁ሥ ራ
زائ ري
202 1
202 2
▁sur pr
essi on
▁ዕ ድ
ከተ ማ
pend ence
▁sent ir
▁ear ly
▁clo th
▁vis it
▁ሙስሊ ም
Tu be
▁Than k
▁ún i
▁soy ayya
አዴ ግ
▁بسب اب
▁dur ing
▁jag ora
▁Ebu be
▁koto ko
▁#yorubawe ddings
▁بات نة
jèè jì
- a
L U
c em
d h
f ú
f ún
f uri
g ọ́
g ia
h á
l K
s ai
v as
x x
z ir
~ ~
í lia
ع ين
ه ب
و ار
ሃ ን
ለ በት
ም ራ
ር ማ
ር ክ
ን ቋ
ከ ራ
ጎ ች
▁ 💃
▁ 🔥🔥
▁ ero
▁ 😆😆
💥 💥
😘 😘
▁n oss
▁n hyira
▁m ts
▁a ,
▁a zz
▁d 3
▁d b
▁d ɛ
▁d ike
▁d uro
▁t 3
▁t ena
▁s à
▁b ash
▁b atan
▁w ’
▁w utar
▁o hia
▁y àn
▁y aye
▁i pò
▁g wan
▁g aya
▁f aa
▁f ast
▁e iii
▁e égún
▁c ow
▁na e
▁A ch
▁A gba
▁# ha
ah un
ah ia
▁r is
▁ال ري
ik pa
▁j ay
▁j ìn
▁የ ሃ
▁N Í
▁à rùn
▁I y
▁I rú
▁م رة
▁ka a
▁ka za
▁in k
▁in o
▁in yuma
▁B as
▁B ai
la ck
la gos
▁ku du
▁mu ita
▁v s
▁ab ana
▁D á
▁wan ts
▁am ụ
▁መ ታ
▁መ ነ
▁መ ድ
▁ب غ
▁R am
▁ل أ
▁gb í
▁ko fi
za .
▁C H
▁W ana
▁W hatsApp
▁ẹ yin
▁G wam
▁lo cal
▁ለ ዚህ
lo pe
yo yin
را ح
▁P ar
▁shi kenan
▁si y
uri ye
▁sai da
▁us ing
▁bo th
__ _
▁n' ime
▁n' eme
▁ẹ̀ kọ́
▁or dinary
gun ,
▁ah an
wi ya
▁bab es
▁po t
وا ب
▁chi ll
▁ib ẹ̀
▁An yị
▁dis so
▁nk wa
▁yìí ?
▁kn w
▁ሁ ለ
▁አስ ታወ
▁الب لاد
▁wah alar
▁ሀ ሳብ
▁የም ር
▁Yorùbá tv
فا ع
▁mọ́ ,
▁ut d
▁الد ين
▁kwan za
▁wal ahi
▁wal akin
▁አብ ሮ
😹😹 😹😹
▁wak ar
▁nwe e
▁ሃ ገር
▁ሌ ባ
▁Nwanne ,
▁zamu yi
kùn rin
▁እነ ሱ
fr ika
▁ubu zima
▁mer ci
af ia
▁sub han
get her
▁ኮ ሚ
Word Of
▁iba dan
▁አሜ ሪካ
▁add ini
▁gbá dùn
▁للم غرب
♥️ ♥️
▁አደረ ሳችሁ
▁Ser ikali
▁Jo hn
imb ali
▁እም ነት
▁taus ayi
cur ity
▁Mm adu
▁prec isa
فض ل
▁Iki bazo
▁مغرب ي
▁غاض ني
▁Ime la
▁corre ct
▁Non ese
ospit al
▁appreci ate
▁gim me
▁#aso ebi
▁ẸGB Ẹ
8 2
B o
B y
H H
K a
a go
d ika
e x
f it
g ing
g ura
g enda
h ã
k n
l he
q o
r ah
r ou
t ha
u fa
w em
w ale
à gbà
خ ابات
د د
ض ح
م ين
ن ان
ي ار
ለ ሽ
ለ ቀ
ረ ም
ሳ ሰብ
ነ ሱ
ኖ ረው
ካ ሪ
ዛ ው
ጠ ሩ
▁ ኡ
▁ ጁ
▁ ✅
▁ 💪💪
▁ ጤና
🇨 🇮
👏 🏽
▁n chi
▁a gbára
▁d ere
▁t x
▁t uta
in al
▁b and
▁b gha
▁o be
▁o kan
▁o yè
▁y ats
▁i wu
▁i yan
▁g ur
▁h w3
▁l aye
▁f é
en si
en tion
▁A le
▁A are
ur yo
um mar
▁j er
▁j un
▁j ẹ̀
▁የ ኤ
▁የ ፌ
▁an ụ
▁እ ህ
ut an
▁M allam
oo gle
▁م وا
▁م ثل
▁و صل
ti go
▁me di
▁በ ድ
▁u l
▁S am
▁S im
▁S hin
▁ì rè
▁ì sinmi
▁ku an
▁ku gira
▁v en
▁v it
▁wan ka
▁ب را
aka ,
aka zi
▁R ay
▁ل ج
do do
▁ò ṣù
▁th ought
▁W on
▁W ith
▁H hhhh
▁do g
▁as ante
▁fi z
▁so ci
ki d
▁ነው !!
▁3 1
▁mo to
▁ch ina
fi ci
bo ka
▁ተ ጋ
▁um us
▁um wanya
ada ,
▁P er
▁Ọ kwa
▁ብ ልጽግና
▁è é
▁ن ظ
▁ن هار
▁Ẹ lẹ́
lé .
▁À GBÁ
▁ad am
رب اط
▁ra pu
▁Ì dí
▁ه ك
▁አይ ቀር
▁she giya
▁ق ل
▁ok pa
ado .
▁Am inu
▁ው ሸት
ló wó
ita in
▁mus i
uni yar
▁rí ,
▁wor th
▁ድ ጋ
▁È dùmàrè
▁out side
▁ub undi
ush in
▁ou vir
▁ebe a
ደር ጉ
▁mes ma
▁ጠ ላት
▁oma .
▁mú sica
▁الج م
▁gh ay
▁ها دي
▁mb al
▁Ṣ àngó
😁😁 😁
▁ዓ ለም
▁ሌ ሎች
▁hal f
iiii i
tan da
dì ẹ
▁عند نا
▁el imu
▁Sa ura
قو ق
▁try ing
▁ፖ ለቲከ
▁were y
▁sub scri
sà lẹ̀
▁Li verpool
▁Co vid
hamm adu
Am aka
urs day
▁govern or
▁cra ze
▁gt gt
▁Mah mud
wom ana
▁dec ember
umbu fu
▁ይቅር ታ
▁shekar u
▁mmo ja
🏃‍♂️ 🏃‍♂️
▁burú kú
▁العم اري
▁ví deo
▁amig os
▁Trans lation
▁shinka fa
▁agbè gbè
' e
4 6
5 3
7 o
? '
A A
A je
E nd
M e
M ore
P P
P roverb
S E
Y ou
b 9
g al
g ane
j m
j ìn
p ara
r al
w hi
w ọ́n
w ite
x y
z en
ب ك
ت ا
ت ة
خ خ
ق لي
ن يا
ي ق
ለ ድ
ሳ ል
ስ ህ
ሻ ሻ
ቀ ሳ
ከ ል
የ ሱስ
ዱ ን
ፈ ፀ
▁ —
▁ 😠😠
☝ ️
🇨 🇴
🇨 🇺
🇯 🇧🇷
🇹 🇬🇧
😌 😌
▁n se
▁n ine
▁m ó
▁m ir
▁m ist
▁a fi
▁k er
▁k ora
▁k ukan
▁d aki
▁t iti
▁t reat
▁t ouch
▁s ig
▁w n
▁w ọ́
▁w umva
▁o me
▁i gbe
▁g ab
▁h ail
▁l uk
▁f adin
or u
▁e fe
▁na o
▁A kwa
▁A cho
▁r aha
▁de mo
es .
▁ni san
le t
le y
ab ara
▁K wan
▁K ee
▁ba gh
▁و ان
▁و من
em ba
▁no vo
im an
▁in form
ga .
▁wa g
▁ma ze
▁S U
▁B en
▁ì là
▁ku ce
▁T h
▁ab ar
▁we lu
ri as
▁ب ح
▁ti e
▁ò bí
▁ò nìí
▁is ar
▁is hi
▁th read
▁C yane
▁H á
▁H om
▁H akan
se y
▁ت قرير
▁G usa
▁as usu
▁ይ በል
▁U ni
ci des
▁lo ju
▁ha q
▁es tu
▁ا سم
▁sh ake
▁sh akara
▁الم نت
▁en er
▁bi ha
ira ,
▁lá sán
▁he ll
▁è so
▁ọ̀ dọ́
and om
▁የሚ ባል
▁us umbufu
ìn í
▁st ream
▁kw all
▁في ديو
▁gu dun
▁ẹ̀ wà
▁mat ukar
▁ndi gbo
gun s
gun gun
▁س ت
▁af ite
▁po or
▁nd ir
▁. '
▁እንደ ዚህ
▁chi m
▁ib ya
▁oo .
▁ai ye
lá wọ̀
▁In s
▁sha war
▁sha wara
▁È dè
▁ro kon
▁mak om
▁nwa yo
▁ሀ ይ
kw ọ
▁daya wa
ደረ ሰ
▁mad rid
▁الو كيل
▁bat er
▁Um va
😍😍 😍
▁baz amu
▁wen gi
▁mé jèèjì
▁تح ت
▁Ta fadhali
rùn -ún
▁mẹ́ rin
▁cyane .
▁🇳🇬 🇹🇬🇧
▁cl aim
▁ent rar
▁agb ara
▁#P ari
قد م
▁tra in
iso de
yam akuru
▁kus k
▁Hmm mm
▁You Tube
▁ìdí lé
▁tabb as
▁100 %
▁مب عد
▁መሰ ረት
mì là
▁kwe li
▁ኦ ነግ
rún mìlà
ገኘ ው
▁vol tar
▁pat r
▁taus aya
▁እጅ ግ
▁nku zi
▁masi fa
▁raji un
gidi gba
▁የሌ ለው
▁lead ers
قرا طية
▁بلاد نا
▁mot or
▁inf lu
só kè
▁ugbu a
🇬🇭 🇨🇮
▁ubw enge
▁در هم
▁ንግ ግር
▁talau ci
▁sofr er
▁#Ayajo Ojo
▁ÀGBÁ YÉ
🇨🇴 🇨🇺
🇯🇧🇷 🇨🇴🇨🇺
▁🇳🇬🇹🇬🇧 🇯🇧🇷🇨🇴🇨🇺
▁🇳🇬🇹🇬🇧🇯🇧🇷🇨🇴🇨🇺 🇬🇭🇨🇮
- A
. #
/ ሚ
1 00
? 🤔
B r
C C
N I
N ow
N ew
N orth
P r
T iskat
Y o
g àn
g ore
i ,
i j
j ina
k ẹrẹ
m l
o la
q g
v ent
ì rì
خ د
ف ين
م س
ن سي
ላ ቀ
ሙ ስሊ
ረ በ
ር ዳ
ሳ ሌ
ቀ በ
ብ ራ
ች ኋ
ክ ርስቲያን
ው ነት
ይ ና
ደ ገ
ገ ቱ
ጣ ው
ṣ é
• •
▁ ሹ
▁ ኳ
▁ 😩😩
🥰 🥰
an ze
▁n ara
▁n ani
▁n ome
▁m f
▁m gb
▁m ta
▁m li
▁m ari
▁a hh
▁k ig
▁k ema
▁d ash
▁t ata
▁t siya
▁w èrè
ar ama
▁o gbon
▁i zi
▁g urin
▁g row
▁h ab
▁h aya
▁h ash
▁f ati
▁f ly
▁e mo
▁e gg
▁c ul
▁c ould
▁p ple
▁A ha
▁# yo
▁# ondo
▁r ẹ́
▁de p
ll ars
ir m
▁ni li
▁የ ክ
▁የ ስራ
tt tt
▁an am
▁N ti
▁N aija
le o
ye me
▁O f
▁ọ pẹ́
▁ọ gbọ́n
▁I lu
we dding
▁ka zo
▁ma u
▁S om
▁B '
▁B ara
▁ì rìn
▁mu ji
▁v c
yi i
▁D ore
▁wan gu
de os
▁መ ጨረሻ
▁R A
▁ò nye
▁ف ق
▁ẹ bọ
▁ẹ yọ
▁G om
▁as hi
▁ከ ጎ
to ,
bo la
▁ك لام
▁wo ho
▁ተ ገ
▁P A
gi he
ja w
▁bá wo
▁shi go
▁le yin
▁le var
ير و
▁sí .
▁Ẹ kú
ub undi
▁À ì
ون دي
▁ag ye
▁or ò
ín í
▁س يد
▁han ya
▁ደ ህንነት
▁af ẹ́
يا م
▁tal akka
😂😂😂😂 😂😂
▁chi ck
▁pro per
▁ر جل
▁gị nị
▁wọn ,
▁rí .
▁kai mu
▁الت نمية
▁mar riage
▁ex iste
▁لل ب
▁nu fi
▁የአ ሜሪካ
amb ere
▁mak aran
▁Ọ̀ nà
▁bay ar
▁الا س
▁የመ ጨረሻ
▁Yorùbá ,
▁5 00
▁m3 ah
▁ط ن
pr es
قي ق
▁par í
تو فيق
▁pre par
اع ة
🤣🤣🤣🤣 🤣
uti on
▁mé je
▁6 .
▁nos sa
😀😀 😀
bẹ̀ rẹ̀
▁kab arin
▁bal le
10 67
▁guk ora
▁shar rin
▁ké keré
🏃🏃 🏃
▁Bar celona
▁tabb ata
▁ድር ጅ
😂😂😂😂😂😂😂😂 😂😂😂😂😂😂😂😂
▁gen eral
ስል ጣን
▁نع رف
ላማ ዊ
▁الوطن ية
fany ia
▁jama 'a
▁tẹ́ lẹ̀
صا ور
▁rec ord
▁net work
▁ድም ፅ
▁custom ers
Su per
gẹ̀ dẹ̀
▁ዐ ቢይ
▁cru ise
Con ference
▁bindi ga
▁especi ally
▁mbal imbali
) :
- ọ
- èdè
2 1
2 6
3 ma
D G
D S
D o
F I
F riday
K u
O U
O ur
R T
V I
b ya
f iki
g ù
g abo
h s
h wa
h ora
i p
k iri
l ight
s ị
t as
v ura
w ir
y yar
è é
ì mọ̀
ò rùn
ا ذ
ج اح
س ل
م ان
م لكة
ሁ ኑ
ላ ን
ሔ ራዊ
ማ ረ
ሰ ት
በ ራ
ተ ዋል
ታ ል።
ወ ች
ዊ ት
ው ቅ
ዱ ት
ግ ኘት
ጠ ቃ
▁ ጸ
▁ ‍
▁ 🤝
▁ ፊት
▁ 😃😃
💋 💋
▁n ata
▁n àìjíríà
▁m me
in na
▁o pe
▁y alah
▁g reet
▁l ara
▁f ra
▁e gb
as em
▁c ake
▁A y
▁A pp
ba i
▁# ad
▁r ass
ai dia
▁ال وا
ik ombe
▁j on
▁j ab
▁j ump
▁አ ለም
▁da uke
▁M ug
▁O go
▁O jo
▁K ina
▁I ta
▁ba cci
▁و ر
▁በ ምን
re ,
▁ma go
▁S al
▁S um
ce wa
▁B ur
▁v ais
ho l
▁we l
▁D alu
▁am ara
▁am inu
▁መ ም
▁ب ها
▁ne e
li ci
▁gb ẹ̀
bi .
▁th eres
ji ji
ve d
▁ع ار
▁H an
▁ẹ gbẹ
▁እን ቅ
▁G A
▁al ham
ci as
▁fi ca
ge d
▁ha po
▁ak bar
▁su ccess
▁es per
▁ያ ላ
du pe
▁sa f
▁ወ ጣት
si ble
▁J onathan
ne w
▁ọ̀ pẹ
▁sí lé
▁fa ct
tu a
▁ن ش
▁من هم
▁ar ụ
▁ana ghị
▁ه ل
▁co ld
▁ش وف
▁س نة
▁if ẹ̀
▁af ụ
▁vi furushi
▁ል ት
▁ል ማት
▁har yan
▁ج ا
ju i
▁#O n
▁🙏 🏼
▁خ رج
▁nk wo
▁ህ ይወት
▁V o
fin al
▁ke y
▁ac red
▁غ ي
▁#E ternal
▁ex press
دا د
▁l' á
▁uk ur
▁mak es
ção ,
▁ụ tụtụ
▁tr iste
▁الب ام
▁pi c
▁ሀ ገራ
▁again st
▁የም ና
▁ou i
▁علا ه
▁eh ,
▁só kè
▁per ce
▁per fe
▁zan yi
دو د
قي قة
umi zi
▁gy ai
utu be
▁Ar senal
▁aw ka
▁ezigbo te
▁አንተ ም
▁201 5
▁il imi
▁bà jẹ́
▁#L anguage
gbẹ́ ni
▁az umi
▁mp aka
yy yy
خل ية
▁week s
▁wait ing
ጀመ ር
▁ben shi
▁mer cy
▁ako a
▁አም ባ
▁tán ,
▁dun ia
▁sp ir
▁& gt;
gg ing
▁àt ún
▁Lol .
▁Un ited
ገል ግ
▁አፍ ሪካ
▁kwu o
bw ire
▁oò gùn
▁Or uko
▁جدي د
▁ክፍ ል
▁Than ks
▁maghribi ya
▁አሸ ባሪ
▁البرلم ان
▁Subhan allah
▁الموا طن
jum be
▁رائ ع
▁qui ck
▁Congr atulations
▁አንዳ ንድ
▁origin al
btissam Tiskat
Super Word
- i
- n
2 9
3 k
4 1
7 9
9 s
A ti
G I
S how
U 00
\ U00
b ur
c ine
d ou
d ades
f ọ
h l
h r
j b
l ọ̀
m w
m ira
p ha
r ay
u ye
u lu
v t
w ira
w are
w ord
y ame
د ت
ص اد
ص وت
ላ ሽ
ላ ጊ
መ ዲን
ማ ቸው
ሮ ችን
ተ ኞች
ያ ት
ፈ ት
’ i
” ,
▁ ñ
▁ ظ
▁ ⏩
▁ 😐
▁ 😜
▁ ✔️
🗣 ️
🙆 🙆
▁n ú
▁m mi
▁m ight
▁k ɔ
▁k ati
▁s ata
▁s mo
▁s kin
▁s eni
▁s ahi
▁b ɔ
▁b yan
▁w all
▁y ad
▁g it
▁g oma
▁g ente
▁l in
▁l ar
un gan
▁f ing
am ai
am aka
▁p ó
ak iri
▁A wa
▁# k
▁r abi
▁de la
▁ال انت
ik un
ir ar
▁ya wo
▁የ ሁ
▁an t
▁an wu
ut ana
▁M uri
da e
▁à s
▁K ó
▁K arya
▁I ba
ha .
▁me k
▁z wina
▁በ ኩል
▁ma in
▁S hu
▁B aku
▁ì kó
▁ku va
▁T aifa
▁be ans
▁ab íni
▁D uba
de l
▁ب ه
▁R uwa
▁gi he
▁gi ving
wan nan
▁H um
▁Y ak
ão ,
▁ta 3
▁as ɛm
▁al ert
▁ከ ሰ
▁ይ ሰ
▁fi l
▁so ft
▁ي ارب
▁ak pu
▁mi aka
▁mi jin
▁L ó
▁ki lo
ver t
ada .
▁sa uke
rí ,
▁shi da
▁ስ ህ
▁say s
▁ም ት
▁yan ada
ات ي
▁F M
ub ar
▁ح م
▁في هم
▁n' ab
▁( A
▁( @user
▁ẹ̀ yìn
▁han ci
▁ق ضية
▁ق هوي
▁kò kòrò
▁ooo ooo
▁tu z
▁nk wu
▁ህ ፃ
ori es
▁To ò.
▁ሁ ላ
▁gan an
▁ap á
▁ob uru
▁ex pect
▁Ma gan
▁nt oma
▁tr uth
▁አለ መ
▁ay ẹyẹ
▁egwu .
cho f
▁des se
▁ፍ ላ
▁الف ت
▁oló dùmarè
▁Um un
▁wal ah
201 5
▁Es te
▁መስ ሎ
ction s
▁🤲 🤲
وف ق
lik uwa
رك ة
▁cr ush
▁በማ ድረግ
▁ọma .
▁bus y
▁Ad am
▁yab amu
▁اخ طونا
▁pu pa
▁quer er
▁ራ ሱ
▁🤦 🏾‍♂️
▁Nn em
▁ድር ጅት
▁ዳ ር
▁ij ó
▁አድር ጎ
▁aji li
▁amba yo
▁kok arin
▁bw '
▁qual quer
ṣè lú
▁deix ar
ረጋ ገ
▁dali lin
▁Ek ene
▁ess es
▁gra ce
▁hon est
▁jir gi
▁gwam na
▁past or
sel ves
▁wa7 d
▁ጋዜ ጠኛ
▁thi ef
▁Bà bá
Twitter Com
▁mensa gem
waram utse
▁ibin tu
dàgbà sókè
\U00 01
▁abíni bí
' ni
9 5
: 00
C K
F E
H M
O K
R wanda
U H
b it
d ụ
d ate
g uk
h ,
i da
j K
n ers
p ati
è yàn
é dé
ê m
ا مة
ب س
خ ي
ز ل
س اد
ሃ ሃ
ል ቁ
መ ነ
ሜ ት
ራ ፊ
ና ቸው
ዳ ል
ድ ነው
ጥ ም
ፉ ን
ṣ ọ̀
” ..
═ ═
▁ {
▁ 📌
▁ 😤
▁ ههه
🤲 🏻
▁n p
▁n r
▁n te
▁n ubwo
us ho
▁m adu
▁a ?
▁k ẹ̀
▁k oni
▁k ishin
▁d aka
▁d ina
▁s car
▁b er
▁b ẹ́
▁b ii
▁w ù
▁w he
▁w enye
▁w ese
▁w adda
▁w nn
▁o shi
▁o werri
▁i ti
▁i pa
▁i ran
▁i gbá
▁g he
▁h ɔ
▁h atu
▁h ospital
▁l ig
▁l ee
▁e ma
▁e dumare
as si
▁c amin
▁p k
▁p ari
▁p alm
en go
al k
▁A z
▁# 10
ah h
▁ya we
▁ni yen
▁j ari
▁አ ግ
▁da wa
▁da adaa
▁an tes
▁እ መ
ut y
▁M es
▁O na
ing ano
▁I badan
▁ba fite
▁م ان
▁و كي
ti fic
▁me ji
▁z ako
▁S á
▁ì h
▁se l
▁mu gani
▁E ss
▁T er
yi ,
▁ab road
ra .
ere .
▁D O
▁go li
ri l
▁መ ድረ
▁R es
▁ل أن
▁ò de
▁ò fin
▁ò ṣì
▁ò yìnbó
▁C ity
▁W ay
▁qu ar
▁di fer
▁ت أ
▁G e
▁as ara
▁ይ ጠብ
▁U h
▁lo t
▁3 af
ed om
ko p
po t
bo ye
▁ተ ቃ
ee k
ja ,
▁ወ ሎ
▁ወ ታ
▁li hom
pp ers
▁é s
▁ن ريد
▁F r
ub an
▁ማ ሳ
▁À gbà
▁ar r
▁kar ba
▁kar fi
▁pa ck
▁( S
▁أ ي
yin oria
▁za o
▁ts ari
▁Ì lú
▁Ì jẹ̀bú
▁at ari
wi za
▁co lor
▁co urse
▁ش حال
▁if á
▁ደ ር
▁po is
يا دة
ول و
▁kú ,
▁#O rin
▁#O su
▁خ لي
▁ህ ወሓት
▁V amos
▁ክ ቡር
fu o
▁الت و
▁ap enas
▁لي ه
▁mma ,
amb ara
▁nt ị
ss ss
▁7 a
▁wah ed
▁sho t
hir iki
▁bl essed
▁የመ ንግስት
▁ama zi
▁ጠ ብ
ọ̀n à
▁gw ara
▁mmadu .
▁kum asi
▁sar s
▁ሊ ሆን
▁الف ق
لو ب
umi e
▁aj ụ
▁mw ese
▁oló wó
▁መል ዕ
▁okwu .
▁tell ing
ــ ـ
▁may ar
▁dak ai
▁ek ene
▁s3 n
▁አንተ ን
▁#W orship
▁#L e
▁ቆ ንጆ
▁wana wake
▁mam bo
▁ìgbà lódé
▁ጎ በ
▁lm fa
▁ጉዳ ዮች
كا ين
▁አባ ት
▁ìp à
▁በሚ ል
▁dauk ar
▁#Igbo Amaka
😎😎 😎
▁የህ ዝብ
▁cry ing
▁ያስ ፈል
▁በደ ንብ
▁ment al
▁fam ília
▁pá tá
▁lit tle
▁Mad rid
▁clo the
▁cle ar
▁والت نمية
▁فالم غرب
▁duni yar
De cides
▁ìl era
▁iskan ci
dín lógún
▁lug ar
rug ẹ
▁pie ces
▁#Al aye
Quo tes
andukan ye
▁Face book
▁kuan zia
وندي ال
TwitterCom munity
7 8
9 ab
I le
N O
T N
U p
d ama
e y
f 3
f ish
h uwa
j 3
k ẹ
k ta
l um
m on
n ar
p m
z al
z ana
z ung
ó ò
ؤ ال
ب ال
ز اب
ط قة
ለ ኛል
ሊ ሲ
መ ች
መ ጡ
ቃ ወ
ቅ ን
ታ ችሁ
ው ል
ያ ዊ
ደ ጋ
▁ ዮ
▁ ጆ
▁ ura
▁ ☹️
▁n ji
▁m ù
▁m allam
▁d amar
▁d ream
▁t ai
▁b un
▁w ari
▁w allah
▁o chie
▁y im
▁y asha
▁i po
▁i hu
▁h k
▁h ala
▁l br
▁l adies
▁f ish
▁e ach
▁c uta
on ar
▁p í
▁p ad
▁p ha
▁p ata
ak en
ak ur
▁A inda
▁# language
▁ال را
ir as
ir os
om ai
▁ni dai
▁j ini
▁j uo
uk ata
▁አ ማርኛ
▁an ge
▁M uma
▁M asu
▁M ts
"""" .
▁ba á
▁م را
▁و د
▁و ق
em an
em ana
▁me yasa
▁በ ሽ
▁in cre
▁ma wa
▁S ana
▁B aki
▁ì kà
▁se un
▁se le
▁T HE
▁be er
▁be eni
ra ji
▁ب ك
▁ne a
▁ne godu
▁R ep
▁ل كم
▁is in
te k
wan yi
▁ń nú
▁as ha
▁ከ ሌ
▁ከ ታ
▁ي ف
▁ለ ት
lo ck
▁kan ku
▁ch orar
lu lope
▁mi d
po kea
je ,
je .
▁es c
▁es ti
yo te
ver ty
ee l
ee en
gi da
▁Ọ lá
are wa
▁pe le
ين '
▁he at
▁he la
▁li v
▁ن شوف
▁F un
▁የሚ ገባ
▁À bí
▁te ar
▁un s
▁أ نت
▁ah ịa
▁وال ا
ለው ን
ako bwa
▁ል ጆ
▁pr omo
▁pr aise
▁V ai
▁ሲ ሉ
▁ሲ ባል
▁hi li
fu za
▁ye ah
▁nig er
▁too k
▁min ist
▁che gar
atan ga
▁know s
▁ግን ባር
▁الا خ
kò kò
▁ja ck
pi ga
▁Ab inda
رو ع
فا ء
▁الأ س
▁ለማ ስ
▁#S aturday
▁الش ي
▁#B r
sí vel
▁ና ችሁ
▁ز كارة
▁ኢ ን
▁nne wi
▁ass ist
▁lma ghrib
▁kub ona
▁tak ing
▁ን ብረት
▁ያለ በት
▁bia a
▁hhhhh h
▁kare wa
▁አይደለም ።
▁cr oss
eeee eeee
▁عند ها
OT O
▁Re ka
TI ON
▁تب هدي
▁dara jar
▁እር ግ
IR A
▁رو حك
fah amu
▁yah oo
▁att ack
▁rub uta
▁wato to
▁እድ ል
yum v
▁hahah aha
▁rọ ra
ለያ ዩ
▁كيف اش
▁jah ar
▁ይገባ ል
ishy ura
▁እንግ ዲህ
▁ملك نا
▁ወጣ ቶች
▁art ist
▁òwú rọ̀
▁ሰይ ጣን
▁ቋ ንቋ
▁ምና ምን
▁kwar ai
▁Amm an
▁ìwá dìí
itekere zo
▁makom ar
- ẹ
/ ቤት
3 5
9 1
9 l
B B
D M
I t
K o
O P
O gun
R Y
b era
c n
c ka
d r
d w
d da
d ani
e i
g oro
m h
n ow
t ani
u zi
w ia
w ase
Ç ÃO
â n
è yé
ò gùn
ب اد
ح ا
ز ن
ش ف
غ لب
ل ع
ل ال
و مة
ሁ ድ
ህ ም
ል ውና
መ ንግ
ረ ፍ
ሳ ን
ነ ቅ
ኝ ።
ዝ ን
ጉ ን
ጠ ላ
ጭ ት
▁ ዛ
▁ 😷
▁ ____
🤡 🤡
🤦 ‍♂️
▁n asa
▁n iko
▁m all
▁m ada
▁m ane
▁m ashi
▁k b
▁k na
▁k abi
▁d n
▁d ry
▁t uni
▁s amo
in yoruba
▁b ure
▁h uo
▁c en
▁c redit
▁p ò
▁p uto
▁p alav
ak ub
▁A jí
hi ta
ik we
▁ni s
▁j '
▁j é
▁j ud
tt a
tt i
▁an ambra
is dom
▁እ ኩል
ut ata
ab w
os u
▁O bu
▁ọ kwa
▁à wọ̀
▁K ú
▁K ana
▁I rin
▁I kon
▁ba 9i
▁م هم
▁و ف
▁me ta
▁z ar
▁በ ሕ
▁በ ኢ
▁u za
▁to gether
▁wa '
▁wa cce
▁B ari
▁ì dán
▁ì dàgbàsókè
▁se en
▁E gbe
▁T hat
▁ab andi
▁ab bl
▁am aro
bi ,
▁for ce
▁ف ات
za ji
▁W ak
▁Y es
▁ت ض
▁G b
▁al go
▁ከ በ
▁ለ ካ
▁3 am
lo g
▁su as
▁mo ta
sa w
▁mi ya
bo y
نا ش
را ف
▁ተ ሸ
pa pa
▁bi do
ها ش
▁ብ ታ
▁è kó
iri we
▁ọ̀ gá
▁yan sh
▁F A
▁F al
▁us o
▁ሰ ር
aki l
▁kar anta
▁pa ge
▁n' ala
▁أ ب
ون ة
▁za gin
▁- -
▁Ì bà
ري م
▁mat umizi
ld er
▁س ا
▁ት ላ
▁ት ግሬ
▁ق ا
▁ق وة
▁وال ع
mm anu
ikin o
▁tal akan
▁wá ,
▁ው ሃ
▁pr emi
▁#O wo
▁#O mo
▁dis t
▁any time
▁ባ ህር
▁din ki
lá ,
▁In ú
▁pro v
▁Ò jò
▁nig erians
▁لا عب
▁by '
▁min ut
▁min ute
▁ike .
▁ص و
▁ص اح
▁bay yana
▁kh as
▁kh ali
▁jẹ .
▁Ab ba
▁فال مية
▁gw ụrụ
▁እንዲ ሁም
▁yín .
▁ca pa
▁#B oko
▁hak ane
مو ت
▁kwan kw
▁ولا ية
▁wen gine
ተኛ ው
▁mí ,
yè sí
▁#G lori
▁nwe lu
▁kind ly
▁hhhhh hh
▁hal it
iiii ii
▁ndu gu
بر لم
😏😏 😏
▁ኣ ይ
nn nn
▁muk uma
▁happen ed
قد ر
▁az ụ
▁kor ona
ፈል ገው
▁kal la
▁ɔ n
▁❤️ ❤️❤️
▁idi ot
▁#K o
lt ;
vers ity
vers ário
▁ot ito
▁ot utu
▁الغ اشي
▁shu le
▁aque la
▁የበ ለጠ
▁የው ጭ
▁dor mir
▁tura wa
▁فر نسا
▁jah il
▁#eka aaro
▁ዩኒቨ ርስቲ
▁lam arin
▁sẹ́ yìn
▁ይሆን ?
▁obì rin
▁teach er
▁prime iro
▁የለው ም
▁akh ti
200 d
🇩🇿 🇩🇿
▁jú bà
▁comple te
▁አልነ በረ
▁muhi mu
▁:- )
▁Dire ctor
▁fos se
\u 200d
▁bast ard
▁#yo bamoodua
▁3af ak
- m
2 a
B a
C r
D C
G ir
I m
O l
S C
W orship
Z U
e ti
g he
g ens
i gbo
j 0
j ab
l ika
n is
r b
s ẹ́
u da
y it
z ina
ç am
ب ه
ت هم
ج ر
ج م
د ام
ر س
ص ف
ك رة
و ال
ي ك
ራ ም
ር ጊ
ስ ር
ሻ ለ
ቂ ቅ
ቆ ጣ
ባ በ
ባ ታ
ች ላ
ነ ኛ
ከ ታ
ከ ላከያ
ዕ ራ
ያ ል
ያ ዘ
ጅ ም
─ ─
▁ ሎ
▁ 😇
😕 😕
🤤 🤤
er ɛ
er ar
an nan
▁n pe
▁a zi
▁k k
▁k era
▁k uta
▁k uki
▁t ori
▁s his
▁s án
▁s abo
in rin
▁b ere
▁w oo
▁y ini
▁y ashi
▁i là
▁l h
▁e hhh
as te
am ,
on ga
▁p ort
▁na di
▁na ce
▁# f
▁de e
ur um
▁ال كل
▁ya ...
▁ya qara
om bo
it er
▁j uu
uk we
▁da ukan
▁an sa
os pel
▁O ke
▁K I
▁K at
▁K aribu
▁I L
▁I we
▁م ث
▁me d
▁me ter
▁me lu
ia ,
▁በ ባ
▁wa j
▁ma ba
▁ma zi
▁ma gani
▁S iku
ce u
▁B ik
▁B ayan
▁ì lọ
▁se g
la gba
▁ነ ጻ
▁T as
ere zi
▁D od
▁wan n
▁wan ga
▁wan jye
▁am as
▁መ ሸ
▁መ ጽ
▁መ ፍ
▁ب أ
▁ب غي
li o
bi za
▁ò hun
▁ف هم
▁ف فاس
▁is o
ama wa
wan ne
▁ع رف
▁ع اج
▁H aha
▁H hhh
▁ń bẹ
▁ta ci
▁ت اريخ
▁G ẹ́gẹ́
▁G ahunda
▁as ụsụ
all enge
▁ከ ም
▁ከ ብ
▁ከ ን
▁so ja
▁com es
▁ak pọ
ed nesday
▁su ch
▁ch ristmas
ni ya
fi ed
▁ك ما
▁bu l
▁bu ga
▁الم ق
▁ወ ረ
▁bi yan
fe liz
▁he ard
▁yo uth
▁2 8
▁2 9
▁ọ̀ ràn
▁ن ق
▁ن عم
▁የሚ ሰ
▁ሰ ላ
▁ሰ ልፍ
▁gu ess
ire .
lh os
▁ra z
abi li
▁co z
▁sun fi
▁አን ዳን
▁mm ụọ
rọ̀ lẹ́
che d
▁gba jú
ind wa
▁#A frican
▁"""""""" @user
▁Ò we
▁sha a
▁ik in
▁ny ingi
▁#yoruba culture
▁fe w
▁q a
▁Ka ga
▁#N i
▁ص وت
▁out ras
▁orí kì
▁ሳ ያ
▁ነው። '
▁bay ani
▁kó kó
tí tọ́
رو ف
▁በአ ዲስ
▁عن دي
▁er in
▁ir ọ́
lọ pọ̀
▁hak kin
▁الو ح
▁cor po
▁‍️ ‍️
▁mẹ́ wàá
gbó mọ̀ṣọ́
▁6 0
▁hhhhh hhh
lù ú
▁تع رف
▁dyal o
ES US
😡😡 😡
fer no
▁hu du
▁የሰ ላም
▁Est á
▁Re al
▁0 80
▁yas aka
▁ge tting
▁ins tagram
▁zo te
fà àní
▁ዋ ና
pẹ tẹ
▁ቁ ጭ
▁አያ ስ
▁የለም ።
▁ሆነ ው
▁ሥ ር
▁kuto a
وق ف
▁ሌላ ው
▁Pr es
▁n'e lu
▁Ser á
▁ድን ጋይ
▁Pro f
نس ان
▁مد ينة
▁pray er
🚶🚶 🚶
▁enu gu
▁kure ba
▁kid na
▁اك بر
▁oyin bo
PL F
▁ትክ ክል
▁حس اب
▁ẹgbẹ̀ rún
▁#Le arn
' n
- in
. 5
4 4
6 2
7 6
A n
B Q
B W
C L
D j
F o
G M
G R
H T
H aram
J e
L agos
M E
P ro
P hone
R ep
T F
T AN
X O
Y O
Y U
f on
k ye
k oro
n di
p ɛ
s ọ̀
t se
u je
w r
x e
z ai
á .
̟ n
ئ ا
ئ ي
ا كل
ج ز
ح ش
س ات
ص لاح
و كرانيا
ለ የ
ለ ደ
ለ ጥ
ላ ለም
ረ ሳ
ር ሱ
ሯ ል
ስ ቴር
ቡ ት
ባ ሉ
ቤ ቱ
ብ ስ
ተ ኝነት
ነ ህ
ና ንት
ኝ ም
ከ ን
ኮ ኖ
ው ቃ
የ ም
ድ ያ
ጉ ም
ụ ta
▁ ሉ
▁ 💀
▁ 😫
▁ 🙅
▁ ǹkan
🏄 🌴
😛 😛
😱 😱
▁n ikan
▁m ali
▁m ess
▁k ho
▁k ra
▁k ene
▁k uro
▁d z
▁d àn
▁t wit
▁t uran
▁b ase
▁b ush
▁b ishi
▁o gbe
▁o il
▁g wu
▁g ru
▁h ass
▁h asi
▁l ù
▁l or
un ua
▁c é
▁p ín
▁p ity
▁na ba
▁A dú
▁A qui
▁A frika
▁r iki
▁ال رو
▁ال دو
ik ẹ́ni
es so
▁ya ?
▁ya bo
om u
▁j ina
▁አ ሕ
▁N ku
▁N yam
▁M O
▁M ko
▁M ina
ye ho
os ha
▁O zo
▁O wó
ou f
▁ba je
ti ma
▁u ch
▁B ay
▁ì gbẹ́
ch ara
▁mu ba
▁mu bi
▁mu hammad
▁T ou
▁be hind
ra f
▁D ai
▁D is
▁D kt
▁መ ቅ
▁መ ገር
ig er
ig he
▁ب كل
▁R ashin
▁gi !
wan ci
▁W o
▁W il
▁ع ل
▁H u
▁tí ì
▁G w
▁as ị
▁al aye
▁al fah
▁ከ ህ
▁ይ ባ
▁U ri
▁so jo
▁ga g
▁' #
lu e
▁mi ji
bo l
▁L et
▁ki f
▁ያ ሉት
▁im ere
▁ተ ዋ
▁la fia
ze .
▁الم هم
▁sa ad
▁ወ ላ
▁bi z
▁bi yar
▁ብ ን
▁lá í
▁he juru
▁è wo
▁li verpool
ul pit
▁ም ኞ
▁ọ̀ gẹ̀dẹ̀
▁fa ult
▁ن تي
▁ሰ ም
▁ح سب
aki wa
▁kar yar
ነት ና
▁( 2
▁mana ge
▁ag r
▁Ì p
▁አይ መስ
▁mut unci
▁ش ف
▁ት ግል
▁po d
▁po vo
▁vi ew
▁har kar
▁ce ll
▁الح ال
▁mas ter
▁ህ ገ
▁Ni ce
▁Ni fa
▁x amu
▁Ò gùn
▁Ò rìṣà
▁duk i
▁lọ́ lá
▁ምን ድነው
▁hi lo
▁ቀ ላል
lọ́ wọ́
▁لي ك
▁ụ lọ
ant s
▁ዘ ረኛ
▁ካ ላ
▁ẹni .
▁ጠ ላ
▁ጠ ይ
▁#R esurrection
▁sm h
▁#S o
fun zi
▁m3 aha
▁zan ce
▁ጉ ባ
▁kara wa
▁res ult
▁hak ura
▁️ ️
▁suke yi
▁Um unsi
▁ሆ ና
▁ɛ nyɛ
201 4
ያን ስ
▁ን ፁ
ዛሬ ው
▁rẹ pẹtẹ
▁ጀ ም
▁#W orld
كر ون
▁comp lain
▁kom i
▁mah ai
▁mah mud
▁aa go
▁lik es
▁ìt ẹ́
▁gbọ́ dọ̀
▁10 .
▁ìyá a
ough ts
▁ዛሬ ም
▁yas amu
▁pres ente
اري و
ces so
▁يع ني
▁mor te
ለች ።
▁stu ff
▁tso ho
▁Ub undi
▁Ag ora
▁ot ú
▁Do le
▁የሆነ ው
▁trans lation
▁🤷 ‍♂️
▁rè é
▁#yorub al
▁amba o
▁does nt
سط ين
▁air time
▁muda ce
pat ikana
Re vival
▁mulh eres
▁ምስ ኪ
▁ram adan
▁هد ه
sù lù
Ab inibi
▁👏👏 👏
▁yarin ya
▁pró x
▁sme ll
▁ለው ጥ
▁sta ge
▁àtà tà
▁ende lea
▁እስካ ሁን
▁#nigerian wedding
wok em
▁gban gba
tanda o
▁influ en
▁Dod oma
- ò
G od
L O
M I
S O
S unday
b ro
b ru
c ate
d ra
e o
f ì
g uri
h ụ
j j
k p
k er
k am
k he
k án
l ou
l ta
m b
m r
m ing
m chi
q in
r ation
y ire
y imi
á rá
í vel
ú rù
ث ير
س كر
م م
م ار
ن دو
ه يد
ረ ተ
ሪ ት
ቀ ስ
ባ ችን
ች ሉ
ነ ስ
ነ ታቸው
ካ ል
ካ ባቢ
ወ ጡ
ዉ ን
ያ ዙ
ዬ ን
ይ ም
ጋ ዊ
ፓ ርቲ
▁ ሻ
▁ ዴ
▁ 🤭
😣 😣
🙌 🏽
an y
▁n h
▁m ik
▁m ash
▁m gba
▁a ro
▁k t
▁k isa
▁k ush
▁d ẹ́
▁d ent
▁b ye
▁b iki
▁b ran
▁b adan
▁b nt
▁b ukwa
▁w ll
▁o ho
▁o cc
▁y ọ̀
▁h en
▁h wɛ
▁l ọ̀
▁l ashe
or wa
▁e fu
am en
▁c ir
▁c ool
▁c enas
▁p ɛ
▁p ee
▁p uta
▁A gb
▁A yé
ba za
▁r ess
ad dan
ir imo
es se
▁አ ...
▁N as
▁N uko
▁N wata
▁እ ...
▁M iss
os ed
▁O F
▁O ut
▁O dù
▁ọ chị
▁à wò
▁I h
▁ba e
▁ba ghi
▁م غاربة
▁በ ላ
▁in ferno
ara ba
di do
ga za
▁to t
▁S allah
▁mu d
▁E de
▁T w
ta wa
▁be b
▁ab and
▁go at
▁am ahirwe
▁ب ـ
▁ل ها
▁gb ò
bi l
▁for gi
▁W ah
▁ع ش
▁ع بد
▁di fí
▁do is
▁as irin
▁al u
▁al ka
▁U M
ci ence
ci onal
▁fi li
▁ي ط
▁lo cation
▁3 t
▁ga zie
ani .
ani c
▁su lh
▁mo tiv
▁kan ka
fi cial
▁' ኢትዮጵያ
▁es cre
▁ያ ን
▁ያ ንተ
▁la fi
▁bu lu
ow n
▁الم ص
▁en gine
▁ወ ሳ
▁bi ll
▁lá lẹ́
gh ari
gh eri
▁li llahi
▁é .
uri ya
▁ọ̀ sán
▁የሚ ገር
▁የሚ ሉት
▁us a
▁À jà
▁it 's
jú mọ́
▁n' ib
▁#I se
▁#I btissamTiskat
yin shi
▁or ó
▁Ì jọba
▁at ọ
▁ش فت
ug ust
▁han ze
ما عة
▁á gua
▁mm anya
che zo
▁ج ميع
▁الع امة
▁ai yé
▁mas k
▁ባ ንዳ
▁ህ መም
▁V ou
▁ac iki
▁ان ه
▁cho ke
▁Ha jiya
▁: D
▁ny ine
▁ድ ንግ
▁ምን ድን
▁لا زم
sh in
▁was ha
▁ex a
▁ire .
▁god s
▁7 .
▁ụ dị
▁ụ nụ
▁ص باح
▁tr ad
▁Wan an
▁ub usa
▁car ro
▁را كي
▁kh ass
▁ja wo
pi c
🙄🙄 🙄🙄
▁ilé -
aaaa aa
▁girl friend
rà ,
لو ك
▁sab uwa
▁là wọn
▁እንዳ ል
በረ ሰብ
▁الق ناة
▁lé tí
▁| |
▁ን ጉ
▁basu da
▁de3 n
▁iy án
itu de
قل ال
▁lm ghrib
▁ፖ ሊስ
▁አስተ ዳደር
▁He hehe
▁تب ارك
▁guk oresha
▁shar ri
▁mum mun
▁quer em
kọ̀ wé
▁ìb ù
▁àì kú
▁Sh ugaban
▁Nn aa
cr et
خر ى
يي يي
▁char ge
▁ኃ ላፊ
▁ድን ቅ
▁vol ta
▁bon ito
▁Sar kin
صب ح
▁ملي ون
▁cur se
▁zuci yar
▁star ted
pat ia
▁bghi ti
▁mutun cin
🙏🏻 🙏🏻
ናገ ሩ
▁saba bu
▁رج ال
▁hy pe
▁compr ar
▁ìrò yìn
.A .
▁ሚሊ ዮን
fọ̀n já
▁ትው ልድ
gbati won
isit iri
▁fle x
▁bagh in
▁المنت خب
▁hash tag
▁wel come
kop ɔn
mmanu el
sùlù mí
, Allah
- 0
. 😂
5 5
6 9
9 3
9 at
B i
B ack
G r
J O
L M
T weet
Y P
` `
a z
b ik
b ou
c ike
c ted
f b
j ik
j ito
l ab
m es
p ire
s é
t án
z n
á ,
á rios
ú l
ج د
ز مة
ظ ور
ك '
ك س
ሃ ለሁ
ሉ ኝ
ም ም
ረ ገ
ሰ በ
ስ ማ
በ ለ
በ ሻ
ቷ ል።
ና ፊ
ዋ ይ
ው ቅም
ዝ ቡ
ዮ ርጊ
ደ ሩ
ደ ድ
ፈ ና
ፊ ያ
’ t
▁ 🎂
▁ 😞
▁ 🇷🇼
✍ ️
🏼 ‍♀️
▁n é
▁n iki
▁m ale
▁k ed
▁k iran
▁k inga
▁d s
▁d ouble
▁t ona
▁t ail
▁s isi
▁b esti
▁w ul
▁w iki
▁o yo
▁o thers
▁y enye
▁y rs
▁i w
▁g ul
▁g ather
▁h uku
▁l w
▁l ou
▁f er
▁e jò
am akon
▁c ost
▁c orn
on de
▁p ọn
en ça
▁A B
▁A S
ba a
▁r ate
▁r onaldo
▁de al
▁de ad
▁de les
▁ال ظ
▁ال ار
um an
es ema
it an
▁j isie
▁የ ሕ
tt o
▁an wụ
▁እ ሱን
▁M er
▁M ats
ye d
▁O dun
▁O werri
ing ira
▁à làáfíà
oo f
▁K AN
▁I j
▁و انت
ti co
▁z at
▁u jumbe
ara ,
ara .
▁wa o
▁wa wa
▁S ee
▁S oma
ka aro
▁E la
▁T aa
▁ab en
ho um
ra zil
▁am ana
▁R ab
▁R adio
▁ل إ
▁ل نا
▁ل اب
▁gb ọ́n
▁gb akwa
bi le
▁C c
▁C ar
▁C OVID
▁W ọn
▁H ow
▁H ii
▁H ali
▁qu is
▁qu eria
▁di 3
▁Y ah
▁G ir
▁al guns
▁ይ መጣ
▁3 3
▁3 00
▁ga in
▁of in
lo ,
ko ,
▁ch no
▁mi x
▁ki ds
▁ያ ኔ
▁la p
▁P E
▁P ol
gi e
gi je
▁sh akar
du guri
▁bi bi
▁shi ri
▁shi gar
▁he y
▁è re
▁è rè
▁J isie
ul um
ne y
▁é ,
▁le kwa
▁ም ሽ
▁ም ድር
▁ọ̀ tọ̀
▁F C
▁F u
▁F atan
▁F il
uka .
▁የሚ ባለው
▁kwa d
ub ú
ub iri
▁bo x
ura ,
jú ,
▁un f
▁pa p
▁con ver
▁أ ع
▁mai or
▁za ayi
▁ag ụ
ري ك
▁Ch an
▁ግ ፍ
▁ግ ልፅ
▁nd ia
▁ما علابالي
يا ء
ول ى
▁ooo .
▁ል ደቱ
▁د خل
▁እንደ ሚያ
▁እንደ ማይ
▁ج ات
aku la
▁jẹ́ ,
▁ib y
▁ib yiza
▁An y
▁gbogbo .
▁Ni dai
▁Na we
han ks
▁Ò ní
▁je je
▁men e
▁Z amu
▁ክ ርስቶስ
▁ቀ ር
▁ቀ ይ
▁ob una
▁mar k
▁ro und
▁min s
amb ana
▁even ing
▁وا ح
▁Al '
▁nwa anyị
▁Ọ̀ ṣun
▁ụ kwụ
▁yak ar
▁yak uma
▁አለ ማ
ff ff
▁را هي
كو م
▁os iso
فا ف
ahah ahah
▁per f
▁#S unday
▁aba cha
▁kum u
dade .
▁ط اح
▁zan go
▁ala fia
▁bur na
▁sab em
▁የሚያ ደር
▁hak una
شي ش
▁ሁሉ ንም
▁Ar re
▁nta cyo
ድር ግ
▁play ers
▁nem i
▁እንዳ ት
asan ga
▁tak un
con om
201 3
▁ديال و
▁አንድ ነት
▁Es ta
▁:) )
▁8 0
ende leo
wer u
▁mp ya
▁ጎ ንደር
▁el se
▁bless ing
iso ban
▁dr ug
▁አስተ ያየት
eng ene
▁اح ت
▁hausa wa
rr rr
▁ነዉ ።
▁ìb ọn
▁baku da
▁Bar ka
▁cer to
▁kit chen
▁rá ń
▁ቤተ ሰብ
▁ìyà tọ̀
▁ካል ሆነ
▁ስር ዓት
▁buk atar
▁nes te
▁deix a
▁It 's
▁gos to
▁ልዩ ነት
▁rece ive
▁iz ina
▁rap ha
ዘጋ ጀ
▁መር ዝ
▁ሚኒ ስትር
▁#a frican
▁Lagos ,
▁Bab ban
▁ọ̀pọ̀ lọpọ̀
▁ìgbé yàwó
▁Elé dùmarè
▁Nt abwo
▁Bá wo
▁wl ad
▁stat us
▁البرلم اني
▁hukun cin
▁#Ede Abinibi
🇦🇹🇦🇹 🇦🇹🇦🇹
▁bgh ina
▁الدا خلية
▁دا ير
▁Mul her
▁እውነ ተኛ
▁cre ate
▁ለማን ኛውም
▁Ent ão
▁abubu wan
faham isha
▁spa ce
▁#Ha ppy
▁opolo po
▁Ekw ensu
▁akwụ kwọ
🇲🇦 🇲🇦
▁siy asar
▁ኮሚ ቴ
▁Translation :
▁#ad ura
▁ukur asa
▁መልዕ ክት
▁#Alaye Oro
abw iriza
▁raz ão
▁gru po
▁ìbù kún
, o
- un
. ም
3 1
3 b
6 G
7 2
7 t
? 😂
G ospel
H S
J L
J o
K Q
M usic
N D
N P
N V
P M
R M
T D
T a
c g
c uru
d m
d ak
f ir
g ada
h ani
i h
j ụ
j ima
k or
k ya
m 3
m it
m ake
m ìí
n ight
p ada
s y
s sa
v an
v ate
w h
y r
y ine
à ,
à à
ó ria
ئ ية
ا في
ب ار
ب لي
ت نا
ج زائر
د ع
ش عب
ط ين
ሄ ዱ
ህ አዴግ
ሊ ና
ል ሽ
ሳ ተ
ሳ ኔ
ስ ቡ
ቀ ም
ቂ ት
ቃ ሉ
በ ሳ
ቴ ን
ቺ ን
ዘ ር
ደ በ
ጡ ን
ጣ ይ
ጣ ጫ
ጨ ፈ
ጨ ማሪ
ፍ ራ
” .
▁ ƴ
▁ ♬
🏻 ‍♀️
🙂 🙂
▁n to
▁m àá
▁a we
▁a zo
▁d è
▁d ame
▁s ise
▁w asi
▁o hi
▁i gu
▁i ban
▁g reen
▁h ù
▁h ara
▁l enu
▁f ẹ̀
▁e w
▁e wi
▁e qui
am ban
am asi
on .
en sa
▁na w
▁na ho
▁A ya
▁A gu
▁A final
▁# mo
▁# id
▁# wor
▁r at
ur ka
▁ال ات
es on
▁ya !
it or
▁ni sh
▁j or
▁j di
▁የ ሠ
▁የ ኦ
▁የ ዜ
▁የ ጠ
▁የ ሆኑ
▁የ ጦር
▁አ ራ
▁አ ዎ
▁አ የ
▁አ ገልግ
▁da alụ
▁an aaa
▁እ ግ
▁እ ግዚ
▁M imi
▁M waramutse
ab ia
ye wa
▁O se
▁ọ sọ
▁à jò
▁à bọ̀
oo lu
▁K ing
▁م غ
▁م ه
em s
em era
▁በ ኃ
im os
▁u w
▁u zi
▁in n
▁in ason
▁on yame
▁ma w
▁B ak
▁B asu
▁B anza
▁ì wò
▁ì sàlẹ̀
▁ku vuga
qu est
▁v an
▁v ye
▁E wu
▁E je
▁E che
▁T á
▁T so
yi g
▁ní bí
ere ye
▁we h
▁we ak
▁go ld
ri es
▁መ ዋ
▁መ ኖር
▁መ ግባ
▁መ ሆና
▁ب نا
▁ل كل
ro om
▁for am
▁ṣ eré
go .
go de
go te
▁ò ó
▁is sue
▁W at
▁H aram
▁ẹ lò
▁ت ط
▁al ah
▁ከ ሁ
▁ከ ት
▁ከ ዛ
▁ይ ስጥ
▁so zin
▁so koto
▁lo yal
asa ba
▁kan mu
so l
so ci
را حة
▁um ukobwa
▁P lease
▁P ls
gi yar
▁الم و
▁الم ملكة
▁en wero
ja .
▁ወ ል
▁ወ ገን
▁ወ ለጋ
▁bi b
▁bi y
▁1 000
▁lá bẹ́
ali za
▁è ̟
▁😂 💔
▁yo utube
▁si e
▁sí ,
▁ن خ
chi ri
▁ማ የት
▁À ṣà
▁ሰ ዉ
lẹ̀ kẹ̀
▁bo ttle
▁kw am
▁kw enu
kan o
▁ar adu
▁man o
eri c
ate ful
▁n' anya
▁con fi
▁ẹ̀ gbá
▁ag ha
▁at ụ
▁at ra
ome y
war in
war ds
eg wu
▁af inal
▁po dem
▁aka .
▁aka unti
▁vi be
▁nan ka
يا ة
▁د ير
▁د ائ
▁kas ashen
unt os
▁ke ke
▁kun yi
▁x ok
▁won 't
aro c
ሆን ም
\n \n
▁gan o
▁kenan ,
▁ex tra
▁bar mu
▁bar celona
▁ro b
▁ro ck
▁የአ ብይ
▁uk untu
▁bro ken
ight y
ss s
mọ́ dún
▁ụ tọ
▁kya utata
ber t
▁De pois
▁الس ل
▁الس لام
▁إ لي
▁ser ve
▁ja gun
▁oma ,
▁الج ديد
▁gh at
fun ga
▁Ko h
hun u
cho fo
▁mọ̀ .
▁ele ction
▁الف ي
▁ter min
▁par ar
▁كل شي
vo id
▁መል ክ
▁nta go
▁cor ru
▁play er
▁look s
dd s
▁الق انون
▁b3 y3
▁ፈ ል
pin di
▁Nne wi
tọ̀ hún
ግራ ም
▁8 .
اص ة
اص مة
ele wa
▁Ki la
eeee e
▁بلا دي
▁ret urn
▁የነ በሩ
▁ug ly
▁gar ri
▁after no
US A
▁.... ..
ልም ና
▁يع طي
▁shir me
😅😅 😅
▁mer da
tern ational
▁بي ه
▁#D C
▁feel ing
▁ዶ ክተር
▁tare he
▁Nn ukwu
▁مس كين
▁At iku
▁Ụ tụtụ
llo f
▁Sun day
▁eri ca
▁ste al
▁#yorub an
▁ኃ ጢ
▁ካል ተ
▁tas te
▁ẹyẹ lé
▁mz yan
▁Você s
▁ملي ار
▁Hahah aha
▁አህ መዲን
ــــ ــــ
▁ɗ a
▁rece ber
▁ሚኒ ስቴር
▁Tuna omba
▁nj ia
▁Mus ul
▁ogb eni
bara ga
▁Lma o
▁هههههه ه
fatan ye
▁trabal ho
▁lem br
▁#Isese lagba
asho p
🙌🏾 🙌🏾
▁ozu gbo
▁أك ثر
▁ትክ ክ
▁Nig er
راك ش
▁New s
▁pub lic
▁Ed jo
▁Kigali ,
▁Nde wo
▁champi ons
▁ዙ ሪያ
▁ሜ ዳ
▁መሳ ሪያ
فريق يا
▁ድጋ ፍ
▁Gom ina
▁Mes mo
▁clothe s
▁incre ase
▁#Boko Haram
▁shakar ashop
▁ماعلابالي ش
▁xok we
- án
5 2
6 3
8 5
A T
B l
D F
D un
I B
K i
N N
Q Z
Q u
R o
U n
W i
b on
b na
b onye
c iki
h ou
j as
j oo
k ɔ
k áà
l 9
l aya
o f
r t
u chi
y l
y ing
z ani
z ikwa
à jò
á fíà
ã os
ج ار
ج مل
ر ية
ز ق
ሊ ክ
ም ባ
ሥ ራ
ሳ ቸውን
ቆ ር
ቸ ኳ
ኖ ራ
ከ ፋ
ው ።
ጥ ፋት
ፍ ር
ፍ ን
ፍ ሪካ
ፍ ረስ
▁ ⚽
✈ ️
👨 ‍
😳 😳
🙆 ‍♂️
🙌 🏿
🚶 ‍♀️
🤷 🏽‍♂️
🤸 🤸
▁n om
▁n iku
▁d ub
▁t ù
▁t ọ
▁t ree
▁t êm
▁s ú
▁s ala
▁s and
in ha
▁b é
▁b is
▁w ose
▁o ta
▁o bo
▁o je
▁o ore
▁o port
▁y d
▁y al
▁y it
▁g er
▁h wa
▁h bi
▁l ado
▁l oud
▁f et
▁f adar
or ry
as se
▁c ute
▁p '
▁p ure
at ia
▁A e
▁A yo
▁# or
▁# ka
▁r àn
▁r asu
▁de t
ai a
ll ll
ik h
ik iri
it es
it ch
▁የ ጋ
▁የ ዚህ
▁da vido
▁an n
is ike
▁N ara
▁N yuma
▁N ukuri
▁እ ይ
ut er
ut ima
▁M I
ẹ̀ .
▁O le
▁O mi
▁à yí
▁à dá
▁à gbé
oo ba
▁K h
▁K ab
▁I M
▁I sa
▁I pinle
▁و انا
▁u bi
▁u gwu
et er
▁to ast
▁ì gbá
▁ì rọ̀lẹ́
ch at
la gbà
▁ku lle
▁E v
▁E ku
▁ní ,
?? '
ere ,
ere ze
▁D ay
▁D ia
▁am b
▁am p
▁am fanin
▁መ ሠ
zi ,
▁gi ft
▁C ON
▁C idade
ve is
▁W /
ata ,
ata .
▁Y asa
▁ẹ kùn
▁do ctor
▁ت د
▁ይ ፈ
▁fi ye
▁ي ص
ge de
▁ha ving
ed ay
lo ve
▁mo him
▁re cl
▁mi lk
▁L ondon
▁ተ ል
▁ተ ሳ
▁la pia
▁الم ؤ
▁sa ukin
▁ብ ል
▁ብ ሔር
▁ብ ሔራዊ
rí kà
are i
▁pe c
▁le è
▁say a
▁ló òótọ́
▁የሚ ታ
▁ሰ ራ
fa ch
▁bí mọ
▁pa gar
▁con tigo
رب ة
▁እና መሰ
▁ag wo
▁Ì lọ
▁ban ye
▁አይ ገባ
▁sun ce
ug hi
▁po verty
▁est ran
▁vi deos
▁nd ab
▁nan jye
▁fit ar
▁د و
▁د عم
▁ji qan
▁ው ጪ
▁but e
▁ib ù
▁الع ربي
▁anyi .
cha el
allah u
▁ac ab
▁pro p
uni dade
▁lọ́ rùn
▁wor st
▁ክ ት
▁q an
▁gan gan
▁ex c
▁ex ist
▁ire ,
▁لي هم
▁#N aija
▁Al khairi
▁yake yi
▁nwa anyi
rú urú
▁pi cha
▁orí ṣi
▁ዘ ፈን
▁ሀ ብት
▁bay na
▁الا جتما
▁os ise
▁sin to
▁بال توفيق
▁ጠ /ሚ
▁#R BA
▁ut u
▁fu i
▁በመ ሆኑ
▁ibi bazo
▁Igbo .
IN A
▁ፍ ት
▁dé ,
▁dé édé
لو س
▁abin cin
▁كل مة
▁Nwan nem
▁magan an
▁follow ing
▁ol è
▁ol ori
▁Me chie
ishi je
▁እንዳ ንተ
▁has ke
▁work ing
▁call ing
ER IA
▁ilẹ̀ ẹ
ail able
▁well a
▁ach ọ
▁bre ast
▁ray ukan
عم ال
▁ns ị
▁kor aaa
▁الك َ
▁መን ገ
▁عند هم
ukun do
هو د
▁shugaban nin
👏👏 👏
▁አስተ ሳሰብ
▁Man chester
min ira
▁#K wi
▁tamba yi
▁https://t.co/H t
▁àt ẹ́
▁ጭ ምር
▁kuto kana
UK WU
▁mt che
cl usi
▁ሴ ቶች
▁mean ing
▁ኃ ይ
▁ፀ ረ
rid ge
pend imento
lat ed
▁dì de
▁ilai hir
▁dy ali
▁ተከ ታ
▁dra w
▁nes se
▁flo g
ishe d
ṣè yí
▁inv est
was ia
▁masi far
▁ani versário
▁maki ya
▁bn ad
▁ev ent
emb ro
▁المس ؤول
▁dim kpa
▁اك ثر
ubw ire
▁😹😹 😹😹
▁rela x
▁العرب ية
ec ure
cti ve
▁jir gin
▁opp ortun
▁እንድ ት
▁hukun ci
urik ira
▁umur iro
▁#Global SuperWord
▁ችግ ሩ
▁import ant
▁አስፈ ላጊ
▁الأح رار
▁አቋ ም
▁jer sey
▁Hom em
▁afẹ́ fẹ́
▁ፍላ ጎት
Gir ls
▁عاج ل
▁difí cil
úl àní
ቸኳ ይ
, A
A p
B u
D L
E m
F i
H Q
M u
P R
S MA
S ain
T Y
T e
b k
b ɔ
b ri
c ana
d 7
f ast
h uri
i li
j al
k ah
k ha
k ita
k wanu
l z
l uk
l ami
l ord
m d
m ẹ́
n àá
t ah
t ari
v and
w J
w ha
y F
z ak
z ed
z ambique
é jì
ò duà
ǹ gó
ج ن
ذ ب
ط اع
ل ية
ه ت
መ ቀ
ረ ቱ
ሰ ቦ
ሴ ን
ካ ታ
ወ ት
ወ ጥ
ዝ ም
ጉ ል
ጋ ና
ፌ ሰር
፣ የ
▁ ሬ
▁ زا
▁ ዳን
✊ ✊
😝 😝
🤦 🏾‍♂️
▁n wu
▁m ì
▁m ke
▁m ura
▁a 7
▁a vi
▁a polo
▁a head
▁k utu
▁k esho
▁d um
▁d ún
▁t is
▁t uri
▁s è
▁s ù
in ta
in ts
▁b os
▁b bu
▁b ale
▁w tf
▁o te
▁o orun
▁y án
▁y kh
▁i a
▁g ùn
▁h ou
▁h oo
▁h uru
▁h abi
▁l antar
▁l arab
▁f y
▁f ò
▁f ata
▁f ala
or ge
▁e wo
▁c um
▁c ig
at ara
at se
ak es
ak ira
al imu
▁A j
▁A si
▁A iki
ba do
ba ck
▁# lagos
ah ari
▁r ashi
▁de ath
ai re
ik ire
▁ni gba
▁ni jeria
▁j om
▁da gas
tt en
is ti
▁N un
▁N ii
▁እ ሁድ
▁M AS
▁O pe
▁ọ h
▁K um
▁K ọ́
▁I kú
▁ba 3
▁م ر
ha gar
▁no ite
we en
▁በ ሞ
▁በ ዛ
im ar
▁in ayo
▁on o
▁wa 'in
ce ,
▁ì ràn
▁ì bàdàn
▁ku li
▁mu ce
ka ce
▁ነ ች
▁E kwu
▁be ar
▁be come
yi wa
yi ze
▁ní lò
▁ab r
▁D u
ri cs
▁ب ز
▁ب ق
▁ب دا
li za
bi li
▁ko ja
▁ò rò
▁ف وق
ve z
▁W owe
▁Y asin
ان شي
▁ń ṣe
▁ta fiya
▁do ka
▁ت غ
▁G ị
▁G ar
▁G wa
▁as u
▁as iko
▁al o
▁al bar
▁ይ ሻ
▁ይ ገ
▁U ki
ki ,
▁ي لعب
▁ለ ወ
▁ha fi
▁ak ara
▁3 ny3
!! !!!
▁su ,
▁ch ale
▁re ka
je bu
▁ki l
▁ki ba
را ب
ati c
▁bu ll
▁bi ara
ها ب
ين ,
▁ስ ነ
si der
ali wa
▁è yàn
▁J in
▁J ESUS
mọ dé
pp i
ala .
▁ም ግብ
▁sí bẹ̀
ات ب
▁ن دير
▁F á
▁F ran
me di
▁ad an
▁ح ل
▁it an
▁gu ard
▁tó ó
▁ẹ̀ jẹ̀
lh as
▁za 'ayi
▁On itsha
▁mat eri
▁ግ ብር
▁ah ye
▁co ver
▁ደ ብ
▁mun san
▁bab bar
▁po des
▁aka ce
▁kam p
▁vi vo
▁vi zuri
😂😂😂😂 😂😂😂
▁د خ
▁እንደ ነ
▁gba dun
وا حي
▁ج د
▁الح كم
▁#O minira
▁pl ate
▁ባ ህ
▁ጥ ፋ
▁ጥ ላቻ
ru fai
▁yayi wa
▁Ò kú
▁kn n
▁ny sc
▁hi de
▁hi vyo
▁kenan ?
▁مع اه
▁ap c
▁لل ع
▁che st
▁7 it
هههه هههه
▁አስ መ
▁አለ ች
kw ara
▁را س
▁bl adi
ደር ስ
▁ama zing
▁😭😭 😭😭😭
:: '
▁الج زائري
▁mal an
▁ስለ ሚ
▁علي ا
ምን ም
▁des erve
▁ala afia
ank ali
▁tun ani
▁bur n
▁الف ساد
▁dé lé
صح اب
▁Ku di
▁የሚያ ሳ
▁bat un
▁ولا د
▁الق د
201 6
▁ጀ በል
▁ዓ .ም
▁😎 😎
▁isso .
▁kur wanya
▁sc atter
😭😭😭😭 😭
▁fri day
▁Ọlọ́run .
________ ______
▁az umin
▁ìṣ è
▁ìṣ ò
▁zi e
▁با قي
▁Sa u
▁rere .
▁dr ama
▁ins ult
▁😊 😊
▁face book
esh ya
▁እር ሱ
▁mor re
▁ìp è
▁👍 👍
▁ké ré
▁mutu war
▁sílẹ̀ ,
▁tamba yar
▁رو سيا
▁imp os
ክል ሉ
▁#Igbo TwitterCommunity
نو ات
▁Lo ka
▁Lo ve
▁መሪ ዎች
▁sum ma
▁rab on
▁duba i
▁#t he
▁att ention
▁bet y
ارك ة
▁kug irango
▁gal t
▁በር ታ
🙌🙌 🙌
▁cu z
onge za
▁الذ اتي
▁uli yo
▁Che lsea
ungu za
▁يب ارك
▁aju ju
▁ubwo ba
▁b' ó
▁pú b
lly wood
▁اي ه
▁#a frica
▁afri can
▁ሙስሊ ሞች
▁እራ ሱ
▁ፋ ኖ
fany ika
▁congr ats
كَ ود
▁̊ °
▁ton ight
▁nen hum
▁comm on
▁غاض تني
▁ìl ànà
▁custom er
▁#Ede Yoruba
💯💯💯💯 💯💯💯💯
▁cabe lo
▁òò ṣà
▁nsu o
▁mit anda
▁pun ish
▁#No More
▁rel igi
▁wiz kid
▁ዓመ ታት
▁ẹn ikẹ́ni
▁experi ence
OfThe Sain
▁አስታወ ቀ
ensi ve
▁ener gy
▁سيد نا
▁chick en
▁àtún ṣe
▁تبهدي لة
erezi da
ኮኖ ሚ
▁Gw amn
▁#Resurrection OfTheSain
▁occ ur
▁ወሳ ኝ
ዮርጊ ስ
▁besti e
▁wul akan
▁perf ume
▁ráń ṣẹ́
▁afterno on
▁#yoruban imi
SMA FM
▁#ResurrectionOfTheSain ts
' .
- I
3 ti
5 9
6 R
9 8
B F
B G
E aster
K Z
L L
P ulpit
V O
X 8
a zi
b un
b or
d ing
f c
f ín
f est
g án
i ci
i dan
j d
j yan
k X
m ad
n ya
n aija
o jú
p ing
t ou
u wan
v p
x 2
z ee
z aho
À N
ò ṣà
ب يل
ث ة
ض ا
غ م
و نا
ለ ታ
ሊ ት
ሙ ያ
ማ ግ
ረ ኝነት
ሪ ፍ
ር ቅ
ሳ ችን
ሸ ነፍ
ቀ ኑ
ቃ ጠ
ባ ችሁ
ቦ ት
ታ ችንን
ን ክ
ኖ ረ
ኞ ችን
ካ ን
ክ ሲ
ው ቀት
ዛ ዝ
ይ ን
ዲ ዮ
ዲ ሞክራሲ
ዳ ሴ
ዴ ፓ
ድ ቅ
ጀ ራ
▁ ቄ
▁ ቶ
▁ ፥
▁ ‹
▁ 🕺
▁ 🥲
▁ ♥️
⠀ ⠀
🙈 🙈
▁n 9
▁n ina
▁m g
▁m ig
▁m eme
▁m toto
▁a pe
▁k os
▁d ig
▁d alu
▁d amn
▁t asa
▁s at
▁s qu
▁s ati
in ci
▁b ike
▁b ita
▁b ene
▁b tissam
ar k
ar es
▁o ka
▁o ra
▁i jo
▁g amu
▁g atan
▁g ẹ̀ẹ́sì
▁h y3
▁h unu
▁l gh
un ch
▁e fi
▁e tu
as ị
am we
am ke
am ini
en za
al .
al at
al ha
▁na yo
▁A )
▁A bo
▁r ik
▁r abo
▁de ep
ay yum
hi t
ir ika
▁ni we
▁አ ደራ
▁አ ዲሱ
▁an fani
▁እ ብ
da .
▁O dò
▁à yà
▁à mú
▁à gbọn
▁à lejò
ẹ́ rẹ́
▁م ؤ
▁و ث
▁و ض
▁و تح
ti ca
we li
we ek
▁z uru
▁በ ጋራ
re l
re ga
▁on tem
ọ̀ ni
▁S ab
ce d
▁B anda
▁ì wú
ch ki
▁v end
▁ab ụọ
ho ta
▁go di
▁am erica
de i
▁መ መ
▁መ ች
▁መ ገ
▁ب إ
▁ب و
ro ve
▁ò pin
▁C e
▁C or
▁C HA
▁ع ي
▁ع اد
▁ع لم
▁ع دد
▁di li
ata ba
▁Y aya
▁do llar
▁do unia
▁ت ه
▁ت صو
▁ت فاصيل
be l
▁G ra
▁G aski
▁as wear
▁al j
▁ከ ል
▁ከ ው
▁ከ የት
▁ይ ለ
▁ይ ቻ
▁fi zer
ọn i
▁ነው ፤
▁ለ ራ
▁ga an
▁ga fara
fi le
so gbo
po int
را كي
▁ያ ክል
▁ተ ና
▁ተ ደር
bu zima
▁P od
ze ,
▁Ọ ya
▁sh ut
▁sh all
▁bi h
ها ت
ent ine
▁lá yọ̀
▁le k
▁kí kọ
ala ,
▁sí i
▁ló de
▁us u
▁ሰ ማ
▁ad vice
▁st an
mu ,
▁ar m
▁ar ran
▁un di
ure ba
▁n' in
▁n' isi
▁#I WD
▁gu fata
▁أ لف
▁za ba
▁za ge
▁ش ر
▁س ام
▁ት ናንት
st v
ran ko
▁kam lin
▁á l
▁vi ol
aha u
▁pr im
▁#O ro
▁خ يار
▁Ya ushe
▁#A n
▁can 't
▁ህ ይወ
▁In ter
▁kun yar
▁pro te
han gana
▁ሁ ላችንም
▁gan har
▁ቀ ረ
▁“ لا
▁kenan .
▁jo or
▁مع اك
▁الت علي
ale k
▁ob ia
▁ob inrin
▁Ma gu
▁#N p
▁È ṣù
▁che ap
▁l' ọ
ል። '
▁mak oma
▁mak ayn
àá pàá
▁ص ف
▁ص حي
eni ,
▁pi cs
▁الا حت
▁را هم
كو د
▁ver gon
▁የመ ስ
▁ካ ሳ
gún gún
ደረ ጉ
▁Ab du
بي ع
▁እንዲ ሆን
▁gh arama
▁er h
▁ut ar
▁zan gu
▁دي ما
▁des sa
▁???? ?
▁???? ❤
▁bur yo
▁par k
vo ur
▁መል ኩ
▁nwanne .
▁mb ali
ats ina
▁Ṣ ùgbọ́n
▁الو طني
▁ز و
▁bat u
aim aka
قت صاد
▁አመ ታት
▁down load
▁kur usha
▁lai la
▁gr am
ix a
▁otu a
▁sou h
▁Ọba .
▁wana o
▁የኢትዮጵያ ን
▁عند ك
▁uwar ku
▁uwar su
▁Shi ma
▁bless ings
▁Je hova
▁اخ تي
▁tay ari
زي غ
▁tuntun ,
▁yá a
▁mom ent
▁sá bà
kù kọ
▁♫ ♫
😠😠 😠😠
🔥🔥🔥🔥 🔥🔥🔥🔥
كت ب
▁😒 😒
by ir
▁corona virus
▁rw '
▁مب روك
نو ش
▁ዜ ጎች
Am akuru
▁melh ores
▁ky er3
▁inter view
▁ste w
yes ha
هر ان
▁av ailable
▁mz n
▁bɛ n
▁ምክንያ ቱም
▁ረ ቂቅ
bw ira
▁መከ ራ
😥😥 😥
▁flo w
🙏🏾 🙏🏾
▁buri ya
ስል ጣ
▁dali li
▁ìṣẹ̀ lẹ̀
▁cons igo
▁swi pe
▁val or
▁àá rín
▁الفا يق
▁ገብ ቶ
________________ ______________
▁Aw ka
▁umut ima
▁gom ina
osh ye
▁esp era
▁هاذ ي
Ha usa
▁😡😡 😡
▁ወንጀ ል
▁ተቋ ማት
▁ጃ ዋር
▁ዓይ ነት
▁cora ção
ፈጥ ሮ
▁kwes iri
▁pati ent
▁encon tr
ديم قراطية
▁mman ụ
furi je
wite ka
▁patr oni
▁🇳🇬🇹🇬🇧🇯🇧🇷🇨🇴🇨🇺🇬🇭🇨🇮 ______________________________
▁spir it
▁òṣì ṣẹ́
▁ìpà dé
▁#Owo E
feliz mente
▁gbajú mọ̀
▁#Learn Yoruba
▁#DC Service
▁እናመሰ ግና
▁🇳🇬🇹🇬🇧🇯🇧🇷🇨🇴🇨🇺🇬🇭🇨🇮______________________________ □
& amp;
0 3
0 7
3 s
3 ni
6 S
6 V
6 a
7 5
7 s
9 Z
B L
C O
C S
D Y
E T
F F
F J
F u
H 0
I X
M Z
Q 2
Q W
R S
S G
T W
T p
U T
U BA
V i
a gue
b 5
b àá
c m
c am
c ro
c ki
d ge
d ọọ
f l
f ura
f uta
f ort
g ọ̀
h ara
i la
k ani
l ai
m k
m ba
n BS
o to
p ty
q C
q E
q k
r j
r ad
r ika
s er
t so
v R
v r
y aye
z ik
z em
z ig
z emo
é ns
ɛ ɛ
أ ة
ح سن
س ى
ض ان
ሁ ፍ
ሃ ኑ
ህ ነት
ሐ ፍ
ረ ሰ
ራ ራ
ሱ ት
ቋ ቋ
በ ተ
በ ኛ
ቶ ቻችን
ቷ ን
ኒ ት
ኛ ውን
አ ል
የ አ
ጋ ሚ
ጣ ቸው
ጦ ታ
ፋ ን
ፍ ቶ
‍ ♂
▁ ̄
▁ ሩ
▁ ቱ
▁ 🎉
▁ 😬
▁ !!!!
😤 😤
🙏 🏿
🤫 🤫
er ra
an ane
▁n yi
▁n eme
us ed
▁m ike
▁m ine
▁m ban
▁m ort
▁m imi
▁m gn
▁m wezi
▁m tandao
▁a ah
▁a cha
▁a ward
▁a void
▁k em
▁k ima
▁k bs
▁k isan
▁t àn
▁s s
▁s ane
▁s ports
▁b ashin
▁b yiza
▁w ayi
▁w ise
▁o mu
▁o !!!
▁i on
▁i yal
▁g ú
▁g in
▁g re
▁g ais
▁h aki
un der
▁f la
▁f ika
▁e he
▁e yan
▁e ff
▁e vil
at si
ال ف
ال مي
▁na ,
▁A di
▁A ni
▁A GO
▁# pr
▁r uk
▁de h
▁de fin
ai k
ir st
um wa
um we
▁j ana
▁j onathan
▁የ ዋ
▁የ ...
▁የ ገና
uk ira
▁አ ታው
▁አ የር
▁አ ፋር
tt e
gb oro
▁N jẹ́
▁N jye
▁እ ሄ
▁እ ሳት
▁M E
▁M is
▁O ji
▁ọ tí
▁ọ kà
▁ọ ṣẹ
▁à j
▁à p
▁à jọ
▁K uko
▁I GBO
▁ba ?
▁م ف
▁م لف
▁م جلس
▁و لو
▁no va
▁no tice
▁me h
we l
▁በ ቅ
▁በ ለው
▁u gbo
▁ka unar
▁in ka
▁in no
re j
▁wa ?
▁wa pi
▁S ou
ce .
▁B amu
▁B ank
▁ì ta
▁ì jẹ̀bú
▁se hemu
▁mu je
▁mu du
qu ê
▁v isa
▁E ST
▁T ug
▁ab aturage
ho ho
▁ب ر
▁ne ar
▁ل د
▁ل هم
li es
li car
bi e
▁ko ?
▁ṣ ọ
▁ò sì
▁ف ج
▁is he
ji ,
▁W atu
▁qu anto
▁Y à
▁ت ا
▁ت ر
▁ت ك
▁ت لق
▁as lan
▁al b
▁ከ ዚያ
▁ይ ፋ
▁ይ ገር
▁U bochi
▁so uka
▁ነው ፣
▁ي ك
▁lo ad
▁lo ose
▁ለ ሌ
▁3 ay
▁kan ta
▁ch koun
fi l
▁re port
bo a
▁ك نا
▁L '
▁L ọ́
▁L aila
را ق
▁ተ ው
▁ተ ላላ
▁P R
▁ṣe ?
▁sh ah
▁sh ayi
▁1 )
▁lá rugẹ
▁he llo
ck ing
▁è lò
▁si yar
▁ም ል
▁ọ̀ dọ̀
▁ọ̀ tún
▁ló ko
▁ن ض
▁F in
▁F ara
and za
▁us hin
▁ማ ነው
▁ad dua
▁ح د
▁ح ول
▁ح الة
▁un follow
ate g
▁#I M
▁con ne
▁dem ais
▁أ ما
▁أ ول
▁ra wa
▁On u
▁ه ما
▁س ل
▁س انشي
▁she gu
▁she gen
▁ደ ን
▁af ya
▁vi jana
▁ል ደት
▁Am ahoro
▁ji b
▁እንደ ው
▁gba gbe
aku a
▁ara .
▁dis p
usa ba
▁الع لا
▁الع ظيم
▁mas ara
▁خ اط
▁Onye dika
▁can za
iti onal
▁ke da
▁"""""""" A
▁In dai
اب ع
▁kun e
▁x aman
▁come çar
▁cho k
asi l
ሆን ክ
▁men tion
▁hi zi
▁ቀ በ
▁ታ ማ
▁jo llof
▁ap an
▁ob uro
▁ob rigado
▁لل ق
▁È kìtì
▁min ister
uro pe
▁l' a
▁ገ ል
ss an
▁Ọ̀ rúnmìlà
▁7 0
▁እየ ሰራ
▁orí i
▁ሳ ምንት
▁ub ut
▁yó ó
▁إ سبانيا
▁bl ame
▁him self
▁ጠ ንካ
uu u
▁الأ من
kun rin
▁yar n
▁abo a
▁every time
▁#S ecure
▁des ign
▁des cul
▁na- ak
les sed
▁#B nBS
▁res ta
▁ir on
▁t' ò
▁ز وج
مو ال
▁tab ar
▁èdè e
EN D
በረ ው
▁አመ ሰ
▁str ug
▁😎 😎😎
rá s
▁comp et
يت ر
▁win ning
ende d
▁jí ire
▁nam we
▁Ah ubwo
▁jam bo
ele de
▁ቆ ሻሻ
▁የእ ግዚአብሔር
▁tw ese
▁ns em
▁🙌 🙌
▁mk ubwa
▁kana wa
▁با غي
▁የወ ጣ
😢😢 😢😢
▁بي ها
▁አባ ላት
▁stu dent
gl and
جي دي
▁mutan an
▁رو ح
▁exp lain
▁ten ha
▁imp amvu
ugh ter
▁kak raa
▁ተወ ካ
▁trans fer
فت خر
▁بعد ما
▁bea uty
▁ago zigo
▁Por que
▁jà re
▁pas sa
▁tas ka
▁umug abo
▁BA BA
▁leg end
▁celebr ity
▁nes ta
▁ون عم
▁Hahah ahah
▁ear th
▁Gu y
▁act ress
▁اب ن
▁Mm iri
ጠቀ ም
▁maz al
✌️ ✌️
▁ዲ ሞክራሲ
ubw ira
▁مغرب ية
▁fì là
▁zam fara
▁#Ojo Aje
ṣò wò
▁gare ka
▁ami ga
▁أك بر
▁deli very
embe lea
▁#Mo ther
▁sy st
▁فأ وكرانيا
▁bz f
▁Tal aka
▁nche ta
▁ep isode
cor re
òkú ta
▁bru h
▁فل سطين
▁hado k
▁በቅር ቡ
▁Cap .
▁Who ever
▁البل د
▁surpr ise
▁ahan tu
▁Ins tagram
▁ስህ ተት
▁camin ho
▁Way yo
▁ጎበ ዝ
غلب ية
▁minut es
Rep ents
▁Nku zi
▁ጉባ ኤ
▁ምስኪ ን
▁sulh u
▁ድንግ ል
▁lap top
vand imwe
byir uko
▁#BnBS ports
# Yoruba
, ...
- ọ̀
. """"
/ 3
3 8
6 4
7 3
9 ad
A K
A s
E P
E de
F O
F U
F a
G 3
G P
G w
H C
H Y
I g
J U
M s
N Y
N ight
P N
P l
Q U
V A
V R
W C
W e
Z Z
b ịa
d asa
e lu
f ó
g ya
k es
l c
l en
m ò
o b
o ke
p c
p es
p ro
p adà
r ai
s ò
w ene
y t
y ak
y and
z h
z s
á yé
ç os
ا ق
ا ون
ب را
ح ان
ز وج
ص ي
ط ب
ع يد
و ات
ሀ ሀ
ህ ነግ
ህ ደት
ለ ዉ
ላ ች
መ ኝ
ማ ሩ
ማ ው
ሞ ላ
ሪ ው
ሮ ፕ
ሰ ል
ሸ ባሪ
ቋ ል
በ ታ
ብ ዛ
ች ለው
ነ ዉ
ኔ ን
ኤ ርትራ
ክ ቶ
ወ ሀት
ዓ ለም
ያ ም
ዳ ት
ዳ ና
ድ ሮ
ጠ ኝነት
ፁ ም
▁ ❌
▁ 🥴
▁ án
✌ ✌
💗 💗
🤐 🤐
an ire
▁n oo
▁n ukuri
▁m da
▁m chi
▁m ass
▁a à
▁a gbá
▁k ata
▁k ìn
▁k án
▁k ash
▁d ọ̀
▁t ch
▁t ada
▁w are
ar em
▁o bele
▁i cho
▁g ó
▁g wo
▁g ames
▁h wan
▁h ug
▁l os
▁l ase
▁l ondon
un to
▁f ai
▁f iri
▁f amba
▁f ọwọ́
▁f eran
or k
or ed
or ub
▁e ter
▁e kun
▁c hh
▁p ere
at ta
ak ye
ak unda
"" .
▁A ti
ah ira
ah anga
▁r d
▁r n
▁r ough
▁de via
ai gn
ad ores
he je
um weru
▁ni '
▁ni fa
▁የ ፊ
▁የ ከተማ
uk ana
uk uma
▁da ure
ya wa
is es
▁N ik
ut ane
▁M aa
▁M áà
▁O K
▁O me
▁à dú
▁à pá
▁à dúrà
▁K WA
▁ba ...
▁م ري
▁م ول
▁و في
▁و حد
▁z alin
▁በ ሃ
▁በ ይ
im ma
et weet
▁ka z
▁on wu
▁wa 3
▁B enin
▁B bc
▁ì lẹ̀kẹ̀
▁ku che
▁mu itos
▁T om
▁T orí
▁be l
▁ní lùú
uba hiri
▁we alth
▁am ahoro
▁am sar
▁ب س
▁ب ام
li ha
▁gb u
▁gb asara
▁ṣ ọ̀
za zi
▁ta x
▁ta wa
▁ẹ rù
be jì
▁al haji
▁ከ ሀ
▁ይ ሉ
▁U si
ci ya
▁fi lho
▁so ur
▁ha gati
▁mo le
▁kan h
▁kan ki
fi akwa
▁ያ ደር
▁ያ ስተ
▁im baraga
gu i
bu ga
▁P at
ee ch
pa ,
▁en ga
▁bi llion
▁bi ashara
▁ብ ሄ
are ce
▁shi ,
▁ስ ሙ
▁ስ ለም
ali ya
▁😂 .
▁J u
▁é bé
▁yan ke
▁us el
▁ማ ው
▁ማ ሰብ
▁À gbá
▁À mín
▁bo as
▁kw ata
▁kw enda
▁bí nú
jú bà
▁man s
▁man zon
▁kar in
▁kar ka
▁ho urs
▁tó bi
ون س
▁ẹ̀ tọ́
vi ous
▁ag wụ
▁Ì wọ
ame en
▁አይ ችልም
▁س ير
▁oh .
▁wi wi
▁ት ዕ
▁ደ ደብ
▁ما كرون
yar sa
▁ooo h
▁እንደ ም
▁ው ሳኔ
وا ح
▁ج اب
▁الح كو
▁الح زب
▁dis ap
▁الع ن
▁የተ ፈ
▁ባ ለው
▁#A frica
▁nk ’
▁nk wasia
▁V a
que i
ist s
▁x an
▁x asu
art y
▁cho ice
▁rí i
▁ik ir
▁lọ́ sẹ̀
▁men ene
▁ቀ ል
ችሁ ት
▁ታ ም
▁#E yo
▁ex am
▁لل ت
ስት ና
▁لي نا
▁mma a
▁min has
▁bro da
▁mak wa
hu za
▁ص د
▁አለ ን
▁wah ad
▁ግን ኙ
▁Mu hammadu
▁የመ ጣ
ṣe un
▁ቢ ያንስ
▁ሰው ዬ
▁ወደ ፊት
▁ስለ ተ
▁ị bụ
▁abo kin
fun di
▁ط يح
far u
▁ሊ ቀ
▁ፍ ሬ
▁ፍ ርድ
ገባ ው
▁far f
▁#B BN
▁pre oc
▁pre ço
علا م
▁lẹ́ sẹ̀
▁play ing
▁bẹ́ẹ̀ .
▁تح ياتي
▁mí .
▁mẹ́ fà
▁str ike
ult ur
arn ing
▁እው ቀት
▁kut umar
ስተ ር
▁yorùbá tv
▁Deus .
▁dyal na
▁gr ateful
gt gt
▁àgbà do
▁አላ ህ
yy y
▁el as
▁pos sível
▁ask ing
▁ins tead
▁يع رف
▁part ner
▁En glish
▁ako ko
▁op ini
▁kus an
▁kus hiriki
‍️‍️ ‍️
▁tom ar
▁Le kwa
▁Amin .
▁3li hom
▁ọlọ́ pàá
▁🤦 🏽‍♂️
▁Que en
▁الصح راء
33 3
com ing
▁Ezigbo te
▁trans port
,, ,,
▁tè tè
▁نت ا
▁sak amakon
▁hom ens
▁bet ween
ላከ ል
▁ቤተ ክርስቲያን
▁ago zi
▁n'e be
▁kuku fahamisha
▁Af am
▁wanan chi
▁cu id
▁ስም ምነት
▁yaba da
رام ج
▁dì bò
▁Amen .
▁hahah ahaha
▁Te ka
▁tọ́ jú
▁የኢ ዜማ
ፈለ ገ
▁aso fin
▁nni pa
▁conf irm
▁aljan nah
▁dir ty
▁n'o ge
lee de
▁La fiya
▁Ng wanu
▁😀😀 😀
▁wali o
Le ti
▁trabal har
▁hung er
▁lem me
▁አድ ራ
▁جم يل
▁عا يش
▁بسب ب
▁قد ام
▁èrò jà
▁سيا سة
▁yakai mu
▁icy aha
tú tù
▁አቀ ፍ
▁ባን ክ
▁#tweet inyoruba
Ye ar
▁agh ani
▁اص لا
▁irm ão
▁respe ito
▁lédè e
▁Ago zigo
▁Kit ikpa
▁alfar mar
▁wate ja
▁እርስ ዎ
▁يحفظ ك
▁ewú rẹ́
▁ውጤ ት
▁ገበ ሬ
Qh xO
▁ዝግ ጅት
▁የምር ጫ
WordOf Jesus
▁نظ ام
▁inform ation
▁kusk ure
▁ድርጅ ቶች
▁#Eternal WordOfJesus
▁#Br ing
yumv ire
nis ọ̀rọ̀
▁Nyam ara
▁መገር ሳ
gbatiwon de
Dun Leti
▁#ka ft
▁https://t.co/Ht QhxO
▁wa'in na
▁usel ess
' ,
0 8
0 Q
1 b
2 k
4 Y
= =
? 🙄
A g
B ook
D r
E n
E thiopia
F R
G H
H N
H X
I fe
K W
M y
R U
R Ọ̀
S D
S ports
T L
V o
X J
X T
Y an
Z a
d uk
d ara
e a
f ù
f ya
f ta
g at
g ut
h are
i yẹ
k wan
k asa
l n
m at
p en
p ira
q 0
t ch
u f
v am
y w
y ay
y ada
z L
z im
z ara
é s
ت كم
ج از
خ لة
د ل
ذ ي
ز ير
ش و
ط الب
ف ى
ك ك
و دة
ለ ስ
መ ታ
መ ንግስት
ሞ ን
ሰ ለ
ሳ ካ
ቀ ኝ
ቁ ም
ቂ ቃ
በ ሉ
በ ራዊ
ባ በር
ታ ች
ቻ ችንን
ቾ ች
ነ ጋ
ኢ ዜማ
ከ ሰ
ኸ ው
ዊ ተር
ዝ ና
የ ሁ
ያ ይ
ዳ ሜ
ጊ ድ
ጌ ታ
ፋ ል
ṅ ụ
ṣ ìí
▁ ቪ
▁ 😱
▁ ኢት
❣ ️
🏼 ‍♂️
an giye
▁n er
us ar
▁a ika
▁k ala
▁k inda
▁d ò
▁d ọ́
▁d iro
▁t one
▁t uro
▁t kon
▁s low
in ya
in shi
▁b s
▁b yi
▁b ira
▁b one
▁b ate
▁b yinshi
▁o po
▁o dù
▁y t
▁g ad
▁g ana
▁g ala
▁h abari
▁l at
▁l inda
▁l alle
▁f m
▁e ,
▁e in
▁e qu
▁e do
as k
▁c air
on to
▁p am
▁p ush
▁p aaaa
▁p ais
en yi
ak omeza
al ,
▁na .
▁na bo
▁A be
▁A ko
▁# r
▁# à
▁r adi
▁r ug
▁r adhi
▁de ce
ai x
ik ira
um ve
um ent
um ug
▁ya bi
▁ya ja
▁ya bar
om b
om s
▁j ade
▁j esu
▁የ ሸ
▁የ ደረ
▁አ ቡ
▁N ri
▁N ime
▁እ ግር
▁M he
▁M ati
▁M UN
da 3
os ho
▁O ur
▁O ku
▁O fu
▁O MA
ing ,
▁à pò
▁à pè
▁K al
▁K atsina
▁ba 3d
▁م شي
▁no ise
▁z ik
▁z ir
▁በ ሁ
▁በ ኦሮሚያ
▁ka w
▁ka je
▁in ba
▁wa inna
ma a
▁B )
▁B us
▁ì dì
▁ì bẹ̀rẹ̀
ch alu
ch uku
▁v ona
ta a
▁be ha
▁ab at
▁we ed
ri b
▁am abwiriza
de pendence
▁ب ري
▁ب اب
▁ل ش
▁ل عب
▁ti ẹ̀
▁gb alu
bi o
▁for ever
▁ko yi
wo .
zi ere
▁ṣ ubú
▁ف س
▁ف ين
▁ف كا
▁gi wa
▁gi ...
▁th under
▁C é
▁W ar
▁ع ط
▁ع مر
▁ع مل
▁ع جب
▁ta cha
▁ت صاور
▁as ked
▁al ma
▁al igo
▁al áàfin
na .
▁ይ ሰማ
▁U p
▁U ko
▁U ru
▁U kwu
▁so ke
▁ነው ??
▁ي ق
▁ي جب
▁ለ ሁ
▁ha j
▁3 andi
▁kan bghi
▁ch at
▁ch uk
▁ch 7al
ni .
ية '
▁re ali
▁re pres
lu abi
▁L ab
▁ا ر
▁um as
▁um eme
▁um ubyeyi
bu ze
▁P ra
▁Ọ pẹ́
▁sa 'a
▁ወ ራ
fe ct
ane ,
▁lá nàá
▁he he
▁he hehe
gh reb
▁li li
▁li ber
ul y
▁ም ድረ
▁2 )
▁ọ̀ gbìn
▁ọ̀ gbẹ́ni
▁yan kin
▁ن ف
▁ማ ወቅ
▁ሰ ላማዊ
▁ad á
▁ح ب
▁ح قوق
▁st one
▁bo i
▁kw ame
▁kw alli
▁ar ó
▁un gu
▁kar atu
▁pa cka
▁n' ub
▁#I le
▁#I fe
dan ori
iki wa
▁ẹ̀ bùn
▁mana ger
▁ts aye
▁ra fa
▁Ì wà
▁Ch ar
▁co ll
▁ش باب
▁س و
▁ት ልቁ
▁ق دم
▁ق انون
▁ق ريب
▁وال ب
zu ye
▁mun tu
▁po ur
▁á ká
▁አን ዴ
▁est ra
▁ما ب
▁ما ع
▁د اك
ass an
▁fo cus
▁ው ሻ
وا ء
▁ج وج
▁ج اي
▁kas ance
▁#O sun
▁ara ,
▁any where
▁የተ ሻለ
▁In ama
▁Na wa
▁aga ghi
▁je ito
▁kn t
ور ية
▁men s
▁Z am
▁up date
▁gan g
▁ቀ ርቶ
▁ቀ ድሞ
▁jo go
ene ver
▁È jì
uro pa
▁nti b
▁ገ ባ
▁mak ar
▁ike ,
▁ụ g
▁tr umu
▁bir nin
▁9 .
▁9 0
▁gbé re
▁ሳ ት
▁ሳ ን
▁را جع
▁sin zi
▁ja w
là yé
▁nw uru
▁ቢ ሮ
▁Ab um
▁Ab ia
▁Yorùbá ?
▁فال ب
▁فال ع
▁فال صح
▁#R e
▁4 5
▁ilé e
▁bak wa
▁bak ora
▁aba ya
▁m3 aya
▁ut e
▁ط ريق
▁des de
▁ጉ ዞ
▁Qu ero
▁bai yi
▁mw isho
▁መል እ
▁igi hugu
▁nn ọọ
▁gaba daya
▁Ak bar
▁èè wọ̀
▁baz ata
▁baz asu
سب انية
▁እንዳ ለ
▁ayé ,
▁mí ì
ard s
با ط
▁pè sè
▁ፈ ር
▁ፈ ተና
▁lórí i
9a w
ም። '
"""""""""""""""" .
▁ሃ ይ
▁201 7
ukan gur
▁pẹ̀ lẹ́
tan yi
▁الخ ط
▁\n و
▁የት ምህርት
▁dyal ha
اف ية
▁muk ayi
▁cr es
▁#Nigeria At
▁jin jina
▁Est ão
▁ሕ ዝ
▁bem ,
ፈል ጉ
▁mk p
▁blo que
▁lm gharba
▁0 81
▁gar eshi
▁et inye
▁ሞ ጣ
▁የወ ደ
▁የወ ያኔ
▁ጉዳ ት
وج د
زي ز
▁mor rer
▁ima gin
abar ina
▁ቦ ርድ
▁ጨ ምሮ
▁Ga ba
yen we
መለ ከ
▁tamba ye
▁gut s
▁ኤ ርትራ
▁ƙ ara
▁ጭ ንቅ
▁12 .
▁Nn am
▁albarka cin
▁ዜ ጋ
▁bó yá
▁#The Pulpit
ራዊ ት
▁ky ak
ርስቲ ያ
ok uta
▁Mw enye
▁kull un
▁aque les
ለኝ ም
▁ህዝ ቡን
▁bon ita
ጠብ ቅ
▁buk ata
▁pat aki
wwww wwww
▁11 .
▁inv ite
▁ይመስ ላል
▁tri p
▁አለበት ።
▁Ọ̀yọ́ ,
▁ṣẹ̀ ṣẹ̀
▁Tab bas
▁eat ing
▁comment s
▁😏😏 😏
▁Nai jiria
▁meet ing
zzzz zzzz
▁ዘንድ ሮ
fik ia
▁Elé dùà
▁የሚለው ን
ጠይ ቅ
▁anno ba
▁talla fin
▁ለም ንድ
▁ግለ ሰብ
▁munaf ukai
▁#Global Easter
▁#Pr aise
▁እባ ክህ
▁هنا ك
ጠየ ቅ
▁አቅ ጣጫ
▁lmo him
▁naf asi
▁Og ini
▁consegu ir
▁#Angola Repents
▁ሺ ህ
▁ጓ ደኛ
▁البوليس اريو
▁ńkọ́ ?
▁nami ji
▁kwak wal
▁رس مي
Qn A
▁shuwagaban nin
▁fed ha
▁k’ anyi
▁azz alum
▁òṣù pá
▁هك ذا
qg pu
▁Sum ayya
lici dade
▁smo ke
▁Yak amata
▁dàn ù
.A. W
▁COVID -19
▁Ìlọ rin
▁#RBA Amakuru
▁lantar ki
▁ọh ụrụ
▁‹ ‹
dọọ dún
▁ተላላ ኪ
▁አመሰ ግና
▁https://t.co/HtQhxO qgpu
danori papa
▁#GlobalEaster Service
, n
2 i
4 j
4 t
5 00
6 C
6 Q
9 d
9 e
9 m
A D
A MA
A nd
D N
E ternal
E lK
F Q
F l
G t
G ood
J 8
J Q
J t
K 0
K 4
M edia
O we
P re
R P
R r
S a
T C
Y AN
b 7
b R
b aka
c ers
c ura
f k
f re
g ina
g iri
h .
i bi
j r
j w
k ane
l on
m is
m ero
n en
n ati
o ur
p 0
p V
r ent
r and
u lo
v is
x Q
á vel
é ré
ú ,
̀ bá
ؤ لاء
خ ذ
خ لي
ذ ة
س ين
غ ة
ك ة
م نا
ለ ፍ
ላ ቹ
ል ማት
ራ ቅ
ሬ ን
ሬ ዝ
ስ ለ
ቀ ደ
ቂ ዎች
በ ነ
ቦ ና
ቻ ቸውን
ነ ካ
ና ትን
ኗ ል
ክ ታ
ዋ ሳ
ዛ ኝ
ይ ይ
ዳ ዳ
ዳ ጅ
ድ ሬ
ገ ላ
ገ ስ
ገ በ
ጣ ሚ
ጨ ት
ጮ ች
ẹ nu
▁ ጤ
▁ 💕
▁ 🤪
🌧 ️
🌹 🌹
😂 💔
🙆 🏾‍♂️
🤓 🤓
🤲 🏾
▁n ̶
▁n uk
▁n ge
▁n ono
▁m ako
▁m gharba
▁a á
▁a che
▁a iku
▁a hhh
▁k isha
▁d hi
▁d ena
▁t inda
▁t kh
▁t atu
▁t entar
▁s ọ̀
▁s áà
in ,
▁b ent
▁w ẹ̀
ar da
ar ana
▁o da
▁o li
▁y ena
▁y aso
▁i lo
▁i Phone
▁g ai
▁g ig
▁g ona
▁h m
▁h ụrụ
▁l j
▁l er
▁l asan
▁f ari
▁f ass
▁f adan
▁f ail
▁e di
▁e lo
▁e pp
▁e gbò
▁e wì
▁e lder
▁e conom
al amu
▁na z
▁na aa
▁A kw
▁A MA
ba d
▁# as
▁r ing
▁r aki
▁r ant
ai t
ur y
ay u
▁ال دي
▁ال اش
▁ال غرب
ad en
ad dy
ir aho
um untu
es te
▁ya o
▁የ ሴ
▁አ ሽ
▁አ ቃ
▁አ ራት
▁an is
▁N ada
▁N ós
▁M iki
ab y
ab wa
ab iri
da com
▁O ko
▁O yo
▁O jumo
ou h
ing .
▁à n
▁à jẹ
▁à árọ̀
▁K are
▁K uwa
▁K war
▁I cyo
▁I NA
▁ba ale
▁م ار
ti ve
▁me de
▁me kun
▁z un
▁z ose
▁በ ዚ
▁በ ጦር
im enye
▁ka e
▁in y
▁in se
ma 3
▁ma gu
▁ma far
▁ma gic
▁B ata
▁ì tà
▁se curity
▁ku u
▁ku bi
▁ku fur
▁E j
▁E terno
▁T I
▁ab sol
▁D ak
▁am ano
▁መ ክ
▁መ ወ
▁መ ፅ
▁መ ናገር
▁መ ፍት
▁ب رلم
▁you ll
▁ne ck
▁ل خ
li d
ro l
▁ko lo
▁ko dai
zi .
go go
▁ف ـ
▁is su
ama g
▁C l
▁C al
▁C CM
▁H ad
▁H hh
▁di di
▁do llars
▁as h
▁as in
▁as 3m
▁al ai
▁ይ ታ
▁U war
▁ነው ...
▁ي شوف
لا عب
"""""""" ,
▁ha .
▁3 ka
▁3 end
▁3 aw
ani ,
sa ba
▁ch ou
▁ch uo
ni co
bo x
bo ard
▁ك لا
▁ك اع
▁L Á
▁L ink
ver no
را ه
▁ያ ደ
▁ተ ይ
▁ا سبانيا
gu zi
gu lho
▁P esso
▁P erezida
gi de
gi ving
▁sa pa
▁ወ ስ
▁bá a
rí .
▁pe op
▁ስ ድብ
pe wa
▁lá sìkò
ul ts
▁ọ̀ pá
▁yan ka
▁yan jye
▁የሚ ጠ
▁የሚ ሰማ
▁ማ ዕ
▁ad ir
▁ad ura
▁ad vert
▁ح ال
▁ح اب
▁st ories
▁it ama
mu .
▁kw ashe
▁man u
▁pa z
▁n' ile
ca ,
رب ح
▁( a
▁( የ
yan kopɔn
▁ag am
ash ar
▁Ì b
▁On wero
ban za
ري كا
▁ban z
áà bò
▁co ach
▁co py
▁co urt
▁ق لت
▁وال ج
▁yi .
▁Am aka
وا ه
▁ج ب
ind in
▁em ere
▁em pre
▁kú u
▁#O yo
▁any one
▁mas sa
▁خ ارج
▁ባ ት
▁ህ ልውና
cha usa
▁ke le
▁kun ce
▁kun ci
▁pro ject
ist ory
▁Na ga
▁x uwa
▁won ni
▁#T hanks
▁sha g
▁ik pe
ست اذ
▁lọ́ la
▁ny amara
▁men gi
▁Z ama
run o
▁“ A
▁“ إ
fo du
▁person al
▁wà jà
▁bro thers
▁ገ ቢ
▁nt ak
▁yak are
▁الب حر
▁አለ ቃ
▁bir d
▁love ly
kw am
▁Q UE
▁cy ose
▁mes e
▁بال ت
▁ቢ ኖር
▁kin í
▁yar d
▁ị sị
▁ለመ ስ
▁Ko da
▁Ko ko
▁m3 ana
▁they re
▁ط و
▁ط ي
ag les
▁ሚ ን
nì kan
ud ades
yẹ mí
▁كل ها
▁alá gbára
▁የማ ን
▁የማ ያ
▁nor m
▁እኔ ን
▁ran an
▁ቅ ን
سب اني
▁wal k
▁kọ rin
▁ass unto
🤔🤔 🤔🤔
▁ሆ ድ
😹😹 😹
▁has ka
▁oní ṣẹ́
▁oní rúurú
▁cyane ,
ER E
رج ة
▁sen do
ail ai
▁nwe ta
▁bane ,
▁fal alu
▁መስ ጠት
▁#C hi
ON E
▁iy ì
▁Deus ,
▁bin tu
▁ዝ ር
▁lọ́wọ́ ,
▁cin ema
▁#o yo
jen ga
▁። '
▁Est ás
bin tu
▁lea f
▁kal li
▁àgbà lagbà
▁አማራ ን
▁😂😂😂😂😂😂 😂😂
▁ali ye
lli ons
▁bọ̀ ,
▁#H o
▁#H anane
▁ben z
▁الإ نسان
▁اخ ي
igi he
▁Ob ì
cc en
IR I
▁sim ple
gó jì
ምህ ር
كت ور
▁feel ings
▁ሥ ቃይ
▁ኤ ር
▁àì sàn
▁tú mọ̀
Word Conference
▁iba dun
▁ነገ ሮች
▁nake d
▁ድር ድር
▁ቡ ና
▁aki d
▁tit le
▁መሰ ለኝ
umb ani
ረን ጅ
▁lónìí .
غي ير
ZI GO
▁uru g
▁የው ሸት
▁Af ya
▁amba po
▁አደረ ሰን
▁ህዝ ቡ
💃💃 💃💃
had er
▁በቀ ለ
▁uli o
▁ind ust
▁Ur akoze
▁መቀ ሌ
▁دار ت
▁Mut um
▁የዘ ር
gra phy
tiv ation
▁fuck ing
▁mis sed
❤❤ ❤❤
▁ɗ aya
رائ يل
▁🙆 ‍♂️
▁tò ní
▁ግድ ብ
jọ̀ gbọ́n
II II
▁sé rio
▁አንዱ ን
▁بد ون
▁ነፍ ስ
▁መጥ ፎ
▁gl ass
▁jus ti
▁mmo a
▁Fo i
▁labar ai
▁duni ani
▁wl hi
▁soy ay
▁nik am
▁prime ira
▁ወዳ ጅ
ukin nyi
Ch ukwu
▁fem ale
Th oughts
▁namor ado
▁kul iko
fica ção
▁ኢትዮ ጲያ
▁cabe ça
▁reg ister
غا دي
▁gí ga
risti an
▁hhhhhhhhhhhhh hhhhhhhh
imp ly
ortun ate
▁ዘመ ቻ
▁يدير و
▁لـ” كَود
▁contro l
▁àkà rà
▁brin car
▁rus ange
▁مم كن
▁const ru
▁segun da
▁mko ani
▁remo ve
arac ter
▁ጊ ዮርጊስ
▁Sem pre
whi le
▁makaran ta
▁طن جة
▁jari da
▁isin mi
▁kwankw aso
▁080 9
▁dent ro
▁beb ree
▁exa ctly
Back Our
▁gul ma
▁በኃ ላ
▁ትክክ ለኛ
🚶‍♀️ 🚶‍♀️
▁larab ci
▁Nun ca
ማግ ሌ
▁lek ki
▁እናመሰግና ለን
▁ጠንካ ራ
▁syst em
ElK hader
- E
3 2
5 G
5 W
7 4
A r
B x
C 4
D t
D an
E C
E ye
G y
H W
I O
I ya
K P
K d
K Ò
K Ọ
M i
O B
P s
P lay
U r
V L
V s
X 7
Y S
Y u
Y w
b q
b da
c ano
d hi
f j
f ashi
g X
g k
i e
i de
i fe
j h
k ari
k ata
l it
l abu
m ore
n ed
o de
o lu
p to
p ora
p ons
q 8
q s
r w
s w
t ir
v P
v m
w Z
w ẹ́
w ita
z 8
z U
z d
z iko
é ,
ú mọ̀
ǹ fààní
ت خب
خ اص
س لام
ط ان
ف ير
م ج
م ز
ሃ ል።
ለ ል
ላ ህ
ላ ስ
ል ቻ
ሎ ጂ
ረ ፈ
ሩ ም
ር ባ
ሰ ድ
ሰ ጠው
ሱ ዳን
ሶ ች
ቃ ድ
ቅ ረብ
በ ዛ
ቤ ን
ቶ ቹ
ነ ን
ና ዊ
ና ይ
ከ ም
ከ ረ
ኩ ም
ክ ን
ዋ ለን
ዚ ቃ
ደ ና
ዲ ት
ገ ራት
ገ ሩን
ጠ ኞች
ጥ ጥር
ፋ ሪ
ọ ta
ọ jọ́
† †
› ›
▁ ቸ
▁ ኔ
▁ 👋
▁ 😓
▁ 😰
▁ 🤧
▁ 🧐
▁ 🏃🏃
▁ ዲያ
▁ ኦሮሚያ
🎂 🎂
💖 💖
💰 💰
🕺 🕺
😪 😪
😫 😫
🤷 🏾‍♂️
▁n ki
▁n fa
▁n ation
▁n esa
▁m oro
▁m cha
▁m fite
▁m ês
▁a ca
▁a jọ
▁a vuga
▁k ye
▁k uru
▁t ji
▁t ran
▁t ako
▁t umi
▁s ik
▁s ali
▁s ami
▁s imi
▁s port
▁b k
▁b le
▁b abi
▁b lue
▁w ura
ar ara
▁o z
▁o gu
▁o che
▁y are
▁i .
▁i zo
▁i fa
▁i kan
▁h ose
▁l li
▁l ala
▁l indo
▁f asa
▁f ess
▁e é
▁e da
▁e te
on th
▁p q
at he
ak am
ak ikisha
al y
▁na g
▁A a
▁A do
ba y
▁# omo
▁# culture
▁r iri
▁r edu
ur b
hi e
▁ال آ
ir imbo
es ome
▁ya '
▁ya cu
▁ya fara
it al
▁j ì
▁j at
▁j aki
uk ire
▁አ ጀ
▁አ ቅም
▁አ ሪፍ
▁da w
▁da ji
▁da ge
▁da abi
▁da vid
▁an ata
▁an sha
is ia
▁N u
▁እ ል
▁እ ሚ
▁እ ዚ
▁M h
▁M k
▁M ú
▁M be
▁M asa
▁O yin
▁ọ rùn
▁à wo
▁à won
▁à dà
▁à kàn
▁à bù
▁K ada
▁I la
▁ba ff
▁ba vuga
▁ba adhi
▁م ال
▁و كل
ti a
ha ,
▁በ ሉ
▁በ ቂ
▁በ ስተ
▁u go
et y
▁ka fi
▁ka ina
▁in ch
▁on wero
▁to ò
▁ma endeleo
▁S uma
▁S han
▁S how
▁ì jọ
▁ì ṣà
▁ì kòkò
▁se xu
▁se cret
▁ku i
▁ku v
▁ku da
▁ku fahamu
▁E p
▁ab um
▁ab use
ho ka
ri e
de y
▁መ ላ
▁ب ص
▁ne kwa
li h
▁ti o
▁gb i
▁gb in
▁gb as
▁gb uru
ro uk
ro id
bi zi
▁ف إ
za ,
▁is to
▁C ont
wan yu
▁W aye
▁W ena
▁W iz
▁W hen
▁H at
▁H arya
▁H hhhhh
▁di .
▁Y Í
▁Y aa
▁ت طو
▁G ini
ci do
▁ي نت
▁ي هدي
▁lo .
▁lo ving
lo us
ani ya
▁su .
▁su ya
▁mo ça
▁mo gya
sa wa
▁kan yi
▁ch wiya
▁ch allenge
▁ó n
fi car
so .
▁mi yar
▁ك ذ
yo ur
yo yi
▁wo le
▁ያ ነ
▁im anin
▁im yaka
gu ye
▁P os
▁P arab
▁الم ال
▁sa 3a
▁en were
▁bá kan
▁ስ ሜት
▁ስ ጦታ
pe ak
▁he ge
▁J uma
▁J anu
▁J ack
▁li l
▁si ck
▁yan z
▁yan ga
▁fa ço
ات ,
uka ?
▁የሚ መ
▁የሚ ቀ
▁የሚ ገኙ
▁us haka
▁ማ ድረ
▁À fi
▁À fọ̀njá
▁ሰ ለ
▁ad iri
▁ad min
▁pa ,
▁n' aka
ca ção
رب و
▁ho to
▁ho tel
▁ẹ̀ .
ore zo
▁at rás
▁አይ ነቱ
▁Ch in
▁Ch am
▁Ch ristmas
adi li
▁س م
▁she bi
▁mun t
ለው ።
▁po bre
ako we
▁ok po
▁ما زال
▁tal ent
▁tu weze
▁د ول
▁د وك
▁ج نا
▁ج مع
▁em ail
▁#O gb
▁ib ik
▁ib indi
▁dis c
▁ባ ዶ
▁nk ọ́
▁ጥ ፋት
▁ke kere
▁In dia
▁kun i
▁pro gr
▁pro cess
▁pro cur
▁ر غم
ist as
▁Na omba
▁wat aran
▁cho fi
▁#T rans
▁rí ?
▁kn o
▁ik iganiro
▁fe l
▁fe es
▁ታ ስ
▁#E thiopia
▁الت ح
▁ob iaa
akan fo
▁لل د
▁Nigeria ,
▁لي ها
ሆነ ው
▁l' ọ́
▁Ọ̀ pọ̀
▁pi po
▁De ar
▁De ixa
▁bụ ghị
▁ve jo
▁ve io
▁jẹ ,
▁علا قة
▁ካ ስ
▁ቢ ሊ
▁kay na
فا ه
▁#R o
▁يا ك
لم ين
▁sm art
▁#S imply
▁aba gore
▁br and
▁ሚ ያ
eme a
▁bur ge
▁dé .
▁ter ror
▁ng w
▁aj ikin
har am
▁alá ì
▁የማ ት
▁hak ika
▁الد را
▁nn aa
▁الو داد
▁ز ي
▁bat ter
▁Ak uko
▁ኢ የሱስ
▁iki pe
▁lma f
▁aw ọ
▁ek pe
▁#G elede
▁#W e
"""""""""""""""" @user:
كر ه
▁tan to
▁ይሄ ንን
▁nam orar
▁الخ ارجية
▁iy ọ̀
cu p
▁ዝ ቅ
▁cin ye
▁በማ ስ
jen zi
gue i
▁🙌 🏽
▁አላ ውቅም
▁uwar sa
▁ɔ mo
▁kab la
▁ge ge
▁vida ,
▁bal ẹ̀
▁ፖ ርቲ
▁ፖ ሊሲ
▁اخ ت
▁yá ra
▁mer in
▁damu wa
▁tar de
ቀር ብ
▁òní .
▁انت م
▁Bo a
▁nai jiria
fur ci
▁imp or
▁؟ ؟
▁🤦 ‍♂️
▁akwa e
ረዳ ት
▁Li ve
gas ani
ወጣ ው
▁ናቸው ።
aru ge
▁ili yo
▁cer tain
▁ተወ ላ
▁wọ̀n yìí
🇲🇿 🇲🇿
▁የአማራ ን
▁ስት ል
omi e
▁dire ct
▁نت اع
▁rán ṣẹ́
ክራ ሪ
▁ste ady
▁ث م
▁most rar
▁😂🤣 😂
▁jà re.
صر ه
▁s' ó
▁لو كان
▁خاص ة
▁leg it
▁maj or
▁Don 't
▁ìdá hùn
▁taus ayin
▁cra zy
ገደ ሉ
▁ام بعد
▁act ing
▁lay con
▁care ful
▁uni form
mìn à
▁cri ar
▁Nk em
▁آ خر
▁buh arin
▁በት ክ
▁Bab y
▁nz uri
▁😹😹 😹
▁nen gi
▁rela ção
▁rin ne
صد ق
▁prin cip
▁يست حق
▁orílẹ̀ -èdè
▁نب يلة
▁ú l
▁ነዋ ሪዎች
▁kah le
▁Messi as
▁addu 'a
▁gute ?
▁ngu vu
▁produ ct
▁gon na
▁insh uti
▁#tweet Yoruba
▁الوز ير
▁champi on
▁ta' adda
▁ang ry
▁K' á
b9a w
aji li
👏🏾 👏🏾
▁قت ل
▁simp ly
▁simp les
▁aman hã
▁ኑ ሮ
▁Àà rẹ
▁ደጋፊ ዎች
▁cyan gwa
▁adì ẹ
طف ال
▁úni ca
▁noss as
▁luk man
Pr aise
▁Ogo logo
▁nú mero
▁sahi hi
▁Shu gaba
▁Magan ar
▁scar ed
▁Ess es
▁arr est
▁asha wo
▁capa z
▁ìlọ síwájú
▁الوح يد
▁alfah ari
▁ይባ ላል
▁forgi ve
▁ምሽ ት
▁بنا دم
▁دائ ما
▁oport unidade
▁الكَ يرا
▁patroni ze
▁eff ort
▁ግንኙ ነት
▁#BBN aija
▁#Bring BackOur
▁فكا زا
▁#Hanane ElKhader
▁لـ”كَود ”:
▁#Simply Sports
. ""
2 3
2 e
5 4
5 X
5 f
5 g
6 M
7 k
9 b
? """"""""
A c
A gba
B J
B T
B Y
D s
E 0
F L
I Y
J 5
K F
M 0
M C
O h
O mo
R d
R AN
S 2
T w
U 3
V 6
V U
V m
W I
W N
W ith
Y 1
Y 8
Z i
Z q
a ção
b 4
b x
b en
b urú
c L
c ure
d t
f iti
h ane
j P
j yi
l ish
o a
p 1
p 4
p ut
p ọ̀n
q Q
u go
u ght
v 1
v 8
v M
v n
v ered
z t
z ab
z ika
à kà
ب ح
ش ة
ض ل
ض ائ
ع ر
ن ه
ه وم
ም ያ
ረ ኞች
ራ ሊ
ሰ ቃ
ስ ና
ሽ ም
ሽ ው
ቃ ቸው
በ ታል
ባ ው
እ ን
ከ በር
ኩ ን
ኩ ኝ
ክ ሳይ
ክ ምና
ዉ ም
ዩ ኒቨ
ዴ ት
ድ ም
ጀ ምር
ጠ ኝ
ጣ ችሁ
ጥ ረት
ፍ ል
ọ lá
▁ ሣ
▁ ኬ
▁ □
▁ ☺
▁ ➡
▁ 🌴
▁ 👊
▁ 💙
▁ 💥
▁ 📍
▁ 📸
▁ 🚨
▁ 🤌
▁ 000
👩 ‍
😈 😈
😭 💔
🙊 🙊
an ka
▁n jẹ́
▁n lọ
▁n wokem
▁m ou
▁m ini
▁a aaa
▁k hir
▁d ẹ
▁d jo
▁t ụ
▁t ia
▁t si
▁t uka
▁t ete
▁s ere
▁s aki
▁s aturday
in ho
▁b h
▁b ị
▁b inu
▁b eta
▁w c
▁w ine
▁w ire
▁w est
▁w lah
▁y s
▁y y
▁y ing
▁y ale
▁y atan
▁i gbu
▁g lo
▁g ina
▁g ats
▁h aa
▁h ed
▁l ad
▁l had
un ce
un go
▁f ak
▁f ome
or .
▁e gúngún
▁c idade
▁p is
▁p ale
▁p hy
▁p hot
▁p amọ́
▁p dp
at um
en ção
ak om
ال ت
ال ع
▁A yi
ba ho
▁# g
ah ar
▁de g
▁de se
▁de pr
▁de vil
hi p
▁ال اب
ad ị
he t
es eday
▁ya won
it anga
▁j um
▁j ima
▁የ ፕ
uk wanu
▁አ ቦ
▁አ ፈ
▁አ ደርጋ
▁da ughter
ya uta
co ,
▁an ga
is ir
▁N it
ọ́ jú
▁M or
▁M wa
le as
ab eg
"""" ,
▁O wo
▁O ju
▁à f
▁à wá
▁K us
▁K ur
▁K uba
▁K ene
▁I d
▁I gb
▁I wu
▁ba wai
▁no bi
▁me io
▁z oo
▁z abi
▁በ ሬ
▁በ ፈ
▁u yo
▁u vuga
▁wa w
▁wa cu
▁ma je
▁ma ghrib
▁S te
▁B oss
▁ì rí
▁ì wọ̀
ch oro
▁ku a
▁ku je
▁ku jua
▁mu dar
▁ነ ጥ
qu ito
▁v á
▁E thiopia
▁T sh
▁T ume
yi e
▁ab ba
▁ab akobwa
▁wan do
▁go es
ri bu
▁am am
li oni
▁ti i
ro wn
▁for a
wo t
zi an
go d
▁ò ṣèlú
▁ò títọ́
▁ف ح
▁ف ك
▁ف ن
▁ف علا
▁ف رح
te ,
ama gara
▁C O
▁C R
wan go
▁W u
▁W AN
▁ع ص
▁ń bẹ̀
▁ta ,
▁እን ስ
▁እን ጅ
be lu
▁ከ ሚያ
▁U wo
▁U mar
▁fi ya
▁so uth
ki ya
▁ي ض
▁ي و
▁lo ,
▁lo jo
▁com b
▁ak in
▁ak am
▁ak iti
▁3 ala
his hi
▁and ar
ed ade
!! '
▁mo çambi
ko um
▁ch ara
▁ch ama
▁re pe
ter a
bo hora
▁ك ر
▁L eg
را س
▁im in
▁im ana
▁ا ه
▁ا ول
▁um we
gu wa
▁la 9ab
▁ṣe bí
gi hugu
ze go
▁sa cri
▁bi di
▁bi yo
▁ብ ቸ
▁shi ft
▁ስ ጋ
▁è jì
▁è pè
▁J an
▁yo te
▁si ,
▁kí á
▁wh enever
▁yan ayi
▁ن ست
▁F úlàní
▁የሚ ተ
▁የሚ መስ
▁ማ ታ
▁À á
mi ,
▁ح ر
▁ح بيب
▁te xt
▁bo ye
دي ل
kan .
▁man chester
eri es
▁أ خرى
▁má rùn-ún
▁ẹ̀ ka
▁ẹ̀ yà
yan ka
yan ju
▁za une
vi es
▁ag yimi
ash y
ash ukuru
▁ts an
▁Ì wé
ري ح
▁ban ji
▁ban ku
▁mat es
ade be
adi ya
▁co l
▁ش و
▁ش وية
▁dai ly
▁if ite
▁she hu
ug ira
▁dan gote
▁han go
▁han cin
▁ደ ሴ
▁وال أ
▁ok ike
▁nd abona
mm mm
▁ما شاء
ose lu
bí ,
▁tu wo
▁fo fo
▁እንደ ዛ
▁ው ሸ
▁ج ل
▁الح م
▁الح شيش
▁pr ison
▁🙏 🏿
▁🙏 🙏🙏🙏
▁nk ị
▁nk wase
▁can s
lá .
▁ህ ወሃት
▁ke ji
▁fr ame
▁ac c
▁ac ord
▁kun ywa
▁ri ver
▁x aki
▁gị ,
▁ان تي
han an
aro ye
▁dá jú
▁غ اد
▁lọ́ kàn
gbu e
gbu fọ̀
▁To dos
▁fe ito
▁fe llow
▁up on
▁ቀ ጥታ
fu li
▁ታ ክስ
▁jo hn
▁jo vem
▁ap r
ene we
▁Nigeria .
▁day ake
amba ye
uro ,
man u
▁mak ay
▁mak ana
vu ye
▁🤣 😂🤣
▁الب ط
▁አለ ባቸው
▁De c
▁ዘ ላ
▁ub ona
aban di
▁إ ذا
din ma
▁ebe le
▁ja wa
▁ja zzy
▁umu aka
▁#R andom
▁yin ki
▁#S MW
▁الش باب
ato a
hun gu
IN I
▁ele dumare
▁Qu al
umi we
sí lẹ̀
▁bai wa
▁ci wo
▁uban za
▁nor th
▁oló lù
▁Ar á
▁onu .
▁الد ول
مو عة
▁lab aran
▁kwan ce
▁ari wo
EN TO
▁b3 ba
▁አብ ዛ
▁አብ ረን
▁ɛ bɛ
ute bol
▁cont ent
▁rẹ .
▁mon day
▁bà tà
iiii iiii
nn n
سا س
▁🤲 🏻
▁mesmo .
HA M
عم ل
▁cr ime
ahi di
▁#o duduwa
▁fri o
▁በማ ለት
▁ns ọ
وو و
▁🙌 🙌🙌
اا ا
▁كان و
▁om alicha
itu al
▁አማራ ጭ
▁❤️ ❤️
▁tra vel
▁Re ba
▁0 7
▁ge h
10 49
▁dà bí
▁arewa cin
UR A
▁saka wa
▁dara pọ̀
▁Ob uro
يرة ,
▁እኛ ም
▁tir ar
▁sílẹ̀ .
▁& lt;
▁ዶ ላ
▁ìb ò
▁وز و
🤲🤲 🤲
▁hum ani
bú rò
▁Lol ,
▁song s
alle lu
▁3lik om
hamm ed
zwe ho
▁od ikwa
wure gwu
▁Ib eribe
▁inter es
▁sau di
▁ተጠ ቃሚ
▁ኃ ይል
▁👏 🏾
▁በር ካታ
▁miss ing
▁og ini
bì tì
▁ṣà mọ́dún
▁ህዝ ቦች
▁diz em
نس ية
▁دار و
▁ذ لك
▁الر س
▁قال ك
▁lit er
▁qual ity
▁#Is eseday
▁ተቀ ባይ
▁ይመስ ለኛል
▁ይች ላሉ
▁ሚኒ ስት
Re quest
▁😁😁😁 😁
▁يخ رج
▁ነፃ ነት
▁prec iso
▁ፕሮ ጀ
▁ፕሮ ግራም
▁tsa won
▁speak ing
▁ev angelho
▁ይገባ ል።
▁kuj erar
▁sẹ́ ni
owe yii
▁uwe ze
▁uwe zo
🙏🙏🙏🙏 🙏🙏🙏🙏
▁Fo llow
▁ọg wụ
▁13 .
▁ሶ ስት
▁respon der
▁fá cil
▁maso ya
🇳🇬🇳🇬 🇳🇬🇳🇬
▁kau ye
▁ትር ጉም
▁ማህ በር
▁ቴ ሌ
▁#Or uko
▁ite geko
wahi li
▁Om alicha
▁Oo dua
▁namor ada
▁رائ عة
▁zina zo
▁رح م
▁maha uka
▁pergun tar
▁الرج ال
▁Pre c
HAHA HAHA
▁درا ري
▁#Angola WordConference
▁senti do
▁ign or
adem y
▁لما ذا
▁akụ kọ
▁#ha usa
▁CH UKWU
jìn lẹ̀
▁#Pari oweyii
ጠቃ ላይ
▁Mug ire
▁alham dulillah
▁haryan zu
▁الانت خابات
▁ህፃ ናት
▁ያስፈል ጋል
▁baá lẹ̀
▁kna ck
▁#Glori ous
برلم ان
▁አልነበረ ም
▁بغي نا
▁الدو لي
▁próx imo
ካባቢ ው
▁wll hy
▁unf ortunate
▁ƴ an
▁Ev angelho
▁opportun ity
luk ú
▁sù úrù
▁#Ominira Nigeria
▁ìṣò ro
▁AGO ZIGO
▁inno cent
▁ụg wọ
▁dhi di
▁amano ta
▁peop les
▁akiti yan
! ??
- e
. 9
2 L
2 w
6 t
7 n
9 y
: 30
A ba
D H
D n
D z
F x
G N
K R
K V
K Y
M G
N k
P 4
P e
Q Q
R a
R IN
S H
S n
U C
V C
V AN
W 0
W EN
X X
X x
Y orùbá
Z k
Z u
a zu
b ata
b ẹ́ẹ̀
c G
c x
d 0
d k
d ents
f en
f ẹ̀ẹ́
g ho
h f
h ba
i as
i he
i pata
j I
j O
j Z
k oni
l ist
l isho
m ẹ̀
m orning
m oud
n at
n ama
o h
o ye
p ù
q U
q z
r ate
s ẹ
t it
v Q
w uma
z G
z j
á jú
í ,
ò ,
ɛ n
ب ير
ع اش
ل ل
ه ليل
ي ج
ي ع
ሌ ት
ል ጥ
መ ኔ
ረ ዱ
ሮ ቹ
ሳ ቢ
ስ ቶ
ቃ ል።
ብ ሮ
ብ ሔር
ታ ን
ት ነት
ን ና
ን ዳን
ኖ ቻችን
ኛ ል።
እ ምሮ
ከ ፈ
ኩ ስ
ክ ለ
ዋ ሪ
ዋ ለሁ
ው ስ
ዘ ው
የ ህ
የ ተ
ዩ ት
ያ ቂ
ያ ችን
ድ ና
ጀ ም
ገ ዝ
ገ ዳ
ግ ቶ
ጠ ረው
ፈ ሩ
▁ ጩ
▁ ❓
▁ ọ́n
人 人
😚 😚
🤷 🤷
an ças
▁n lẹ́
▁n ational
us in
us es
▁a ur
▁a ...
▁a ina
▁a uto
▁k ona
▁k pu
▁k ont
▁k ariya
▁k bir
▁d kh
▁t t
▁t aku
▁t oni
▁t aman
▁s oo
▁s ia
▁s ki
▁s ori
▁s ese
▁s oso
▁s akar
▁b ò
▁b ought
▁o ti
▁o hhh
▁o pin
▁y un
▁y ama
▁i v
▁i lla
▁g ake
▁g ashin
▁g ender
▁h ur
▁h ir
▁h uko
▁l ha
▁l omo
▁l t3
un ,
▁f om
▁f is
▁f uru
▁f ulani
▁e wa
▁e ju
▁e gbon
▁e eee
▁e gungun
as ani
am at
am ahoro
▁c ab
▁c iti
on es
▁p àápàá
ak at
ak ama
ak ire
ال ى
▁A C
▁A je
▁A hhhh
ba yo
▁# w
▁# se
▁# ow
▁# vi
▁# oodua
▁# life
▁r wo
ur ed
ur iro
ay ina
ad er
ad amu
ir ai
ir ana
▁ya vuze
om bi
om oso
▁ni hi
▁j ik
▁j os
▁j una
▁የ ሽ
▁የ ካ
▁የ ጀ
uk ene
uk atan
▁አ ተ
▁አ ዲ
▁አ ባል
▁አ ቤት
co .
gb uru
▁an da
▁an ci
▁an zo
▁N kan
▁N igerian
▁እ ዳ
▁M ab
ab as
▁O '
▁O li
▁ọ mú
▁ọ yẹ́
▁ọ lụ
ing ia
▁à gbo
▁à kùkọ
ẹ́ kọ̀ọ́
▁I K
▁I S
▁I wa
▁م سا
▁و غ
▁و طن
▁و سط
em in
em ere
▁z uba
▁z ake
▁in zo
re g
▁on were
▁wa ba
▁wa 9t
▁S on
▁S wa
▁S imba
▁S orry
ce ce
▁B on
▁B em
▁B asi
▁se kta
ch ang
▁ku fu
▁ku jya
▁ku geza
▁E wo
▁E jo
▁E dumare
▁E mmanuel
▁T ó
▁T ar
▁T wa
▁T ambém
yi pada
▁ní vel
ra in
ra el
▁D )
▁D in
▁D un
▁D aya
▁go zi
▁am ong
▁am esema
▁መ ሞ
▁መ ረ
▁መ ጠበቅ
▁ب ني
▁you 're
▁ne cess
li ya
li gbo
do w
▁ti ve
zi z
▁ṣ i
▁ṣ ú
▁ف لا
▁ف اش
▁ف تح
za za
▁is u
▁is nt
▁th ough
▁th row
ji .
▁W hy
▁H on
▁di v
▁Y DG
▁ta ji
▁ta zama
▁ẹ iyẹ
▁do or
be a
▁G bà
▁al ikuwa
na ,
▁ከ ስ
▁ይ ወ
▁ይ ጠ
ci ous
ci gaba
▁ي ر
▁ለ ዛ
▁ak ar
▁3 al
▁ga wa
lo l
lo t
▁su ck
▁su cesso
▁mo chki
ko tanyi
▁kan war
▁ch r
▁ch aracter
▁' ለ
▁re late
lu ck
▁ك م
▁ك و
je a
نا ق
▁ki ji
▁ki pindi
▁ተ ግባር
▁ا ف
▁ا كت
bu ja
▁la uje
▁P ai
ee p
▁Ọ wọ́
▁sh ari
▁sa ina
pa .
▁bi ?
▁pe di
▁shi .
pe ople
ار بة
▁è nì
▁è dùmàrè
▁J un
▁J ama
▁le le
لي ات
▁2 6
▁2 000
▁ọ̀ bọ
▁ọ̀ kẹ́
ùn gbà
▁F amba
and ika
▁Ẹ ní
ub lic
▁ማ ክ
▁ማ ስታ
▁ማ ግኘት
▁À TI
▁À wòrán
▁ሰ ን
▁ሰ ማይ
▁ad 3n
▁ح بي
▁te us
▁te eth
▁st ore
▁bo om
دي ك
▁un to
▁kar asa
ate ver
▁#I jebu
▁con vers
ess ons
▁( I
▁mai mai
▁mai duguri
▁ẹ̀ fọ́
▁make up
▁za ’a
▁ag ah
▁ọmọ bìnrin
▁ts ak
▁ts all
ban ci
ري مة
▁ban gar
▁አይ ዞ
▁mut a
▁س لام
su .
▁ት ህነግ
▁وال د
▁mun i
▁af am
▁po lí
ما ء
va ,
يا ز
▁tu pu
▁fo l
▁الح ل
▁kú .
▁#O dun
▁ib itekerezo
▁An u
▁الع لي
▁any way
▁خ س
▁خ دم
gan ya
▁V ol
▁ጥ ላ
▁ጥ ሪ
▁ጥ በብ
▁ke ce
▁ke ka
▁ac tion
▁ac cept
▁x ata
art ment
▁#T e
▁#T h
ghi m
ghi r
▁q o
▁q as
▁up ande
fo to
▁ታ ሪካ
▁ታ ዲያ
▁#E we
▁الت ج
▁الت اريخ
▁them selves
▁ap res
▁لل أ
▁#N ow
ውን ም
▁ro le
▁nu hu
▁وا خ
▁Al haji
pu la
ንግ ሥት
vu bi
▁iya wo
▁الب شر
▁9 ja
▁bụ la
▁way ar
▁الا ح
kw ala
▁الس اب
▁إ س
▁bl 3
▁kh al
▁የመ ኪና
▁dị ka
▁dị kwa
▁ja zz
▁ጠ ፋ
▁ጠ ዋት
way en
▁فال ت
▁mú ra
▁mal ik
▁mọ́ lẹ̀
fan o
fun za
▁እያ ስ
▁cha a
▁du de
▁des ta
▁Igbo ,
▁ሚ ዛ
▁ሊ ግ
▁yín ,
▁Qu er
▁pre p
▁pre ach
▁bai da
▁ci won
▁oló gun
▁gbà .
▁bat h
▁là gbà
▁nne .
▁bẹ́ẹ̀ ,
uran te
▁! '
já de
▁ori leede
aho .
▁አንድ ም
▁መንግ ስታ
ልል ልል
▁201 4
▁hhhhh hhhhh
▁sc r
▁sc reen
▁አይደለም !
▁pain s
اف ظ
رك ات
ele br
▁lọ́wọ́ .
▁ባለ መ
▁ባለ ሙያ
ገራ ችንን
▁supp or
▁هو ما
▁happen ing
▁ሕ ይወት
ic es
▁nma .
▁fada wa
او د
▁با غ
▁😂😂😂😂😂😂 😂😂😂
▁pos itive
▁eb ighe
▁bra g
▁nko aaa
▁idi bo
▁shir t
▁sɛ n
UR I
▁He llo
▁😊 😊😊
▁tuntun .
eng th
▁بي هم
▁Go vern
▁sá ré
rìn dínlógún
ሰራ ው
▁تب هليل
▁ee ii
▁bom b
▁[ Be
▁እኛ ን
عو د
▁አካ ላት
▁ፓርቲ ዎች
▁#n aija
▁Jesus ,
▁😒 😒😒
▁exp ensive
ላችሁ ም
▁Ol isa
▁àt ẹ̀
▁nuna wa
▁Aba cha
▁15 .
▁We ll
▁ga- e
▁zaku yi
▁káà kiri
▁sur vi
▁l3 am
▁አድር ገ
▁mean while
▁rem ind
▁Mw iriwe
▁amba ye
▁suk ai
▁Alh eri
▁ekwu eme
▁diz endo
▁ملي ح
▁Min isitiri
▁nes sa
▁ale gr
▁العد ل
▁ɗ an
▁ይች ላል።
▁Ek iti
▁raji 'un
▁nib yo
رائ م
▁enwe ghị
😋😋 😋
▁tò un
IF A
zam akuru
▁hus ika
emb ers
▁tut ù
ubu zima
bag ore
bag irwa
▁láà rín
▁lead er
▁none ho
ለማ ዊ
wù jọ
ቀጥ ል
▁boo lu
▁ly k
▁ያሉ ትን
صد ر
▁Ye ah
ላፊ ነት
▁al' umma
▁bala 'i
▁ولي س
▁àlà yé
▁mbi li
▁conta ct
kòrò dú
▁yn xu
▁lug ha
▁السي د
▁fur sa
▁Aban tu
▁yarin yar
▁pró p
'an yinoria
▁ps g
▁insh ingano
▁luck y
▁orile de
---- ----
▁press ure
▁irm ã
▁segu ir
▁arre p
faham ishe
▁sli de
????? ♂️
▁sto ck
LILI LILI
5. 3
▁pur sue
ahita ji
▁አዋ ጅ
▁Mwan za
▁حي ث
▁mwenye we
pfu ye
▁adv ance
▁situ ation
▁yaud ara
há là
End time
▁sig ni
▁ኳ ስ
▁للب ام
▁honest ly
▁whe ther
▁አግ ኝ
▁መድረ ክ
zung um
▁jud ge
▁صاح ب
▁Tas ka
▁ሰላ ምን
▁አሕ መድ
▁Ìp ínlẹ̀
▁dẹ́ kun
▁bran ch
▁#id ahun
▁acab ou
▁ilaihir raji
▁عاجل .
▁dagas ke
▁iyal an
▁preoc up
▁packa ge
▁issu es
▁#BringBackOur Girls
- fe
. አ
0 w
4 8
5 P
5 U
5 o
5 s
6 L
6 X
6 f
6 s
7 ab
8 l
9 al
: ...
> >
A C
D u
E s
E u
F t
H igh
I DA
J 3
J f
J m
J À
K s
L 0
L À
L Ẹ̀
M 5
M T
M m
N 0
N t
N u
N x
N ile
R i
R Ì
T T
T AR
U B
U mu
W Q
W d
X r
Y z
Y ii
Z 4
Z Q
b are
c 8
c A
c ye
c ast
c les
c emu
d 3
d J
d ha
f N
f aa
f ari
f ts
g 7
g ereza
i u
j 4
j s
j at
m 8
m ers
n b
n aya
o bu
p d
p hi
p eri
p ost
p roverb
q ar
r 3
r ina
t n
t am
t is
x l
y im
z ị
à rà
è ,
ì là
ò kè
ئ ل
ب ن
ب الك
ب قى
ج ات
ر ئيس
ز ين
س ام
س كو
ق او
ي ض
ي ط
ي لي
ي ون
ሀ ን
ሉ በት
ሥ ራት
ረ ር
ረ ጠ
ራ ችሁ
ሳ ሳይ
ስ ቲ
ስ በው
ቃ ጠል
ነ ር
ነ ውን
ኑ ት
ን ቺ
ን ቀሳ
ኳ ን
ዳ ማ
ገ ሰ
ግ ለ
ግ ስት
ፎ ች
‍ ♀
━ ━
▁ Ú
▁ ɓ
▁ ሦ
▁ ቲ
▁ ፒ
▁ 😝
▁ 😣
▁ 🙃
▁ 🙋
▁ 🥂
▁ ገር
▁ ሆን
▁ ኦሮ
▁ ቲቪ
🤦 🏽‍♂️
🤲 🏽
🤸 ‍♂️
er .
an ye
▁n ir
▁n zi
▁n ika
▁n oma
▁m aman
▁k ori
▁k iganiro
▁d h
▁d aro
▁s ò
▁s ii
▁s ìn
▁s amb
▁s bah
in ze
▁b ass
▁b arin
▁b orí
▁b cos
▁b ridge
▁w ẹ
▁w ụ
▁w er
▁w ig
▁w his
▁w uri
▁y ase
▁y aku
▁i zu
▁i bí
▁i dà
▁g '
▁g á
▁g um
▁g ee
▁g war
▁h rs
▁h wee
▁l wa
▁l ya
▁l we
▁l ada
un ta
▁f ab
▁f uo
▁f air
or m
or om
▁c oro
▁p ant
▁p ena
en z
en we
en ess
en cy
ال د
ال ه
▁na '
▁na zo
wa h
▁A hh
▁A ki
▁# so
ah omey
▁r uru
▁de u
▁de lta
hi b
▁ال رباط
he s
▁ya g
▁j en
▁j èrè
▁የ ጉ
▁የ ላቸው
▁አ ሻ
▁አ ፈር
▁da bo
▁da ju
tt on
is se
ut we
ut ano
▁M usa
▁M ato
le la
ab ata
ab ire
▁O un
▁O yi
▁ọ cha
▁ọ lọ
ou ha
▁à pa
▁à lè
▁à jọ̀
▁K aro
▁I wo
▁I cy
... """"
em uka
ha ba
▁no te
▁me .
▁me ch
we po
▁በ ገ
▁በ ሚያ
im ambo
▁u jo
▁ka ine
▁in zira
ara gaza
ga in
▁to fa
ọ̀ tọ̀
ọ̀ lù
▁wa ɗ
▁ma ele
▁S ala
▁S hir
▁B re
▁B aban
▁ì mọ́
▁ì wọ̀n
▁ì jìnlẹ̀
ch er
ke ,
▁mu gihe
▁v indo
▁E ji
▁E kaaro
▁E rega
▁T Í
▁T ak
▁be ef
▁ní '
▁ab as
▁D I
▁D AN
▁go als
▁go vt
ri ce
▁am pa
▁am ala
▁መ ጠ
▁መ ፈ
ig ba
ig ence
▁ب ط
▁ب ار
▁ne igh
▁ل قي
▁ل من
▁ل قد
▁gb am
ro ,
▁for ça
▁for ward
▁ṣ ó
▁ṣ án
▁is ah
▁gi ves
▁C g
▁C i
ji e
▁W asu
▁W aya
▁W atan
▁W llh
▁ع مو
▁H ot
▁ẹ dìẹ
▁እን ጀራ
be ,
be e
▁as an
▁al kh
▁ከ ፈ
▁ከ ላይ
▁ይ ስ
▁fi hom
▁ي تح
▁ي جي
▁ي وفق
▁lo la
▁ለ በ
لا مي
لا قى
▁ha vent
▁ak tar
▁ga f
▁ga za
▁ga jos
▁mo ti
▁kan mo
▁ch ako
▁' ይ
▁re lease
àn ú
▁mi ye
po ,
▁ك لهم
▁wo e
▁wo y3
▁L ib
▁L eta
▁ki fach
▁ያ ሰ
▁ያ ወ
▁ያ ላቸው
▁im we
▁ተ ግባ
▁ا قت
ati lia
▁P á
▁P RO
ze a
▁en eo
▁bi ble
ها ها
▁ብ ዛት
▁pe ,
▁lá á
gh ani
▁J en
▁li ves
iri ya
لي ق
لي ك
لي م
▁sí n
▁ló ò
▁ló ore
▁የሚ ቆ
▁من ك
▁us ha
▁kwa i
ub ita
▁ማ ኅ
▁À bá
▁À sìkò
▁À ṣèyí
▁ሰ ፈር
lẹ̀ dẹ́
mi ye
▁ح ش
fa wa
▁bo da
▁bo la
ura .
▁ar gue
▁kar atun
▁#I badan
▁gu d
▁ag ar
▁Ì ṣẹ́
▁Ì jà
▁አይ ሆንም
▁Ch ama
end era
▁س ؤال
su ,
▁sun wọ̀n
▁ق اد
▁ق رار
▁وال إ
▁وال س
▁mun e
▁mun ji
▁yi ,
▁af ford
▁one 's
▁po ints
▁aka ba
▁vi bes
▁ما كان
▁ooo ,
▁ል ና
▁د اي
▁Am urka
▁fo jú
▁እንደ ምት
▁gba gbuo
▁الح رب
▁em pty
ኢትዮ ጲያ
▁ib em
▁የተ ሳ
▁خ ارجية
▁ባ ላ
▁ባ ህል
▁#A la
▁yìí :
▁ህ ጋዊ
▁ጥ ቁር
▁ac cess
▁ri ,
▁ri jiya
▁Mo çambi
ami ly
▁ina ga
▁men shi
▁Z aki
▁Z aman
▁To lulope
▁fe ed
▁الت ش
▁ap pe
▁por ta
akan fò
▁mar ia
▁kawai .
▁mma ji
▁የአ ንድ
▁che kwa
▁wí ,
يل و
▁nt am
ant es
▁bir geni
▁9 5.3
▁bay inka
▁ub uryo
▁os un
▁ካ ንተ
▁fẹ́ ẹ́
▁ama ghi
ደረ ገው
▁فال ح
▁yar ab
▁ilé ,
▁ị hụ
▁ለመ ሆን
dade ,
▁ط رف
▁ط لب
▁sar aha
▁በመ ጨረሻ
▁cha p
▁du as
▁#i danoripapa
san go
▁par un
▁aj í
▁#B i
▁chan nel
▁pass ar
kà tí
▁Ak ín
▁Um untu
ishi a
dí ò
▁son ki
▁sal ama
▁sal ary
▁بن ت
▁ayé .
▁ayé e
asan jo
ሪያ ችን
yè ,
▁ን ብረ
dú pẹ́
▁dak uma
▁በተ ግባር
▁musul ma
▁ህዝብ ን
▁#G ood
9a 2
▁#W ednesday
▁201 6
▁ሌ ሎ
▁comp any
▁umun na
▁jí jẹ
▁nam na
▁mah ali
▁bre athe
▁ent ender
▁#L o
😭😭😭😭 😭😭😭😭
▁muk am
▁The y
▁ባለ ፈው
cial Media
▁#Nigeria Decides
▁#P roverb
▁vo z
bin rin
▁ìgbà gbọ́
kùn kùn
ፈል ጋ
▁mp amvu
قل ية
▁ጎ ን
▁መን ፈስ
▁tra ck
▁et iti
تك لم
▁bal ai
▁pres id
▁ọn wa
▁shugaban ni
AS A
😢😢 😢
▁#e de
كا ي
▁kuke yi
▁spe c
esh ye
tù pà
▁nye m
▁pu ff
▁Biko ,
IR O
ars he
arya ci
▁Be eni
▁mum my
▁sp eech
oud ly
▁tar bi
kọ̀ ọ̀kan
▁pri vate
▁አካ ውን
▁Nke a
▁gut anga
▁#Y o
▁Orí kì
▁؟ ؟؟
▁jikan sa
▁Ele dua
▁cer ve
▁wò .
▁#Igbo Proverb
▁ሽ ማግሌ
▁15 0
▁ነገ ሩ
▁àà fin
▁tì rẹ
▁oba a
▁rab amu
▁Tu do
▁káà bọ̀
Mo çambique
▁🤷 ‍♀️
▁lhe s
▁spo t
IC A
▁add ress
irin de
▁😂🤣 😂🤣
▁የበ ላይ
▁akw una
ስራ ቅ
▁Pro ble
حك مة
▁dele te
eres im
wẹ̀ ,
▁verdade ,
መሰ ረተ
▁ment ir
ጠብ ቃ
yum unsi
▁ተከ ት
ብረ ተ
▁وح دة
▁تف هم
▁በየ ቀኑ
قا عد
▁😍😍 😍😍
▁taimaka wa
dán ù
▁Ọ̀yọ́ .
▁uni versity
▁صح اب
▁ይሆ ናል።
▁Pe lo
ለያ የ
▁prec is
▁ፕሮ ፌሰር
▁Za zzau
▁kik ayi
▁kuh akikisha
▁ምስ ጋና
▁ogb enye
ናገ ረው
▁ነፍ ጠኛ
▁sol te
▁Lma o.
👍👍 👍
▁ያሳ ዝ
▁የሀ ገር
▁swa g
سيا سة
▁cli ent
▁አሸ ናፊ
▁Nàìjíríà .
47 SMAFM
▁stat ement
▁#Isese La
▁« የ
جت مع
▁Od ikwa
▁nm adu
▁ተራ ራ
▁qar shen
▁fem in
▁تي زي
Lo unge
▁indi an
ambu lisho
▁deli ver
▁camp aign
▁Oo °
▁Nem an
▁ON YE
▁Ogb eni
▁pai d
▁kr om
▁😢😢 😢
▁ቆይ ታ
▁ይዘ ው
▁takai ci
▁olh ar
▁للح كومة
▁የመጀመሪያ ው
WAN NE
واج هة
▁muru go
▁البي جيدي
▁; )
▁baha ushe
pol ongo
▁lal ata
▁Lẹ́ hìn
▁noss os
▁الري ف
▁subhan allah
▁Ẹlẹ́ dàá
▁B' ó
▁#10 47SMAFM
▁7a ja
▁ange l
OTO ]
▁dist urb
▁Bik onu
▁kidna pping
ئا سة
▁turan ci
▁#wor ld
▁አገልግ ሎት
káà árọ̀
▁⚽ ️
▁det ails
▁fy ade
▁Loka cin
▁̊° !
▁mitanda o
▁#OwoE yo
▁Yà tọ̀
▁#Secure North
▁chh al
▁تصاور ,
Owe Yii
imenye tso
▁kufur ahia
▁aca ba
▁ón yé
▁Parab éns
▁batter y
▁➡ ️
▁Dec ember
▁olólù fẹ́
▁#Glorious Endtime
▁#IseseLa gba
▁#GloriousEndtime Word
# F
) ...
- 1
/ 2012
2 C
2 T
6 q
7 A
7 b
7 d
9 C
A i
B 3
B H
D v
E O
E W
E Z
E le
G W
H R
I E
I AN
J S
J V
K 3
K J
L H
L ight
L anguage
M an
N U
O A
Q K
R V
R y
S V
S m
T y
U q
V y
W 4
W m
X 3
Y x
Y IN
Z N
a ba
a ge
b we
b et
b ari
b ale
c Y
c z
c í
c ko
d ura
e da
f X
f ak
g L
g V
g we
g ent
h we
h ood
i ya
j A
j k
k po
k ene
l ike
m ọn
p Z
p ya
p aka
p ita
r h
r m
r ak
u x
v 6
v k
v q
v x
w z
w ur
x q
x r
y orùbá
z ụ
z uro
à .
á ra
è jì
ب صح
ت ر
ج وم
خ رة
ذ ر
س ف
س نا
ض و
ف يد
ق ق
ك ش
ك ار
ل له
ي ه
ሀ ው
ህ ።
ሊ ን
ላ ሴ
ላ ቁ
ም ነው
ረ ሱ
ራ ጌ
ሮ ን
ሰ ስ
ሰ ጡ
ሰ ናል
ቀ ሱ
ቀ የር
ቃ ን
ቆ ማ
ቆ ና
በ አ
ባ ባይ
ተ ራ
ተ ሽ
ቱ ት
ታ ማ
ች ውን
ነ ዚህ
ን ጅ
ኖ ራቸው
ኬ ት
ኮ ል
ዋ ዕ
ው ሞ
የ ሚ
ዩ ን
ደ ለ
ጋ ን
ፈ ርስ
ፍ ና
፣ 2012
“ @user:
▁ گ
▁ →
▁ ♦
▁ 🎧
▁ 💵
▁ 😟
▁ 🥵
▁ 👇👇👇👇
▁ \U0001
﻿ '
💦 💦
📞 📞
😉 😉
▁n ala
▁n ako
▁n jọ
▁m ɛ
▁m ood
▁m aye
▁m iran
▁m bele
▁m embers
▁a x
▁a ñ
▁a ii
▁a uri
▁a wi
▁k y3
▁k abari
▁d k
▁d ora
▁d ọwọ́
▁t aki
▁t usa
▁t òótọ́
▁s ch
▁s uru
▁s uro
▁s lay
in es
▁b im
▁b ati
▁b ako
▁o c
▁o ..
▁y ayin
▁y itwa
▁g am
▁g ik
▁g ẹ̀
▁h ụ
▁h ka
▁h utu
▁l eni
▁l oss
un o
▁f 3
▁f ɛ
▁f as
▁f oo
▁f àá
▁f esta
or ,
or ana
am be
▁c ou
▁p ade
at akiwa
ak ia
ak uba
ak ata
al it
al ity
al igo
▁A mu
▁A fo
▁A quele
▁# bb
▁r aye
▁r ushe
▁r oman
ai ra
ur un
ur yango
hi ll
hi la
hi li
▁ال ديمقراطية
ad him
ir ia
um ira
▁ya jin
om bwa
it ou
it ing
▁ni !
▁ni ya
▁የ ቴ
▁የ ኣ
▁የ ኮ
▁የ ዛሬ
▁የ ግል
uk ọ
▁አ ዝ
ya b
co urt
gb eso
▁an al
is ema
▁N O
▁N w
▁N ah
▁N ye
▁N ma
▁እ ጃ
ut sa
ut si
▁M ake
▁M kuru
le k
le m
ab at
ab ye
da a
▁O si
▁O ṣù
▁O lù
▁ọ mụ
ou u
▁à kọ
▁à rò
▁à lù
▁à mín
▁K as
▁K en
▁K han
▁K atibu
▁I F
▁I kin
▁م وج
▁م صر
▁و هو
▁و هران
ti mo
em me
▁no tific
▁me ho
we t
we go
▁z ’
▁z ara
▁z id
▁በ ጉ
▁u da
▁ka womana
ana ,
▁in ves
▁to ka
▁wa !
▁ma ara
▁S una
▁S amu
▁S ant
▁B in
▁B al
▁B ig
▁B ama
▁se at
ch ange
▁ነ ጭ
▁v ê
▁v cs
▁E ré
▁T '
▁T um
▁be ba
▁ab or
▁ab ani
▁ab ịa
ra w
▁D alụ
ri ve
▁መ ቶ
▁መ ኮ
▁መ ጠን
▁መ ኪና
▁ب كري
▁ne lu
▁ne va
▁R w
▁R anar
▁ل كي
li zo
li day
▁ti yín
▁gb on
ro yin
▁for e
▁ò ru
▁ò gbufọ̀
▁gi hugu
te za
▁C y
wan d
se i
ari ,
▁di bo
▁Y u
▁Y èyé
▁do kar
▁ت خل
▁እን ባ
▁as ib
▁al ji
▁al amu
▁ከ ቀ
▁ከ ደ
▁ከ ምርጫ
▁ይ ል
▁ይ መ
▁ይ ጨ
▁ይ ታወ
▁ይ ገኛ
▁U me
▁U witeka
▁fi ll
▁so b
▁so ut
▁ي ه
▁lo lo
▁ለ ሃ
▁ለ ኔ
▁ለ ይ
لا ف
لا ية
لا حة
▁ha z
▁ha wana
▁ha pụ
▁com fort
▁ak asa
▁ak hir
▁ga jiya
▁ga ziere
▁of ere
lo wo
▁mo del
sa fi
▁kan ya
▁ch oo
▁ch ini
ية ..
▁re co
▁re fer
▁re almente
ter wa
lu ia
▁wo di
▁L ai
▁L alle
▁ki asi
▁ያ ለን
▁ተ ደራ
▁ا ين
▁ا رت
ati vo
gu ag
ine ,
▁la ini
▁la zima
▁P l
▁P rin
gi dan
du wà
▁الم ب
pa in
▁en o
▁en gan
▁ወ ግ
▁bi ba
▁#Yoruba .
rí vel
▁è we
▁J ul
mọ lẹ̀
ne cess
▁si .
▁ም ላሽ
▁wh ine
▁fa v
ika .
▁F ar
▁የሚ ፈ
▁us i
▁Ẹ yẹ
▁ማ ይ
▁ሰ ጥ
▁ሰ አት
▁ad ùn
mi l
▁te ka
zo .
bá wá
▁kw it
▁kw ere
▁kw ishyura
▁bí ?
▁في نا
▁ar my
▁un .
▁kar u
▁kar an
ate ka
ate geko
▁n' iki
▁con sider
▁( M
▁أ ت
yin ye
lh ar
ore ye
▁or ders
▁ọmọ ,
▁ts ada
▁ts oran
▁ts ufa
▁Ì fẹ́
ري ا
ري ت
▁ban yi
ct ur
▁ግ ልጽ
▁ah n
abi ya
ላይ ታ
▁co le
▁oh !
▁ት ብ
oro bia
▁ደ ነ
▁ደ ብረ
▁bab ba
▁po gba
ما ية
▁á .
▁est ado
▁ok ùn
▁nan .
▁ል ን
▁tu as
▁har imo
aha xi
▁fo tos
▁gba wa
▁kas i
▁pr et
▁#O B
▁#O l
▁ib ir
▁An o
▁الع لم
▁any more
▁ai .
▁የተ ባለ
▁የተ ለያዩ
▁nk ita
▁nk iti
▁din ka
gan ga
▁ህ ው
▁ጥ በ
▁mus h
▁"""""""" O
▁fr ente
▁Ni le
▁الله '
ام ن
ام عة
▁aga ghị
▁cho co
han go
በት ።
▁Ò gbó
ima ze
▁ik h
▁ny ingine
▁To do
▁ክ ብ
▁ክ ብረት
▁ታ ይ
▁الت فاصيل
▁ap aix
sh ukuru
▁mar ar
▁ex ce
▁had in
id day
id gin
▁የአ ለም
▁che ga
amba ga
▁l' ẹ́
▁Al ẹ́
hu war
▁bir th
▁ur uk
▁ግን ባታ
▁ru e
kò yí
▁kh ar
▁የመ ከላከያ
amo us
▁ser vi
▁بال ع
▁ቢ ል
▁Ab ẹ́
▁Ab ala
▁fin ished
▁الج اي
▁#R anar
▁ስለ መ
▁ay á
▁ለማ ድረግ
▁ị ga
▁abo ve
▁aba da
▁kum enya
▁fu fu
▁#i badan
▁ነበር ::
▁ቤ ቱ
▁ቤ ቶች
صح ة
تو ما
▁😭 😂
▁كل ش
▁bai x
▁res ol
▁mb ọ
▁#M onday
▁ọba ,
▁ሁሉ ን
▁Ṣ à
▁ቅ ዳሜ
▁️ ️️
ንተ ር
▁son ho
▁tak en
ርስ ዎ
▁Es p
abu ja
gbó n
▁str ength
pá ,
▁ሃ ይል
▁fal har
▁መስ ራት
▁#C o
ናል !
▁الخ اصة
UN A
▁mur nar
▁lik om
▁تع لم
▁gr adu
▁Ah !
▁mesmo ,
zan ye
ድረ ስ
▁cr ist
▁jin in
▁supp osed
▁Yoruba .
▁y' um
bin ii
▁az ar
▁kal aman
▁om ume
▁som os
▁عند كم
▁ማን ነት
▁pà dánù
▁bb chausa
▁gar esu
▁ọma ,
▁እነ ሆ
▁Ad du
▁vida .
▁taim akon
▁ins pir
▁ይህ ም
▁au di
▁يع يش
▁اخ رى
▁zaman in
▁tá a
▁asa ba
كا ية
▁Go be
▁sá yé
▁mor al
▁mor ale
▁pu ll
ደራ ል
▁ኮ ን
😠😠 😠
▁stu dio
▁ብር ቱ
▁Ag ẹmọ
mà là
▁Ok pa
▁Rwanda .
▁Li fe
▁Ele dumare
▁ተወ ል
وق ع
▁kuba di
tó ̟
😆😆 😆😆
▁bó o
▁Vi deo
▁ky ale
▁sak on
umb uka
▁ebi do
▁uru byiruko
▁nígbà tí
▁ተጠ ና
pụ ta
▁ዕ ለት
Ex press
▁mim ba
▁beat ing
▁ooh ..
▁ህዝ ባዊ
▁hai fi
▁cur rent
▁الر ئيس
▁Fe bru
▁fito wa
gha chi
▁ije bu
▁díẹ̀ .
▁የዘ መ
▁gos ta
▁ወያኔ ን
▁int ro
▁Pa pa
▁Pa ul
▁smi ling
▁tri ed
▁jan ye
▁òkú ta
▁ras mi
▁የቀ ረ
▁kuji unga
▁land lord
▁Fa z
▁kawa ii
😂🤣😂🤣 😂🤣😂🤣
........ ........
▁elé dùmarè
▁Chai !
▁Olódùmarè .
▁لب لاد
▁agwu la
▁رب نا
🙏🏽 🙏🏽
▁سب حان
▁የብ ልፅግና
▁zam ani
▁secon ds
▁gwam nan
▁المش كل
▁የለው ም።
▁ወዳ ጄ
▁red es
▁الاست قلال
gì rì
▁mos quito
▁ማህ በረሰብ
▁አጋ ጣሚ
▁عا دي
▁err ado
▁law yer
👌👌 👌
▁fus kar
▁ለህ ዝብ
▁ide ia
▁2012 /
▁ọbụ la
▁እባ ካ
▁Una weza
▁map ema
▁maha ukata
▁وص لات
▁ṣẹ́ gun
▁ግብ ፅ
▁aconte cer
▁ري زو
▁mwan amke
▁loo ol
▁جي جل
▁alg um
▁ሪ ፖርት
▁jul gar
▁gaski yane
▁tre k
▁cat fish
▁vos so
▁IG WE
▁mili oni
▁tukun na
▁AR RE
▁Ot ito
▁zak ayi
▁dou bt
▁àlá áfíà
pote za
▁ገዳ ይ
▁ዕድ ል
▁Gwam na
👏🏽 👏🏽
▁برا فو
▁አይቀር ም
▁subscri be
▁demo cra
▁#Pari OweYii
New Year
▁فق ضية
▁esper ança
▁(@user )
▁hatu a
▁sele ct
▁ɔn yankopɔn
ቆጣ ጠር
▁አንዳን ዴ
▁gag gawa
▁pod emos
▁#yorubal essons
ፓርቲ ው
▁aben ço
ስቡ ክ
▁ewi ase
▁è̟ tó̟
▁W/ @user
clusi ve
▁bnad m
▁ál bum
▁التعلي م
▁vergon ha
▁souh aila
▁#IM LD
▁سانشي ث
▁chok ran
▁ቀበ ሌ
▁ተወካ ዮች
▁አመሰግና ለሁ
▁mekun u
▁indust ry
▁Wiz ara
▁#IgboProverb Friday
▁Proble ma
▁Mkuru genzi
/ 4
0 5
0 A
1 h
2 Z
2 o
3 raf
4 L
4 m
5 a
5 j
5 x
6 O
7 y
7 z
8 3
8 4
8 00
9 f
9 k
9 r
9 z
9 ol
? """"
A ir
B 0
B d
B p
B s
B ad
B AR
C 0
C e
D 0
D Q
E V
F P
F Z
F h
F ulani
G 8
G h
G ÚN
H z
H OTO]
I k
I y
J J
L S
M g
N 8
N n
N AN
O ba
O ni
R C
R b
R k
R m
R esurrection
S P
T X
T k
U P
U b
W 3
W B
W S
W X
X d
X e
X s
Y y
Z o
Z s
^ ^
a gba
c P
c p
c ikwe
d l
d x
e !
e za
e ko
f as
f la
f ọn
g nan
g ame
h ada
h ers
h dar
i an
j c
j f
j l
j àn
k ay
k ati
k ín
l gado
m ari
m pi
o bi
o te
p 8
p ọn
p ika
t om
t his
t ini
v 0
v 2
v h
v w
w x
y .
y we
z x
é kè
ò wò
ا زي
ة '
ج ه
ج ية
ح ث
خ لو
د ر
ش ار
ع ه
ف ف
ق ية
ሃ ነ
ሄ ደ
ለ ቱ
ል ስ
ሏ ል።
ም ድ
ም ...
ሞ ኑን
ር ም
ሰ ኝ
ሰ ቢያ
ስ ቃ
ስ ቶች
ሸ ነ
ቀ ቁ
ቁ ረጥ
ቃ ብር
በ ን
በ ደ
ብ ጥ
ቸ ዋል።
ቻ ለሁ
ነ ታችን
ነ ራል
አ ይ
እ ኔ
ኦ ል
ከ ላከል
ካ ሂ
ዊ ነት
ዋ ቂ
ዓ ል
ደ ኞ
ደ መር
ዳ ቸው
ጋ ሪ
ጋ ች
ግ ሩ
ጎ ችን
ጣ ጥ
ጤ ት
ጨ ር
ፊ ቱ
ṣ ó
ṣ án
‍ ‍
▁ Í
▁ 🎊
▁ 🎷
▁ 👆
▁ 👈
▁ 💁
▁ 😲
▁ 01
▁ 😜😜
▁ 🤪🤪
⛈ ️
️ ⃣
🇳 🇪
🏃 ‍♀️
😭 😂
😭 🙏
🚀 🚀
an en
▁n mo
▁n iri
▁n uru
▁m ẹ
▁m ão
▁m ala
▁m ure
▁m oni
▁m ember
▁m ànà
▁m kono
▁k adi
▁k new
▁d al
▁d ami
▁d igo
▁d 3n
▁t 7
▁t m
▁t é
▁t ama
▁t aro
▁t uku
▁t orn
▁t iskat
▁s ako
▁s lim
in te
▁b da
▁b ake
▁b ire
▁b uro
▁b ato
▁b ons
▁b 7al
▁o !!
▁o dds
▁y r
▁y ali
▁y ìn
▁i lá
▁g ri
▁g one
▁g yar
▁g ushi
▁l yo
▁l arin
▁l issa
un in
▁f on
▁f ọ̀
▁c ai
▁c oo
▁c ade
▁c ream
on gue
on yesha
▁p ig
at umia
en ch
▁na j
▁na omba
▁A K
▁A ji
▁A mo
▁A que
▁A ru
ba da
▁# oro
ah ụ
▁r h
▁r om
▁r asha
▁r imwe
▁de b
▁de ss
▁de vem
ur as
ay yu
ik wem
ir t
um bi
▁ya w
it em
▁ni se
▁j ẹ̀ẹ́
▁የ ናንተ
▁የ ቤተ
▁አ ዛ
▁da fa
▁da qui
gb ín
▁an ayi
▁an ima
is in
is to
▁N ka
▁N do
▁እ ወዳ
▁M ub
os an
os to
▁O re
▁ọ na
▁ọ là
ing e
ing wa
▁à g
▁à lọ́
▁à bà
▁à ṣì
▁à sá
▁K E
▁K asa
▁K ayi
▁K uri
▁K uu
▁I ji
▁I ko
▁I bo
▁م ل
▁م وقف
▁و غير
em un
em oc
em ble
em plo
▁z one
▁z abo
▁በ በ
▁በ ኮ
▁በ ሰው
im entar
▁u gu
▁u ja
▁u fodu
▁ka ,
▁in for
▁in box
di es
ga ze
▁to ile
▁wa jua
ma 9
▁S ak
▁S asa
▁B et
▁B ashi
▁ì rẹ
▁se bi
▁se arch
ch asi
ke l
▁ku ,
▁ku y
▁ku bu
▁ku ona
▁ku ling
▁ነ በሩ
▁v y
▁E N
▁E yi
▁E lu
▁T L
▁T ir
ta gbà
▁be le
yi je
▁ab re
▁we da
▁we ight
▁D ike
▁wan ne
de gbe
▁መ ...
▁you ,
ún i
wu .
▁ل ات
li co
li li
ro .
zi di
▁ò gbó
▁ò gùn
▁ف ى
▁ف رق
▁ف نان
te .
ama zi
ake ch
▁C in
▁C am
▁C ikin
▁C abo
▁C lica
wan cin
ji li
▁W IT
▁ع فاف
▁H as
▁H allelu
▁Y ake
▁ń bọ̀
▁ta je
▁ẹ kú
▁ẹ kún
▁ت ل
▁ت زا
▁ت رك
▁ت هدر
▁ت ونس
▁G ari
▁al q
▁al amun
▁al right
na ch
▁ከ ር
▁ከ ክ
▁ከ ድ
▁ይ ሰራ
▁U ra
ci yar
▁fi x
▁fi dda
▁so ap
▁ለ ጥ
▁ለ ፍ
▁ለ ሁሉም
"""""""" '
"""""""" ?
▁ha p
▁ha w
▁com ent
▁ak ẹ́kọ̀ọ́
▁3 l
▁3 m
▁3 an
▁su ce
▁su ji
▁su ala
▁su fici
▁mo de
▁mo der
▁mo ço
▁ch kon
▁ch rist
ni ,
▁' re
▁re .
▁re gar
▁re con
bo k
▁ك أس
نا مج
▁L ike
▁ki bazo
▁ki dogo
را وي
▁ያ ም
▁ያ ደረገ
▁ያ ቀረ
▁im be
▁ተ ለ
▁ተ ፈ
▁um uk
bu lu
▁Ọ bà
▁Ọ ọ̀ni
▁الم ه
ina ,
▁ወ ዲህ
▁bi za
▁ብ ሩ
rí wá
are ,
▁pe !
▁pe las
amu a
▁1 ኛ
▁ስ ጋት
▁lá é
ار ح
▁è sì
▁😂 😅
▁J ẹ́
▁J ee
iri .
لي ش
▁ọ̀ tá
▁fa .
▁fa int
▁sai ya
ùn -ún
ات ش
▁F ẹ
▁F at
▁F ed
and aran
▁የሚ ሉ
▁የሚ ሆን
▁kwa ce
jo da
ub aka
▁ሰ ል
▁ad om
mi la
▁it umo
▁bo l
دي دة
▁kw ako
▁bí bí
▁man jo
eri e
▁kar bo
▁kar uwa
▁kar yane
▁pa .
ate k
▁n' ak
▁n' im
▁#I ya
▁gu fun
▁gu hangana
▁gu erra
▁con corre
▁أ ص
án á
▁ẹ̀ bà
▁mana ,
lh er
▁ag ya
▁ag ẹmọ
▁ra go
▁Ì tàn
ban k
▁ban t
▁ban ho
▁ه ؤلاء
▁your s
▁ግ ም
wi y
end s
end ing
▁sun ci
▁sun ada
▁wi li
oro .
هم ة
▁ق ي
▁وال ق
▁af f
va ge
va ção
▁ok w
▁vi le
▁nan ya
▁tu o
op ata
▁wá kàtí
che l
▁ው ር
▁ው ለታ
▁ج امي
▁kas ha
▁ce do
▁الح ياة
oma ch
▁ib ò
▁ib it
▁An ayi
▁An gola
▁oo ,
▁የተ ባለው
▁የተ ለየ
▁pl ane
▁pl anta
▁خ لق
▁#A wa
▁nk wasi
ite go
اب ل
▁pro gram
▁pro file
▁ر أ
▁ر انا
▁x ama
gba .
▁wat arana
▁come ç
▁cho ose
▁Ò un
▁dá rúkọ
▁sha fin
▁ik un
▁ik pu
▁ny ina
▁ny umbani
▁Z i
▁fe ira
▁hi cho
▁q are
▁Ka ce
▁ታ ከለ
▁#E n
▁#E wi
▁لا ح
▁jo ur
▁ap u
sh uti
▁wà á
▁Ba z
bar k
▁uk wa
▁bro wn
▁nt ab
▁nt umi
▁know ing
▁nwa yi
▁Ọ̀ gá
ant ana
▁አስ መል
▁አለ ብን
rò yìn
▁De lgado
▁gbé .
▁ሀ ገራችን
▁sho es
▁her o
▁kó dà
▁ou ght
▁sin mi
▁kh ad
اد ير
▁daya .
▁ካ ድሬ
▁ama g
▁بال ح
▁kin fi
▁time line
▁mal ta
▁ay y
▁ị ma
▁sm s
▁በአ ል
▁per di
fun gu
fun zo
▁አል ባ
▁cha gua
▁du a
▁ká rí
▁des co
▁des te
▁???? '
▁ሚ ና
IN WANNE
ud ia
▁ng wanu
▁na- ach
kó so
▁par ents
▁chan jo
▁dia ,
▁pass ado
▁uban ku
▁የሚያ ደርግ
▁መል ሶ
▁Ẹ̀ yọ̀
▁gbà ,
▁nn oo
imo .
▁ol isa
▁ego ,
wà rà
▁Ak ụ
▁ኢ ሳ
▁nne ,
▁wal ou
dd en
▁dar k
▁kashe wa
▁rẹ ,
ores ho
😀😀 😀😀
▁መስ መር
▁il imin
▁bà bà
حد ث
▁lai dis
▁الن قل
▁mul ti
▁Ní bo
ele za
▁ዝ ና
ልን ።
▁ባለ ስልጣ
ahi ya
▁sou l
▁የእ ኔ
ገራ ዊ
▁tw 3
😡😡 😡😡
eeee ee
▁ns 3m
TA S
▁let u
▁Est amos
▁oku .
dar àn
▁om umu
▁Su dan
▁pos ition
▁0 90
▁Sa uran
▁mere ce
▁yab ashi
▁tay aya
▁Go diya
▁#D ream
▁اح نا
▁♫ ♪
▁damu war
IR E
▁stu dents
▁[ [
▁ብር ሃኑ
▁Be llo
▁God 's
▁proble mas
▁tir ẹ̀
ukwa a
መለ ከተ
▁tare da
▁Do kita
▁ኤ ርት
àì já
▁شي خ
▁Po der
▁jikan shi
▁cer teza
▁#Igbo High
ang ire
ang alia
▁sing ing
▁fat hers
▁iba da
▁pla ces
▁ድር ጊ
▁#The Gospel
▁🤷 🏽‍♂️
▁aki wa
▁aki li
▁od ó
▁niile .
llo wed
መል ስ
zza f
▁duba wa
▁አድር ገው
pà dé
▁Ji de
▁lónìí ,
▁ث انية
▁aji ye
▁fami lia
▁cham ado
صر ية
▁ኦ ቦ
▁ስር አት
ções .
▁ose lu
lat or
▁ሸ ዋ
▁ind irimbo
▁dam emu
▁خاص .
▁ረ ጅም
▁#m onday
▁እም ቢ
lẹ wọ́
▁Mut ane
▁ሠ ላም
▁aju da
ገደ ል
▁gos tei
ዎቹ ን
▁ይመስ ል
▁ofuma .
▁السيا سي
▁rwose .
ዘጋ ጅ
▁ቢሆን ም
▁Ra pu
▁jar uma
▁enwe ghi
▁jó kòó
▁ግድ ያ
▁ekwe la
▁gini ?
IK I
▁SA W
▁Mus lim
▁Á frica
▁val entine
▁gl ad
▁rela cion
▁shekar ar
▁shekar un
▁comm it
▁ly rics
▁مست وى
ige ze
▁wonder ful
▁trend ing
▁ọg ọ́
▁mach ine
ṣò fin
▁eee h
asho boka
▁جم يلة
አዴ ን
▁hay yu
ṣí rí
▁NI G
▁nm chi
ርቶ ዶ
▁#Or iki
▁orílẹ̀ èdè
▁نس بة
▁ፌ ደራ
▁Br itain
▁ìgb ìmọ̀
▁gost ar
pas ẹ̀
▁qui et
▁Congr ats
▁import ante
▁الوز راء
▁ዉ ስጥ
▁በራ ሱ
▁sta ff
▁deci ded
St ate
▁لـ” كود
WAN DA
▁àtijọ́ ,
▁àkó kò
▁favor ite
▁ign ore
▁ogh niya
▁magh reb
▁uki wa
🚶‍♂️🚶‍♂️ 🚶‍♂️
▁የሞ ጣ
▁ለሀ ገር
fund isha
▁yẹ̀ yẹ́
▁ṣo ṣo
▁አመራ ር
▁አመራ ሮች
ንቃ ቄ
▁sall ar
▁zal unci
▁pop ular
▁tsine wa
▁مزي ان
▁(1 ):
▁Aljan na
▁majal isar
▁politi ci
▁politi cs
▁Kub era
▁Ram adan
▁bgha w
ፈፀ መ
ችኋ ል
▁Àì kú
▁talakka wa
▁Vo dacom
🗣️ 🗣️
▁Duba i
▁الفت نة
ረጋገ ጥ
usho bozi
▁እርግ ጠኛ
▁premi um
▁#Ni gbatiwonde
▁hass ada
▁Mko a
▁Wil aya
▁sojo ji
-ò -
▁engine er
▁ilé- iṣẹ́
▁mummun an
jito keza
▁zat ayi
▁እግዚ ያ
▁ẹlò míràn
▁corru ption
▁ተከታ ዮች
▁المسؤول ين
▁jom hor
▁materi al
jyan ye
▁ይቻ ላል
▁Magu fuli
▁Ṣùgbọ́n ,
▁gram my
▁EST Á
hoho terwa
▁strug gle
▁compet ition
▁فأوكرانيا ..
ሮፕ ላን
Book s
▁ወራ ሪ
▁راجع ون
▁redu ce
▁አጀ ንዳ
▁lmaf oooooooo
▁በትክ ክል
▁ying ise
▁repe at
▁ዶላ ር
▁ተቀባይ ነት
▁scr atch
Nile Yoruba
gbeso la
▁ọmụ mụ
▁#OB INWANNE
HOTO] ]
! """"""""
' A
' ll
' ra
' lẹ̀
/ /
1 P
1 X
2 s
2 50
3 l
3 at
4 H
6 H
7 1
7 M
7 u
8 y
9 2
9 O
9 Q
9 in
9 ach
? 😂😂
A h
B 4
B M
B n
B í
D Á
F estival
G F
G T
G b
H V
H ol
I f
I x
I ON
I mana
J F
J b
K 1
K 2
K e
L W
L t
L an
L LAH
R 8
S h
S Ẹ̀
T i
T OR
V F
V Y
W 1
W b
Y Á
Z c
Z h
b ers
b aki
b irin
b yeyi
c co
c cin
c imento
d C
e gun
f to
f ada
f one
f estival
g m
g aya
g ẹmọ
h b
h ak
h ra
j F
j Q
j n
j t
j ad
j ou
k umi
l aka
l áà
m ire
n ù
n aa
o lo
p han
p amọ́
q n
q w
r S
r em
r ens
r oss
r akech
s 3
t ab
v d
v g
v ado
v amento
w q
w ẹ
w ali
w emo
x 5
x m
y ò
y iri
z q
z at
à bí
è sí
ò rò
ɓ a
ɔ den
ɗ in
̟ nì
ب ان
ت ص
ت ع
ت ل
ح ية
خ و
د مة
ذ ن
ز ع
ش ير
ظ م
ظ اه
غ نية
م ضان
ሀ ብ
ለ ብ
ላ ቸውን
መ ቱ
ማ ሽ
ሞ ክ
ረ ኝ
ረ ደ
ረ ጡ
ረ ታዊ
ሬ ሽን
ር ታ
ቀ ሰ
ቀ ቀ
ቃ ለሁ
ቆ ች
ቢ ት
ቦ ታው
ታ ቹ
ት ል
ቹ ህ
ነ ተኛ
ና ።
ን ጀ
ካ ት
ካ ሄድ
ወ ለ
ወ ያኔ
ዋ ጋ
ዘ ዋ
ዩ ም
ያ ለሁ
ደ ነ
ዲ ራ
ዳ ንት
ዳ ደሩ
ድ ል
ዶ /ር
ጁ ን
ገ ም
ገ ውን
ጋ ር
ጌ ል
ግ ም
ግ ኖች
ጥ ሮ
ጥ ፍ
ጨ ዋ
ጹ ም
ፍ ታ
ፍ ረት
ọ ba
┃ ┃
▁ ሼ
▁ ዎ
▁ ፩
▁ 🌹
▁ 🤍
▁ 🤩
☀ ️
🎉 🎉
🏃 🏾‍♀️
🐺 🐺
👌 🏽
💙 💙
😑 😑
😓 😓
😬 😬
😷 😷
🙌 🏻
🤒 🤒
🤦 🤦
er y
er un
▁n ose
▁n ss
▁n nyɛ
▁m mu
▁m ghrib
▁m ghribi
▁a hi
▁a yan
▁a gbó
▁a gidigba
▁k ha
▁k et
▁k ete
▁k oshi
▁d nt
▁d urante
▁t n
▁t os
▁t ul
▁t iri
▁t ala
▁t ru
▁t ight
▁t uki
▁t asha
▁t aifa
▁s .
▁s uba
▁s na
▁s aha
▁s ịrị
in ar
▁b 7
▁b es
▁b ou
▁b yar
▁b akan
▁b runo
▁w ld
▁w abo
ar ira
▁o y
▁o ó
▁y yi
▁y ash
▁y asi
▁i ha
▁i hun
▁g ọ̀
▁g oogle
▁h w
▁h ye
▁h we
▁h ade
▁h ayo
▁l ’
▁l ale
▁l ayin
▁l onge
▁l lah
un cin
▁f b
▁f ó
▁f es
▁f ig
▁f ín
or ation
or no
or oshye
▁e li
am ọ
am asa
▁c ama
.. ?
on ko
▁p ense
at hom
ak una
ال و
▁na eme
wa di
▁A ir
▁A ye
▁A ce
▁A já
▁# on
▁# st
▁# ins
ah andi
▁r ad
▁r aka
▁r ani
▁r ín
▁de v
ai ye
ur iki
ay ings
▁ال كون
he l
ik it
um wana
▁ya 3ni
it ry
it her
▁ni yi
▁j ou
▁j im
▁j iko
▁j ind
▁j ụrụ
▁j add
▁የ ን
▁የ ጊዜ
▁የ ሙስሊ
▁አ ከ
▁አ ወ
▁አ ጭ
ya ?
ya ba
gb in
gb ala
▁an on
is so
▁N ’
▁N at
▁N os
▁N je
▁N iku
▁N VI
▁እ ሰ
▁እ ሷ
▁እ ዛ
▁እ ዛው
ut era
ut urage
▁M T
▁M il
▁M ambo
le ta
ab ane
da po
os ta
▁O ...
▁O ka
▁O rin
▁O su
▁O ru
▁O sun
ou b
▁à kí
▁à dán
▁à ǹfààní
▁K ik
▁K ini
▁K uki
▁K labu
▁ba 9a
▁ba cu
▁م ض
▁م دا
▁م اني
▁و كت
ti i
em ọ
▁me za
▁me zie
▁z ah
▁z um
▁z ime
▁z amo
▁z abar
▁z ulum
▁በ ጭ
▁በ ሆነ
▁በ የት
▁በ ምርጫ
▁u v
et as
▁ka war
▁in ye
▁in cha
di le
▁to ler
▁wa 9i
▁ma x
▁ma am
▁ma oni
▁S S
▁S abi
▁S wi
▁S AN
▁S tar
▁B at
▁B aya
▁B ịa
▁B unge
▁B UH
▁ì mà
ch as
ch ana
ke .
la ce
▁ku endelea
▁ku ongeza
▁v alu
▁E ri
▁E VAN
▁be be
▁be ber
▁be zaf
▁ní nu
▁ab t
▁ab du
uba vu
ho di
ra p
▁D S
▁D ara
▁D ani
▁wan ted
ri ga
▁am ak
▁am anar
▁መ ሀ
▁መ ሃ
▁መ ቸ
▁መ ጨ
▁መ ሃል
ig ikombe
ún á
▁R an
▁ل ص
li x
li an
▁ṣ àì
go lo
▁ò rù
▁ò kùnkùn
▁ف ش
▁ف ص
▁ف لوس
▁is hy
te e
▁th ree
▁th reat
▁th amani
▁C u
▁C ent
wan ja
wan dan
▁W hi
▁W ag
▁ع ب
▁H m
▁H uduma
▁H BD
▁qu ase
ان ات
▁ń lọ
▁do k
▁ت عب
▁ت اني
▁ت جي
be d
▁G B
▁G L
▁G en
▁G lori
▁as alin
▁al ar
▁al ak
▁al um
▁al mo
▁al ong
▁al umma
▁ከ ራ
▁ከ ኢትዮጵያ
▁ከ ማን
▁ይ ነ
▁ይ ና
▁ይ ወጣ
▁ይ ባር
▁U K
gbo .
▁so ,
▁so te
▁ي رجع
لا مية
▁ha ver
▁3 k
ani i
▁mo ving
ko .
ko l
▁kan shi
▁ch ere
▁' ከ
▁re a
▁re ign
bo .
▁wo a
▁wo ke
▁wo fi
▁😂😂 🤣🤣
▁ያ ቀ
▁ያ ድርግ
▁im ir
▁im vura
▁ተ ጽ
▁ተ ባለ
▁P ẹ̀
▁P ARA
gi jin
▁bu la
▁sh ash
du zi
du gudu
▁الم ر
▁الم ي
▁sa .
ja 3
▁bi l
▁bi binii
ira cle
▁ብ ሏል
▁bá ra
amu zi
▁shi ya
si bil
▁he ada
▁J A
▁J ar
▁J ay
▁J os
▁J isike
▁é ?
▁say ar
▁ም ዕራ
▁ọ̀ sà
▁sí wájú
▁wh atever
▁ló hùn
ات ك
▁ن ور
▁ن واحي
▁F ati
▁የሚ ችል
▁من ذ
▁us ajili
▁Ẹ gbẹ́
ub ut
▁ح دا
▁ح يت
ku .
ly hill
▁st ation
▁st omach
fa fan
aki ya
دي ه
▁kw ụ
▁man da
▁man go
▁kar bar
▁kar amin
▁kar ịrị
▁con dom
▁( in
▁أ ين
▁أ مام
iki e
▁má rùn
▁kuma ?
yan u
▁ag adi
▁or gani
▁- --
▁ọmọ ge
▁ts arin
▁ra war
▁On ly
ري س
▁ban ana
▁ban di
▁mat asa
ct ure
▁ግ ዴ
▁ah un
adi yya
▁ش هيد
▁س مع
▁sun kún
▁ት ዝ
oro ,
oro du
eg ura
ug ar
▁ق ول
▁af árá
▁kò sí
ما رات
ما زيغ
▁nd iro
▁ما ذا
▁fit s
est y
est ão
▁د ون
▁د ور
▁د با
▁Am eeen
▁fo ur
▁እንደ ማ
▁ው ሰ
وا د
▁الح بيب
▁الح دود
▁oo dua
▁የተ ማረ
▁خ ب
▁خ ص
▁nk ụ
▁din mu
ita .
ita ge
▁V al
▁ጥ ን
▁ጥ ረት
ito ,
▁"""""""" Ì
ven s
▁ሲ ፈ
▁In u
▁kun di
▁kun ga
▁kun ji
▁kun giyar
▁pro cura
▁ri biri
▁x aku
▁won .
▁san nu
han gane
▁Ò pó
▁Ha pụ
▁wai st
ለም ን
▁sha fa
▁kai wa
▁ik indi
ست ي
▁wor ship
ast or
▁ክ ር
\n ما
▁ምን ጭ
▁q i
fu lly
▁Ka game
▁#E to
▁#E kiti
▁jo g
▁ap on
wit h
ene o
▁ob je
▁wà hálà
▁y3 b3
▁ex per
▁ex cept
▁bar aka
▁kawai ,
▁لي ست
▁#N ew
▁ro ko
دا ع
▁muna furci
▁ገ ፅ
▁وا ه
▁nt an
▁mak aryaci
▁nwa yọ
vu ge
▁ص نا
▁ص غير
▁eme .
ant v
▁🤣 😂🤣😂
▁አስ ቸኳይ
▁الب ر
rú báwá
▁እየ ሆነ
▁pi zza
▁ur umva
ff f
▁sho e
kw ana
▁ru a
▁ru wana
▁ebe e
AR E
▁sọ ,
▁who ever
▁ama ghị
▁بال ك
▁umu yobozi
▁ìy è
pi e
▁ጠ ቃሚ
بي جي
بي طار
▁ay ò
▁gh ada
▁ilé .
▁አል ሰማ
▁ife a
▁ojú u
▁kum we
▁kum be
▁ط لع
ais es
▁በመ ስ
▁በመ ን
▁du du
▁des c
▁des p
far iki
▁እስ ር
▁ele dua
uki le
▁isi .
▁#B BC
▁#B enin
▁#B lessed
▁gy m
▁pre gnan
▁mad ini
▁mw ingine
▁ìlú ,
ambi e
رف ة
▁oló yè
▁res to
▁res pons
ham ed
▁ọba .
▁Ar usha
▁الد نيا
imo h
▁ran ti
▁baki daya
▁kwan an
▁ኢ ህአዴግ
▁mn in
EN TE
jí ǹ
ment s
uran yi
▁dar ling
asan zwe
▁tak ura
▁tak unt
gbé .
▁aw oran
▁mí mọ́
con t
▁tweet er
atu a
▁mẹ́ jọ
abu ze
abu hanga
▁call s
gbó ná
▁በተ ጨማሪ
▁rẹ wà
▁sen hor
ores hwa
▁bas ta
▁bas ed
▁bas ket
ሰብ ሰብ
▁ሃ ሃሃ
▁ከተ ሞች
▁isso ?
▁ይሄ ው
▁win dow
wer em
▁nam es
ናል ባት
▁kut embelea
▁èèyàn ,
▁èèyàn .
▁Ah med
▁muk uru
ልን !
▁amin ce
▁inú u
▁በማ ን
▁kill ed
▁ሕ ፃ
▁war ke
አብ ይ
▁አላ ማ
▁عند ما
▁Su gbon
▁با ه
▁tra zer
▁kab amu
gy pt
▁yas ani
ká rà
▁ge fe
ጀመ ረ
gbè gbè
▁الص بر
▁الص بلي
▁ins ta
igi hugu
▁Is ab
▁shir men
▁part s
▁En yi
▁He wa
▁مت اب
▁ዋ ናው
طي ف
▁አም ላ
▁tán .
▁#In dependence
▁Ob ìnrin
▁ada wa
ደራ ስ
Of Light
Of Hol
▁oj ire
gó ró
▁quer es
عو دية
▁ruwan mu
كت ورة
▁አው ሬ
▁ራ ሱን
ائ لة
ados .
▁رو حي
▁ሆነ ህ
▁Sh ine
▁nǹkan kan
▁igba dun
▁ọlọ́ jọ́
▁ìdí je
gem ent
▁የህ ወሓት
▁مس ؤول
▁ለአ ንድ
▁ለአ ማራ
▁የሆነ ውን
▁deɛ n
ገና ኛ
▁نح ب
▁trans form
فت نة
Mo tivation
▁mt n
▁jù lọ
▁نت منى
▁ky ere
▁الط بي
▁bàbá a
▁ቤተ ሰቦች
▁ሴ ራ
▁kug era
▁nyin aaa
▁ry ari
▁Ut abiri
▁#End Po
▁ade 3
▁ወን በር
😩😩 😩
▁s' ọ́
▁rai se
▁14 .
▁og iri
onge a
▁yaba wa
فر نسا
▁መቀ ጠል
oran abuhanga
▁#s mw
▁بع يد
eto a
▁flo or
▁ሠ ው
▁ṣ' à
▁lk hir
▁rọ rùn
▁ወንድ ም
▁سي دي
vem ent
▁bwa we
▁مات ش
▁n'i hi
▁cri anças
▁nib wo
9o lo
▁Mm adụ
▁Pe ople
💔💔 💔
▁nde wo
▁እንዳይ ሆን
▁bn at
▁bn adem
▁Tuna penda
▁manta wa
▁ፅ ንፈ
▁dace wa
▁ክፍ ለ
fany akazi
▁مج موعة
jù mọ̀
Tu esday
pf uk
▁በህ ግ
▁يد خل
ishy ira
▁na-e kwu
▁الفا س
▁سب تة
▁Wato to
▁نج اح
▁🤣🤣🤣🤣🤣🤣 🤣🤣
▁በሀ ገር
▁የለ በት
🇷🇼 🇷🇼
▁opp os
▁هههههههه ه
▁3and ha
▁ìgb ín
yir uko
▁Odi ghi
▁Igi he
▁fur aha
▁Dr .
▁tsar emu
▁aconte ce
▁twe ep
▁معا هم
▁አዳ ራሽ
▁dier r
▁kpọ rọ
▁abubu wa
▁anim al
▁bud urwa
ፈልግ ም
▁cora gem
▁alg uma
▁أح سن
▁tari hin
▁edu cation
▁Pi or
▁gaski yar
▁quê ?
▁ቅድ ሚያ
******** ********
▁الصحرا ,
▁huk umar
▁Nya gasani
▁gener ation
▁ለነ ገሩ
▁በቅር ብ
▁Ìgbà gbọ́
🙏🏼 🙏🏼
▁Lẹ́ yìn
▁adì yẹ
▁úni co
WordOf Life
▁ጁ ንታ
▁Covid -19
▁mist ake
▁kwall o
▁😩😩 😩
▁እንቅ ስቃ
▁perce ber
▁አምባ ሳ
▁mmi enu
▁መስሎ ኝ
══ ══
▁ወታ ደር
▁#Osu Ogun
▁lmfa o
▁ጆ ሮ
▁mù sùlùmí
ân cia
▁mane ira
▁palav ras
▁قا عد
\u200d ♂️
▁ከን ቱ
▁Bay ern
addan ci
▁ọchị chị
▁Wah ala
▁alka warin
▁tail or
▁Mats alar
▁Arre pendimento
▁vye tu
▁rob ber
▁ዳን ኤል
▁በሞ ጣ
▁Ekwu eme
▁#EdeYoruba DunLeti
▁wulakan ta
▁fizer am
▁sábà bí
▁kem gbe
▁eter ni
▁sour ce
▁Àgbá yé
▁ታም ራት
▁#kaft antv
▁فالصح را
▁መልእ ክት
▁#ThePulpit OfHol
▁Mwenye kiti
🌧️ 🌧️
▁fass ara
▁በስተ ቀር
▁munt uba
▁deg ree
▁interes ted
ànú jẹ́
eresim esi
IAN UK
▁#Ol orun
▁kuling ana
▁#TheGospel OfLight
▁لـ”كود ”:
lyhill Worship
▁#ThePulpitOfHol iness
! ...
, k
- ń
- ín
1 Q
2 Q
3 7
4 Q
4 i
5 S
5 Y
5 r
6 T
7 h
7 na
7 00
9 M
9 n
: )
? ...
A k
A ka
B P
B V
C F
C Q
C g
E X
E we
F e
G 7
G m
G u
G IC
H c
I Z
I b
J Y
K 7
K w
L Y
M V
M t
M idday
N w
N y
O na
R t
T P
T R
T s
T rans
T ongue
U Y
U MA
W L
W o
W s
X N
X U
Y 4
Y F
Y M
Z S
Z Y
Z b
a ,
a ve
b A
b oolu
c 2
c X
c lu
c ire
c tiv
d est
d omin
f A
f é
f iri
f iru
g wo
g ìn
g ate
j ị
j on
j ara
j aa
j ani
k l
k ur
k wo
k oma
m una
n U
o ta
o li
o go
o ji
o jo
p her
q B
q q
r f
r et
r ass
t x
v 4
v 5
v S
v U
v ere
v ation
w .
w 8
y ,
z Z
z l
z ay
Ú KỌ
à wọn
à rọ̀
â nia
è lè
ì kan
í r
ú lé
ƙ a
ɗ i
ئ ب
ا كم
ب لو
ت ار
ت ياز
ج ون
ح اد
د ه
د ارة
ز يل
ز انية
ظ ن
ق اش
ق رار
ك ام
ك ثر
ن ع
و ط
ል ጣ
ል ፣
ሎ ስ
ሗ ላ
ም ቦ
ሠ ራ
ረ ቅ
ረ ና
ረ ፋ
ሬ ድ
ሰ ህ
ሳ ነ
ሳ ዊ
ስ ኪ
ስ ፖ
ቅ ማ
ቆ መ
በ ህ
በ ዴ
ባ ቸውን
ቤ ታችን
ብ ል
ብ ቻ
ብ ሄር
ተ ነ
ነ ኝ
ኒ ያ
ን ህ
ን ፋ
እ ራ
ወ ሩ
ው ድ
ው ቀው
ደ ሰ
ደ ስ
ዳ ሚ
ዳ ዋ
ዳ ጊ
ገ ሉ
ገ ግ
ጋ ቢ
ግ ነት
ጣ ሉ
ጨ ነ
ፃ ፍ
ፌ ኮ
Ṣ À
ṣ ú
ọ zi
▁ £
▁ ቂ
▁ ₦
▁ ✔
▁ ✨
▁ ________
▁ 🤭🤭
▁ 🤩🤩
▁ ☝️
▁ 🏃🏃🏃
▁ ̀bá
▁ ^^
⚠ ️
💕 💕
🖕 🖕
😻 😻
🙅 ‍♂️
🚩 🚩
er c
an ,
▁n ike
▁n ess
▁n arin
▁n atur
▁n ubundi
us c
▁m c
▁m re
▁a '
▁a ctor
▁a ṣo
▁k pe
▁k ose
▁k uran
▁k ings
▁k oul
▁d us
▁d zi
▁d ighi
▁t ad
▁t ent
▁t ọrọ
▁s ba
▁s ada
▁s ens
in .
in n
▁b ika
▁b ikin
▁b ori
▁b orrow
▁w t
▁w un
▁w aku
▁o 3
▁o gbo
▁o """"""""
▁o gan
▁o gba
▁o gbu
▁y ere
▁g ing
▁g ent
▁g uru
▁l ane
▁l han
▁l ool
▁l utar
▁l aruge
▁f ina
▁f aran
▁f estival
▁f utebol
▁e .
▁e hi
▁e id
▁e yín
▁e ither
as isi
as ons
am m
am ari
▁p idgin
ak ati
ak ini
▁A so
▁A ure
▁A isha
▁A gidigba
ba di
▁# ال
▁# tr
ah ama
▁r it
▁r ent
▁r ika
▁de i
ur ia
ur ongo
▁ال زا
he y
he la
ll um
ir í
es 3
▁ya z
▁ya gama
it aka
▁ni si
▁j aa
▁j ii
▁j ahi
▁የ ና
▁የ ፈለ
▁አ ፋ
▁አ ቢይ
▁da ,
gb ọ̀
▁an ni
is ita
▁N ani
▁N ow
▁N AM
ọ́ .
▁እ ለት
ut ai
▁M B
▁M ù
▁M am
▁M pa
▁M ali
▁M wana
▁M ES
le te
ab yumva
ye lu
os un
▁O ye
▁O ZO
▁ọ gbà
▁à par
▁à bò
▁I ri
▁I gbe
▁ba '
▁ba ze
▁ba giye
▁م دير
ti ha
ti cos
▁z ay
▁z iri
▁በ ሠ
▁በ ዝ
▁በ ሁሉም
im ọ̀
▁in j
▁in ada
▁in con
▁to ur
▁to lulope
ma ,
▁ma 9
▁S ão
▁S ol
▁S ek
▁ì lé
▁ì bejì
ch am
ch oma
▁ku o
▁ku dan
▁ku jenga
▁mu ci
▁mu cika
▁mu hammadu
ka u
▁ነ ብ
▁v eri
▁v ale
▁v itu
▁E r
▁E ti
▁E bi
▁E rin
▁E chi
▁E ven
▁E les
▁E bele
▁T ana
▁ní í
▁ní wájú
▁ab urú
ra fa
ra cy
?? ✊
▁we ather
▁D om
▁D ana
▁go v
▁go yan
ri ct
de k
▁መ ሆ
▁መ ሐ
▁Allah umma
▁ب وليس
▁ب خير
aka .
▁you .
▁ne gó
▁R onaldo
wu o
▁ل ف
▁ti ver
bi d
bi da
▁for í
▁for est
go li
▁ف ”
▁is lami
▁gi fts
▁C A
▁C C
▁C ol
ve la
▁W atch
▁ع يب
se e
ari b
▁Y i
▁Y esu
ão .
▁ẹ jọ́
▁tí tì
▁ت اب
▁ت فا
▁ت شوف
▁ت رجع
be .
▁G arin
▁G hana
▁G EJ
all ow
▁al ummar
▁ከ ዘ
▁ይ ማር
▁ይ መል
▁ይ ላሉ
▁U ba
▁U go
▁U zo
gbo gbo
▁ነው ና
▁ለ ሰ
▁ለ ኢ
▁ለ ዲሞክራሲ
▁ha ushin
▁com bin
▁ak ó
▁3 4
▁3 :
▁3 b3
his ha
▁ga ghị
▁of i
lo gun
ani ye
▁mo z
▁kan d
ni lẹ́
▁' '
▁re gu
po .
▁ك َ
▁ك ثر
yo .
yo ta
▁wo bɛ
▁L ati
▁ki b
▁ا د
gu fasha
▁la ch
▁la va
▁P ia
gi we
▁Ọ zọ
▁sh ug
▁الم ا
▁الم وض
▁sa 7
pa p
pa ct
pa ço
▁ወ ድ
▁#Yoruba Books
▁ብ የ
▁ብ ላችሁ
▁pe .
▁pe p
▁pe ço
▁1 st
▁shi kuma
si yata
ار ت
ار ضة
gh ọ
gh ana
gh ara
▁J í
▁J er
▁J um
▁le va
▁kí i
لي ون
▁2 /2
▁ọ̀ pẹ̀
▁ọ̀ daràn
▁wh os
▁fa ,
tu gu
▁ló gún
▁ló rúkọ
▁ن و
▁ن ها
▁ن صره
▁F er
▁የሚ መጣ
▁À jọ
▁À yájọ́
▁ሰ ራዊት
▁ad do
mi e
▁ح ط
▁ح كي
▁ح ياتي
▁te ch
▁bo bo
▁bo ard
▁kw al
▁في ا
▁ar h
▁ar an
▁man eno
eri can
▁#I da
▁con te
▁con tain
▁ho ly
▁tó ,
▁ẹ̀ kọ
▁mana .
lh om
yan ga
▁za we
▁za zza
vi da
vi bes
ash ford
▁ts aka
▁ts hir
▁Ì Ṣ
▁Ì jẹ̀
ري ف
▁ban tu
▁mat uka
▁አይ ቀ
▁ndi di
▁ah la
▁ah andi
abi zi
adi um
▁س ر
▁wi l
▁wi lay
ashi mira
▁dan ger
هم ين
???? ❤
▁han u
▁ደ ቂቃ
▁وال خ
hhhh hh
zu o
▁gbo do
▁mun wa
▁one .
▁po dia
▁po cket
▁ok p
▁vi ve
▁ooo !
▁ooo ooooo
▁ል ታ
▁tu li
▁tu za
▁tu won
ass ador
▁ው ነ
▁get s
وا صل
▁kas o
▁الح بس
▁em plo
ju ,
▁pr os
▁#O IANUK
▁An am
▁dis tan
▁الع مل
▁الع يون
▁lọ mọ
▁خ دام
▁#A are
▁anyi ,
▁nk ọ
▁nk wụ
iro ,
cha gua
▁V c
▁ጥ ናት
ito .
▁fr m
▁ac or
▁ac ct
▁ac abar
▁In da
▁In felizmente
▁kun ne
▁kun san
ist ry
▁x aka
▁san yi
▁san gue
▁ان ي
▁ان شاء
▁cho lu
▁Ha ve
▁dá hùn
▁duk an
▁ny ash
▁men ua
▁Z aku
▁Z ante
▁fe licidade
▁ክ ርስቲያን
\n ال
▁up andan
ong er
▁ቀ ናት
▁nig gas
▁ታ ግ
▁jo gar
▁ap ɔ
▁ap are
▁ob irin
▁ob vious
▁y3 ti
▁Ba uchi
▁ex emplo
▁لل ج
▁Ma gana
▁had ra
زا ء
▁È D
▁È rò
▁nu a
▁che f
▁che m
كم '
كم ل
▁day r
▁day an
▁yake ,
ente .
hu d
▁eme ?
▁tr ash
▁yak in
▁አስ ቀ
rú ,
▁De ve
▁ሳ ል
▁bay ern
▁الا ول
▁إ فريقيا
▁ver se
▁some where
wé ,
rè gún
ther n
▁ጠ ንቅ
▁فال د
فا وض
▁يا و
▁nínú u
لم ات
تي ش
▁ለመ ናገር
▁per do
▁per se
▁الش ر
▁እያ ንዳን
ek ki
zz z
▁ها دا
▁ut i
▁በመ ሆን
▁du be
▁du fite
▁ala ji
IN E
▁ọdún .
▁ነበር ኩ
ገባ ህ
دو بية
enda ji
ny ị
▁Nwan yị
▁sab uwar
▁oló ò
▁#M a
ats inda
اع ت
▁Ṣ á
▁الد زاير
▁nn im
▁الو قت
▁ol oselu
▁ran ka
▁kọ́ ,
▁bat are
▁Me yasa
▁baz aku
▁ولا ت
▁n’ o
▁sal ah
▁Bu h
▁Bu lie
▁dar í
كي ك
yè .
اني ين
201 7
▁tweet ing
▁oní mọ̀
▁oní ṣòwò
▁dak h
▁ያለ ህ
▁ያለ ዉ
▁big enda
** *
▁ዓ ላማ
▁isso ,
▁thank ful
▁ض رك
▁comp te
▁Nd umva
wer re
▁AL Á
▁ach oro
▁lafiya .
UN I
▁الن ور
ky erɛ
air s
▁ìt úmọ̀
▁show ing
اص رة
▁muk eso
▁bin cike
ES S
ele kea
▁هذا ك
▁cin iki
▁#o gun
▁oooo .
▁በማ ይ
▁film s
wọ lé
▁kill ing
▁Chi m
قد ير
▁hu j
▁ጊዜ ው
▁dí dùn
▁በእ ውነት
▁ìṣ í
▁app le
▁😂😂😂😂😂😂 😂😂😂😂
▁Re ino
ká lukú
▁ge a
ves se
▁يح ت
▁الص ورة
اري ع
هو ة
▁يع ت
▁idi je
▁አስተ ዋ
bal ẹ̀
▁En we
▁En quanto
fà ,
IS A
▁الحكومة :
▁ቁ ር
▁አባ ቴ
▁አባ ቶች
▁مش كل
▁ያል ከው
kí tà
▁ìp ín
▁bashi da
▁matter s
zọ s
▁zu wan
gen ous
gó góró
rr r
▁ruwan ku
▁ዶ ሮ
▁هاد شي
ados ,
▁Ok ay
▁Orí sun
▁100 00
▁báyìí .
▁ነገ ሮችን
▁مس ل
▁bó jú
▁malam ai
ገና ኝ
▁#The End
,, ,
▁turn ed
▁Gi dan
▁الط يب
ገን ዘብ
▁att ra
▁Pr emi
isho p
▁kug enda
▁sell ing
▁ث من
▁kwe ku
▁Mw aka
❤️❤️ ❤️❤️
▁ተጠ ቅ
▁cham ada
▁የው ጤት
▁ፀ ጋ
▁bag ha
▁dele .
▁break fast
💃💃 💃
▁Kar yar
▁ind omie
▁Ur ub
▁sister s
▁ምርጫ ው
The MA
▁leg s
▁Alá gbára
▁مد رب
▁መግ ቢያ
▁Nan jye
oooooooo oooooo
▁Mut umin
▁Mut anen
ወሓ ትን
▁Yoòbá ,
▁Yoòbá .
▁understand ing
▁Hahah ah
ረጋ ጋት
▁وج ه
kk k
▁አሉ ።
▁የቀ ድሞ
▁adu pe
▁Nk ita
▁nílẹ̀ ẹ
isan zwe
tel ig
▁dec is
▁የታ ገቱ
▁مج رد
▁Tr abal
dọ́ ta
tẹ̀ ẹ̀
▁رب ح
▁ken n
▁sol di
▁tsakanin mu
jam ii
▁Bá kan
▁تو يتر
▁نج وى
IV E
▁ጽ ዮን
▁ሂ ሳብ
▁እረ ፍት
▁yajikan sa
isu bi
▁umut we
▁በግ ልፅ
▁yaki yaye
▁talla fi
▁mand ar
▁3ar fa
▁adú láwọ̀
▁eg wuregwu
▁አክ ቲቪ
▁fus kan
▁Br asil
▁ለም ሳሌ
▁ግለ ሰቦች
ወሰ ደ
▁ọbụ na
▁tsin an
▁sún kẹrẹ
▁ደጋ ግ
▁يم شي
▁المن طقة
▁tb h
alli ative
▁ìrò hìn
ላለ ፍ
▁tsar on
▁Mb unge
▁ብለ ሽ
▁16 .
▁ic yi
▁cap tain
▁Kw enye
▁مكان ش
▁sn ake
Al tar
▁olh os
▁blad na
▁አለው ።
▁colo car
▁ገለ ል
▁hhhhhhhhh hhh
▁ጣ ቢያ
▁dress ing
▁cik ak
▁kwes ịrị
▁wode 3
Or isa
▁abe gi
▁ለዘ ላለም
▁munga ji
▁النا ظور
▁majal isa
ካሄ ደ
▁cro wn
▁fahim ta
~~ ~~
▁😆😆 😆
▁💪💪 💪
▁Ale luia
▁soci ais
▁ፖለቲከ ኞች
▁haq uri
▁kwall on
▁shawar ma
Yo ur
▁prepar ar
▁😃😃 😃
▁الوا قع
▁saf ari
fọ dụ
▁seni or
▁Iba ze
pati e
ራፊ ክ
▁ìh è
▁sel fie
▁ajụ jụ
ቃወ ም
ደጋ ጋሚ
▁በሽ ታ
▁esti ver
▁palav ra
▁That 's
▁prov ín
Cr oss
▁IL É
▁youth s
▁Pres ident
▁kho ya
▁corn er
▁Pol isi
▁conver sa
▁jdi d
▁bib ini
▁الفي ديو
▁recl amar
▁#Kwi buka
mẹ́ ta
▁القد س
▁morre u
▁impos sible
fest yle
▁prim ary
▁Abdu l
▁utar atibu
aik atan
▁خاط ر
▁Onyedika gi
▁مري ض
▁ያደር ጋል
▁طيح ات
▁አቡ ነ
▁kyak kya
▁Kwar ai
▁#Thanks giving
Play ing
▁زي ارة
ክሳይ ዝ
▁ነጥ ብ
▁imin si
▁ሚኒስት ሩ
▁mochki l
▁ማስታ ወ
▁maimai ta
▁bangar en
▁ebighe bi
🤸‍♂️ 🤸‍♂️
▁yase en
▁àpa pọ̀
▁♦ ️
▁#Ranar Hausa
▁toile t
▁planta in
▁#Dream Lounge
ርቶዶ ክስ
▁jadd ada
▁wa9i la
▁threat en
▁heada che
بيجي ”
▁#Blessed WordOfLife
▁እንቅስቃ ሴ
▁wilay ani
▁Zante l
▁#TheEnd Revival
- te
. ?
1 N
1 O
1 k
1 m
1 w
3 q
3 in
3 ay
5 k
5 u
6 P
6 l
8 7
9 W
9 g
9 ay
? ""
A y
B 7
B c
B Í
E A
E h
F m
G e
H 7
H x
I H
I TO
J P
J c
J d
J h
J Ọ́
K C
K L
K k
K URU
K akanfo
L C
L F
L Q
L r
L HO
O Z
O ju
P X
P t
P OR
Q p
Q s
Q UE
R p
T Q
U 7
U s
V Q
V S
V a
V w
W h
W r
W orld
Y .
Y C
Y s
Y Í
Z e
a ...
b ha
c ter
c est
e go
f 6
f g
f ash
f ran
g G
g Z
g amento
h àn
h usu
i y
j T
j it
j 3o
l iki
m na
m adu
n ão
p Q
p n
p se
p hone
q O
q t
q on
s ia
s et
s ani
s ter
s han
t at
t ay
v et
v ember
w ɔ
w ika
y ani
y mar
z 6
z V
z era
z ado
Ç A
è re
è yí
è sì
ì yàn
ɗ a
ج ا
ج اج
ج راء
د رات
ذ ه
ر ين
س اء
ص لة
ض را
ع يش
غ ب
ق م
ك ات
ك ينة
م ون
ن ون
ه .
ه ش
ሆ ሆ
ል ፡፡
ሕ ዝብ
መ ጠ
ሙ ር
ሞ ተ
ረ ባ
ረ ጉ
ረ ፉ
ሪ ም
ራ ማ
ራ ር
ራ ይ
ራ ጭ
ር ላማ
ሮ ፓ
ሰ ሙ
ሰ ና
ሰ ደ
ሰ ጠ
ሲ ል
ስ ማማ
ስ ፖርት
ስ ልምና
ሾ ች
ቀ በል
ቆ ሮ
ባ ባ
ብ ሽ
ብ ነት
ቨ ርስቲ
ቻ ለ
ነ ል
ነ ሰ
ኑ ር
ን ጫ
ን ...
ኦ ነግ
ከ ቱ
ከ ብር
ኩ ረት
ካ ይ
ክ ሮ
ኮ ች
ወ ል
ወ ክ
ወ ገድ
ወ ርድ
ዊ ያን
ዋ ሽ
ዓ ዊ
ዮ ሽ
ዳ ም
ድ ግ
ጊ ያ
ጋ ባ
ጋ ችሁ
ጠ ሎ
ጥ ቅ
ፀ ጥታ
ፍ ረ
ፍ ጨ
Ṣ Ẹ́
ọ ,
ụ .
▁ ę
▁ ሾ
▁ ጦ
▁ ✓
▁ 👩
▁ 🤕
▁ 🤮
▁ 💯💯
▁ ረዳ
▁ 🚶🚶
▁ ✌️
▁ ______
☝ ☝
⚽ ⚽
🌚 🌚
📩 📩
😁 😀
😞 😞
🙆 🏽‍♂️
🤨 🤨
▁n ub
▁n zu
▁n giye
us aidia
▁m !
▁m oo
▁m aya
▁m ika
▁m iko
▁m ona
▁m art
▁m aro
▁m imo
▁m lm
▁m zian
▁a um
▁a ve
▁a isha
▁a giye
▁a wili
▁a ṣòfin
▁k wo
▁k ali
▁k tar
▁k osa
▁d l
▁d uwa
▁d art
▁t ali
▁t asu
▁t uru
▁t amb
▁t iger
▁s f
▁s co
▁s os
▁s da3
in ted
▁b uba
▁b ina
▁b era
ar í
ar abi
▁o cho
▁y h
▁y ata
▁i ,
▁g ah
▁g ada
▁h tt
▁h ira
▁h umi
▁l ona
▁l ime
▁l ayo
▁l alla
un je
▁f ọn
▁f ọ́n
▁f ul
▁f one
▁f ura
▁f ashi
▁f ashe
▁f èrè
▁f red
▁f amous
or uko
or ity
▁e ka
▁e pe
▁e iiii
as ab
as ta
am ah
am ond
am entos
▁c ulture
.. !
▁p oo
▁p ita
▁p aro
at wa
at ura
at aifa
ak aa
ال مية
al ii
▁na je
▁na ban
▁na gaba
wa d
▁A T
▁A zu
▁A lla
▁A TM
▁A ago
▁# 1
▁r ì
▁r um
▁r iko
▁r abu
▁de pend
ur amo
▁ال كو
ik om
um er
um enyi
▁ya giye
om en
it ation
it amo
it ary
▁ni sa
▁ni bo
▁ni jeriya
▁ni likuwa
▁j ụọ
▁የ ፖ
uk r
uk w
▁አ ሊ
▁አ ደር
▁አ ቅር
▁አ ክራሪ
▁da uko
ya !
is iti
▁N p
▁N we
▁N amu
▁N DI
▁N asara
▁እ ላ
▁M C
▁M à
▁M om
▁M ch
▁M ari
▁M tu
▁M ore
▁M ix
le v
ab ana
ab era
ye mi
▁O S
▁O gún
▁ọ l
ou ya
▁à yè
▁à tọ̀
▁à rá
▁à sà
▁à fò
▁à ṣá
▁K Ú
▁K ii
▁K wi
▁K ashi
▁K oma
▁K arin
▁K enya
▁I ka
▁I so
▁ba 🙄
▁ba zi
▁م ط
▁م راكش
▁و ط
▁و با
ti es
ti dade
em .
▁me ?
▁me ya
▁me da
▁me te
▁me lo
▁me je
we z
▁z im
▁z uri
▁z uo
▁በ ሳ
▁በ ጀ
▁በ ግል
im ,
im am
im al
▁u f
▁u be
▁u jenzi
▁in i
▁in yi
▁in aso
▁in dia
▁in telig
re i
▁on do
▁on yinye
di ,
▁to k
▁to bi
▁to ju
▁ma e
▁ma eneo
▁S O
▁S í
▁S ani
▁S AM
▁S bd
▁S ARS
▁B AN
▁B ros
▁ì kọ́
▁ì lò
▁ì rán
▁ì yànjú
▁se xo
la u
▁ku za
▁mu a
▁v est
▁v esti
▁v ahaxi
▁E li
▁E id
▁T ub
▁T ura
▁T wi
▁T weet
▁T AN
▁T amba
▁T emos
▁be kee
▁ní bo
▁ní fẹ̀ẹ́
▁ab ak
▁ab ata
▁D at
▁D ee
▁D adi
▁wan d
▁wan can
▁go ge
ri ch
▁am uma
▁am arya
de e
▁መ ጀመ
▁መ ሪያችን
▁ب ان
▁ne gati
▁R ana
▁ل لي
▁gb áà
bi ashara
▁ko ,
▁ko tu
▁ko yar
▁ṣ ù
▁ṣ ọwọ́
▁ò kò
▁ò gógóró
▁ف خر
za wa
ake ji
▁C a
▁C ome
ji je
▁W as
▁ع رض
▁H ongera
▁H ankali
▁di ba
▁di abo
▁di 33
▁ń pa
▁ń lé
▁ta p
▁ta xi
▁ẹ wà
▁ت ما
▁ت نت
▁ت قل
▁ت ولي
be la
be lea
▁G ashi
▁G yada
▁as soci
▁ከ ኔ
▁ከ ኛ
▁ከ ፈለ
▁ይ ደረ
▁ይ ቀጥ
▁ይ ከብ
▁U H
▁U cr
ci ,
ci ona
▁ነው !!!
▁ي ار
▁ي قدر
ge je
to h
▁ለ ቅ
▁ለ ታ
▁ha wan
▁ha jia
▁ak é
▁ak hi
▁ak eso
▁3 no
▁3 ziz
▁of fer
▁su it
sa ges
ko pon
▁kan s
▁ch amar
▁ó .
▁' A
▁' ህ
▁re je
▁mi lh
po ti
▁ك ول
نا ظور
▁wo t
▁L ee
▁L anguage
▁ki li
▁im ta
▁ተ ረት
▁ا رحم
▁um ar
ine .
▁la pi
▁P eter
▁P arece
▁ṣe é
ze ho
▁Ọ jà
du .
▁الم را
▁الم سا
▁الم جلس
▁الم جتمع
mo ja
ina .
▁sa í
th ank
▁en ta
▁bi lls
▁bá wa
▁lá gbà
▁J .
▁J ir
▁J ana
▁li ga
▁si hiri
▁kí n
▁ም ናልባት
▁yan ayo
▁fa vour
▁ló dò
▁ن د
▁ن وض
▁F ah
chi ,
▁من يش
▁Ẹ nu
▁kwa ya
one kana
ub ale
▁ማ መን
▁ማ ጥፋት
▁onye ?
▁À rẹ̀
▁À dúrà
▁ሰ ፊ
▁ሰ ውን
▁ሰ ሞኑን
▁ح رام
▁te ve
.... .....
▁st ran
▁st arac
fa ct
دي ا
▁kw ala
jú we
▁ar un
▁man ,
▁man ah
▁kar k
▁kar ku
▁pa po
ate ly
▁con tar
▁ho ur
▁( O
▁( à
▁أ من
dan o
lh oso
ore a
▁or ia
▁ts abar
▁ts ula
▁ts tah
▁ra pe
▁Ì ran
ct ing
▁አይ ታ
▁ግ ቢ
▁mut e
▁ش نو
▁س اب
▁س وف
▁س نوات
▁oh ,
▁wi ld
▁ት ዊተር
eg ere
eg ereza
▁han amu
▁ق ر
▁ق ط
▁ق سن
▁ق طر
▁ق لوب
▁وال ف
▁وال مع
gbà á
▁mun ci
▁bab alá
▁አን ደ
▁አን በሳ
▁nd umva
bí yèsí
▁all a
rọ̀ ,
▁fo und
▁ji gawa
▁እንደ ሌ
▁እንደ ዚ
▁እንደ ገና
وا طن
▁ج هة
▁ج ماعة
ind uka
oma ,
aku ja
▁#O duduwa
▁ib ikorwa
▁An n
▁An ge
▁الع الي
▁الع اصمة
▁የተ ነሳ
▁mas ana
▁mas alla
▁خ تي
▁Ya uwa
▁#A m
▁#A lo
ló ria
▁nk à
▁din ma
▁din ta
▁can tar
▁V e
unt ar
▁ke l
▁"""""""" À
▁fr u
▁fr ust
▁ac er
▁ac tiv
▁ac cent
▁In d
▁ri de
ist en
aye l
▁aga ciro
▁san ta
▁come ça
uni on
han gan
shi ga
asi ly
▁#T witter
▁rah amar
▁sha fe
▁je un
▁je fa
▁غ امل
▁ik wu
▁ik uku
ami do
▁lọ́ run
▁ny umba
▁men ya
▁men te
▁Z o
▁fe ch
▁fe lt
▁ቀ ልድ
▁“ N
fu u
fu or
AN O
▁kenan 😂
▁مع انا
▁الت ر
▁الت س
▁ap ụ
▁by ’
▁ob s
▁ob ara
▁was nt
▁was anga
▁Ba ada
▁Ba 'a
▁Ma j
❤️ ‍
▁#N igerian
▁had da
▁È è
▁È nìyàn
▁È èyàn
▁che be
▁day rin
دا دي
▁uk umva
▁وا ست
▁Al far
▁nt ar
kú rẹ́
kú té
▁mak at
ente ,
àá rọ̀
▁7 ad
▁ụ ka
▁yak ore
▁yak yauta
▁አለ ቀ
▁አለ ብህ
▁እየ ቀ
▁እየ ታ
▁pi ga
▁pi pu
rò .
▁De de
▁9 ad
▁9 ol
▁gbé ra
▁wlh ,
▁الس ب
▁الس و
▁إ ح
▁kó pa
ush ya
▁ou vi
▁cy ’
اد رة
▁علا بالك
uku u
▁ካ ም
▁ser ão
▁ser ikali
▁dị ghị
ní ,
el come
jọ pọ̀
▁ìy ẹ̀
▁ጠ ባ
بي لات
▁kin san
رو ش
▁kay ode
▁#R wot
▁mọ́ kàn
▁الأ رض
▁4 00
fan ye
▁yar on
▁ለማ ግኘት
▁ị ke
▁ለመ ሆኑ
▁كي ت
▁كي فاه
▁per fil
▁#S akara
fun ze
▁አል በ
▁الش ف
▁الش خص
▁المغرب '
▁eu logy
▁ها ك
▁ها دو
▁kum i
mar k
▁ط ول
pr ay
▁du e
▁br itain
▁እስ ልምና
IN U
ለን !
▁bur in
mọ̀ ràn
ገባ ኝ
rà wọ̀
asha uri
▁Ku din
▁#B razil
تو ش
▁chan ja
▁dia .
▁ና ይ
▁#M orning
علا ه
▁አይደ ለሁ
▁Ṣ E
▁الد ار
🤣🤣🤣🤣 🤣🤣
▁tún mọ̀
▁sem i
▁Me chi
tà rí
مو ع
ishi mo
oss os
▁baz aki
▁wal imu
▁nem o
▁dat ti
▁sal o
▁wen yine
▁lma ooooo
usi ano
▁ሆ ቴ
▁tak es
كي ف
▁aw are
▁ديال ها
▁ديال هم
▁owó ,
jin de
abu lous
▁agba wa
▁dak atar
▁anya .
▁musul min
▁big ger
▁ek iti
ib es
ib yo
▁str et
▁bia aa
pá tá
anga za
መስ ገን
▁መስ ማት
▁his abi
▁"""" B
▁ض عي
yà .
▁hal inda
▁umun wa
▁mara vi
ON A
▁ach u
usu f
èrè gbè
▁mur akoze
▁ent ire
▁bad amasi
😭😭😭😭 😭😭
▁jam ii
??? ♂️
▁k' anyi
jan ja
DA Y
▁ባለ ፉት
▁ቆ ር
▁cr iti
▁የእ ን
▁need s
▁Ọmọ dé
pre ad
ongo za
▁fir da
▁በእ ግዚአብሔር
▁kal ẹ̀
▁om en
▁mk pu
▁መን ደር
▁el igwe
▁zi lizo
▁uwar ka
▁Su per
▁pẹ̀lú .
▁blo c
▁pos ted
▁pos sible
▁Shi ga
▁Shi yasa
bọ̀ ,
▁tuna wa
▁ge j
▁እነ ሱን
▁ላ ንተ
▁sir .
▁يح ب
▁post ar
gbè é
▁nko ?
▁ọn wụ
gbẹ̀ ẹ́
gbẹ̀ dẹ
gbẹ̀ rún
AS I
ማሪ ዎች
▁taim ake
▁taim ako
▁yab asu
▁dashi ,
UR O
ስታ ዝ
IS TO
▁ènìyàn .
▁#D ar
▁neza ,
▁مش اكل
▁اح فظ
▁hear ing
kù tù
▁nye lu
▁👌 🏽
ደራ ጀ
▁+ 25
▁🎶 🎶🎶
▁aqui lo
ግባ ት
▁አው ጪ
pon ível
عي م
عي ون
▁Ag am
صل ح
▁#Y Lagos
▁yah uda
▁hum ble
▁ọlọ́ mọ
▁Po is
▁odi ghi
▁báyìí ,
▁fat ima
▁maganin su
▁Lol ...
▁የህ ዝ
▁አሳ ል
▁Mi chael
pè .
▁ms g
▁ms kin
▁àà bò
▁ፕ ሬዝ
▁kuk ai
▁rab bi
▁trans late
👇👇 👇
▁saw t
▁swe at
▁ስል ክ
Mo z
▁🤷 🏾‍♂️
▁dire ito
▁od ika
▁አር ጎ
▁አደ ለም
▁San nan
ታወ ቅ
▁ing anta
▁She ge
▁pẹ́ ,
▁inter ess
hon es
بو ب
▁ste p
▁dri p
▁dri ver
▁iri ya
▁Ho pe
▁ade ɛ
ራው ያን
▁wọ̀nyí .
▁نا ف
▁አደረ ገ
▁sw allow
▁bam we
▁kok uma
▁bɛ ba
▁bɛ yɛ
Ọ́ N
▁mab rouk
▁ilai him
▁elu igwe
▁king dom
cul ar
▁kwi ga
▁celebr ities
pos ta
pos itive
😥😥 😥😥
▁d' ó
▁bara wo
قط ع
▁mis ali
▁Kan nywood
▁continu ar
HO W
❤❤ ❤
▁hat ers
▁ወንድ ሜ
▁ወንድ ሞ
▁السيا سية
▁ras si
▁raji 'u
▁adu l
▁raba wa
▁cas amento
▁eat en
▁ኢትዮጵያዊ ነት
▁gra ça
IT TER
▁እራ ስ
▁wọ̀ ọ́n
▁تج ار
ضي حة
▁ሐ ሳብ
▁ዞ ር
▁ات منى
▁remain ing
GE LHO
▁lam ari
▁Nai ra
▁Nai bu
▁መጥ ፋት
▁fut uro
▁cook ing
ànà kú
▁🎵 🎵
▁jus tice
▁Eni yan
▁sit ting
▁cli p
▁تو حش
▁የባ ህር
▁أخ نوش
▁respon se
▁prin ce
▁El imu
▁kim ya
▁Od ika
▁ትር ፍ
▁AN D
▁dest ro
▁dest iny
▁terra .
▁ቴ ክ
▁በው ጭ
▁በው ሸት
▁3ar fin
▁አክ ሱም
▁#Or isa
▁سيا سية
حب س
ورو با
▁dán í
ambu a
▁def end
▁ወቅ ታዊ
▁covid -19
Th ursday
ለመ ደው
hind ura
▁thi ck
uli za
▁haha .
▁pon to
▁sex y
▁dó i
▁shirye mu
▁ቋ ሚ
▁wú rà
▁الرج ل
▁المخ زن
▁المخ درات
▁እውነ ታ
OD ER
chan ja
▁kpọ ọ
▁ìbá nisọ̀rọ̀
▁يج يب
▁اغ لب
gú sí
▁kaka wo
▁begin ning
▁hor as
▁contra ct
▁tant as
▁የድ ሮ
rab í
▁dab bo
▁በዘ ር
▁fran ce
▁bite ?
▁#c ons
▁nami jin
▁በታ ች
▁kọ̀ ọ̀kan
▁وه ذا
▁#Itan Fulani
▁الأح زاب
▁tall an
▁Au x
لاي ين
▁gush aka
▁shuwagaban ni
ጫወ ት
▁fool ish
▁Ot utu
▁n'ụ lọ
▁ገበ ያ
▁المست وى
▁ወጥ ቶ
▁ich oro
▁በቁ ጥጥር
▁build ing
▁Ima gine
▁ዕድ ሜ
وار ع
▁batan ci
▁Ray uwa
▁قل بي
▁ፖለቲከ ኛ
▁😠😠 😠
▁estu dar
Br ut
▁mari do
▁cul pa
▁fra ud
▁acred ito
▁ሀገራ ችንን
ubar ak
▁pari wo
▁Uh uru
eek end
▁Fr om
▁الفق راء
▁esc utar
▁assist ir
▁kb ira
▁Wak ati
▁halit ta
▁#Ko joda
▁Kat ika
🏄🌴 🌴
▁mali po
▁riki cin
▁الرو سي
▁uch umi
▁influen cer
khe l
▁ዴ ሞክራሲ
▁ress usc
▁Odù duwà
▁àwò dì
▁escre ver
`` `
▁ይመጣ ል
engene za
▁nto uma
▁nish adi
▁መሆና ቸውን
▁ኃጢ አ
joo júmọ́
ምባ ሲ
▁àyí ká
▁event u
▁a7 la
▁apolo gize
▁Kọ́ lá
▁ይሻ ላል
▁ይገ ኛል
▁አስመ ሳይ
▁Sau di
▁uliyo ipata
▁alj anu
▁gais uwa
▁نض الية
▁descul pa
▁àdú gbò
▁kuche za
▁enga ge
▁#à sà
▁ìdì bò
▁makar antar
ukangur ambaga
▁ለምንድ ን
▁ሚን ስትር
▁ዝር ዝ
▁soyay yar
▁àdà bà
▁Cont inu
▁جنا يات
▁impor ta
ዩኒቨ ርሲቲ
▁አደርጋ ለሁ
▁acord ar
yipada Oju
▁Jun ho
-fe ira
Language Day
▁ارت فاع
▁ደነ ዝ
▁mànà m
emoc racy
▁Fẹ lá
▁NIG ERIA
▁BUH ARI
▁EVAN GELHO
▁ribiri bi
jíǹ de
Ona Kakanfo
firu llah
▁tshir t
▁#Aare OnaKakanfo
TheMA GIC
tẹ̀ẹ̀ ta
yipadaOju Ojo
! 😂
# O
# Tweet
# aligo
- 2
- ayé
/ a
/ ì
1 D
1 i
2 S
2 q
3 R
3 S
3 ar
4 R
4 f
4 n
5 i
6 Y
7 Q
7 X
8 a
9 6
9 J
9 N
9 p
A 5
A H
B 8
B R
B X
C P
C R
C U
C W
D Z
D k
D À
D AN
E Q
E U
E o
E st
G C
G a
G s
G UN
H h
I 5
J C
J G
J Z
J Ú
K 8
K S
K T
K j
K r
K t
L X
L n
L É
L ike
M 1
M 6
M r
N q
O H
O rin
P I
P u
P w
S k
T 0
U kwu
V J
V X
W Z
Y N
Z G
_ ف
b Z
b h
b ana
b bi
b ura
b aku
b akar
d g
d q
d z
d ari
d ima
f M
g Y
g ẹ
g ai
g ad
g ala
h ch
j er
j ire
j oro
k .
k ayi
k ashi
k ẹ̀rẹ̀
l Q
l ingi
m .
m ata
n ut
o ló
p k
p ig
p ende
p lay
r 0
r iki
r ẹ́ẹ̀
s um
t m
t or
t ro
u yu
v A
v E
v l
v ale
w oo
w ama
w oro
w hat
x k
y x
y ita
y ori
y ayya
z 0
z 4
z J
z Y
Ç AM
à ṣá
è ké
í rí
í tó
، ،
؟ \n
ج ان
ج ور
ح م
خ را
ش م
ض رة
ط رف
ط لب
ظ ام
ع لى
ق ين
ل نا
م شي
ن ك
ن ين
ه ج
ه دا
ሀ ኑ
ህ ደቱ
ለ ...
ሊ ዝ
ላ ለች
ሏ ቸው
መ ዘ
ም ::
ሬ ዳዋ
ር ና
ር ሃት
ሳ ው
ሴ ት
ስ ተኛው
ሶ ስት
ሸ ጥ
ቦ ችን
ተ ማ
ተ ናል
ታ ሉ
ታ ና
ታ ለሁ
ቹ ም
ቻ ልም
ች ት
ነ ቶች
ኒ ው
ና ...
አ ንድ
እ ና
ከ ሩ
ከ ውን
ኪ ያ
ክ ንያ
ዋ ሚ
ው ው
ዎ ቻችን
ዘ ና
ያ ቸው
ይ ጣን
ዲ ና
ዳ ታ
ዳ ችሁ
ዴ ራል
ጉ ር
ግ ዛ
ግ ጥ
ጠ ጣ
ጠ ሩት
ጦ ች
ጪ ው
ፍ ሩ
። ...
ṣ ìn
ṣ ín
ọ .
ọ dún
ụ ma
▁ ù
▁ ሮ
▁ ✋
▁ 🇦
▁ 🇨
▁ 💓
▁ 💞
▁ 🙇
▁ 🚮
▁ 🥳
▁ ín
▁ 👨‍
✌ 🏾
❄ ️
🎶 🎵
💃 🏼
💪 🏾
😍 😘
😟 😟
🙌 🏼
🤝 🤝
🤦 ‍♀️
🤷 ‍♀️
🧑 ‍
er am
er ika
an at
▁n ba
▁n ut
▁n le
▁n lo
▁n fi
▁n ze
▁n ira
▁n oro
▁n ṣe
▁n usu
▁n chofo
▁m ra
▁m iracle
▁a ṣ
▁a rin
▁a gbé
▁a ṅụ
@user .
▁@user """"
▁k ate
▁k oro
▁k iti
▁k ale
▁d ɔ
▁d ose
▁d ush
▁t ik
▁t na
▁t ass
▁t ats
▁t imu
▁t ashe
▁t ụọ
▁s ini
▁s ist
▁s atan
▁s pi
▁b d
▁b ’
▁b adi
▁b ime
▁b ais
▁b igo
▁b ree
▁w s
▁w ch
▁w uni
▁y ún
▁y ani
▁y uko
▁y allah
▁y èyé
▁i am
▁i gún
▁i zin
▁g ẹ
▁g ata
▁g and
▁g adi
▁g oro
▁g low
▁h d
▁h ush
▁h aaaa
▁h urt
▁l all
▁l ẹ́ẹ̀
▁l eta
▁l engo
▁l ailai
▁f ia
▁f ro
▁f ira
▁f ry
▁f had
▁e zu
▁e vid
as pora
am am
▁c aso
▁c reat
▁p c
▁p ow
▁p eee
at aa
en ces
ak wi
al ama
▁na ci
▁A W
▁A o
▁A ke
▁A mi
▁A dan
▁A hu
▁A LA
▁A RE
ba yan
▁# 3
▁# Z
▁# j
▁# br
ah isi
▁r ur
▁r ike
▁r yo
▁r ami
▁r ung
▁de vi
▁de vido
hi go
hi mu
▁ال ني
▁ال رق
ad ì
ad un
ad ora
ll er
ik eni
ir im
▁ya za
▁ya wale
▁ya faru
it umia
it ondo
▁j is
▁j oo
▁j ere
▁j uma
▁j st
▁j ayé
▁የ ሙ
▁የ ጸ
▁የ ድር
uk aka
uk umu
co u
▁an ig
is ing
▁N da
▁N tu
▁N ish
▁N inguém
▁N orth
ọ́ ,
▁እ ቃ
▁እ ደ
▁እ ግዚአብ
ut or
ut wa
▁M c
▁M ã
▁M oro
▁M ary
▁M onday
le le
le bo
ab ura
da ju
os os
▁O B
▁O D
▁O wu
▁O òduà
▁ọ wọ̀
ing ereza
▁à ṣẹ̀
▁à dó
▁à mó
▁à ánú
▁à búrò
▁à ṣírí
▁K ọ
▁K is
▁K im
▁K ika
▁K ug
▁K AR
▁K il
▁K asar
▁I l
▁I shi
▁I bintu
▁ba !
▁م يت
▁و لم
▁و نت
▁و مع
▁و كن
▁و فق
... 😂
... """"""""
ti ll
ti do
em ,
▁no kw
▁no vos
▁me y3
▁z ia
▁z enye
▁z ero
▁በ ን
▁በ ኤ
▁በ ...
▁በ ዚያ
▁በ ጀት
▁በ ዛሬው
▁u y
▁u du
▁u giye
▁ka ci
ara wa
ara gara
▁on g
di i
di ha
di gbo
▁wa p
▁wa wu
▁ma ci
▁S H
▁S ho
▁S uka
▁S ome
▁S ER
▁S MS
▁B am
▁B ura
▁B aha
▁B less
▁B lack
▁B razil
▁ì jẹ
▁ì sọ
▁se ya
▁se de
▁se par
la !
▁ku zo
▁ku vug
▁mu h
▁mu o
ka a
ka ji
▁v uba
▁E P
▁E we
▁E du
▁T v
▁T ii
▁T ens
▁T rue
ta ...
▁be low
yi .
▁ní ṣe
▁ní dìí
▁ab s
▁ab úlé
▁D im
▁wan kan
ri ble
▁am ọ̀
de u
de z
de le
▁መ ሬ
▁መ ዳ
▁መ ማር
▁መ ቁረጥ
ig il
▁ne ...
▁R U
▁R etweet
wu ga
li w
▁gb ọ̀n
bi b
▁ko ba
▁ko te
▁ko gi
zi o
▁ṣ u
▁ò go
▁ف ض
▁ف و
▁ف ضيحة
▁is an
te b
▁th umma
▁C OM
▁C rist
ji bu
▁W here
▁H er
▁H al
▁H assan
▁H ayyu
se k
ari o
▁di ck
▁Y adda
▁ń lẹ̀
▁ta ga
▁ta fara
▁ẹ ,
▁ẹ tà
▁ت اف
▁እን ቁ
▁እን ድን
be ghi
▁G r
▁G ẹ̀
▁G bé
▁as 3
▁as im
▁as il
▁ከ መስ
▁ይ ቆ
▁ይ ቺ
▁ይ ው
▁ይ ቺን
▁U v
▁U z
▁U ta
▁U sh
▁fi i
▁fi fa
▁don o
▁don ’t
▁so wo
▁ي ام
▁ي هدر
▁ي موت
▁lo c
▁lo ts
▁ለ ቤተ
▁ak ashe
▁3 9
▁3 ne
▁3 adi
▁3 000
▁and ou
ed y
ani we
▁mo dupe
sa 7
▁ch or
▁ch ato
▁ch ọọ
▁' Yan
▁re ver
bo ,
▁ك تح
▁es paço
▁wo ka
▁L ori
▁L Ọ́
▁ki fi
▁ki jamii
را تي
▁ያ ረ
▁ያ የ
▁ያ ንን
▁im ara
▁ተ ደ
▁ا يا
▁ا سي
▁ا دا
▁ا جل
ati li
▁la wa
▁la zy
▁P h
▁P ri
▁P ed
▁sh uka
▁sh eria
▁الم تو
▁الم رح
▁sa ,
▁en vi
▁en sin
▁en vol
ja zo
ها '
ent al
▁bá mi
▁ስ ሙን
▁ስ ቃይ
ane la
ck er
ck le
▁J us
▁J ami
▁J ap
▁li on
ne ,
▁le ctur
لي س
▁ም ሁ
▁ም ኒ
▁ም ሳሌ
▁2 50
▁ọ̀ wọ̀
▁yan jú
uru fú
▁ن ي
▁ن سي
and itry
and ikie
▁Ẹ ranko
ub ali
▁ማ ም
▁À kà
▁À kàn
▁ad im
▁ad ikwa
▁ح رب
▁ح يات
▁ح تا
ers on
▁te a
▁bo ya
▁bo ut
▁bo lo
▁ar k
▁ar ab
▁kar ia
▁kar fe
▁n' umu
▁gu hagar
▁não ,
▁dem and
▁( P
▁أ جل
▁fún ra
▁ẹ̀ hìn
▁za '
▁za wadi
▁ag are
▁ag ree
ash an
▁ts unt
▁ts ayar
▁ra w
▁Ì là
▁Ì yà
▁Ì rìn
▁On yenwe
ري ات
ري دة
ري قة
▁mat akin
▁Ch ris
▁ah aka
▁ah med
ini ya
▁ش غل
▁س ع
▁س لم
▁س اعة
▁if o
▁dan cing
هم ش
???? '
▁ደ ቡብ
▁ق را
▁ق اع
zu ia
▁yi wu
ran ce
▁po und
▁አን ብ
▁ok enye
▁vi c
▁vi ctor
▁vi ongozi
yar o
ول ك
▁tal vez
▁ooo oooo
▁د عو
▁د ابا
▁Am an
▁Am ar
▁har be
▁fo llowed
▁ው ስ
ish ing
وا ق
▁الح ب
▁chi kin
ju o
▁ib imenyetso
▁dis co
usa za
▁الع سكر
▁الع المي
▁lọ ?
▁خ صو
▁خ لاص
▁ባ ደረ
ite ly
▁ህ ጻ
▁ህ ወሀት
iro .
▁V ir
▁ጥ ም
▁ጥ ንብ
▁ጥ በቃ
▁ሲ መጣ
ام ين
▁kun unua
▁ر ش
▁ر فض
▁san adi
▁ان ها
▁cho f
asi yya
▁#T W
▁Ò wú
▁Ha j
▁ik ig
▁ik wuru
▁ik orodu
ami zi
ami je
▁pé ré
▁men ni
▁#yoruba for
▁wor se
▁Z asu
▁Z uwa
▁To fa
▁To day
▁ድ ብ
\n علابالي
▁q ayyum
▁ቀ ና
fo jú
▁ታ ጣ
AN DO
▁jo kes
▁مع نى
▁الت ن
ol in
▁por n
▁por quê
▁ob ras
▁mar yam
▁wà yí
▁ex ag
▁bar ayi
▁bar shi
▁Ma g
سي ح
▁È tò
▁nu .
▁nu des
▁የአ ገር
▁day .
amb wira
▁l' e
▁tem per
▁tem pos
▁ገ ነት
▁وا س
▁Al m
▁Al aroye
▁nt s
▁mak uru
vu go
▁Ọ̀ ràn
▁Ọ̀ RỌ̀
▁ụ gbọ
▁bir enze
rò hìn
▁orí sun
▁orí lè
▁ዘ መድ
▁ሀ ሳ
▁way yo
▁ub us
▁wlh .
▁را كم
▁را جل
▁را سو
▁را سك
▁إ ش
▁os an
▁ru fa
kò tò
▁kh alik
aran ya
▁jẹ jẹ
iss ão
▁sọ .
▁ja za
kh lo
▁umu azi
▁nw ụrụ
pi cal
uo fia
▁الج مال
▁#R ep
▁mọ́ ra
▁الأ زمة
▁4 )
▁እንዲ ሁ
▁ay am
▁በአ ማርኛ
▁#S e
▁አል ፎ
▁እያ ሳ
▁ngo zi
ato ka
cho fi
▁ط ل
▁? '
▁በመ ንግስት
▁du hu
▁ká yé
▁br ush
ag ha
▁ሚ ስት
▁tun e
ገባ ቸው
▁الف قر
▁ng ombwa
▁far ashin
▁par ent
▁#B u
har iko
▁pre fer
▁alá ṣẹ
▁sab es
▁sab ulu
ambi wa
▁የማ ያው
cy ari
▁uban su
▁#M e
▁Ar k
▁onu ,
▁gbà gbọ́
▁ز يد
▁ቅ ዠ
▁cor rer
▁kyau ,
ró ò
مي ات
ንተ ን
▁Ak pa
سب وك
▁wal ai
▁n’ ile
jí ire
▁sal var
▁እንዳ ለው
በረ ታ
dd on
dd le
dd dd
gr ade
▁الق ر
▁الق لب
▁አብ ር
▁ሆ ኗል
▁kub oresha
▁dar asi
▁kasar nan
▁aw esome
قت ل
dú ró
ary ata
▁agba boolu
rẹ́ rẹ́
▁ilẹ̀ .
▁musul man
▁musul inci
▁አመ ለ
▁ጀ ዋር
ores heje
▁bamu da
▁😅 😂
▁ሃ ብት
GB E
pin nu
▁own er
ጊዜ ው
▁comp ar
▁comp uter
▁8 4
▁#C ent
▁ሙ ድ
▁ኣ ብ
▁ach ar
iran ye
▁الن ها
▁الن جاح
ré ré
▁num bers
▁agb asa
▁gr ass
ES A
▁lu z
▁amin .
▁የእ ኛ
▁fri ed
▁fee li
▁Umu yobozi
▁wana funzi
▁ሕ ግ
▁nì yí
▁dí á
yá lò
▁bem .
▁በእ ርግ
▁ጎ ዳና
▁አላ ቸው
او ي
▁app ly
▁el rufai
▁zi jazo
▁با ين
▁با سم
▁😂😂😂😂😂😂 😂😂😂😂😂😂😂😂
▁ማን ኛውም
▁tra z
▁pà ṣẹ
▁0 42
▁eb uka
▁eb ute
vid as
▁gar ba
▁gar kuwa
▁ge degbe
قو ة
▁الص باح
▁* #
▁የወ ሎ
▁ọn ye
▁#H OT
▁اخ ر
▁الي هود
bal o
▁مت وا
▁Man jo
▁jọ ba
▁አም ስት
▁تب ون
▁fah amu
kù ú
▁ọ́ .
▁👌 👌
▁ee gun
hat se
pó nà
اه د
▁🎶 🎵
gbò ,
ot es
▁hot unan
▁ብር ሃን
▁méjì ,
alo de
alo li
▁Be fore
▁sp are
▁وم ليل
▁Ga za
▁Muna f
▁assim ,
fanya biashara
▁yí ò
▁bit ter
▁vir tu
▁vir gin
▁olo hun
▁olo dumare
▁dawo wa
mà gbò
▁ኤ ል
▁das uke
▁ƙ ar
▁ƙ asa
▁imp an
▁padà .
▁ከአ ንድ
▁Bar ça
▁3li ya
GO S
▁akwa do
▁àt '
▁ጭ ራሽ
eee en
نو ب
▁Lo ko
▁kp oro
▁كا زا
▁ድር ሻ
▁kuk ayi
▁Tu fiakwa
▁ቡ ድ
▁irú gbìn
▁òkè èrè
▁od iro
▁ij ambo
▁jù .
▁kàn kà
▁ole e
▁አደ ባባይ
tic as
▁She giya
▁الغ از
▁Sun an
▁ተማሪ ዎችን
▁Pr ime
▁aye ye
▁ነኝ ።
▁ago go
▁ث اني
▁በደ ም
▁nyin shi
▁uru hare
▁aque las
▁ጌ ታቸው
▁pas so
▁وي ح
▁👏 🏽
▁gusa .
xi co
▁ndo go
▁Ne godu
▁ድን አ
ከተ ል
😃😃 😃
▁ስር ዓ
bì rin
▁ṣà làyé
▁sw t
lice Brut
onge ze
▁الذ ين
▁bam usan
▁በቀ ን
▁ind wara
▁verdade iro
▁hai huwa
صب حت
▁mab 9
▁خاص و
▁bw ’
▁hahah ah
▁Alá kọ̀wé
ungu zi
▁jáde .
sàn -án
▁ማስ ረጃ
▁pray ers
▁oò duà
▁yaka womana
▁mundo .
؟؟ ؟
▁እሱ ም
▁ìdá hún
▁aju dar
▁Èkó ,
▁ቦታ ዎች
▁የኢ ኮኖሚ
▁continu a
▁ር ዕ
▁ር በነ
▁hat ari
gon jwa
▁bọ́ ọ̀lù
▁zaki yi
▁loni .
▁mug ore
▁mug abo
▁ስብ ስብ
▁3n ti
▁kiy ayi
▁ìṣẹ̀ dá
ኩል ነት
▁cri ança
▁Mah moud
▁Tab b
▁nde ge
▁በነ ገራችን
▁تخ رج
▁በት ግራይ
▁ስን ቱ
▁bor ing
▁እራ ሱን
ገኙ በት
▁🤗 🤗
▁ze yi
▁kud aden
▁adw en
زو ير
☹️ ☹️
▁wọlé .
chin em
▁HA USA
▁የራ ሱን
▁وع لى
▁ين صر
▁dukkan in
▁cli ents
▁ọg ọ
▁ọg ụ
▁الض و
▁respon d
wee ti
▁El -
▁al' ummar
▁Subhan allahi
cion ar
▁espe cial
3r f
▁mand ou
▁3ar f
▁conhe ço
▁wa7 ed
▁afe i
▁الان سان
ورو نا
▁ዘር ፍ
▁def ender
ጠቅ ላይ
▁ide a
▁dom ingo
alẹ̀ mọ́
▁tsin ci
ብኝ ት
▁bgh at
▁pub licar
▁sex ta
▁تست اهل
▁يم كن
▁blood y
▁ṣọ́ ra
▁ure ba
▁abẹ́ rẹ́
▁òò gùn
▁Sin zi
char ge
▁inde ed
▁ባን ዲራ
▁olù kọ́
▁bt w
▁بش كل
🤗🤗 🤗
▁aci gaba
▁በራ ስ
▁ዱ ቄ
▁fre edom
▁bud get
▁Ìbàdàn ,
▁درا هم
▁Ngo zi
▁pet er
▁الفر نسي
▁ጓ ደኞ
▁lon ii
▁ኪ ሎ
▁àkó jọpọ̀
▁khay ba
▁የከ ፋ
▁n'um ug
▁malu co
▁ቅድ ስት
AF EE
وري ا
pọ́n lé
▁قلب ك
▁okun rin
▁hist ória
▁bid haa
▁aut ori
▁fed eral
▁ክል ሎች
▁hands ome
▁ቻ ይና
▁ضرب ات
▁فب لاد
▁fico u
▁نقول ك
▁Ver y
▁😄😄 😄
▁Wi lli
▁Iy ùn
▁ሁለ ቱም
▁ìrè ké
▁ven cer
▁Ray on
▁musi ba
▁subscri ption
▁Kee p
▁ከጎ ንህ
▁proper ty
▁m3ah om
ውቅ ም።
▁haryan xu
▁nkwo bi
▁ሀገራ ዊ
3k 3
ungan o
▁fing ir
▁#k 'anyinoria
▁የሁ ለት
▁ìkó kó
▁ደር ሶ
▁التو فيق
▁pátá pátá
▁pata pata
▁mid night
▁الأس عار
hita ji
▁wa' ina
▁-- &gt;
▁#Omo Yoruba
Ol orun
ከታ ተ
▁bul ala
▁cé u
▁حسب نا
▁mahai fi
▁#yorubal anguage
▁የሚገር ም
▁trad itional
▁mummun ar
▁واح دة
isoban uro
🇦🇹🇦🇹🇦🇹🇦🇹 🇦🇹🇦🇹🇦🇹🇦🇹
🇲🇦🇲🇦 🇲🇦🇲🇦
▁sozin ho
▁atra v
▁lembr ar
▁#or isa
▁ተል እ
▁exc ited
▁bos su
▁ìràn lọ́wọ́
▁#NoMore '
▁Gwamn ati
▁ቶ ሎ
▁تصو يرة,
▁Gaski yane
▁usu al
▁“لا بيجي”
▁العلا قات
▁ታማ ኝ
▁resta ur
ubahiri za
▁ማው ራት
▁#Eyo Orisa
ultur al
chuku a
▁kwalli ya
▁#NigeriaAt 56
▁ጭንቅ ላት
▁ጤ ነኛ
▁rant se
▁zun uban
▁መፍት ሄ
▁3aw tani
▁ikpe azu
▁ibadun mu
▁inch allah
▁ìṣà kóso
▁Janu ari
▁Cham pi
Agba ye
▁🌴 🌴
▁CR ISTO
▁ብቸ ኛ
▁&lt; 3
▁humani dade
▁liter ally
▁mahauka ci
▁citi zen
▁ታሪካ ዊ
▁samb isa
▁mech anic
▁#NigeriaDecides 2019
adhim isho
▁Nw unye
▁Khan imambo
▁intro du
▁democra cy
▁ìrẹ sì
▁jour ney
▁pregnan t
▁takunt akun
▁#EndPo liceBrut
▁gent le
▁Premi er
isubi zo
▁Alla ah
umer right
▁Ucr ânia
▁#Dar andaran
▁#cons umerright
▁eventu ally
▁mànàm áná
& lt;
) '
- u
- dai
. )
. و
. ”
. 🙏
/ አ
0 k
0 u
1 R
1 p
2 H
2 R
2 U
2 h
2 m
2 x
3 Q
3 am
3 na
4 A
4 C
4 h
4 o
5 c
5 m
6 m
6 w
6 x
7 e
7 f
8 Q
8 h
8 t
9 U
9 X
9 h
9 na
B f
B h
B j
B w
B À
C t
D f
E L
E e
F 8
F ast
G 4
G X
G IF
H F
H d
H m
H n
I 2
I z
I ke
I run
I tan
J n
J p
K h
K n
K eep
L p
L s
L Ú
L á
M N
M q
M z
M orning
M onth
N j
O 0
O s
O t
P m
P ER
R R
R Í
R Ò
R est
R ight
S p
S eries
T Z
T l
V V
W w
W y
W Ọ́
X b
X o
Y Q
Z 8
Z d
b ani
b wiye
b ínú
c Q
c ik
c um
c ade
c ikin
d A
d b
d ɔ
d ire
d ition
e ji
f 5
f 8
g O
g ay
g um
h à
h uki
h wɛ
i ye
i lu
j 8
j R
j q
j is
j ama
j ul
j abi
k y3
k alẹ̀
k utana
l ahi
m ala
n x
n áà
n atul
o i
o ò
p N
p S
p ri
q y
r d
r ìí
s ab
t ị
t iti
t umọ̀
u c
v C
v b
v z
v un
w ing
w lh
w ss
x un
y ...
y ito
y oni
y ena
z M
z ine
z uru
z imu
z embro
à mú
ç ado
è ̟
é .
í bi
í rà
ó kù
ó kòó
ú de
ú gbó
ú sù
إ ن
ا سب
ت راكي
ث رة
ج ح
ر هاب
ز ر
ط ال
ط حن
ظ فين
ع بي
غ ال
ـ ي
ف لة
ق ون
ك لة
ن دي
ه لا
ህ '
ለ ኞች
ሊ በላ
ሌ ው
ሎ ችን
ሚ ኒ
ማ ቅ
ሞ ችን
ረ ሰቦች
ራ ችን
ር ሶ
ሻ ገር
ሽ ከር
ቀ ዋል
ቁ ን
ቃ ጥ
ቃ ችሁ
በ በ
ቧ ል
ቫ ይ
ተ ዋል።
ታ ችሁን
ቻ ችሁ
ቿ ን
ኑ ኤል
ን ?
አ መት
እ ኖ
ከ ረም
ክ ሽ
ክ ክ
ወ ን
ዋ ሃ
ው ?
ዝ ቃ
ዥ ን
ያ የ
ዱ ሳን
ጀ ን
ጀ ምራ
ጅ ሊስ
ገ ታ
ግ ስ
ጠ ለ
ፃ ነት
ፈ ጸ
፣ በ
▁ "
▁ ሓ
▁ ሢ
▁ ፔ
▁ ✍
▁ ⭕
▁ 🎈
▁ 👎
▁ 💡
▁ 💰
▁ 🔴
▁ ùn
▁ ጣል
▁ ✍️
⭐ ⭐
🇧 🇮
🏿 ‍♀️
👁 ️
👏 🏻
💀 💀
😁 😂
😐 😐
😵 😵
🙄 🤔
🥂 🥂
er re
an n
an isha
an gira
▁n wo
▁n gi
▁n pa
▁n lá
▁n ita
us ,
▁m ni
▁m war
▁m uko
▁m ong
▁m sh
▁m ọ̀n
▁m ukan
▁m yiza
▁m kuu
▁m aroc
▁a yar
▁k 3
▁k nan
▁k ame
▁k pata
▁k osi
▁k risto
▁k 3k3
▁d ya
▁d ust
▁d oro
▁d orí
▁d utse
▁d alụ
▁t la
▁t unt
▁t igo
▁t bark
▁s l
▁s r
▁s ina
▁s are
▁s era
▁s ita
▁s ort
▁s ight
▁s atar
▁s pit
▁s ession
in in
in ira
▁b ì
▁b ali
▁b 9a
▁b èrè
▁w ia
▁w ara
▁w isdom
ar un
ar ere
▁o hhhh
▁y è
▁y ε
▁y ji
▁y iri
▁i ṣ
▁i ce
▁i za
▁i yin
▁i hhh
▁i ṣẹ
▁i pá
▁g ẹ́
▁g ali
▁g án
▁g wi
▁g osi
▁h all
▁h án
▁h aaa
▁h iss
▁h orn
▁h umu
▁l 2
▁l l
▁l ake
▁l uta
▁l bar
▁l orun
▁f ú
▁f ay
▁f eri
▁f est
▁f kh
▁f emi
▁e hia
▁e terno
▁e uropa
am .
am as
▁c m
▁c ima
on in
on da
▁p ô
▁p al
▁p it
▁p lu
▁p ii
▁p adi
▁p ụọ
at t
at ai
en y
en ger
ak uta
ال ث
al ing
al im
▁na pu
wa ?
wa ...
▁A G
▁A J
▁A wo
▁A jo
▁A kin
▁A ṣọ
ba ya
ba ara
ba je
▁# h
▁# al
▁# ko
▁# her
▁# Quotes
▁# QnA
ah ara
▁r aa
▁r ise
▁r inga
▁r onu
▁r ashford
▁de ter
ur uka
ur enge
ay y
ay im
ay ch
▁ال رب
▁ال رح
ik ini
ir em
ir ane
ir ire
ir ikiri
um ishi
om ere
om pan
it ha
it abo
▁ni a
▁ni ho
▁j ò
▁j aha
▁የ ሳ
▁የ ኑ
▁የ ጤና
▁የ ስልጣን
▁የ ያዘ
▁የ ክልሉ
▁የ ዓለም
▁አ ጠ
▁አ ጣ
▁da '
co in
gb ì
▁N ak
▁N ina
▁N isan
▁N onsense
ọ́ lé
▁እ ዉ
▁እ ቅድ
ut ara
▁M n
▁M on
▁M um
▁M ike
▁M ban
▁M IC
le ct
ab ri
▁O .
▁O fe
▁O gbon
▁ọ ta
▁ọ dị
ou ,
ou ba
▁à gba
▁à lọ
▁à tùpà
▁K er
▁K we
▁K uto
▁K asan
ẹ́ gùn
▁I ro
▁I be
▁I ku
▁ba wo
▁ba uta
▁م وف
▁م رت
▁م رض
▁و ير
▁و ام
▁و ست
▁و عد
em ena
▁z en
▁z ine
▁በ ዳ
im ù
▁u ha
▁u po
▁u fu
▁in ve
▁in aku
re edom
▁on wa
▁to pic
▁wa waye
▁ma zan
▁ma funzo
▁S à
▁S ing
▁S aka
▁S isi
▁S alam
▁S HI
▁S .A.W
▁B Y
▁B it
▁B est
▁ì jì
▁ì dọ̀
▁ì polongo
ke zo
la a
la wo
▁ku ya
▁ku ja
▁ku fan
▁ku anza
▁ku weka
▁mu ha
▁mu itas
▁ነ ክ
qu es
▁v h
▁v ision
▁E ke
▁E xa
▁E égún
▁E TER
▁T U
▁T W
▁T è
▁T ay
▁T ake
▁T ani
▁T are
▁T igo
▁T PLF
ta !
▁be y
▁be cos
▁ní re
▁ab ra
▁ab ala
▁ab inibi
▁ab ughi
ho use
▁we ee
▁we ld
▁D or
▁D uni
▁D oc
▁D addy
▁go te
▁am asi
▁am iz
▁መ ካ
▁መ ጋ
▁መ ሀል
▁መ ያዝ
aa f
ig u
ig om
ig ira
ig era
ig isha
▁Allah !
▁ب قي
▁ب وز
▁ب رامج
▁you ve
▁R ú
▁R us
▁R ai
▁R em
▁R ub
▁R ap
▁ل يا
▁ل ناس
li ar
li ve
li vu
do le
▁gb '
▁gb àá
bi furije
▁for go
zi ?
▁ò !
▁ò jí
▁ò giri
▁ف خ
▁ف ع
▁ف ما
▁ف هو
▁ف عل
▁gi i
te InYoruba
ama ,
▁C amp
wan ga
ji unga
▁W à
▁W al
▁W ane
▁W elcome
▁ع يد
▁ع الم
▁H ere
▁H ata
▁H adi
▁H uu
▁qu alidade
▁di yan
▁ta w
▁ta wi
▁ta va
▁ẹ mu
▁do go
▁do ko
▁do jú
▁do gs
▁ت سا
▁ت روح
▁እን ኩ
▁እን ጠብቃ
▁G oogle
▁as aa
▁as ali
▁al f
▁al to
▁al ém
▁ከ ሃ
▁ከ ሰው
▁ከ ባለ
▁ከ ምት
▁ይ ላ
▁ይ አ
▁ይ ኼ
▁ይ ጠፋ
▁U N
▁U hm
▁U ganda
ci de
gbo ,
▁fi ve
▁fi lhos
▁fi quei
ọn u
ki e
▁ነው ???
▁ي أ
▁ي دو
▁ي قو
ge ,
▁lo hun
▁ለ ቀ
▁ለ ክ
▁ለ ገና
▁ለ ምት
▁ha o
▁com port
▁com ida
▁ak ora
▁3 2
▁and roid
▁ga war
▁of isi
lo p
▁su dden
▁mo yo
▁mo thers
▁mo vement
ko ko
▁kan u
▁ch á
▁ch er
▁ch ase
▁ch wia
▁' ò
▁' ya
▁re e
▁re com
▁re alidade
▁re lated
lu ,
lu Igbo
▁mi o
▁mi ddle
▁ك يد
▁es ca
نا و
▁wo llah
▁wo ̟n
▁L O
▁L IVE
▁ki da
▁ki dd
▁que ens
ver si
▁ያ መ
▁ያ ጣ
▁ያ ሬድ
▁im pr
▁im irimo
▁im medi
▁ተ ም
▁ተ ሰብ
▁ا هل
▁ا جتما
▁ا صحاب
ati va
▁um mar
▁la cha
▁la ff
▁P OR
▁P hoto
▁P ODER
ee .
gi o
▁bu tton
▁Ọ dẹ
▁الم وت
mo ye
pa ganda
th om
▁en y
▁en vir
▁en ikeni
▁ወ ጪ
▁ወ ዲያ
▁ወ ዴት
▁bá lá
▁pe kee
amu d
▁1 ,
▁1 :
▁1 /2
▁ስ ማ
▁ስ ሜ
▁ስ ላል
pe cial
si co
si ve
si cs
ane iro
ار و
gh u
▁J ose
▁J ikan
▁li es
▁li ck
▁li ps
ul ima
▁si jui
▁é po
لي ب
▁ም ህ
▁ọ̀ là
▁ọ̀ ṣun
▁yan ge
▁fa ça
▁fa cto
ات ها
▁ن لعب
▁F ada
chi a
chi d
chi ld
and ikia
▁የሚ ከ
▁من و
▁من دوبية
▁us h
▁us ib
▁us af
▁Ẹ káàárọ̀
▁kwa .
▁kwa ikwa
lé tí
▁una pata
▁ሰ ኞ
▁ሰ ዎችን
▁ad or
▁ح كم
▁ح سن
▁te k
.... ......
▁st adium
fa ce
▁bo ca
دي نا
▁kw aku
▁kw ib
▁في كم
▁ar med
▁un ayo
▁man ufa
▁kar ar
▁kar ama
▁kar yan
▁pa ci
▁pa per
▁n' aha
▁n' igwe
▁#I Y
▁#I AFEE
▁gu dan
▁gu tter
day s
ess or
▁( ì
▁أ فضل
iki ye
yin ka
▁ẹ̀ kún
iko um
▁ọmọ .
▁ts ira
▁ts ami
▁ra j
▁ra pper
▁Ì T
▁Ì gbé
▁Ì kòròdú
▁Ì YÁ
▁On were
ban ze
ban urire
ري بة
ري با
▁at le
▁at uru
▁mat siyata
▁ana weza
▁አይ ጥ
▁Ch u
▁Ch uk
▁ግ ጭት
▁ah ankali
▁mut we
wi e
wi hariko
▁co co
▁س وى
▁dai -dai
▁wi laya
war ẹ̀
▁ት እ
▁if u
▁dan u
▁han yuma
▁ق مة
▁ق الي
▁وال ش
st ru
▁kò ̟
▁kam l
▁with in
▁አን ቀ
▁est r
▁ok ó
▁ok pu
يا بة
▁fit ina
▁ል በል
▁ል ቦና
▁د رت
▁har ya
ass im
▁wá lé
▁fo ju
وا ش
وا ك
▁ce ,
▁الح ي
ju e
▁ib om
▁ara !
▁dis gra
▁lọ jọ́
▁pl is
▁Ya fi
▁#A ny
▁#A ugust
▁#A buja
gan in
▁ጥ ግ
▁ጥ ንካ
▁ጥ ቂት
▁fr 3
▁ac an
▁ac ademy
▁ac ompan
▁ሲ ታ
▁In de
ام لة
▁pro je
▁ri ba
ዎች ና
ist ir
ist ration
▁Na o
▁x aa
▁omo luabi
▁san ar
▁san wó
▁ان ك
▁cho i
▁#T PLF
▁Ò wu
▁baba .
▁je ,
▁je ki
▁je hova
▁ik po
ami lika
▁lọ́ gbọ́n
▁lọ́ dọ̀
ast ing
▁ድ ሃ
▁fe io
▁fe ature
▁up load
▁gan shi
▁Da vid
▁Ka zi
▁Ka fin
▁ታ ውቃ
▁ታ ክሲ
▁#E m
lọ́ mọ
▁kenan 😂😂
▁مع ند
▁ap ẹ
▁ap ari
▁ap ril
▁ob ra
▁y3 3
▁y3 te
▁ex change
▁mma !
▁È rè
id ad
no lo
▁የአ ባ
▁day man
دا و
دا خلة
ook ing
man wu
▁god ia
▁ike !
▁ike ja
ente d
▁Ọ̀ kan
hu dum
▁ص ورة
▁ص راحة
▁tr at
▁tr ai
▁አለ ?
▁አለ ።
▁ur etse
▁haka ,
▁ዘ ረኝነት
▁ሀ ይማኖት
▁ሀ ገሬ
▁ሳ ሙ
▁way 3
▁way on
▁way anda
▁Q U
▁Q ar
▁Q arya
▁را ي
oooo ooo
▁ጋ ሽ
▁kh ensa
▁daya ,
▁mes sages
▁የመ ሰ
▁eh nn
là màgbò
▁ama ze
kh al
kh li
▁بال نس
▁nw at
pi li
▁Ab ụ
'a ba
بي ق
رو قات
▁mal ami
▁mal aman
▁mal aria
▁الأ ش
▁الأ و
▁الأ غلبية
▁ስለ ሌ
▁ስለ ማ
kun le
▁mmadu !
▁mmadu ,
▁ለማ ስተ
▁gh ani
▁ị n
▁ị ch
▁ለመ ፍ
▁ለመ ያዝ
▁كي ش
▁per form
▁mọ̀ ,
▁ط ب
▁cha f
▁دي م
▁des er
▁des en
▁des con
▁br on
▁br it
▁br ought
LA M
IN DA
▁ọdún -un
dù ú
▁bur ger
▁ele yi
▁ele ct
تو نا
▁gy ina
ft an
▁pre tty
sí ,
▁suka fi
vo ice
▁ci yar
رف ع
cy aha
▁oló ṣèlú
OR A
▁Se i
▁Se bi
▁Se ja
▁#M usic
▁#M arch
▁hak ori
▁Ẹ̀ kọ́
▁anyị .
▁Ar ziki
▁الد فاع
▁ran se
wà dà
▁Me ye
tà ,
مو سى
▁baz ar
▁ኢ ራን
jí -
▁sal ma
▁bẹ́ẹ̀ ni
▁እንዳ ያ
▁lma ooo
▁بن موسى
▁today s
▁تح ب
▁تح يا
▁lé rò
▁lé kè
▁aw al
amp aye
▁kashe mu
▁mẹ́ tẹ̀ẹ̀ta
▁banza .
jin le
▁oní lé
▁oní tọ̀hún
▁ፈ ገግ
ary ane
▁cont r
▁cont ribu
▁dak yau
▁ih ere
▁ወይ ?
▁mon key
bẹ̀ ,
cer amente
😁😁 😁😁
▁#G rand
GB A
▁መስ ጊድ
▁bah ari
▁il ikuwa
يش ة
▁ahu .
▁pesso al
▁comp lim
▁ndu ,
▁8 10
▁ሙ ዚቃ
▁umun nem
▁jí ,
ዋል ፡፡
usu biza
سا ج
cu .
▁الن ق
▁mur za
▁cl aro
▁تع اون
ré d
▁ent endi
▁dyal k
▁head line
▁muk ai
▁jam 'i
▁10 k
▁lu v
▁No t
dì ,
ayin ki
▁oooo ,
▁tw ari
▁So ,
▁So koto
▁supp ly
▁fee ls
▁run ning
▁🙌 🏿
esi e
▁የሰ ራ
▁የሰ ጠ
▁lea ving
▁ret í
urin ho
kùn .
▁mp ira
▁om g
قل ب
▁mk puru
▁lm os
▁gidan ka
▁ሞ ክ
▁Im p
▁bọ̀ .
▁pres do
▁pres ent
yam ahanga
▁nko a
osi de
▁ehn ,
▁yab ani
▁gbó ná
▁الي ه
▁Is lam
▁En gland
وج ه
ስታ ው
😅😅 😅😅
IS I
▁spe ci
▁spe ed
▁neza .
▁ቁ ጥ
▁obu ghi
esh wa
▁off end
▁ada ge
kí ni
▁ee yan
▁shar ing
اه رة
ደራ ደር
▁ọwọ́ ọ
▁[ No
gl igence
▁sp ons
▁tar on
▁tar biya
kún lẹ̀
▁👍 👍👍
ké ré
▁owo ,
ائ ق
▁munsi .
መለ ሱ
اي ح
▁gut era
▁رو شير
🏃🏃 🏃🏃
▁ot uto
▁Kò sí
▁Le ague
▁ሆነ ን
▁ƙ as
▁ƙ asar
▁Ok ike
▁MA I
▁Po de
▁àt ọwọ́
▁wò ,
▁albarka ci
▁ሽ ን
▁ሰላም ና
▁ቃ ለ
▁ቃ ጠሎ
bia a
▁kp om
▁مس كينة
▁ga- eme
▁heart s
▁enjoy ing
▁ij uru
▁Vi lla
▁Vi jana
▁الط ا
wor an
▁💔 💔
▁ụmụ n
▁uri ya
▁inter est
▁kug ura
▁tafi yar
▁sau ce
▁dri ving
▁በደ ቡብ
💪💪 💪💪
▁😂🤣 😂🤣😂
▁Hausa wa
▁ተጠ ር
▁ተጠ ያቂ
▁iyi he
▁gwa da
▁14 700
▁og ya
amente .
▁uz iko
▁ከእ ናንተ
▁láyé .
▁Os ita
▁ሸ ገር
òó rọ̀
▁tat ta
▁#U m
▁#U r
مت ع
▁hahah ahah
▁ank ashe
▁وح نا
▁yat aimaka
▁يب قى
▁títí ,
▁Lá ti
▁nílé ,
▁የዘ ላለም
▁torí pé
dó gún
قط اع
▁sad aka
▁ተቀ ም
▁láì pẹ́
▁pecado ,
▁ɗ in
▁Mur aho
▁ተብ ዬ
▁support ing
▁ej iri
▁ṣẹ̀ dá
▁conf use
mud en
jó kòó
▁read ing
▁n'o bodo
wom una
▁kik ai
▁ፅ ሁፍ
akun an
▁Ari wo
▁ọkụ kọ
▁✊ 🏾
▁Iki pe
▁maz uri
▁maz ingira
a. w
▁nyan kopon
▁igb oro
▁بد ات
▁المس لم
▁ምስ ክር
▁agwu go
EE EE
ናገ ረ
▁ken za
▁yada ce
▁nin de
▁sol ve
▁Lma ooo
▁shout ing
▁mwa du
▁ìmọ̀ ràn
▁የሀ ገራችን
▁رج ع
▁وع اش
lor in
▁nat we
▁cli ck
▁amo unt
▁rayuwar sa
▁hy po
▁🤣🤣🤣🤣🤣🤣 🤣
▁eee iii
▁Corona virus
▁ባይ ሆን
▁جم هور
▁lim an
▁maso yi
▁nab onye
▁ìf ọ̀rọ̀
▁concer t
▁kẹ ta
▁anno bar
▁anno ying
▁bala 'in
▁#igbo amaka
ashaka ga
▁هههههههه هههه
▁afe fe
▁alm ighty
▁አሰ ፋ
▁Des de
▁Des cul
▁3and ak
▁3and na
▁gost am
▁ግለ ሰቡ
▁#Mo zambique
▁púpọ̀ .
▁Hak una
▁حس بي
▁jami 'an
▁etc .
ከፍ ተኛ
▁lf ans
▁Ogb aru
▁رح مة
▁ሄ ዶ
▁الرج اء
▁inde pendence
fie ld
▁#Ogun Ile
▁prom ise
▁እነዚህ ን
ቁር ና
umv ikana
▁شخص يا
▁pẹ lu
▁deci de
▁mensa gens
▁ochi chi
▁sli ppers
????? ♀️
▁nsh uti
▁sto pped
▁የጥ ላቻ
▁ሰብ ሳቢ
IG ERIA
▁snap chat
Quo teInYoruba
yem era
▁rel ative
▁ያደረ ጉት
▁መደ መር
▁ìró kò
▁mili yan
▁gener ator
▁hist ory
▁doc ument
gom bwa
▁Bó o
▁situ ação
▁less on
▁Muk am
▁በሌ ላ
▁òǹ kà
▁mman wu
▁eran ko
▁àlá fíà
▁Wana wake
▁እህ ት
▁موا طن
▁لج نة
خخ خخ
▁Kwan kw
▁ሀይ ሎች
▁#AyajoOjo Iya
ላቀ ሉ
ደገ ፍ
•• ••
▁ìrìn àjò
▁ተገ ቢ
▁عار ف
▁acred itar
▁fing er
▁lig ar
▁Ess as
▁Ge ita
▁ለት ግራይ
eel TheMAGIC
▁ዛ ፍ
▁____ _
▁ìdán imọ̀
▁ትላ ለህ
▁ትላ ንት
▁premi er
▁ዩኒቨርስቲ ዎች
▁yashi ga
▁الكل مة
▁መጽ ሐፍ
▁kra aa
▁አይመስ ለኝም
▁#So cialMedia
▁ìtẹ́ .
▁ንጉ ስ
ፈና ቀ
▁quis er
▁drug s
▁ìwò sàn
▁Tso hon
▁òó tọ́
▁إلي ه
bon yi
▁ann abin
tten ham
▁ba3 da
▁kil imo
▁kamp uni
💯💯💯💯💯💯💯💯 💯💯💯💯💯💯💯💯
▁አስታወቀ ።
▁vend or
▁መገ ለጫ
▁viol ence
▁صحي ح
▁defin itely
▁አታው ቅም
▁ይገር ማል
▁conne ction
ሸባሪ ው
▁gó mìnà
▁بام تياز
▁صد ق
▁opini ão
ነጋ ገር
ṣìí rí
▁ungu war
▁Zam fara
▁فالع الم
▁guts inda
ait wa
▁mafar ki
▁Pesso as
▁Jack pot
▁procur ar
▁kno ck
▁التح قيق
▁depr ession
▁غاد ية
▁ፕሮጀ ክ
▁O' òduà
chang ia
▁agah inda
▁#Odun T
▁Govern or
▁survi ve
▁Mato la
▁ìmọ́ lẹ̀
▁Watan zania
▁alkh ai
▁Lib ya
▁አካውን ት
▁fàá jì
▁inves ti
▁Prin ce
▁ትብ ብር
▁choco late
▁Ògbó ni
▁Febru ari
Oni baara
▁torn ar
▁àg wà
▁WIT H
▁Hallelu jah
▁nkwasi asem
▁አስመል ክቶ
▁090 9
▁[[ positive
▁politici ans
▁lmafoooooooo oooooooooooooo
▁yingise li
sibil ity
▁#Eto Onibaara
▁transform er
ሳነ ያ
▁#tr ad
▁Mù sùlùmí
▁regu lar
▁apɔ muden
▁babalá wo
rabí àṣá
▁አመለ ካከ
▁usib ye
▁#Any QuoteInYoruba
hudum ia
▁[[positive HOTO]]
' ani
' lé
' yan
' ayin
- t
- Ò
- Ọ
- ẹ̀
- ní
- ọwọ́
- Moçambique
/ 2021
1 M
1 q
1 x
2 A
2 b
2 l
3 A
3 g
3 u
3 w
3 da
4 X
5 d
6 c
6 e
6 i
7 H
7 J
7 L
8 w
9 E
9 dar
: -
? 😂😂😂
A frica
B 1
B b
B AN
B read
B anditry
D 4
D T
D l
D x
D es
E 8
E v
E ko
F 1
F S
F n
F IN
G S
G q
H 3
H Z
H i
H w
H WE
I j
I p
I si
I fa
I TA
J 0
J a
J i
J k
J z
J am
K G
K f
K g
K l
K AN
L h
M h
M k
N M
O m
O le
O ri
O do
P 0
P k
P n
P EN
Q q
R X
R s
R adio
S la
S HA
T f
T j
U D
U h
V b
V p
V ibes
W R
W n
W x
W z
W AR
X I
X S
X u
Y 0
Y Y
Y i
Z p
Z AN
a fin
b X
b om
b uk
b ọn
b ena
c ya
c eri
c ord
d 4
d or
d le
e q
e de
f h
f ab
f ine
f si
f iro
g U
g q
g it
g ali
g ne
g ome
g emo
h ò
h ...
h uma
h ala
h era
i ch
i bu
i lé
j G
j N
j p
j ere
j ika
j ust
j ura
j era
k ri
k ine
k ali
l hi
l án
m àn
m ati
m bá
n as
n im
p g
p ì
p ụrụ
q 3
r 9
r om
s 0
s ín
t um
t witter
u ya
u za
v v
v it
v ha
v isi
v ise
v amos
w wa
w ch
w do
w asa
w alu
w amo
w ambia
x )
x 8
x h
x p
x ic
y m
z S
z it
z amo
Ì N
à rí
á wo
á lẹ̀
á tica
ì .
ò ̟
ò ní
ó ,
ó lẹ̀
ئ نا
ب اء
ت اء
ج رد
ح ات
ح تى
د ب
د ون
ز ون
س مع
ض وع
ط ى
ط ينة
ع ض
غ ت
ف ون
ق افة
م حسن
ن ب
ه ير
ه ذا
ሀ ፍ
ህ ?
ህ ያ
ሆ ይ
ሉ ና
ሉ ፣
ሊ ያ
ላ ቀል
ል !
ሐ ንስ
ሕ አዴግ
መ ሩ
መ ናት
ማ ሬ
ም ፤
ረ ቤት
ር ነት
ሳ ለሁ
ስ ?
ስ ስ
ሻ ው
ቅ ስ
ቆ ን
በ ቅ
በ ጥ
ባ ጭ
ባ በል
ቤ ቴ
ቤ ው
ተ ዳ
ቼ ን
ች በት
ኖ ሪያ
ኖ ረን
ኞ ቹ
አ ን
አ ለም
ኮ ት
ወ ረ
ወ ቁ
ዋ ቸው
ዘ ተ
ዘ መን
ዟ ል
ያ ችሁ
ድ ዮ
ጃ ም
ገ -
ገ ማ
ገ ዙ
ገ ጥ
ገ ሮች
ግ ረ
ግ ዝ
ጎ ብ
ጣ ዩ
ጲ ያን
ፀ ን
ፈ ህ
ፈ ሰ
ፈ ነ
ፈ ጠረ
ፊ ው
ṣ et
ẹ .
ụ lọ
▁ ö
▁ Ƙ
▁ ṅ
▁ ▪
▁ 🇸
▁ 🌝
▁ 💖
▁ 😮
▁ 🤓
▁ 00
▁ 02
🎼 🎼
🐱 🐱
👂 👂
👇 🏻
👌 🏾
👑 👑
💃 🏻
💪 🏽
😇 😇
🙄 😏
🙆 ‍♀️
🙏 .
an ụ
an zania
▁n bo
▁n urse
▁n manu
▁m ia
▁m adi
▁m ema
▁m dogo
▁m chezo
▁a 9
▁a ura
▁a iko
▁a hhhh
▁a ww
▁a chie
▁a onde
user s
▁k ro
▁k ùn
▁k ome
▁k yar
▁k yal
▁k ashen
▁d t
▁t us
▁t ha
▁t ike
▁t ank
▁t asan
▁t wer
▁t ọmọ
▁t jaw
▁s ̟
▁s ma
▁s adi
▁s oma
▁s iro
▁s igh
▁s ale
▁s aman
▁s omo
▁s lm
▁s amar
▁s akin
▁s pread
▁b ze
▁b end
▁b und
▁w adi
▁w arn
▁w utan
ar at
ar emu
▁o yún
▁o gójì
▁y em
▁y ima
▁y ato
▁y kon
▁y alla
▁y dir
▁i go
▁i jọ́
▁i pin
▁i hohoterwa
▁g ast
▁g el
▁h r
▁h t
▁h ah
▁h ik
▁h em
▁h ura
▁h ita
▁h bd
▁l ayi
▁l ini
▁l oooo
▁l ọ̀rọ̀
un ze
▁f v
▁f en
▁f ade
▁f lies
or er
or úkọ
▁e y
▁e na
▁e val
▁e zin
▁e ṣin
am ur
am ala
▁c un
▁c uri
▁c yiza
▁p ọ́
▁p uo
▁p leas
at uma
en ci
ak ayo
ak wiye
ak omeje
ال ج
ال ق
al al
▁na ’
▁na im
▁na quele
▁A pa
▁A bí
▁A yọ̀
▁A uren
▁# is
▁# ro
▁# no
▁# ek
ah ,
ah an
▁r ùn
▁r ụọ
▁r ather
▁de di
▁de las
▁de bt
ai d
ur imi
▁ال ...
▁ال لا
▁ال طو
ad é
he i
ll ed
ir amo
ir irwa
um un
um be
es sa
es era
▁ya ....
om ised
▁ni p
▁j àn
▁የ ሊ
▁የ ሐ
uk unda
▁አ ሃ
▁አ ዴፓ
▁da que
ya ga
ya bu
▁an ak
▁an ad
▁an go
▁an ji
▁an ani
is ee
is si
▁N ar
▁N WA
▁N ubwo
▁N àìjá
▁እ ማ
▁እ ዚያ
▁M ọ́
▁M are
▁M and
▁M adu
▁M ene
▁M BA
ab aki
ab onye
▁http ://t
://t.co ...
▁O do
▁O run
▁O rò
▁O sin
▁O únjẹ
▁ọ ,
▁ọ ya
▁ọ tọ
▁ọ dọọdún
▁ọ mọn
▁ọ jị
▁à yàn
▁à tì
▁à rìn
▁à nyị
▁K D
▁K ig
▁K ira
▁K ib
▁K ele
▁K wara
▁K urikira
▁K akanfò
▁I ga
▁I ran
▁I sh
▁I BI
▁ba 😂
▁م ذ
▁م دة
▁م قل
▁م وفق
▁و را
▁و هم
▁و مو
▁و سا
▁و هي
▁و غادي
... !
... A
... o
em y
em er
em bere
▁me ,
▁me y
▁me ant
▁me gas
▁me p3
▁z aria
▁በ ሐ
▁በ ኛ
▁በ ዋ
▁በ ፌ
▁በ ፖለቲካ
im ara
im igo
▁u yi
▁u gba
▁u wata
et í
et in
▁ka una
ana .
▁in e
▁in í
▁in do
re k
re y
re ak
re al
di l
▁ma q
▁ma ga
▁S I
▁S Í
▁S é
▁S is
▁S ul
▁S har
▁S chool
▁S pika
ce i
▁B I
▁B l
▁B ad
▁B ra
▁B aka
▁B ira
▁B iri
▁B uri
▁B ala
▁B ose
▁B ru
▁B OM
▁B abal
▁ì n
▁ì fà
▁se .
▁se ems
ch ri
la je
la va
▁ku f
▁ku zi
▁ku dai
▁ku omba
▁ku weza
▁v on
▁E M
▁E S
▁E X
▁E f
▁E g
▁E ra
▁E LE
▁E very
▁E urope
▁T E
▁T in
▁T uri
▁T anga
▁T ele
▁T alau
ta pha
yi ba
▁ab le
▁ab asu
ra ft
ere we
▁D J
▁D en
▁D ada
▁D amu
▁D id
▁D uniyar
▁am ah
▁am ata
▁am ash
▁am aso
▁am eeen
▁መ ኪ
▁መ ሞት
▁ب خ
aka po
▁ne 😂
▁ne gar
▁R WANDA
▁ل س
▁ل الا
do l
do ka
do hoka
▁gb ar
▁ko .
▁ko un
▁ko fin
▁ṣ àn
go kwa
▁ò wu
▁ò gò
▁ò dodo
▁ò tútù
▁is ,
▁is land
▁gi ga
▁gi ven
te 3
ama ze
▁W ali
▁W ash
▁W uta
▁ع ذ
▁ع ق
▁ع نا
▁ع ربي
▁H ana
▁H ala
ari es
▁di i
▁di zi
▁di ante
▁Y AN
ان ين
▁ta .
▁ta una
▁ta ata
▁ẹ ṣeun
▁ت نا
▁ت لم
▁ت قو
▁ت رام
▁ت مت
▁ت دخل
be gin
▁G us
▁G uk
▁G uma
▁G bó
▁G rande
▁G osto
▁as har
▁as ubu
▁al amar
▁al akowe
▁ከ ኢ
▁ከ ጥ
▁ከ ፋ
▁ከ ብት
▁ይ ዛ
▁ይ ርዳ
▁U zi
▁U gwu
ci ye
ci os
▁fi lin
▁fi lha
▁so ko
▁so ld
▁ي ل
▁ي رح
▁ي فهم
▁lo k
▁ለ ግ
لا ة
▁com po
▁ak wan
▁3 5
▁3 e
▁3 ando
▁of a
▁of ficial
lo hun
▁su wa
▁su da
▁su je
▁mo .
▁mo wa
▁mo tar
ko wa
▁ch akula
▁' yar
▁mi ú
▁mi ch
bo ko
▁ك ين
▁ك له
▁es u
▁es con
نا ك
yo bya
▁wo be
▁wo fa
▁wo yɛ
▁wo boa
▁L as
▁L ah
▁L ug
▁L ord
▁L igi
▁ki ,
▁ki p
▁ki u
ver nan
را دة
▁ያ ር
▁ያ ...
▁ያ ደርጋ
▁im ú
▁im ib
▁ተ ሳት
▁ተ ረጋ
▁ተ ገለ
▁ተ ፈጥሮ
▁ا ج
▁ا جمل
▁um ma
▁um ukun
gu ha
▁la 7
▁la ck
▁P O
▁P ut
▁P roverb
▁P esa
▁P amoja
▁bu zi
▁Ọ D
▁Ọ ́
▁sh anu
ow l
du ye
▁الم تح
▁الم فس
▁الم حكمة
▁sa udades
▁en fa
▁en ds
ja gun
▁bi li
▁bi lie
▁bi llions
ent ly
▁#Yoruba """"""""
▁ብ አዴን
▁bá à
fe ,
▁pe pe
▁pe gar
▁pe los
▁1 k
▁1 02
▁shi gan
▁lá ago
ار ع
ck y
▁😂 🤣🤣
▁J uli
▁yo yote
▁li f
▁li 9a2
ul ia
mọ .
ne ws
ne gligence
▁si yo
▁si yan
▁si ddon
▁le ti
▁ም ጣ
▁ọ̀ rẹ́ẹ̀
▁sí bi
▁fa ctor
▁sai de
▁ló ṣù
▁ن ه
▁F T
▁F ir
▁F ulani
▁F irst
and s
and er
and em
and negligence
▁የሚ በ
▁የሚ ፈልገው
▁من ظ
▁من ه
▁Ẹ ṣeun
▁kwa bena
jo NileYoruba
ub ana
▁una po
▁una vyo
▁ማ ግ
▁onye m
▁À gù
▁ሰ በር
▁ad ɛn
▁ح ين
▁ح فظ
▁ح جز
ku ,
▁it .
bá lẹ̀
▁bo le
▁bo jú
▁kw '
▁ar ent
▁un o
▁un necess
▁kar ki
▁kar fa
▁n' I
▁n' ọ
▁n' uwa
▁#I re
▁#I royin
▁#I luIgbo
▁con v
▁con di
▁con so
▁con vid
ire ba
▁( s
▁أ حب
iki liza
án u
ون '
ون و
▁ẹ̀ rí
▁ẹ̀ yọ̀
lh or
yan zu
yan zuro
▁ag wọ
▁ọmọ ba
▁ọmọ lú
▁ra chid
▁Ì wọ̀
▁Ì yẹn
ري ع
▁ban g
▁ban yu
▁ban san
▁at m
▁mat oke
▁ه كا
▁አይ መ
▁አይ ገር
▁አይ ቻልም
gun .
▁ah am
▁ah biba
wi de
▁co de
▁co ca
▁co br
▁co zin
▁co usin
▁ش ا
▁ش ابة
▁س خ
▁س كان
▁س وق
su la
▁oh na
▁sun usi
▁wi zzy
war eness
ashi ra
ashi ze
lú ù
▁ት ምህር
▁ት ኩረት
eg et
▁she ll
▁ደ ካ
▁ደ መቀ
▁af uwa
▁af fect
ran t
▁po ps
▁aka ,
ما ج
▁kam fanin
▁á ,
va .
▁with dra
▁አን ገት
▁ok uko
▁ok òwò
▁vi ce
▁nan ,
yar da
▁mm emme
ado go
يا ه
bí èsí
▁ል ደ
▁tu andikie
▁all owe
▁د ين
▁د از
▁har aka
▁fo wo
▁ji jini
▁እንደ አ
▁እንደ ምን
che zaji
▁ው ሀ
▁gba yi
▁gba yì
yé ,
▁الح ومة
▁em pr
▁#O KA
▁An í
▁An ty
▁الع ص
▁🙏 .
▁የተ ባረ
▁የተ ዘጋጀ
▁mas sage
▁خ دا
▁خ اي
▁#A s
▁#A bam
اش ر
▁nk or
▁nk ata
▁din ku
▁din su
▁din shi
▁can al
▁can can
lá í
▁ህ ሊና
▁mus an
▁mus hi
▁mus ha
▁mus lim
▁ke ?
ito a
ven i
ven ing
▁ሲ ኖር
▁Ni li
▁In ji
▁kun u
▁pro d
▁pro ve
▁ر ؤ
▁ر ئاسة
▁ر مضان
▁Na f
▁x u
▁won i
▁omo de
ru z
▁aga ji
▁san adin
▁wat ched
han o
han zi
asi le
aro ,
▁... !
▁Ò gbómọ̀ṣọ́
▁Ha wa
▁duk omeze
▁غ ل
▁ik pere
ami co
abo ko
ور ك
▁ny ir
▁men ti
▁To da
\n ت
▁ሁ ል
▁ቀ ድ
▁ቀ ለም
!!! '
fo c
▁ታ ላቁ
▁ታ ዳጊ
▁#E po
▁#E bola
▁jo int
▁مع لم
▁الت خ
▁الت غ
▁الت صو
▁الت عا
▁الت ربية
▁ap ren
▁ap rove
▁ap point
▁too .
▁by ari
ale ti
▁por tugu
▁wà ?
▁wà rà
nu ,
▁y3 ny3
▁Ba za
▁Ba ck
▁ex t
▁ex ams
▁لل ف
▁Ma za
▁Ma chi
▁kawai da
bar ak
▁لي كم
▁had dasa
زا ف
▁che io
دا فع
▁l' à
▁muna jin
▁uk ora
▁nti ba
▁ገ /
▁Al q
▁nt ir
kú jẹ
pu lu
pu ppi
ንግ ድ
ente i
kwa a
▁Ọ̀ rẹ́
hu la
▁7 00
▁ụ fọdụ
▁ص ور
▁ص عي
▁tr ail
▁tr air
▁yak asa
▁yak eso
ant ine
▁🤣 😂🤣😂🤣
ena ,
▁9 9
▁love d
▁Chukwu .
ff s
ff ee
▁ዘ መና
▁ሀ ገራት
▁ub ushobozi
▁ub umenyi
aban ga
▁car s
▁car ne
▁Q ayyum
▁را يح
▁her rr
▁الس عودية
▁የም ታው
▁sin u
▁kh ra
aran ce
▁daya ce
▁ebe ahu
rè .
ṣe pọ̀
ንድ ሮ
▁ẹni ,
là ,
▁بال ز
▁بال ن
▁ìy áà
▁ጠ ፍ
▁kin ada
رو ب
رو ج
▁kay t
▁الج يش
▁الج ديدة
gar uka
يد ير
▁só jú
▁mal t
per em
per ation
▁#R wandan
▁4 3
▁4 8
▁yar en
▁ለማ ሳ
▁ለማ ይ
▁ị gbọ
▁ị dị
▁በአ ሁኑ
▁ለመ ክ
▁ለመ ወ
▁ለመ ላው
▁bak ada
▁wu la
▁wu ff
▁per for
fun gua
▁አል ገባ
▁الش رق
▁الش هيد
▁እያ ል
▁እያ ደረገ
▁እያ ልክ
▁ojú ṣe
wá ,
▁er ro
▁er uo
▁mọ̀ ọ́
▁ط حن
▁fu lu
▁lol z
▁du ll
▁br ɛ
▁ibi he
ag wa
▁gaskiya ,
▁ፍ ጡ
▁ፍ ፁም
▁ፍ ቃድ
▁bur ya
▁bur uku
▁yín ?
▁our selves
▁ca pit
▁ca ught
قي م
▁ng wo
▁ng oma
▁ng were
▁ng ọzi
▁abi ?
▁here .
▁Ndi o
▁pre di
▁bai war
▁bai xo
▁alá wọ̀
▁pass port
▁mw akoze
▁mw alimu
▁sab bin
▁ìlú .
ashin dano
▁የሚያ ም
▁oló rin
▁oló yin
▁መል ካ
OR O
▁ir imo
aso ban
▁mb ese
▁#M an
▁Ẹ̀ dá
▁Ẹ̀ mí
▁مح ت
▁t' á
▁obi ara
اع ات
▁Ar ko
▁onu gbu
br es
▁bat ayi
▁ọ̀rọ̀ .
▁Kai i
▁Ak ító
▁Um wana
▁lab e
😍😍 😍😍
▁kwan i
▁kwan ciyar
▁ኢ ንተር
▁play ed
▁ari o
EN T
▁tà àrà
ment os
▁sal on
▁lma ghribi
▁الق طاع
usi ana
▁akan sa
▁dar u
قة ,
▁ɛ no
▁mí ràn
con d
▁mẹ́ rìndínlógún
▁ديال نا
▁ፈ ንታ
▁cyane !
▁dak in
▁በተ መለከተ
▁ወይ ኔ
▁ጀ ግን
▁sen di
▁bas ai
▁s3 3
▁bamu ga
cer .
▁nwe ghị
▁ሃ ይማኖት
▁fal am
▁መስ ጂ
ukan ye
ሆኑ ት
▁ahu ,
ግራ ዋይ
yà ,
▁8 5
▁ኣ ለ
ዋል !
▁lafiya ,
usu a
kar ahun
▁iy en
▁mats al
▁bre ath
▁lik ay
▁tur ai
▁cl assi
▁تع الى
ስተ ው
ስተ ዳደር
▁omi .
▁bad ai
▁#L abarina
▁agb ala
▁dyal ak
▁dyal hom
▁gbọ́ ,
😭😭😭😭 😭😭😭
lik om
dà rá
ghri bia
can os
ix o
▁ባለ ማ
▁ባለ በት
▁ባለ ቤት
▁ቆ ሞ
▁y' ab
▁y' ub
▁y' igikombe
▁let 's
▁الك ريم
▁በእ ው
▁nma ,
▁kal an
▁mk po
▁yako ze
▁som ente
▁መን ፈ
▁የነ በ
▁zi ba
ሚያ ስ
▁pos iti
▁ug ira
▁bb naija
▁gidan su
▁gida jen
▁tuna weza
▁oko to
▁id enti
gùn (
خل ف
▁bra vo
▁ላ ለ
▁يح كم
▁Ad im
▁pres ença
طن جة
▁f' ara
▁f' orí
▁gas ar
▁.... ....
▁au dio
▁tay ar
oso ,
▁yá ,
eng ane
▁Man ing
▁op tion
▁#D emocracy
af ọ
pẹ rẹ
▁مش روع
▁#In s
tù kùtù
▁mba ise
▁ima gem
kí á
▁👌 🏾
▁mà kà
▁ee i
ደራ ጀት
lt on
AM U
▁[ Keep
▁fan z
رق ام
!!!! !!
▁እውነት ም
▁Bi ashara
ማር ያም
alar ia
▁tso huwa
▁tso huwar
▁òní ,
▁You 're
pon geza
▁ዶ ር
▁Ag wo
▁Oló ò
▁das uka
fur ika
▁ƙ a
▁aban za
▁أن ه
▁ከአ ማራ
▁ከአ ንተ
🤲🤲 🤲🤲
▁#F e
▁#F ree
▁#F irst
ingi ye
▁Li ber
▁tú bọ̀
▁12 0
▁ewé ko
▁cer to.
▁ham sin
قيل ة
▁yam ana
▁yam ma
▁15 00
😆😆 😆
▁ms ingi
▁kp oo
▁lẹ ni
▁Eze ge
▁18 0
▁sum mer
Am ma
▁yọ rí
▁Twitter .
▁ዳ ቦ
▁swe eti
▁irú fẹ́
Mo ther
هد رة
▁tit un.
tim ate
▁fl at
▁አደ ል
▁She gu
▁She kara
▁ọnụ .
▁ሲያ ስ
▁att end
▁att itude
OV ER
😄😄 😄
▁rub utun
▁kwe tu
❤️❤️ ❤️
▁Ho tel
▁للم غاربة
▁ወን ጌል
▁tas wit
atur ing
▁suk uma
▁ṣà ṣà
▁ṣà ǹgó
▁ṣá ájú
▁ከእ ኔ
▁enye m
OS O
RA IS
kere za
▁በቀ ላሉ
▁uli po
▁ሸ ኔ
▁bon us
▁መቀ በል
▁ይሁን ።
its we
▁خاص ها
▁tempo .
▁🥺 🥺
pos to
sàn án
▁kike yi
▁dra gging
▁قال و
bé lé
ishe s
▁ون حن
▁#proverb s
▁Bia fra
▁kasu wan
▁kasu war
▁Ògún ,
▁pecado .
▁jan yo
▁iwa ju
▁ras so
▁والم غرب
▁ሊያ ስ
▁ለእ ኔ
▁hust ler
▁wont umi
▁tèmi .
▁adu lt
▁Ngwa ,
رائ ب
DE MA
▁cons cience
▁يخ لي
22 2
▁tò rò
▁n'a zu
hab wa
ግብ ፅ
▁tut umie
▁wọ̀ lú
▁yaf ito
▁فم راكش
▁bring ing
▁láàá rọ̀
▁afu fu
▁hahaha .
bag abo
▁gidi gidi
▁ات فاق
▁له ذا
ጠራ ጠር
أس ف
▁gl ori
▁gl ory
▁nós .
▁الل ع
▁àá ké
▁ልብ ስ
▁bri de
▁በህ ዝብ
▁differ ence
ቀጥ ለው
▁actu al
▁Tun ak
▁የደ ም
▁وخ ا
uuuu uuuu
▁የትግራይ ን
▁የብ ልጽግና
èè yàn
😊😊 😊
▁yu le
▁የባ ህል
asho la
▁أخ ي
uss ia
enti al
▁hea vy
▁tro phy
▁lb are
▁lb nat
▁OL Ó
▁iskan cin
▁nab yo
-ì wé
▁dest ru
▁dest ino
▁mot sa
-o -ò-
▁conhe ce
▁conhe cer
▁Bro ther
▁تي في
▁ወር ቅ
▁kup unguza
رش ح
فق ين
▁ፌ ዴ
▁fus ka
ገነ ን
▁ነዋ ሪ
▁መብ ራት
▁ጅ ል
▁ró jú
▁addinin mu
▁#Pr aises
▁aza ba
▁tes tim
▁addu 'ar
▁😡😡 😡😡
▁በረ ከት
▁تست حق
▁የል ደት
▁produ cts
▁AM IN
▁Iya wo
▁መለ ስ
▁esco la
▁dàgbà ,
▁rárá .
▁ወንጀ ለኛ
▁2022 ,
▁listen ing
▁የተሰ ጠ
gú dú
▁makan ch
▁በፍ ፁም
DD DD
▁ብላ ቹ
▁سن ين
▁አልነ በር
▁አማ ካሪ
▁segu inte
▁arre pendimento
▁الفر قة
▁Murakoze .
▁nad ama
▁pf huki
baba je
▁Ndu gu
▁لق او
▁dut y
▁dẹ̀ dẹ̀
▁fad uwa
▁وس لم
▁Eme ka
▁parti ci
▁alfar ma
▁ድሮ ም
ሸን ፋ
ሸን ፍ
▁segun do
▁lev ant
▁mwana ume
▁huk um
▁#b lack
gere je
▁apo i
gw è
▁የፍ ቅር
▁مزي ه
▁tatt alin
▁mbe ga
▁wó n
▁cus to
▁Zai di
▁Mp aka
▁Mais ha
▁ṣò ro
▁ወገ ኖቻችን
ካሄ ደው
▁cent re
▁Jam huri
▁ቀጥ ሎ
▁gaya wa
▁#ha ppy
ለቀ ቁ
▁band its
▁jun ction
▁የኤ ርትራ
▁soci edade
▁mir adi
▁estu dan
▁shawar ar
▁claim ing
▁mgb aka
▁መጨረሻ ው
▁makaran tu
▁የመጨረሻ ው
▁المواطن ين
-n os
▁mmi li
▁kilo de
▁حم لة
ṣọ̀ run
▁difer ente
▁ይጠብ ቅ
▁ተቃ ዋሚ
▁ወታ ደ
▁hala fu
▁minist ry
መንግ ስቱ
▁😷 😷
▁صو تك
🇩🇿🇩🇿 🇩🇿🇩🇿
▁shis hi
▁በባ ህር
▁amas aha
▁Pres id
▁Mko ani
ighe st
▁sojo jin
▁ምኞ ት
▁agr ade
▁rẹpẹtẹ .
▁influen cers
ندو ق
▁tot ally
▁oró gbó
▁ked ere
▁Mer ry
▁KAN O
▁ọ̀tọ̀ ọ̀tọ̀
▁kwad ayi
▁yakar emu
▁rapha el
▁#african culture
▁Elédùmarè .
mìí ràn
▁bis cu
▁amb assador
▁መሠ ረት
▁الاجتما عي
▁déédé é
ሰቦ ቻቸው
▁abr ir
▁بز ناس
▁እንደነ በር
▁squ ad
▁CHA DEMA
▁encontr ar
▁mort os
▁ማነው ?
▁#Mother LanguageDay
برا ط
ises ayings
▁Nik am
▁àpá ta
▁disap point
333 1067
جاز ات
▁chuk s
▁repres ent
▁azzalum an
éré sì
▁empre go
▁طو مو
▁glass es
▁0809 3331067
▁ኔ እ
▁#Ogb omoso
▁ቢሊ ዮን
▁princip al
fiti ye
isir isi
▁Nit ori
▁عص ابة
▁حبيب تي
▁apr ender
▁ዘላ ለማዊ
nama j
▁#w isesayings
▁#ow ambe
▁መሞ ከር
▁ènì à
▁Jama 'a
▁tsall ake
▁#Te am
▁#Now Playing
elebr ation
▁àjọ̀ dún
▁maele zo
▁Sala am
▁gaf art
▁usha uri
▁cerve ja
▁ተከት ሎ
▁ያሳዝ ናል
#F eelTheMAGIC
▁IF Á
▁Sant os
▁comfort able
▁أت منى
▁Ṣà ǹgó
▁#Co vid
▁#IMLD 17
▁rasha wa
▁እወዳ ለሁ
▁ለፍ ርድ
▁sufici ente
▁regar d
▁Akụ kọ
▁#IgboHigh Life
▁relacion amento
phan t
▁zum unci
▁Sabi da
▁valu e
▁ይና ገራ
▁Isab ukuru
erc ise
▁àpar ò
▁الموض وع
▁#Ida joNileYoruba
hud umie
ukr ani
▁አይደለሁ ም
▁ሆቴ ል
▁stret ch
gbèé ká
▁yahuda wa
ክንያ ት
▁bime ze
▁bais an
▁evid ence
▁#br andnegligence
▁እግዚአብ ሄር
▁LỌ́ SẸ̀
▁سع يدة
▁orílè ̟
▁jẹjẹ rẹ
▁#Bu hari
▁Prime iro
▁ተልእ ኮ
▁mong yae
▁موف قة
▁TW ITTER
▁immedi ately
▁kò̟ ò̟
▁بالنس بة
▁روشير شي
▁tatta una
▁#SocialMedia Night
▁▪ ️
▁compo und
▁matoke o
▁#Abam eta
' '
' ?
' ve
' se
) ?
- M
- lhe
. E
. 😂😂
. 000
/ 7
/ ም
/ ት
0 n
1 a
1 g
1 n
2 Y
2 c
2 d
2 n
4 O
4 r
4 u
4 z
5 1
5 M
5 R
5 n
6 1
6 k
6 n
6 r
7 C
9 A
9 c
? ”
A E
A ma
B 5
B k
B t
C 3
C 6
C s
C x
C up
D 5
D q
D w
F X
F d
F p
F s
F y
G n
G WU
H 8
H q
H u
H v
H y
H istory
I h
I l
I w
J X
J u
K b
K q
K z
L Á
L Ọ
M AN
M ix
M assa
N Q
N e
N h
N s
O b
O c
O k
P H
P i
P END
Q c
Q f
R G
R W
R Z
S UN
U k
U w
U z
V 9
V P
V h
W q
X p
Y h
Y k
Y p
Y Ẹ
Y AR
Z T
Z w
Z IN
Z ZA
b 0
b ane
c w
c un
c ta
c ere
c emos
d L
d oo
d iri
d stv
e 3
f ee
f emi
g 3
g c
g d
g us
g una
g go
g aye
h ó
h 00
i wa
j D
j V
j iran
j èrè
k era
k aran
k airi
l 5
l w
l ad
m ak
n ta
n ame
n dé
n atin
o ƙ
o ha
o ver
o lú
p et
p ul
p ade
p ção
p amo
p ted
p esa
r on
r um
r ya
s ;
s n
s ọ́
t .
t b
t amente
u !
u do
v 7
v on
v ard
v utse
v imento
w aku
w ato
w hy
x S
x T
x Z
x w
x ama
x ile
y uwa
z k
z ikin
Ì LÀ
á ria
â m
ò we
ó mi
ó rias
ń gẹ́
ɛ se
ا ية
ب ين
ت اني
ت رك
ت لف
ث ي
ث مار
ح مد
خ دم
ر سة
ز ام
س خ
ش ور
ش كون
ص ري
ص الة
ض ور
ط ريق
ط لاق
ع ش
ع ادة
ك د
ك نت
م ه
ه ية
و '
ሃ ብ
ሃ ይ
ሌ ክት
ል ቶ
ል ካም
ል ጣን
መ ሠ
መ ዝ
መ ጨረሻ
ማ ችን
ማ ል።
ም ስት
ሣ ሥ
ረ ታ
ረ ከ
ሩ ቅ
ሪ ና
ራ ኤል
ር ን
ሯ ቸው
ሰ ም
ሳ ዝ
ስ ፣
ቀ ፍ
ቀ ውን
ቅ ረ
በ ሰ
በ ስ
በ ይ
በ ታል።
ባ ን
ተ ዉ
ቲ ባ
ታ ተ
ታ ፊ
ታ ደር
ት ም
ቸ ...
ቻ ለም
ች ።
ነ ዳ
ነ በር
ነ በብ
ና ስ
ና ን
ን ጋ
ኖ ስ
ኖ ሎጂ
ኝ ን
አ ሁን
ካ ቸው
ክ ሱም
ኮ ር
ዋ ች
ው ልድ
ዓ ላዊ
ዘ ም
ደ ቅ
ደ ጓ
ዱ ላ
ዳ ል።
ድ ሜ
ዽ ያ
ጃ ል
ጎ ዳ
ጣ ለ
ጥ ረ
ጥ ነት
ጨ ምር
ጭ ሆ
ጭ ን
ፈ ሪያ
ፒ ታል
ፓ ለቲካ
ṣ irí
ẹ sẹ̀
’ re
▁ ڨ
▁ ሟ
▁ ጡ
▁ ፃ
▁ ፉ
▁ ḿ
▁ 🍃
▁ 👨
▁ 👸
▁ 💋
▁ 🤐
▁ 🤤
▁ 🇩🇿
▁ 🇬🇭
▁ ___
▁ 🗣️
▁ 🤡🤡
▁ 🚶🚶🚶
▁ ✈️
▁ 😥😥😥
▁ ††
▁ 🇳🇪
☠ ️
✊ 🏻
✊ 🏿
・ ・
🏾 ‍♂
👌 🏻
👌 🏼
👍 🏻
👍 🏾
💃 🏽
📢 📢
😂 😅
🙅 🙅
🙅 🏽‍♂️
🚶 🏾‍♂️
🤦 🏿‍♂️
🤧 🤧
er v
er ation
an sa
an ight
▁n c
▁n za
▁n ìí
▁n dan
▁n gbe
▁n san
▁n iru
us ão
▁m l
▁m ...
▁m gbo
▁m fa
▁m ami
▁m osa
▁m rs
▁m ukobwa
▁m fano
▁a 3
▁a wó
▁a wwww
▁k l
▁k ọ́n
▁k one
▁k ọ̀n
▁k orí
▁k uti
▁k lam
▁d za
▁d ze
▁d uo
▁d umb
▁d alla
▁d stv
▁t z
▁t ɔ
▁t iro
▁t aso
▁t aho
▁t ough
▁s ayi
▁s ora
▁s aaaa
▁s esi
▁s ọ́nà
▁s tain
in wa
in ter
▁b um
▁b àá
▁b akoze
▁b sa7
▁w is
▁w os
▁w ike
▁w ada
▁w amu
▁w ss
▁w adau
ar th
▁o v
▁o ha
▁o ch
▁o man
▁y ame
▁y umva
▁y koun
▁y imana
▁i i
▁i ju
▁i pi
▁i dade
▁g s
▁g yi
▁g uma
▁g lt
▁g rown
▁h v
▁h una
▁h iku
▁h ud
▁l q
▁l ú
▁l om
▁l iki
▁l pia
▁f ase
▁f akh
or ò
▁e !
▁e è
▁e ̟
▁e ya
▁e ja
▁e gbé
▁e aster
▁e asily
as es
am ent
am arin
am adan
▁c ike
▁c ed
▁c ee
▁c asu
▁c art
▁c arin
on ment
▁p ll
▁p im
▁p liz
▁p ino
▁p alace
at as
at ani
en wa
ak uma
ak ers
al ous
▁na an
▁na ani
▁na fs
▁A D
▁A F
▁A I
▁A fi
▁A lu
▁A gbe
▁A kọ
▁A dá
▁A hhh
▁A ugust
ba bu
ba hun
▁# co
▁# wed
ah im
ah il
▁r ake
▁r andom
▁de ma
▁de lay
▁de la,
ai ki
ai shi
hi ra
hi bit
ad ir
ad im
ad ri
ik ir
ik unda
ir ira
ir and
um uk
um anu
om on
it ution
▁ni :
▁j it
▁j ose
▁j araba
▁የ ላ
▁የ ቅ
▁የ ቡ
▁የ ቱ
▁የ ዞ
▁የ ጅ
▁የ ሳይ
uk ka
▁አ ሥ
▁አ ቢ
▁አ ፄ
▁አ ፅ
▁አ ገኘ
▁አ ቤቱ
▁da ur
▁da aa
▁da fatan
ya wo
tt t
gb asa
▁an wa
▁an om
▁an uri
▁an ty
▁an fara
is un
is co
is im
▁N chi
▁N ǹkan
▁N ÃO
▁እ ዝ
▁እ ጣ
▁እ ስት
😂😂 🤣
▁M ere
▁M uke
▁M uni
▁M AN
▁M ost
▁M orning
▁M toto
ab asa
ye !
os en
▁O ore
▁O gbe
▁ọ mọ́
▁ọ rọ
▁ọ fà
▁ọ sàn
▁à pé
▁à yálò
oo p
oo th
▁K Á
▁K ay
▁K om
▁K pa
▁K ash
▁K ema
▁K amata
▁I ts
▁I gbó
▁I joba
▁I rọ́
▁ba gira
▁ba jya
▁ba ’a
▁ba uchi
▁م كاش
▁م كاين
▁و و
▁و دي
▁و كان
▁no ti
▁me ti
▁me fa
we ll
we le
▁z ub
▁z ib
▁z 3ma
▁በ ኣ
▁በ ከ
▁በ ዕ
[...]
