{"<unk>":0,"!":1,"\"":2,"#":3,"$":4,"%":5,"&":6,"'":7,"(":8,")":9,"*":10,"+":11,",":12,"-":13,".":14,"/":15,"0":16,"1":17,"2":18,"3":19,"4":20,"5":21,"6":22,"7":23,"8":24,"9":25,":":26,";":27,"<":28,"=":29,">":30,"?":31,"@":32,"A":33,"B":34,"C":35,"D":36,"E":37,"F":38,"G":39,"H":40,"I":41,"J":42,"K":43,"L":44,"M":45,"N":46,"O":47,"P":48,"Q":49,"R":50,"S":51,"T":52,"U":53,"V":54,"W":55,"X":56,"Y":57,"Z":58,"[":59,"\\":60,"]":61,"^":62,"_":63,"`":64,"a":65,"b":66,"c":67,"d":68,"e":69,"f":70,"g":71,"h":72,"i":73,"j":74,"k":75,"l":76,"m":77,"n":78,"o":79,"p":80,"q":81,"r":82,"s":83,"t":84,"u":85,"v":86,"w":87,"x":88,"y":89,"z":90,"{":91,"|":92,"}":93,"~":94,"¡":95,"£":96,"©":97,"«":98,"°":99,"·":100,"»":101,"À":102,"Á":103,"Ã":104,"Ç":105,"È":106,"É":107,"Ê":108,"Ì":109,"Í":110,"Ò":111,"Ó":112,"Ô":113,"Õ":114,"Ö":115,"×":116,"Ù":117,"Ú":118,"à":119,"á":120,"â":121,"ã":122,"ç":123,"è":124,"é":125,"ê":126,"ë":127,"ì":128,"í":129,"î":130,"ï":131,"ñ":132,"ò":133,"ó":134,"ô":135,"õ":136,"ö":137,"ø":138,"ù":139,"ú":140,"û":141,"ü":142,"ā":143,"ď":144,"ē":145,"ė":146,"Ę":147,"ę":148,"ı":149,"ķ":150,"Ń":151,"ń":152,"ŋ":153,"ō":154,"ş":155,"ū":156,"ų":157,"Ƙ":158,"ƙ":159,"ƴ":160,"Ǹ":161,"ǹ":162,"ș":163,"ɓ":164,"ɔ":165,"ɗ":166,"ɛ":167,"ɜ":168,"̀":169,"́":170,"̄":171,"̊":172,"̟":173,"̩":174,"̴":175,"̵":176,"̶":177,"ε":178,"҈":179,"،":180,"؛":181,"؟":182,"ء":183,"آ":184,"أ":185,"ؤ":186,"إ":187,"ئ":188,"ا":189,"ب":190,"ة":191,"ت":192,"ث":193,"ج":194,"ح":195,"خ":196,"د":197,"ذ":198,"ر":199,"ز":200,"س":201,"ش":202,"ص":203,"ض":204,"ط":205,"ظ":206,"ع":207,"غ":208,"ـ":209,"ف":210,"ق":211,"ك":212,"ل":213,"م":214,"ن":215,"ه":216,"و":217,"ى":218,"ي":219,"ً":220,"َ":221,"ُ":222,"ِ":223,"ّ":224,"٠":225,"٪":226,"ٰ":227,"پ":228,"ڤ":229,"ڨ":230,"ک":231,"گ":232,"ۃ":233,"ی":234,"ሀ":235,"ሁ":236,"ሂ":237,"ሃ":238,"ሄ":239,"ህ":240,"ሆ":241,"ለ":242,"ሉ":243,"ሊ":244,"ላ":245,"ሌ":246,"ል":247,"ሎ":248,"ሏ":249,"ሐ":250,"ሑ":251,"ሒ":252,"ሓ":253,"ሔ":254,"ሕ":255,"ሗ":256,"መ":257,"ሙ":258,"ሚ":259,"ማ":260,"ሜ":261,"ም":262,"ሞ":263,"ሟ":264,"ሠ":265,"ሡ":266,"ሢ":267,"ሣ":268,"ሥ":269,"ሦ":270,"ረ":271,"ሩ":272,"ሪ":273,"ራ":274,"ሬ":275,"ር":276,"ሮ":277,"ሯ":278,"ሰ":279,"ሱ":280,"ሲ":281,"ሳ":282,"ሴ":283,"ስ":284,"ሶ":285,"ሷ":286,"ሸ":287,"ሹ":288,"ሺ":289,"ሻ":290,"ሼ":291,"ሽ":292,"ሾ":293,"ሿ":294,"ቀ":295,"ቁ":296,"ቂ":297,"ቃ":298,"ቄ":299,"ቅ":300,"ቆ":301,"ቋ":302,"ቐ":303,"በ":304,"ቡ":305,"ቢ":306,"ባ":307,"ቤ":308,"ብ":309,"ቦ":310,"ቧ":311,"ቨ":312,"ቪ":313,"ቫ":314,"ቬ":315,"ቭ":316,"ተ":317,"ቱ":318,"ቲ":319,"ታ":320,"ቴ":321,"ት":322,"ቶ":323,"ቷ":324,"ቸ":325,"ቹ":326,"ቺ":327,"ቻ":328,"ቼ":329,"ች":330,"ቾ":331,"ቿ":332,"ኀ":333,"ኃ":334,"ኅ":335,"ኋ":336,"ነ":337,"ኑ":338,"ኒ":339,"ና":340,"ኔ":341,"ን":342,"ኖ":343,"ኗ":344,"ኘ":345,"ኙ":346,"ኚ":347,"ኛ":348,"ኜ":349,"ኝ":350,"ኞ":351,"አ":352,"ኡ":353,"ኢ":354,"ኣ":355,"ኤ":356,"እ":357,"ኦ":358,"ኧ":359,"ከ":360,"ኩ":361,"ኪ":362,"ካ":363,"ኬ":364,"ክ":365,"ኮ":366,"ኳ":367,"ኸ":368,"ኹ":369,"ኻ":370,"ኼ":371,"ኽ":372,"ኾ":373,"ወ":374,"ዉ":375,"ዊ":376,"ዋ":377,"ዌ":378,"ው":379,"ዎ":380,"ዐ":381,"ዑ":382,"ዒ":383,"ዓ":384,"ዔ":385,"ዕ":386,"ዖ":387,"ዘ":388,"ዙ":389,"ዚ":390,"ዛ":391,"ዜ":392,"ዝ":393,"ዞ":394,"ዟ":395,"ዠ":396,"ዢ":397,"ዣ":398,"ዤ":399,"ዥ":400,"ዦ":401,"የ":402,"ዩ":403,"ዪ":404,"ያ":405,"ዬ":406,"ይ":407,"ዮ":408,"ደ":409,"ዱ":410,"ዲ":411,"ዳ":412,"ዴ":413,"ድ":414,"ዶ":415,"ዷ":416,"ዽ":417,"ጀ":418,"ጁ":419,"ጂ":420,"ጃ":421,"ጄ":422,"ጅ":423,"ጆ":424,"ጇ":425,"ገ":426,"ጉ":427,"ጊ":428,"ጋ":429,"ጌ":430,"ግ":431,"ጎ":432,"ጏ":433,"ጐ":434,"ጓ":435,"ጠ":436,"ጡ":437,"ጢ":438,"ጣ":439,"ጤ":440,"ጥ":441,"ጦ":442,"ጧ":443,"ጨ":444,"ጩ":445,"ጪ":446,"ጫ":447,"ጬ":448,"ጭ":449,"ጮ":450,"ጲ":451,"ጳ":452,"ጴ":453,"ጵ":454,"ጸ":455,"ጹ":456,"ጺ":457,"ጻ":458,"ጼ":459,"ጽ":460,"ጾ":461,"ጿ":462,"ፀ":463,"ፁ":464,"ፂ":465,"ፃ":466,"ፄ":467,"ፅ":468,"ፆ":469,"ፈ":470,"ፉ":471,"ፊ":472,"ፋ":473,"ፌ":474,"ፍ":475,"ፎ":476,"ፏ":477,"ፐ":478,"ፑ":479,"ፒ":480,"ፓ":481,"ፔ":482,"ፕ":483,"ፖ":484,"፡":485,"።":486,"፣":487,"፤":488,"፥":489,"፦":490,"፧":491,"፩":492,"፪":493,"፫":494,"፬":495,"፮":496,"፯":497,"፲":498,"፳":499,"Ḿ":500,"ḿ":501,"ṅ":502,"Ṣ":503,"ṣ":504,"Ẹ":505,"ẹ":506,"Ị":507,"ị":508,"Ọ":509,"ọ":510,"Ụ":511,"ụ":512,"​":513,"‍":514,"‎":515,"–":516,"—":517,"‘":518,"’":519,"“":520,"”":521,"†":522,"•":523,"‹":524,"›":525,"⁄":526,"⁣":527,"₦":528,"€":529,"⃣":530,"→":531,"⏩":532,"⏰":533,"⏳":534,"─":535,"━":536,"┃":537,"┏":538,"┓":539,"┗":540,"┛":541,"═":542,"▁":543,"░":544,"□":545,"▪":546,"▶":547,"►":548,"☀":549,"☆":550,"☎":551,"☕":552,"☝":553,"☠":554,"☹":555,"☺":556,"☻":557,"♀":558,"♂":559,"♡":560,"♥":561,"♦":562,"♪":563,"♫":564,"♬":565,"♿":566,"⚖":567,"⚠":568,"⚡":569,"⚪":570,"⚫":571,"⚽":572,"⛈":573,"⛪":574,"✅":575,"✈":576,"✊":577,"✋":578,"✌":579,"✍":580,"✓":581,"✔":582,"✖":583,"✝":584,"✞":585,"✧":586,"✨":587,"❄":588,"❌":589,"❓":590,"❔":591,"❗":592,"❣":593,"❤":594,"➕":595,"➖":596,"➜":597,"➡":598,"⠀":599,"⭐":600,"⭕":601,"・":602,"人":603,"️":604,"﻿":605,"🇦":606,"🇧":607,"🇨":608,"🇩":609,"🇪":610,"🇫":611,"🇬":612,"🇭":613,"🇮":614,"🇯":615,"🇰":616,"🇱":617,"🇲":618,"🇳":619,"🇴":620,"🇵":621,"🇷":622,"🇸":623,"🇹":624,"🇺":625,"🇼":626,"🇾":627,"🇿":628,"🌈":629,"🌋":630,"🌍":631,"🌎":632,"🌏":633,"🌙":634,"🌚":635,"🌝":636,"🌞":637,"🌟":638,"🌤":639,"🌧":640,"🌱":641,"🌲":642,"🌴":643,"🌶":644,"🌷":645,"🌸":646,"🌹":647,"🌺":648,"🌻":649,"🌽":650,"🌾":651,"🌿":652,"🍀":653,"🍁":654,"🍂":655,"🍃":656,"🍅":657,"🍆":658,"🍉":659,"🍊":660,"🍌":661,"🍑":662,"🍓":663,"🍖":664,"🍗":665,"🍷":666,"🍺":667,"🍻":668,"🍾":669,"🎁":670,"🎂":671,"🎃":672,"🎄":673,"🎈":674,"🎉":675,"🎊":676,"🎓":677,"🎙":678,"🎤":679,"🎥":680,"🎧":681,"🎬":682,"🎯":683,"🎵":684,"🎶":685,"🎷":686,"🎸":687,"🎹":688,"🎺":689,"🎻":690,"🎼":691,"🏀":692,"🏃":693,"🏄":694,"🏆":695,"🏇":696,"🏊":697,"🏌":698,"🏠":699,"🏡":700,"🏳":701,"🏹":702,"🏻":703,"🏼":704,"🏽":705,"🏾":706,"🏿":707,"🐂":708,"🐅":709,"🐆":710,"🐇":711,"🐈":712,"🐊":713,"🐍":714,"🐎":715,"🐐":716,"🐒":717,"🐕":718,"🐟":719,"🐦":720,"🐰":721,"🐱":722,"🐴":723,"🐵":724,"🐸":725,"🐺":726,"🐼":727,"👀":728,"👁":729,"👂":730,"👅":731,"👆":732,"👇":733,"👈":734,"👉":735,"👊":736,"👋":737,"👌":738,"👍":739,"👎":740,"👏":741,"👐":742,"👑":743,"👖":744,"👦":745,"👧":746,"👨":747,"👩":748,"👮":749,"👯":750,"👰":751,"👳":752,"👸":753,"👺":754,"👿":755,"💀":756,"💁":757,"💃":758,"💅":759,"💆":760,"💉":761,"💋":762,"💍":763,"💎":764,"💏":765,"💐":766,"💓":767,"💔":768,"💕":769,"💖":770,"💗":771,"💘":772,"💙":773,"💚":774,"💛":775,"💜":776,"💝":777,"💞":778,"💟":779,"💡":780,"💣":781,"💤":782,"💥":783,"💦":784,"💧":785,"💨":786,"💩":787,"💪":788,"💫":789,"💭":790,"💯":791,"💰":792,"💴":793,"💵":794,"💶":795,"💷":796,"💸":797,"💿":798,"📌":799,"📍":800,"📖":801,"📚":802,"📝":803,"📞":804,"📢":805,"📣":806,"📦":807,"📩":808,"📷":809,"📸":810,"📹":811,"📺":812,"📻":813,"📽":814,"📿":815,"🔉":816,"🔊":817,"🔐":818,"🔔":819,"🔗":820,"🔛":821,"🔝":822,"🔥":823,"🔪":824,"🔫":825,"🔴":826,"🔵":827,"🕊":828,"🕋":829,"🕌":830,"🕯":831,"🕵":832,"🕺":833,"🖊":834,"🖐":835,"🖕":836,"🖤":837,"🗝":838,"🗡":839,"🗣":840,"😀":841,"😁":842,"😂":843,"😃":844,"😄":845,"😅":846,"😆":847,"😇":848,"😈":849,"😉":850,"😊":851,"😋":852,"😌":853,"😍":854,"😎":855,"😏":856,"😐":857,"😑":858,"😒":859,"😓":860,"😔":861,"😕":862,"😖":863,"😗":864,"😘":865,"😙":866,"😚":867,"😛":868,"😜":869,"😝":870,"😞":871,"😟":872,"😠":873,"😡":874,"😢":875,"😣":876,"😤":877,"😥":878,"😦":879,"😧":880,"😨":881,"😩":882,"😪":883,"😫":884,"😬":885,"😭":886,"😮":887,"😯":888,"😰":889,"😱":890,"😲":891,"😳":892,"😴":893,"😵":894,"😶":895,"😷":896,"😸":897,"😹":898,"😺":899,"😻":900,"😼":901,"😾":902,"😿":903,"🙁":904,"🙂":905,"🙃":906,"🙄":907,"🙅":908,"🙆":909,"🙇":910,"🙈":911,"🙉":912,"🙊":913,"🙋":914,"🙌":915,"🙎":916,"🙏":917,"🚀":918,"🚗":919,"🚚":920,"🚨":921,"🚩":922,"🚬":923,"🚮":924,"🚯":925,"🚰":926,"🚴":927,"🚶":928,"🛌":929,"🛑":930,"🛩":931,"🛫":932,"🤌":933,"🤍":934,"🤎":935,"🤏":936,"🤐":937,"🤑":938,"🤒":939,"🤓":940,"🤔":941,"🤕":942,"🤗":943,"🤘":944,"🤙":945,"🤚":946,"🤛":947,"🤝":948,"🤞":949,"🤟":950,"🤠":951,"🤡":952,"🤢":953,"🤣":954,"🤤":955,"🤥":956,"🤦":957,"🤧":958,"🤨":959,"🤩":960,"🤪":961,"🤫":962,"🤬":963,"🤭":964,"🤮":965,"🤯":966,"🤲":967,"🤳":968,"🤴":969,"🤷":970,"🤸":971,"🥀":972,"🥁":973,"🥂":974,"🥇":975,"🥛":976,"🥰":977,"🥱":978,"🥲":979,"🥳":980,"🥴":981,"🥵":982,"🥶":983,"🥹":984,"🥺":985,"🦁":986,"🦅":987,"🦍":988,"🦩":989,"🦯":990,"🧐":991,"🧑":992,"🧔":993,"🧕":994,"🧠":995,"🧡":996,"🫂":997,"🫡":998,"🫣":999,"🫶":1000,"er":1001,"an":1002,"▁n":1003,"us":1004,"▁m":1005,"▁a":1006,"user":1007,"@user":1008,"▁@user":1009,"▁k":1010,"▁d":1011,"▁t":1012,"▁s":1013,"in":1014,"▁b":1015,"▁w":1016,"ar":1017,"▁o":1018,"▁y":1019,"▁i":1020,"▁g":1021,"▁h":1022,"▁l":1023,"un":1024,"▁f":1025,"or":1026,"▁e":1027,"as":1028,"am":1029,"▁c":1030,"..":1031,"on":1032,"▁p":1033,"at":1034,"en":1035,"ak":1036,"\"\"":1037,"ال":1038,"al":1039,"▁na":1040,"wa":1041,"▁A":1042,"ba":1043,"▁#":1044,"ah":1045,"▁r":1046,"▁de":1047,"ai":1048,"ur":1049,"ay":1050,"hi":1051,"▁ال":1052,"ad":1053,"he":1054,"ll":1055,"ik":1056,"ir":1057,"um":1058,"es":1059,"▁ya":1060,"om":1061,"it":1062,"▁ni":1063,"▁j":1064,"▁የ":1065,"uk":1066,"▁አ":1067,"▁da":1068,"ya":1069,"co":1070,"tt":1071,"gb":1072,"▁an":1073,"is":1074,"▁N":1075,"ọ́":1076,"▁እ":1077,"😂😂":1078,"ut":1079,"▁M":1080,"le":1081,"ab":1082,"/t":1083,"ttp":1084,":/":1085,"://t":1086,"▁http":1087,"://t.":1088,"://t.co":1089,"://t.co/":1090,"\"\"\"\"":1091,"ye":1092,"▁https":1093,"da":1094,"ẹ̀":1095,"▁https://t.co/":1096,"os":1097,"▁O":1098,"▁ọ":1099,"ou":1100,"▁dey":1101,"ing":1102,"▁à":1103,"oo":1104,"▁K":1105,"ẹ́":1106,"▁I":1107,"▁ba":1108,"▁م":1109,"▁و":1110,"...":1111,"ti":1112,"em":1113,"ha":1114,"▁no":1115,"▁me":1116,"llah":1117,"ia":1118,"we":1119,"▁z":1120,"▁በ":1121,"im":1122,"▁u":1123,"et":1124,"▁ka":1125,"ana":1126,"▁in":1127,"re":1128,"ara":1129,"▁on":1130,"di":1131,"ga":1132,"▁to":1133,"ọ̀":1134,"▁wa":1135,"▁the":1136,"ma":1137,"▁ma":1138,"▁S":1139,"ce":1140,"▁B":1141,"▁ì":1142,"▁se":1143,"ch":1144,"ke":1145,"la":1146,"▁ku":1147,"▁mu":1148,"ka":1149,"▁ነ":1150,"qu":1151,"▁v":1152,"▁E":1153,"▁T":1154,"ta":1155,"▁be":1156,"yi":1157,"▁ní":1158,"▁ab":1159,"uba":1160,"ho":1161,"ra":1162,"??":1163,"ere":1164,"▁we":1165,"▁D":1166,"▁wan":1167,"▁go":1168,"ri":1169,"▁am":1170,"de":1171,"▁መ":1172,"aa":1173,"ig":1174,"▁Allah":1175,"▁ب":1176,"aka":1177,"una":1178,"▁you":1179,"ún":1180,"▁ne":1181,"▁R":1182,"wu":1183,"▁ل":1184,"li":1185,"oruba":1186,"do":1187,"▁ti":1188,"▁gb":1189,"ro":1190,"bi":1191,"▁for":1192,"▁ko":1193,"hh":1194,"wo":1195,"zi":1196,"▁ṣ":1197,"go":1198,"▁ò":1199,"▁ف":1200,"za":1201,"▁is":1202,"▁gi":1203,"te":1204,"ama":1205,"ake":1206,"▁th":1207,"▁C":1208,"wan":1209,"ji":1210,"ve":1211,"▁W":1212,"▁ع":1213,"▁H":1214,"se":1215,"uma":1216,"▁qu":1217,"ari":1218,"▁di":1219,"ata":1220,"▁Y":1221,"ão":1222,"ان":1223,"▁ń":1224,"▁ta":1225,"▁ẹ":1226,"▁tí":1227,"▁do":1228,"▁ت":1229,"▁እን":1230,"be":1231,"▁G":1232,"▁as":1233,"all":1234,"▁al":1235,"na":1236,"▁ከ":1237,"▁ይ":1238,"▁U":1239,"ci":1240,"gbo":1241,"▁fi":1242,"ọn":1243,"▁don":1244,"▁so":1245,"🤣🤣":1246,"ike":1247,"ki":1248,"▁ነው":1249,"▁ي":1250,"ge":1251,"to":1252,"▁lo":1253,"asa":1254,"▁ለ":1255,"لا":1256,"\"\"\"\"\"\"\"\"":1257,"▁ha":1258,"▁com":1259,"▁ak":1260,"▁3":1261,"his":1262,"▁and":1263,"▁ga":1264,"ed":1265,"Yoruba":1266,"▁of":1267,"!!":1268,"lo":1269,"ani":1270,"▁my":1271,"▁su":1272,"▁mo":1273,"sa":1274,"ko":1275,"▁kan":1276,"▁ch":1277,"ni":1278,"▁ó":1279,"fi":1280,"▁'":1281,"▁this":1282,"ية":1283,"so":1284,"▁re":1285,"ter":1286,"àn":1287,"lu":1288,"nan":1289,"▁mi":1290,"po":1291,"bo":1292,"▁ك":1293,"je":1294,"▁es":1295,"نا":1296,"yo":1297,"▁wo":1298,"▁😂😂":1299,"▁L":1300,"▁ki":1301,"▁que":1302,"ver":1303,"را":1304,"▁like":1305,"▁ያ":1306,"▁im":1307,"▁ተ":1308,"▁ا":1309,"ati":1310,"▁um":1311,"gu":1312,"ada":1313,"bu":1314,"ine":1315,"▁la":1316,"▁P":1317,"▁ṣe":1318,"ee":1319,"gi":1320,"▁bu":1321,"ze":1322,"▁Ọ":1323,"▁sh":1324,"ow":1325,"du":1326,"▁الم":1327,"ii":1328,"▁@user:":1329,"mo":1330,"ina":1331,"▁sa":1332,"pa":1333,"th":1334,"▁en":1335,"😭😭":1336,"ja":1337,"▁ወ":1338,"▁bi":1339,"ها":1340,"ent":1341,"ayi":1342,"ira":1343,"▁#Yoruba":1344,"▁RT":1345,"▁ብ":1346,"▁bá":1347,"rí":1348,"are":1349,"ọ́n":1350,"fe":1351,"▁pe":1352,"ين":1353,"amu":1354,"▁1":1355,"▁shi":1356,"▁ስ":1357,"pe":1358,"▁allah":1359,"si":1360,"ane":1361,"▁lá":1362,"wọn":1363,"▁he":1364,"ali":1365,"ار":1366,"ck":1367,"▁è":1368,"▁😂":1369,"gh":1370,"▁J":1371,"▁yo":1372,"▁li":1373,"ul":1374,"rin":1375,"asu":1376,"iri":1377,"mọ":1378,"ne":1379,"pp":1380,"▁si":1381,"▁é":1382,"▁le":1383,"uri":1384,"▁kí":1385,"لي":1386,"ala":1387,"▁say":1388,"▁ም":1389,"ير":1390,"▁2":1391,"▁ọ̀":1392,"▁sí":1393,"▁wh":1394,"▁yan":1395,"▁fa":1396,"▁sai":1397,"aya":1398,"tu":1399,"ika":1400,"uru":1401,"▁ló":1402,"▁wey":1403,"ùn":1404,"ات":1405,"▁ن":1406,"▁F":1407,"ìí":1408,"uka":1409,"chi":1410,"and":1411,"▁የሚ":1412,"▁من":1413,"me":1414,"eria":1415,"▁us":1416,"▁Ẹ":1417,"هه":1418,"▁kwa":1419,"lé":1420,"ìn":1421,"jo":1422,"one":1423,"ub":1424,"▁una":1425,"▁ማ":1426,"▁onye":1427,"▁À":1428,"▁ሰ":1429,"lẹ̀":1430,"▁ad":1431,"mi":1432,"▁ح":1433,"ers":1434,"▁te":1435,"ku":1436,"ly":1437,"....":1438,"zo":1439,"ust":1440,"▁st":1441,"▁it":1442,"fa":1443,"mu":1444,"aki":1445,"bá":1446,"▁bo":1447,"دي":1448,"ura":1449,"▁kw":1450,"kan":1451,"▁bí":1452,"▁àwọn":1453,"▁wannan":1454,"▁في":1455,"jú":1456,"▁ar":1457,"▁un":1458,"__":1459,"▁man":1460,"ure":1461,"eri":1462,"▁kar":1463,"▁pa":1464,"ate":1465,"▁n'":1466,"▁#I":1467,"▁gu":1468,"day":1469,"▁não":1470,"▁con":1471,"ire":1472,"▁that":1473,"ነት":1474,"ca":1475,"رب":1476,"▁ho":1477,"▁dem":1478,"ess":1479,"▁(":1480,"▁أ":1481,"dan":1482,"uwa":1483,"ry":1484,"iki":1485,"▁má":1486,"ቸው":1487,"▁tó":1488,"án":1489,"▁mai":1490,"ون":1491,"yin":1492,"▁kuma":1493,"له":1494,"▁fún":1495,"▁ẹ̀":1496,"▁mana":1497,"lh":1498,"iko":1499,"ore":1500,"▁make":1501,"▁እና":1502,"yan":1503,"▁za":1504,"vi":1505,"▁ag":1506,"▁or":1507,"ash":1508,"▁-":1509,"▁ọmọ":1510,"▁ts":1511,"▁wit":1512,"▁ra":1513,"▁Ì":1514,"▁On":1515,"▁wọ́n":1516,"ban":1517,"ري":1518,"▁ban":1519,"▁at":1520,"▁mat":1521,"ame":1522,"ome":1523,"▁ana":1524,"ct":1525,"áà":1526,"▁ه":1527,"▁አይ":1528,"ukwu":1529,"▁your":1530,"▁Ch":1531,"▁ndi":1532,"▁ግ":1533,"gun":1534,"ín":1535,"▁ah":1536,"ade":1537,"▁mut":1538,"ini":1539,"▁see":1540,"abi":1541,"ላይ":1542,"wi":1543,"end":1544,"ld":1545,"adi":1546,"wai":1547,"00":1548,"▁co":1549,"▁ش":1550,"▁س":1551,"su":1552,"▁dai":1553,"▁oh":1554,"▁àti":1555,"▁sun":1556,"▁wi":1557,"war":1558,"ashi":1559,"lú":1560,"ችን":1561,"▁ት":1562,"era":1563,"oro":1564,"▁if":1565,"eg":1566,"▁she":1567,"ug":1568,"ገር":1569,"▁dan":1570,"هم":1571,"????":1572,"▁han":1573,"weet":1574,"▁ደ":1575,"▁ق":1576,"▁وال":1577,"hhhh":1578,"gbà":1579,"st":1580,"zu":1581,"▁gbo":1582,"▁nke":1583,"▁mun":1584,"▁yi":1585,"▁af":1586,"▁kò":1587,"▁one":1588,"ran":1589,"▁bab":1590,"ለው":1591,"▁po":1592,"▁aka":1593,"ما":1594,"▁kam":1595,"ako":1596,"▁á":1597,"va":1598,"▁with":1599,"▁አን":1600,"▁est":1601,"▁ok":1602,"▁vi":1603,"▁nd":1604,"▁nan":1605,"▁.":1606,"mm":1607,"ona":1608,"ikin":1609,"▁ما":1610,"yar":1611,"▁mm":1612,"ado":1613,"يا":1614,"uta":1615,"ول":1616,"ose":1617,"bí":1618,"▁tal":1619,"▁fit":1620,"😂😂😂😂":1621,"▁ooo":1622,"▁ል":1623,"▁just":1624,"▁tu":1625,"igeria":1626,"op":1627,"لى":1628,"▁all":1629,"▁fun":1630,"est":1631,"jọ́":1632,"▁د":1633,"▁Am":1634,"▁har":1635,"aha":1636,"ora":1637,"ass":1638,"▁wá":1639,"rọ̀":1640,"▁fo":1641,"▁ji":1642,"▁እንደ":1643,"che":1644,"▁ው":1645,"▁get":1646,"ase":1647,"▁gba":1648,"ኢት":1649,"yoruba":1650,"▁'@user":1651,"ish":1652,"وا":1653,"▁ج":1654,"ind":1655,"ood":1656,"uko":1657,"▁but":1658,"▁are":1659,"yé":1660,"▁kas":1661,"▁ce":1662,"▁para":1663,"▁الح":1664,"▁em":1665,"▁kú":1666,"oma":1667,"▁chi":1668,"ju":1669,"▁pr":1670,"aku":1671,"won":1672,"▁jẹ́":1673,"▁#O":1674,"ኢትዮ":1675,"uke":1676,"▁ib":1677,"▁An":1678,"▁ara":1679,"▁dis":1680,"▁oo":1681,"usa":1682,"▁الع":1683,"▁🙏":1684,"▁any":1685,"▁ai":1686,"▁የተ":1687,"▁lọ":1688,"▁pl":1689,"مة":1690,"▁mas":1691,"▁gbogbo":1692,"▁í":1693,"▁خ":1694,"▁Ya":1695,"ation":1696,"▁ባ":1697,"wọ́":1698,"▁Onye":1699,"▁#A":1700,"▁anyi":1701,"اش":1702,"ló":1703,"▁nk":1704,"▁din":1705,"▁😂😂😂":1706,"gan":1707,"▁yìí":1708,"▁can":1709,"ite":1710,"lá":1711,"ita":1712,"▁ህ":1713,"iro":1714,"cha":1715,"▁ላይ":1716,"▁على":1717,"▁V":1718,"▁ጥ":1719,"▁wet":1720,"▁sef":1721,"unt":1722,"fin":1723,"▁máa":1724,"♂️":1725,"▁mus":1726,"▁now":1727,"iti":1728,"▁abeg":1729,"ùbá":1730,"gwu":1731,"▁ke":1732,"ito":1733,"que":1734,"ጵያ":1735,"▁\"\"\"\"\"\"\"\"":1736,"▁fr":1737,"allah":1738,"gbe":1739,"ven":1740,"▁ac":1741,"▁ሲ":1742,"orùbá":1743,"▁Ni":1744,"▁الله":1745,"▁In":1746,"▁not":1747,"ام":1748,"اب":1749,"▁kun":1750,"▁ihe":1751,"▁pro":1752,"ኢትዮጵያ":1753,"adu":1754,"▁ر":1755,"▁ri":1756,"ዎች":1757,"ist":1758,"enan":1759,"▁Na":1760,"wn":1761,"use":1762,"▁x":1763,"▁gị":1764,"igh":1765,"aye":1766,"▁won":1767,"▁zai":1768,"▁omo":1769,"ru":1770,"‍♂️":1771,"▁Mo":1772,"▁nwan":1773,"▁aga":1774,"gba":1775,"▁san":1776,"ime":1777,"▁ان":1778,"▁wat":1779,"art":1780,"▁come":1781,"▁cho":1782,"inda":1783,"uni":1784,"han":1785,"shi":1786,"asi":1787,"aro":1788,"▁#T":1789,"በት":1790,"▁...":1791,"▁yayi":1792,"▁rah":1793,"▁Ò":1794,"ima":1795,"▁wọn":1796,"ሆን":1797,"▁Ha":1798,"aski":1799,"😂😂😂":1800,"▁baba":1801,"▁dá":1802,"▁wai":1803,"ለም":1804,"▁sha":1805,"▁rí":1806,"▁:":1807,"▁je":1808,"‍️":1809,"▁duk":1810,"▁náà":1811,"▁kn":1812,"▁kai":1813,"▁rẹ̀":1814,"▁غ":1815,"ople":1816,"▁ik":1817,"ami":1818,"▁ina":1819,"▁guy":1820,"ست":1821,"▁pé":1822,"▁lọ́":1823,"ori":1824,"abo":1825,"ور":1826,"▁ny":1827,"▁men":1828,"▁#yoruba":1829,"ṣẹ́":1830,"▁wor":1831,"ast":1832,"▁wetin":1833,"ghi":1834,"▁o.":1835,"wó":1836,"▁Z":1837,"gbu":1838,"kọ":1839,"▁To":1840,"▁ድ":1841,"▁fe":1842,"▁ክ":1843,"▁🤣🤣":1844,"\\n":1845,"▁ምን":1846,"run":1847,"▁hi":1848,"▁people":1849,"▁ሁ":1850,"▁q":1851,"▁up":1852,"01":1853,"ong":1854,"▁gan":1855,"▁Da":1856,"▁ቀ":1857,"yàn":1858,"▁“":1859,"!!!":1860,"fo":1861,"fu":1862,"arin":1863,"askiya":1864,"ort":1865,"ችሁ":1866,"▁ye":1867,"▁nig":1868,"▁Ka":1869,"▁wani":1870,"▁ታ":1871,"▁pers":1872,"▁#E":1873,"AN":1874,"lọ́":1875,"በር":1876,"▁kenan":1877,"nú":1878,"▁لا":1879,"▁jo":1880,"▁مع":1881,"▁الت":1882,"▁them":1883,"ol":1884,"🔥🔥":1885,"▁láti":1886,"▁ap":1887,"wit":1888,"▁too":1889,"dún":1890,"▁by":1891,"ene":1892,"ale":1893,"▁person":1894,"▁por":1895,"▁ob":1896,"akan":1897,"ost":1898,"sh":1899,"▁mar":1900,"▁wà":1901,"cin":1902,"▁was":1903,"nu":1904,"▁y3":1905,"▁Ba":1906,"▁ex":1907,"▁لل":1908,"غرب":1909,"🙏🙏":1910,"ስት":1911,"▁bar":1912,"▁Ma":1913,"▁ire":1914,"▁Nigeria":1915,"▁kawai":1916,"bar":1917,"❤️":1918,"▁لي":1919,"▁#N":1920,"سي":1921,"▁mma":1922,"ውን":1923,"▁had":1924,"زا":1925,"▁È":1926,"▁ro":1927,"id":1928,"▁min":1929,"kin":1930,"no":1931,"▁nu":1932,"hari":1933,"ሆነ":1934,"▁የአ":1935,"▁che":1936,"كم":1937,"unda":1938,"▁day":1939,"amba":1940,"oni":1941,"amb":1942,"____":1943,"▁wí":1944,"دا":1945,"uro":1946,"▁l'":1947,"▁muna":1948,"▁even":1949,"oney":1950,"▁uk":1951,"▁tem":1952,"▁nti":1953,"▁bro":1954,"ook":1955,"▁ገ":1956,"▁وا":1957,"يل":1958,"ል።":1959,"▁Al":1960,"ight":1961,"▁nt":1962,"kú":1963,"▁yake":1964,"▁gir":1965,"atan":1966,"▁,":1967,"isa":1968,"pu":1969,"der":1970,"man":1971,"ንግ":1972,"▁mak":1973,"▁god":1974,"▁ike":1975,"ss":1976,"ente":1977,"▁know":1978,"▁nwa":1979,"kwa":1980,"mọ́":1981,"vu":1982,"▁Ọ̀":1983,"hu":1984,"àá":1985,"▁7":1986,"ção":1987,"هههه":1988,"▁ụ":1989,"aman":1990,"dè":1991,"▁ص":1992,"▁eme":1993,"pé":1994,"▁tr":1995,"▁yak":1996,"ant":1997,"▁yasa":1998,"▁sì":1999,"الي":2000,"▁iya":2001,"▁🤣":2002,"dy":2003,"▁kya":2004,"▁out":2005,"▁አስ":2006,"ber":2007,"▁الب":2008,"▁አለ":2009,"ppy":2010,"▁kat":2011,"eni":2012,"yí":2013,"rú":2014,"▁wah":2015,"▁Wan":2016,"ena":2017,"▁እየ":2018,"▁bir":2019,"▁pi":2020,"▁money":2021,"rò":2022,"▁De":2023,"yu":2024,"▁9":2025,"▁ur":2026,"▁orí":2027,"▁gbé":2028,"▁haka":2029,"▁ግን":2030,"▁love":2031,"▁Chukwu":2032,"ff":2033,"▁how":2034,"▁ዘ":2035,"▁bụ":2036,"▁ሀ":2037,"▁ሳ":2038,"▁way":2039,"▁??":2040,"▁ነው።":2041,"▁🤔":2042,"▁bay":2043,"enye":2044,"ity":2045,"▁ub":2046,"▁الا":2047,"▁sho":2048,"▁again":2049,"▁yó":2050,"hir":2051,"aban":2052,"jì":2053,"alu":2054,"ሁን":2055,"kw":2056,"▁wlh":2057,"▁car":2058,"▁Q":2059,"▁را":2060,"▁her":2061,"▁الس":2062,"uto":2063,"▁will":2064,"كو":2065,"oooo":2066,"tion":2067,"▁take":2068,"▁የም":2069,"▁إ":2070,"▁os":2071,"▁amma":2072,"witter":2073,"din":2074,"▁kó":2075,"▁ver":2076,"▁bl":2077,"ush":2078,"▁some":2079,"▁ou":2080,"▁ru":2081,"dai":2082,"oc":2083,"▁sin":2084,"▁Mu":2085,"▁ve":2086,"▁ጋ":2087,"kò":2088,"▁nso":2089,"gbá":2090,"▁from":2091,"▁cy":2092,"▁já":2093,"▁kh":2094,"aran":2095,"zie":2096,"اد":2097,"▁him":2098,"▁daya":2099,"▁ebe":2100,"tí":2101,"ደር":2102,"▁jẹ":2103,"▁علا":2104,"beere":2105,"uku":2106,"▁mes":2107,"▁የመ":2108,"ero":2109,"wé":2110,"▁sti":2111,"isi":2112,"rè":2113,"▁ካ":2114,"amo":2115,"bà":2116,"▁ever":2117,"aaa":2118,"▁fẹ́":2119,"▁eh":2120,"iss":2121,"dé":2122,"ṣe":2123,"AR":2124,"gún":2125,"▁sọ":2126,"▁ser":2127,"▁who":2128,"▁dị":2129,"ach":2130,"ní":2131,"ema":2132,"el":2133,"▁ja":2134,"▁thing":2135,"ንድ":2136,"▁ezi":2137,"▁ẹni":2138,"là":2139,"▁ama":2140,"ther":2141,"ord":2142,"▁when":2143,"kh":2144,"imi":2145,"▁kuwa":2146,"▁masu":2147,"▁biko":2148,"▁بال":2149,"kwu":2150,"jọ":2151,"▁umu":2152,"▁what":2153,"▁nw":2154,"▁ìy":2155,"pi":2156,"▁ake":2157,"ለት":2158,"▁ቢ":2159,"▁😁":2160,"▁😭😭":2161,"ደረ":2162,"▁ጠ":2163,"▁lè":2164,"way":2165,"🙄🙄":2166,"orn":2167,"ዚህ":2168,"▁oma":2169,"▁Ab":2170,"▁Yorùbá":2171,"▁still":2172,"▁fin":2173,"jà":2174,"▁فال":2175,"▁Dan":2176,"'a":2177,"::":2178,"uu":2179,"بي":2180,"▁kin":2181,"▁idan":2182,"رو":2183,"▁awon":2184,"uo":2185,"ማራ":2186,"▁kay":2187,"▁time":2188,"▁5":2189,"▁chop":2190,"ans":2191,"▁mú":2192,"فا":2193,"inu":2194,"▁الج":2195,"gar":2196,"يد":2197,"▁ati":2198,"ẹ́ẹ̀":2199,"il":2200,"ww":2201,"▁só":2202,"▁nigeria":2203,"▁ሰው":2204,"▁está":2205,"▁mal":2206,"llow":2207,"per":2208,"ني":2209,"▁ohun":2210,"ذا":2211,"▁#R":2212,"▁wípé":2213,"ts":2214,"▁mọ́":2215,"▁الأ":2216,"ahah":2217,"▁4":2218,"▁talk":2219,"ọ̀n":2220,"▁gw":2221,"dun":2222,"orí":2223,"▁يا":2224,"▁ወደ":2225,"fan":2226,"عب":2227,"▁yin":2228,"dá":2229,"▁mais":2230,"▁maka":2231,"▁nínú":2232,"▁ስለ":2233,"kun":2234,"ise":2235,"▁ọjọ́":2236,"isha":2237,"▁mmadu":2238,"▁علي":2239,"▁እንዲ":2240,"▁yar":2241,"▁ay":2242,"ዝብ":2243,"▁ለማ":2244,"لم":2245,"▁gh":2246,"ṣà":2247,"▁ilé":2248,"▁ị":2249,"▁sm":2250,"▁በአ":2251,"▁abo":2252,"تي":2253,"▁ለመ":2254,"لك":2255,"▁bak":2256,"▁irin":2257,"▁عن":2258,"▁http://t.co/":2259,"▁كي":2260,"▁every":2261,"▁wu":2262,"▁per":2263,"▁kì":2264,"▁#S":2265,"fun":2266,"▁አል":2267,"▁daga":2268,"ally":2269,"ando":2270,"wanda":2271,"▁الش":2272,"▁እያ":2273,"ano":2274,"▁ngo":2275,"፡፡":2276,"▁aba":2277,"▁Ko":2278,"▁use":2279,"▁m3":2280,"▁المغرب":2281,"kè":2282,"ato":2283,"عد":2284,"▁eu":2285,"▁egwu":2286,"▁they":2287,"ek":2288,"zz":2289,"▁ها":2290,"▁ife":2291,"▁uma":2292,"iku":2293,"▁ojú":2294,"▁boy":2295,"hun":2296,"▁cikin":2297,"cho":2298,"▁kum":2299,"▁ነገር":2300,"▁como":2301,"mar":2302,"ink":2303,"wá":2304,"▁er":2305,"dade":2306,"ምን":2307,"aaaa":2308,"▁3la":2309,"▁why":2310,"▁yóò":2311,"▁/":2312,"▁ut":2313,"▁mọ̀":2314,"▁ط":2315,"▁sar":2316,"▁fu":2317,"ais":2318,"02":2319,"pr":2320,"▁?":2321,"▁zan":2322,"▁በመ":2323,"▁lol":2324,"▁nas":2325,"▁cha":2326,"lease":2327,"▁du":2328,"▁girl":2329,"▁دي":2330,"▁ká":2331,"▁des":2332,"far":2333,"lẹ́":2334,"▁ala":2335,"▁br":2336,"▁ibi":2337,"▁give":2338,"ese":2339,"▁ጉ":2340,"ank":2341,"▁kasa":2342,"▁ኢትዮጵያ":2343,"ag":2344,"رة":2345,"▁????":2346,"▁#i":2347,"▁Igbo":2348,"▁ndị":2349,"LA":2350,"▁gaskiya":2351,"▁እስ":2352,"ble":2353,"▁ሚ":2354,"ህን":2355,"IN":2356,"▁ሊ":2357,"eme":2358,"wò":2359,"▁tun":2360,"▁ọdún":2361,"dù":2362,"▁ፍ":2363,"ለን":2364,"ትን":2365,"▁bur":2366,"▁ነበር":2367,"mọ̀":2368,"بالي":2369,"allahi":2370,"omo":2371,"▁Kí":2372,"nì":2373,"yìn":2374,"اء":2375,"ስጥ":2376,"ገባ":2377,"▁yín":2378,"▁good":2379,"▁ele":2380,"san":2381,"ud":2382,"دو":2383,"▁our":2384,"🇳🇬":2385,"▁الف":2386,"ràn":2387,"rà":2388,"▁ቤ":2389,"▁dé":2390,"lp":2391,"jẹ́":2392,"▁ca":2393,"uki":2394,"صح":2395,"▁ter":2396,"قي":2397,"▁ng":2398,"▁far":2399,"▁Qu":2400,"▁abi":2401,"لو":2402,"asha":2403,"▁na-":2404,"igo":2405,"yẹ":2406,"ons":2407,"▁kawo":2408,"▁isi":2409,"kó":2410,"▁par":2411,"▁abin":2412,"uniya":2413,"▁pes":2414,"enda":2415,"umi":2416,"▁dont":2417,"▁aj":2418,"les":2419,"zer":2420,"▁here":2421,"▁Ku":2422,"mí":2423,"rụ":2424,"ለሁ":2425,"▁#B":2426,"▁Ndi":2427,"woke":2428,"بة":2429,"تو":2430,"▁😭":2431,"▁muri":2432,"ny":2433,"▁gy":2434,"▁كل":2435,"▁😂😂😂😂":2436,"▁Nwan":2437,"▁chan":2438,"ocê":2439,"ft":2440,"▁ig":2441,"▁only":2442,"hhh":2443,"har":2444,"▁pre":2445,"▁masa":2446,".....":2447,"rọ":2448,"sí":2449,"▁suka":2450,"utu":2451,"▁dia":2452,"▁shine":2453,"▁mad":2454,"▁bai":2455,"▁wanda":2456,"▁alá":2457,"▁have":2458,"ineke":2459,"▁pass":2460,"vo":2461,"▁Ó":2462,"ool":2463,"▁mw":2464,"▁sab":2465,"▁ci":2466,"▁ìlú":2467,"ashin":2468,"kọ́":2469,"▁yɛ":2470,"ambi":2471,"▁የማ":2472,"MA":2473,"رف":2474,"adan":2475,"cy":2476,"▁o!":2477,"▁እንዴ":2478,"ቶች":2479,"▁uban":2480,"▁ብቻ":2481,"▁የሚያ":2482,"▁kara":2483,"▁yana":2484,"thday":2485,"▁nor":2486,"▁oló":2487,"▁res":2488,"▁መል":2489,"od":2490,"sì":2491,"▁ና":2492,"▁nwanne":2493,"OR":2494,"▁ir":2495,"und":2496,"aso":2497,"▁Se":2498,"thing":2499,"▁life":2500,"▁Wannan":2501,"lọ":2502,"▁mb":2503,"@user:":2504,"▁sika":2505,"▁please":2506,"▁#M":2507,"▁Não":2508,"علا":2509,"▁hak":2510,"▁Ẹ̀":2511,"▁አይደ":2512,"▁babu":2513,"▁igi":2514,"▁back":2515,"دة":2516,"▁abu":2517,"ats":2518,"▁مح":2519,"▁magan":2520,"▁unu":2521,"▁ጋር":2522,"ham":2523,"yal":2524,"شي":2525,"▁dama":2526,"▁t'":2527,"▁ju":2528,"▁ọba":2529,"▁obi":2530,"▁anyị":2531,"▁ሁሉ":2532,"اع":2533,"▁Ar":2534,"▁onu":2535,"▁okwu":2536,"▁follow":2537,"▁=":2538,"▁Ṣ":2539,"▁الد":2540,"▁gbà":2541,"🤣🤣🤣🤣":2542,"ግና":2543,"▁nn":2544,"▁እኔ":2545,"imo":2546,"lm":2547,"ém":2548,"▁الو":2549,"▁help":2550,"▁tell":2551,"▁ز":2552,"▁lẹ́":2553,"pọ̀":2554,"▁nta":2555,"▁ol":2556,"▁ego":2557,"▁ran":2558,"br":2559,"wà":2560,"▁ቅ":2561,"▁tún":2562,"▁sem":2563,"▁cor":2564,"▁gaba":2565,"▁its":2566,"nt":2567,"▁️":2568,"▁kọ́":2569,"▁bat":2570,"omin":2571,"▁kyau":2572,"ró":2573,"كون":2574,"▁Me":2575,"▁suke":2576,"ens":2577,"tà":2578,"مي":2579,"مو":2580,"ንም":2581,"ንተ":2582,"▁igbo":2583,"ree":2584,"▁ọ̀rọ̀":2585,"ikan":2586,"▁Kai":2587,"kà":2588,"▁mọ":2589,"▁Ak":2590,"▁Um":2591,"ishi":2592,"fiya":2593,"▁èè":2594,"car":2595,"▁tab":2596,"ድር":2597,"▁baki":2598,"▁lab":2599,"▁never":2600,"😍😍":2601,"▁kwan":2602,"oss":2603,"▁baz":2604,"nd":2605,"▁ኢ":2606,"▁wata":2607,"▁علابالي":2608,"سب":2609,"ــ":2610,"لة":2611,"▁là":2612,"edu":2613,"lọ́run":2614,"▁nne":2615,"▁mn":2616,"▁wal":2617,"uti":2618,"her":2619,"▁ولا":2620,"▁èdè":2621,"▁play":2622,"dí":2623,"fri":2624,"▁n’":2625,"▁ari":2626,"▁kọ":2627,"EN":2628,"jẹ":2629,"في":2630,"▁nem":2631,"▁dat":2632,"▁ass":2633,"jí":2634,"♀️":2635,"▁tà":2636,"▁son":2637,"▁sabi":2638,"ment":2639,"▁sal":2640,"▁#Tweet":2641,"▁wen":2642,"▁bẹ́ẹ̀":2643,"ence":2644,"▁kowa":2645,"▁#Ibeere":2646,"imu":2647,"▁Bu":2648,"▁እንዳ":2649,"tar":2650,"በረ":2651,"uran":2652,"▁‍️":2653,"▁kuri":2654,"▁look":2655,"▁As":2656,"dd":2657,"gr":2658,"▁iki":2659,"ould":2660,"▁yanzu":2661,"lf":2662,"🤔🤔":2663,"▁lma":2664,"▁الق":2665,"▁بن":2666,"من":2667,"usi":2668,"▁ayé":2669,"▁small":2670,"▁b3":2671,"▁ile":2672,"▁አብ":2673,"▁akan":2674,"▁ሆ":2675,"▁kub":2676,"▁there":2677,"▁dar":2678,"▁today":2679,"sẹ̀":2680,"ṣẹ":2681,"lle":2682,"▁ghir":2683,"asan":2684,"ght":2685,"▁kasar":2686,"قة":2687,"▁!":2688,"▁mé":2689,"▁አሁን":2690,"▁تح":2691,"ṣù":2692,"▁ɛ":2693,"▁tak":2694,"▁lé":2695,"ute":2696,"▁chukwu":2697,"😹😹":2698,"adda":2699,"gbé":2700,"▁year":2701,"ep":2702,"já":2703,"كي":2704,"▁aw":2705,"▁saa":2706,"كومة":2707,"▁ori":2708,"ሪያ":2709,"ተኛ":2710,"▁mí":2711,"▁kama":2712,"▁Ta":2713,"con":2714,"yè":2715,"▁፣":2716,"ard":2717,"amp":2718,"umu":2719,"اني":2720,"rùn":2721,"ርት":2722,"▁ọk":2723,"▁ውስጥ":2724,"rẹ":2725,"با":2726,"ርስ":2727,"tter":2728,"▁birthday":2729,"201":2730,"▁tweet":2731,"▁duniya":2732,"▁has":2733,"atu":2734,"▁kashe":2735,"▁twitter":2736,"aho":2737,"umva":2738,"▁ezigbo":2739,"ça":2740,"ላም":2741,"▁..":2742,"▁nna":2743,"▁mẹ́":2744,"▁ديال":2745,"▁|":2746,"▁owó":2747,"▁pè":2748,"ady":2749,"▁Kuma":2750,"▁fara":2751,"▁want":2752,"▁wahala":2753,"▁buhari":2754,"▁vex":2755,"▁banza":2756,"jin":2757,"▁oní":2758,"▁አንድ":2759,"ላል":2760,"▁yẹ":2761,"hom":2762,"▁ፈ":2763,"aim":2764,"▁lórí":2765,"▁work":2766,"▁Es":2767,"ason":2768,"abu":2769,"aboda":2770,"قت":2771,"▁fine":2772,"ያን":2773,"▁buy":2774,"port":2775,"▁ን":2776,"▁may":2777,"top":2778,"dú":2779,"jò":2780,"ዛሬ":2781,"▁call":2782,"In":2783,"ary":2784,"▁cont":2785,"▁agba":2786,"▁cyane":2787,"orning":2788,"rẹ́":2789,"‍♀️":2790,"▁Sai":2791,"▁abun":2792,"▁ያለው":2793,"gana":2794,"nà":2795,"pẹ́":2796,"gbó":2797,"ER":2798,"y3":2799,"▁6":2800,"▁dak":2801,"▁gani":2802,"▁مز":2803,"▁ih":2804,"▁iṣẹ́":2805,"▁anya":2806,"▁በተ":2807,"▁ወይ":2808,"▁o,":2809,"amos":2810,"▁rẹ":2811,"▁Eu":2812,"▁ያለ":2813,"▁ሳይ":2814,"BC":2815,"ful":2816,"lò":2817,"▁nwoke":2818,"ghị":2819,"ነው":2820,"▁ilẹ̀":2821,"▁musul":2822,"رج":2823,"▁big":2824,"▁ita":2825,"▁ek":2826,"rẹ̀":2827,"▁mata":2828,"▁wak":2829,"▁አመ":2830,"▁akwai":2831,"▁rahama":2832,"anu":2833,"▁Wa":2834,"▁ህዝብ":2835,"ራት":2836,"▁ጀ":2837,"▁sen":2838,"▁nos":2839,"▁mon":2840,"▁dú":2841,"ores":2842,"**":2843,"▁bas":2844,"qui":2845,"😀😀":2846,"▁nka":2847,"▁s3":2848,"▁bamu":2849,"atar":2850,"▁house":2851,"bẹ̀":2852,"ail":2853,"vel":2854,"▁happy":2855,"cer":2856,"ib":2857,"ሰብ":2858,"▁😅":2859,"▁Bí":2860,"▁መንግ":2861,"▁str":2862,"▁talaka":2863,"sha":2864,"ung":2865,"▁down":2866,"▁suna":2867,"'s":2868,"😁😁":2869,"▁bia":2870,"pá":2871,"نت":2872,"ዲስ":2873,"▁whi":2874,"▁#G":2875,"ult":2876,"hy":2877,"▁nwe":2878,"▁bane":2879,"▁አንተ":2880,"9a":2881,"ልል":2882,"ም።":2883,"ento":2884,"▁#W":2885,"\"\"\"\"\"\"\"\"\"\"\"\"\"\"\"\"":2886,"fore":2887,"rì":2888,"▁ሃ":2889,"▁ከተ":2890,"▁201":2891,"GB":2892,"كر":2893,"▁ዓ":2894,"▁هههه":2895,"▁basu":2896,"▁:)":2897,"ile":2898,"pin":2899,"▁😎":2900,"▁fal":2901,"▁well":2902,"مد":2903,"anga":2904,"▁Ina":2905,"gin":2906,"መስ":2907,"arn":2908,"▁oga":2909,"▁መስ":2910,"حة":2911,"ብር":2912,"▁kind":2913,"▁bah":2914,"▁il":2915,"▁his":2916,"▁Nne":2917,"▁isso":2918,"▁adi":2919,"gua":2920,"يش":2921,"▁ሌ":2922,"▁\"\"\"\"":2923,"▁tan":2924,"ukan":2925,"▁thank":2926,"ሆኑ":2927,"▁wallahi":2928,"▁mutane":2929,"ረት":2930,"▁ض":2931,"▁ahu":2932,"ous":2933,"tọ̀":2934,"ግራ":2935,"😂🤣":2936,"▁own":2937,"▁hhhhh":2938,"esus":2939,"yà":2940,"كل":2941,"▁🙄":2942,"▁kur":2943,"▁Nna":2944,"▁pesso":2945,"ጊዜ":2946,"rá":2947,"▁🇳🇬":2948,"▁comp":2949,"▁hank":2950,"▁bà":2951,"▁ogun":2952,"▁hal":2953,"▁እው":2954,"▁você":2955,"iiii":2956,"ction":2957,"يت":2958,"▁ndu":2959,"▁mutum":2960,"ambique":2961,"بر":2962,"▁8":2963,"▁#C":2964,"▁meu":2965,"▁ይሄ":2966,"▁kamar":2967,"ولة":2968,"▁É":2969,"▁de3":2970,"▁Nd":2971,"▁\"\"\"\"\"\"\"\"\"\"\"\"\"\"\"\"":2972,"▁🤣🤣🤣":2973,"▁ሙ":2974,"▁win":2975,"▁olu":2976,"ashe":2977,"ende":2978,"uth":2979,"▁umun":2980,"kon":2981,"😏😏":2982,"▁pẹ̀":2983,"gaba":2984,"▁Gaskiya":2985,"vice":2986,"▁carry":2987,"عة":2988,"▁ኣ":2989,"▁sc":2990,"▁jí":2991,"▁gozie":2992,"jye":2993,"wer":2994,"ቅር":2995,"▁mara":2996,"▁AL":2997,"ON":2998,"nn":2999,"وم":3000,"ዋል":3001,"▁nam":3002,"▁ach":3003,"▁kare":3004,"▁sana":3005,"▁lafiya":3006,"▁nwanyi":3007,"▁since":3008,"▁አይደለም":3009,"ving":3010,"ናል":3011,"▁eni":3012,"▁pra":3013,"▁before":3014,"▁think":3015,"tan":3016,"usu":3017,"▁الخ":3018,"iran":3019,"▁better":3020,"▁pain":3021,"xt":3022,"▁kad":3023,"▁baya":3024,"cause":3025,"kar":3026,"حد":3027,"سا":3028,"▁🤲":3029,"▁kom":3030,"▁Rah":3031,"èrè":3032,"▁iy":3033,"ارة":3034,"▁where":3035,"▁mats":3036,"wọ̀":3037,"▁mah":3038,"UN":3039,"cu":3040,"lù":3041,"▁\\n":3042,"▁kut":3043,"▁lai":3044,"▁الن":3045,"▁mul":3046,"وف":3047,"WA":3048,"▁mur":3049,"▁aa":3050,"▁bre":3051,"▁lik":3052,"amar":3053,"eta":3054,"▁èèyàn":3055,"wana":3056,"▁tur":3057,"alm":3058,"▁እንኳ":3059,"🤣🤣🤣":3060,"▁cl":3061,"▁nah":3062,"ikwa":3063,"ume":3064,"▁تع":3065,"ré":3066,"ስተ":3067,"▁omi":3068,"▁yorùbá":3069,"▁የት":3070,"▁because":3071,"▁new":3072,"▁happ":3073,"ناس":3074,"▁ent":3075,"▁Deus":3076,"BA":3077,"ky":3078,"رح":3079,"air":3080,"deo":3081,"▁Wai":3082,"▁domin":3083,"▁bad":3084,"▁#L":3085,"▁ìt":3086,"▁Àwọn":3087,"▁Amma":3088,"▁num":3089,"▁agb":3090,"▁dyal":3091,"lla":3092,"▁gbọ́":3093,"body":3094,"▁head":3095,"▁show":3096,"ds":3097,"اص":3098,"اف":3099,"▁gr":3100,"▁Ah":3101,"▁their":3102,"😭😭😭😭":3103,"▁mesmo":3104,"lik":3105,"رك":3106,"ụrụ":3107,"▁ame":3108,"bọ":3109,"for":3110,"sin":3111,"▁muk":3112,"▁bin":3113,"▁Ní":3114,"▁musu":3115,"dà":3116,"gt":3117,"ለህ":3118,"orun":3119,"▁jam":3120,"▁Mas":3121,"emu":3122,"▁muito":3123,"▁The":3124,"ES":3125,"dos":3126,"ele":3127,"hone":3128,"zan":3129,"▁morning":3130,"ayo":3131,"▁10":3132,"ghri":3133,"can":3134,"▁ዝ":3135,"▁wom":3136,"esu":3137,"▁Ki":3138,"▁BBC":3139,"???":3140,"▁gbe":3141,"▁هذا":3142,"HA":3143,"▁k'":3144,"▁lọ́wọ́":3145,"dò":3146,"ix":3147,"pata":3148,"▁ano":3149,"▁bíi":3150,"fite":3151,"ድረ":3152,"▁ray":3153,"▁kwenye":3154,"gos":3155,"jan":3156,"سن":3157,"ልን":3158,"ኦሮ":3159,"▁lu":3160,"omba":3161,"رات":3162,"▁Nwanne":3163,"DA":3164,"عم":3165,"▁Ai":3166,"▁No":3167,"▁amin":3168,"▁enter":3169,"يران":3170,"rans":3171,"▁Happy":3172,"▁ayi":3173,"▁otu":3174,"▁cin":3175,"▁Ike":3176,"▁inú":3177,"▁ባለ":3178,"▁ቆ":3179,"▁cr":3180,"ahi":3181,"adin":3182,"ings":3183,"cial":3184,"▁غا":3185,"ways":3186,"fẹ́":3187,"ushe":3188,"▁sou":3189,"▁#o":3190,"▁yau":3191,"▁የእ":3192,"▁እንጂ":3193,"▁ìyá":3194,"dì":3195,"▁samu":3196,"▁hand":3197,"▁fri":3198,"ayin":3199,"inga":3200,"▁much":3201,"▁بزا":3202,"▁oooo":3203,"▁#Nigeria":3204,"ew":3205,"اج":3206,"ገራ":3207,"ግር":3208,"ushi":3209,"▁tw":3210,"amn":3211,"▁abinda":3212,"ted":3213,"▁tàbí":3214,"abari":3215,"▁Ọlọ́run":3216,"▁ará":3217,"▁Buhari":3218,"ap":3219,"▁more":3220,"▁jin":3221,"gbẹ́":3222,"▁በማ":3223,"▁Toh":3224,"▁katika":3225,"LAH":3226,"kàn":3227,"يس":3228,"ርቲ":3229,"ቱን":3230,"▁So":3231,"▁kudin":3232,"▁need":3233,"▁film":3234,"▁supp":3235,"▁Ọmọ":3236,"▁202":3237,"▁Baba":3238,"pre":3239,"wọ":3240,"😡😡":3241,"▁hakan":3242,"▁Mai":3243,"▁uwa":3244,"▁kill":3245,"eeee":3246,"▁Ọba":3247,"ቸውን":3248,"jen":3249,"مع":3250,"LI":3251,"kì":3252,"▁wọ":3253,"▁fee":3254,"▁بلا":3255,"▁kano":3256,"gue":3257,"tì":3258,"ṣọ":3259,"▁ns":3260,"▁run":3261,"▁እኮ":3262,"▁zamu":3263,"▁هو":3264,"መን":3265,"▁።":3266,"▁Umu":3267,"verb":3268,"▁about":3269,"TA":3270,"fer":3271,"gwa":3272,"ላት":3273,"ongo":3274,"▁#P":3275,"ugaban":3276,"▁happen":3277,"torí":3278,"▁bata":3279,"▁vo":3280,"▁Yoruba":3281,"________":3282,"▁finish":3283,"xu":3284,"وو":3285,"▁ፓ":3286,"▁saboda":3287,"▁wana":3288,"ooo":3289,"giji":3290,"ጣም":3291,"▁🙌":3292,"▁mgbe":3293,"▁y'":3294,"▁let":3295,"▁Chi":3296,"قد":3297,"▁tin":3298,"▁lati":3299,"▁fir":3300,"esi":3301,"اا":3302,"▁hu":3303,"الة":3304,"▁የሰ":3305,"▁zasu":3306,"▁Est":3307,"▁كان":3308,"▁Chineke":3309,"تى":3310,"▁ሕ":3311,"▁last":3312,"▁If":3313,"bodo":3314,"▁sarki":3315,"bin":3316,"mụ":3317,"▁ጊዜ":3318,"▁nì":3319,"▁بزاف":3320,"19":3321,"wú":3322,"▁az":3323,"▁kor":3324,"▁dí":3325,"▁oku":3326,"umo":3327,"abe":3328,"ough":3329,"▁loka":3330,"hìn":3331,"pọ":3332,"yá":3333,"يب":3334,"ሔር":3335,"▁ዛሬ":3336,"▁وعلا":3337,"▁ብሎ":3338,"▁cewa":3339,"ço":3340,"úkọ":3341,"▁mam":3342,"▁bem":3343,"▁war":3344,"▁الك":3345,"▁ìgbà":3346,"▁lea":3347,"▁bayan":3348,"ለቲ":3349,"▁ret":3350,"urin":3351,"▁اللي":3352,"▁በእ":3353,"dar":3354,"ic":3355,"kùn":3356,"ፈል":3357,"▁nma":3358,"▁mp":3359,"▁kal":3360,"▁om":3361,"itu":3362,"▁àgbà":3363,"▁die":3364,"▁start":3365,"قل":3366,"አብ":3367,"▁mk":3368,"▁yako":3369,"▁ilu":3370,"airi":3371,"▁የኢትዮጵያ":3372,"▁غير":3373,"تح":3374,"▁ጎ":3375,"▁som":3376,"▁fada":3377,"▁አላ":3378,"kele":3379,"▁Ezi":3380,"▁reach":3381,"▁ምክ":3382,"lan":3383,"او":3384,"نة":3385,"amun":3386,"▁አማራ":3387,"▁toh":3388,"▁መን":3389,"▁Yan":3390,"dua":3391,"yy":3392,"ግዚ":3393,"▁ìṣ":3394,"eriya":3395,"untun":3396,"▁عند":3397,"nìyàn":3398,"hin":3399,"ịa":3400,"▁app":3401,"▁kana":3402,"▁el":3403,"amin":3404,"▁የነ":3405,"gbon":3406,"▁zi":3407,"▁uwar":3408,"▁these":3409,"▁Su":3410,"▁با":3411,"▁😂😂😂😂😂😂":3412,"▁ime":3413,"▁ማን":3414,"'m":3415,"hùn":3416,"pit":3417,"ሚያ":3418,"ረው":3419,"▁ɔ":3420,"utar":3421,"▁pẹ̀lú":3422,"ty":3423,"yìí":3424,"▁❤️":3425,"▁ali":3426,"▁koma":3427,"▁tra":3428,"▁blo":3429,"▁lm":3430,"▁pà":3431,"▁pos":3432,"▁ug":3433,"▁Shi":3434,"side":3435,"OT":3436,"mú":3437,"▁kuka":3438,"llahi":3439,"▁Re":3440,"▁always":3441,"iii":3442,"shen":3443,"bọ̀":3444,"ris":3445,"بل":3446,"▁0":3447,"▁bb":3448,"▁eb":3449,"▁gidan":3450,"vid":3451,"▁minha":3452,"▁hankali":3453,"▁እንኳን":3454,"▁kab":3455,"▁gar":3456,"bazo":3457,"▁zuwa":3458,"▁gida":3459,"gy":3460,"▁ojo":3461,"▁yas":3462,"▁Ana":3463,"▁should":3464,"ìnrin":3465,"▁tuna":3466,"▁oko":3467,"▁yadda":3468,"▁ọma":3469,"▁😂😂😂😂😂":3470,"cs":3471,"ká":3472,"wara":3473,"▁tayi":3474,"▁ila":3475,"▁ge":3476,"▁et":3477,"▁eji":3478,"▁ni.":3479,"000":3480,"تك":3481,"▁،":3482,"▁ሞ":3483,"▁id":3484,"▁ruwa":3485,"gbọ́n":3486,"▁እነ":3487,"▁Sa":3488,"adau":3489,"▁ደግ":3490,"▁guys":3491,"fr":3492,"ger":3493,"gùn":3494,"up":3495,"خل":3496,"قو":3497,"▁bra":3498,"endo":3499,"adà":3500,"▁Im":3501,"chie":3502,"ves":3503,"▁ላ":3504,"▁ao":3505,"▁kuna":3506,"▁sir":3507,"▁week":3508,"▁يح":3509,"▁after":3510,"▁bus":3511,"▁find":3512,"▁naa":3513,"▁essa":3514,"▁wait":3515,"yasa":3516,"ባል":3517,"ጀመ":3518,"▁mere":3519,"▁Ad":3520,"lli":3521,"▁kudi":3522,"▁vida":3523,"ንት":3524,"▁try":3525,"▁bal":3526,"▁bọ̀":3527,"▁lah":3528,"▁post":3529,"akwa":3530,"gbè":3531,"▁did":3532,"▁እየተ":3533,"▁bless":3534,"كن":3535,"▁sweet":3536,"▁الص":3537,"iso":3538,"▁onwe":3539,"▁sei":3540,"▁ask":3541,"▁pres":3542,"US":3543,"dia":3544,"yam":3545,"طن":3546,"ኛው":3547,"▁*":3548,"▁nko":3549,"▁f'":3550,"enu":3551,"ahaha":3552,"▁የወ":3553,"osi":3554,"😭😭😭":3555,"▁shiga":3556,"▁ẹ̀yin":3557,"ctor":3558,"▁መንግስት":3559,"قول":3560,"ukun":3561,"▁ọn":3562,"emi":3563,"▁ubu":3564,"▁vai":3565,"ǹkan":3566,"مية":3567,"▁ፖ":3568,"▁kee":3569,"▁gas":3570,"▁ciki":3571,"gbẹ̀":3572,"اري":3573,"ربي":3574,"▁ጉዳ":3575,"ces":3576,"هو":3577,"▁aikin":3578,"▁over":3579,"▁#H":3580,"▁rere":3581,"▁quando":3582,"▁shugaban":3583,"10":3584,"AS":3585,"tò":3586,"ማሪ":3587,"▁dr":3588,"▁taim":3589,"▁were":3590,"akin":3591,"▁ins":3592,"▁لم":3593,"▁orúkọ":3594,"▁l'ó":3595,"TI":3596,"jeriya":3597,"የት":3598,"▁....":3599,"int":3600,"aram":3601,"▁ይህ":3602,"▁ALLAH":3603,"ልም":3604,"👏👏":3605,"ance":3606,"▁kà":3607,"▁dà":3608,"ont":3609,"▁Nwa":3610,"ete":3611,"row":3612,"▁Je":3613,"▁fazer":3614,"▁ehn":3615,"wụ":3616,"ፊት":3617,"▁au":3618,"▁stop":3619,"▁ben":3620,"▁الإ":3621,"▁yab":3622,"▁zo":3623,"▁በጣም":3624,"▁يع":3625,"▁اخ":3626,"▁arewa":3627,"barka":3628,"▁nsogbu":3629,"▁nwere":3630,"اح":3631,"ካም":3632,"😢😢":3633,"▁tay":3634,"▁idi":3635,"adụ":3636,"oso":3637,"▁zama":3638,"▁zaman":3639,"igi":3640,"dogwu":3641,"▁gbó":3642,"▁ብዙ":3643,"▁ቤት":3644,"▁dashi":3645,"enge":3646,"▁الي":3647,"▁Is":3648,"▁been":3649,"▁shir":3650,"▁said":3651,"KA":3652,"nìí":3653,"▁sɛ":3654,"▁ማለት":3655,"▁አስተ":3656,"issam":3657,"UR":3658,"bal":3659,"ሪካ":3660,"▁kall":3661,"▁part":3662,"count":3663,"▁En":3664,"▁m3a":3665,"▁komai":3666,"rán":3667,"▁ች":3668,"▁hmm":3669,"▁አበ":3670,"eth":3671,"▁He":3672,"ef":3673,"fà":3674,"tissam":3675,"وج":3676,"ስታ":3677,"▁muke":3678,"▁tá":3679,"ayya":3680,"▁asa":3681,"tọ́":3682,"▁hada":3683,"▁مت":3684,"liz":3685,"▁èyí":3686,"▁ምር":3687,"meen":3688,"YA":3689,"dọ̀":3690,"pò":3691,"جل":3692,"▁😊":3693,"😅😅":3694,"andi":3695,"▁pọ̀":3696,"atch":3697,"▁#e":3698,"▁face":3699,"▁very":3700,"▁مزية":3701,"زي":3702,"كا":3703,"▁ace":3704,"▁tuntun":3705,"▁yá":3706,"eng":3707,"akar":3708,"▁Man":3709,"▁esse":3710,"▁حتى":3711,"▁t'ó":3712,"IS":3713,"▁mer":3714,"▁kuke":3715,"▁saka":3716,"▁spe":3717,"▁top":3718,"▁ako":3719,"tern":3720,"▁ènìyàn":3721,"▁😭😭😭":3722,"gira":3723,"here":3724,"pt":3725,"وت":3726,"▁ዋ":3727,"anyi":3728,"▁anaa":3729,"▁بي":3730,"▁Go":3731,"cyo":3732,"▁mom":3733,"▁አት":3734,"emo":3735,"'t":3736,"cia":3737,"hn":3738,"ls":3739,"rù":3740,"طي":3741,"لب":3742,"ገድ":3743,"▁sá":3744,"▁best":3745,"▁op":3746,"▁#D":3747,"▁jọ":3748,"▁አም":3749,"▁magana":3750,"▁neza":3751,"▁baby":3752,"▁الحكومة":3753,"▁የምት":3754,"af":3755,"jé":3756,"pẹ":3757,"rìn":3758,"ሰራ":3759,"▁ቁ":3760,"alin":3761,"▁አባ":3762,"▁مش":3763,"etu":3764,"▁تب":3765,"▁sub":3766,"▁اح":3767,"▁hear":3768,"▁watch":3769,"bó":3770,"min":3771,"▁dara":3772,"▁tán":3773,"▁são":3774,"▁obu":3775,"▁fah":3776,"esh":3777,"ister":3778,"▁እር":3779,"ember":3780,"▁19":3781,"▁#In":3782,"▁ክልል":3783,"get":3784,"kù":3785,"tù":3786,"سة":3787,"▁nye":3788,"▁mor":3789,"▁mba":3790,"▁dun":3791,"▁dos":3792,"▁tunda":3793,"▁ima":3794,"▁pu":3795,"▁#K":3796,"lea":3797,"▁Ob":3798,"roverb":3799,"▁ከመ":3800,"▁off":3801,"giye":3802,"fara":3803,"hor":3804,"ለች":3805,"ሉት":3806,"▁♫":3807,"▁ọ́":3808,"▁ada":3809,"▁aho":3810,"▁bik":3811,"▁guk":3812,"▁ede":3813,"▁karya":3814,"▁انا":3815,"▁ganin":3816,"▁ቀን":3817,"▁እንዴት":3818,"tụ":3819,"xa":3820,"ሰማ":3821,"▁😏":3822,"ervice":3823,"▁wasu":3824,"▁Mana":3825,"▁inda":3826,"▁Biko":3827,"chool":3828,"▁beg":3829,"▁ያል":3830,"▁#ibeere":3831,"kí":3832,"yị":3833,"▁👌":3834,"▁mà":3835,"▁oro":3836,"▁ee":3837,"▁shar":3838,"marè":3839,"ግዚአብ":3840,"▁\"\"":3841,"▁damu":3842,"▁oge":3843,"▁Yo":3844,"▁end":3845,"cc":3846,"ões":3847,"በል":3848,"▁😍":3849,"▁kus":3850,"▁bom":3851,"ump":3852,"abar":3853,"▁ìp":3854,"▁Hmm":3855,"▁mmadụ":3856,"dùmarè":3857,"IR":3858,"hat":3859,"pó":3860,"اه":3861,"ናት":3862,"ደራ":3863,"ጣን":3864,"▁+":3865,"▁ቦ":3866,"▁🎶":3867,"▁bashi":3868,"onu":3869,"osa":3870,"▁ọwọ́":3871,"▁dole":3872,"▁matter":3873,"▁هذ":3874,"Of":3875,"lt":3876,"okwu":3877,"ልፅ":3878,"▁ኮ":3879,"▁ጨ":3880,"😠😠":3881,"▁stu":3882,"▁seri":3883,"▁oṣù":3884,"ory":3885,"▁yafi":3886,"gbò":3887,"▁oni":3888,"▁rep":3889,"▁first":3890,"fy":3891,"zọ":3892,"▁Ameen":3893,"▁wa.":3894,"▁ṣé":3895,"▁karshen":3896,"▁account":3897,"AM":3898,"bre":3899,"ot":3900,"ኖር":3901,"▁[":3902,"▁aiki":3903,"▁oj":3904,"▁fan":3905,"esa":3906,"▁አያ":3907,"▁Ire":3908,"▁zu":3909,"▁taba":3910,"rín":3911,"▁adiro":3912,"▁hot":3913,"▁pls":3914,"▁lmao":3915,"gen":3916,"رق":3917,"ምር":3918,"ኞች":3919,"▁aqui":3920,"▁sim":3921,"ars":3922,"▁ba,":3923,"▁next":3924,"▁hausa":3925,"▁ብር":3926,"▁babe":3927,"jọba":3928,"▁méjì":3929,"ግራይ":3930,"gl":3931,"ተው":3932,"arya":3933,"▁fans":3934,"alo":3935,"▁rashin":3936,"▁Be":3937,"!!!!":3938,"يرة":3939,"ship":3940,"guage":3941,"▁እውነት":3942,"gó":3943,"rr":3944,"ምህ":3945,"▁mum":3946,"▁sp":3947,"▁sure":3948,"inYoruba":3949,"oud":3950,"red":3951,"▁Bi":3952,"▁isa":3953,"لات":3954,"ማር":3955,"▁🔥":3956,"▁mama":3957,"undi":3958,"alar":3959,"▁እኛ":3960,"▁Olu":3961,"▁وم":3962,"▁quer":3963,"▁Ga":3964,"▁God":3965,"▁count":3966,"▁Rahama":3967,"كان":3968,"▁tar":3969,"▁iyo":3970,"weza":3971,"▁ise":3972,"▁zaidi":3973,"ለቲካ":3974,"sà":3975,"طو":3976,"عو":3977,"ጦር":3978,"▁yoruba":3979,"osai":3980,"▁وت":3981,"‍️‍️":3982,"🔥🔥🔥🔥":3983,"ambém":3984,"▁ruwan":3985,"kọ̀":3986,"kún":3987,"line":3988,"جي":3989,"كت":3990,"ቀር":3991,"▁👍":3992,"▁ké":3993,"▁tso":3994,"▁pri":3995,"الم":3996,"▁nada":3997,"▁nile":3998,"▁አካ":3999,"▁Muna":4000,"▁nítorí":4001,"▁body":4002,"▁ልጅ":4003,"▁proble":4004,"vuga":4005,"agos":4006,"Day":4007,"ቅም":4008,"anda":4009,"▁tir":4010,"▁baka":4011,"▁cos":4012,"▁አዲስ":4013,"▁òní":4014,"vers":4015,"▁mutu":4016,"▁kamata":4017,"▁cant":4018,"▁انت":4019,"▁وعلاه":4020,"3a":4021,"ké":4022,"nabi":4023,"ግባ":4024,"▁yace":4025,"▁አው":4026,"▁በሚ":4027,"▁ነዉ":4028,"▁those":4029,"▁ẹran":4030,"▁Ub":4031,"▁kyauta":4032,"▁assim":4033,"▁ፓርቲ":4034,"ua":4035,"ገው":4036,"▁ná":4037,"▁same":4038,"▁Nke":4039,"ẹ̀rẹ̀":4040,"▁You":4041,"▁sílẹ̀":4042,"▁nyame":4043,"▁feel":4044,"pon":4045,"▁&":4046,"▁send":4047,"▁#n":4048,"▁dauk":4049,"▁papa":4050,"▁mutan":4051,"akoze":4052,"▁comot":4053,"▁maganar":4054,"ግዚአብሔር":4055,"yen":4056,"عي":4057,"▁ራ":4058,"▁name":4059,"▁ata":4060,"▁kina":4061,"▁diri":4062,"▁owo":4063,"▁የለም":4064,"ukwa":4065,"▁Bo":4066,"▁kandi":4067,"▁team":4068,"fanya":4069,"▁ደግሞ":4070,"bwa":4071,"gine":4072,"ائ":4073,"ታቸው":4074,"▁ዶ":4075,"▁tom":4076,"alam":4077,"መት":4078,"ድን":4079,"ụọ":4080,"▁kayi":4081,"▁school":4082,"eshi":4083,"ubwo":4084,"▁munsi":4085,"▁video":4086,"▁ጥሩ":4087,"▁هاد":4088,"▁#TweetinYoruba":4089,"▁ameen":4090,"--":4091,"yɛ":4092,"zima":4093,"መለ":4094,"ዳን":4095,"▁tare":4096,"▁tamba":4097,"▁yí":4098,"▁fatan":4099,"▁Ag":4100,"ados":4101,"▁ìb":4102,"▁يت":4103,"▁Jesus":4104,"ችንን":4105,"gg":4106,"jẹ̀":4107,"lin":4108,"اي":4109,"ولي":4110,"▁😒":4111,"▁dadi":4112,"▁bit":4113,"▁baku":4114,"▁yes":4115,"▁gut":4116,"▁Oló":4117,"▁vir":4118,"▁foi":4119,"▁رو":4120,"▁exp":4121,"▁መልካም":4122,"bd":4123,"fah":4124,"gẹ́":4125,"yor":4126,"كيران":4127,"ላችሁ":4128,"🏃🏃":4129,"▁bada":4130,"▁ot":4131,"▁nai":4132,"▁Ol":4133,"▁Kò":4134,"▁Do":4135,"▁Le":4136,"ID":4137,"Service":4138,"fí":4139,"sen":4140,"صل":4141,"▁ሆነ":4142,"▁olo":4143,"▁#Y":4144,"▁dawo":4145,"▁Mun":4146,"لام":4147,"▁lagos":4148,"mà":4149,"▁ሥ":4150,"▁ኤ":4151,"▁mind":4152,"▁aha":4153,"▁das":4154,"▁ten":4155,"▁#p":4156,"▁وز":4157,"▁kaji":4158,"▁Habari":4159,"▁ይህን":4160,"▁faz":4161,"▁hope":4162,"▁bakin":4163,"▁የማይ":4164,"fur":4165,"àì":4166,"غار":4167,"كري":4168,"ሰው":4169,"ያኔ":4170,"▁ƙ":4171,"💯💯":4172,"▁kir":4173,"unci":4174,"▁dear":4175,"▁imp":4176,"▁Amin":4177,"▁gwamn":4178,"▁which":4179,"Allah":4180,"val":4181,"▁😀":4182,"️️":4183,"▁kpo":4184,"▁yà":4185,"hia":4186,"▁yawa":4187,"utse":4188,"▁Ok":4189,"▁aban":4190,"self":4191,"fic":4192,"▁أن":4193,"زائ":4194,"dùn":4195,"kẹ́":4196,"مر":4197,"▁twa":4198,"▁bẹ":4199,"▁ozo":4200,"▁padà":4201,"akuru":4202,"▁https://t.co/N":4203,"gola":4204,"▁ከአ":4205,"▁ከፍ":4206,"▁really":4207,"▁Moz":4208,"by":4209,"መድ":4210,"🤲🤲":4211,"▁hna":4212,"amata":4213,"▁put":4214,"▁#F":4215,"▁inside":4216,"ኦሮሞ":4217,"dum":4218,"io":4219,"rị":4220,"ክል":4221,"anta":4222,"▁yah":4223,"▁hadi":4224,"▁Orí":4225,"ingi":4226,"▁àì":4227,"▁zata":4228,"▁machi":4229,"▁Sh":4230,"▁Bar":4231,"lie":4232,"▁real":4233,"▁شي":4234,"▁corona":4235,"frica":4236,"ps":4237,"▁nǹkan":4238,"▁igba":4239,"▁https://t.co/H":4240,"▁Omo":4241,"▁Ihe":4242,"rio":4243,"▁3li":4244,"▁ስራ":4245,"▁estou":4246,"GO":4247,"ugh":4248,"were":4249,"▁hum":4250,"yae":4251,"▁ọlọ́":4252,"▁ìdí":4253,"▁abunda":4254,"ign":4255,"▁Rwanda":4256,"allai":4257,"ace":4258,"ná":4259,"tr":4260,"يات":4261,"▁؟":4262,"▁🤦":4263,"▁phone":4264,"▁rw":4265,"▁MA":4266,"reet":4267,"ọ̀rọ̀":4268,"▁akwa":4269,"▁Po":4270,"ents":4271,"▁ọ̀nà":4272,"▁tudo":4273,"▁pessoas":4274,"▁woman":4275,"par":4276,"yọ́":4277,"ረዳ":4278,"🏾‍♂️":4279,"▁ninu":4280,"▁kedu":4281,"▁jikan":4282,"▁àt":4283,"▁àṣà":4284,"▁واش":4285,"how":4286,"▁Li":4287,"puto":4288,"òbá":4289,"▁ጭ":4290,"▁odi":4291,"▁ibu":4292,"▁Ele":4293,"ariya":4294,"▁Que":4295,"▁ubangiji":4296,"▁tabb":4297,"gas":4298,"ሎች":4299,"ሮች":4300,"ወጣ":4301,"▁🙄🙄":4302,"▁nuna":4303,"▁kak":4304,"▁tú":4305,"▁sosai":4306,"▁lò":4307,"onye":4308,"ked":4309,"▁باش":4310,"▁ነው?":4311,"▁ለምን":4312,"▁12":4313,"▁100":4314,"▁estão":4315,"ffer":4316,"▁ሀገር":4317,"wájú":4318,"▁ናቸው":4319,"▁بنكيران":4320,"bú":4321,"gem":4322,"▁kuko":4323,"▁kuto":4324,"▁também":4325,"▁wad":4326,"aru":4327,"▁ili":4328,"▁food":4329,"▁ewé":4330,"▁cer":4331,"ense":4332,"▁الصح":4333,"▁YA":4334,"▁ተወ":4335,"▁enjo":4336,"▁والله":4337,"▁friend":4338,"33":4339,"مل":4340,"ላቸው":4341,"▁!!":4342,"▁wò":4343,"ambo":4344,"▁Aba":4345,"llh":4346,"▁maa":4347,"▁then":4348,"sed":4349,"▁báyìí":4350,"▁#Igbo":4351,"▁até":4352,"▁ምንም":4353,"▁ihab":4354,"fani":4355,"gani":4356,"lation":4357,"ئيس":4358,"وق":4359,"▁፡፡":4360,"▁wọ̀n":4361,"▁ham":4362,"ited":4363,"▁Nn":4364,"▁مب":4365,"▁Co":4366,"▁Wọ́n":4367,"▁albarka":4368,"eee":4369,"▁ሰዎች":4370,"▁anything":4371,"▁month":4372,"mas":4373,"sun":4374,"نو":4375,"ታው":4376,"ọrọ":4377,"▁X":4378,"▁ሽ":4379,"▁ዜ":4380,"ang":4381,"▁sing":4382,"▁olú":4383,"▁fat":4384,"reat":4385,"▁WA":4386,"hhhhhhhh":4387,"khairi":4388,"▁አበባ":4389,"IA":4390,"UK":4391,"Word":4392,"cr":4393,"com":4394,"ders":4395,"fia":4396,"lia":4397,"zin":4398,"▁ainda":4399,"▁iba":4400,"▁https://t.co/5":4401,"▁https://t.co/F":4402,"oot":4403,"ready":4404,"▁kuba":4405,"▁Duk":4406,"▁chineke":4407,"▁ሰላም":4408,"▁maganin":4409,"قيل":4410,"መጣ":4411,"ማት":4412,"ንያ":4413,"▁ቃ":4414,"🇲🇿":4415,"🏽‍♂️":4416,"▁dùn":4417,"▁bla":4418,"▁ball":4419,"▁w'":4420,"▁odun":4421,"▁yam":4422,"▁las":4423,"▁Idan":4424,"▁وقت":4425,"▁Lo":4426,"▁Lol":4427,"▁15":4428,"......":4429,"▁things":4430,"sante":4431,"▁محمد":4432,"▁ሌላ":4433,"▁Ezigbo":4434,"ething":4435,"tó":4436,"لق":4437,"😎😎":4438,"anya":4439,"▁song":4440,"▁wake":4441,"▁pla":4442,"▁nawe":4443,"▁የህ":4444,"▁አሳ":4445,"▁Mi":4446,"▁https://t.co/q":4447,"▁koko":4448,"pè":4449,"ረስ":4450,"▁😢":4451,"▁uko":4452,"😆😆":4453,"▁ms":4454,"▁tire":4455,"▁gari":4456,"▁ebu":4457,"alle":4458,"▁ነገ":4459,"▁መሪ":4460,"▁We":4461,"ينة":4462,"▁shey":4463,"▁የአማራ":4464,"▁واحد":4465,"▁ከተማ":4466,"bia":4467,"kia":4468,"nin":4469,"sìn":4470,"▁kp":4471,"▁obodo":4472,"▁lori":4473,"ono":4474,"▁https://t.co/0":4475,"▁مس":4476,"emos":4477,"▁Di":4478,"▁already":4479,"▁ለአ":4480,"▁كا":4481,"▁esta":4482,"▁او":4483,"▁ስት":4484,"▁yakara":4485,"▁something":4486,"▁bbc":4487,"cado":4488,"ket":4489,"kara":4490,"▁sor":4491,"▁bó":4492,"▁boss":4493,"▁lẹ":4494,"onal":4495,"wa,":4496,"▁Aka":4497,"▁የሆነ":4498,"▁https://t.co/7":4499,"▁https://t.co/X":4500,"▁Ojú":4501,"▁àà":4502,"▁Eze":4503,"▁3lik":4504,"▁mmiri":4505,"▁Ndị":4506,"ice":4507,"vah":4508,"دم":4509,"ልቅ":4510,"ረጃ":4511,"▁ፕ":4512,"▁nake":4513,"▁tì":4514,"▁oba":4515,"▁hin":4516,"▁cry":4517,"atin":4518,"▁deɛ":4519,"omi":4520,"▁va":4521,"▁ga-":4522,"pois":4523,"▁18":4524,"▁ድር":4525,"▁Maputo":4526,"▁malam":4527,"▁boys":4528,"hamm":4529,"LE":4530,"nali":4531,"دير":4532,"ኛል":4533,"ገና":4534,"▁kuk":4535,"▁sum":4536,"▁bari":4537,"▁wr":4538,"▁Ada":4539,"▁rab":4540,"aija":4541,"ayan":4542,"▁ni,":4543,"▁https://t.co/W":4544,"▁sua":4545,"▁نح":4546,"▁wipe":4547,"😂😂😂😂😂😂😂😂":4548,"▁lokacin":4549,"▁retweet":4550,"Am":4551,"xo":4552,"▁trans":4553,"▁yọ":4554,"ond":4555,"▁Masha":4556,"▁Tu":4557,"راء":4558,"▁است":4559,"▁heart":4560,"▁days":4561,"▁الشعب":4562,"TO":4563,"hal":4564,"ks":4565,"▁ቡ":4566,"👇👇":4567,"ante":4568,"▁ase":4569,"▁hit":4570,"▁pay":4571,"able":4572,"▁https://t.co/R":4573,"▁zaku":4574,"▁todos":4575,"▁vou":4576,"▁Twitter":4577,"▁koh":4578,"jiya":4579,"▁saw":4580,"🙏🙏🙏":4581,"خر":4582,"فت":4583,"ዲያ":4584,"▁ዳ":4585,"▁aṣọ":4586,"▁káà":4587,"▁dm":4588,"▁swe":4589,"▁At":4590,"▁Olú":4591,"▁ba.":4592,"▁melh":4593,"▁uba":4594,"chị":4595,"round":4596,"▁ነው!":4597,"▁#The":4598,"▁enjoy":4599,"bò":4600,"jya":4601,"my":4602,"ሳብ":4603,"▁Ǹ":4604,"▁kit":4605,"▁kìí":4606,"▁irú":4607,"une":4608,"▁eze":4609,"▁https://t.co/V":4610,"▁Ke":4611,"▁በላይ":4612,"▁kol":4613,"▁òkè":4614,"▁ስል":4615,"▁ahụ":4616,"gbára":4617,"yorub":4618,",,":4619,"Mo":4620,"ngola":4621,"حي":4622,"سم":4623,"هد":4624,"▁🤷":4625,"▁nkan":4626,"▁aki":4627,"▁tit":4628,"▁tẹ̀":4629,"▁home":4630,"▁lhe":4631,"ors":4632,"▁nawa":4633,"itar":4634,"▁https://t.co/3":4635,"▁https://t.co/D":4636,"▁https://t.co/G":4637,"▁https://t.co/J":4638,"▁https://t.co/Y":4639,"▁wajen":4640,"انيا":4641,"duje":4642,"erian":4643,"▁هي":4644,"▁pode":4645,"▁turn":4646,"▁country":4647,"yọ̀":4648,"zwe":4649,"ሱን":4650,"ቀው":4651,"▁Ụ":4652,"▁ukwu":4653,"▁mt":4654,"▁dire":4655,"▁spo":4656,"▁waka":4657,"▁od":4658,"▁ij":4659,"asar":4660,"▁#le":4661,"▁niile":4662,"▁jù":4663,"▁አር":4664,"▁Kedu":4665,"tim":4666,"▁መሰ":4667,"▁Gi":4668,"▁ያስ":4669,"▁Vi":4670,"▁እንዲህ":4671,"▁غادي":4672,"غاربة":4673,"202":4674,"tes":4675,"▁kàn":4676,"▁tè":4677,"▁sur":4678,"▁sle":4679,"▁ole":4680,"▁l3":4681,"▁fl":4682,"▁Abu":4683,"llo":4684,"eso":4685,"essi":4686,"▁አደ":4687,"▁anka":4688,"▁https://t.co/E":4689,"▁https://t.co/L":4690,"▁https://t.co/g":4691,"▁àmọ́":4692,"▁بعد":4693,"▁haba":4694,"▁نت":4695,"ations":4696,"▁number":4697,"GA":4698,"less":4699,"فس":4700,"ራዊ":4701,"ያቄ":4702,"anguage":4703,"iness":4704,"▁ghi":4705,"▁rán":4706,"▁አሜ":4707,"://t.co/t":4708,"▁https://t.co/K":4709,"▁San":4710,"hovah":4711,"▁DE":4712,"▁Anyi":4713,"▁gyimi":4714,"gt;":4715,"senal":4716,"lho":4717,"sky":4718,"መል":4719,"ታወ":4720,"ነግ":4721,"▁ing":4722,"▁ky":4723,"ino":4724,"tic":4725,"▁She":4726,"wanu":4727,"▁Uban":4728,"▁porque":4729,"▁wípé,":4730,"30":4731,"das":4732,"hún":4733,"kom":4734,"zza":4735,"ታል":4736,"▁duba":4737,"▁tana":4738,"▁الط":4739,"▁الغ":4740,"▁https://t.co/C":4741,"▁https://t.co/Z":4742,"▁Sun":4743,"únjẹ":4744,"▁afo":4745,"▁ọnụ":4746,"DO":4747,"ria":4748,"wor":4749,"wure":4750,"يي":4751,"▁💔":4752,"▁sak":4753,"▁hom":4754,"▁pẹ́":4755,"▁#t":4756,"▁rá":4757,"▁rè":4758,"▁https://t.co/6":4759,"▁https://t.co/p":4760,"▁https://t.co/x":4761,"▁ariko":4762,"▁ሲያ":4763,"▁obìnrin":4764,"▁mẹ́ta":4765,"▁bàbá":4766,"dẹ":4767,"hali":4768,"ይወ":4769,"ገን":4770,"ጥር":4771,"▁att":4772,"▁dasu":4773,"▁bet":4774,"▁light":4775,"alụ":4776,"umb":4777,"ẹ̀ẹ́":4778,"▁https://t.co/8":4779,"▁https://t.co/s":4780,"▁ìwé":4781,"▁بصح":4782,"vern":4783,"▁ተማሪ":4784,"ارك":4785,"▁state":4786,"ender":4787,"▁ụmụ":4788,"IC":4789,"cl":4790,"wam":4791,"wasi":4792,"ረን":4793,"ክራ":4794,"▁uri":4795,"▁eri":4796,"▁wadan":4797,"▁yen":4798,"▁iwe":4799,"▁ela":4800,"▁daba":4801,"▁Ib":4802,"▁inter":4803,"▁reason":4804,"▁Pr":4805,"▁add":4806,"▁\"\"\"\"\"\"\"\"@user:":4807,"▁water":4808,"▁الساد":4809,"▁sempre":4810,"amp;":4811,"▁ሳይሆን":4812,"'i":4813,"ós":4814,"ላከ":4815,"ẹrẹ":4816,"▁aye":4817,"▁sallah":4818,"▁hhhh":4819,"▁ekele":4820,"▁casa":4821,"enya":4822,"▁አድር":4823,"isho":4824,"▁https://t.co/2":4825,"▁https://t.co/Q":4826,"▁https://t.co/S":4827,"time":4828,"▁shu":4829,"▁lára":4830,"▁20":4831,"▁cele":4832,"▁ibyo":4833,"▁ቤተ":4834,"ርስቲ":4835,"▁Ǹjẹ́":4836,"OV":4837,"hon":4838,"lè":4839,"mì":4840,"ok":4841,"pà":4842,"ên":4843,"اط":4844,"بو":4845,"ታት":4846,"▁ሴ":4847,"😄😄":4848,"anin":4849,"▁mwi":4850,"▁taa":4851,"▁ste":4852,"oron":4853,"wa.":4854,"▁rub":4855,"cos":4856,"▁mean":4857,"imwe":4858,"▁Sen":4859,"▁kug":4860,"▁ነኝ":4861,"▁gbá":4862,"▁mouth":4863,"▁char":4864,"▁tua":4865,"wòrán":4866,"ልፅግና":4867,"nalillahi":4868,"▁السادس":4869,"▁sadau":4870,"▁game":4871,"▁bea":4872,"▁tafi":4873,"▁Un":4874,"▁Ji":4875,"▁lónìí":4876,"▁ጥያቄ":4877,"▁gwuru":4878,"ሪክ":4879,"ብት":4880,"▁ago":4881,"▁dake":4882,"irin":4883,"▁https://t.co/t":4884,"▁ma3":4885,"▁sell":4886,"▁بل":4887,"▁Por":4888,"▁sau":4889,"▁biya":4890,"▁yanxu":4891,"▁lọ.":4892,"rue":4893,"▁ìyà":4894,"▁mulkin":4895,"fad":4896,"mun":4897,"tá":4898,"u.":4899,"غي":4900,"ታችን":4901,"ዜማ":4902,"▁ث":4903,"▁namba":4904,"▁awa":4905,"▁aji":4906,"▁kwe":4907,"▁dri":4908,"▁buru":4909,"▁orin":4910,"▁iri":4911,"▁gal":4912,"▁rem":4913,"▁Mw":4914,"▁https://t.co/1":4915,"▁https://t.co/f":4916,"▁በደ":4917,"▁ìjọba":4918,"▁kull":4919,"انية":4920,"▁lowo":4921,"▁n'e":4922,"▁እንደሚ":4923,"❤️❤️":4924,"▁someone":4925,"▁girls":4926,"▁አብይ":4927,"EM":4928,"sọ":4929,"vyo":4930,"ሩት":4931,"ቦች":4932,"💪💪":4933,"▁nyin":4934,"▁most":4935,"▁kuku":4936,"▁yii":4937,"▁fami":4938,"▁ebi":4939,"▁ry":4940,"isas":4941,"▁https://t.co/I":4942,"▁https://t.co/M":4943,"▁https://t.co/O":4944,"▁https://t.co/v":4945,"▁بين":4946,"▁Ho":4947,"▁Ut":4948,"▁😂🤣":4949,"▁rain":4950,"▁Hausa":4951,"▁للم":4952,"ZI":4953,"lay":4954,"طة":4955,"መር":4956,"ስሊ":4957,"ደው":4958,"ọwọ́":4959,"▁uru":4960,"▁aque":4961,"▁two":4962,"▁#yorub":4963,"▁የበ":4964,"▁self":4965,"▁nígbà":4966,"▁Gbo":4967,"▁ተጠ":4968,"▁kwana":4969,"▁howa":4970,"▁#End":4971,"▁leave":4972,"des":4973,"mai":4974,"pụ":4975,"عت":4976,"▁miki":4977,"▁ade":4978,"▁data":4979,"▁sani":4980,"▁gen":4981,"▁jà":4982,"▁https://t.co/4":4983,"▁https://t.co/A":4984,"▁àbí":4985,"▁nothing":4986,"ream":4987,"▁Dama":4988,"▁cham":4989,"▁chai":4990,"▁ወን":4991,"▁hoje":4992,"▁brother":4993,"▁ጉዳይ":4994,"▁mutanen":4995,"BO":4996,"uwar":4997,"vir":4998,"حت":4999,"صر":5000,"ራል":5001,"ስፋ":5002,"▁ኦ":5003,"▁ዕ":5004,"▁ጌ":5005,"😩😩":5006,"inka":5007,"▁pas":5008,"umia":5009,"▁የው":5010,"▁وي":5011,"▁maf":5012,"▁nípa":5013,"▁òun":5014,"▁akw":5015,"▁ikon":5016,"▁world":5017,"▁Mozambique":5018,"▁#learn":5019,"9i":5020,"gado":5021,"ness":5022,"rún":5023,"ራው":5024,"ṣin":5025,"Ẹ̀":5026,"▁ኃ":5027,"▁ፀ":5028,"▁👏":5029,"ange":5030,"▁s'":5031,"▁gusa":5032,"▁gyae":5033,"▁Af":5034,"▁https://t.co/9":5035,"ẹ́gẹ́":5036,"▁bag":5037,"▁baza":5038,"▁በር":5039,"▁kazi":5040,"▁ìbí":5041,"▁wei":5042,"▁amba":5043,"▁لو":5044,"ghrib":5045,"▁wọ̀nyí":5046,"50":5047,"xi":5048,"اس":5049,"ለኝ":5050,"▁iyi":5051,"▁gwa":5052,"▁rai":5053,"him":5054,"▁ya.":5055,"▁via":5056,"ríà":5057,"▁14":5058,"▁kunya":5059,"ورة":5060,"▁ካል":5061,"▁ranar":5062,"b3":5063,"lim":5064,"ቤት":5065,"ኝነት":5066,"ገል":5067,"ገኘ":5068,"▁نا":5069,"♥️":5070,"▁ndo":5071,"▁acho":5072,"▁tas":5073,"▁gama":5074,"atur":5075,"▁አደረ":5076,"▁NA":5077,"▁https://t.co/d":5078,"▁kace":5079,"▁Ser":5080,"▁gbọ":5081,"▁mi.":5082,"▁lie":5083,"▁ደሞ":5084,"▁child":5085,"ulture":5086,"dumare":5087,"Ex":5088,"ባት":5089,"▁mim":5090,"▁miss":5091,"▁kon":5092,"▁den":5093,"▁suk":5094,"▁ewu":5095,"▁paa":5096,"▁rush":5097,"▁Ne":5098,"▁https://t.co/r":5099,"▁Ig":5100,"▁zaka":5101,"▁alkhairi":5102,"adio":5103,"▁ድን":5104,"uduma":5105,"▁sleep":5106,"3m":5107,"OM":5108,"وي":5109,"ንን":5110,"ከተ":5111,"ክት":5112,"ጨረ":5113,"ṣẹ̀":5114,"😃😃":5115,"▁dro":5116,"▁og":5117,"▁ei":5118,"amente":5119,"▁cya":5120,"▁አገር":5121,"▁https://t.co/B":5122,"▁uz":5123,"▁beat":5124,"▁wanan":5125,"rid":5126,"▁than":5127,"▁Har":5128,"▁ẹyẹ":5129,"▁ስር":5130,"▁adị":5131,"▁wato":5132,"▁join":5133,"▁full":5134,"▁cause":5135,"▁sense":5136,"▁keep":5137,"aw":5138,"bl":5139,"bì":5140,"bere":5141,"yane":5142,"zama":5143,"ções":5144,"ስራ":5145,"🙌🙌":5146,"▁muka":5147,"▁@user,":5148,"▁sasa":5149,"▁siku":5150,"▁bya":5151,"▁wuta":5152,"▁cu":5153,"atul":5154,"▁Ife":5155,"▁St":5156,"▁ṣà":5157,"▁ṣá":5158,"▁ṣí":5159,"▁ከእ":5160,"▁Pro":5161,"▁sauran":5162,"▁enye":5163,"▁ስም":5164,"▁láyé":5165,"▁gudu":5166,"▁ooh":5167,"▁ህዝ":5168,"▁??????":5169,"zania":5170,"ጀመሪያ":5171,"▁#InYoruba":5172,"زائر":5173,"OS":5174,"py":5175,"حك":5176,"ምሮ":5177,"ሩን":5178,"▁!!!":5179,"▁agu":5180,"▁sw":5181,"▁gun":5182,"▁hhh":5183,"▁Ajé":5184,"▁dele":5185,"urs":5186,"▁dauki":5187,"▁https://t.co/j":5188,"▁https://t.co/w":5189,"▁Os":5190,"▁ነህ":5191,"yiza":5192,"lice":5193,"▁umug":5194,"▁leo":5195,"▁agora":5196,"▁ibtissam":5197,"▁pict":5198,"▁break":5199,"ድረግ":5200,"ren":5201,"u,":5202,"çambique":5203,"ẹni":5204,"💃💃":5205,"▁sam":5206,"▁cg":5207,"onge":5208,"▁Alh":5209,"▁الذ":5210,"abal":5211,"▁Kano":5212,"▁belle":5213,"▁neh":5214,"▁does":5215,"bochi":5216,"▁كت":5217,"▁Jo":5218,"unty":5219,"▁vez":5220,"RA":5221,"hm":5222,"had":5223,"kere":5224,"rs":5225,"yuma":5226,"árọ̀":5227,"اك":5228,"هي":5229,"▁nit":5230,"▁nri":5231,"▁ato":5232,"▁bam":5233,"▁les":5234,"▁ekwu":5235,"▁الناس":5236,"▁yaba":5237,"▁https://t.co/e":5238,"▁https://t.co/h":5239,"▁diz":5240,"رام":5241,"▁خو":5242,"ition":5243,"▁እስከ":5244,"jíríà":5245,"nye":5246,"pend":5247,"sc":5248,"yes":5249,"yya":5250,"لف":5251,"هر":5252,"ባቸው":5253,"ጆች":5254,"▁kada":5255,"▁ose":5256,"▁fall":5257,"▁emi":5258,"▁Mar":5259,"▁Oga":5260,"▁በሰ":5261,"▁በቀ":5262,"▁uli":5263,"dio":5264,"▁vol":5265,"▁kok":5266,"▁ሆኖ":5267,"▁talakawa":5268,"▁another":5269,"▁Gbogbo":5270,"cle":5271,"fata":5272,"lat":5273,"ros":5274,"▁ሸ":5275,"eres":5276,"▁av":5277,"▁bẹ̀rẹ̀":5278,"orar":5279,"▁egbe":5280,"▁pikin":5281,"irwa":5282,"▁night":5283,"▁https://t.co/T":5284,"▁https://t.co/U":5285,"▁Isi":5286,"diya":5287,"▁BA":5288,"▁DA":5289,"▁tey":5290,"▁colle":5291,"▁🤣🤣🤣🤣":5292,"▁واقيل":5293,"▁basira":5294,").":5295,"nem":5296,"wẹ̀":5297,"ثر":5298,"ሳት":5299,"▁ዩ":5300,"▁፡":5301,"▁ربي":5302,"▁mz":5303,"▁dì":5304,"▁bɛ":5305,"▁bon":5306,"▁oke":5307,"ater":5308,"iru":5309,"esti":5310,"▁Kar":5311,"▁bach":5312,"▁ind":5313,"▁Sar":5314,"▁Ti":5315,"▁gi.":5316,"sea":5317,"انا":5318,"▁asi":5319,"▁Ur":5320,"ọ́nà":5321,"▁Você":5322,"▁watu":5323,"▁verdade":5324,"▁neman":5325,"****":5326,"ling":5327,"زب":5328,"صو":5329,"فر":5330,"መሰ":5331,"ታዊ":5332,"ደት":5333,"።'":5334,"▁ment":5335,"▁sister":5336,"▁há":5337,"▁hai":5338,"▁አፍ":5339,"▁https://t.co/b":5340,"▁Obi":5341,"▁ona":5342,"▁መቀ":5343,"▁form":5344,"▁ይሁን":5345,"▁aku":5346,"▁bank":5347,"▁bros":5348,"▁Ṣé":5349,"▁umuntu":5350,"▁ምርጫ":5351,"▁وقتاش":5352,"The":5353,"cal":5354,"tand":5355,"wood":5356,"صب":5357,"عما":5358,"قر":5359,"ኋላ":5360,"ዎችን":5361,"ይል":5362,"ጠብ":5363,"Ọ́":5364,"▁mab":5365,"▁kwu":5366,"▁dam":5367,"▁true":5368,"oran":5369,"▁eje":5370,"amento":5371,"▁Are":5372,"▁#s":5373,"▁right":5374,"▁depois":5375,"▁https://t.co/P":5376,"▁ملي":5377,"▁ول":5378,"▁ilai":5379,"àìjíríà":5380,"IM":5381,"Oro":5382,"bẹ":5383,"ken":5384,"lsea":5385,"sán":5386,"yọ":5387,"òó":5388,"ህል":5389,"▁nụ":5390,"▁nya":5391,"▁must":5392,"▁tat":5393,"▁oyi":5394,"▁elu":5395,"▁nayi":5396,"▁rest":5397,"▁yaushe":5398,"its":5399,"▁እድ":5400,"▁እግዚአብሔር":5401,"▁https://t.co/n":5402,"imb":5403,"▁amfani":5404,"▁ofe":5405,"▁1.":5406,"▁youre":5407,"▁máà":5408,"▁Amen":5409,"▁خاص":5410,"▁change":5411,"ghribi":5412,"dẹ̀":5413,"las":5414,"qi":5415,"ras":5416,"yum":5417,"zia":5418,"نس":5419,"ጠበ":5420,"▁king":5421,"▁ogo":5422,"untu":5423,"▁#U":5424,"▁Min":5425,"▁https://t.co/o":5426,"▁በፊት":5427,"▁ashe":5428,"▁unders":5429,"▁دار":5430,"▁🙏🙏":5431,"▁ngwa":5432,"▁ምክንያ":5433,"RE":5434,"jar":5435,"where":5436,"جب":5437,"حال":5438,"مت":5439,"ትህ":5440,"ይት":5441,"▁ረ":5442,"▁nak":5443,"▁dy":5444,"▁dadin":5445,"▁bw":5446,"▁buk":5447,"▁gane":5448,"▁high":5449,"▁hahah":5450,"▁ekw":5451,"▁cur":5452,"▁pat":5453,"alla":5454,"ahunda":5455,"▁https://t.co/z":5456,"▁مي":5457,"▁Che":5458,"رار":5459,"▁الملك":5460,"▁leg":5461,"▁شكون":5462,"سيمة":5463,"▁tempo":5464,"?!":5465,"cul":5466,"ራን":5467,"ርድ":5468,"ፋት":5469,"▁🥺":5470,"anza":5471,"▁made":5472,"▁muku":5473,"▁@user.":5474,"▁dad":5475,"▁yoo":5476,"▁hii":5477,"▁long":5478,"▁lfy":5479,"▁eye":5480,"ondo":5481,"▁Alá":5482,"▁anan":5483,"▁مد":5484,"▁بع":5485,"▁done":5486,"▁gafar":5487,"▁كب":5488,"▁ተከ":5489,"pect":5490,"▁kwi":5491,"wwww":5492,"▁ojúmọ́":5493,"▁oluwa":5494,"▁kadai":5495,"▁koraa":5496,"▁daukaka":5497,"▁celebr":5498,"▁Senhor":5499,"HE":5500,"bw":5501,"ሳይ":5502,"ጣት":5503,"▁ذ":5504,"▁namu":5505,"▁tim":5506,"▁wllh":5507,"ungu":5508,"▁fam":5509,"▁naga":5510,"▁#m":5511,"▁ank":5512,"▁እም":5513,"▁مو":5514,"▁wach":5515,"▁maj":5516,"▁Ese":5517,"▁govern":5518,"▁መከ":5519,"▁መግ":5520,"▁quem":5521,"▁ńlá":5522,"لاد":5523,"▁ትን":5524,"▁hanan":5525,"vuze":5526,"▁jáde":5527,"sìkò":5528,"▁አመት":5529,"rìṣà":5530,"▁&amp;":5531,"AL":5532,"pl":5533,"pos":5534,"she":5535,"sàn":5536,"ziri":5537,"ብረ":5538,"▁mìí":5539,"▁kike":5540,"▁dra":5541,"indi":5542,"orrow":5543,"▁cc":5544,"▁pá":5545,"▁الر":5546,"▁Nan":5547,"▁https://t.co/l":5548,"▁https://t.co/y":5549,"▁وح":5550,"eto":5551,"▁Tan":5552,"▁Don":5553,"▁got":5554,"▁30":5555,"▁11":5556,"▁Fe":5557,"▁ማስ":5558,"▁stay":5559,"▁قال":5560,"▁fito":5561,"▁pray":5562,"▁road":5563,"rúkọ":5564,"▁years":5565,"▁ወይም":5566,"▁هذه":5567,"▁place":5568,"UM":5569,"bb":5570,"از":5571,"ود":5572,"ኖች":5573,"ፈው":5574,"😥😥":5575,"▁awo":5576,"▁aure":5577,"▁d'":5578,"▁oò":5579,"▁oun":5580,"▁oúnjẹ":5581,"▁yat":5582,"▁yaka":5583,"▁iko":5584,"▁https://t.co/c":5585,"▁https://t.co/k":5586,"▁àgbá":5587,"▁በዚህ":5588,"etse":5589,"▁يب":5590,"▁'የ":5591,"▁side":5592,"▁many":5593,"ريق":5594,"▁mundo":5595,"▁رئيس":5596,"▁xa":5597,"ambra":5598,"oooooooo":5599,"ገራችን":5600,"▁serious":5601,"TE":5602,"bé":5603,"gha":5604,"has":5605,"lẹ":5606,"rist":5607,"áa":5608,"؟؟":5609,"ጣሪ":5610,"ṣì":5611,"▁~":5612,"▁nes":5613,"▁bara":5614,"▁ill":5615,"unga":5616,"▁flo":5617,"▁annabi":5618,"▁እሱ":5619,"▁Mut":5620,"we.":5621,"▁wee":5622,"▁فكري":5623,"▁títí":5624,"▁تف":5625,"▁Lá":5626,"▁biyu":5627,"▁ẹ̀rọ":5628,"▁አይነት":5629,"pinle":5630,"اجة":5631,"▁zuci":5632,"▁melhor":5633,"▁#learnyoruba":5634,"ጨረሻ":5635,".'":5636,"dàn":5637,"iz":5638,"nun":5639,"yere":5640,"በላ":5641,"ተር":5642,"ኒቨ":5643,"ንዳ":5644,"ወሓ":5645,"ፈር":5646,"▁Ị":5647,"▁🥰":5648,"🙏🏾":5649,"▁nun":5650,"▁ije":5651,"▁lit":5652,"▁Ala":5653,"ishe":5654,"▁በዓ":5655,"▁በየ":5656,"▁uyu":5657,"▁Te":5658,"▁nílé":5659,"▁qual":5660,"▁dizer":5661,"انت":5662,"▁lójú":5663,"▁coisas":5664,"▁😁😁":5665,"▁#Rw":5666,"▁hakuri":5667,"utiful":5668,"▁pessoa":5669,"▁rayuwa":5670,"▁díẹ̀":5671,"▁Yoòbá":5672,"ምህርት":5673,"cre":5674,"wal":5675,"سط":5676,"شوف":5677,"ብን":5678,"ṣè":5679,"▁ሠ":5680,"▁😔":5681,"☺️":5682,"🚶🚶":5683,"anto":5684,"▁aya":5685,"▁wɔ":5686,"▁huduma":5687,"▁fà":5688,"▁Ara":5689,"▁የዘ":5690,"▁Or":5691,"▁mee":5692,"▁wa,":5693,"▁ìdá":5694,"▁tiwa":5695,"▁ṣẹ":5696,"▁Wallahi":5697,"▁taus":5698,"▁Ẹni":5699,"▁فيها":5700,"▁#Is":5701,"▁Wanda":5702,"▁understand":5703,"HOR":5704,"bs":5705,"cen":5706,"gara":5707,"gra":5708,"lah":5709,"ple":5710,"فة":5711,"قا":5712,"ሰባ":5713,"ሽን":5714,"ቀት":5715,"ቢያ":5716,"ካከ":5717,"▁👉":5718,"▁ጦር":5719,"▁aju":5720,"▁tẹ":5721,"▁torí":5722,"▁waye":5723,"▁hari":5724,"▁egbu":5725,"▁cra":5726,"▁catch":5727,"▁p3":5728,"▁deix":5729,"▁nipa":5730,"▁It":5731,"▁ون":5732,"tiv":5733,"▁inv":5734,"▁ṣ'":5735,"▁Hahah":5736,"▁تاع":5737,"▁haja":5738,"▁2.":5739,"urage":5740,"▁yakamata":5741,"▁fuck":5742,"▁محسن":5743,"▁Esse":5744,"▁ችግር":5745,"▁#proverb":5746,"▁#RwOT":5747,"رت":5748,"ዮች":5749,"ዮን":5750,"ገደ":5751,"▁nọ":5752,"▁naka":5753,"▁kika":5754,"▁tọ́":5755,"▁taya":5756,"▁sent":5757,"▁buri":5758,"▁wena":5759,"▁oya":5760,"▁gos":5761,"▁lk":5762,"▁list":5763,"orona":5764,"▁eko":5765,"als":5766,"aise":5767,"▁anu":5768,"ingo":5769,"▁baa":5770,"▁baako":5771,"▁وها":5772,"▁kaga":5773,"▁Bia":5774,"▁መሆኑ":5775,"▁till":5776,"▁Hi":5777,"▁soon":5778,"▁ام":5779,"▁ወያኔ":5780,"▁ልክ":5781,"▁ልዩ":5782,"▁hard":5783,"امل":5784,"▁Èkó":5785,"▁ubwo":5786,"▁adighi":5787,"▁ቦታ":5788,"▁collect":5789,"&gt;":5790,"bụ":5791,"dó":5792,"jir":5793,"lam":5794,"قط":5795,"ረጋ":5796,"ውም":5797,"ዎቹ":5798,"ግል":5799,"▁😍😍":5800,"▁mis":5801,"▁muma":5802,"▁ale":5803,"▁kasu":5804,"▁sad":5805,"▁bani":5806,"▁ear":5807,"▁የኢ":5808,"▁አህ":5809,"▁https://t.co/i":5810,"▁https://t.co/m":5811,"▁Odogwu":5812,"▁ọjà":5813,"▁Kan":5814,"▁int":5815,"▁Gu":5816,"▁ነው::":5817,"▁super":5818,"▁ተቀ":5819,"▁Pa":5820,"▁láì":5821,"▁star":5822,"▁wife":5823,"▁ndụ":5824,"▁العد":5825,"▁Ògún":5826,"▁eziokwu":5827,"▁عليه":5828,"gram":5829,"▁continu":5830,"form":5831,"▁taimaka":5832,"▁naija":5833,"ZA":5834,"cess":5835,"dán":5836,"رض":5837,"ስብ":5838,"ፈለ":5839,"▁b'":5840,"▁ibe":5841,"▁eyin":5842,"▁cika":5843,"▁pú":5844,"▁naira":5845,"lly":5846,"▁ans":5847,"iste":5848,"▁እጅ":5849,"▁https://t.co/a":5850,"▁وب":5851,"▁òwe":5852,"▁iska":5853,"▁tag":5854,"▁pecado":5855,"▁tsaro":5856,"▁sunan":5857,"▁lọ́jọ́":5858,"▁fear":5859,"▁kayan":5860,"▁الدولة":5861,"ــــ":5862,"▁dúpẹ́":5863,"HO":5864,"kana":5865,"lha":5866,"was":5867,"ባለ":5868,"ነቱ":5869,"▁ር":5870,"▁uta":5871,"❤❤":5872,"▁mtu":5873,"▁ayo":5874,"▁smi":5875,"▁hat":5876,"▁hana":5877,"▁Awon":5878,"▁الى":5879,"▁Nso":5880,"▁Maka":5881,"▁ọkọ":5882,"▁وج":5883,"▁wear":5884,"ded":5885,"▁forget":5886,"▁doing":5887,"▁aso":5888,"▁ይመስ":5889,"▁kila":5890,"pper":5891,"kuwa":5892,"▁جدي":5893,"▁عليك":5894,"▁ebube":5895,"▁gafarta":5896,"/ር":5897,"gon":5898,"خص":5899,"رد":5900,"ስል":5901,"ባቢ":5902,"ይማ":5903,"▁ǹ":5904,"▁ɗ":5905,"▁nni":5906,"▁tri":5907,"▁bọ́":5908,"▁nau":5909,"▁rọ":5910,"umma":5911,"▁yafe":5912,"ombe":5913,"▁nice":5914,"▁jan":5915,"▁Mur":5916,"▁zaki":5917,"▁SEN":5918,"raa":5919,"▁òkú":5920,"▁Com":5921,"▁ይች":5922,"▁ofuma":5923,"▁rece":5924,"▁اي":5925,"▁laugh":5926,"▁ወንድ":5927,"▁arsenal":5928,"▁سي":5929,"▁hanane":5930,"▁#NP":5931,"▁አለበት":5932,"▁السيا":5933,"▁bazai":5934,"▁Estou":5935,"llion":5936,"▁kallo":5937,"▁tenho":5938,"WE":5939,"cur":5940,"kk":5941,"lk":5942,"ዓት":5943,"ጠው":5944,"ọọ":5945,"▁act":5946,"▁ty":5947,"▁sake":5948,"arar":5949,"▁iwa":5950,"▁hta":5951,"▁loni":5952,"ensu":5953,"▁#J":5954,"▁ras":5955,"▁Kwa":5956,"▁zaa":5957,"▁mug":5958,"▁Em":5959,"▁መቼ":5960,"▁Wlh":5961,"▁dial":5962,"▁mi,":5963,"▁ተስፋ":5964,"▁live":5965,"fíà":5966,"▁SENHOR":5967,"BI":5968,"faran":5969,"vem":5970,"ቻችን":5971,"ጠኛ":5972,"▁nch":5973,"▁air":5974,"▁bwa":5975,"ttle":5976,"▁Ibi":5977,"▁مات":5978,"cel":5979,"▁muda":5980,"tain":5981,"▁ተብ":5982,"▁Ọjọ́":5983,"▁ብልፅግና":5984,"▁ስብ":5985,"rink":5986,"▁n'i":5987,"wiye":5988,"▁والم":5989,"▁babban":5990,"▁market":5991,"▁Ọ̀yọ́":5992,"antar":5993,"▁ሊያ":5994,"▁زعما":5995,"▁dúró":5996,"GBO":5997,"▁support":5998,"▁መንገድ":5999,"▁abantu":6000,"fadhali":6001,"mal":6002,"pat":6003,"zwa":6004,"ሸት":6005,"ውያን":6006,"ert":6007,"▁nku":6008,"▁dor":6009,"▁dali":6010,"▁other":6011,"▁iz":6012,"▁lay":6013,"▁free":6014,"▁care":6015,"ador":6016,"▁አሉ":6017,"▁Nwoke":6018,"▁Mad":6019,"▁seu":6020,"▁Ek":6021,"▁ከሆነ":6022,"▁Udo":6023,"▁ለእ":6024,"▁3n":6025,"polo":6026,"▁kiy":6027,"▁enu":6028,"▁Já":6029,"▁نع":6030,"▁street":6031,"▁uni":6032,"▁rap":6033,"▁masi":6034,"▁ዝም":6035,"▁rwose":6036,"▁spoil":6037,"fasha":6038,"jeria":6039,"sá":6040,"tv":6041,"فظ":6042,"قات":6043,"هة":6044,"ዘጋ":6045,"▁hust":6046,"unu":6047,"unye":6048,"▁ft":6049,"▁clo":6050,"▁rọ̀":6051,"esday":6052,"▁የቀ":6053,"▁https://t.co/u":6054,"▁kuji":6055,"▁amen":6056,"▁መር":6057,"▁ẹlẹ́":6058,"bele":6059,"lub":6060,"▁ess":6061,"▁yanda":6062,"▁tsare":6063,"▁raji":6064,"▁قبل":6065,"yarwanda":6066,"▁wont":6067,"▁qara":6068,"▁ቢሆን":6069,"▁Quando":6070,"▁lẹ́yìn":6071,"▁ọkọ̀":6072,"▁mulki":6073,"almente":6074,"▁ìṣẹ̀":6075,"▁tèmi":6076,"20":6077,"NA":6078,"mìn":6079,"ባሪ":6080,"ኩል":6081,"ጠር":6082,"usha":6083,"▁mina":6084,"▁tuba":6085,"▁oju":6086,"▁yé":6087,"▁land":6088,"▁ej":6089,"▁cri":6090,"umar":6091,"▁nib":6092,"▁ani":6093,"▁وأ":6094,"hout":6095,"▁DM":6096,"▁لك":6097,"lic":6098,"▁ẹnu":6099,"▁ofu":6100,"▁pelu":6101,"▁shirin":6102,"▁فيه":6103,"ريد":6104,"▁#Owe":6105,"▁ghadi":6106,"▁business":6107,"▁كاين":6108,"ይማኖ":6109,"3n":6110,"Li":6111,"PC":6112,"ገኝ":6113,"ṣọ́":6114,"▁😡":6115,"▁maki":6116,"▁adu":6117,"▁bghi":6118,"▁ido":6119,"▁echi":6120,"▁cle":6121,"▁rema":6122,"ades":6123,"▁Nk":6124,"▁Ngwa":6125,"▁My":6126,"os,":6127,"▁bawa":6128,"▁nílẹ̀":6129,"igwe":6130,"▁Ra":6131,"▁ṣẹ̀":6132,"wani":6133,"sage":6134,"bozi":6135,"رائ":6136,"gidi":6137,"▁shima":6138,"▁የሚል":6139,"joba":6140,"▁conf":6141,"▁raba":6142,"▁dára":6143,"▁ሚኒ":6144,"▁mìíràn":6145,"),":6146,"9o":6147,"DE":6148,"Re":6149,"kat":6150,"o.":6151,"var":6152,"wat":6153,"wọ̀n":6154,"yon":6155,"عا":6156,"وك":6157,"ሉም":6158,"ማን":6159,"eré":6160,"▁tl":6161,"▁bayi":6162,"▁yasan":6163,"▁ip":6164,"▁gt":6165,"▁gẹ́gẹ́":6166,"▁الز":6167,"isan":6168,"▁Mah":6169,"▁kafin":6170,"▁ìwọ":6171,"▁Tab":6172,"▁òjò":6173,"▁اب":6174,"▁24":6175,"▁200":6176,"▁Fa":6177,"▁حاجة":6178,"▁aru":6179,"▁cons":6180,"▁الحسيمة":6181,"▁sannan":6182,"▁y3n":6183,"▁صح":6184,"▁😁😁😁":6185,"▁Ariko":6186,"2019":6187,"88":6188,"oko":6189,"penda":6190,"res":6191,"ás":6192,"يم":6193,"መው":6194,"Ọ̀":6195,"▁🙆":6196,"▁mpo":6197,"▁ae":6198,"▁kẹ́":6199,"▁sah":6200,"▁wasa":6201,"▁old":6202,"un.":6203,"unge":6204,"▁cas":6205,"▁Ass":6206,"ayen":6207,"▁yaci":6208,"ya.":6209,"▁Mm":6210,"▁uzo":6211,"kea":6212,"▁This":6213,"ta,":6214,"▁aljan":6215,"▁ይሆ":6216,"▁Uyu":6217,"▁يخ":6218,"▁akayi":6219,"▁Pe":6220,"▁pelo":6221,"mud":6222,"▁ẹ̀dá":6223,"▁oru":6224,"▁mutun":6225,"▁شاء":6226,"▁والت":6227,"jua":6228,"▁hiya":6229,"▁igihe":6230,"▁አሜን":6231,"▁family":6232,"رلم":6233,"ሄር":6234,"ለያ":6235,"ሥት":6236,"ችል":6237,"ክር":6238,"💔💔":6239,"eral":6240,"▁nde":6241,"▁azu":6242,"▁daman":6243,"▁siri":6244,"▁gashi":6245,"▁eat":6246,"▁nabi":6247,"▁#a":6248,"hehe":6249,"▁jar":6250,"ukuru":6251,"▁ነፃ":6252,"▁TV":6253,"hoto":6254,"▁መሆን":6255,"aribu":6256,"\"\"\"\"\"\"\"\"@user:":6257,"fice":6258,"▁imani":6259,"▁ume":6260,"▁enwe":6261,"andan":6262,"zuzu":6263,"▁ganduje":6264,"▁المغربي":6265,"▁chang":6266,"▁prec":6267,"▁እንዳይ":6268,"▁suppose":6269,"▁tomorrow":6270,"▁ፕሮ":6271,"▁beautiful":6272,"22":6273,"ack":6274,"bam":6275,"cked":6276,"win":6277,"سو":6278,"كاش":6279,"ላማ":6280,"ላክ":6281,"ዋል።":6282,"▁آ":6283,"😋😋":6284,"😜😜":6285,"🙏🏻":6286,"▁mụ":6287,"▁kù":6288,"▁tò":6289,"▁tura":6290,"▁bn":6291,"▁wako":6292,"▁odogwu":6293,"▁iji":6294,"▁fight":6295,"▁ewe":6296,"akara":6297,"▁jó":6298,"▁ọlọ́run":6299,"▁àwòrán":6300,"▁Kuna":6301,"▁በነ":6302,"▁vis":6303,"▁لـ":6304,"wanya":6305,"▁alh":6306,"logo":6307,"▁óò":6308,"▁buh":6309,"▁peace":6310,"▁match":6311,"▁afri":6312,"▁Moçambique":6313,"▁Za":6314,"akanin":6315,"▁uku":6316,"amoto":6317,"bàdàn":6318,"ARA":6319,"▁yarda":6320,"▁ሁሉም":6321,"dding":6322,"pitia":6323,"▁problem":6324,"77":6325,"Angola":6326,"IF":6327,"gá":6328,"kt":6329,"pẹ̀":6330,"zam":6331,"فو":6332,"ላው":6333,"ሞች":6334,"በው":6335,"▁–":6336,"▁•":6337,"▁kusa":6338,"▁tsa":6339,"▁y’":6340,"▁icyo":6341,"▁lak":6342,"▁epo":6343,"▁najeriya":6344,"adar":6345,"▁yaji":6346,"▁አቶ":6347,"▁insha":6348,"▁season":6349,"ta.":6350,"▁gi,":6351,"▁تخ":6352,"▁sobre":6353,"▁comment":6354,"▁3.":6355,"▁este":6356,"▁حكومة":6357,"eribe":6358,"▁n'a":6359,"▁ግድ":6360,"▁okwa":6361,"▁ውይ":6362,"▁ኢትዮጵያዊ":6363,"▁Nwanyi":6364,"▁labarin":6365,"▁ekwe":6366,"oresha":6367,"▁halin":6368,"▁ሙስሊ":6369,"▁gyimie":6370,"▁nyinaa":6371,"▁Nsogbu":6372,"culture":6373,"dem":6374,"dìí":6375,"hab":6376,"jó":6377,"jọ̀":6378,"ning":6379,"w3":6380,"فض":6381,"وع":6382,"ልድ":6383,"ቃት":6384,"ተን":6385,"ጠቀ":6386,"▁nà":6387,"▁mr":6388,"▁dir":6389,"▁drink":6390,"▁samun":6391,"▁sbd":6392,"indo":6393,"▁would":6394,"▁gra":6395,"▁gini":6396,"as,":6397,"as.":6398,"ather":6399,"الية":6400,"▁nim":6401,"▁nima":6402,"▁የሌ":6403,"ye.":6404,"▁KA":6405,"▁በት":6406,"▁kawa":6407,"la,":6408,"▁mulh":6409,"▁going":6410,"tel":6411,"▁تش":6412,"▁read":6413,"▁ብት":6414,"▁ስን":6415,"▁èmi":6416,"▁ètò":6417,"▁n'o":6418,"▁estar":6419,"▁Haba":6420,"▁ታሪክ":6421,"🔥🔥🔥":6422,"hugu":6423,"▁wuce":6424,"▁Akwai":6425,"▁labari":6426,"▁#TweetYoruba":6427,"InYoruba":6428,"bọchị":6429,"▁nìkan":6430,"▁speak":6431,"▁sorry":6432,"ência":6433,"atulations":6434,"3o":6435,"IK":6436,"IT":6437,"o,":6438,"wom":6439,"ário":6440,"عل":6441,"በሩ":6442,"▁kik":6443,"▁dima":6444,"▁bor":6445,"▁born":6446,"▁hus":6447,"▁ev":6448,"bab":6449,"▁dec":6450,"▁nii":6451,"▁niba":6452,"▁daina":6453,"▁እራ":6454,"ingu":6455,"emb":6456,"▁በኋላ":6457,"▁kuh":6458,"▁vya":6459,"▁Tuna":6460,"ereza":6461,"▁لح":6462,"▁Con":6463,"▁ẹrú":6464,"▁Lagos":6465,"▁manta":6466,"▁thats":6467,"ashen":6468,"▁tsoron":6469,"▁Daalu":6470,"onsense":6471,"míràn":6472,"▁الوطن":6473,"😂🤣😂🤣":6474,"▁matsala":6475,"▁Imana":6476,"glish":6477,"▁ጌታ":6478,"UL":6479,"gn":6480,"lí":6481,"zar":6482,"ሞክራ":6483,"ነሳ":6484,"ግብ":6485,"ịrị":6486,"▁ፅ":6487,"▁ፋ":6488,"🚶‍♂️":6489,"▁nj":6490,"▁tut":6491,"ins":6492,"▁wọ̀":6493,"▁yay":6494,"▁fire":6495,"akun":6496,"▁Ari":6497,"ahu":6498,"▁የታ":6499,"lee":6500,"yeyi":6501,"os.":6502,"▁Oma":6503,"oup":6504,"ouch":6505,"▁Kama":6506,"▁SA":6507,"▁muyi":6508,"▁wanna":6509,"▁بلي":6510,"▁Ro":6511,"▁فر":6512,"▁تج":6513,"▁La":6514,"▁level":6515,"........":6516,"erica":6517,"▁hannu":6518,"▁ماشي":6519,"▁🙏🙏🙏":6520,"▁rahma":6521,"▁marry":6522,"▁check":6523,"▁cigaba":6524,"▁abuja":6525,"▁ikibazo":6526,"ports":6527,"▁thanks":6528,"▁Ahsante":6529,"▁2020":6530,"▁ምክር":6531,"▁blow":6532,"▁Oluwa":6533,"▁gwamnati":6534,"▁kullum":6535,"bat":6536,"gari":6537,"ته":6538,"ضي":6539,"ወቅ":6540,"▁ሐ":6541,"▁kake":6542,"▁tão":6543,"▁garin":6544,"▁hali":6545,"▁elé":6546,"الك":6547,"uren":6548,"estion":6549,"▁yaf":6550,"ith":6551,"▁dace":6552,"▁Mus":6553,"▁Mba":6554,"imin":6555,"▁Si":6556,"▁Bab":6557,"▁فم":6558,"sion":6559,"cket":6560,"▁teu":6561,"▁order":6562,"▁Chai":6563,"▁haram":6564,"lóhùn":6565,"▁wetu":6566,"▁ክፍ":6567,"▁የምን":6568,"fany":6569,"▁كيف":6570,"قيلا":6571,"▁ọkụ":6572,"▁mamaki":6573,"▁open":6574,"▁Olódùmarè":6575,"▁ቃል":6576,"▁homem":6577,"12":6578,"80":6579,"II":6580,"IL":6581,"Nigeria":6582,"zy":6583,"كرا":6584,"هل":6585,"ሃት":6586,"ርያ":6587,"ሳስ":6588,"ናገር":6589,"ገኙ":6590,"▁♪":6591,"▁😏😏":6592,"ango":6593,"▁kure":6594,"▁dade":6595,"▁sé":6596,"▁gsky":6597,"▁lina":6598,"▁ese":6599,"▁pia":6600,"esha":6601,"▁jah":6602,"igerian":6603,"lobal":6604,"mot":6605,"▁congr":6606,"▁أو":6607,"▁without":6608,"▁አንዱ":6609,"▁villa":6610,"▁دولة":6611,"ches":6612,"▁nyuma":6613,"▁hiyo":6614,"▁راه":6615,"▁50":6616,"▁bring":6617,"▁dúdú":6618,"▁ìtàn":6619,"▁mwiza":6620,"DP":6621,"lar":6622,"the":6623,"ws":6624,"تش":6625,"ምና":6626,"ዚያ":6627,"▁ዞ":6628,"▁✊":6629,"▁🤗":6630,"▁kiri":6631,"▁sama":6632,"▁jama":6633,"▁KU":6634,"▁Iki":6635,"▁مج":6636,"▁وش":6637,"▁ze":6638,"▁maz":6639,"▁kud":6640,"▁Ts":6641,"▁alk":6642,"▁ከነ":6643,"edụ":6644,"terday":6645,"giya":6646,"duli":6647,"▁المغاربة":6648,"يني":6649,"▁láàá":6650,"▁ọ̀pọ̀":6651,"▁adw":6652,"▁tele":6653,"▁za'a":6654,"▁coisa":6655,"▁daidai":6656,"▁shekara":6657,"▁afu":6658,"▁wọn.":6659,"ንግስት":6660,"ARS":6661,"▁فالم":6662,"▁gyara":6663,"▁igwe":6664,"▁sabe":6665,"▁k'á":6666,"▁#eka":6667,"▁yesterday":6668,"▁ከፍተኛ":6669,"67":6670,"a.":6671,"hen":6672,"كَ":6673,"ሄድ":6674,"ባር":6675,"▁Á":6676,"▁💪":6677,"▁nyan":6678,"▁nasi":6679,"▁aje":6680,"▁around":6681,"▁tẹ́":6682,"▁yara":6683,"▁igb":6684,"▁cal":6685,"alah":6686,"umin":6687,"▁አታ":6688,"▁Okwa":6689,"▁ọzọ":6690,"▁Só":6691,"▁Bir":6692,"▁بد":6693,"▁لب":6694,"▁ይገባ":6695,"guém":6696,"▁المس":6697,"thers":6698,"▁ብለህ":6699,"▁kíni":6700,"▁ምስ":6701,"▁agwu":6702,"eração":6703,"iroyin":6704,"▁التي":6705,"▁كلنا":6706,"▁swear":6707,"ወሓት":6708,"▁changamoto":6709,"EE":6710,"pere":6711,"qa":6712,"ubu":6713,"wata":6714,"ልኝ":6715,"ከር":6716,"ፖለቲካ":6717,"’a":6718,"✌️":6719,"▁dika":6720,"▁duka":6721,"▁tashi":6722,"▁swi":6723,"▁wla":6724,"▁ogb":6725,"▁odò":6726,"▁gree":6727,"▁hahaha":6728,"▁ed":6729,"▁eku":6730,"bag":6731,"▁rt":6732,"▁ya,":6733,"▁አረ":6734,"abwo":6735,"▁uche":6736,"▁ìwà":6737,"▁ነን":6738,"▁Tr":6739,"▁gidi":6740,"▁ከሚ":6741,"▁ات":6742,"▁shan":6743,"entar":6744,"▁láà":6745,"▁lead":6746,"áàfin":6747,"▁yìí.":6748,"ident":6749,"▁ገና":6750,"▁الجزائر":6751,"▁እያለ":6752,"▁musulmi":6753,"▁#Word":6754,"▁ههههه":6755,"▁ضد":6756,"endelea":6757,"▁matsalar":6758,"▁price":6759,"▁ዩኒቨ":6760,"▁remain":6761,"'in":6762,"-se":6763,"GE":6764,"ever":6765,"rar":6766,"sè":6767,"tun":6768,"wero":6769,"ís":6770,"ضية":6771,"ند":6772,"ንብ":6773,"ጠን":6774,"▁nz":6775,"▁dim":6776,"▁iche":6777,"▁ejo":6778,"badan":6779,"▁dede":6780,"ayé":6781,"heiro":6782,"ukwo":6783,"ukuri":6784,"gbọ":6785,"gbọ́":6786,"▁Ng":6787,"▁Kara":6788,"▁iná":6789,"▁maza":6790,"▁ìgbé":6791,"▁Egwu":6792,"▁Tí":6793,"▁Allah,":6794,"▁Ri":6795,"▁له":6796,"biba":6797,"▁عاش":6798,"▁ẹnì":6799,"▁ከዚህ":6800,"▁ficar":6801,"▁bude":6802,"▁liha":6803,"▁boko":6804,"▁hannun":6805,"▁police":6806,"▁Najeriya":6807,"▁chelsea":6808,"ይወት":6809,"OVID":6810,"▁ìbílẹ̀":6811,"faranga":6812,"bara":6813,"come":6814,"dọ́":6815,"jù":6816,"tẹ̀":6817,"vug":6818,"زو":6819,"ሬት":6820,"ናገ":6821,"ኔታ":6822,"የር":6823,"ያስ":6824,"ጠራ":6825,"▁̊":6826,"▁ዲ":6827,"▁😌":6828,"▁uka":6829,"▁😀😀":6830,"☹️":6831,"▁none":6832,"▁ola":6833,"▁lam":6834,"waye":6835,"umbu":6836,"▁Nai":6837,"▁zab":6838,"▁በል":6839,"imento":6840,"▁online":6841,"▁Babu":6842,"▁kuj":6843,"▁ነፍ":6844,"▁val":6845,"▁መጥ":6846,"\"\"\"\"\"\"\"\".":6847,"▁choro":6848,"▁kid":6849,"▁اك":6850,"ubw":6851,"▁العالم":6852,"▁Yau":6853,"▁Innalillahi":6854,"▁everything":6855,"friend":6856,"▁Ashe":6857,"▁kaduna":6858,"▁Jehovah":6859,"hammad":6860,"▁ǹjẹ́":6861,"DI":6862,"Tu":6863,"YE":6864,"cas":6865,"yì":6866,"yle":6867,"ò.":6868,"ùgbọ́n":6869,"أس":6870,"شر":6871,"ለማ":6872,"ሉን":6873,"ልፍ":6874,"ችው":6875,"የው":6876,"ዶች":6877,"ፍት":6878,"ẹn":6879,"▁😄":6880,"▁رب":6881,"▁ken":6882,"▁ton":6883,"▁sẹ́":6884,"▁oyin":6885,"▁yada":6886,"▁gl":6887,"unsi":6888,"enga":6889,"alth":6890,"aifa":6891,"▁àwa":6892,"▁مغرب":6893,"▁meet":6894,"▁òpó":6895,"▁ẹní":6896,"▁ይቅር":6897,"نات":6898,"▁umwana":6899,"▁ብዬ":6900,"ارج":6901,"▁Fi":6902,"▁conse":6903,"▁kasan":6904,"▁word":6905,"▁Kaji":6906,"▁ጠቅ":6907,"zzzz":6908,"▁lahira":6909,"▁gbólóhùn":6910,"tụtụ":6911,"▁gbọdọ̀":6912,"Expo":6913,"bt":6914,"bù":6915,"bẹ́":6916,"dom":6917,"owe":6918,"pool":6919,"tara":6920,"wù":6921,"yah":6922,"ziki":6923,"حو":6924,"ልጽ":6925,"ሰን":6926,"ቱም":6927,"ናንተ":6928,"ኤል":6929,"ግን":6930,"ጣል":6931,"▁😹😹":6932,"anar":6933,"▁nin":6934,"▁nós":6935,"▁kún":6936,"▁cam":6937,"enas":6938,"akon":6939,"▁naji":6940,"▁Ama":6941,"▁الل":6942,"gbẹ":6943,"abona":6944,"ouble":6945,"▁àá":6946,"▁uwe":6947,"▁mafi":6948,"▁Sub":6949,"▁Saboda":6950,"▁What":6951,"▁quero":6952,"▁Yana":6953,"انة":6954,"▁ẹsẹ̀":6955,"▁ይሆን":6956,"▁sol":6957,"▁Lma":6958,"ارب":6959,"ديو":6960,"▁أم":6961,"▁Oní":6962,"▁ልብ":6963,"▁funny":6964,"▁rice":6965,"▁rẹ̀.":6966,"▁ikú":6967,"▁ዘንድ":6968,"▁🤔🤔":6969,"▁shout":6970,"▁ነበር።":6971,"▁ሆይ":6972,"▁wọlé":6973,"▁gaske":6974,"▁kallon":6975,"furushi":6976,"RO":6977,"WU":6978,"book":6979,"fik":6980,"king":6981,"kuma":6982,"pf":6983,"son":6984,"thi":6985,"yín":6986,"قى":6987,"نمية":6988,"▁😉":6989,"👍👍":6990,"▁nen":6991,"▁mwa":6992,"▁aí":6993,"▁bri":6994,"arab":6995,"▁ore":6996,"▁gus":6997,"▁hon":6998,"▁làá":6999,"▁fut":7000,"▁cut":7001,"▁cust":7002,"▁cook":7003,"▁pah":7004,"▁الث":7005,"itsha":7006,"▁ni?":7007,"▁jee":7008,"▁በህ":7009,"▁ulo":7010,"▁inna":7011,"▁ìwọ́":7012,"▁ìmọ̀":7013,"chin":7014,"▁Tem":7015,"▁HA":7016,"▁differ":7017,"allam":7018,"▁lock":7019,"▁rela":7020,"ànà":7021,"▁ያሳ":7022,"▁Para":7023,"▁المت":7024,"▁saba":7025,"ghar":7026,"▁shekar":7027,"▁ደስ":7028,"▁العرب":7029,"ational":7030,"▁إن":7031,"▁Ifá":7032,"▁የነበረ":7033,"▁kolchi":7034,"▁Tanzania":7035,"BU":7036,"Ni":7037,"To":7038,"dị":7039,"ec":7040,"خب":7041,"ከው":7042,"▁🎵":7043,"🙏🏽":7044,"▁nda":7045,"▁ncha":7046,"▁aik":7047,"▁bama":7048,"▁fì":7049,"▁city":7050,"▁ped":7051,"urt":7052,"▁jus":7053,"▁የሀ":7054,"▁የኔ":7055,"ukar":7056,"▁Malam":7057,"▁àṣẹ":7058,"haa":7059,"▁vão":7060,"▁Eni":7061,"▁Than":7062,"igan":7063,"▁يد":7064,"▁ያው":7065,"alace":7066,"▁tsakanin":7067,"▁banda":7068,"??????":7069,"▁gbaa":7070,"▁lọ,":7071,"▁رج":7072,"ችሁን":7073,"▁واقيلا":7074,"▁ዘመን":7075,"▁علاش":7076,"frican":7077,"risto":7078,"▁اليوم":7079,"!'":7080,"60":7081,"GU":7082,"bghi":7083,"cti":7084,"iṣẹ́":7085,"wak":7086,"èdè":7087,"ሃል":7088,"ምት":7089,"ቀጥ":7090,"ዳር":7091,"▁ኖ":7092,"▁😹":7093,"▁nana":7094,"▁mmo":7095,"▁atu":7096,"▁dariya":7097,"▁soro":7098,"▁boo":7099,"▁wali":7100,"ar,":7101,"▁osi":7102,"الب":7103,"▁rò":7104,"adas":7105,"adáa":7106,"▁yaj":7107,"▁yazo":7108,"▁የራ":7109,"ought":7110,"▁وع":7111,"▁udo":7112,"▁todo":7113,"▁maghribi":7114,"▁Elé":7115,"▁gbuo":7116,"▁question":7117,"▁asem":7118,"▁comm":7119,"▁akpo":7120,"▁move":7121,"▁'yan":7122,"▁ready":7123,"▁shit":7124,"alau":7125,"▁نيش":7126,"▁የሚለው":7127,"لهم":7128,"ínú":7129,"ward":7130,"▁nkea":7131,"▁nanso":7132,"ishy":7133,"▁actu":7134,"▁ሁኔታ":7135,"▁obì":7136,"🙏🙏🙏🙏":7137,"▁na-e":7138,"▁lẹ́nu":7139,"▁warri":7140,"ኛውም":7141,"▁shugaba":7142,"▁Arewa":7143,"ሞክራሲ":7144,"HI":7145,"PA":7146,"jam":7147,"nah":7148,"por":7149,"pia":7150,"té":7151,"yana":7152,"ናው":7153,"ፈን":7154,"▁_":7155,"▁swa":7156,"▁set":7157,"▁biri":7158,"▁ipinle":7159,"▁gaban":7160,"▁geração":7161,"▁ly":7162,"▁lallai":7163,"▁eche":7164,"ba,":7165,"▁ram":7166,"▁deve":7167,"ures":7168,"▁الفا":7169,"▁dauka":7170,"▁Nt":7171,"▁Mal":7172,"▁Ilé":7173,"▁Bá":7174,"▁Bom":7175,"▁sey":7176,"▁Tun":7177,"▁níbi":7178,"ziza":7179,"▁تن":7180,"▁ين":7181,"▁'አ":7182,"▁esi":7183,"verpool":7184,"هاد":7185,"ليل":7186,"▁ọmọdé":7187,"▁سب":7188,"▁.@user":7189,"▁rich":7190,"▁dukkan":7191,"▁broke":7192,"▁bụrụ":7193,"▁😭😭😭😭":7194,"▁ghana":7195,"▁ዓመት":7196,"▁هههههه":7197,"▁imagine":7198,"▁yàtọ̀":7199,"wasili":7200,"▁drop":7201,"▁ምክንያት":7202,"▁times":7203,"▁nunca":7204,"▁نيشان":7205,"RI":7206,"bum":7207,"lor":7208,"ner":7209,"ys":7210,"سيا":7211,"صا":7212,"ضر":7213,"قسي":7214,"ለጠ":7215,"ልህ":7216,"ቡን":7217,"ዘብ":7218,"ዱስ":7219,"ገሪ":7220,"▁ún":7221,"▶️":7222,"▁nat":7223,"▁nsi":7224,"▁aja":7225,"▁sit":7226,"▁oji":7227,"▁ive":7228,"▁cli":7229,"onte":7230,"▁የደ":7231,"▁N'":7232,"▁Ogun":7233,"▁وخ":7234,"▁ìran":7235,"▁kupata":7236,"▁kupitia":7237,"tag":7238,"▁amo":7239,"▁لله":7240,"▁Wato":7241,"▁تو":7242,"▁Ubu":7243,"▁fih":7244,"sapp":7245,"▁kant":7246,"▁rec":7247,"▁Fo":7248,"▁yìí,":7249,"ابة":7250,"ابات":7251,"▁dáadáa":7252,"yànjú":7253,"▁apem":7254,"▁ገብ":7255,"يلة":7256,"ደረገ":7257,"uuuu":7258,"▁ay3":7259,"▁Kíni":7260,"▁followers":7261,"▁labar":7262,"▁looking":7263,"▁የትግራይ":7264,"▁rayuwar":7265,"▁remember":7266,"▁العدالة":7267,"▁hustle":7268,"BÁ":7269,"Le":7270,"fò":7271,"fatan":7272,"hd":7273,"má":7274,"p3":7275,"s.":7276,"أن":7277,"تها":7278,"طر":7279,"قرا":7280,"ለጫ":7281,"ሙሉ":7282,"ስን":7283,"ጋት":7284,"▁duni":7285,"▁wl":7286,"▁yet":7287,"▁hy":7288,"▁l7":7289,"oria":7290,"asy":7291,"▁club":7292,"▁pare":7293,"ated":7294,"ahoro":7295,"▁rin":7296,"▁rasa":7297,"ikor":7298,"▁jir":7299,"▁የብ":7300,"▁አሸ":7301,"▁Nàìjíríà":7302,"▁Kam":7303,"▁مست":7304,"▁once":7305,"▁kuyi":7306,"ered":7307,"ige":7308,"godu":7309,"tele":7310,"▁ከማ":7311,"▁ያሉ":7312,"atizo":7313,"▁نج":7314,"kuu":7315,"ínlẹ̀":7316,"▁ደም":7317,"▁funfun":7318,"▁wonder":7319,"▁byose":7320,"▁trend":7321,"▁trabal":7322,"▁eré":7323,"▁nasan":7324,"▁kọjá":7325,"▁strong":7326,"▁ሙሉ":7327,"وليس":7328,"▁black":7329,"▁yakawo":7330,"47":7331,"geni":7332,"ress":7333,"s,":7334,"èè":7335,"عية":7336,"وض":7337,"ለይ":7338,"በብ":7339,"ጥታ":7340,"▁😩":7341,"😊😊":7342,"▁net":7343,"▁nonsense":7344,"▁sùn":7345,"▁bana":7346,"▁yu":7347,"▁iro":7348,"urar":7349,"▁ọg":7350,"▁Kin":7351,"▁IN":7352,"▁zam":7353,"▁into":7354,"▁mach":7355,"▁secon":7356,"▁gobe":7357,"▁amor":7358,"igali":7359,"arifa":7360,"▁alguém":7361,"▁soy":7362,"▁suyi":7363,"▁كنت":7364,"▁kii":7365,"▁13":7366,"▁ọ̀run":7367,"▁teach":7368,"muo":7369,"😂😂😂😂😂":7370,"▁#Ojo":7371,"▁dinheiro":7372,"▁acikin":7373,"▁🤣🤣🤣🤣🤣🤣":7374,"▁girma":7375,"▁راك":7376,"▁#Rwanda":7377,"▁ajé":7378,"nywood":7379,"▁olorun":7380,"▁#TweetInYoruba":7381,"▁አሁንም":7382,"________________":7383,"▁ፖለቲካ":7384,"▁tsohon":7385,"▁Ubangiji":7386,"ላከያ":7387,"▁Igwe":7388,"▁nitori":7389,"11":7390,"3i":7391,"De":7392,"IV":7393,"gaban":7394,"سية":7395,"صد":7396,"ራሽ":7397,"ደብ":7398,"ṣò":7399,"▁ጽ":7400,"anan":7401,"▁nik":7402,"▁nzuzu":7403,"▁awọn":7404,"▁away":7405,"▁dik":7406,"▁bọ":7407,"▁wash":7408,"▁gọ":7409,"▁gahunda":7410,"▁huta":7411,"▁hung":7412,"▁lem":7413,"▁eti":7414,"▁eee":7415,"▁የባ":7416,"▁አድ":7417,"▁Okwu":7418,"▁በሀ":7419,"la.":7420,"▁wane":7421,"ried":7422,"▁tipo":7423,"▁Corona":7424,"▁يكون":7425,"لاح":7426,"▁commot":7427,"▁akai":7428,"àní":7429,"▁اش":7430,"ative":7431,"▁ṣeun":7432,"▁ብለው":7433,"▁ọ̀hún":7434,"▁stat":7435,"▁እናንተ":7436,"▁prime":7437,"▁ባይ":7438,"▁pick":7439,"▁gwam":7440,"aaaaaaaa":7441,"press":7442,"▁dupe":7443,"▁ፍቅር":7444,"▁b3n":7445,"InAngola":7446,"▁غاض":7447,"gyimi":7448,"▁brain":7449,"zzau":7450,"▁ተማሪዎች":7451,"▁#EndS":7452,"▁akwukwo":7453,"▁#Isese":7454,"▁#WordExpo":7455,"SA":7456,"bora":7457,"hana":7458,"jwe":7459,"ሻል":7460,"ጅት":7461,"▁ሂ":7462,"▁ሶ":7463,"▁msa":7464,"▁afa":7465,"▁kadan":7466,"unwa":7467,"asho":7468,"▁pens":7469,"▁الض":7470,"▁እረ":7471,"le,":7472,"▁Ohun":7473,"▁àkọ́":7474,"read":7475,"▁Sha":7476,"▁ìjà":7477,"▁being":7478,"down":7479,"▁koda":7480,"▁Ye":7481,"cil":7482,"yobozi":7483,"▁wote":7484,"ower":7485,"▁المش":7486,"enty":7487,"▁siyasa":7488,"▁22":7489,"▁أخ":7490,"▁ẹ̀mí":7491,"vido":7492,"▁raina":7493,"▁matar":7494,"▁mutuwa":7495,"▁እንደሆነ":7496,"▁جم":7497,"▁kúrò":7498,"▁nwanyị":7499,"▁#Esin":7500,"ANA":7501,"▁mma.":7502,"▁እስኪ":7503,"▁እንዴ?":7504,"▁respon":7505,"▁kubera":7506,"▁2019":7507,"▁voice":7508,"▁gaskia":7509,"▁reply":7510,"màrè":7511,"▁Ututu":7512,"ይማኖት":7513,"▁#WordExpoInAngola":7514,"▁#EsinOro":7515,"18":7516,"Igbo":7517,"dam":7518,"pan":7519,"vor":7520,"ላሉ":7521,"ላፊ":7522,"ማይ":7523,"በቃ":7524,"ብረት":7525,"ንታ":7526,"አዴ":7527,"ጋል":7528,"ጠይ":7529,"▁«":7530,"▁era":7531,"uss":7532,"usan":7533,"▁twi":7534,"▁byo":7535,"▁yaya":7536,"▁gare":7537,"▁hay":7538,"▁hata":7539,"▁lim":7540,"▁fá":7541,"▁cutar":7542,"▁prin":7543,"enti":7544,"▁#iroyin":7545,"ikana":7546,"umba":7547,"▁yaga":7548,"▁የለው":7549,"ista":7550,"▁meye":7551,"wee":7552,"▁ubochi":7553,"▁ìl":7554,"▁El":7555,"▁aburo":7556,"▁ami":7557,"▁amaka":7558,"▁لن":7559,"▁يست":7560,"▁akpa":7561,"▁office":7562,"▁'እ":7563,"▁ወዳ":7564,"▁hea":7565,"▁rage":7566,"hhhhh":7567,"▁ooooo":7568,"▁music":7569,"▁ድም":7570,"not":7571,"▁ụbọchị":7572,"▁everybody":7573,"▁abinci":7574,"▁umunsi":7575,"▁بلاد":7576,"▁yasin":7577,"▁káàárọ̀":7578,"▁custom":7579,"▁yajikan":7580,"90":7581,"cce":7582,"gà":7583,"mer":7584,"yẹ́":7585,"yama":7586,"çar":7587,"ɛm":7588,"ثل":7589,"جت":7590,"دين":7591,"سر":7592,"لت":7593,"مات":7594,"አት":7595,"ጠል":7596,"ṣí":7597,"▁😆":7598,"▁ناس":7599,"🏃‍♂️":7600,"😒😒":7601,"🙌🏾":7602,"▁nass":7603,"▁mumu":7604,"▁aunty":7605,"▁kim":7606,"▁kpa":7607,"▁tro":7608,"▁tamu":7609,"▁sign":7610,"▁lb":7611,"orship":7612,"onat":7613,"▁Aw":7614,"ba.":7615,"baye":7616,"▁red":7617,"▁የለ":7618,"isu":7619,"issa":7620,"▁OL":7621,"▁Od":7622,"▁ba'a":7623,"▁በወ":7624,"▁ud":7625,"▁kain":7626,"▁onde":7627,"▁bee":7628,"▁iskan":7629,"▁تكون":7630,"geze":7631,"▁umut":7632,"▁share":7633,"pping":7634,"▁learn":7635,"▁25":7636,"▁kaman":7637,"▁maso":7638,"▁البرلم":7639,"▁الاست":7640,"ooooo":7641,"dinin":7642,"▁cy'":7643,"🇳🇬🇳🇬":7644,"▁Ẹ̀yin":7645,"🤔🤔🤔":7646,"▁ጀግና":7647,"▁scam":7648,"pọlọ":7649,"thiop":7650,"At":7651,"dín":7652,"gur":7653,"hum":7654,"lina":7655,"làá":7656,"yer":7657,"طل":7658,"غل":7659,"ላል።":7660,"መረ":7661,"መራ":7662,"ረኛ":7663,"ገኛ":7664,"▁►":7665,"▁😘":7666,"▁ኦሮሞ":7667,"🇷🇼":7668,"▁ntu":7669,"▁tum":7670,"▁wam":7671,"▁waya":7672,"▁opp":7673,"▁osu":7674,"▁yall":7675,"▁yetu":7676,"▁gom":7677,"▁hàn":7678,"الح":7679,"▁nab":7680,"▁yawan":7681,"itos":7682,"▁daban":7683,"tting":7684,"▁NI":7685,"▁Kandi":7686,"ia.":7687,"▁በግ":7688,"▁kau":7689,"▁ones":7690,"rigado":7691,"▁لكن":7692,"▁thr":7693,"▁እንድ":7694,"nap":7695,"▁hauka":7696,"entes":7697,"ùnrin":7698,"▁هد":7699,"▁ትር":7700,"▁ትምህርት":7701,"▁foto":7702,"▁العام":7703,"▁🙏🏾":7704,"▁#yoruba,":7705,"isie":7706,"▁whole":7707,"▁sarkin":7708,"yẹn":7709,"▁yẹn":7710,"▁musulmai":7711,"▁falar":7712,"▁hmmm":7713,"▁ẹranko":7714,"▁Maputo,":7715,"▁láàárín":7716,"-ì":7717,"27":7718,"3t":7719,"On":7720,"au":7721,"e,":7722,"gì":7723,"ns":7724,"ህር":7725,"ላችን":7726,"ርሲ":7727,"ክስ":7728,"የን":7729,"▁mos":7730,"▁dikwa":7731,"▁tv":7732,"▁simu":7733,"▁basa":7734,"▁wame":7735,"▁yari":7736,"▁yaran":7737,"▁eyes":7738,"atun":7739,"الله":7740,"▁AN":7741,"▁dest":7742,"urú":7743,"▁nie":7744,"▁NP":7745,"▁Nta":7746,"▁met":7747,"▁በቃ":7748,"reci":7749,"▁ìf":7750,"▁ìkàn":7751,"chukwu":7752,"▁ṣì":7753,"▁òrìṣà":7754,"▁ẹgbẹ́":7755,"▁እንግ":7756,"▁al'":7757,"▁social":7758,"▁akh":7759,"▁gajo":7760,"low":7761,"▁ያህል":7762,"▁ወሬ":7763,"يري":7764,"▁ማህ":7765,"▁concer":7766,"▁agwa":7767,"omeza":7768,"▁pol":7769,"▁nk'":7770,"gbuo":7771,"▁job":7772,"▁room":7773,"▁akeyi":7774,"▁terra":7775,"▁ajá":7776,"▁تحية":7777,"▁while":7778,"▁كانت":7779,"▁obula":7780,"▁ojumo":7781,"ẹ̀ẹ́sì":7782,"▁Alham":7783,"▁ትንሽ":7784,"▁Subhan":7785,"▁#iroyin,":7786,"onathan":7787,"-an":7788,"17":7789,"3d":7790,"UU":7791,"ball":7792,"bìnrin":7793,"fs":7794,"غير":7795,"ንደር":7796,"ያው":7797,"ጠና":7798,"▁ሱ":7799,"▁ቴ":7800,"▁🇲🇿":7801,"▁nm":7802,"▁kẹ":7803,"▁sla":7804,"▁suma":7805,"▁wab":7806,"▁yaki":7807,"▁igbó":7808,"▁ijoba":7809,"▁link":7810,"▁eto":7811,"ukin":7812,"▁አጋ":7813,"▁anno":7814,"▁Olo":7815,"▁àgbẹ̀":7816,"▁በም":7817,"▁በው":7818,"▁inu":7819,"▁wanke":7820,"▁godiya":7821,"▁amman":7822,"▁برك":7823,"▁ne,":7824,"▁عا":7825,"▁YOR":7826,"انون":7827,"▁Good":7828,"cion":7829,"▁يش":7830,"▁mot":7831,"▁kansa":7832,"▁espe":7833,"▁Lallai":7834,"▁ተራ":7835,"▁short":7836,"▁save":7837,"▁lih":7838,"▁ọ̀kan":7839,"▁ọ̀rẹ́":7840,"▁hold":7841,"▁أنا":7842,"▁talla":7843,"▁ልጆች":7844,"▁Anambra":7845,"▁ባል":7846,"▁“@user:":7847,"▁Èyí":7848,"▁ካለ":7849,"▁ayọ̀":7850,"▁everywhere":7851,"▁المغربية":7852,"▁err":7853,"▁የሚያስ":7854,"سبانيا":7855,"▁ọkùnrin":7856,"▁ያለውን":7857,"▁vocês":7858,"▁block":7859,"▁kabisa":7860,"▁problema":7861,"▁adịghị":7862,"celona":7863,"mìnira":7864,"dulillah":7865,"-o":7866,"3r":7867,"9t":7868,"BS":7869,"Ch":7870,"SI":7871,"late":7872,"rọ́":7873,"sù":7874,"ças":7875,"حر":7876,"ልክ":7877,"ረድ":7878,"ርቶ":7879,"ሳችሁ":7880,"ታይ":7881,"ከት":7882,"ዲህ":7883,"ጠፋ":7884,"▁😃":7885,"▁🙂":7886,"▁mand":7887,"▁tub":7888,"▁bala":7889,"▁ozu":7890,"▁hukun":7891,"▁lose":7892,"▁fadi":7893,"▁calm":7894,"▁past":7895,"eno":7896,"▁Ac":7897,"umọ̀":7898,"▁nobody":7899,"▁mehn":7900,"reja":7901,"▁settle":7902,"▁TA":7903,"ighi":7904,"▁بسب":7905,"sel":7906,"▁تت":7907,"▁3ar":7908,"▁suffer":7909,"▁كاش":7910,"▁اس":7911,"▁المع":7912,"▁sínú":7913,"▁adú":7914,"▁story":7915,"▁conhe":7916,"▁قد":7917,"▁baban":7918,"mmm":7919,"▁Annabi":7920,"▁nkem":7921,"▁ድረስ":7922,"▁qar":7923,"nugu":7924,"▁hadchi":7925,"▁Èmi":7926,"▁#igbo":7927,"dùmàrè":7928,"▁burú":7929,"▁ናት":7930,"▁kwanu":7931,"▁ɛyɛ":7932,"باح":7933,"▁musulunci":7934,"▁Rahma":7935,"رحم":7936,"▁sharp":7937,"▁tired":7938,"▁kutoka":7939,"▁picture":7940,"'o":7941,"-19":7942,"200":7943,"7a":7944,"DU":7945,"FM":7946,"bọ́":7947,"gle":7948,"tẹ́":7949,"حق":7950,"قب":7951,"هدي":7952,"وة":7953,"وى":7954,"وية":7955,"ሞት":7956,"ተት":7957,"ኑን":7958,"ዋር":7959,"ọmọ":7960,"▁)":7961,"▁uto":7962,"▁.....":7963,"▁dari":7964,"aria":7965,"▁ode":7966,"▁odo":7967,"▁lọ́nà":7968,"▁eg":7969,"asia":7970,"amman":7971,"▁paaa":7972,"endi":7973,"akuwa":7974,"▁Ade":7975,"irwe":7976,"▁የገ":7977,"▁የኦሮሞ":7978,"▁አክ":7979,"osh":7980,"oul":7981,"▁مخ":7982,"▁ملك":7983,"▁ولي":7984,"til":7985,"we,":7986,"wezi":7987,"▁zabe":7988,"▁wa7":7989,"▁Bro":7990,"zaf":7991,"▁Yar":7992,"▁Yayi":7993,"▁fiha":7994,"▁coming":7995,"koun":7996,"ters":7997,"▁كيران":7998,"▁esp":7999,"▁law":8000,"▁united":8001,"ashaka":8002,"▁yie":8003,"▁jiya":8004,"▁#Or":8005,"▁kats":8006,"kòó":8007,"▁هاذ":8008,"▁ኢትዮጵያን":8009,"▁lẹ́hìn":8010,"▁Essa":8011,"▁هههههههه":8012,"▁eniyan":8013,"▁news":8014,"yájọ́":8015,"▁Olorun":8016,"▁tabbatar":8017,"▁ዜና":8018,"▁mafita":8019,"▁oyibo":8020,"▁village":8021,"JI":8022,"Su":8023,"ption":8024,"éèrè":8025,"ህና":8026,"ወዳ":8027,"ጤና":8028,"🇦🇹":8029,"🇩🇿":8030,"👌👌":8031,"▁nga":8032,"▁afe":8033,"▁kira":8034,"▁date":8035,"▁tam":8036,"▁o?":8037,"▁fem":8038,"enin":8039,"▁rak":8040,"urik":8041,"▁daa":8042,"yau":8043,"abin":8044,"ye,":8045,"▁Oro":8046,"▁àlà":8047,"▁Ká":8048,"▁Ile":8049,"▁Ime":8050,"▁media":8051,"▁በኢትዮጵያ":8052,"▁inf":8053,"▁mub":8054,"▁Ex":8055,"tagram":8056,"▁amu":8057,"▁تي":8058,"▁alm":8059,"▁Unu":8060,"▁اع":8061,"▁الموا":8062,"▁ወር":8063,"▁shiru":8064,"▁èrò":8065,"▁stand":8066,"▁أك":8067,"▁سيا":8068,"rande":8069,"▁ماكاش":8070,"▁proud":8071,"▁náà,":8072,"▁rẹ̀,":8073,"▁🤣🤣🤣🤣🤣":8074,"▁yakai":8075,"▁orílẹ̀":8076,"▁عليها":8077,"ለሁ።":8078,"▁ኢዜማ":8079,"▁women":8080,"▁president":8081,"▁ጨዋ":8082,"▁#Yorùbá":8083,"▁gwamnatin":8084,"▁በሰላም":8085,"▁ilaihi":8086,"▁ጦርነት":8087,"▁smile":8088,"▁ይሆናል":8089,"▁through":8090,"-ún":8091,"16":8092,"KE":8093,"Lo":8094,"cation":8095,"gẹ̀":8096,"ler":8097,"pid":8098,"جة":8099,"حب":8100,"رم":8101,"ለኛ":8102,"ሰጥ":8103,"ቢይ":8104,"ብይ":8105,"ኩት":8106,"ዎን":8107,"ጉት":8108,"ግሬ":8109,"▁ፎ":8110,"▁፤":8111,"▁‘":8112,"▁mã":8113,"▁mbi":8114,"▁mpa":8115,"▁bhal":8116,"▁iwo":8117,"▁ite":8118,"▁icy":8119,"▁gye":8120,"▁l9":8121,"▁farin":8122,"▁eyi":8123,"▁etí":8124,"ath":8125,"alá":8126,"alci":8127,"▁ré":8128,"▁الان":8129,"▁jesus":8130,"▁አሰ":8131,"▁Mma":8132,"oodua":8133,"▁Ise":8134,"imba":8135,"▁uwan":8136,"▁kaf":8137,"▁indi":8138,"▁mace":8139,"▁kup":8140,"hot":8141,"raẹni":8142,"▁Des":8143,"▁ne?":8144,"do,":8145,"▁Hahaha":8146,"▁dodo":8147,"to.":8148,"▁3and":8149,"▁myself":8150,"▁ṣe.":8151,"gize":8152,"▁sauki":8153,"pel":8154,"▁نس":8155,"▁karfin":8156,"▁iberibe":8157,"▁sanda":8158,"ورو":8159,"▁pior":8160,"▁ዘር":8161,"▁إلى":8162,"▁será":8163,"▁kayn":8164,"▁stress":8165,"werri":8166,"jẹ̀bú":8167,"▁hamwe":8168,"▁olúwa":8169,"▁titun":8170,"aturday":8171,"▁ankasa":8172,"thiopia":8173,"25":8174,"Ha":8175,"mù":8176,"só":8177,"tú":8178,"wari":8179,"zigo":8180,"تني":8181,"رش":8182,"صة":8183,"ظر":8184,"فق":8185,"መና":8186,"ሱም":8187,"ቷል":8188,"ጠረ":8189,"’m":8190,"▁ፌ":8191,"▁💯":8192,"anci":8193,"▁a.":8194,"▁aaa":8195,"▁dán":8196,"▁iga":8197,"▁iru":8198,"▁fus":8199,"ambu":8200,"▁pin":8201,"waa":8202,"wahi":8203,"▁Africa":8204,"bah":8205,"▁rir":8206,"▁def":8207,"▁deli":8208,"adai":8209,"▁አጥ":8210,"embe":8211,"▁indai":8212,"▁Br":8213,"▁ìgb":8214,"▁ìfẹ́":8215,"▁mudai":8216,"quer":8217,"▁belie":8218,"▁Cong":8219,"▁Hari":8220,"▁hapa":8221,"▁compr":8222,"▁relation":8223,"▁LA":8224,"▁umur":8225,"▁shin":8226,"duwa":8227,"▁ወቅ":8228,"siya":8229,"▁نب":8230,"▁حزب":8231,".......":8232,"▁karo":8233,"▁conta":8234,"▁covid":8235,"▁harda":8236,"▁disse":8237,"▁العم":8238,"▁plan":8239,"▁masha":8240,"▁feliz":8241,"▁ክብር":8242,"▁Daalụ":8243,"▁“ال":8244,"▁Kawai":8245,"▁ገን":8246,"kòrò":8247,"ንድር":8248,"▁Abun":8249,"▁kinyi":8250,"▁olórí":8251,"▁ቅዱስ":8252,"▁laifin":8253,"▁lokaci":8254,"▁rántí":8255,"òótọ́":8256,"▁àgbáyé":8257,"▁جديدة":8258,"▁msaada":8259,"ርሲቲ":8260,"24":8261,"49":8262,"Ab":8263,"KI":8264,"Ojo":8265,"PL":8266,"don":8267,"dir":8268,"ffic":8269,"jum":8270,"yir":8271,"you":8272,"yata":8273,"بية":8274,"ሜሪካ":8275,"ንደ":8276,"ወር":8277,"ዋን":8278,"ገነ":8279,"ṣu":8280,"▁ú":8281,"▁ዐ":8282,"▁😕":8283,"▁ere":8284,"eran":8285,"▁non":8286,"▁gha":8287,"▁gún":8288,"▁gost":8289,"▁eii":8290,"▁camp":8291,"▁pan":8292,"akw":8293,"▁Ali":8294,"hem":8295,"▁አቀ":8296,"▁dae":8297,"▁May":8298,"▁Om":8299,"▁Oo":8300,"▁ọjọ":8301,"▁Idi":8302,"▁baada":8303,"▁told":8304,"ka,":8305,"▁ነዋ":8306,"quanto":8307,"▁መብ":8308,"▁ne.":8309,"do.":8310,"▁Como":8311,"▁تس":8312,"▁GI":8313,"▁ለህ":8314,"▁ለም":8315,"▁chair":8316,"▁mil":8317,"▁ወጣ":8318,"▁kwir":8319,"▁under":8320,"▁orun":8321,"▁ndio":8322,"▁ግለ":8323,"▁ግዜ":8324,"▁شكرا":8325,"▁sune":8326,"▁sunyi":8327,"▁ትክ":8328,"▁fresh":8329,"▁اللهم":8330,"▁munaf":8331,"▁outro":8332,"ደረግ":8333,"▁Yorùbá.":8334,"▁faru":8335,"▁gyim":8336,"▁saber":8337,"▁normal":8338,"▁#Mo":8339,"usic":8340,"irango":8341,"▁#owe":8342,"▁ሕዝብ":8343,"▁tunaomba":8344,"جلس":8345,"ternal":8346,"▁estava":8347,"ondon":8348,"▁Sarki":8349,"▁púpọ̀":8350,"▁kiyaye":8351,"inguém":8352,"▁different":8353,"70":8354,"7al":8355,"Th":8356,"away":8357,"bir":8358,"band":8359,"ebi":8360,"f9":8361,"fashe":8362,"pas":8363,"tún":8364,"tàn":8365,"ÃO":8366,"ÙBÁ":8367,"باب":8368,"حن":8369,"زيد":8370,"ሆና":8371,"ለመ":8372,"ልና":8373,"ባይ":8374,"ቹን":8375,"ንስ":8376,"ጠቅ":8377,"▁ጅ":8378,"▁👏👏":8379,"🤭🤭":8380,"▁kah":8381,"▁der":8382,"▁dana":8383,"▁tatizo":8384,"▁wish":8385,"▁oso":8386,"▁yn":8387,"▁ide":8388,"▁irun":8389,"▁lug":8390,"▁fẹ":8391,"▁fọ́":8392,"akh":8393,"▁ró":8394,"▁rìn":8395,"urch":8396,"▁السي":8397,"▁የፈ":8398,"gbọn":8399,"▁Nem":8400,"▁Nig":8401,"▁Messi":8402,"▁Oge":8403,"▁àfi":8404,"▁toda":8405,"▁ነጋ":8406,"▁ነበረ":8407,"▁Ego":8408,"▁Allahu":8409,"▁لع":8410,"wane":8411,"▁Hak":8412,"▁akp":8413,"▁kankan":8414,"ناء":8415,"▁saying":8416,"▁21":8417,"▁ማለ":8418,"▁حس":8419,"ነትን":8420,"وني":8421,"vie":8422,"▁ahubwo":8423,"▁Anya":8424,"▁خير":8425,"▁dinnan":8426,"▁zaiyi":8427,"▁worry":8428,"▁girman":8429,"▁ጋዜ":8430,"🙄🙄🙄":8431,"▁40":8432,"▁m3ak":8433,"▁nasara":8434,"▁yɛn":8435,"علابالي":8436,"منى":8437,"▁itace":8438,"▁2012":8439,"▁namor":8440,"sinmi":8441,"ኦሮሚያ":8442,"▁league":8443,"▁hoton":8444,"▁wadai":8445,"times":8446,"▁ìyàwó":8447,"ristmas":8448,"▁መሆኑን":8449,"▁alheri":8450,"ልጽግና":8451,"'re":8452,"28":8453,"BN":8454,"CA":8455,"La":8456,"OW":8457,"but":8458,"hind":8459,"kwe":8460,"mana":8461,"tọ":8462,"wl":8463,"yán":8464,"égún":8465,"وش":8466,"ሊስ":8467,"ላላ":8468,"ሪዎች":8469,"ሳቸው":8470,"ብህ":8471,"ንቅ":8472,"ክንድር":8473,"ወሰ":8474,"ፋር":8475,"Ẹ́":8476,"▁👀":8477,"▁mati":8478,"▁khe":8479,"▁dah":8480,"▁dur":8481,"▁dom":8482,"▁thi":8483,"▁wurin":8484,"▁lpy":8485,"▁ehh":8486,"ating":8487,"alẹ̀":8488,"▁jú":8489,"▁jiri":8490,"▁daalu":8491,"▁Oba":8492,"▁ọbụ":8493,"▁àsìkò":8494,"▁zin":8495,"▁ugbu":8496,"▁dias":8497,"▁تم":8498,"▁Gan":8499,"▁ከባ":8500,"▁Uma":8501,"▁ለተ":8502,"▁kan,":8503,"▁chọrọ":8504,"very":8505,"راك":8506,"▁used":8507,"▁addinin":8508,"▁tsin":8509,"▁شعب":8510,"▁yio":8511,"▁poder":8512,"▁okay":8513,"▁الحق":8514,"▁plz":8515,"▁watan":8516,"▁Daga":8517,"▁#Ede":8518,"▁joke":8519,"idade":8520,"▁outros":8521,"▁wayo":8522,"▁رائ":8523,"▁perder":8524,"síraẹni":8525,"▁#Global":8526,"▁#Pr":8527,"وووو":8528,"▁Isso":8529,"▁وزير":8530,"▁wrong":8531,"work":8532,"ጠበቅ":8533,"▁government":8534,"▁Assim":8535,"▁ìkànsíraẹni":8536,".\"\"\"\"\"\"\"\"":8537,"No":8538,"bɛ":8539,"den":8540,"gs":8541,"ges":8542,"land":8543,"lori":8544,"mir":8545,"med":8546,"tle":8547,"wuru":8548,"بد":8549,"عات":8550,"وه":8551,"ሰር":8552,"ቂያ":8553,"ብኝ":8554,"ዋት":8555,"▁ẹ́":8556,"▁aza":8557,"▁tes":8558,"▁sún":8559,"▁ira":8560,"▁hate":8561,"unday":8562,"▁case":8563,"urre":8564,"hiri":8565,"ikali":8566,"itse":8567,"▁jọ̀":8568,"▁jami":8569,"▁jiran":8570,"▁New":8571,"▁እባ":8572,"▁Mara":8573,"▁Odi":8574,"▁Igi":8575,"▁مك":8576,"▁zina":8577,"▁በጎ":8578,"▁ufite":8579,"▁Bẹ́ẹ̀":8580,"▁kufanya":8581,"▁لت":8582,"▁Gas":8583,"▁Una":8584,"▁wowe":8585,"▁safe":8586,"▁enough":8587,"▁láṣẹ":8588,"▁Ja":8589,"lẹ̀.":8590,"▁addu":8591,"▁karemu":8592,"▁karshe":8593,"vil":8594,"▁tsaya":8595,"▁هنا":8596,"▁ደጋ":8597,"▁afọ":8598,"▁fita":8599,"በትን":8600,"▁ሁሌ":8601,"▁wahd":8602,"ደርግ":8603,"amoja":8604,"▁jag":8605,"▁estás":8606,"▁አልተ":8607,"▁pesin":8608,"ርትራ":8609,"▁ፈጣሪ":8610,"▁comple":8611,"▁soup":8612,"▁Yanzu":8613,"▁etc":8614,"▁ችግ":8615,"💯💯💯💯":8616,"▁friends":8617,"▁نحن":8618,"▁DEUS":8619,"▁vezes":8620,"▁àkọ́kọ́":8621,"🇦🇹🇦🇹":8622,"▁relationship":8623,"SS":8624,"ST":8625,"ZO":8626,"ciro":8627,"e.":8628,"kenan":8629,"nụ":8630,"pàá":8631,"sar":8632,"uli":8633,"wì":8634,"wake":8635,"yat":8636,"ɔn":8637,"لعب":8638,"وز":8639,"ማማ":8640,"ረጥ":8641,"ትና":8642,"ከፍ":8643,"ụs":8644,"▁👇":8645,"▁😡😡":8646,"🇬🇭":8647,"▁m'":8648,"▁mani":8649,"▁agbo":8650,"▁tabi":8651,"▁bgh":8652,"▁yai":8653,"▁iye":8654,"▁gute":8655,"▁haha":8656,"▁lf":8657,"▁fur":8658,"amana":8659,"▁cyo":8660,"▁cire":8661,"▁pon":8662,"▁pen":8663,"▁pub":8664,"akka":8665,"▁Aban":8666,"▁الدا":8667,"adhi":8668,"ikuwa":8669,"ison":8670,"iskat":8671,"▁None":8672,"▁ON":8673,"▁Ogb":8674,"ement":8675,"▁meat":8676,"▁በረ":8677,"▁በሙሉ":8678,"imbo":8679,"reb":8680,"▁map":8681,"▁ìbà":8682,"▁sex":8683,"▁kul":8684,"▁mugu":8685,"▁Dr":8686,"aaaaa":8687,"▁òkun":8688,"▁qui":8689,"▁تست":8690,"▁also":8691,"▁يم":8692,"▁hapu":8693,"fica":8694,"▁wow":8695,"giza":8696,"▁المن":8697,"▁safi":8698,"▁sauka":8699,"▁art":8700,"ريب":8701,"▁هدا":8702,"▁ትልቅ":8703,"▁shege":8704,"▁ndani":8705,"▁دا":8706,"▁cannot":8707,"▁ድል":8708,"▁nigga":8709,"▁making":8710,"▁blood":8711,"▁fẹ́ràn":8712,"▁amafaranga":8713,"▁final":8714,"▁finally":8715,"▁ututu":8716,"▁mwaka":8717,"ميع":8718,"▁ɛn":8719,"▁didnt":8720,"اريخ":8721,"▁bikonu":8722,"▁Hmmm":8723,"▁Ojúmọ́":8724,"▁Olúwa":8725,"▁children":8726,"▁umugore":8727,"▁Feliz":8728,"▁አህመድ":8729,"▁mulher":8730,"▁pedir":8731,"EJ":8732,"OL":8733,"Se":8734,"fai":8735,"kr":8736,"kpa":8737,"kuru":8738,"lụ":8739,"ደቱ":8740,"ገረ":8741,"ፈራ":8742,"ṣo":8743,"▁😳":8744,"▁ኢትዮ":8745,"▁ngu":8746,"▁nuko":8747,"▁m.":8748,"▁dó":8749,"▁tb":8750,"▁sy":8751,"▁sọ̀rọ̀":8752,"▁bare":8753,"▁bisa":8754,"▁pai":8755,"▁pou":8756,"alli":8757,"▁Abi":8758,"▁nime":8759,"▁የል":8760,"▁MU":8761,"▁Mat":8762,"▁Kun":8763,"▁Ibu":8764,"▁zetu":8765,"▁በስ":8766,"▁Bà":8767,"▁Ban":8768,"▁ìrò":8769,"ric":8770,"▁gbè":8771,"▁ṣọ́":8772,"▁òwú":8773,"▁ń'":8774,"▁tafadhali":8775,"▁ẹbí":8776,"▁يقول":8777,"geza":8778,"هار":8779,"▁young":8780,"▁left":8781,"▁ọ̀sẹ̀":8782,"▁حق":8783,"▁guda":8784,"مام":8785,"▁kúkú":8786,"▁plenty":8787,"▁Niba":8788,"▁produ":8789,"▁رح":8790,"▁words":8791,"▁ubw":8792,"▁herh":8793,"▁nwata":8794,"▁ìyẹn":8795,"www":8796,"▁ስለሆነ":8797,"▁????????":8798,"▁causa":8799,"nyɛ":8800,"▁corre":8801,"▁Waziri":8802,"▁mutumin":8803,"▁pàtà":8804,"pẹẹrẹ":8805,"▁kakra":8806,"▁director":8807,"▁ogologo":8808,"▁#EndSARS":8809,"▁YORÙBÁ":8810,"▁Congr":8811,".A":8812,"14":8813,"Po":8814,"Twitter":8815,"cent":8816,"gí":8817,"ive":8818,"kai":8819,"mos":8820,"ywa":8821,"zing":8822,"ؤول":8823,"قع":8824,"مال":8825,"ላለ":8826,"▁ሄ":8827,"▁ጫ":8828,"▁ure":8829,"▁mọ́n":8830,"▁maha":8831,"▁ahia":8832,"▁kita":8833,"▁site":8834,"ar.":8835,"▁ozi":8836,"▁yarin":8837,"▁gon":8838,"▁hun":8839,"▁lan":8840,"▁language":8841,"unan":8842,"amma":8843,"▁cru":8844,"▁cabe":8845,"▁power":8846,"▁AM":8847,"▁Asa":8848,"▁jira":8849,"▁የፖለቲካ":8850,"▁Non":8851,"▁ọlá":8852,"▁Iya":8853,"reen":8854,"die":8855,"▁ví":8856,"▁Ebe":8857,"▁abẹ́":8858,"riday":8859,"de,":8860,"▁መለ":8861,"▁Ru":8862,"▁Rais":8863,"godi":8864,"▁òò":8865,"▁فأ":8866,"tei":8867,"▁taarifa":8868,"▁alẹ́":8869,"▁يس":8870,"▁ለሚ":8871,"▁3y3":8872,"▁gaji":8873,"▁كن":8874,"▁esco":8875,"gudu":8876,"▁المح":8877,"▁bila":8878,"ubwa":8879,"▁ማድረግ":8880,"▁ሰይ":8881,"▁tsar":8882,"▁والو":8883,"▁در":8884,"▁pró":8885,"▁Zan":8886,"ongera":8887,"▁obere":8888,"▁messi":8889,"▁message":8890,"▁service":8891,"▁whatsapp":8892,"▁pergun":8893,"ለን።":8894,"▁burst":8895,"▁ọkàn":8896,"lòó":8897,"▁#Lagos":8898,"▁dàgbà":8899,"▁shirya":8900,"▁shirye":8901,"▁አካባቢ":8902,"▁tambaya":8903,"▁ìbéèrè":8904,"▁rárá":8905,"▁ወንጀ":8906,"▁በዓል":8907,"▁ጠቅላይ":8908,"wasiliana":8909,"!?":8910,"'an":8911,"BE":8912,"Di":8913,"HU":8914,"MU":8915,"TU":8916,"UE":8917,"YÉ":8918,"bes":8919,"gir":8920,"if":8921,"mó":8922,"tin":8923,"yumva":8924,"دار":8925,"علي":8926,"فهم":8927,"ه'":8928,"ላቅ":8929,"ቀል":8930,"ባለው":8931,"ናል።":8932,"ከብ":8933,"ጡት":8934,"”:":8935,"▁ቋ":8936,"▁ንግ":8937,"eru":8938,"▁nje":8939,"▁nsu":8940,"▁apa":8941,"▁kraa":8942,"▁wú":8943,"▁yayan":8944,"▁gé":8945,"▁gay":8946,"▁easy":8947,"▁ps":8948,"ates":8949,"▁Ap":8950,"▁Aikin":8951,"ayn":8952,"▁الرج":8953,"adaa":8954,"▁Mb":8955,"▁Mul":8956,"da,":8957,"▁ọrụ":8958,"▁Ir":8959,"▁منا":8960,"▁وص":8961,"tice":8962,"▁uh":8963,"▁kaaro":8964,"▁waje":8965,"▁Sin":8966,"char":8967,"lain":8968,"ka.":8969,"▁Eh":8970,"▁Ten":8971,"▁abuo":8972,"▁amig":8973,"▁amakuru":8974,"▁بت":8975,"▁ṣẹ́":8976,"▁Can":8977,"▁ይዞ":8978,"load":8979,"▁kan.":8980,"▁kansu":8981,"▁reg":8982,"▁sace":8983,"▁pela":8984,"▁liya":8985,"▁23":8986,"▁ẹ̀sìn":8987,"▁oruko":8988,"▁matan":8989,"▁ግብ":8990,"▁dance":8991,"▁yiwa":8992,"ishwa":8993,"ukobwa":8994,"chaa":8995,"▁aconte":8996,"امي":8997,"▁dáa":8998,"▁nyere":8999,"▁menos":9000,"▁Aláàfin":9001,"▁shop":9002,"▁عليكم":9003,"▁3lach":9004,"▁na-a":9005,"▁mbere":9006,"▁table":9007,"▁ይሄን":9008,"▁murna":9009,"▁grand":9010,"▁2022":9011,"▁ekwensu":9012,"ካከል":9013,"▁መቼም":9014,"▁ẹnìkan":9015,"iganiro":9016,"▁gọzie":9017,"▁heaven":9018,"▁believe":9019,"13":9020,"CH":9021,"FC":9022,"YI":9023,"ain":9024,"eb":9025,"jumo":9026,"puru":9027,"yaka":9028,"غا":9029,"ረብ":9030,"ቸዉ":9031,"ክህ":9032,"ወድ":9033,"ደግ":9034,"ṣun":9035,"ẹmọ":9036,"▁ري":9037,"🤷‍♂️":9038,"uso":9039,"▁mwan":9040,"▁mbo":9041,"▁kd":9042,"▁kr":9043,"▁kis":9044,"▁dani":9045,"▁tara":9046,"▁sị":9047,"▁bz":9048,"▁gara":9049,"▁laa":9050,"▁late":9051,"▁fí":9052,"▁cash":9053,"ator":9054,"▁rara":9055,"lling":9056,"essed":9057,"▁ance":9058,"▁Mkuu":9059,"▁àjà":9060,"▁àná":9061,"▁وما":9062,"▁medo":9063,"▁inde":9064,"▁insh":9065,"▁Sir":9066,"▁ìṣe":9067,"kejì":9068,"▁Ed":9069,"▁gbara":9070,"▁ògún":9071,"▁tazo":9072,"▁ẹja":9073,"▁تق":9074,"▁don't":9075,"▁ga3":9076,"▁kannywood":9077,"fie":9078,"▁'በ":9079,"▁كامل":9080,"▁Pre":9081,"▁Ọdún":9082,"▁المخ":9083,"▁sae":9084,"▁ብለ":9085,"▁16":9086,"▁Jesu":9087,"▁ምና":9088,"▁نفس":9089,"lẹ̀,":9090,"▁ትግራይ":9091,"▁munyi":9092,"▁#Ogun":9093,"▁anyhow":9094,"▁خط":9095,"▁ባን":9096,"▁راني":9097,"▁7na":9098,"▁9al":9099,"▁somebody":9100,"بيب":9101,"▁Kowa":9102,"▁igreja":9103,"▁ወይስ":9104,"▁እውነ":9105,"▁então":9106,"▁luck":9107,"▁Ifẹ̀":9108,"ternet":9109,"▁አምላክ":9110,"ግባር":9111,"▁ራስ":9112,"▁ስልጣን":9113,"▁#tweet":9114,"munity":9115,"▁listen":9116,"▁kasuwa":9117,"▁bghit":9118,"▁future":9119,"▁second":9120,"KO":9121,"OC":9122,"PE":9123,"biri":9124,"bish":9125,"cto":9126,"fá":9127,"fọ̀":9128,"hats":9129,"mt":9130,"ng":9131,"tal":9132,"ئة":9133,"دية":9134,"زال":9135,"يح":9136,"ህሳስ":9137,"ለጋ":9138,"ሎት":9139,"ምነት":9140,"ቤተ":9141,"ገሬ":9142,"ጋይ":9143,"ṣi":9144,"ṣá":9145,"’s":9146,"▁mgbu":9147,"▁ajo":9148,"▁@user'":9149,"▁@user...":9150,"▁twe":9151,"▁sme":9152,"▁book":9153,"▁bịa":9154,"▁wala":9155,"▁ic":9156,"▁gí":9157,"▁hia":9158,"▁hora":9159,"▁hadu":9160,"▁loo":9161,"▁lady":9162,"▁foot":9163,"orth":9164,"▁cre":9165,"onday":9166,"▁photo":9167,"alia":9168,"▁Adé":9169,"lls":9170,"itwa":9171,"▁Mt":9172,"gawa":9173,"▁Sadau":9174,"▁BÍ":9175,"chu":9176,"▁kula":9177,"▁mu,":9178,"▁mu.":9179,"▁Enugu":9180,"▁Tal":9181,"taba":9182,"▁መረጃ":9183,"▁ለኢትዮጵያ":9184,"▁hawa":9185,"▁akuko":9186,"àngó":9187,"▁import":9188,"▁shuwa":9189,"▁sawa":9190,"▁Just":9191,"▁país":9192,"▁zauna":9193,"▁anaghi":9194,"▁sunday":9195,"▁akazi":9196,"▁ውድ":9197,"▁prom":9198,"▁#Atele":9199,"▁joy":9200,"▁معا":9201,"▁🤔🤔🤔":9202,"ARI":9203,"▁ለማን":9204,"▁naso":9205,"▁dubu":9206,"▁giveaway":9207,"▁cap":9208,"ny3":9209,"▁Ẹ̀gbá":9210,"▁olù":9211,"فيق":9212,"▁laifi":9213,"HAHA":9214,"▁እነዚህ":9215,"▁daraja":9216,"▁sumayya":9217,"▁wadannan":9218,"▁zuciya":9219,"jiria":9220,"▁ስብሰባ":9221,"▁ውይይት":9222,"▁alkairi":9223,"▁pàtàkì":9224,"▁#Atelewo":9225,"CE":9226,"Com":9227,"OD":9228,"Wa":9229,"Ye":9230,"fana":9231,"jana":9232,"ting":9233,"test":9234,"wk":9235,"yun":9236,"ÚN":9237,"ês":9238,"بعد":9239,"شاء":9240,"ضاء":9241,"ሁሉም":9242,"ቁር":9243,"ተህ":9244,"ውና":9245,"ገዛ":9246,"ጠየ":9247,"ፉት":9248,"▁♥":9249,"▁😢😢":9250,"✔️":9251,"🏻‍♂️":9252,"🏾‍♀️":9253,"▁nasu":9254,"▁nhar":9255,"▁njye":9256,"▁agh":9257,"▁km":9258,"▁test":9259,"▁talau":9260,"inye":9261,"▁bt":9262,"▁yaro":9263,"▁grande":9264,"▁lia":9265,"unar":9266,"orld":9267,"aster":9268,"amvu":9269,"▁came":9270,"▁pada":9271,"atter":9272,"aking":9273,"▁rwa":9274,"aight":9275,"urn":9276,"urwa":9277,"urade":9278,"aduna":9279,"umv":9280,"▁juru":9281,"▁የኛ":9282,"▁አዳ":9283,"▁Kw":9284,"▁Kigali":9285,"▁مكان":9286,"wed":9287,"▁kafa":9288,"▁inc":9289,"▁wagyimi":9290,"chan":9291,"▁Ent":9292,"▁bed":9293,"▁بش":9294,"▁gbì":9295,"biya":9296,"▁ṣùgbọ́n":9297,"▁dier":9298,"▁Gba":9299,"▁ከወ":9300,"▁sofr":9301,"▁ለው":9302,"▁ተቋ":9303,"▁shame":9304,"▁حنا":9305,"▁ግራ":9306,"▁سقسي":9307,"▁hanyar":9308,"▁ደረጃ":9309,"▁የተሰ":9310,"ities":9311,"▁ሲሆን":9312,"▁rie":9313,"▁nwannem":9314,"▁7ta":9315,"▁😭😭😭😭😭😭":9316,"▁عليهم":9317,"▁everyone":9318,"▁ፍትህ":9319,"▁farko":9320,"▁madam":9321,"▁الوز":9322,"▁bazan":9323,"▁orile":9324,"▁wakati":9325,"▁close":9326,"▁jamaa":9327,"▁وعلاش":9328,"▁posso":9329,"risti":9330,"ontade":9331,"▁بيك":9332,"▁stupid":9333,"▁Ubwo":9334,"----":9335,"▁3liha":9336,"▁tẹ̀lé":9337,"ርስቲያን":9338,"▁pictures":9339,"▁celebrate":9340,"▁መግለጫ":9341,"▁answer":9342,"99":9343,"Be":9344,"Con":9345,"For":9346,"JA":9347,"JE":9348,"buka":9349,"haye":9350,"ild":9351,"nk":9352,"nyi":9353,"ula":9354,"بط":9355,"ضع":9356,"فع":9357,"كيل":9358,"ባረ":9359,"ቶችን":9360,"ቻል":9361,"ነፍ":9362,"ዛት":9363,"▁ዉ":9364,"🤗🤗":9365,"🤪🤪":9366,"▁nar":9367,"▁nche":9368,"▁nziza":9369,"▁aci":9370,"▁kpọ":9371,"▁tani":9372,"▁saaa":9373,"arwa":9374,"▁homa":9375,"▁lalace":9376,"▁fọ":9377,"▁ep":9378,"ams":9379,"▁Aho":9380,"▁#V":9381,"▁اله":9382,"▁jikin":9383,"▁አቅ":9384,"▁እዚህ":9385,"lewa":9386,"▁Otu":9387,"▁ọrọ̀":9388,"▁Iyi":9389,"▁وين":9390,"iaa":9391,"▁በራ":9392,"▁በብ":9393,"▁wawe":9394,"▁mag":9395,"▁ìbá":9396,"▁Dar":9397,"▁بم":9398,"lica":9399,"▁فت":9400,"▁فقط":9401,"▁Haka":9402,"▁ẹṣin":9403,"▁يج":9404,"▁sugbon":9405,"lujá":9406,"▁kiyi":9407,"▁اص":9408,"▁اغ":9409,"▁ṣe,":9410,"▁saura":9411,"▁sio":9412,"▁adalci":9413,"▁karbi":9414,"ashara":9415,"omeje":9416,"▁شخص":9417,"▁جي":9418,"▁prof":9419,"▁xi":9420,"▁Òkè":9421,"▁dákun":9422,"▁lọ́dún":9423,"▁fez":9424,"▁ليس":9425,"▁maisha":9426,"▁tunanin":9427,"▁abubu":9428,"▁gbàgbé":9429,"▁èèbó":9430,"▁መንግሥት":9431,"▁hhhhhhhhhhhhh":9432,"▁score":9433,"▁ìtumọ̀":9434,"▁bindi":9435,"▁lets":9436,"▁nkoaa":9437,"▁benin":9438,"▁momkin":9439,"▁ቁጥር":9440,"▁human":9441,"alled":9442,"▁africa":9443,"▁concern":9444,"lujára":9445,"15":9446,"FA":9447,"MB":9448,"MO":9449,"PO":9450,"cri":9451,"gú":9452,"qe":9453,"tem":9454,"wun":9455,"رى":9456,"نية":9457,"نسا":9458,"يف":9459,"ሉ።":9460,"ም፣":9461,"ራቸው":9462,"ቡር":9463,"ንፈ":9464,"ከለ":9465,"ወራ":9466,"ጀት":9467,"ፖርት":9468,"▁ዱ":9469,"▁😥":9470,"🏽‍♀️":9471,"▁mit":9472,"▁makan":9473,"▁kaka":9474,"▁dare":9475,"▁tọ̀":9476,"▁sn":9477,"▁sta":9478,"iny":9479,"▁great":9480,"▁line":9481,"▁lmo":9482,"▁later":9483,"▁fc":9484,"▁fre":9485,"▁eke":9486,"▁pun":9487,"▁naf":9488,"ahe":9489,"▁rya":9490,"▁rig":9491,"▁rero":9492,"aila":9493,"llar":9494,"ikora":9495,"▁yaje":9496,"▁daz":9497,"ya,":9498,"▁anim":9499,"▁Nde":9500,"▁Mr":9501,"le.":9502,"▁Og":9503,"▁Orúkọ":9504,"▁àtà":9505,"▁Kamar":9506,"▁Iyo":9507,"▁zit":9508,"▁በፍ":9509,"imp":9510,"imana":9511,"▁inama":9512,"re.":9513,"▁town":9514,"▁maana":9515,"▁vem":9516,"▁Emi":9517,"▁Eyin":9518,"▁begin":9519,"▁gbẹ́":9520,"go,":9521,"▁òmìnira":9522,"teja":9523,"▁عم":9524,"▁bud":9525,"areba":9526,"▁Àṣẹ":9527,"▁Ìbàdàn":9528,"sue":9529,"▁አንዳ":9530,"▁ndetse":9531,"ado,":9532,"▁درا":9533,"ishin":9534,"▁press":9535,"▁front":9536,"▁ሲል":9537,"▁ሁለት":9538,"follow":9539,"ortun":9540,"▁nigerian":9541,"ስትር":9542,"▁ntabwo":9543,"▁Ọ̀rọ̀":9544,"▁ዘመ":9545,"▁sometimes":9546,"▁irm":9547,"dúrà":9548,"▁straight":9549,"▁white":9550,"▁ቆይ":9551,"▁imela":9552,"▁pàdé":9553,"▁ebere":9554,"هوي":9555,"▁party":9556,"▁هذي":9557,"ማርኛ":9558,"▁wadanda":9559,"▁rainin":9560,"▁champi":9561,"▁الذي":9562,"▁خويا":9563,"estival":9564,"▁type":9565,"▁clean":9566,"▁#ekaaro":9567,"▁consegu":9568,"gharba":9569,"▁actually":9570,"-me":9571,"42":9572,"DD":9573,"Ho":9574,"Is":9575,"TV":9576,"Ya":9577,"cus":9578,"cci":9579,"daya":9580,"fm":9581,"http":9582,"jia":9583,"ph":9584,"rug":9585,"tra":9586,"zuri":9587,"طية":9588,"طار":9589,"ሀል":9590,"ላቻ":9591,"ሙት":9592,"ቃል":9593,"ኖሩ":9594,"ዳደር":9595,"▁ጃ":9596,"🇧🇷":9597,"▁nama":9598,"▁nashi":9599,"▁mishi":9600,"▁awu":9601,"▁agbe":9602,"▁auren":9603,"▁kaya":9604,"▁dj":9605,"▁dada":9606,"▁dore":9607,"▁dandan":9608,"▁tuk":9609,"arch":9610,"▁owe":9611,"▁ogún":9612,"▁yunwa":9613,"▁hor":9614,"▁hes":9615,"▁fik":9616,"▁ef":9617,"▁pm":9618,"▁pẹ":9619,"▁Ase":9620,"▁deci":9621,"▁Ngo":9622,"ospit":9623,"▁ọdẹ":9624,"▁àbá":9625,"ẹ́ni":9626,"▁bace":9627,"▁مرح":9628,"▁meus":9629,"weka":9630,"▁በጥ":9631,"▁kuwasiliana":9632,"▁Trans":9633,"▁amar":9634,"▁GBO":9635,"▁alone":9636,"▁ይዘ":9637,"▁ይላል":9638,"▁ይልቅ":9639,"▁Uk":9640,"▁Us":9641,"▁Uwa":9642,"▁يدير":9643,"▁hajiya":9644,"▁3a":9645,"▁moja":9646,"koto":9647,"owó":9648,"▁المج":9649,"▁english":9650,"▁ወረዳ":9651,"▁ብላ":9652,"sica":9653,"▁منيب":9654,"▁boa":9655,"▁سن":9656,"▁wá.":9657,"▁And":9658,"▁anybody":9659,"▁#Angola":9660,"▁ጥር":9661,"▁mensa":9662,"▁ታህሳስ":9663,"داء":9664,"▁???":9665,"▁rufe":9666,"▁ቢያ":9667,"▁አልነ":9668,"▁zanga":9669,"▁ሚሊ":9670,"▁አይደል":9671,"▁Meu":9672,"▁kasarmu":9673,"▁takai":9674,"2012":9675,"▁contra":9676,"▁😅😅😅":9677,"GBÁ":9678,"▁ዓይ":9679,"yàwó":9680,"ference":9681,"▁የሰው":9682,"ፈልግ":9683,"▁weekend":9684,"▁ዋጋ":9685,"kọ̀ọ́":9686,"▁Leo":9687,"▁father":9688,"▁Ụmụ":9689,"▁sukayi":9690,"▁continue":9691,"▁nchini":9692,"▁husband":9693,"chester":9694,"▁ዞን":9695,"▁zaben":9696,"▁chairman":9697,"▁GBOGBO":9698,",a":9699,"Al":9700,"St":9701,"ezi":9702,"fra":9703,"gé":9704,"jini":9705,"kẹ̀":9706,"mín":9707,"tf":9708,"tè":9709,"via":9710,"zon":9711,"زم":9712,"سك":9713,"صيل":9714,"ضة":9715,"طا":9716,"عرف":9717,"فل":9718,"ም!":9719,"ገለ":9720,"ገሩ":9721,"▁ሺ":9722,"erem":9723,"ança":9724,"▁mem":9725,"▁tant":9726,"▁sọ́":9727,"▁bú":9728,"▁ochi":9729,"▁olh":9730,"▁hh":9731,"▁huu":9732,"orin":9733,"ames":9734,"▁cora":9735,"▁pet":9736,"enze":9737,"akai":9738,"▁rana":9739,"▁radio":9740,"urse":9741,"esurre":9742,"▁የድ":9743,"▁የግ":9744,"▁አማ":9745,"gbìn":9746,"gbọ̀n":9747,"oshi":9748,"▁Kut":9749,"▁ontop":9750,"▁segu":9751,"▁mugun":9752,"▁Ebu":9753,"▁amigo":9754,"▁መብት":9755,"▁لان":9756,"▁òmíràn":9757,"▁فا":9758,"▁Wata":9759,"▁ta'":9760,"▁يوم":9761,"▁imi":9762,"duduwa":9763,"▁enyi":9764,"▁ብለን":9765,"▁17":9766,"▁ọ̀yọ́":9767,"▁arre":9768,"▁mmanu":9769,"▁እንደተ":9770,"▁جدا":9771,"▁area":9772,"▁kasata":9773,"▁🙏🏻":9774,"▁🙏🏽":9775,"▁plus":9776,"▁#Asa":9777,"▁married":9778,"▁للح":9779,"ደርጋ":9780,"▁የመጀመሪያ":9781,"▁whats":9782,"▁nwunye":9783,"▁Abin":9784,"▁عندو":9785,"▁ጉድ":9786,"▁الفر":9787,"▁sabon":9788,"▁respe":9789,"▁እኔም":9790,"▁lédè":9791,"▁dakchi":9792,"▁class":9793,"▁Nítorí":9794,"kìtì":9795,"▁nìyẹn":9796,"▁ዶ/ር":9797,"faham":9798,"▁months":9799,"▁አደጋ":9800,"▁Hoje":9801,"▁aquele":9802,"virus":9803,"▁Minha":9804,"▁daddy":9805,"▁Murakoze":9806,"▁لـ”":9807,"ርያም":9808,"▁lockdown":9809,"▁aikata":9810,"làáfíà":9811,"▁ጨዋታ":9812,"56":9813,"App":9814,"Da":9815,"NG":9816,"WAN":9817,"bn":9818,"bùn":9819,"bona":9820,"dàá":9821,"fọ̀n":9822,"gati":9823,"ht":9824,"haka":9825,"rer":9826,"rab":9827,"sk":9828,"tẹ":9829,"ue":9830,"vy":9831,"wd":9832,"wɛ":9833,"zira":9834,"ላዊ":9835,"ሙን":9836,"ረግ":9837,"ቅድ":9838,"ቸዋል":9839,"ድሞ":9840,"ጲያ":9841,"ỌN":9842,"▁ኩ":9843,"▁ጓ":9844,"▁👑":9845,"▁🔥🔥🔥":9846,"ern":9847,"erwa":9848,"▁nla":9849,"▁naki":9850,"▁ninguém":9851,"▁dinga":9852,"▁tens":9853,"▁sli":9854,"▁spa":9855,"▁waki":9856,"▁owu":9857,"▁lon":9858,"▁lost":9859,"▁eles":9860,"assa":9861,"▁cara":9862,"▁cena":9863,"▁cup":9864,"▁pọ́n":9865,"▁nad":9866,"▁Ago":9867,"▁APC":9868,"esta":9869,"▁jare":9870,"▁dab":9871,"▁ang":9872,"▁Nam":9873,"▁Má":9874,"▁Mgbe":9875,"▁Obodo":9876,"▁ọbẹ̀":9877,"ingine":9878,"▁àyájọ́":9879,"▁K'":9880,"▁በዘ":9881,"ets":9882,"▁muhi":9883,"▁níbẹ̀":9884,"hova":9885,"▁wewe":9886,"▁amsa":9887,"▁forma":9888,"▁فاس":9889,"▁عام":9890,"▁ẹgbẹ̀":9891,"▁Gsky":9892,"▁alg":9893,"cip":9894,"▁fie":9895,"geko":9896,"▁church":9897,"▁shoot":9898,"▁enti":9899,"▁shiry":9900,"▁shiyasa":9901,"alidade":9902,"cks":9903,"▁yoòbá":9904,"ulani":9905,"iriza":9906,"▁27":9907,"ديد":9908,"▁أح":9909,"yango":9910,"omeze":9911,"▁ohùn":9912,"▁àtijọ́":9913,"▁wiase":9914,"?????":9915,"▁hano":9916,"▁ደስታ":9917,"واج":9918,"lódé":9919,"▁ህግ":9920,"hanga":9921,"▁ክፉ":9922,"▁nufin":9923,"▁temi":9924,"▁pie":9925,"dinary":9926,"▁blad":9927,"▁talking":9928,"ርስቶ":9929,"▁tweets":9930,"▁contro":9931,"▁wakha":9932,"▁senti":9933,"😂🤣😂":9934,"▁#COVID":9935,"▁handle":9936,"▁aráyé":9937,"▁2021":9938,"ለቲከ":9939,"▁Eziokwu":9940,"▁ugwo":9941,"▁ሞት":9942,"▁virus":9943,"▁single":9944,"▁rubbish":9945,"▁كبير":9946,"▁adwuma":9947,"▁ገንዘብ":9948,"▁ከባድ":9949,"'un":9950,".]":9951,"39":9952,"57":9953,"7i":9954,"RD":9955,"bas":9956,"b9a":9957,"dah":9958,"gye":9959,"nị":9960,"nia":9961,"nesday":9962,"puta":9963,"s://t.co/":9964,"wt":9965,"wí":9966,"wàá":9967,"yira":9968,"قبل":9969,"ሁም":9970,"ምጃ":9971,"ሰቦች":9972,"ቀቅ":9973,"ቆም":9974,"ቲቪ":9975,"ኪና":9976,"ክተር":9977,"ደን":9978,"▁ሪ":9979,"▁ኪ":9980,"▁😠":9981,"▁😪":9982,"▁🙈":9983,"▁☺️":9984,"▁▶️":9985,"🏿‍♂️":9986,"erin":9987,"anyị":9988,"▁nsh":9989,"▁ado":9990,"▁kimwe":9991,"▁tari":9992,"▁sto":9993,"▁bose":9994,"▁oye":9995,"▁ida":9996,"▁gaa":9997,"▁lord":9998,"▁fran":9999,"▁eba":10000,"▁edu":10001,"asara":10002,"asema":10003,"amọ́":10004,"▁called":10005,"▁pf":10006,"ature":10007,"enta":10008,"baba":10009,"▁r'":10010,"urire":10011,"es,":10012,"▁yazama":10013,"▁jul":10014,"▁የስ":10015,"▁የጥ":10016,"▁አና":10017,"▁አለው":10018,"isar":10019,"▁Ndu":10020,"▁Ori":10021,"▁àkó":10022,"▁àkà":10023,"▁àpẹẹrẹ":10024,"▁Igba":10025,"▁مص":10026,"haji":10027,"▁uwo":10028,"▁innalillahi":10029,"▁But":10030,"key":10031,"▁መሬት":10032,"▁Allah.":10033,"▁لق":10034,"▁فهاد":10035,"▁alama":10036,"▁ይቀ":10037,"edia":10038,"▁كون":10039,"ناة":10040,"▁Lu":10041,"▁ተነ":10042,"▁Pi":10043,"▁shinka":10044,"▁saur":10045,"▁ende":10046,"▁sil":10047,"▁ọ̀la":10048,"▁favor":10049,"▁نص":10050,"▁Fún":10051,"▁usar":10052,"▁ማንም":10053,"▁ሰብ":10054,"▁adé":10055,"▁kwar":10056,"▁manyan":10057,"▁#Iwure":10058,"ánú":10059,"▁እናም":10060,"▁tsoro":10061,"▁seeing":10062,"▁ትው":10063,"▁#Aya":10064,"ganda":10065,"▁wasan":10066,"▁barka":10067,"▁barca":10068,"▁Mazi":10069,"▁#No":10070,"▁hadak":10071,"▁Èwo":10072,"______":10073,"▁l'o":10074,"▁temos":10075,"ção.":10076,"▁البوليس":10077,"▁khay":10078,"يدة":10079,"▁eru":10080,"▁zancen":10081,"▁እስካ":10082,"▁እስክንድር":10083,"▁parte":10084,"▁ign":10085,"síwájú":10086,"▁mélòó":10087,"▁nosso":10088,"LILI":10089,"▁vote":10090,"▁appreci":10091,"▁احسن":10092,"▁ያልተ":10093,"▁ìpínlẹ̀":10094,"ምርጫ":10095,"▁#nigerian":10096,"▁tútù":10097,"▁ቡድን":10098,"▁Abuja":10099,"▁بصحتك":10100,"▁ry'":10101,"▁#yorubat":10102,"▁essas":10103,"Life":10104,"▁congratulations":10105,"▁Birthday":10106,"https://t.co/":10107,"esurrection":10108,"81":10109,"He":10110,"IG":10111,"MW":10112,"MỌ":10113,"OG":10114,"TS":10115,"TER":10116,"aaro":10117,"fti":10118,"gou":10119,"poro":10120,"uh":10121,"vol":10122,"wala":10123,"ባብ":10124,"ኧረ":10125,"ወሃት":10126,"ያዝ":10127,"ደል":10128,"ደኛ":10129,"ጠት":10130,"ፈረ":10131,"ፈጥ":10132,"ẹyẹ":10133,"▁Ń":10134,"▁ዙ":10135,"▁❤":10136,"▁🌚":10137,"▁🔥🔥🔥🔥":10138,"▁nsa":10139,"▁naku":10140,"▁nema":10141,"▁mch":10142,"▁mmuo":10143,"▁ate":10144,"▁age":10145,"▁kini":10146,"▁dut":10147,"▁dẹ̀":10148,"▁t9":10149,"▁tf":10150,"▁tug":10151,"▁snap":10152,"▁bite":10153,"▁o...":10154,"▁ogh":10155,"▁iku":10156,"▁gim":10157,"▁gaski":10158,"unia":10159,"▁fad":10160,"asin":10161,"amani":10162,"▁peri":10163,"aturage":10164,"alum":10165,"▁#c":10166,"▁rọ́":10167,"adem":10168,"hed":10169,"itas":10170,"▁የቆ":10171,"▁የከ":10172,"▁እሺ":10173,"▁Mak":10174,"▁Mama":10175,"▁Oh":10176,"▁KO":10177,"▁Ije":10178,"▁وس":10179,"▁وك":10180,"ọ̀kan":10181,"▁wace":10182,"▁magh":10183,"▁ìs":10184,"kee":10185,"▁muga":10186,"▁Eme":10187,"▁Daman":10188,"▁goal":10189,"▁بج":10190,"road":10191,"▁koto":10192,"wok":10193,"▁Cristo":10194,"▁Wani":10195,"▁ńkọ́":10196,"▁تص":10197,"▁akọ":10198,"▁sup":10199,"▁million":10200,"gic":10201,"▁المنا":10202,"▁ስንት":10203,"▁kwado":10204,"▁aden":10205,"▁style":10206,"▁فيك":10207,"▁n'um":10208,"▁Ìyá":10209,"cts":10210,"▁wáyé":10211,"▁#Al":10212,"▁musamman":10213,"▁proverb":10214,"▁::":10215,"▁náà.":10216,"foɔ":10217,"▁uki":10218,"▁outra":10219,"ision":10220,"روح":10221,"fanin":10222,"لكن":10223,"zzy":10224,"▁ኢትዮጵያውያን":10225,"▁#iwure":10226,"dùà":10227,"▁parti":10228,"▁chance":10229,"▁nnem":10230,"▁kọ́kọ́":10231,"hyira":10232,"▁🤲🤲🤲":10233,"▁bread":10234,"▁posting":10235,"▁hmmmm":10236,"▁pupo":10237,"▁ይህንን":10238,"▁3lih":10239,"▁🙄🙄🙄":10240,"▁write":10241,"▁ሴት":10242,"▁drive":10243,"▁ይችላል":10244,"▁ተብሎ":10245,"▁kawae":10246,"🚶‍♂️🚶‍♂️":10247,"▁katsina":10248,"▁Ganduje":10249,"40":10250,"43":10251,"Gi":10252,"Quo":10253,"Um":10254,"_ال":10255,"aji":10256,"cor":10257,"hos":10258,"lì":10259,"plo":10260,"ram":10261,"sùn":10262,"ten":10263,"vos":10264,"yn":10265,"زة":10266,"قال":10267,"وس":10268,"ሁት":10269,"ም?":10270,"ሱስ":10271,"ቁት":10272,"ቅና":10273,"ታም":10274,"ኘት":10275,"ጋራ":10276,"▁»":10277,"▁🎼":10278,"▁🏃":10279,"▁🤨":10280,"👏🏾":10281,"😔😔":10282,"🤣😂":10283,"er3":10284,"erve":10285,"▁numa":10286,"▁nari":10287,"▁njo":10288,"▁nami":10289,"▁nno":10290,"▁muru":10291,"▁malu":10292,"▁mteja":10293,"▁tor":10294,"▁tou":10295,"▁tre":10296,"▁sara":10297,"▁sàn":10298,"▁bwo":10299,"▁brin":10300,"▁bzaf":10301,"▁lẹ̀":10302,"▁cat":10303,"ony":10304,"▁nagari":10305,"waju":10306,"▁A.":10307,"▁Amm":10308,"ahirwe":10309,"▁rus":10310,"▁dea":10311,"esho":10312,"▁የሞ":10313,"▁የጎ":10314,"▁anos":10315,"ism":10316,"▁Nima":10317,"▁Nínú":10318,"yem":10319,"▁Kit":10320,"▁Kenan":10321,"▁Ik":10322,"▁مم":10323,"▁zwin":10324,"▁በታ":10325,"▁waa":10326,"▁SE":10327,"▁kuz":10328,"▁vos":10329,"▁Tur":10330,"▁bei":10331,"rios":10332,"de.":10333,"▁للا":10334,"▁لما":10335,"gol":10336,"▁quê":10337,"▁alfar":10338,"▁ነው'":10339,"▁logo":10340,"▁ለሀ":10341,"لاق":10342,"▁3nd":10343,"logy":10344,"▁chu":10345,"▁ref":10346,"▁rel":10347,"terno":10348,"luwa":10349,"▁ያደረ":10350,"▁imo":10351,"▁Ọlọ́":10352,"▁biom":10353,"▁pepper":10354,"▁ስላ":10355,"iriye":10356,"▁size":10357,"▁saidai":10358,"andukan":10359,"lé,":10360,"ubyeyi":10361,"▁kwuru":10362,"▁until":10363,"▁const":10364,"▁colo":10365,"▁wiz":10366,"▁قت":10367,"▁የተከ":10368,"▁:(":10369,"▁ድሮ":10370,"▁ukuri":10371,"▁ገለ":10372,"▁trust":10373,"▁🤣😂":10374,"▁البي":10375,"kwụ":10376,"▁khti":10377,"▁mọ́.":10378,"fund":10379,"▁ሚዲያ":10380,"▁faruwa":10381,"🤣🤣🤣🤣🤣🤣🤣🤣":10382,"▁nnukwu":10383,"▁ቅድ":10384,"▁semana":10385,"▁በተለይ":10386,"▁ዓመ":10387,"▁Nne,":10388,"▁hhhhhhhhh":10389,"▁kurya":10390,"افة":10391,"▁group":10392,"اااا":10393,"▁simp":10394,"ياتي":10395,"********":10396,"▁lakini":10397,"▁kuhusu":10398,"▁ኖሮ":10399,"▁hungry":10400,"▁Alhamdulillah":10401,"▁jọ̀wọ́":10402,"▁Gaskia":10403,"hatsApp":10404,"'ar":10405,"/2":10406,"AF":10407,"CM":10408,"Go":10409,"KU":10410,"So":10411,"UA":10412,"WD":10413,"eh":10414,"gò":10415,"gera":10416,"jwa":10417,"jira":10418,"jiri":10419,"kina":10420,"zere":10421,"íni":10422,"òkú":10423,"وب":10424,"وري":10425,"يرا":10426,"ሸን":10427,"▁ሜ":10428,"▁ጣ":10429,"▁📻":10430,"▁😑":10431,"▁nù":10432,"▁m,":10433,"▁momo":10434,"▁kọ̀":10435,"▁kishi":10436,"▁tho":10437,"▁tume":10438,"▁bado":10439,"▁bora":10440,"▁bru":10441,"▁went":10442,"▁wate":10443,"▁lí":10444,"unti":10445,"▁fim":10446,"▁ez":10447,"alik":10448,"▁All":10449,"▁Asante":10450,"aida":10451,"head":10452,"ikia":10453,"▁daura":10454,"gbati":10455,"isit":10456,"▁እርስ":10457,"▁Oya":10458,"▁One":10459,"▁Kpo":10460,"▁I'm":10461,"▁وه":10462,"▁means":10463,"▁wae":10464,"▁maji":10465,"▁ìwá":10466,"▁seja":10467,"▁segun":10468,"▁vamos":10469,"▁Tunda":10470,"▁aman":10471,"▁መደ":10472,"▁بحال":10473,"life":10474,"▁gban":10475,"▁ṣiṣẹ́":10476,"▁فل":10477,"▁tace":10478,"▁ẹn":10479,"▁asiri":10480,"cio":10481,"toto":10482,"▁3lina":10483,"▁chin":10484,"▁'ni":10485,"ية,":10486,"atibu":10487,"▁bio":10488,"pele":10489,"▁sile":10490,"▁lev":10491,"▁ምነው":10492,"▁ÀW":10493,"▁kwak":10494,"▁arziki":10495,"erians":10496,"▁#Itan":10497,"▁zafi":10498,"▁banxa":10499,"▁والح":10500,"▁point":10501,"▁estamos":10502,"▁የተቀ":10503,"▁رس":10504,"▁xai":10505,"▁Hapu":10506,"▁:-":10507,"▁ny3":10508,"▁#yorubawe":10509,"\\nو":10510,"▁hivi":10511,"▁qarya":10512,"▁hadik":10513,"ambia":10514,"▁አስፈ":10515,"▁bayin":10516,"▁wlhy":10517,"▁card":10518,"▁ruo":10519,"فاصيل":10520,"▁الأح":10521,"▁እንዲያ":10522,"▁በአማራ":10523,"▁everyday":10524,"ING":10525,"▁Quem":10526,"▁mwana":10527,"▁salam":10528,"▁kubwa":10529,"▁origin":10530,"كرانيا":10531,"▁hankalin":10532,"▁iyayen":10533,"▁idon":10534,"▁#Ha":10535,"▁dress":10536,"▁special":10537,"▁Gozie":10538,"መለስ":10539,"▁وزارة":10540,"▁fazem":10541,"▁الصحرا":10542,"2020":10543,"▁بلد":10544,"ụsụ":10545,",000":10546,"-à":10547,"5.":10548,"Ma":10549,"VE":10550,"ZE":10551,"ela":10552,"fika":10553,"gam":10554,"juru":10555,"kiti":10556,"pir":10557,"pọ́n":10558,"ror":10559,"rit":10560,"ton":10561,"wina":10562,"yún":10563,"ÙN":10564,"بع":10565,"عار":10566,"ቃይ":10567,"ተና":10568,"ዲሱ":10569,"ዲን":10570,"▁;":10571,"▁ኑ":10572,"🎶🎶":10573,"▁mna":10574,"▁mko":10575,"▁kashi":10576,"▁kiss":10577,"▁tah":10578,"▁tall":10579,"▁sk":10580,"▁sis":10581,"▁bẹ̀":10582,"▁yẹ̀":10583,"▁yose":10584,"▁yesu":10585,"▁ground":10586,"▁huk":10587,"▁hado":10588,"▁fle":10589,"▁fake":10590,"▁eso":10591,"amara":10592,"▁cada":10593,"▁pur":10594,"ataka":10595,"▁Au":10596,"bawa":10597,"▁#b":10598,"ahita":10599,"ayar":10600,"oman":10601,"▁አዋ":10602,"▁Nya":10603,"▁Mwan":10604,"▁Mata":10605,"led":10606,"▁IG":10607,"▁bax":10608,"▁bawan":10609,"▁وإ":10610,"▁B.":10611,"▁ìṣẹ́":10612,"▁ìró":10613,"▁seus":10614,"keza":10615,"▁Duniya":10616,"▁መሳ":10617,"▁መው":10618,"▁بات":10619,"▁ticket":10620,"▁ṣo":10621,"zaba":10622,"▁ish":10623,"jib":10624,"▁Uche":10625,"▁low":10626,"لاء":10627,"لاي":10628,"▁comer":10629,"▁mili":10630,"▁queen":10631,"entos":10632,"▁health":10633,"alicha":10634,"▁For":10635,"▁منها":10636,"ههه":10637,"▁Àmọ́":10638,"▁ሰዓት":10639,"▁حي":10640,"▁أس":10641,"ctly":10642,"waram":10643,"▁ደህና":10644,"▁قلب":10645,"▁pole":10646,"▁okun":10647,"▁jihar":10648,"▁جيا":10649,"▁ibin":10650,"▁ጥቅም":10651,"itive":10652,"▁Nijeria":10653,"▁Insha":10654,"▁gị.":10655,"▁pé,":10656,"▁qasa":10657,"oooooo":10658,"فاق":10659,"▁الأم":10660,"▁ayɛ":10661,"▁//":10662,"▁እስቲ":10663,"▁‍️‍️‍️":10664,"ddings":10665,"▁awurade":10666,"رجع":10667,"▁አመራ":10668,"▁tinye":10669,"▁يحفظ":10670,"▁balance":10671,"URU":10672,"redit":10673,"▁wadaran":10674,"▁gener":10675,"▁kokari":10676,"▁እድሜ":10677,"▁🥰😘":10678,"▁ዩኒቨርሲቲ":10679,"▁labarina":10680,"جتما":10681,"▁OLÚ":10682,"▁slap":10683,"▁مرحبا":10684,"'u":10685,"68":10686,"IP":10687,"Qn":10688,"bc":10689,"btissam":10690,"cing":10691,"gere":10692,"gire":10693,"ição":10694,"jos":10695,"keré":10696,"los":10697,"qan":10698,"rat":10699,"tak":10700,"تم":10701,"نى":10702,"هور":10703,"መጥ":10704,"ቀረ":10705,"ቻቸው":10706,"ንቃ":10707,"ገብ":10708,"ገት":10709,"▁✌":10710,"▁aos":10711,"▁apo":10712,"▁aare":10713,"▁kdi":10714,"▁dín":10715,"▁taka":10716,"▁tukun":10717,"▁sall":10718,"▁bura":10719,"▁baha":10720,"▁basi":10721,"▁w/":10722,"▁ika":10723,"▁gado":10724,"▁gush":10725,"▁hist":10726,"▁fama":10727,"▁ewú":10728,"▁cik":10729,"الا":10730,"▁AR":10731,"▁Akan":10732,"ikisha":10733,"▁niyo":10734,"▁dabi":10735,"▁Ny":10736,"▁Nabi":10737,"uts":10738,"▁Kaduna":10739,"hach":10740,"▁mechie":10741,"▁zal":10742,"▁todas":10743,"cept":10744,"▁muz":10745,"▁ነሽ":10746,"▁vontade":10747,"ho.":10748,"▁wedding":10749,"▁Dire":10750,"▁መጀመሪያ":10751,"▁መካከል":10752,"▁ṣè":10753,"▁taf":10754,"▁doc":10755,"▁ለነ":10756,"▁hau":10757,"▁comigo":10758,"▁akwu":10759,"pol":10760,"▁kifurushi":10761,"▁ተን":10762,"▁bid":10763,"▁usiku":10764,"▁ማስተ":10765,"▁Àwa":10766,"▁kwes":10767,"ربية":10768,"view":10769,"▁Onwe":10770,"▁banga":10771,"▁yourself":10772,"inibi":10773,"▁shes":10774,"▁pop":10775,"▁jide":10776,"▁الحمد":10777,"quele":10778,"ابا":10779,"زاير":10780,"▁ụwa":10781,"▁bayii":10782,"▁jẹun":10783,"▁sórí":10784,"▁علينا":10785,"▁wuya":10786,"▁እያሉ":10787,"▁kumva":10788,"yìnbó":10789,"▁mwenye":10790,"ails":10791,"▁😅😅":10792,"▁2018":10793,"kono":10794,"▁thinking":10795,"▁agbè":10796,"ongozi":10797,"▁Chief":10798,"▁Obrigado":10799,"اهل":10800,"▁experi":10801,"onaldo":10802,"▁ààrẹ":10803,"▁ولد":10804,"▁كبيرة":10805,"▁drag":10806,"▁ṣẹlẹ̀":10807,"▁ìṣẹ̀ṣe":10808,"ارجية":10809,"▁የነበረው":10810,"ገሪቱ":10811,"▁#EsinOro🐎":10812,"▁especi":10813,"▁kwirinda":10814,"▁gyimii":10815,"▁ሁሌም":10816,"▁pouco":10817,"▁ń'nú":10818,"▁shuwagaban":10819,"▁gbìyànjú":10820,"ርስቶስ":10821,"▁#Ayajo":10822,"NE":10823,"PS":10824,"TM":10825,"bak":10826,"dp":10827,"dọ":10828,"dis":10829,"dent":10830,"fọ́":10831,"gw":10832,"gom":10833,"i.":10834,"jy":10835,"jah":10836,"men":10837,"n't":10838,"pfa":10839,"pfu":10840,"vin":10841,"بت":10842,"بات":10843,"خير":10844,"وها":10845,"ሏል":10846,"መም":10847,"ሜን":10848,"ሰሩ":10849,"ነቱን":10850,"ንካ":10851,"ደም":10852,"ገቡ":10853,"ጫወ":10854,"▁$":10855,"▁ፊ":10856,"▁🚶":10857,"👊👊":10858,"🤩🤩":10859,"▁musa":10860,"▁aut":10861,"▁achi":10862,"▁kedụ":10863,"▁daku":10864,"▁ohh":10865,"▁ija":10866,"▁iwájú":10867,"▁hair":10868,"▁fed":10869,"▁fool":10870,"orera":10871,"▁pati":10872,"akora":10873,"▁Aga":10874,"▁Aku":10875,"▁rà":10876,"▁remo":10877,"▁yaa":10878,"▁የፍ":10879,"ukai":10880,"▁አቋ":10881,"▁Ot":10882,"wear":10883,"▁zak":10884,"▁በቅር":10885,"▁inst":10886,"▁onitsha":10887,"ga,":10888,"▁By":10889,"▁Bó":10890,"▁abụ":10891,"▁abia":10892,"ho,":10893,"ra,":10894,"▁D.":10895,"▁መዝ":10896,"dogo":10897,"▁gbẹ":10898,"▁album":10899,"▁يرحم":10900,"▁haushi":10901,"sa,":10902,"▁wode":10903,"duà":10904,"▁المد":10905,"▁encon":10906,"▁enquanto":10907,"▁ብሄር":10908,"alav":10909,"▁sair":10910,"▁lówó":10911,"▁unaweza":10912,"▁ማርያም":10913,"ديم":10914,"▁kwasia":10915,"▁n'u":10916,"▁n'ụ":10917,"▁guh":10918,"vival":10919,"▁tsine":10920,"▁Ìgbà":10921,"▁mataki":10922,"▁China":10923,"adies":10924,"▁wicked":10925,"????????":10926,"▁afia":10927,"▁አንቺ":10928,"▁ውጤ":10929,"lógún":10930,"▁kejì":10931,"▁protest":10932,"▁ክል":10933,"▁yeye":10934,"▁የአዲስ":10935,"▁ገበ":10936,"▁ụzọ":10937,"▁shock":10938,"▁راح":10939,"▁Muhammad":10940,"▁dịrị":10941,"▁biko.":10942,"▁بالله":10943,"▁5.":10944,"▁4.":10945,"ምንት":10946,"ህንነት":10947,"míì":10948,"▁mbona":10949,"▁nnam":10950,"▁maybe":10951,"▁مزي":10952,"▁الخير":10953,"▁kutumia":10954,"▁entre":10955,"▁Nígbà":10956,"▁hands":10957,"▁2023":10958,"▁😂😂😂😂😂😂😂":10959,"▁alive":10960,"▁traffic":10961,"▁ምርጥ":10962,"ccess":10963,"genzi":10964,"طونا":10965,"▁#nigeria":10966,"▁Boko":10967,"️️️️":10968,"▁Pole":10969,"▁الصحة":10970,"angelho":10971,"▁tatt":10972,"▁بعض":10973,"▁oòrùn":10974,"▁seriously":10975,"&gt;&gt;":10976,"▁😍😍😍":10977,"▁السياسة":10978,"▁iphone":10979,"bamoodua":10980,"▁parece":10981,"▁🥰😘🔥":10982,"'ayi":10983,"45":10984,"65":10985,"97":10986,"BD":10987,"Or":10988,"Qh":10989,"SU":10990,"bye":10991,"cika":10992,"fẹ̀":10993,"ford":10994,"kum":10995,"l3":10996,"ms":10997,"phy":10998,"uz":10999,"vs":11000,"waka":11001,"yẹ̀":11002,"yara":11003,"جع":11004,"دخل":11005,"طات":11006,"طني":11007,"فريق":11008,"وان":11009,"ሀት":11010,"ማል":11011,"ችልም":11012,"ወስ":11013,"ወደ":11014,"ድብ":11015,"ጎት":11016,"▁ቻ":11017,"▁😋":11018,"▁ኧረ":11019,"🥴🥴":11020,"ande":11021,"▁n3":11022,"▁mbe":11023,"▁k’":11024,"▁dou":11025,"▁tashin":11026,"▁bli":11027,"▁wó":11028,"▁ow":11029,"▁opolo":11030,"▁yɜ":11031,"▁ibo":11032,"▁gat":11033,"▁gate":11034,"▁ghan":11035,"▁huwa":11036,"▁hbiba":11037,"▁lako":11038,"▁lkh":11039,"▁fos":11040,"▁cus":11041,"▁rú":11042,"▁የገባ":11043,"▁dau":11044,"tty":11045,"ismo":11046,"lejò":11047,"▁OR":11048,"▁ọpọlọ":11049,"▁àmì":11050,"▁Kedụ":11051,"▁Imo":11052,"▁Ilẹ̀":11053,"▁udi":11054,"▁inte":11055,"▁inji":11056,"▁internet":11057,"arac":11058,"▁wajan":11059,"▁Eko":11060,"▁Ewé":11061,"▁Ekele":11062,"▁abe":11063,"▁goyon":11064,"right":11065,"liwa":11066,"▁koya":11067,"wo,":11068,"▁òwò":11069,"▁Cha":11070,"▁Cho":11071,"▁Cap":11072,"▁Who":11073,"▁ይበ":11074,"▁ለዘ":11075,"▁sugar":11076,"▁movie":11077,"sa.":11078,"▁wob3":11079,"▁اما":11080,"▁اذا":11081,"▁PDP":11082,"▁ỌMỌ":11083,"▁المست":11084,"▁ወጥ":11085,"▁siya":11086,"▁yangu":11087,"▁Àà":11088,"▁Àti":11089,"▁adv":11090,"▁uncle":11091,"▁maida":11092,"▁zazzau":11093,"omeye":11094,"▁munga":11095,"▁viver":11096,"▁allow":11097,"itekere":11098,"▁sanin":11099,"▁Zai":11100,"▁wà,":11101,"▁waste":11102,"▁Albarka":11103,"▁trump":11104,"▁trouble":11105,"▁إلا":11106,"▁Muito":11107,"▁بالم":11108,"روك":11109,"فاس":11110,"▁كيما":11111,"▁boyfriend":11112,"▁fuel":11113,"▁respect":11114,"▁መልስ":11115,"▁Ṣe":11116,"▁ቅር":11117,"▁walo":11118,"▁ayélujára":11119,"▁مزال":11120,"▁ضرب":11121,"▁\"\"\"\"\"\"\"\"\"\"\"\"\"\"\"\"@user:":11122,"dàgbà":11123,"▁🙌🏾":11124,"language":11125,"▁momento":11126,"▁watching":11127,"▁እርምጃ":11128,"OfThe":11129,"▁ojoo":11130,"👇👇👇👇":11131,"▁Ibyo":11132,"قرير":11133,"▁መከላከያ":11134,"▁aljanna":11135,"▁nyansa":11136,"▁Trump":11137,"ikorwa":11138,"▁ፎቶ":11139,"▁ደጋፊ":11140,"▁Tenho":11141,"▁period":11142,"CI":11143,"Jesus":11144,"LD":11145,"Na":11146,"Onye":11147,"Pa":11148,"WO":11149,"\\u":11150,"bra":11151,"byo":11152,"dc":11153,"dat":11154,"eu":11155,"ez":11156,"eze":11157,"fẹ":11158,"lisha":11159,"mn":11160,"mah":11161,"mente":11162,"qara":11163,"t3":11164,"tk":11165,"xO":11166,"yd":11167,"دات":11168,"سان":11169,"طق":11170,"ظيم":11171,"فار":11172,"قص":11173,"قف":11174,"كارة":11175,"ለቅ":11176,"ርግ":11177,"ሰቡ":11178,"ስቱ":11179,"ባዊ":11180,"ታቸውን":11181,"ንጆ":11182,"ዎት":11183,"ዘን":11184,"ፈስ":11185,"▁ጊ":11186,"🇬🇧":11187,"🙏🏼":11188,"🥺🥺":11189,"▁nini":11190,"▁numva":11191,"▁mò":11192,"▁maku":11193,"▁kere":11194,"▁kura":11195,"▁kitu":11196,"▁damun":11197,"▁sus":11198,"▁situ":11199,"▁wale":11200,"▁oto":11201,"▁ich":11202,"▁hya":11203,"▁lal":11204,"▁less":11205,"▁cyan":11206,"▁cast":11207,"▁ph":11208,"▁ppl":11209,"enzi":11210,"urira":11211,"▁النا":11212,"▁yaud":11213,"▁nibi":11214,"yaa":11215,"▁anti":11216,"ised":11217,"▁NE":11218,"▁Mp":11219,"▁Ms":11220,"▁Muk":11221,"▁Mais":11222,"▁Oni":11223,"▁àrà":11224,"▁በሌ":11225,"▁በቁ":11226,"chen":11227,"▁Ekw":11228,"▁TO":11229,"hobora":11230,"▁መተ":11231,"▁RE":11232,"▁ṣò":11233,"▁òǹ":11234,"▁فب":11235,"▁gi?":11236,"▁Gẹ̀ẹ́sì":11237,"▁fico":11238,"لاص":11239,"▁akwụ":11240,"▁3ad":11241,"▁gave":11242,"▁mother":11243,"ject":11244,"▁Lẹ́":11245,"▁imbere":11246,"▁ተሰ":11247,"▁ተመል":11248,"▁اعت":11249,"▁build":11250,"▁ወገ":11251,"▁lágbára":11252,"ular":11253,"nel":11254,"▁fach":11255,"▁نقول":11256,"▁adì":11257,"▁kwamba":11258,"▁#Ifa":11259,"▁(1":11260,"▁أش":11261,"▁እናት":11262,"▁zagi":11263,"▁atiku":11264,"▁mman":11265,"▁America":11266,"▁ውጭ":11267,"▁jẹ́.":11268,"▁Ver":11269,"▁Inna":11270,"▁riga":11271,"▁sanya":11272,"▁jehovah":11273,"▁ZA":11274,"▁qasar":11275,"▁gan-an":11276,"▁ታላቅ":11277,"eneye":11278,"▁wà.":11279,"▁Aljan":11280,"▁አለኝ":11281,"▁ሀይል":11282,"▁??'":11283,"▁የምታ":11284,"▁Mudai":11285,"▁ለማለት":11286,"لكة":11287,"▁eran":11288,"▁sabida":11289,"▁iki?":11290,"▁Nna,":11291,"▁matsayin":11292,"▁ዝግ":11293,"▁k'ó":11294,"▁zasuyi":11295,"▁series":11296,"▁አካል":11297,"▁Mungu":11298,"▁kirki":11299,"▁شيء":11300,"▁Até":11301,"هدر":11302,"riage":11303,"▁State":11304,"▁ṣíṣe":11305,"scri":11306,"▁majal":11307,"▁nauyin":11308,"▁camera":11309,"▁pensar":11310,"ላችንም":11311,"▁politi":11312,"▁almost":11313,"▁mãe":11314,"▁ወቅት":11315,"▁ọjọọ":11316,"▁football":11317,"▁#COVID19":11318,"▁#yorubatv":11319,"▁ÀWỌN":11320,"▁جياحة":11321,"▁OLÚWA":11322,"66":11323,"94":11324,"Co":11325,"ED":11326,"MS":11327,"OO":11328,"TH":11329,"Tr":11330,"bti":11331,"cra":11332,"dẹ́":11333,"fat":11334,"gama":11335,"jèè":11336,"km":11337,"tos":11338,"wen":11339,"çambi":11340,"طف":11341,"كين":11342,"ም'":11343,"ቀን":11344,"ቃሚ":11345,"ቡብ":11346,"ቴር":11347,"ካሄ":11348,"ያየት":11349,"▁🎤":11350,"▁😄😄":11351,"🇲🇦":11352,"😲😲":11353,"▁mwe":11354,"▁mbu":11355,"▁mate":11356,"▁koo":11357,"▁kari":11358,"▁kamu":11359,"▁karibu":11360,"inde":11361,"▁bù":11362,"▁bast":11363,"▁wé":11364,"▁ocha":11365,"▁ogwu":11366,"▁iṣu":11367,"▁gist":11368,"▁cro":11369,"▁cent":11370,"▁pamoja":11371,"الات":11372,"alt":11373,"alan":11374,"▁Aunty":11375,"▁#l":11376,"▁#aso":11377,"▁rou":11378,"▁الام":11379,"add":11380,"hemu":11381,"▁jiki":11382,"gbara":11383,"utun":11384,"▁Men":11385,"▁Ou":11386,"▁àlá":11387,"▁àṣe":11388,"▁Kub":11389,"▁Ima":11390,"▁Iṣẹ́":11391,"▁مق":11392,"▁ولكن":11393,"▁mechi":11394,"weze":11395,"▁z'":11396,"▁በክ":11397,"▁ma'":11398,"▁maame":11399,"▁Sem":11400,"▁ìlù":11401,"▁se?":11402,"▁Domin":11403,"▁gode":11404,"▁መጣ":11405,"igaye":11406,"▁nepa":11407,"lip":11408,"▁kola":11409,"zil":11410,"tead":11411,"▁Wi":11412,"▁Wow":11413,"▁تقول":11414,"▁sound":11415,"▁ነው፡፡":11416,"▁loko":11417,"▁ለብ":11418,"لاب":11419,"▁akụ":11420,"pote":11421,"▁esque":11422,"▁ተመ":11423,"ira.":11424,"▁ስታ":11425,"▁allahu":11426,"▁Jam":11427,"▁living":11428,"pped":11429,"▁least":11430,"▁saira":11431,"▁lókè":11432,"▁Face":11433,"▁ẸGB":11434,"▁حا":11435,"▁tears":11436,"▁kwara":11437,"▁manya":11438,"▁agenda":11439,"▁هم":11440,"wili":11441,"▁سعد":11442,"▁والن":11443,"▁ماي":11444,"▁chief":11445,"اشي":11446,"▁ጥቃት":11447,"handa":11448,"▁kaima":11449,"▁nyɛ":11450,"▁ቀጥ":11451,"ANI":11452,"▁marasa":11453,"▁brofo":11454,"▁ገዳ":11455,"▁البل":11456,"ادة":11457,"▁ስለዚህ":11458,"▁በአንድ":11459,"▁burgeni":11460,"mọ̀ṣọ́":11461,"▁na-eme":11462,"▁pesa":11463,"2018":11464,"▁ekpere":11465,"▁ጀምሮ":11466,"▁talakawan":11467,"▁ሃሳብ":11468,"▁falta":11469,"▁tinha":11470,"▁mkpa":11471,"▁taimaki":11472,"▁#ebi":11473,"▁fahim":11474,"▁eeh":11475,"▁spend":11476,"▁ሥራ":11477,"زائري":11478,"2021":11479,"2022":11480,"▁surpr":11481,"ession":11482,"▁ዕድ":11483,"ከተማ":11484,"pendence":11485,"▁sentir":11486,"▁early":11487,"▁cloth":11488,"▁visit":11489,"▁ሙስሊም":11490,"Tube":11491,"▁Thank":11492,"▁úni":11493,"▁soyayya":11494,"አዴግ":11495,"▁بسباب":11496,"▁during":11497,"▁jagora":11498,"▁Ebube":11499,"▁kotoko":11500,"▁#yorubaweddings":11501,"▁باتنة":11502,"jèèjì":11503,"-a":11504,"LU":11505,"cem":11506,"dh":11507,"fú":11508,"fún":11509,"furi":11510,"gọ́":11511,"gia":11512,"há":11513,"lK":11514,"sai":11515,"vas":11516,"xx":11517,"zir":11518,"~~":11519,"ília":11520,"عين":11521,"هب":11522,"وار":11523,"ሃን":11524,"ለበት":11525,"ምራ":11526,"ርማ":11527,"ርክ":11528,"ንቋ":11529,"ከራ":11530,"ጎች":11531,"▁💃":11532,"▁🔥🔥":11533,"▁ero":11534,"▁😆😆":11535,"💥💥":11536,"😘😘":11537,"▁noss":11538,"▁nhyira":11539,"▁mts":11540,"▁a,":11541,"▁azz":11542,"▁d3":11543,"▁db":11544,"▁dɛ":11545,"▁dike":11546,"▁duro":11547,"▁t3":11548,"▁tena":11549,"▁sà":11550,"▁bash":11551,"▁batan":11552,"▁w’":11553,"▁wutar":11554,"▁ohia":11555,"▁yàn":11556,"▁yaye":11557,"▁ipò":11558,"▁gwan":11559,"▁gaya":11560,"▁faa":11561,"▁fast":11562,"▁eiii":11563,"▁eégún":11564,"▁cow":11565,"▁nae":11566,"▁Ach":11567,"▁Agba":11568,"▁#ha":11569,"ahun":11570,"ahia":11571,"▁ris":11572,"▁الري":11573,"ikpa":11574,"▁jay":11575,"▁jìn":11576,"▁የሃ":11577,"▁NÍ":11578,"▁àrùn":11579,"▁Iy":11580,"▁Irú":11581,"▁مرة":11582,"▁kaa":11583,"▁kaza":11584,"▁ink":11585,"▁ino":11586,"▁inyuma":11587,"▁Bas":11588,"▁Bai":11589,"lack":11590,"lagos":11591,"▁kudu":11592,"▁muita":11593,"▁vs":11594,"▁abana":11595,"▁Dá":11596,"▁wants":11597,"▁amụ":11598,"▁መታ":11599,"▁መነ":11600,"▁መድ":11601,"▁بغ":11602,"▁Ram":11603,"▁لأ":11604,"▁gbí":11605,"▁kofi":11606,"za.":11607,"▁CH":11608,"▁Wana":11609,"▁WhatsApp":11610,"▁ẹyin":11611,"▁Gwam":11612,"▁local":11613,"▁ለዚህ":11614,"lope":11615,"yoyin":11616,"راح":11617,"▁Par":11618,"▁shikenan":11619,"▁siy":11620,"uriye":11621,"▁saida":11622,"▁using":11623,"▁both":11624,"___":11625,"▁n'ime":11626,"▁n'eme":11627,"▁ẹ̀kọ́":11628,"▁ordinary":11629,"gun,":11630,"▁ahan":11631,"wiya":11632,"▁babes":11633,"▁pot":11634,"واب":11635,"▁chill":11636,"▁ibẹ̀":11637,"▁Anyị":11638,"▁disso":11639,"▁nkwa":11640,"▁yìí?":11641,"▁knw":11642,"▁ሁለ":11643,"▁አስታወ":11644,"▁البلاد":11645,"▁wahalar":11646,"▁ሀሳብ":11647,"▁የምር":11648,"▁Yorùbátv":11649,"فاع":11650,"▁mọ́,":11651,"▁utd":11652,"▁الدين":11653,"▁kwanza":11654,"▁walahi":11655,"▁walakin":11656,"▁አብሮ":11657,"😹😹😹😹":11658,"▁wakar":11659,"▁nwee":11660,"▁ሃገር":11661,"▁ሌባ":11662,"▁Nwanne,":11663,"▁zamuyi":11664,"kùnrin":11665,"▁እነሱ":11666,"frika":11667,"▁ubuzima":11668,"▁merci":11669,"afia":11670,"▁subhan":11671,"gether":11672,"▁ኮሚ":11673,"WordOf":11674,"▁ibadan":11675,"▁አሜሪካ":11676,"▁addini":11677,"▁gbádùn":11678,"▁للمغرب":11679,"♥️♥️":11680,"▁አደረሳችሁ":11681,"▁Serikali":11682,"▁John":11683,"imbali":11684,"▁እምነት":11685,"▁tausayi":11686,"curity":11687,"▁Mmadu":11688,"▁precisa":11689,"فضل":11690,"▁Ikibazo":11691,"▁مغربي":11692,"▁غاضني":11693,"▁Imela":11694,"▁correct":11695,"▁Nonese":11696,"ospital":11697,"▁appreciate":11698,"▁gimme":11699,"▁#asoebi":11700,"▁ẸGBẸ":11701,"82":11702,"Bo":11703,"By":11704,"HH":11705,"Ka":11706,"ago":11707,"dika":11708,"ex":11709,"fit":11710,"ging":11711,"gura":11712,"genda":11713,"hã":11714,"kn":11715,"lhe":11716,"qo":11717,"rah":11718,"rou":11719,"tha":11720,"ufa":11721,"wem":11722,"wale":11723,"àgbà":11724,"خابات":11725,"دد":11726,"ضح":11727,"مين":11728,"نان":11729,"يار":11730,"ለሽ":11731,"ለቀ":11732,"ረም":11733,"ሳሰብ":11734,"ነሱ":11735,"ኖረው":11736,"ካሪ":11737,"ዛው":11738,"ጠሩ":11739,"▁ኡ":11740,"▁ጁ":11741,"▁✅":11742,"▁💪💪":11743,"▁ጤና":11744,"🇨🇮":11745,"👏🏽":11746,"▁nchi":11747,"▁agbára":11748,"▁dere":11749,"▁tx":11750,"▁tuta":11751,"inal":11752,"▁band":11753,"▁bgha":11754,"▁obe":11755,"▁okan":11756,"▁oyè":11757,"▁yats":11758,"▁iwu":11759,"▁iyan":11760,"▁gur":11761,"▁hw3":11762,"▁laye":11763,"▁fé":11764,"ensi":11765,"ention":11766,"▁Ale":11767,"▁Aare":11768,"uryo":11769,"ummar":11770,"▁jer":11771,"▁jun":11772,"▁jẹ̀":11773,"▁የኤ":11774,"▁የፌ":11775,"▁anụ":11776,"▁እህ":11777,"utan":11778,"▁Mallam":11779,"oogle":11780,"▁موا":11781,"▁مثل":11782,"▁وصل":11783,"tigo":11784,"▁medi":11785,"▁በድ":11786,"▁ul":11787,"▁Sam":11788,"▁Sim":11789,"▁Shin":11790,"▁ìrè":11791,"▁ìsinmi":11792,"▁kuan":11793,"▁kugira":11794,"▁ven":11795,"▁vit":11796,"▁wanka":11797,"▁برا":11798,"aka,":11799,"akazi":11800,"▁Ray":11801,"▁لج":11802,"dodo":11803,"▁òṣù":11804,"▁thought":11805,"▁Won":11806,"▁With":11807,"▁Hhhhh":11808,"▁dog":11809,"▁asante":11810,"▁fiz":11811,"▁soci":11812,"kid":11813,"▁ነው!!":11814,"▁31":11815,"▁moto":11816,"▁china":11817,"fici":11818,"boka":11819,"▁ተጋ":11820,"▁umus":11821,"▁umwanya":11822,"ada,":11823,"▁Per":11824,"▁Ọkwa":11825,"▁ብልጽግና":11826,"▁èé":11827,"▁نظ":11828,"▁نهار":11829,"▁Ẹlẹ́":11830,"lé.":11831,"▁ÀGBÁ":11832,"▁adam":11833,"رباط":11834,"▁rapu":11835,"▁Ìdí":11836,"▁هك":11837,"▁አይቀር":11838,"▁shegiya":11839,"▁قل":11840,"▁okpa":11841,"ado.":11842,"▁Aminu":11843,"▁ውሸት":11844,"lówó":11845,"itain":11846,"▁musi":11847,"uniyar":11848,"▁rí,":11849,"▁worth":11850,"▁ድጋ":11851,"▁Èdùmàrè":11852,"▁outside":11853,"▁ubundi":11854,"ushin":11855,"▁ouvir":11856,"▁ebea":11857,"ደርጉ":11858,"▁mesma":11859,"▁ጠላት":11860,"▁oma.":11861,"▁música":11862,"▁الجم":11863,"▁ghay":11864,"▁هادي":11865,"▁mbal":11866,"▁Ṣàngó":11867,"😁😁😁":11868,"▁ዓለም":11869,"▁ሌሎች":11870,"▁half":11871,"iiiii":11872,"tanda":11873,"dìẹ":11874,"▁عندنا":11875,"▁elimu":11876,"▁Saura":11877,"قوق":11878,"▁trying":11879,"▁ፖለቲከ":11880,"▁werey":11881,"▁subscri":11882,"sàlẹ̀":11883,"▁Liverpool":11884,"▁Covid":11885,"hammadu":11886,"Amaka":11887,"ursday":11888,"▁governor":11889,"▁craze":11890,"▁gtgt":11891,"▁Mahmud":11892,"womana":11893,"▁december":11894,"umbufu":11895,"▁ይቅርታ":11896,"▁shekaru":11897,"▁mmoja":11898,"🏃‍♂️🏃‍♂️":11899,"▁burúkú":11900,"▁العماري":11901,"▁vídeo":11902,"▁amigos":11903,"▁Translation":11904,"▁shinkafa":11905,"▁agbègbè":11906,"'e":11907,"46":11908,"53":11909,"7o":11910,"?'":11911,"AA":11912,"Aje":11913,"End":11914,"Me":11915,"More":11916,"PP":11917,"Proverb":11918,"SE":11919,"You":11920,"b9":11921,"gal":11922,"gane":11923,"jm":11924,"jìn":11925,"para":11926,"ral":11927,"whi":11928,"wọ́n":11929,"wite":11930,"xy":11931,"zen":11932,"بك":11933,"تا":11934,"تة":11935,"خخ":11936,"قلي":11937,"نيا":11938,"يق":11939,"ለድ":11940,"ሳል":11941,"ስህ":11942,"ሻሻ":11943,"ቀሳ":11944,"ከል":11945,"የሱስ":11946,"ዱን":11947,"ፈፀ":11948,"▁—":11949,"▁😠😠":11950,"☝️":11951,"🇨🇴":11952,"🇨🇺":11953,"🇯🇧🇷":11954,"🇹🇬🇧":11955,"😌😌":11956,"▁nse":11957,"▁nine":11958,"▁mó":11959,"▁mir":11960,"▁mist":11961,"▁afi":11962,"▁ker":11963,"▁kora":11964,"▁kukan":11965,"▁daki":11966,"▁titi":11967,"▁treat":11968,"▁touch":11969,"▁sig":11970,"▁wn":11971,"▁wọ́":11972,"▁wumva":11973,"▁ome":11974,"▁igbe":11975,"▁gab":11976,"▁hail":11977,"▁luk":11978,"▁fadin":11979,"oru":11980,"▁efe":11981,"▁nao":11982,"▁Akwa":11983,"▁Acho":11984,"▁raha":11985,"▁demo":11986,"es.":11987,"▁nisan":11988,"let":11989,"ley":11990,"abara":11991,"▁Kwan":11992,"▁Kee":11993,"▁bagh":11994,"▁وان":11995,"▁ومن":11996,"emba":11997,"▁novo":11998,"iman":11999,"▁inform":12000,"ga.":12001,"▁wag":12002,"▁maze":12003,"▁SU":12004,"▁Ben":12005,"▁ìlà":12006,"▁kuce":12007,"▁Th":12008,"▁abar":12009,"▁welu":12010,"rias":12011,"▁بح":12012,"▁tie":12013,"▁òbí":12014,"▁ònìí":12015,"▁isar":12016,"▁ishi":12017,"▁thread":12018,"▁Cyane":12019,"▁Há":12020,"▁Hom":12021,"▁Hakan":12022,"sey":12023,"▁تقرير":12024,"▁Gusa":12025,"▁asusu":12026,"▁ይበል":12027,"▁Uni":12028,"cides":12029,"▁loju":12030,"▁haq":12031,"▁estu":12032,"▁اسم":12033,"▁shake":12034,"▁shakara":12035,"▁المنت":12036,"▁ener":12037,"▁biha":12038,"ira,":12039,"▁lásán":12040,"▁hell":12041,"▁èso":12042,"▁ọ̀dọ́":12043,"andom":12044,"▁የሚባል":12045,"▁usumbufu":12046,"ìní":12047,"▁stream":12048,"▁kwall":12049,"▁فيديو":12050,"▁gudun":12051,"▁ẹ̀wà":12052,"▁matukar":12053,"▁ndigbo":12054,"guns":12055,"gungun":12056,"▁ست":12057,"▁afite":12058,"▁poor":12059,"▁ndir":12060,"▁.'":12061,"▁እንደዚህ":12062,"▁chim":12063,"▁ibya":12064,"▁oo.":12065,"▁aiye":12066,"láwọ̀":12067,"▁Ins":12068,"▁shawar":12069,"▁shawara":12070,"▁Èdè":12071,"▁rokon":12072,"▁makom":12073,"▁nwayo":12074,"▁ሀይ":12075,"kwọ":12076,"▁dayawa":12077,"ደረሰ":12078,"▁madrid":12079,"▁الوكيل":12080,"▁bater":12081,"▁Umva":12082,"😍😍😍":12083,"▁bazamu":12084,"▁wengi":12085,"▁méjèèjì":12086,"▁تحت":12087,"▁Tafadhali":12088,"rùn-ún":12089,"▁mẹ́rin":12090,"▁cyane.":12091,"▁🇳🇬🇹🇬🇧":12092,"▁claim":12093,"▁entrar":12094,"▁agbara":12095,"▁#Pari":12096,"قدم":12097,"▁train":12098,"isode":12099,"yamakuru":12100,"▁kusk":12101,"▁Hmmmm":12102,"▁YouTube":12103,"▁ìdílé":12104,"▁tabbas":12105,"▁100%":12106,"▁مبعد":12107,"▁መሰረት":12108,"mìlà":12109,"▁kweli":12110,"▁ኦነግ":12111,"rúnmìlà":12112,"ገኘው":12113,"▁voltar":12114,"▁patr":12115,"▁tausaya":12116,"▁እጅግ":12117,"▁nkuzi":12118,"▁masifa":12119,"▁rajiun":12120,"gidigba":12121,"▁የሌለው":12122,"▁leaders":12123,"قراطية":12124,"▁بلادنا":12125,"▁motor":12126,"▁influ":12127,"sókè":12128,"▁ugbua":12129,"🇬🇭🇨🇮":12130,"▁ubwenge":12131,"▁درهم":12132,"▁ንግግር":12133,"▁talauci":12134,"▁sofrer":12135,"▁#AyajoOjo":12136,"▁ÀGBÁYÉ":12137,"🇨🇴🇨🇺":12138,"🇯🇧🇷🇨🇴🇨🇺":12139,"▁🇳🇬🇹🇬🇧🇯🇧🇷🇨🇴🇨🇺":12140,"▁🇳🇬🇹🇬🇧🇯🇧🇷🇨🇴🇨🇺🇬🇭🇨🇮":12141,"-A":12142,".#":12143,"/ሚ":12144,"100":12145,"?🤔":12146,"Br":12147,"CC":12148,"NI":12149,"Now":12150,"New":12151,"North":12152,"Pr":12153,"Tiskat":12154,"Yo":12155,"gàn":12156,"gore":12157,"i,":12158,"ij":12159,"jina":12160,"kẹrẹ":12161,"ml":12162,"ola":12163,"qg":12164,"vent":12165,"ìrì":12166,"خد":12167,"فين":12168,"مس":12169,"نسي":12170,"ላቀ":12171,"ሙስሊ":12172,"ረበ":12173,"ርዳ":12174,"ሳሌ":12175,"ቀበ":12176,"ብራ":12177,"ችኋ":12178,"ክርስቲያን":12179,"ውነት":12180,"ይና":12181,"ደገ":12182,"ገቱ":12183,"ጣው":12184,"ṣé":12185,"••":12186,"▁ሹ":12187,"▁ኳ":12188,"▁😩😩":12189,"🥰🥰":12190,"anze":12191,"▁nara":12192,"▁nani":12193,"▁nome":12194,"▁mf":12195,"▁mgb":12196,"▁mta":12197,"▁mli":12198,"▁mari":12199,"▁ahh":12200,"▁kig":12201,"▁kema":12202,"▁dash":12203,"▁tata":12204,"▁tsiya":12205,"▁wèrè":12206,"arama":12207,"▁ogbon":12208,"▁izi":12209,"▁gurin":12210,"▁grow":12211,"▁hab":12212,"▁haya":12213,"▁hash":12214,"▁fati":12215,"▁fly":12216,"▁emo":12217,"▁egg":12218,"▁cul":12219,"▁could":12220,"▁pple":12221,"▁Aha":12222,"▁#yo":12223,"▁#ondo":12224,"▁rẹ́":12225,"▁dep":12226,"llars":12227,"irm":12228,"▁nili":12229,"▁የክ":12230,"▁የስራ":12231,"tttt":12232,"▁anam":12233,"▁Nti":12234,"▁Naija":12235,"leo":12236,"yeme":12237,"▁Of":12238,"▁ọpẹ́":12239,"▁ọgbọ́n":12240,"▁Ilu":12241,"wedding":12242,"▁kazo":12243,"▁mau":12244,"▁Som":12245,"▁B'":12246,"▁Bara":12247,"▁ìrìn":12248,"▁muji":12249,"▁vc":12250,"yii":12251,"▁Dore":12252,"▁wangu":12253,"deos":12254,"▁መጨረሻ":12255,"▁RA":12256,"▁ònye":12257,"▁فق":12258,"▁ẹbọ":12259,"▁ẹyọ":12260,"▁Gom":12261,"▁ashi":12262,"▁ከጎ":12263,"to,":12264,"bola":12265,"▁كلام":12266,"▁woho":12267,"▁ተገ":12268,"▁PA":12269,"gihe":12270,"jaw":12271,"▁báwo":12272,"▁shigo":12273,"▁leyin":12274,"▁levar":12275,"يرو":12276,"▁sí.":12277,"▁Ẹkú":12278,"ubundi":12279,"▁Àì":12280,"وندي":12281,"▁agye":12282,"▁orò":12283,"íní":12284,"▁سيد":12285,"▁hanya":12286,"▁ደህንነት":12287,"▁afẹ́":12288,"يام":12289,"▁talakka":12290,"😂😂😂😂😂😂":12291,"▁chick":12292,"▁proper":12293,"▁رجل":12294,"▁gịnị":12295,"▁wọn,":12296,"▁rí.":12297,"▁kaimu":12298,"▁التنمية":12299,"▁marriage":12300,"▁existe":12301,"▁للب":12302,"▁nufi":12303,"▁የአሜሪካ":12304,"ambere":12305,"▁makaran":12306,"▁Ọ̀nà":12307,"▁bayar":12308,"▁الاس":12309,"▁የመጨረሻ":12310,"▁Yorùbá,":12311,"▁500":12312,"▁m3ah":12313,"▁طن":12314,"pres":12315,"قيق":12316,"▁parí":12317,"توفيق":12318,"▁prepar":12319,"اعة":12320,"🤣🤣🤣🤣🤣":12321,"ution":12322,"▁méje":12323,"▁6.":12324,"▁nossa":12325,"😀😀😀":12326,"bẹ̀rẹ̀":12327,"▁kabarin":12328,"▁balle":12329,"1067":12330,"▁gukora":12331,"▁sharrin":12332,"▁kékeré":12333,"🏃🏃🏃":12334,"▁Barcelona":12335,"▁tabbata":12336,"▁ድርጅ":12337,"😂😂😂😂😂😂😂😂😂😂😂😂😂😂😂😂":12338,"▁general":12339,"ስልጣን":12340,"▁نعرف":12341,"ላማዊ":12342,"▁الوطنية":12343,"fanyia":12344,"▁jama'a":12345,"▁tẹ́lẹ̀":12346,"صاور":12347,"▁record":12348,"▁network":12349,"▁ድምፅ":12350,"▁customers":12351,"Super":12352,"gẹ̀dẹ̀":12353,"▁ዐቢይ":12354,"▁cruise":12355,"Conference":12356,"▁bindiga":12357,"▁especially":12358,"▁mbalimbali":12359,"):":12360,"-ọ":12361,"-èdè":12362,"21":12363,"26":12364,"3ma":12365,"DG":12366,"DS":12367,"Do":12368,"FI":12369,"Friday":12370,"Ku":12371,"OU":12372,"Our":12373,"RT":12374,"VI":12375,"bya":12376,"fiki":12377,"gù":12378,"gabo":12379,"hs":12380,"hwa":12381,"hora":12382,"ip":12383,"kiri":12384,"light":12385,"sị":12386,"tas":12387,"vura":12388,"wir":12389,"yyar":12390,"èé":12391,"ìmọ̀":12392,"òrùn":12393,"اذ":12394,"جاح":12395,"سل":12396,"مان":12397,"ملكة":12398,"ሁኑ":12399,"ላን":12400,"ሔራዊ":12401,"ማረ":12402,"ሰት":12403,"በራ":12404,"ተዋል":12405,"ታል።":12406,"ወች":12407,"ዊት":12408,"ውቅ":12409,"ዱት":12410,"ግኘት":12411,"ጠቃ":12412,"▁ጸ":12413,"▁‍":12414,"▁🤝":12415,"▁ፊት":12416,"▁😃😃":12417,"💋💋":12418,"▁nata":12419,"▁nàìjíríà":12420,"▁mme":12421,"inna":12422,"▁ope":12423,"▁yalah":12424,"▁greet":12425,"▁lara":12426,"▁fra":12427,"▁egb":12428,"asem":12429,"▁cake":12430,"▁Ay":12431,"▁App":12432,"bai":12433,"▁#ad":12434,"▁rass":12435,"aidia":12436,"▁الوا":12437,"ikombe":12438,"▁jon":12439,"▁jab":12440,"▁jump":12441,"▁አለም":12442,"▁dauke":12443,"▁Mug":12444,"▁Ogo":12445,"▁Ojo":12446,"▁Kina":12447,"▁Ita":12448,"▁bacci":12449,"▁ور":12450,"▁በምን":12451,"re,":12452,"▁mago":12453,"▁Sal":12454,"▁Sum":12455,"cewa":12456,"▁Bur":12457,"▁vais":12458,"hol":12459,"▁wel":12460,"▁Dalu":12461,"▁amara":12462,"▁aminu":12463,"▁መም":12464,"▁بها":12465,"▁nee":12466,"lici":12467,"▁gbẹ̀":12468,"bi.":12469,"▁theres":12470,"jiji":12471,"ved":12472,"▁عار":12473,"▁Han":12474,"▁ẹgbẹ":12475,"▁እንቅ":12476,"▁GA":12477,"▁alham":12478,"cias":12479,"▁fica":12480,"ged":12481,"▁hapo":12482,"▁akbar":12483,"▁success":12484,"▁esper":12485,"▁ያላ":12486,"dupe":12487,"▁saf":12488,"▁ወጣት":12489,"sible":12490,"▁Jonathan":12491,"new":12492,"▁ọ̀pẹ":12493,"▁sílé":12494,"▁fact":12495,"tua":12496,"▁نش":12497,"▁منهم":12498,"▁arụ":12499,"▁anaghị":12500,"▁هل":12501,"▁cold":12502,"▁شوف":12503,"▁سنة":12504,"▁ifẹ̀":12505,"▁afụ":12506,"▁vifurushi":12507,"▁ልት":12508,"▁ልማት":12509,"▁haryan":12510,"▁جا":12511,"jui":12512,"▁#On":12513,"▁🙏🏼":12514,"▁خرج":12515,"▁nkwo":12516,"▁ህይወት":12517,"▁Vo":12518,"final":12519,"▁key":12520,"▁acred":12521,"▁غي":12522,"▁#Eternal":12523,"▁express":12524,"داد":12525,"▁l'á":12526,"▁ukur":12527,"▁makes":12528,"ção,":12529,"▁ụtụtụ":12530,"▁triste":12531,"▁البام":12532,"▁pic":12533,"▁ሀገራ":12534,"▁against":12535,"▁የምና":12536,"▁oui":12537,"▁علاه":12538,"▁eh,":12539,"▁sókè":12540,"▁perce":12541,"▁perfe":12542,"▁zanyi":12543,"دود":12544,"قيقة":12545,"umizi":12546,"▁gyai":12547,"utube":12548,"▁Arsenal":12549,"▁awka":12550,"▁ezigbote":12551,"▁አንተም":12552,"▁2015":12553,"▁ilimi":12554,"▁bàjẹ́":12555,"▁#Language":12556,"gbẹ́ni":12557,"▁azumi":12558,"▁mpaka":12559,"yyyy":12560,"خلية":12561,"▁weeks":12562,"▁waiting":12563,"ጀመር":12564,"▁benshi":12565,"▁mercy":12566,"▁akoa":12567,"▁አምባ":12568,"▁tán,":12569,"▁dunia":12570,"▁spir":12571,"▁&gt;":12572,"gging":12573,"▁àtún":12574,"▁Lol.":12575,"▁United":12576,"ገልግ":12577,"▁አፍሪካ":12578,"▁kwuo":12579,"bwire":12580,"▁oògùn":12581,"▁Oruko":12582,"▁جديد":12583,"▁ክፍል":12584,"▁Thanks":12585,"▁maghribiya":12586,"▁አሸባሪ":12587,"▁البرلمان":12588,"▁Subhanallah":12589,"▁المواطن":12590,"jumbe":12591,"▁رائع":12592,"▁quick":12593,"▁Congratulations":12594,"▁አንዳንድ":12595,"▁original":12596,"btissamTiskat":12597,"SuperWord":12598,"-i":12599,"-n":12600,"29":12601,"3k":12602,"41":12603,"79":12604,"9s":12605,"Ati":12606,"GI":12607,"Show":12608,"U00":12609,"\\U00":12610,"bur":12611,"cine":12612,"dou":12613,"dades":12614,"fọ":12615,"hl":12616,"hr":12617,"jb":12618,"lọ̀":12619,"mw":12620,"mira":12621,"pha":12622,"ray":12623,"uye":12624,"ulu":12625,"vt":12626,"wira":12627,"ware":12628,"word":12629,"yame":12630,"دت":12631,"صاد":12632,"صوت":12633,"ላሽ":12634,"ላጊ":12635,"መዲን":12636,"ማቸው":12637,"ሮችን":12638,"ተኞች":12639,"ያት":12640,"ፈት":12641,"’i":12642,"”,":12643,"▁ñ":12644,"▁ظ":12645,"▁⏩":12646,"▁😐":12647,"▁😜":12648,"▁✔️":12649,"🗣️":12650,"🙆🙆":12651,"▁nú":12652,"▁mmi":12653,"▁might":12654,"▁kɔ":12655,"▁kati":12656,"▁sata":12657,"▁smo":12658,"▁skin":12659,"▁seni":12660,"▁sahi":12661,"▁bɔ":12662,"▁byan":12663,"▁wall":12664,"▁yad":12665,"▁git":12666,"▁goma":12667,"▁gente":12668,"▁lin":12669,"▁lar":12670,"ungan":12671,"▁fing":12672,"amai":12673,"amaka":12674,"▁pó":12675,"akiri":12676,"▁Awa":12677,"▁#k":12678,"▁rabi":12679,"▁dela":12680,"▁الانت":12681,"ikun":12682,"irar":12683,"▁yawo":12684,"▁የሁ":12685,"▁ant":12686,"▁anwu":12687,"utana":12688,"▁Muri":12689,"dae":12690,"▁às":12691,"▁Kó":12692,"▁Karya":12693,"▁Iba":12694,"ha.":12695,"▁mek":12696,"▁zwina":12697,"▁በኩል":12698,"▁main":12699,"▁Shu":12700,"▁Baku":12701,"▁ìkó":12702,"▁kuva":12703,"▁Taifa":12704,"▁beans":12705,"▁abíni":12706,"▁Duba":12707,"del":12708,"▁به":12709,"▁Ruwa":12710,"▁gihe":12711,"▁giving":12712,"wannan":12713,"▁Hum":12714,"▁Yak":12715,"ão,":12716,"▁ta3":12717,"▁asɛm":12718,"▁alert":12719,"▁ከሰ":12720,"▁ይሰ":12721,"▁fil":12722,"▁soft":12723,"▁يارب":12724,"▁akpu":12725,"▁miaka":12726,"▁mijin":12727,"▁Ló":12728,"▁kilo":12729,"vert":12730,"ada.":12731,"▁sauke":12732,"rí,":12733,"▁shida":12734,"▁ስህ":12735,"▁says":12736,"▁ምት":12737,"▁yanada":12738,"اتي":12739,"▁FM":12740,"ubar":12741,"▁حم":12742,"▁فيهم":12743,"▁n'ab":12744,"▁(A":12745,"▁(@user":12746,"▁ẹ̀yìn":12747,"▁hanci":12748,"▁قضية":12749,"▁قهوي":12750,"▁kòkòrò":12751,"▁oooooo":12752,"▁tuz":12753,"▁nkwu":12754,"▁ህፃ":12755,"ories":12756,"▁Toò.":12757,"▁ሁላ":12758,"▁ganan":12759,"▁apá":12760,"▁oburu":12761,"▁expect":12762,"▁Magan":12763,"▁ntoma":12764,"▁truth":12765,"▁አለመ":12766,"▁ayẹyẹ":12767,"▁egwu.":12768,"chof":12769,"▁desse":12770,"▁ፍላ":12771,"▁الفت":12772,"▁olódùmarè":12773,"▁Umun":12774,"▁walah":12775,"2015":12776,"▁Este":12777,"▁መስሎ":12778,"ctions":12779,"▁🤲🤲":12780,"وفق":12781,"likuwa":12782,"ركة":12783,"▁crush":12784,"▁በማድረግ":12785,"▁ọma.":12786,"▁busy":12787,"▁Adam":12788,"▁yabamu":12789,"▁اخطونا":12790,"▁pupa":12791,"▁querer":12792,"▁ራሱ":12793,"▁🤦🏾‍♂️":12794,"▁Nnem":12795,"▁ድርጅት":12796,"▁ዳር":12797,"▁ijó":12798,"▁አድርጎ":12799,"▁ajili":12800,"▁ambayo":12801,"▁kokarin":12802,"▁bw'":12803,"▁qualquer":12804,"ṣèlú":12805,"▁deixar":12806,"ረጋገ":12807,"▁dalilin":12808,"▁Ekene":12809,"▁esses":12810,"▁grace":12811,"▁honest":12812,"▁jirgi":12813,"▁gwamna":12814,"▁pastor":12815,"selves":12816,"▁wa7d":12817,"▁ጋዜጠኛ":12818,"▁thief":12819,"▁Bàbá":12820,"TwitterCom":12821,"▁mensagem":12822,"waramutse":12823,"▁ibintu":12824,"dàgbàsókè":12825,"\\U0001":12826,"▁abínibí":12827,"'ni":12828,"95":12829,":00":12830,"CK":12831,"FE":12832,"HM":12833,"OK":12834,"Rwanda":12835,"UH":12836,"bit":12837,"dụ":12838,"date":12839,"guk":12840,"h,":12841,"ida":12842,"jK":12843,"ners":12844,"pati":12845,"èyàn":12846,"édé":12847,"êm":12848,"امة":12849,"بس":12850,"خي":12851,"زل":12852,"ساد":12853,"ሃሃ":12854,"ልቁ":12855,"መነ":12856,"ሜት":12857,"ራፊ":12858,"ናቸው":12859,"ዳል":12860,"ድነው":12861,"ጥም":12862,"ፉን":12863,"ṣọ̀":12864,"”..":12865,"══":12866,"▁{":12867,"▁📌":12868,"▁😤":12869,"▁ههه":12870,"🤲🏻":12871,"▁np":12872,"▁nr":12873,"▁nte":12874,"▁nubwo":12875,"usho":12876,"▁madu":12877,"▁a?":12878,"▁kẹ̀":12879,"▁koni":12880,"▁kishin":12881,"▁daka":12882,"▁dina":12883,"▁scar":12884,"▁ber":12885,"▁bẹ́":12886,"▁bii":12887,"▁wù":12888,"▁whe":12889,"▁wenye":12890,"▁wese":12891,"▁wadda":12892,"▁wnn":12893,"▁oshi":12894,"▁owerri":12895,"▁iti":12896,"▁ipa":12897,"▁iran":12898,"▁igbá":12899,"▁ghe":12900,"▁hɔ":12901,"▁hatu":12902,"▁hospital":12903,"▁lig":12904,"▁lee":12905,"▁ema":12906,"▁edumare":12907,"assi":12908,"▁camin":12909,"▁pk":12910,"▁pari":12911,"▁palm":12912,"engo":12913,"alk":12914,"▁Az":12915,"▁#10":12916,"ahh":12917,"▁yawe":12918,"▁niyen":12919,"▁jari":12920,"▁አግ":12921,"▁dawa":12922,"▁daadaa":12923,"▁antes":12924,"▁እመ":12925,"uty":12926,"▁Mes":12927,"▁Ona":12928,"ingano":12929,"▁Ibadan":12930,"▁bafite":12931,"▁مان":12932,"▁وكي":12933,"tific":12934,"▁meji":12935,"▁zako":12936,"▁Sá":12937,"▁ìh":12938,"▁sel":12939,"▁mugani":12940,"▁Ess":12941,"▁Ter":12942,"yi,":12943,"▁abroad":12944,"ra.":12945,"ere.":12946,"▁DO":12947,"▁goli":12948,"ril":12949,"▁መድረ":12950,"▁Res":12951,"▁لأن":12952,"▁òde":12953,"▁òfin":12954,"▁òṣì":12955,"▁òyìnbó":12956,"▁City":12957,"▁Way":12958,"▁quar":12959,"▁difer":12960,"▁تأ":12961,"▁Ge":12962,"▁asara":12963,"▁ይጠብ":12964,"▁Uh":12965,"▁lot":12966,"▁3af":12967,"edom":12968,"kop":12969,"pot":12970,"boye":12971,"▁ተቃ":12972,"eek":12973,"ja,":12974,"▁ወሎ":12975,"▁ወታ":12976,"▁lihom":12977,"ppers":12978,"▁és":12979,"▁نريد":12980,"▁Fr":12981,"uban":12982,"▁ማሳ":12983,"▁Àgbà":12984,"▁arr":12985,"▁karba":12986,"▁karfi":12987,"▁pack":12988,"▁(S":12989,"▁أي":12990,"yinoria":12991,"▁zao":12992,"▁tsari":12993,"▁Ìlú":12994,"▁Ìjẹ̀bú":12995,"▁atari":12996,"wiza":12997,"▁color":12998,"▁course":12999,"▁شحال":13000,"▁ifá":13001,"▁ደር":13002,"▁pois":13003,"يادة":13004,"ولو":13005,"▁kú,":13006,"▁#Orin":13007,"▁#Osu":13008,"▁خلي":13009,"▁ህወሓት":13010,"▁Vamos":13011,"▁ክቡር":13012,"fuo":13013,"▁التو":13014,"▁apenas":13015,"▁ليه":13016,"▁mma,":13017,"ambara":13018,"▁ntị":13019,"ssss":13020,"▁7a":13021,"▁wahed":13022,"▁shot":13023,"hiriki":13024,"▁blessed":13025,"▁የመንግስት":13026,"▁amazi":13027,"▁ጠብ":13028,"ọ̀nà":13029,"▁gwara":13030,"▁mmadu.":13031,"▁kumasi":13032,"▁sars":13033,"▁ሊሆን":13034,"▁الفق":13035,"لوب":13036,"umie":13037,"▁ajụ":13038,"▁mwese":13039,"▁olówó":13040,"▁መልዕ":13041,"▁okwu.":13042,"▁telling":13043,"ـــ":13044,"▁mayar":13045,"▁dakai":13046,"▁ekene":13047,"▁s3n":13048,"▁አንተን":13049,"▁#Worship":13050,"▁#Le":13051,"▁ቆንጆ":13052,"▁wanawake":13053,"▁mambo":13054,"▁ìgbàlódé":13055,"▁ጎበ":13056,"▁lmfa":13057,"▁ጉዳዮች":13058,"كاين":13059,"▁አባት":13060,"▁ìpà":13061,"▁በሚል":13062,"▁daukar":13063,"▁#IgboAmaka":13064,"😎😎😎":13065,"▁የህዝብ":13066,"▁crying":13067,"▁ያስፈል":13068,"▁በደንብ":13069,"▁mental":13070,"▁família":13071,"▁pátá":13072,"▁little":13073,"▁Madrid":13074,"▁clothe":13075,"▁clear":13076,"▁والتنمية":13077,"▁فالمغرب":13078,"▁duniyar":13079,"Decides":13080,"▁ìlera":13081,"▁iskanci":13082,"dínlógún":13083,"▁lugar":13084,"rugẹ":13085,"▁pieces":13086,"▁#Alaye":13087,"Quotes":13088,"andukanye":13089,"▁Facebook":13090,"▁kuanzia":13091,"ونديال":13092,"TwitterCommunity":13093,"78":13094,"9ab":13095,"Ile":13096,"NO":13097,"TN":13098,"Up":13099,"dama":13100,"ey":13101,"f3":13102,"fish":13103,"huwa":13104,"j3":13105,"kẹ":13106,"kta":13107,"lum":13108,"mon":13109,"nar":13110,"pm":13111,"zal":13112,"zana":13113,"zung":13114,"óò":13115,"ؤال":13116,"بال":13117,"زاب":13118,"طقة":13119,"ለኛል":13120,"ሊሲ":13121,"መች":13122,"መጡ":13123,"ቃወ":13124,"ቅን":13125,"ታችሁ":13126,"ውል":13127,"ያዊ":13128,"ደጋ":13129,"▁ዮ":13130,"▁ጆ":13131,"▁ura":13132,"▁☹️":13133,"▁nji":13134,"▁mù":13135,"▁mallam":13136,"▁damar":13137,"▁dream":13138,"▁tai":13139,"▁bun":13140,"▁wari":13141,"▁wallah":13142,"▁ochie":13143,"▁yim":13144,"▁yasha":13145,"▁ipo":13146,"▁ihu":13147,"▁hk":13148,"▁hala":13149,"▁lbr":13150,"▁ladies":13151,"▁fish":13152,"▁each":13153,"▁cuta":13154,"onar":13155,"▁pí":13156,"▁pad":13157,"▁pha":13158,"▁pata":13159,"aken":13160,"akur":13161,"▁Ainda":13162,"▁#language":13163,"▁الرا":13164,"iras":13165,"iros":13166,"omai":13167,"▁nidai":13168,"▁jini":13169,"▁juo":13170,"ukata":13171,"▁አማርኛ":13172,"▁ange":13173,"▁Muma":13174,"▁Masu":13175,"▁Mts":13176,"\"\"\"\".":13177,"▁baá":13178,"▁مرا":13179,"▁ود":13180,"▁وق":13181,"eman":13182,"emana":13183,"▁meyasa":13184,"▁በሽ":13185,"▁incre":13186,"▁mawa":13187,"▁Sana":13188,"▁Baki":13189,"▁ìkà":13190,"▁seun":13191,"▁sele":13192,"▁THE":13193,"▁beer":13194,"▁beeni":13195,"raji":13196,"▁بك":13197,"▁nea":13198,"▁negodu":13199,"▁Rep":13200,"▁لكم":13201,"▁isin":13202,"tek":13203,"wanyi":13204,"▁ńnú":13205,"▁asha":13206,"▁ከሌ":13207,"▁ከታ":13208,"▁يف":13209,"▁ለት":13210,"lock":13211,"▁kanku":13212,"▁chorar":13213,"lulope":13214,"▁mid":13215,"pokea":13216,"je,":13217,"je.":13218,"▁esc":13219,"▁esti":13220,"yote":13221,"verty":13222,"eel":13223,"eeen":13224,"gida":13225,"▁Ọlá":13226,"arewa":13227,"▁pele":13228,"ين'":13229,"▁heat":13230,"▁hela":13231,"▁liv":13232,"▁نشوف":13233,"▁Fun":13234,"▁የሚገባ":13235,"▁Àbí":13236,"▁tear":13237,"▁uns":13238,"▁أنت":13239,"▁ahịa":13240,"▁والا":13241,"ለውን":13242,"akobwa":13243,"▁ልጆ":13244,"▁promo":13245,"▁praise":13246,"▁Vai":13247,"▁ሲሉ":13248,"▁ሲባል":13249,"▁hili":13250,"fuza":13251,"▁yeah":13252,"▁niger":13253,"▁took":13254,"▁minist":13255,"▁chegar":13256,"atanga":13257,"▁knows":13258,"▁ግንባር":13259,"▁الاخ":13260,"kòkò":13261,"▁jack":13262,"piga":13263,"▁Abinda":13264,"روع":13265,"فاء":13266,"▁الأس":13267,"▁ለማስ":13268,"▁#Saturday":13269,"▁الشي":13270,"▁#Br":13271,"sível":13272,"▁ናችሁ":13273,"▁زكارة":13274,"▁ኢን":13275,"▁nnewi":13276,"▁assist":13277,"▁lmaghrib":13278,"▁kubona":13279,"▁taking":13280,"▁ንብረት":13281,"▁ያለበት":13282,"▁biaa":13283,"▁hhhhhh":13284,"▁karewa":13285,"▁አይደለም።":13286,"▁cross":13287,"eeeeeeee":13288,"▁عندها":13289,"OTO":13290,"▁Reka":13291,"TION":13292,"▁تبهدي":13293,"▁darajar":13294,"▁እርግ":13295,"IRA":13296,"▁روحك":13297,"fahamu":13298,"▁yahoo":13299,"▁attack":13300,"▁rubuta":13301,"▁watoto":13302,"▁እድል":13303,"yumv":13304,"▁hahahaha":13305,"▁rọra":13306,"ለያዩ":13307,"▁كيفاش":13308,"▁jahar":13309,"▁ይገባል":13310,"ishyura":13311,"▁እንግዲህ":13312,"▁ملكنا":13313,"▁ወጣቶች":13314,"▁artist":13315,"▁òwúrọ̀":13316,"▁ሰይጣን":13317,"▁ቋንቋ":13318,"▁ምናምን":13319,"▁kwarai":13320,"▁Amman":13321,"▁ìwádìí":13322,"itekerezo":13323,"▁makomar":13324,"-ẹ":13325,"/ቤት":13326,"35":13327,"91":13328,"9l":13329,"BB":13330,"DM":13331,"It":13332,"Ko":13333,"OP":13334,"Ogun":13335,"RY":13336,"bera":13337,"cn":13338,"cka":13339,"dr":13340,"dw":13341,"dda":13342,"dani":13343,"ei":13344,"goro":13345,"mh":13346,"now":13347,"tani":13348,"uzi":13349,"wia":13350,"wase":13351,"ÇÃO":13352,"ân":13353,"èyé":13354,"ògùn":13355,"باد":13356,"حا":13357,"زن":13358,"شف":13359,"غلب":13360,"لع":13361,"لال":13362,"ومة":13363,"ሁድ":13364,"ህም":13365,"ልውና":13366,"መንግ":13367,"ረፍ":13368,"ሳን":13369,"ነቅ":13370,"ኝ።":13371,"ዝን":13372,"ጉን":13373,"ጠላ":13374,"ጭት":13375,"▁ዛ":13376,"▁😷":13377,"▁____":13378,"🤡🤡":13379,"🤦‍♂️":13380,"▁nasa":13381,"▁niko":13382,"▁mall":13383,"▁mada":13384,"▁mane":13385,"▁mashi":13386,"▁kb":13387,"▁kna":13388,"▁kabi":13389,"▁dn":13390,"▁dry":13391,"▁tuni":13392,"▁samo":13393,"inyoruba":13394,"▁bure":13395,"▁huo":13396,"▁cen":13397,"▁credit":13398,"▁pò":13399,"▁puto":13400,"▁palav":13401,"akub":13402,"▁Ají":13403,"hita":13404,"ikwe":13405,"▁nis":13406,"▁j'":13407,"▁jé":13408,"▁jud":13409,"tta":13410,"tti":13411,"▁anambra":13412,"isdom":13413,"▁እኩል":13414,"utata":13415,"abw":13416,"osu":13417,"▁Obu":13418,"▁ọkwa":13419,"▁àwọ̀":13420,"▁Kú":13421,"▁Kana":13422,"▁Irin":13423,"▁Ikon":13424,"▁ba9i":13425,"▁مهم":13426,"▁وف":13427,"▁meta":13428,"▁zar":13429,"▁በሕ":13430,"▁በኢ":13431,"▁uza":13432,"▁together":13433,"▁wa'":13434,"▁wacce":13435,"▁Bari":13436,"▁ìdán":13437,"▁ìdàgbàsókè":13438,"▁seen":13439,"▁Egbe":13440,"▁That":13441,"▁abandi":13442,"▁abbl":13443,"▁amaro":13444,"bi,":13445,"▁force":13446,"▁فات":13447,"zaji":13448,"▁Wak":13449,"▁Yes":13450,"▁تض":13451,"▁Gb":13452,"▁algo":13453,"▁ከበ":13454,"▁ለካ":13455,"▁3am":13456,"log":13457,"▁suas":13458,"▁mota":13459,"saw":13460,"▁miya":13461,"boy":13462,"ناش":13463,"راف":13464,"▁ተሸ":13465,"papa":13466,"▁bido":13467,"هاش":13468,"▁ብታ":13469,"▁èkó":13470,"iriwe":13471,"▁ọ̀gá":13472,"▁yansh":13473,"▁FA":13474,"▁Fal":13475,"▁uso":13476,"▁ሰር":13477,"akil":13478,"▁karanta":13479,"▁page":13480,"▁n'ala":13481,"▁أب":13482,"ونة":13483,"▁zagin":13484,"▁--":13485,"▁Ìbà":13486,"ريم":13487,"▁matumizi":13488,"lder":13489,"▁سا":13490,"▁ትላ":13491,"▁ትግሬ":13492,"▁قا":13493,"▁قوة":13494,"▁والع":13495,"mmanu":13496,"ikino":13497,"▁talakan":13498,"▁wá,":13499,"▁ውሃ":13500,"▁premi":13501,"▁#Owo":13502,"▁#Omo":13503,"▁dist":13504,"▁anytime":13505,"▁ባህር":13506,"▁dinki":13507,"lá,":13508,"▁Inú":13509,"▁prov":13510,"▁Òjò":13511,"▁nigerians":13512,"▁لاعب":13513,"▁by'":13514,"▁minut":13515,"▁minute":13516,"▁ike.":13517,"▁صو":13518,"▁صاح":13519,"▁bayyana":13520,"▁khas":13521,"▁khali":13522,"▁jẹ.":13523,"▁Abba":13524,"▁فالمية":13525,"▁gwụrụ":13526,"▁እንዲሁም":13527,"▁yín.":13528,"▁capa":13529,"▁#Boko":13530,"▁hakane":13531,"موت":13532,"▁kwankw":13533,"▁ولاية":13534,"▁wengine":13535,"ተኛው":13536,"▁mí,":13537,"yèsí":13538,"▁#Glori":13539,"▁nwelu":13540,"▁kindly":13541,"▁hhhhhhh":13542,"▁halit":13543,"iiiiii":13544,"▁ndugu":13545,"برلم":13546,"😏😏😏":13547,"▁ኣይ":13548,"nnnn":13549,"▁mukuma":13550,"▁happened":13551,"قدر":13552,"▁azụ":13553,"▁korona":13554,"ፈልገው":13555,"▁kalla":13556,"▁ɔn":13557,"▁❤️❤️❤️":13558,"▁idiot":13559,"▁#Ko":13560,"lt;":13561,"versity":13562,"versário":13563,"▁otito":13564,"▁otutu":13565,"▁الغاشي":13566,"▁shule":13567,"▁aquela":13568,"▁የበለጠ":13569,"▁የውጭ":13570,"▁dormir":13571,"▁turawa":13572,"▁فرنسا":13573,"▁jahil":13574,"▁#ekaaaro":13575,"▁ዩኒቨርስቲ":13576,"▁lamarin":13577,"▁sẹ́yìn":13578,"▁ይሆን?":13579,"▁obìrin":13580,"▁teacher":13581,"▁primeiro":13582,"▁የለውም":13583,"▁akhti":13584,"200d":13585,"🇩🇿🇩🇿":13586,"▁júbà":13587,"▁complete":13588,"▁አልነበረ":13589,"▁muhimu":13590,"▁:-)":13591,"▁Director":13592,"▁fosse":13593,"\\u200d":13594,"▁bastard":13595,"▁#yobamoodua":13596,"▁3afak":13597,"-m":13598,"2a":13599,"Ba":13600,"Cr":13601,"DC":13602,"Gir":13603,"Im":13604,"Ol":13605,"SC":13606,"Worship":13607,"ZU":13608,"eti":13609,"ghe":13610,"gens":13611,"igbo":13612,"j0":13613,"jab":13614,"lika":13615,"nis":13616,"rb":13617,"sẹ́":13618,"uda":13619,"yit":13620,"zina":13621,"çam":13622,"به":13623,"تهم":13624,"جر":13625,"جم":13626,"دام":13627,"رس":13628,"صف":13629,"كرة":13630,"وال":13631,"يك":13632,"ራም":13633,"ርጊ":13634,"ስር":13635,"ሻለ":13636,"ቂቅ":13637,"ቆጣ":13638,"ባበ":13639,"ባታ":13640,"ችላ":13641,"ነኛ":13642,"ከታ":13643,"ከላከያ":13644,"ዕራ":13645,"ያል":13646,"ያዘ":13647,"ጅም":13648,"──":13649,"▁ሎ":13650,"▁😇":13651,"😕😕":13652,"🤤🤤":13653,"erɛ":13654,"erar":13655,"annan":13656,"▁npe":13657,"▁azi":13658,"▁kk":13659,"▁kera":13660,"▁kuta":13661,"▁kuki":13662,"▁tori":13663,"▁shis":13664,"▁sán":13665,"▁sabo":13666,"inrin":13667,"▁bere":13668,"▁woo":13669,"▁yini":13670,"▁yashi":13671,"▁ilà":13672,"▁lh":13673,"▁ehhh":13674,"aste":13675,"am,":13676,"onga":13677,"▁port":13678,"▁nadi":13679,"▁nace":13680,"▁#f":13681,"▁dee":13682,"urum":13683,"▁الكل":13684,"▁ya...":13685,"▁yaqara":13686,"ombo":13687,"iter":13688,"▁juu":13689,"ukwe":13690,"▁daukan":13691,"▁ansa":13692,"ospel":13693,"▁Oke":13694,"▁KI":13695,"▁Kat":13696,"▁Karibu":13697,"▁IL":13698,"▁Iwe":13699,"▁مث":13700,"▁med":13701,"▁meter":13702,"▁melu":13703,"ia,":13704,"▁በባ":13705,"▁waj":13706,"▁maba":13707,"▁mazi":13708,"▁magani":13709,"▁Siku":13710,"ceu":13711,"▁Bik":13712,"▁Bayan":13713,"▁ìlọ":13714,"▁seg":13715,"lagba":13716,"▁ነጻ":13717,"▁Tas":13718,"erezi":13719,"▁Dod":13720,"▁wann":13721,"▁wanga":13722,"▁wanjye":13723,"▁amas":13724,"▁መሸ":13725,"▁መጽ":13726,"▁መፍ":13727,"▁بأ":13728,"▁بغي":13729,"lio":13730,"biza":13731,"▁òhun":13732,"▁فهم":13733,"▁ففاس":13734,"▁iso":13735,"amawa":13736,"wanne":13737,"▁عرف":13738,"▁عاج":13739,"▁Haha":13740,"▁Hhhh":13741,"▁ńbẹ":13742,"▁taci":13743,"▁تاريخ":13744,"▁Gẹ́gẹ́":13745,"▁Gahunda":13746,"▁asụsụ":13747,"allenge":13748,"▁ከም":13749,"▁ከብ":13750,"▁ከን":13751,"▁soja":13752,"▁comes":13753,"▁akpọ":13754,"ednesday":13755,"▁such":13756,"▁christmas":13757,"niya":13758,"fied":13759,"▁كما":13760,"▁bul":13761,"▁buga":13762,"▁المق":13763,"▁ወረ":13764,"▁biyan":13765,"feliz":13766,"▁heard":13767,"▁youth":13768,"▁28":13769,"▁29":13770,"▁ọ̀ràn":13771,"▁نق":13772,"▁نعم":13773,"▁የሚሰ":13774,"▁ሰላ":13775,"▁ሰልፍ":13776,"▁guess":13777,"ire.":13778,"lhos":13779,"▁raz":13780,"abili":13781,"▁coz":13782,"▁sunfi":13783,"▁አንዳን":13784,"▁mmụọ":13785,"rọ̀lẹ́":13786,"ched":13787,"▁gbajú":13788,"indwa":13789,"▁#African":13790,"▁\"\"\"\"\"\"\"\"@user":13791,"▁Òwe":13792,"▁shaa":13793,"▁ikin":13794,"▁nyingi":13795,"▁#yorubaculture":13796,"▁few":13797,"▁qa":13798,"▁Kaga":13799,"▁#Ni":13800,"▁صوت":13801,"▁outras":13802,"▁oríkì":13803,"▁ሳያ":13804,"▁ነው።'":13805,"▁bayani":13806,"▁kókó":13807,"títọ́":13808,"روف":13809,"▁በአዲስ":13810,"▁عندي":13811,"▁erin":13812,"▁irọ́":13813,"lọpọ̀":13814,"▁hakkin":13815,"▁الوح":13816,"▁corpo":13817,"▁‍️‍️":13818,"▁mẹ́wàá":13819,"gbómọ̀ṣọ́":13820,"▁60":13821,"▁hhhhhhhh":13822,"lùú":13823,"▁تعرف":13824,"▁dyalo":13825,"ESUS":13826,"😡😡😡":13827,"ferno":13828,"▁hudu":13829,"▁የሰላም":13830,"▁Está":13831,"▁Real":13832,"▁080":13833,"▁yasaka":13834,"▁getting":13835,"▁instagram":13836,"▁zote":13837,"fààní":13838,"▁ዋና":13839,"pẹtẹ":13840,"▁ቁጭ":13841,"▁አያስ":13842,"▁የለም።":13843,"▁ሆነው":13844,"▁ሥር":13845,"▁kutoa":13846,"وقف":13847,"▁ሌላው":13848,"▁Pres":13849,"▁n'elu":13850,"▁Será":13851,"▁ድንጋይ":13852,"▁Prof":13853,"نسان":13854,"▁مدينة":13855,"▁prayer":13856,"🚶🚶🚶":13857,"▁enugu":13858,"▁kureba":13859,"▁kidna":13860,"▁اكبر":13861,"▁oyinbo":13862,"PLF":13863,"▁ትክክል":13864,"▁حساب":13865,"▁ẹgbẹ̀rún":13866,"▁#Learn":13867,"'n":13868,"-in":13869,".5":13870,"44":13871,"62":13872,"76":13873,"An":13874,"BQ":13875,"BW":13876,"CL":13877,"Dj":13878,"Fo":13879,"GM":13880,"GR":13881,"HT":13882,"Haram":13883,"Je":13884,"Lagos":13885,"ME":13886,"Pro":13887,"Phone":13888,"Rep":13889,"TF":13890,"TAN":13891,"XO":13892,"YO":13893,"YU":13894,"fon":13895,"kye":13896,"koro":13897,"ndi":13898,"pɛ":13899,"sọ̀":13900,"tse":13901,"uje":13902,"wr":13903,"xe":13904,"zai":13905,"á.":13906,"̟n":13907,"ئا":13908,"ئي":13909,"اكل":13910,"جز":13911,"حش":13912,"سات":13913,"صلاح":13914,"وكرانيا":13915,"ለየ":13916,"ለደ":13917,"ለጥ":13918,"ላለም":13919,"ረሳ":13920,"ርሱ":13921,"ሯል":13922,"ስቴር":13923,"ቡት":13924,"ባሉ":13925,"ቤቱ":13926,"ብስ":13927,"ተኝነት":13928,"ነህ":13929,"ናንት":13930,"ኝም":13931,"ከን":13932,"ኮኖ":13933,"ውቃ":13934,"የም":13935,"ድያ":13936,"ጉም":13937,"ụta":13938,"▁ሉ":13939,"▁💀":13940,"▁😫":13941,"▁🙅":13942,"▁ǹkan":13943,"🏄🌴":13944,"😛😛":13945,"😱😱":13946,"▁nikan":13947,"▁mali":13948,"▁mess":13949,"▁kho":13950,"▁kra":13951,"▁kene":13952,"▁kuro":13953,"▁dz":13954,"▁dàn":13955,"▁twit":13956,"▁turan":13957,"▁base":13958,"▁bush":13959,"▁bishi":13960,"▁ogbe":13961,"▁oil":13962,"▁gwu":13963,"▁gru":13964,"▁hass":13965,"▁hasi":13966,"▁lù":13967,"▁lor":13968,"unua":13969,"▁cé":13970,"▁pín":13971,"▁pity":13972,"▁naba":13973,"▁Adú":13974,"▁Aqui":13975,"▁Afrika":13976,"▁riki":13977,"▁الرو":13978,"▁الدو":13979,"ikẹ́ni":13980,"esso":13981,"▁ya?":13982,"▁yabo":13983,"omu":13984,"▁jina":13985,"▁አሕ":13986,"▁Nku":13987,"▁Nyam":13988,"▁MO":13989,"▁Mko":13990,"▁Mina":13991,"yeho":13992,"osha":13993,"▁Ozo":13994,"▁Owó":13995,"ouf":13996,"▁baje":13997,"tima":13998,"▁uch":13999,"▁Bay":14000,"▁ìgbẹ́":14001,"chara":14002,"▁muba":14003,"▁mubi":14004,"▁muhammad":14005,"▁Tou":14006,"▁behind":14007,"raf":14008,"▁Dai":14009,"▁Dis":14010,"▁Dkt":14011,"▁መቅ":14012,"▁መገር":14013,"iger":14014,"ighe":14015,"▁بكل":14016,"▁Rashin":14017,"▁gi!":14018,"wanci":14019,"▁Wo":14020,"▁Wil":14021,"▁عل":14022,"▁Hu":14023,"▁tíì":14024,"▁Gw":14025,"▁asị":14026,"▁alaye":14027,"▁alfah":14028,"▁ከህ":14029,"▁ይባ":14030,"▁Uri":14031,"▁sojo":14032,"▁gag":14033,"▁'#":14034,"lue":14035,"▁miji":14036,"bol":14037,"▁Let":14038,"▁kif":14039,"▁ያሉት":14040,"▁imere":14041,"▁ተዋ":14042,"▁lafia":14043,"ze.":14044,"▁المهم":14045,"▁saad":14046,"▁ወላ":14047,"▁biz":14048,"▁biyar":14049,"▁ብን":14050,"▁láí":14051,"▁hejuru":14052,"▁èwo":14053,"▁liverpool":14054,"ulpit":14055,"▁ምኞ":14056,"▁ọ̀gẹ̀dẹ̀":14057,"▁fault":14058,"▁نتي":14059,"▁ሰም":14060,"▁حسب":14061,"akiwa":14062,"▁karyar":14063,"ነትና":14064,"▁(2":14065,"▁manage":14066,"▁agr":14067,"▁Ìp":14068,"▁አይመስ":14069,"▁mutunci":14070,"▁شف":14071,"▁ትግል":14072,"▁pod":14073,"▁povo":14074,"▁view":14075,"▁harkar":14076,"▁cell":14077,"▁الحال":14078,"▁master":14079,"▁ህገ":14080,"▁Nice":14081,"▁Nifa":14082,"▁xamu":14083,"▁Ògùn":14084,"▁Òrìṣà":14085,"▁duki":14086,"▁lọ́lá":14087,"▁ምንድነው":14088,"▁hilo":14089,"▁ቀላል":14090,"lọ́wọ́":14091,"▁ليك":14092,"▁ụlọ":14093,"ants":14094,"▁ዘረኛ":14095,"▁ካላ":14096,"▁ẹni.":14097,"▁ጠላ":14098,"▁ጠይ":14099,"▁#Resurrection":14100,"▁smh":14101,"▁#So":14102,"funzi":14103,"▁m3aha":14104,"▁zance":14105,"▁ጉባ":14106,"▁karawa":14107,"▁result":14108,"▁hakura":14109,"▁️️":14110,"▁sukeyi":14111,"▁Umunsi":14112,"▁ሆና":14113,"▁ɛnyɛ":14114,"2014":14115,"ያንስ":14116,"▁ንፁ":14117,"ዛሬው":14118,"▁rẹpẹtẹ":14119,"▁ጀም":14120,"▁#World":14121,"كرون":14122,"▁complain":14123,"▁komi":14124,"▁mahai":14125,"▁mahmud":14126,"▁aago":14127,"▁likes":14128,"▁ìtẹ́":14129,"▁gbọ́dọ̀":14130,"▁10.":14131,"▁ìyáa":14132,"oughts":14133,"▁ዛሬም":14134,"▁yasamu":14135,"▁presente":14136,"اريو":14137,"cesso":14138,"▁يعني":14139,"▁morte":14140,"ለች።":14141,"▁stuff":14142,"▁tsoho":14143,"▁Ubundi":14144,"▁Agora":14145,"▁otú":14146,"▁Dole":14147,"▁የሆነው":14148,"▁translation":14149,"▁🤷‍♂️":14150,"▁rèé":14151,"▁#yorubal":14152,"▁ambao":14153,"▁doesnt":14154,"سطين":14155,"▁airtime":14156,"▁mudace":14157,"patikana":14158,"Revival":14159,"▁mulheres":14160,"▁ምስኪ":14161,"▁ramadan":14162,"▁هده":14163,"sùlù":14164,"Abinibi":14165,"▁👏👏👏":14166,"▁yarinya":14167,"▁próx":14168,"▁smell":14169,"▁ለውጥ":14170,"▁stage":14171,"▁àtàtà":14172,"▁endelea":14173,"▁እስካሁን":14174,"▁#nigerianwedding":14175,"wokem":14176,"▁gbangba":14177,"tandao":14178,"▁influen":14179,"▁Dodoma":14180,"-ò":14181,"God":14182,"LO":14183,"MI":14184,"SO":14185,"Sunday":14186,"bro":14187,"bru":14188,"cate":14189,"dra":14190,"eo":14191,"fì":14192,"guri":14193,"hụ":14194,"jj":14195,"kp":14196,"ker":14197,"kam":14198,"khe":14199,"kán":14200,"lou":14201,"lta":14202,"mb":14203,"mr":14204,"ming":14205,"mchi":14206,"qin":14207,"ration":14208,"yire":14209,"yimi":14210,"árá":14211,"ível":14212,"úrù":14213,"ثير":14214,"سكر":14215,"مم":14216,"مار":14217,"ندو":14218,"هيد":14219,"ረተ":14220,"ሪት":14221,"ቀስ":14222,"ባችን":14223,"ችሉ":14224,"ነስ":14225,"ነታቸው":14226,"ካል":14227,"ካባቢ":14228,"ወጡ":14229,"ዉን":14230,"ያዙ":14231,"ዬን":14232,"ይም":14233,"ጋዊ":14234,"ፓርቲ":14235,"▁ሻ":14236,"▁ዴ":14237,"▁🤭":14238,"😣😣":14239,"🙌🏽":14240,"any":14241,"▁nh":14242,"▁mik":14243,"▁mash":14244,"▁mgba":14245,"▁aro":14246,"▁kt":14247,"▁kisa":14248,"▁kush":14249,"▁dẹ́":14250,"▁dent":14251,"▁bye":14252,"▁biki":14253,"▁bran":14254,"▁badan":14255,"▁bnt":14256,"▁bukwa":14257,"▁wll":14258,"▁oho":14259,"▁occ":14260,"▁yọ̀":14261,"▁hen":14262,"▁hwɛ":14263,"▁lọ̀":14264,"▁lashe":14265,"orwa":14266,"▁efu":14267,"amen":14268,"▁cir":14269,"▁cool":14270,"▁cenas":14271,"▁pɛ":14272,"▁pee":14273,"▁puta":14274,"▁Agb":14275,"▁Ayé":14276,"baza":14277,"▁ress":14278,"addan":14279,"irimo":14280,"esse":14281,"▁አ...":14282,"▁Nas":14283,"▁Nuko":14284,"▁Nwata":14285,"▁እ...":14286,"▁Miss":14287,"osed":14288,"▁OF":14289,"▁Out":14290,"▁Odù":14291,"▁ọchị":14292,"▁àwò":14293,"▁Ih":14294,"▁bae":14295,"▁baghi":14296,"▁مغاربة":14297,"▁በላ":14298,"▁inferno":14299,"araba":14300,"dido":14301,"gaza":14302,"▁tot":14303,"▁Sallah":14304,"▁mud":14305,"▁Ede":14306,"▁Tw":14307,"tawa":14308,"▁beb":14309,"▁aband":14310,"▁goat":14311,"▁amahirwe":14312,"▁بـ":14313,"▁لها":14314,"▁gbò":14315,"bil":14316,"▁forgi":14317,"▁Wah":14318,"▁عش":14319,"▁عبد":14320,"▁difí":14321,"▁dois":14322,"▁asirin":14323,"▁alu":14324,"▁alka":14325,"▁UM":14326,"cience":14327,"cional":14328,"▁fili":14329,"▁يط":14330,"▁location":14331,"▁3t":14332,"▁gazie":14333,"ani.":14334,"anic":14335,"▁sulh":14336,"▁motiv":14337,"▁kanka":14338,"ficial":14339,"▁'ኢትዮጵያ":14340,"▁escre":14341,"▁ያን":14342,"▁ያንተ":14343,"▁lafi":14344,"▁bulu":14345,"own":14346,"▁المص":14347,"▁engine":14348,"▁ወሳ":14349,"▁bill":14350,"▁lálẹ́":14351,"ghari":14352,"gheri":14353,"▁lillahi":14354,"▁é.":14355,"uriya":14356,"▁ọ̀sán":14357,"▁የሚገር":14358,"▁የሚሉት":14359,"▁usa":14360,"▁Àjà":14361,"▁it's":14362,"júmọ́":14363,"▁n'ib":14364,"▁#Ise":14365,"▁#IbtissamTiskat":14366,"yinshi":14367,"▁oró":14368,"▁Ìjọba":14369,"▁atọ":14370,"▁شفت":14371,"ugust":14372,"▁hanze":14373,"ماعة":14374,"▁água":14375,"▁mmanya":14376,"chezo":14377,"▁جميع":14378,"▁العامة":14379,"▁aiyé":14380,"▁mask":14381,"▁ባንዳ":14382,"▁ህመም":14383,"▁Vou":14384,"▁aciki":14385,"▁انه":14386,"▁choke":14387,"▁Hajiya":14388,"▁:D":14389,"▁nyine":14390,"▁ድንግ":14391,"▁ምንድን":14392,"▁لازم":14393,"shin":14394,"▁washa":14395,"▁exa":14396,"▁ire.":14397,"▁gods":14398,"▁7.":14399,"▁ụdị":14400,"▁ụnụ":14401,"▁صباح":14402,"▁trad":14403,"▁Wanan":14404,"▁ubusa":14405,"▁carro":14406,"▁راكي":14407,"▁khass":14408,"▁jawo":14409,"pic":14410,"🙄🙄🙄🙄":14411,"▁ilé-":14412,"aaaaaa":14413,"▁girlfriend":14414,"rà,":14415,"لوك":14416,"▁sabuwa":14417,"▁làwọn":14418,"▁እንዳል":14419,"በረሰብ":14420,"▁القناة":14421,"▁létí":14422,"▁||":14423,"▁ንጉ":14424,"▁basuda":14425,"▁de3n":14426,"▁iyán":14427,"itude":14428,"قلال":14429,"▁lmghrib":14430,"▁ፖሊስ":14431,"▁አስተዳደር":14432,"▁Hehehe":14433,"▁تبارك":14434,"▁gukoresha":14435,"▁sharri":14436,"▁mummun":14437,"▁querem":14438,"kọ̀wé":14439,"▁ìbù":14440,"▁àìkú":14441,"▁Shugaban":14442,"▁Nnaa":14443,"cret":14444,"خرى":14445,"يييي":14446,"▁charge":14447,"▁ኃላፊ":14448,"▁ድንቅ":14449,"▁volta":14450,"▁bonito":14451,"▁Sarkin":14452,"صبح":14453,"▁مليون":14454,"▁curse":14455,"▁zuciyar":14456,"▁started":14457,"patia":14458,"▁bghiti":14459,"▁mutuncin":14460,"🙏🏻🙏🏻":14461,"ናገሩ":14462,"▁sababu":14463,"▁رجال":14464,"▁hype":14465,"▁comprar":14466,"▁ìròyìn":14467,".A.":14468,"▁ሚሊዮን":14469,"fọ̀njá":14470,"▁ትውልድ":14471,"gbatiwon":14472,"isitiri":14473,"▁flex":14474,"▁baghin":14475,"▁المنتخب":14476,"▁hashtag":14477,"▁welcome":14478,"kopɔn":14479,"mmanuel":14480,"sùlùmí":14481,",Allah":14482,"-0":14483,".😂":14484,"55":14485,"69":14486,"93":14487,"9at":14488,"Bi":14489,"Back":14490,"Gr":14491,"JO":14492,"LM":14493,"Tweet":14494,"YP":14495,"``":14496,"az":14497,"bik":14498,"bou":14499,"cike":14500,"cted":14501,"fb":14502,"jik":14503,"jito":14504,"lab":14505,"mes":14506,"pire":14507,"sé":14508,"tán":14509,"zn":14510,"á,":14511,"ários":14512,"úl":14513,"جد":14514,"زمة":14515,"ظور":14516,"ك'":14517,"كس":14518,"ሃለሁ":14519,"ሉኝ":14520,"ምም":14521,"ረገ":14522,"ሰበ":14523,"ስማ":14524,"በለ":14525,"በሻ":14526,"ቷል።":14527,"ናፊ":14528,"ዋይ":14529,"ውቅም":14530,"ዝቡ":14531,"ዮርጊ":14532,"ደሩ":14533,"ደድ":14534,"ፈና":14535,"ፊያ":14536,"’t":14537,"▁🎂":14538,"▁😞":14539,"▁🇷🇼":14540,"✍️":14541,"🏼‍♀️":14542,"▁né":14543,"▁niki":14544,"▁male":14545,"▁ked":14546,"▁kiran":14547,"▁kinga":14548,"▁ds":14549,"▁double":14550,"▁tona":14551,"▁tail":14552,"▁sisi":14553,"▁besti":14554,"▁wul":14555,"▁wiki":14556,"▁oyo":14557,"▁others":14558,"▁yenye":14559,"▁yrs":14560,"▁iw":14561,"▁gul":14562,"▁gather":14563,"▁huku":14564,"▁lw":14565,"▁lou":14566,"▁fer":14567,"▁ejò":14568,"amakon":14569,"▁cost":14570,"▁corn":14571,"onde":14572,"▁pọn":14573,"ença":14574,"▁AB":14575,"▁AS":14576,"baa":14577,"▁rate":14578,"▁ronaldo":14579,"▁deal":14580,"▁dead":14581,"▁deles":14582,"▁الظ":14583,"▁الار":14584,"uman":14585,"esema":14586,"itan":14587,"▁jisie":14588,"▁የሕ":14589,"tto":14590,"▁anwụ":14591,"▁እሱን":14592,"▁Mer":14593,"▁Mats":14594,"yed":14595,"▁Odun":14596,"▁Owerri":14597,"ingira":14598,"▁àlàáfíà":14599,"oof":14600,"▁KAN":14601,"▁Ij":14602,"▁وانت":14603,"tico":14604,"▁zat":14605,"▁ujumbe":14606,"ara,":14607,"ara.":14608,"▁wao":14609,"▁wawa":14610,"▁See":14611,"▁Soma":14612,"kaaro":14613,"▁Ela":14614,"▁Taa":14615,"▁aben":14616,"houm":14617,"razil":14618,"▁amana":14619,"▁Rab":14620,"▁Radio":14621,"▁لإ":14622,"▁لنا":14623,"▁لاب":14624,"▁gbọ́n":14625,"▁gbakwa":14626,"bile":14627,"▁Cc":14628,"▁Car":14629,"▁COVID":14630,"▁Wọn":14631,"▁How":14632,"▁Hii":14633,"▁Hali":14634,"▁quis":14635,"▁queria":14636,"▁di3":14637,"▁Yah":14638,"▁Gir":14639,"▁alguns":14640,"▁ይመጣ":14641,"▁33":14642,"▁300":14643,"▁gain":14644,"▁ofin":14645,"lo,":14646,"ko,":14647,"▁chno":14648,"▁mix":14649,"▁kids":14650,"▁ያኔ":14651,"▁lap":14652,"▁PE":14653,"▁Pol":14654,"gie":14655,"gije":14656,"▁shakar":14657,"duguri":14658,"▁bibi":14659,"▁shiri":14660,"▁shigar":14661,"▁hey":14662,"▁ère":14663,"▁èrè":14664,"▁Jisie":14665,"ulum":14666,"ney":14667,"▁é,":14668,"▁lekwa":14669,"▁ምሽ":14670,"▁ምድር":14671,"▁ọ̀tọ̀":14672,"▁FC":14673,"▁Fu":14674,"▁Fatan":14675,"▁Fil":14676,"uka.":14677,"▁የሚባለው":14678,"▁kwad":14679,"ubú":14680,"ubiri":14681,"▁box":14682,"ura,":14683,"jú,":14684,"▁unf":14685,"▁pap":14686,"▁conver":14687,"▁أع":14688,"▁maior":14689,"▁zaayi":14690,"▁agụ":14691,"ريك":14692,"▁Chan":14693,"▁ግፍ":14694,"▁ግልፅ":14695,"▁ndia":14696,"▁ماعلابالي":14697,"ياء":14698,"ولى":14699,"▁ooo.":14700,"▁ልደቱ":14701,"▁دخل":14702,"▁እንደሚያ":14703,"▁እንደማይ":14704,"▁جات":14705,"akula":14706,"▁jẹ́,":14707,"▁iby":14708,"▁ibyiza":14709,"▁Any":14710,"▁gbogbo.":14711,"▁Nidai":14712,"▁Nawe":14713,"hanks":14714,"▁Òní":14715,"▁jeje":14716,"▁mene":14717,"▁Zamu":14718,"▁ክርስቶስ":14719,"▁ቀር":14720,"▁ቀይ":14721,"▁obuna":14722,"▁mark":14723,"▁round":14724,"▁mins":14725,"ambana":14726,"▁evening":14727,"▁واح":14728,"▁Al'":14729,"▁nwaanyị":14730,"▁Ọ̀ṣun":14731,"▁ụkwụ":14732,"▁yakar":14733,"▁yakuma":14734,"▁አለማ":14735,"ffff":14736,"▁راهي":14737,"كوم":14738,"▁osiso":14739,"فاف":14740,"ahahahah":14741,"▁perf":14742,"▁#Sunday":14743,"▁abacha":14744,"▁kumu":14745,"dade.":14746,"▁طاح":14747,"▁zango":14748,"▁alafia":14749,"▁burna":14750,"▁sabem":14751,"▁የሚያደር":14752,"▁hakuna":14753,"شيش":14754,"▁ሁሉንም":14755,"▁Arre":14756,"▁ntacyo":14757,"ድርግ":14758,"▁players":14759,"▁nemi":14760,"▁እንዳት":14761,"asanga":14762,"▁takun":14763,"conom":14764,"2013":14765,"▁ديالو":14766,"▁አንድነት":14767,"▁Esta":14768,"▁:))":14769,"▁80":14770,"endeleo":14771,"weru":14772,"▁mpya":14773,"▁ጎንደር":14774,"▁else":14775,"▁blessing":14776,"isoban":14777,"▁drug":14778,"▁አስተያየት":14779,"engene":14780,"▁احت":14781,"▁hausawa":14782,"rrrr":14783,"▁ነዉ።":14784,"▁ìbọn":14785,"▁bakuda":14786,"▁Barka":14787,"▁certo":14788,"▁kitchen":14789,"▁ráń":14790,"▁ቤተሰብ":14791,"▁ìyàtọ̀":14792,"▁ካልሆነ":14793,"▁ስርዓት":14794,"▁bukatar":14795,"▁neste":14796,"▁deixa":14797,"▁It's":14798,"▁gosto":14799,"▁ልዩነት":14800,"▁receive":14801,"▁izina":14802,"▁rapha":14803,"ዘጋጀ":14804,"▁መርዝ":14805,"▁ሚኒስትር":14806,"▁#african":14807,"▁Lagos,":14808,"▁Babban":14809,"▁ọ̀pọ̀lọpọ̀":14810,"▁ìgbéyàwó":14811,"▁Elédùmarè":14812,"▁Ntabwo":14813,"▁Báwo":14814,"▁wlad":14815,"▁status":14816,"▁البرلماني":14817,"▁hukuncin":14818,"▁#EdeAbinibi":14819,"🇦🇹🇦🇹🇦🇹🇦🇹":14820,"▁bghina":14821,"▁الداخلية":14822,"▁داير":14823,"▁Mulher":14824,"▁እውነተኛ":14825,"▁create":14826,"▁ለማንኛውም":14827,"▁Então":14828,"▁abubuwan":14829,"fahamisha":14830,"▁space":14831,"▁#Happy":14832,"▁opolopo":14833,"▁Ekwensu":14834,"▁akwụkwọ":14835,"🇲🇦🇲🇦":14836,"▁siyasar":14837,"▁ኮሚቴ":14838,"▁Translation:":14839,"▁#adura":14840,"▁ukurasa":14841,"▁መልዕክት":14842,"▁#AlayeOro":14843,"abwiriza":14844,"▁razão":14845,"▁grupo":14846,"▁ìbùkún":14847,",o":14848,"-un":14849,".ም":14850,"31":14851,"3b":14852,"6G":14853,"72":14854,"7t":14855,"?😂":14856,"Gospel":14857,"HS":14858,"JL":14859,"Jo":14860,"KQ":14861,"Music":14862,"ND":14863,"NP":14864,"NV":14865,"PM":14866,"RM":14867,"TD":14868,"Ta":14869,"cg":14870,"curu":14871,"dm":14872,"dak":14873,"fir":14874,"gada":14875,"hani":14876,"ih":14877,"jụ":14878,"jima":14879,"kor":14880,"kya":14881,"m3":14882,"mit":14883,"make":14884,"mìí":14885,"night":14886,"pada":14887,"sy":14888,"ssa":14889,"van":14890,"vate":14891,"wh":14892,"yr":14893,"yine":14894,"à,":14895,"àà":14896,"ória":14897,"ئية":14898,"افي":14899,"بار":14900,"بلي":14901,"تنا":14902,"جزائر":14903,"دع":14904,"شعب":14905,"طين":14906,"ሄዱ":14907,"ህአዴግ":14908,"ሊና":14909,"ልሽ":14910,"ሳተ":14911,"ሳኔ":14912,"ስቡ":14913,"ቀም":14914,"ቂት":14915,"ቃሉ":14916,"በሳ":14917,"ቴን":14918,"ቺን":14919,"ዘር":14920,"ደበ":14921,"ጡን":14922,"ጣይ":14923,"ጣጫ":14924,"ጨፈ":14925,"ጨማሪ":14926,"ፍራ":14927,"”.":14928,"▁ƴ":14929,"▁♬":14930,"🏻‍♀️":14931,"🙂🙂":14932,"▁nto":14933,"▁màá":14934,"▁awe":14935,"▁azo":14936,"▁dè":14937,"▁dame":14938,"▁sise":14939,"▁wasi":14940,"▁ohi":14941,"▁igu":14942,"▁iban":14943,"▁green":14944,"▁hù":14945,"▁hara":14946,"▁lenu":14947,"▁fẹ̀":14948,"▁ew":14949,"▁ewi":14950,"▁equi":14951,"amban":14952,"amasi":14953,"on.":14954,"ensa":14955,"▁naw":14956,"▁naho":14957,"▁Aya":14958,"▁Agu":14959,"▁Afinal":14960,"▁#mo":14961,"▁#id":14962,"▁#wor":14963,"▁rat":14964,"urka":14965,"▁الات":14966,"eson":14967,"▁ya!":14968,"itor":14969,"▁nish":14970,"▁jor":14971,"▁jdi":14972,"▁የሠ":14973,"▁የኦ":14974,"▁የዜ":14975,"▁የጠ":14976,"▁የሆኑ":14977,"▁የጦር":14978,"▁አራ":14979,"▁አዎ":14980,"▁አየ":14981,"▁አገልግ":14982,"▁daalụ":14983,"▁anaaa":14984,"▁እግ":14985,"▁እግዚ":14986,"▁Mimi":14987,"▁Mwaramutse":14988,"abia":14989,"yewa":14990,"▁Ose":14991,"▁ọsọ":14992,"▁àjò":14993,"▁àbọ̀":14994,"oolu":14995,"▁King":14996,"▁مغ":14997,"▁مه":14998,"ems":14999,"emera":15000,"▁በኃ":15001,"imos":15002,"▁uw":15003,"▁uzi":15004,"▁inn":15005,"▁inason":15006,"▁onyame":15007,"▁maw":15008,"▁Bak":15009,"▁Basu":15010,"▁Banza":15011,"▁ìwò":15012,"▁ìsàlẹ̀":15013,"▁kuvuga":15014,"quest":15015,"▁van":15016,"▁vye":15017,"▁Ewu":15018,"▁Eje":15019,"▁Eche":15020,"▁Tá":15021,"▁Tso":15022,"yig":15023,"▁níbí":15024,"ereye":15025,"▁weh":15026,"▁weak":15027,"▁gold":15028,"ries":15029,"▁መዋ":15030,"▁መኖር":15031,"▁መግባ":15032,"▁መሆና":15033,"▁بنا":15034,"▁لكل":15035,"room":15036,"▁foram":15037,"▁ṣeré":15038,"go.":15039,"gode":15040,"gote":15041,"▁òó":15042,"▁issue":15043,"▁Wat":15044,"▁Haram":15045,"▁ẹlò":15046,"▁تط":15047,"▁alah":15048,"▁ከሁ":15049,"▁ከት":15050,"▁ከዛ":15051,"▁ይስጥ":15052,"▁sozin":15053,"▁sokoto":15054,"▁loyal":15055,"asaba":15056,"▁kanmu":15057,"sol":15058,"soci":15059,"راحة":15060,"▁umukobwa":15061,"▁Please":15062,"▁Pls":15063,"giyar":15064,"▁المو":15065,"▁المملكة":15066,"▁enwero":15067,"ja.":15068,"▁ወል":15069,"▁ወገን":15070,"▁ወለጋ":15071,"▁bib":15072,"▁biy":15073,"▁1000":15074,"▁lábẹ́":15075,"aliza":15076,"▁è̟":15077,"▁😂💔":15078,"▁youtube":15079,"▁sie":15080,"▁sí,":15081,"▁نخ":15082,"chiri":15083,"▁ማየት":15084,"▁Àṣà":15085,"▁ሰዉ":15086,"lẹ̀kẹ̀":15087,"▁bottle":15088,"▁kwam":15089,"▁kwenu":15090,"kano":15091,"▁aradu":15092,"▁mano":15093,"eric":15094,"ateful":15095,"▁n'anya":15096,"▁confi":15097,"▁ẹ̀gbá":15098,"▁agha":15099,"▁atụ":15100,"▁atra":15101,"omey":15102,"warin":15103,"wards":15104,"egwu":15105,"▁afinal":15106,"▁podem":15107,"▁aka.":15108,"▁akaunti":15109,"▁vibe":15110,"▁nanka":15111,"ياة":15112,"▁دير":15113,"▁دائ":15114,"▁kasashen":15115,"untos":15116,"▁keke":15117,"▁kunyi":15118,"▁xok":15119,"▁won't":15120,"aroc":15121,"ሆንም":15122,"\\n\\n":15123,"▁gano":15124,"▁kenan,":15125,"▁extra":15126,"▁barmu":15127,"▁barcelona":15128,"▁rob":15129,"▁rock":15130,"▁የአብይ":15131,"▁ukuntu":15132,"▁broken":15133,"ighty":15134,"sss":15135,"mọ́dún":15136,"▁ụtọ":15137,"▁kyautata":15138,"bert":15139,"▁Depois":15140,"▁السل":15141,"▁السلام":15142,"▁إلي":15143,"▁serve":15144,"▁jagun":15145,"▁oma,":15146,"▁الجديد":15147,"▁ghat":15148,"funga":15149,"▁Koh":15150,"hunu":15151,"chofo":15152,"▁mọ̀.":15153,"▁election":15154,"▁الفي":15155,"▁termin":15156,"▁parar":15157,"▁كلشي":15158,"void":15159,"▁መልክ":15160,"▁ntago":15161,"▁corru":15162,"▁player":15163,"▁looks":15164,"dds":15165,"▁القانون":15166,"▁b3y3":15167,"▁ፈል":15168,"pindi":15169,"▁Nnewi":15170,"tọ̀hún":15171,"ግራም":15172,"▁8.":15173,"اصة":15174,"اصمة":15175,"elewa":15176,"▁Kila":15177,"eeeee":15178,"▁بلادي":15179,"▁return":15180,"▁የነበሩ":15181,"▁ugly":15182,"▁garri":15183,"▁afterno":15184,"USA":15185,"▁......":15186,"ልምና":15187,"▁يعطي":15188,"▁shirme":15189,"😅😅😅":15190,"▁merda":15191,"ternational":15192,"▁بيه":15193,"▁#DC":15194,"▁feeling":15195,"▁ዶክተር":15196,"▁tarehe":15197,"▁Nnukwu":15198,"▁مسكين":15199,"▁Atiku":15200,"▁Ụtụtụ":15201,"llof":15202,"▁Sunday":15203,"▁erica":15204,"▁steal":15205,"▁#yoruban":15206,"▁ኃጢ":15207,"▁ካልተ":15208,"▁taste":15209,"▁ẹyẹlé":15210,"▁mzyan":15211,"▁Vocês":15212,"▁مليار":15213,"▁Hahahaha":15214,"▁አህመዲን":15215,"ــــــــ":15216,"▁ɗa":15217,"▁receber":15218,"▁ሚኒስቴር":15219,"▁Tunaomba":15220,"▁njia":15221,"▁Musul":15222,"▁ogbeni":15223,"baraga":15224,"▁Lmao":15225,"▁ههههههه":15226,"fatanye":15227,"▁trabalho":15228,"▁lembr":15229,"▁#Iseselagba":15230,"ashop":15231,"🙌🏾🙌🏾":15232,"▁ozugbo":15233,"▁أكثر":15234,"▁ትክክ":15235,"▁Niger":15236,"راكش":15237,"▁News":15238,"▁public":15239,"▁Edjo":15240,"▁Kigali,":15241,"▁Ndewo":15242,"▁champions":15243,"▁ዙሪያ":15244,"▁ሜዳ":15245,"▁መሳሪያ":15246,"فريقيا":15247,"▁ድጋፍ":15248,"▁Gomina":15249,"▁Mesmo":15250,"▁clothes":15251,"▁increase":15252,"▁#BokoHaram":15253,"▁shakarashop":15254,"▁ماعلاباليش":15255,"▁xokwe":15256,"-án":15257,"52":15258,"63":15259,"85":15260,"AT":15261,"Bl":15262,"DF":15263,"Dun":15264,"IB":15265,"Ki":15266,"NN":15267,"QZ":15268,"Qu":15269,"Ro":15270,"Un":15271,"Wi":15272,"bon":15273,"bna":15274,"bonye":15275,"ciki":15276,"hou":15277,"jas":15278,"joo":15279,"kɔ":15280,"káà":15281,"l9":15282,"laya":15283,"of":15284,"rt":15285,"uchi":15286,"yl":15287,"ying":15288,"zani":15289,"zikwa":15290,"àjò":15291,"áfíà":15292,"ãos":15293,"جار":15294,"جمل":15295,"رية":15296,"زق":15297,"ሊክ":15298,"ምባ":15299,"ሥራ":15300,"ሳቸውን":15301,"ቆር":15302,"ቸኳ":15303,"ኖራ":15304,"ከፋ":15305,"ው።":15306,"ጥፋት":15307,"ፍር":15308,"ፍን":15309,"ፍሪካ":15310,"ፍረስ":15311,"▁⚽":15312,"✈️":15313,"👨‍":15314,"😳😳":15315,"🙆‍♂️":15316,"🙌🏿":15317,"🚶‍♀️":15318,"🤷🏽‍♂️":15319,"🤸🤸":15320,"▁nom":15321,"▁niku":15322,"▁dub":15323,"▁tù":15324,"▁tọ":15325,"▁tree":15326,"▁têm":15327,"▁sú":15328,"▁sala":15329,"▁sand":15330,"inha":15331,"▁bé":15332,"▁bis":15333,"▁wose":15334,"▁ota":15335,"▁obo":15336,"▁oje":15337,"▁oore":15338,"▁oport":15339,"▁yd":15340,"▁yal":15341,"▁yit":15342,"▁ger":15343,"▁hwa":15344,"▁hbi":15345,"▁lado":15346,"▁loud":15347,"▁fet":15348,"▁fadar":15349,"orry":15350,"asse":15351,"▁cute":15352,"▁p'":15353,"▁pure":15354,"atia":15355,"▁Ae":15356,"▁Ayo":15357,"▁#or":15358,"▁#ka":15359,"▁ràn":15360,"▁rasu":15361,"▁det":15362,"aia":15363,"llll":15364,"ikh":15365,"ikiri":15366,"ites":15367,"itch":15368,"▁የጋ":15369,"▁የዚህ":15370,"▁davido":15371,"▁ann":15372,"isike":15373,"▁Nara":15374,"▁Nyuma":15375,"▁Nukuri":15376,"▁እይ":15377,"uter":15378,"utima":15379,"▁MI":15380,"ẹ̀.":15381,"▁Ole":15382,"▁Omi":15383,"▁àyí":15384,"▁àdá":15385,"▁àgbé":15386,"ooba":15387,"▁Kh":15388,"▁Kab":15389,"▁IM":15390,"▁Isa":15391,"▁Ipinle":15392,"▁وانا":15393,"▁ubi":15394,"▁ugwu":15395,"eter":15396,"▁toast":15397,"▁ìgbá":15398,"▁ìrọ̀lẹ́":15399,"chat":15400,"lagbà":15401,"▁kulle":15402,"▁Ev":15403,"▁Eku":15404,"▁ní,":15405,"??'":15406,"ere,":15407,"ereze":15408,"▁Day":15409,"▁Dia":15410,"▁amb":15411,"▁amp":15412,"▁amfanin":15413,"▁መሠ":15414,"zi,":15415,"▁gift":15416,"▁CON":15417,"▁Cidade":15418,"veis":15419,"▁W/":15420,"ata,":15421,"ata.":15422,"▁Yasa":15423,"▁ẹkùn":15424,"▁doctor":15425,"▁تد":15426,"▁ይፈ":15427,"▁fiye":15428,"▁يص":15429,"gede":15430,"▁having":15431,"eday":15432,"love":15433,"▁mohim":15434,"▁recl":15435,"▁milk":15436,"▁London":15437,"▁ተል":15438,"▁ተሳ":15439,"▁lapia":15440,"▁المؤ":15441,"▁saukin":15442,"▁ብል":15443,"▁ብሔር":15444,"▁ብሔራዊ":15445,"ríkà":15446,"arei":15447,"▁pec":15448,"▁leè":15449,"▁saya":15450,"▁lóòótọ́":15451,"▁የሚታ":15452,"▁ሰራ":15453,"fach":15454,"▁bímọ":15455,"▁pagar":15456,"▁contigo":15457,"ربة":15458,"▁እናመሰ":15459,"▁agwo":15460,"▁Ìlọ":15461,"▁banye":15462,"▁አይገባ":15463,"▁sunce":15464,"ughi":15465,"▁poverty":15466,"▁estran":15467,"▁videos":15468,"▁ndab":15469,"▁nanjye":15470,"▁fitar":15471,"▁دو":15472,"▁دعم":15473,"▁jiqan":15474,"▁ውጪ":15475,"▁bute":15476,"▁ibù":15477,"▁العربي":15478,"▁anyi.":15479,"chael":15480,"allahu":15481,"▁acab":15482,"▁prop":15483,"unidade":15484,"▁lọ́rùn":15485,"▁worst":15486,"▁ክት":15487,"▁qan":15488,"▁gangan":15489,"▁exc":15490,"▁exist":15491,"▁ire,":15492,"▁ليهم":15493,"▁#Naija":15494,"▁Alkhairi":15495,"▁yakeyi":15496,"▁nwaanyi":15497,"rúurú":15498,"▁picha":15499,"▁oríṣi":15500,"▁ዘፈን":15501,"▁ሀብት":15502,"▁bayna":15503,"▁الاجتما":15504,"▁osise":15505,"▁sinto":15506,"▁بالتوفيق":15507,"▁ጠ/ሚ":15508,"▁#RBA":15509,"▁utu":15510,"▁fui":15511,"▁በመሆኑ":15512,"▁ibibazo":15513,"▁Igbo.":15514,"INA":15515,"▁ፍት":15516,"▁dé,":15517,"▁déédé":15518,"لوس":15519,"▁abincin":15520,"▁كلمة":15521,"▁Nwannem":15522,"▁maganan":15523,"▁following":15524,"▁olè":15525,"▁olori":15526,"▁Mechie":15527,"ishije":15528,"▁እንዳንተ":15529,"▁haske":15530,"▁working":15531,"▁calling":15532,"ERIA":15533,"▁ilẹ̀ẹ":15534,"ailable":15535,"▁wella":15536,"▁achọ":15537,"▁breast":15538,"▁rayukan":15539,"عمال":15540,"▁nsị":15541,"▁koraaa":15542,"▁الكَ":15543,"▁መንገ":15544,"▁عندهم":15545,"ukundo":15546,"هود":15547,"▁shugabannin":15548,"👏👏👏":15549,"▁አስተሳሰብ":15550,"▁Manchester":15551,"minira":15552,"▁#Kwi":15553,"▁tambayi":15554,"▁https://t.co/Ht":15555,"▁àtẹ́":15556,"▁ጭምር":15557,"▁kutokana":15558,"UKWU":15559,"▁mtche":15560,"clusi":15561,"▁ሴቶች":15562,"▁meaning":15563,"▁ኃይ":15564,"▁ፀረ":15565,"ridge":15566,"pendimento":15567,"lated":15568,"▁dìde":15569,"▁ilaihir":15570,"▁dyali":15571,"▁ተከታ":15572,"▁draw":15573,"▁nesse":15574,"▁flog":15575,"ished":15576,"ṣèyí":15577,"▁invest":15578,"wasia":15579,"▁masifar":15580,"▁aniversário":15581,"▁makiya":15582,"▁bnad":15583,"▁event":15584,"embro":15585,"▁المسؤول":15586,"▁dimkpa":15587,"▁اكثر":15588,"ubwire":15589,"▁😹😹😹😹":15590,"▁relax":15591,"▁العربية":15592,"ecure":15593,"ctive":15594,"▁jirgin":15595,"▁opportun":15596,"▁እንድት":15597,"▁hukunci":15598,"urikira":15599,"▁umuriro":15600,"▁#GlobalSuperWord":15601,"▁ችግሩ":15602,"▁important":15603,"▁አስፈላጊ":15604,"▁الأحرار":15605,"▁አቋም":15606,"▁jersey":15607,"▁Homem":15608,"▁afẹ́fẹ́":15609,"▁ፍላጎት":15610,"Girls":15611,"▁عاجل":15612,"▁difícil":15613,"úlàní":15614,"ቸኳይ":15615,",A":15616,"Ap":15617,"Bu":15618,"DL":15619,"Em":15620,"Fi":15621,"HQ":15622,"Mu":15623,"PR":15624,"SMA":15625,"Sain":15626,"TY":15627,"Te":15628,"bk":15629,"bɔ":15630,"bri":15631,"cana":15632,"d7":15633,"fast":15634,"huri":15635,"ili":15636,"jal":15637,"kah":15638,"kha":15639,"kita":15640,"kwanu":15641,"lz":15642,"luk":15643,"lami":15644,"lord":15645,"md":15646,"mẹ́":15647,"nàá":15648,"tah":15649,"tari":15650,"vand":15651,"wJ":15652,"wha":15653,"yF":15654,"zak":15655,"zed":15656,"zambique":15657,"éjì":15658,"òduà":15659,"ǹgó":15660,"جن":15661,"ذب":15662,"طاع":15663,"لية":15664,"هت":15665,"መቀ":15666,"ረቱ":15667,"ሰቦ":15668,"ሴን":15669,"ካታ":15670,"ወት":15671,"ወጥ":15672,"ዝም":15673,"ጉል":15674,"ጋና":15675,"ፌሰር":15676,"፣የ":15677,"▁ሬ":15678,"▁زا":15679,"▁ዳን":15680,"✊✊":15681,"😝😝":15682,"🤦🏾‍♂️":15683,"▁nwu":15684,"▁mì":15685,"▁mke":15686,"▁mura":15687,"▁a7":15688,"▁avi":15689,"▁apolo":15690,"▁ahead":15691,"▁kutu":15692,"▁kesho":15693,"▁dum":15694,"▁dún":15695,"▁tis":15696,"▁turi":15697,"▁sè":15698,"▁sù":15699,"inta":15700,"ints":15701,"▁bos":15702,"▁bbu":15703,"▁bale":15704,"▁wtf":15705,"▁ote":15706,"▁oorun":15707,"▁yán":15708,"▁ykh":15709,"▁ia":15710,"▁gùn":15711,"▁hou":15712,"▁hoo":15713,"▁huru":15714,"▁habi":15715,"▁lantar":15716,"▁larab":15717,"▁fy":15718,"▁fò":15719,"▁fata":15720,"▁fala":15721,"orge":15722,"▁ewo":15723,"▁cum":15724,"▁cig":15725,"atara":15726,"atse":15727,"akes":15728,"akira":15729,"alimu":15730,"▁Aj":15731,"▁Asi":15732,"▁Aiki":15733,"bado":15734,"back":15735,"▁#lagos":15736,"ahari":15737,"▁rashi":15738,"▁death":15739,"aire":15740,"ikire":15741,"▁nigba":15742,"▁nijeria":15743,"▁jom":15744,"▁dagas":15745,"tten":15746,"isti":15747,"▁Nun":15748,"▁Nii":15749,"▁እሁድ":15750,"▁MAS":15751,"▁Ope":15752,"▁ọh":15753,"▁Kum":15754,"▁Kọ́":15755,"▁Ikú":15756,"▁ba3":15757,"▁مر":15758,"hagar":15759,"▁noite":15760,"ween":15761,"▁በሞ":15762,"▁በዛ":15763,"imar":15764,"▁inayo":15765,"▁ono":15766,"▁wa'in":15767,"ce,":15768,"▁ìràn":15769,"▁ìbàdàn":15770,"▁kuli":15771,"▁muce":15772,"kace":15773,"▁ነች":15774,"▁Ekwu":15775,"▁bear":15776,"▁become":15777,"yiwa":15778,"yize":15779,"▁nílò":15780,"▁abr":15781,"▁Du":15782,"rics":15783,"▁بز":15784,"▁بق":15785,"▁بدا":15786,"liza":15787,"bili":15788,"▁koja":15789,"▁òrò":15790,"▁فوق":15791,"vez":15792,"▁Wowe":15793,"▁Yasin":15794,"انشي":15795,"▁ńṣe":15796,"▁tafiya":15797,"▁doka":15798,"▁تغ":15799,"▁Gị":15800,"▁Gar":15801,"▁Gwa":15802,"▁asu":15803,"▁asiko":15804,"▁alo":15805,"▁albar":15806,"▁ይሻ":15807,"▁ይገ":15808,"▁Uki":15809,"ki,":15810,"▁يلعب":15811,"▁ለወ":15812,"▁hafi":15813,"▁akara":15814,"▁3ny3":15815,"!!!!!":15816,"▁su,":15817,"▁chale":15818,"▁reka":15819,"jebu":15820,"▁kil":15821,"▁kiba":15822,"راب":15823,"atic":15824,"▁bull":15825,"▁biara":15826,"هاب":15827,"ين,":15828,"▁ስነ":15829,"sider":15830,"aliwa":15831,"▁èyàn":15832,"▁Jin":15833,"▁JESUS":15834,"mọdé":15835,"ppi":15836,"ala.":15837,"▁ምግብ":15838,"▁síbẹ̀":15839,"اتب":15840,"▁ندير":15841,"▁Fá":15842,"▁Fran":15843,"medi":15844,"▁adan":15845,"▁حل":15846,"▁itan":15847,"▁guard":15848,"▁tóó":15849,"▁ẹ̀jẹ̀":15850,"lhas":15851,"▁za'ayi":15852,"▁Onitsha":15853,"▁materi":15854,"▁ግብር":15855,"▁ahye":15856,"▁cover":15857,"▁ደብ":15858,"▁munsan":15859,"▁babbar":15860,"▁podes":15861,"▁akace":15862,"▁kamp":15863,"▁vivo":15864,"▁vizuri":15865,"😂😂😂😂😂😂😂":15866,"▁دخ":15867,"▁እንደነ":15868,"▁gbadun":15869,"واحي":15870,"▁جد":15871,"▁الحكم":15872,"▁#Ominira":15873,"▁plate":15874,"▁ባህ":15875,"▁ጥፋ":15876,"▁ጥላቻ":15877,"rufai":15878,"▁yayiwa":15879,"▁Òkú":15880,"▁knn":15881,"▁nysc":15882,"▁hide":15883,"▁hivyo":15884,"▁kenan?":15885,"▁معاه":15886,"▁apc":15887,"▁للع":15888,"▁chest":15889,"▁7it":15890,"هههههههه":15891,"▁አስመ":15892,"▁አለች":15893,"kwara":15894,"▁راس":15895,"▁bladi":15896,"ደርስ":15897,"▁amazing":15898,"▁😭😭😭😭😭":15899,"::'":15900,"▁الجزائري":15901,"▁malan":15902,"▁ስለሚ":15903,"▁عليا":15904,"ምንም":15905,"▁deserve":15906,"▁alaafia":15907,"ankali":15908,"▁tunani":15909,"▁burn":15910,"▁الفساد":15911,"▁délé":15912,"صحاب":15913,"▁Kudi":15914,"▁የሚያሳ":15915,"▁batun":15916,"▁ولاد":15917,"▁القد":15918,"2016":15919,"▁ጀበል":15920,"▁ዓ.ም":15921,"▁😎😎":15922,"▁isso.":15923,"▁kurwanya":15924,"▁scatter":15925,"😭😭😭😭😭":15926,"▁friday":15927,"▁Ọlọ́run.":15928,"______________":15929,"▁azumin":15930,"▁ìṣè":15931,"▁ìṣò":15932,"▁zie":15933,"▁باقي":15934,"▁Sau":15935,"▁rere.":15936,"▁drama":15937,"▁insult":15938,"▁😊😊":15939,"▁facebook":15940,"eshya":15941,"▁እርሱ":15942,"▁morre":15943,"▁ìpè":15944,"▁👍👍":15945,"▁kéré":15946,"▁mutuwar":15947,"▁sílẹ̀,":15948,"▁tambayar":15949,"▁روسيا":15950,"▁impos":15951,"ክልሉ":15952,"▁#IgboTwitterCommunity":15953,"نوات":15954,"▁Loka":15955,"▁Love":15956,"▁መሪዎች":15957,"▁summa":15958,"▁rabon":15959,"▁dubai":15960,"▁#the":15961,"▁attention":15962,"▁bety":15963,"اركة":15964,"▁kugirango":15965,"▁galt":15966,"▁በርታ":15967,"🙌🙌🙌":15968,"▁cuz":15969,"ongeza":15970,"▁الذاتي":15971,"▁uliyo":15972,"▁Chelsea":15973,"unguza":15974,"▁يبارك":15975,"▁ajuju":15976,"▁ubwoba":15977,"▁b'ó":15978,"▁púb":15979,"llywood":15980,"▁ايه":15981,"▁#africa":15982,"▁african":15983,"▁ሙስሊሞች":15984,"▁እራሱ":15985,"▁ፋኖ":15986,"fanyika":15987,"▁congrats":15988,"كَود":15989,"▁̊°":15990,"▁tonight":15991,"▁nenhum":15992,"▁common":15993,"▁غاضتني":15994,"▁ìlànà":15995,"▁customer":15996,"▁#EdeYoruba":15997,"💯💯💯💯💯💯💯💯":15998,"▁cabelo":15999,"▁òòṣà":16000,"▁nsuo":16001,"▁mitanda":16002,"▁punish":16003,"▁#NoMore":16004,"▁religi":16005,"▁wizkid":16006,"▁ዓመታት":16007,"▁ẹnikẹ́ni":16008,"▁experience":16009,"OfTheSain":16010,"▁አስታወቀ":16011,"ensive":16012,"▁energy":16013,"▁سيدنا":16014,"▁chicken":16015,"▁àtúnṣe":16016,"▁تبهديلة":16017,"erezida":16018,"ኮኖሚ":16019,"▁Gwamn":16020,"▁#ResurrectionOfTheSain":16021,"▁occur":16022,"▁ወሳኝ":16023,"ዮርጊስ":16024,"▁bestie":16025,"▁wulakan":16026,"▁perfume":16027,"▁ráńṣẹ́":16028,"▁afternoon":16029,"▁#yorubanimi":16030,"SMAFM":16031,"▁#ResurrectionOfTheSaints":16032,"'.":16033,"-I":16034,"3ti":16035,"59":16036,"6R":16037,"98":16038,"BF":16039,"BG":16040,"Easter":16041,"KZ":16042,"LL":16043,"Pulpit":16044,"VO":16045,"X8":16046,"azi":16047,"bun":16048,"bor":16049,"ding":16050,"fc":16051,"fín":16052,"fest":16053,"gán":16054,"ici":16055,"idan":16056,"jd":16057,"jyan":16058,"kX":16059,"mad":16060,"nya":16061,"naija":16062,"ojú":16063,"ping":16064,"tou":16065,"uwan":16066,"vp":16067,"x2":16068,"zee":16069,"zaho":16070,"ÀN":16071,"òṣà":16072,"بيل":16073,"ثة":16074,"ضا":16075,"غم":16076,"ونا":16077,"ለታ":16078,"ሊት":16079,"ሙያ":16080,"ማግ":16081,"ረኝነት":16082,"ሪፍ":16083,"ርቅ":16084,"ሳችን":16085,"ሸነፍ":16086,"ቀኑ":16087,"ቃጠ":16088,"ባችሁ":16089,"ቦት":16090,"ታችንን":16091,"ንክ":16092,"ኖረ":16093,"ኞችን":16094,"ካን":16095,"ክሲ":16096,"ውቀት":16097,"ዛዝ":16098,"ይን":16099,"ዲዮ":16100,"ዲሞክራሲ":16101,"ዳሴ":16102,"ዴፓ":16103,"ድቅ":16104,"ጀራ":16105,"▁ቄ":16106,"▁ቶ":16107,"▁፥":16108,"▁‹":16109,"▁🕺":16110,"▁🥲":16111,"▁♥️":16112,"⠀⠀":16113,"🙈🙈":16114,"▁n9":16115,"▁nina":16116,"▁mg":16117,"▁mig":16118,"▁meme":16119,"▁mtoto":16120,"▁ape":16121,"▁kos":16122,"▁dig":16123,"▁dalu":16124,"▁damn":16125,"▁tasa":16126,"▁sat":16127,"▁squ":16128,"▁sati":16129,"inci":16130,"▁bike":16131,"▁bita":16132,"▁bene":16133,"▁btissam":16134,"ark":16135,"ares":16136,"▁oka":16137,"▁ora":16138,"▁ijo":16139,"▁gamu":16140,"▁gatan":16141,"▁gẹ̀ẹ́sì":16142,"▁hy3":16143,"▁hunu":16144,"▁lgh":16145,"unch":16146,"▁efi":16147,"▁etu":16148,"asị":16149,"amwe":16150,"amke":16151,"amini":16152,"enza":16153,"al.":16154,"alat":16155,"alha":16156,"▁nayo":16157,"▁A)":16158,"▁Abo":16159,"▁rik":16160,"▁rabo":16161,"▁deep":16162,"ayyum":16163,"hit":16164,"irika":16165,"▁niwe":16166,"▁አደራ":16167,"▁አዲሱ":16168,"▁anfani":16169,"▁እብ":16170,"da.":16171,"▁Odò":16172,"▁àyà":16173,"▁àmú":16174,"▁àgbọn":16175,"▁àlejò":16176,"ẹ́rẹ́":16177,"▁مؤ":16178,"▁وث":16179,"▁وض":16180,"▁وتح":16181,"tica":16182,"weli":16183,"week":16184,"▁zuru":16185,"▁በጋራ":16186,"rel":16187,"rega":16188,"▁ontem":16189,"ọ̀ni":16190,"▁Sab":16191,"ced":16192,"▁Banda":16193,"▁ìwú":16194,"chki":16195,"▁vend":16196,"▁abụọ":16197,"hota":16198,"▁godi":16199,"▁america":16200,"dei":16201,"▁መመ":16202,"▁መች":16203,"▁መገ":16204,
[...]
