#version: 0.2
a n
▁ b
r a
▁ i
▁ a
▁ k
▁ n
r i
g a
y a
b a
▁ u
m u
w a
r e
s h
y e
m a
g i
k o
i n
w e
k a
▁b a
g u
z a
r u
▁k u
z i
t a
b i
g e
h a
t e
t u
y i
d a
y o
b u
▁b i
b o
▁ c
▁ m
z e
s e
▁ ya
▁ mu
▁n ’
r o
y ’
k i
d i
▁ gu
w i
s i
k u
g o
▁ r
an a
m e
▁u mu
v u
j e
h u
h o
b an
t i
t an
▁b u
b e
sh i
▁i n
sh a
s a
w an
▁ ha
m i
w ’
▁a ba
▁ y’
y u
h e
d e
r an
f a
y an
m o
r wa
▁a ma
l i
▁ gi
m we
▁k i
k e
t o
▁ ru
h an
d u
wan da
z o
g an
▁i bi
▁ ma
▁k a
▁u bu
t se
w o
s o
n e
▁i m
k in
▁ w’
▁ p
h i
▁n’ i
▁n’ a
n a
f i
be re
gi ra
u mu
m ba
hu gu
▁r wanda
▁ zi
n ge
vu ga
t wa
k an
l e
ga ra
▁k an
▁i gi
z we
u bu
sh o
ku ru
▁n a
▁ wa
▁k wi
s an
▁a ri
d o
▁a ban
ge n
ko re
f u
▁ ga
▁n i
ku n
ka ba
▁m i
e n
▁c yan
b wa
g wa
▁kan di
s u
t s
a ma
v i
c u
fi te
▁ e
tan ga
gi ye
sh in
b wo
me n
▁ tu
z u
▁ku ba
▁b ya
▁ha ri
c i
▁ yi
ko me
yo bo
c e
▁ku ko
▁n de
re re
▁i ki
▁i mi
n di
▁y’ i
▁ ri
▁ari ko
▁u ru
yu ma
ri ki
p e
r yo
ko ra
ri ka
o n
ko rwa
▁nde tse
sho bo
▁ f
▁ z
m bo
▁i b
j we
sh u
a ba
▁n k
y in
▁n ta
▁ s
v a
▁nk ’
bi ri
m bi
c a
c o
l a
sh yi
h in
n ga
ge ra
▁a ka
▁n’ u
▁cyan e
▁ t
in i
sh e
▁z ’
n i
j ya
ran ga
b wi
ya ma
yobo zi
ts in
▁a vuga
▁gi he
y’ i
wa ka
i ra
n da
t si
n o
p a
▁n’a ba
z wa
▁m bere
kan ye
n gu
w u
bo na
ya ka
▁umu n
p o
▁ v
▁i c
ri mo
te ge
▁u m
▁ je
ru ndi
▁w’ i
be ra
▁n yuma
▁ za
e za
▁y’ u
gi ze
▁aban tu
kin o
▁c o
in di
tu ra
r wanda
men ye
k wi
m ana
▁mu n
▁ku gira
▁ j
▁b w’
▁b an
fa ranga
ga bo
k ana
ri ye
gara ga
▁ le
▁k o
▁ se
gi hugu
sha ka
shobo ra
han ga
ba zo
te ra
r ana
▁ du
j i
ma ze
n go
ya rwanda
m an
▁c a
tura ge
en shi
ta ra
▁n’ umu
ki ra
vu ze
▁a ga
b ye
▁c ya
bu ra
yan go
tan du
▁ ta
▁n eza
ri ra
▁gu sa
▁a ta
▁p a
fa sha
b we
▁a kaba
shi mi
r yango
▁n ti
▁ wi
▁m waka
▁ twa
gan i
nge ra
p i
b yi
▁ sa
gu ra
▁b y’
wan ya
go re
zi ma
▁r wa
ri za
▁b wa
v e
ge za
ru ka
▁p e
▁ yo
ci ro
▁igi he
▁n ya
▁ re
san zwe
g ana
▁c y’
▁cyan gwa
▁p o
b ana
p u
▁ ra
▁r w’
ba ye
tandu kanye
an i
sh ya
▁im bere
tu m
▁ we
▁b ’
re za
n ye
▁le ta
ye me
▁ba ra
ge ze
▁r y’
▁ d
u se
▁ o
▁ si
ku riki
l o
▁ta riki
▁gi hugu
▁bu ryo
▁bu ri
j a
▁ han
ga li
▁n’a ban
▁n’a ma
▁b enshi
use r
@ user
▁a ha
▁ @user
▁ba ta
▁ya vuze
▁ku bera
za ba
▁n’ ubu
yin shi
▁n’ in
n yi
▁n da
in a
cu ru
r we
tu ma
ko bwa
▁ama faranga
b ya
si de
▁mu ri
gan da
▁ba ka
▁u mwe
▁nk’ u
▁m ini
bo ne
▁bi ta
m va
▁je no
re nge
▁ de
▁r we
▁jeno side
▁ha ga
re zi
▁ki gali
sa ba
▁ya gize
ban u
j u
kome ye
▁ka rere
m be
f o
san ga
ri mbo
go mba
ki ri
yo n
▁k we
kore ra
re zo
m bere
ran ye
fa ta
▁u ku
▁ha mwe
in e
k wa
a ban
▁y’ ubu
shyi ra
sh an
▁mi li
▁b o
gu ru
in tu
▁ an
▁ yan
kome za
m bu
su bi
kun da
shu ri
te ka
▁ ho
▁ya ra
j ye
w ana
▁i kin
▁c an
yo se
▁mini si
s t
to ra
re n
▁gu kora
▁b e
d wa
▁haga ti
kore sha
▁po li
tsin da
fu rika
te r
▁n’i bi
▁umun tu
▁ku geza
▁ba mwe
di rimbo
sh wa
ko ze
▁aba turage
b yo
▁n u
▁r ya
yi za
ti ri
shin zwe
▁umu yobozi
han zi
rezi da
▁nk’u ko
r t
za mu
▁c y’i
▁a bi
▁n o
shi ze
▁rwe go
▁n go
gen da
tan giye
kin nyi
yo ni
▁ hi
j yan
m vu
▁a ra
▁pe rezida
w’ i
j yi
u e
fa tan
▁f c
▁bi te
y ana
▁a ti
shi je
▁mun si
kan o
▁i ta
r ya
▁y’ ama
gara gara
▁ba ha
▁y’ aba
▁gu ha
▁ vi
▁m o
▁c ’
▁a za
▁aban di
▁ba ga
tege ko
gen zi
so banu
twa ra
bu ga
shin ga
▁i za
▁ka biri
n de
▁k wa
▁ba za
▁iki pe
▁ -
▁ga hu
kome je
▁ku ri
k we
gani ro
m bwe
▁bu rundi
zi ra
▁gu te
▁im yaka
▁gahu nda
▁igi hugu
n d
▁w’ umu
ta re
te ri
c yo
gen do
▁je an
▁ yu
n gi
garaga za
j o
▁ku ru
▁s po
ku ra
ki pe
▁ l
ge ne
▁aba tu
▁i v
t we
yama kuru
▁ to
bwi ra
ha mwe
za ma
▁ya ba
ga ri
▁ so
in si
ban za
ru tse
▁ubu ryo
▁m e
▁ te
te kano
re ke
▁j o
▁ibi korwa
▁ku bi
d an
▁ ye
▁m pu
vu ye
hin du
jyan ye
shi ra
tanga je
mwe ru
re nga
ma ri
▁u wa
p an
▁a fite
▁n’i b
r wi
▁mili yoni
m wi
pa mvu
n zi
▁i si
▁n kuru
ke ne
w in
ban ga
p fu
▁ku mu
yu mweru
▁u yu
tan u
l l
▁hari mo
p r
ro na
▁ba fite
▁ki mwe
te ke
e r
▁a furika
ko rana
▁ib intu
▁ he
kwi ye
▁ba kaba
shimi ye
se ze
men ya
▁ li
sh yu
▁ fa
a ka
▁z’ i
hi ta
ri je
hu mbi
gu ye
tum wa
▁a hu
r w
re ye
ho ro
▁b wi
m yaka
tan gira
ho ra
z an
▁ra yon
▁bi korwa
▁a han
▁ba vuga
n ze
▁aban yarwanda
tan gi
r d
ti on
bo nye
dwa ra
▁ba ba
m ye
o ta
ha ri
si ga
ts we
m wo
kun do
ba ra
▁iki bazo
▁ku re
so ko
sh we
ri ri
▁nta bwo
▁nta ra
curu zi
▁y’ umu
▁r y’i
kin a
me rika
▁bw’ i
▁ g
▁b yose
ya ha
▁in ga
l le
ta tu
n do
s in
▁a bana
▁nk’ i
▁ do
zu ba
▁k ’
▁in dirimbo
▁i z
ko mbe
ru s
re ra
bi ra
▁ya ha
▁ h
▁ba bi
to za
m vi
▁in yuma
▁v ya
▁bi hugu
so re
▁n’aban di
y wa
▁abatu tsi
n gan
▁n’ib indi
▁b y’i
tan da
s s
t in
▁ di
▁ama kuru
m in
▁mu kuru
te go
gi sha
▁ahu bwo
ko zi
rona vi
ra si
▁i yi
fi se
▁u bwo
▁im ana
▁k in
t yo
▁w’ in
▁a l
▁minisi tiri
▁m wi
kun gu
ki ye
▁y’ a
fa she
▁t wi
▁mu jyi
u r
shan wa
q ue
s te
▁b yi
▁ka ga
▁w’ u
▁a gira
r ts
▁j a
▁b yinshi
▁u ganda
▁ku bona
▁a f
ru ko
▁ya kore
ga mi
▁i ka
ya ri
si rika
▁bi ri
▁bi ba
shi ka
bu ka
ro ngo
re ro
d -
hi se
ga ban
yi je
▁ku gi
tera mbere
ronavi rus
te ro
ri zwa
▁in ama
▁gu tanga
▁co ronavirus
▁m wanya
ran gi
menye sha
▁bi za
▁ba tu
sirika re
m pi
▁ hu
me ra
▁n ko
▁ga tatu
vu gwa
bwi ye
ge ro
ba ba
▁spo rts
▁nda yi
▁u gu
▁i yo
t so
▁t he
▁i ra
▁s ta
she je
▁ la
tara mo
▁ zo
▁nu bwo
m bwa
ge re
▁we se
▁han ze
▁poli si
hin zi
ran o
ri ro
tanda tu
▁umu gore
▁c on
▁ba ri
▁b in
v an
ha re
▁ki bazo
ze go
▁mu renge
mo ka
▁bi ra
▁bi kaba
▁ku jya
ta ri
▁b wo
ru ro
▁ba maze
▁kaga me
▁ha ba
li ka
yu ba
c an
▁can e
▁ su
▁i ha
▁a pr
ran e
▁ wo
re tse
▁y’ in
▁k w’i
▁ru san
hu ra
bere ye
▁n yi
z wi
▁ fi
▁ yeme
▁ku za
▁b’ i
▁r wi
▁ata ri
▁w’ ubu
▁ubu zima
▁kwe zi
▁ya bi
ri e
ba re
▁i ri
▁rw’ i
gan wa
▁mpu zama
▁n’i mi
▁bi tandukanye
▁ba mu
▁c yi
sa ruro
gen de
tege tsi
▁ sha
▁umu tekano
n tu
▁n di
▁w’i gihugu
m bura
▁umu gabo
ga mbwe
▁bi ga
do ka
te gan
fu za
d d
▁ku r
mi ra
▁n yinshi
bye yi
ri nda
▁y’i gihugu
bo n
▁ku gera
u za
▁ibi humbi
ti ma
▁ubu yobozi
▁w’ ama
gu ri
r wo
▁m an
m ya
▁ba giye
▁c yumweru
gan ga
▁ama ze
yu ngu
▁ku bu
tum ye
g wi
▁n ku
san ze
p fo
j yana
p ira
ci ye
ran i
m wa
▁i fite
▁n yama
y we
ran go
fu ngu
gi he
min uza
shi ki
▁na yo
▁uru hare
fa shi
▁kwi ta
kun zi
▁na ma
byi ruko
gi zi
fa ti
▁ da
▁i ba
▁k en
hu za
he ra
▁ka minuza
▁kuru sha
▁rusan ge
sa bye
▁n’u bwo
▁minisi teri
▁ ro
▁u bwi
▁um wanya
▁na bo
▁c i
so ho
co m
e l
▁u ta
▁i kaba
▁mu kino
sa ha
▁yan di
ko zwe
▁um waka
han go
ri re
▁u sanga
ro n
f e
shu ro
aka rere
▁aba kinnyi
te ye
ta ka
kun ze
shu ti
ru shanwa
ran ira
▁can ke
c k
re ka
te gu
▁ba kora
▁m wa
aban tu
tanga za
bi korwa
han da
▁yakore we
kun ga
▁ri mwe
ga mbo
▁ wu
ke n
ran ya
mu ha
▁ndayi shimiye
▁te le
yan di
ren gan
t t
▁z’ u
sa bwa
▁umu saruro
pe ra
▁d r
▁ikin di
▁ba ki
▁ku wa
i r
gi ngo
▁u za
▁mun tu
hi rwe
▁ba zi
mba ra
▁aka zi
▁by’ u
▁ya tangaje
▁ba rimo
▁bi tyo
▁bi mwe
▁ba hu
▁ic yo
▁m yaka
▁umu ryango
gan ira
gi zwe
▁b ana
z ani
ti ke
sh yin
yama banga
’ ’
▁ni bwo
m p
sh ye
tsin ze
man ota
▁ibi bazo
j ira
▁bu zima
▁ki ri
▁na bi
▁iv yo
ga mba
▁ni yo
shira hamwe
▁ku vu
▁aga ciro
▁r yo
▁ken ya
▁n e
ka zi
▁no ne
an o
▁aban ya
gan o
m bye
ke ra
ze re
ri s
to nde
▁ib ya
fa shwe
kore sho
▁ M
ki ko
▁bi ka
▁gu fasha
biri ye
shobo ye
h ana
sha tsi
seze rano
▁i soko
rwa yi
▁n’u ko
s wa
bone ka
shimi ra
je jwe
▁u ka
▁u shinzwe
ye ho
ji je
▁u fite
kan i
▁ku yi
▁u ba
tsin a
▁bi rimo
▁y’i bi
j an
wan di
▁ go
▁a merika
▁j u
▁p ro
tan ze
▁kuba ka
zwe ho
re kana
yobo ra
ma ra
nzi za
▁kugi rango
▁z’ ama
▁u tu
tu ngo
u l
▁ic yi
kore shwa
bura rw
t y
shyi ze
ran sa
▁u wi
▁bi tuma
po ro
mu ra
t sa
▁um wana
re we
ga ru
p fa
▁m pamvu
sho ra
hu nga
▁im pamvu
hin ga
▁ban tu
▁i co
ri a
shyu ra
garaga je
▁wi twa
▁umu kobwa
gi je
▁mpuzama hanga
en t
yi jwe
▁ku menya
fo to
▁mu ryango
▁n dirimbo
▁umu kuru
t wi
ba za
m yi
▁ma tora
▁nkuru nziza
teke rezo
▁bi he
▁kan e
po li
mo doka
gen ga
fa ransa
▁bite we
▁tu ra
▁i tsinda
r y
m ini
▁gu shaka
pa ka
ho ze
▁in gu
▁gi korwa
▁yi twa
shaka shatsi
▁ tan
▁ibi ri
n ya
ha gara
▁ki go
▁kwi buka
▁y’u ko
▁ ze
fu n
▁bya ri
si ye
▁n shin
▁sa a
yu mba
▁n’u ru
c he
ha bwa
▁gi to
▁gu shyira
▁aba ri
▁ic ya
▁ru go
▁bu ra
▁f e
▁f o
bu hanga
fa twa
▁ama horo
d ana
shyi rwa
shobo zi
▁iz ina
yo ngera
su ra
▁ki ganiro
▁ba gera
▁in ka
▁han o
ju ru
▁b we
▁in ter
▁b yiza
▁a da
se nge
ko moka
▁c ha
▁ru ba
ve ri
go ro
l u
ku bi
re ba
ga ruka
▁ wan
▁i ryo
gami je
ri we
bwe nge
▁ya baye
sa ga
f ana
▁ban ki
▁m insi
▁umu kino
▁se n
gi ro
▁im yi
▁ry’ umu
c h
▁c ye
▁ibi hugu
du gu
▁gu fata
i s
fatan ya
▁k e
hu ngu
▁gu tera
▁a mu
▁mi kino
men yi
▁u ga
▁gi cu
de ge
han de
▁igi kombe
▁in ta
▁bi jyanye
▁gu koresha
▁m enshi
▁n zi
▁ga tanu
ta ba
▁ku mwe
zi ki
▁u bwa
▁kwi rinda
sha mi
gan ji
▁ib indi
siga ye
yin e
i re
kwi ra
▁c’ ubu
▁ba biri
mba ga
▁c nd
▁ N
han gana
▁ubu mwe
menye tso
▁nku ko
▁mu gabo
mbu ye
shobo ka
ri rwa
▁cy’ u
dugu du
yo na
yeme zo
▁zi tandukanye
on i
▁i wa
bara ga
gi re
▁in dwara
▁i tanga
me za
▁sha mpi
▁ ana
▁n’i ki
c ya
▁tan zani
ra li
subi ra
tu ngan
▁im insi
▁umun yamabanga
korana buhanga
p s
▁r yi
▁ama tora
ja mbo
shiki ran
curu za
b in
m waka
men t
▁ba da
▁a shobora
▁w’ aba
▁nti ba
riri m
▁ku zi
▁mili yari
▁shampi yona
▁e m
nge reza
▁co vi
▁imi kino
te rwa
▁kur wanya
▁gu komeza
ga mbi
ke rezo
▁ga tandatu
▁i terambere
▁aba gore
▁ga to
▁ma rie
p ubu
bi li
▁bi ro
▁ya komeje
▁ama hirwe
▁ba ti
▁ya tangiye
fatan ye
▁mu ka
▁v yo
▁ zu
▁a ki
▁gu veri
▁ko ngera
▁ki za
ye shuri
▁u retse
garaga ye
▁ama teka
▁igi korwa
▁m yiza
▁re pubu
▁pa ul
kuriki rana
shikiran ganji
t h
ru gendo
z ina
shu re
▁ki pe
▁ya giye
▁sen tare
j wi
▁im pan
▁m w’i
na l
ha ye
a m
he rere
▁in di
te we
▁ha za
▁ma ta
si ra
j ana
▁i ga
ha ra
▁n’aban tu
se ru
▁im baraga
so n
▁uru kundo
▁w’ a
z indi
f dd
▁h tt
me ze
bu ye
kin ira
▁imi rimo
ri n
▁umu rwi
▁do re
du ka
▁con go
▁u ra
kwe zi
l an
kene ye
di o
▁ko mi
l in
▁ka zi
r s
▁bu ru
z ana
▁aba yobozi
▁c la
▁a manota
twa ye
▁i vuga
▁bi go
▁a u
gene kerezo
▁a giye
▁w’i myaka
bere ho
▁repubu lika
l y
▁ahan tu
can yi
▁bw’ u
ren ze
jan ye
▁ ’
jo ro
me zi
v o
▁ba turage
bi re
▁ya bwiye
▁k win
▁ga ce
▁f rw
▁yo mbi
ha ga
▁in kunga
ue l
▁ama kipe
rengan zira
v yo
▁a ko
▁ba genzi
tan ye
▁ba ke
da sanzwe
▁ibi ro
▁ka me
▁k on
▁b yo
▁ya je
▁a be
▁ubu tumwa
▁ yin
▁t we
▁n dwara
▁gu ta
▁gi sa
▁ba to
ye ne
ne t
he re
▁nk’ umu
▁ K
▁mi ss
▁i modoka
▁u wu
kin yi
▁ma faranga
te gura
kore rwa
man uel
▁htt ps
ma ro
▁af ri
hindu ra
▁covi d-
ru guru
vu gizi
▁zo se
▁ruba vu
▁ba yi
▁em manuel
▁n ka
hari ko
▁a bo
ge r
ti ye
s ta
▁han yuma
▁he juru
yu mvi
tege re
ha we
rwe go
▁zi ri
c yaha
▁a he
gu rira
▁um wu
t ana
▁mu hanga
st in
kun dana
▁se ri
ti ve
▁n yan
▁gute za
reke za
ra ba
kera rugendo
vu ra
▁tu ri
▁yi ta
m ban
han o
▁ama zi
▁in zu
yu ze
gen zu
▁ib yo
tan gwa
poli si
▁ku vuga
▁seri vi
▁hu ye
▁p i
▁mwi za
▁ita riki
▁ lo
ki rwa
twa ro
▁ku n
shyira hamwe
ku ri
yi mana
▁iki go
▁yo nge
▁ki buga
v en
▁ho se
▁u ni
▁bi shobora
s sa
kore sheje
ya ga
▁ama tegeko
▁we ru
▁ U
▁a r
▁wa we
▁spo rt
subi za
ri mu
ma ga
v ye
▁i ya
aban yarwanda
n du
yan ga
shu sho
▁i su
gaban e
/ t
ru sha
▁n zu
ba ll
▁bu ju
▁weru rwe
▁z’ umu
▁ku zamu
▁n’i gi
gi ranye
▁za bo
▁ yana
▁umu hanzi
▁ A
hin gwa
be rt
▁um wi
b c
▁u rwo
▁u du
▁bi komeye
. co
▁c e
▁mu ha
/ /t
: //t
yu mva
://t .co
zo ba
kan ga
ki je
▁u shize
ran gira
sobanu ra
p p
za bi
▁inga ruka
m pa
▁n shya
▁umun si
▁a tu
he reza
so zi
▁ ti
▁ngo mbwa
▁ikin tu
▁https ://t.co
te guye
▁ry’ u
▁n’i zindi
▁cnd d-
▁e s
▁cndd- fdd
▁i zi
▁ba gomba
▁by’ in
baba zi
▁in yungu
▁a zi
▁i maze
▁bi biri
▁y’ubu rundi
▁ vu
▁ya mu
▁ama sezerano
to rero
▁jo se
▁in zo
kan ya
ka ri
ba sha
kuriki ra
▁poli ce
▁i s
▁e a
▁https://t.co /
▁aka rere
ri c
ve r
si yo
shya mba
gi ri
mba ye
yama ma
g we
’ i
z in
▁im pu
▁nzi za
gi za
▁bita ro
▁gi taramo
▁o f
▁ya ri
▁in da
ci tse
ho n
▁ubu shobozi
y s
▁uru byiruko
▁sta de
▁n ze
▁ru hande
▁ubu ndi
▁ama vu
shin ja
gu e
yu ra
▁a s
ha gije
me s
shin giye
▁gu so
▁gu hangana
kwa kira
ban da
ro zi
▁ka ri
▁ry’ aba
▁z’ aba
te l
hindu ka
▁ubu renganzira
tanga rije
r wan
▁nti bi
byi ri
▁aba gabo
▁cy’ in
▁zi rimo
▁zu nze
bon ano
shora mari
hi riza
c ha
ha mya
▁c yo
shyi gi
▁mu zi
▁ya hise
ririm byi
▁mu kobwa
sh yaka
ki re
sobanu ye
me ro
je je
▁wa bo
shan ya
tan zwe
▁ hin
so ro
▁ama so
ro ko
ke sha
teke reza
▁ma kuru
se ra
o ne
▁ubu rundi
▁imi ryango
▁ba shaka
▁ku va
▁a i
▁ya sabye
▁bya ba
te za
yo bya
sha kanye
muha burarw
▁u shobora
▁aba kobwa
no ma
▁ w
▁s in
▁y’i gi
ban o
▁i he
▁za ri
bi hugu
▁ba gize
▁serivi si
ku ba
bu nga
▁guveri noma
▁b ye
▁a kora
▁r d
▁um wa
zama kuru
ze ye
▁in ko
gan ye
re rwa
▁ba shobora
▁i jambo
▁w’ama guru
▁hi rya
rangi za
▁inga mba
▁y’ e
▁e jo
ge sera
▁bi da
▁uru gero
▁c’ubu rundi
▁nk’ a
▁mu da
▁n shuro
▁n yene
▁u wo
ze ra
▁ibi he
pera tive
▁ibi koresho
hugu rwa
m ine
▁buju mbura
▁c u
so nga
▁i da
▁cy’ ama
ra zi
te be
▁yandi tswe
▁gu shika
▁k enshi
a l
▁fi li
▁ha kaba
▁f ran
pfu ye
▁i shuri
▁ya koze
▁c’ i
bu ze
ge zweho
su zu
ken shi
ran giye
q u
▁af rika
▁in kuru
▁in gabo
▁rw’ aba
▁ba renga
ran gwa
▁ma teka
▁an d
u ka
▁k wan
▁y’ abantu
win shi
▁ku gu
▁kwi ca
▁y’e pfo
va ri
▁by’ ubu
twa ri
▁aba kozi
▁ru kundo
▁c yose
▁gu kina
▁kwi ga
re ngera
pi te
ran yije
ki sha
hu ye
▁u b
ta bo
▁in go
▁hin o
▁mu ganga
▁aba hanzi
▁a kenshi
▁u kun
seru kira
▁n ke
banu ka
▁in shuro
▁ku ta
zi mana
ge ria
▁n’i m
kore re
shi mye
du ye
s si
vi er
▁a ya
▁n za
▁n yarwanda
dan ya
▁ba jya
▁u kwakira
▁bi vugwa
▁gu korera
▁yaha we
▁bu faransa
▁a saba
ban je
▁bw’ ama
▁i zaba
▁iz indi
zi ya
▁gu se
▁bi tu
▁ba bona
▁ki ra
▁ka yi
le s
▁gu shi
▁tu ba
gi rwa
guri sha
ru si
▁bwa bo
mwi hariko
▁z’ a
▁y’i myaka
▁ru mwe
▁ari yo
▁e vari
▁ikin yamakuru
ban ze
▁ru ta
▁i shize
wu ba
n shi
▁ib in
du ra
zu ro
▁nyi ra
▁fe rwa
▁ni yon
tanga jwe
▁b’ aba
l la
▁tu rere
▁vu ba
yobya bwenge
▁c h
▁w’ akarere
c ye
▁umu toza
▁m ba
▁ita tu
bo za
sh yan
▁ya yo
▁ibi ganiro
▁bw’ in
▁ic umu
▁ en
gaban ya
▁i rushanwa
▁kure ba
▁ni we
t ter
ta bira
▁ma kipe
hagara riye
▁ ge
bili gi
▁a komeza
▁mu ra
bwi riza
ra ri
ma kuru
▁ibi tego
▁gicu rasi
▁i koranabuhanga
▁nya kanga
▁mu se
▁ka ba
ti ki
▁nta cyo
▁ra poro
▁bu tumwa
▁mpu zabi
si zi
m s
re me
▁ku ra
▁ibi go
ji jwe
▁n gu
er re
▁gu hera
zan yo
ne s
▁i rimo
an e
▁ba gi
▁na byo
▁cy’ ubu
ll y
▁tanzani a
▁gi ce
▁ru ri
gera geza
▁by’ ama
▁umu bare
▁y’u ru
▁ y
kuriki ran
▁a gomba
▁ha ra
ran yi
▁ata tu
▁umun ya
▁v y’
▁ama gambo
baye ho
▁kwin jira
s we
▁wi we
yo nge
▁ma gambo
▁ni ba
▁a biri
u n
gende ra
▁ba je
rwa ye
fatan yije
c wa
▁mu handa
de li
▁icyi zere
▁umu vugizi
sha tse
fa shije
su mbuye
▁ku mva
jya ruguru
tu ngu
▁ib yaha
▁ku ya
▁cy’ umu
▁i mu
▁gu hi
▁i shobora
▁u n
ha riye
▁ya ho
ri mana
▁l u
▁kame na
▁a mba
tungan ya
shi jwe
▁mpuzabi tsina
▁ya maze
ko ro
goro ba
ki za
▁mu ru
▁ibi jyanye
ko sa
▁gu twara
▁a ho
▁gi sirikare
to ro
gene we
▁mu tara
b yin
▁ba tangiye
t ri
▁ma ke
▁tu za
siye te
tegan ya
te ko
▁ I
▁a shaka
kin i
▁ari mo
shyin go
p h
▁u kaba
▁in zira
▁in zego
▁u ko
▁si ta
d ini
▁k ana
▁a kana
▁bi bazo
▁bu gesera
zu ngu
ye mo
ka za
▁ba koze
▁bi ce
▁e byiri
hunga ban
ku re
yu ranye
▁kwi shyura
▁m bi
▁ama foto
▁bya bo
mu ryango
▁ #
tu mi
▁igi ce
▁n ga
▁zi za
▁mu bi
▁aka maro
▁ahan ini
▁inter net
▁nyama ra
vu zi
▁ibi ciro
jye pfo
c hi
ma ma
▁bu ta
▁i zo
fi tiye
▁ga shyan
▁ban e
rangi je
fungu ra
▁b en
▁mu dugudu
yeme je
tsin do
▁ma hanga
▁yu ko
▁gashyan tare
ye nda
▁ba cu
fi tanye
no ta
mu ga
▁ san
▁umu ra
▁ru tonde
▁mu za
i l
▁a zaba
▁mu genzi
▁rwa sa
▁bi garagara
▁by’u mwihariko
rongo ye
te d
wo se
▁e t
▁zi mwe
gen ze
bone ra
bone tse
bo ko
ru wa
▁ru sizi
▁aga t
▁b’ in
▁biga tuma
rwa ho
▁pe tero
bu m
▁mu twe
▁gu tsinda
u m
▁zi ba
shin wa
▁m in
mu ka
▁mu to
ho ho
▁ya menye
▁imi bereho
▁co m
▁ru za
▁di a
fun gwa
to ki
bu tso
ca l
▁ T
▁m we
▁n jye
▁m pera
▁e ric
▁kuzamu ra
▁mu gi
▁cy’i gihugu
▁bata tu
▁aba byeyi
hi ganwa
▁umu twe
ban danya
▁si da
▁a t
bi bu
😂 😂
▁umu co
▁bya ra
▁bw’ umu
▁a mezi
ga ciro
d ri
hi ra
hin da
▁sta r
▁n tu
▁ari we
ta biriye
▁ba tandukanye
▁ari bo
s ter
▁uku ri
vu za
soho ka
▁bata ri
▁u bi
▁u gere
▁in shuti
▁na ri
’ u
curu zwa
▁buru ndu
genzu ra
▁u rwego
▁gu ku
▁ru sa
▁uru kiko
▁mu si
▁w’i ki
▁a yi
▁u he
g ra
shin gano
▁ba sa
▁ya vu
▁mu sanze
san zu
▁nshin gwa
▁nyan za
to r
▁ba zo
▁z’ ubu
▁ku gura
▁ugu shyingo
shi mwe
▁bi fite
bo o
n yine
d wi
la ri
▁n zira
▁i sa
▁i cu
rere za
te re
▁ha si
tsin zwe
p in
ka ra
▁ba ku
gwa ra
yobo ye
▁bya tumye
▁bw’ aba
▁wa yo
▁bwi za
yuba ko
wan yi
▁v o
l li
▁ka re
▁kwa kira
t re
▁ba gira
▁in twaro
yan ya
ho ne
m wu
t n
▁ubu sa
▁umu kunzi
▁kan yanga
ji za
si tiri
hu ti
jya mbere
▁cya ri
▁uku boza
menyesha makuru
▁kon go
▁de moka
shanya razi
she jwe
lu b
m y
▁ba he
shi ma
▁impan o
▁ba r
▁baha we
dan da
▁gu cu
▁z an
bura sira
▁ku genda
▁du fite
▁iha ranira
▁mu gihe
▁ibi menyetso
c ent
▁ama zina
▁a re
▁a hi
▁m pan
▁al bum
▁a b
▁ku rya
▁yo ngera
▁icyo rezo
gu kanye
▁cyo rezo
▁b bc
▁demoka rasi
▁ba sanzwe
▁ubu shakashatsi
g le
sha ke
be ro
on s
sa de
▁aha garagara
▁ya shyize
hita mo
tegu we
ma gana
hu je
▁b intu
▁mu hanzi
▁agat hon
bi zi
mi je
so bwa
tanga zwa
▁im vura
▁ubwo ba
to n
▁i genekerezo
▁gu hindura
▁evari ste
▁umu gambwe
▁gu korana
▁kwi ba
▁u kwezi
▁aba fana
▁nko ranya
zi hi
▁umu shinga
yeme za
▁amavu bi
▁b indi
▁fili me
▁bi mu
▁gu ke
▁ru buga
burasira zuba
fo ne
▁a bona
▁n an
▁in a
▁ru swa
▁u maze
▁mu sore
▁k’ u
▁cla u
▁c lub
▁gusa ba
▁batu ye
▁na ba
ngi rije
▁a m
▁ib y’
▁ic yemezo
▁umu ziki
gan ya
▁muda sobwa
l d
ban yi
menye reza
c yi
▁ H
▁k w’
▁ba geze
to zo
ci ka
▁by’ umu
▁u zi
▁mu nota
v ya
▁a sanzwe
ye re
▁a ku
▁a jya
▁ru shanwa
bya ra
tsin dwa
garaga ro
t te
▁d re
ga re
kan gurira
▁afri ca
▁y’i mari
menye kana
▁o li
▁kwita bira
▁itanga zo
▁ahan di
▁u zwi
kun zwe
▁wan jye
re go
▁ba kunda
▁y’i mi
▁pi erre
▁ci ty
▁ba kinnyi
▁umu tima
▁p la
▁wa ba
▁bite gan
▁ri ri
▁ma so
▁muzi ka
ra so
▁imi bonano
▁nshingwa bikorwa
▁aba rundi
▁ki kaba
▁ni bura
mo ko
▁nkoranya mbaga
▁m wu
shi kiri
▁na ho
▁komi siyo
▁a gu
▁kurusha ho
▁ gen
▁ba kuru
ro u
▁imi ti
▁nya ga
▁umu renge
▁umun ani
v yi
▁n’a bo
ya mi
ya mba
han i
boo k
▁u ri
haga ze
ge nge
▁in gingo
h n
▁ fu
▁a gera
gomba ga
▁gisa gara
kan e
te li
rasi ra
▁i tanu
▁mutara ma
▁i ti
▁ B
ga rutse
▁ko ko
▁ib yi
▁amba sade
▁k’ i
rengera zuba
▁ S
▁um wan
f oni
bu za
▁so siyete
▁m buga
shinja cyaha
ce book
ki kije
▁ba hanzi
ta l
▁aba fite
▁aba kiri
▁bu ba
▁i ca
▁ku garagara
te ga
▁ru gamba
▁bura yi
gu rwa
▁in gendo
▁yu ba
o r
▁n zego
da y
▁ama shuri
▁a ca
▁gi komeye
mu n
▁in shingano
▁a fise
▁gi shinzwe
shyi zwe
▁ry’ ubu
▁ama zu
pu ro
van di
▁muha burarw
mu tse
man i
j wa
▁gu sha
tangi za
za ra
ru ra
▁mu ke
▁umu kinnyi
te ze
▁gu ca
▁gute gura
▁ba yo
▁bi ru
vu ko
▁ibi tekerezo
▁im bu
▁ va
▁ she
▁ya tsinze
▁u da
▁na bwo
▁cyi ciro
▁dre am
ge ga
▁ma shuri
▁igi ye
▁ban di
▁mu garagaro
vandi mwe
▁ma r
▁si poro
▁n gingo
▁n’ama tegeko
ma teka
▁re ta
roko tse
▁ba koresha
ti o
▁in tego
▁ingu zanyo
▁a de
pe rereza
shimi shije
gen za
▁n’u bwi
▁ban yarwanda
▁uga sanga
sha tu
aban ya
▁biro ri
c co
▁umu bano
▁ra dio
▁i tegeko
shi man
▁ko mine
s se
▁ni geria
gera ge
▁ba korera
▁ka gari
▁n’a ho
h we
▁a yo
▁z’ in
▁bwo ngereza
fe ri
mo nd
▁jo hn
dd y
▁ea c
han di
▁uru ganda
▁ne w
▁inta mbwe
ro rero
▁ya giranye
gu kana
▁rw’ ubu
▁b’ u
▁tele foni
▁n du
▁ba gore
▁aba ba
a u
r ne
▁imi shinga
yu ka
▁mi si
▁rusa ma
bi je
▁r ye
se ngi
▁bin yuze
▁gu hu
▁gu korwa
ke t
▁ubu sanzwe
kan di
ta ro
▁z in
tum bero
herere ye
sha sha
▁wa ra
▁p rimu
▁ru fite
du kikije
ki riye
▁gu kura
ti ro
yama hanga
▁kuba ho
yin a
▁ic yaha
▁d an
▁kana ma
▁bu tegetsi
▁pa s
▁guha bwa
▁umu kozi
zu ye
▁n’ubu yobozi
▁bo mbi
kore we
mini sitiri
▁in tara
ji ye
▁u gomba
▁ya tanze
zan ye
▁c yiza
▁ibi ce
▁ubu kungu
▁igi tego
▁jose ph
▁byo mbi
▁m yi
di ri
▁bitegan yijwe
n gani
▁i shami
▁a zo
▁ya cu
▁a hita
ri jwe
▁y’i burasirazuba
▁m wana
▁y’i m
▁kubu ryo
▁ki re
biri we
▁u kwi
▁ku da
▁ba p
▁ba fise
▁aba genzi
mp in
tu tsi
kome re
▁kin ini
▁ya we
▁le a
▁a vu
▁c y
▁im babazi
. .
ku ye
ra bu
▁r wan
▁ki ba
▁iv ya
▁wu ngirije
ga rika
▁ku bura
bone ke
nd wi
ta ho
u ra
▁aban yeshuri
senge ro
▁n’u mwe
▁i hu
▁ya gu
▁ki ta
▁ngo ma
▁yu mva
kene we
▁yeme za
▁umu pira
▁nk’ aba
▁uku vuga
▁a si
re ma
▁mu gore
▁ke ra
▁ba kiri
▁twa ri
▁nze ri
ma il
▁n’ubu ryo
hungaban ya
▁a li
ta ye
s ana
▁bu sa
kin di
▁gito ndo
sha hara
tandu kana
▁in e
▁t wo
hi ro
do lari
▁i joro
gi rira
▁umu sore
ri mba
a r
ki ro
▁ba zaba
guru ra
▁ho tel
▁ on
▁c n
▁ubu curuzi
▁gu tuma
nde ra
▁i san
▁umu ti
▁abe nshi
tu ye
du ko
su ye
▁bu fatanye
▁b wana
ge na
n gira
mu ri
▁n’umu yobozi
▁me zi
▁s y
▁i tandukanye
▁n shimi
▁n’aba turage
▁bo ys
si vi
▁uni ted
▁igi taramo
▁l t
▁i torero
▁bu rya
shi shika
▁in tege
▁clau de
▁nyaga tare
ban ki
▁ni bo
shyigi kira
▁ba ru
▁rw’ umu
nye zi
ko ndo
▁im in
▁m eza
▁ka to
▁y’ubu zima
▁gu tangira
ke ye
▁n’i gihe
yi gi
▁pa tri
▁ngo zi
▁dia mond
▁zi shobora
▁tu ka
▁ch ris
me we
▁iwa bo
▁umwu ga
▁c hi
rasira zuba
▁u bona
gu zi
pi mo
▁a menyesha
▁inga bire
ta bera
pa puro
ho za
shin jwa
▁umun yamakuru
tsin zi
▁ja mes
d y
▁b yan
shu mba
jyana ma
r g
▁ba tara
▁ba kwiye
▁mu hango
▁gi se
▁ko perative
▁iki ri
▁bi sanzwe
▁ga sa
yonge reye
n giye
▁i tike
▁umu jyi
▁y’i ki
▁se r
▁n’in zego
▁poli tike
▁ma da
sho feri
yandi ko
wandi tsi
▁a mwe
▁u r
▁ubu menyi
▁fa cebook
yamama re
n y
gi we
ti ra
na mo
in g
sa su
▁ita ri
a ga
me rewe
tan i
▁a le
▁n yina
▁bi zaba
▁to ni
▁ya fashe
▁le s
▁o ms
▁n shinga
▁n’i byo
▁ingu fu
ron ka
m pan
ho mbo
▁ni sin
n t
ku rwa
rusha ho
s co
nga bunga
▁ry’ ama
gen go
▁bwo ko
▁inzo ga
de r
▁nisin gizwe
ba ga
▁oli vier
▁ya du
kun di
▁ W
▁uru go
▁ku gabanya
▁ha shize
▁ka ra
▁y’ama vuko
▁ni byo
▁y’aba turage
tu rutse
▁ru hango
▁ba komeje
▁ba bonye
▁gi ti
▁zi ta
▁kwi vuza
ro shye
▁v s
▁gu shira
▁ubu tegetsi
shin giro
▁mu gabane
v ana
▁ba kobwa
si ganwa
▁by’ aba
tegan yijwe
tu nzi
ki we
▁in tera
yango mbwa
ti we
▁none ho
fati we
ma r
se se
▁uru tonde
▁isu ku
▁fo r
she ke
▁bita tu
▁imi bare
▁to ur
▁pa r
▁mu ba
me tero
▁ama saha
▁ba tanga
indi rimbo
subi zo
▁y’ama faranga
gra m
▁i so
▁mu sa
tsin di
▁bita biriye
ti mana
▁ru ra
▁umwa mi
▁ba komeye
▁c en
▁im bo
▁be ne
▁iwa cu
n ani
▁a kiri
▁gu he
▁bw’i gihugu
▁aba sirikare
▁y’ama jyepfo
tan ira
tsi ko
▁n’i cyo
▁iki ganiro
▁sa cco
ne ze
a bi
▁v yose
mvi kana
▁i perereza
ban ye
dan ga
▁ku yobora
▁bu da
▁ku ga
me rera
l r
gani riye
▁nti ya
▁yeme je
▁ba te
▁ha maze
▁ibihe mbo
▁m ana
▁ru da
zo ngera
▁a bu
▁c le
▁mu yobozi
▁ama shusho
▁yi sumbuye
tiri we
tegere je
▁c han
▁ku garagaza
▁a va
▁ba ya
▁gu tu
kwi riye
▁nu mva
▁kubu ngabunga
yumvi re
▁cy’ aba
▁baha bwa
rani re
▁ru ha
▁aka vuga
▁du kesha
▁nya ru
▁bwo se
▁pa riki
▁w’umu renge
ti ste
pin duka
▁mu ti
▁e u
tege ka
▁ukun tu
▁ba hi
je mo
▁m yinshi
zamu ka
▁yonge yeho
▁ tsinda
▁ba kunze
ha gari
be shya
▁mpuzama kungu
aban di
▁a kunda
fashi sha
hunga bana
b le
▁ma hugurwa
▁ri vuga
▁poli tiki
▁ x
▁w’a bibu
▁pa pa
▁tele fone
▁yamenye sheje
u s
▁ni ko
▁n’aba yobozi
▁n’u wa
▁ferwa fa
▁u shaka
▁gu hura
▁r wose
rt in
▁w’in tebe
▁aba kunzi
▁ba vu
▁ba yobozi
▁kuba hiriza
▁tanzani ya
ri yoni
▁bu sanzwe
▁mo doka
▁ya garagaje
c yu
▁ku ha
▁umu tungo
▁ru na
▁bu n
▁f d
▁rd b
▁imin ota
▁k wandi
▁ugere ranyije
▁m fite
tanga zamakuru
▁ale x
▁w’abibu mbye
d ani
▁c ana
hi go
nge nge
nye ri
c y
c tion
▁c ent
se ri
ca ro
▁baka za
▁nk’i bi
▁rwa magana
▁mu rwi
▁n’u wo
▁i gira
▁ama jwi
▁kwe rekana
▁a tandukanye
de o
▁gi kombe
▁umu byeyi
▁tu bi
▁n’umu gore
▁u na
gera ho
▁n sengi
▁ya yi
kore ye
▁mi ryango
▁umun yarwanda
▁nya mu
riri mba
▁i korera
▁u si
se ke
san gan
fu ngo
▁i jana
▁umu gwi
▁aba citse
▁ri ra
kwira kwi
▁ wana
de pite
▁igi ciro
▁y’ama jyaruguru
▁umu riro
▁bu shakashatsi
▁bu biligi
▁ru ga
▁ubu kwe
mba za
▁ya sobanuye
ma s
ci we
▁i saha
ga ti
▁u sanzwe
▁ib wi
s ket
▁na ko
▁i komeye
▁uru gendo
▁bwa ri
▁b wan
ga mo
▁m babazi
▁ha ki
yumba ti
▁umwan zuro
▁gu su
▁zi ra
▁mi bi
▁wo we
▁i tu
▁ya bonye
▁ha kiri
▁n’i gihugu
▁ba re
na rd
▁kin g
▁ha ta
ro ndo
shimi sha
▁imbu to
bo la
go ra
o l
▁n tumbero
ne ri
▁mi ke
▁a tanga
ma gara
▁ku mi
▁twi tter
▁ya hi
▁gu sura
mpin ga
▁to m
▁n’i yo
kan wa
fu nga
mi jwe
▁ubu taka
nge re
e u
▁bi sa
▁m tn
so ra
▁zi komeye
▁ba gabo
▁gu tyo
▁umu hungu
hu ka
▁lea gue
▁fd lr
▁e bola
▁k’ umu
▁cha r
▁n ki
▁m be
▁ya to
▁ru ganda
ren za
▁ge reza
▁ba hise
▁ya vuga
shi mo
▁re mera
▁aba curuzi
▁ma tegeko
▁zi kaba
▁komi te
▁ade pr
▁ qu
▁ba garagaza
▁aba zi
▁ama bwiriza
▁k intu
▁ki banza
▁yi se
zan ya
▁ya geze
▁ma zu
rere zi
▁ko ro
▁g ra
kubi ta
se n
ngan ira
▁cana da
▁bu ka
▁ibi curuzwa
nge ro
▁igi hano
▁nk’ ubu
yo ro
vu go
tan gura
kin nye
▁nya mpinga
▁itanga zamakuru
▁m wo
▁b yu
▁k wo
gu ma
▁ha bya
▁be meza
▁icu mi
tio nal
▁nshimi yimana
ngi re
▁y’ibi hugu
▁cn l
▁ubu hamya
cu ri
▁rya ri
▁yi ga
▁an di
c on
▁ba du
twa rire
▁i ci
▁i kora
▁a tara
▁ba vuye
shi gi
▁ba bu
▁ku garu
sho p
▁ gera
▁i garagaza
▁ku ja
tangi je
▁gicu mbi
▁n’iki go
▁i ru
▁aban ye
▁zi ka
shyu rwa
▁ahi twa
ge reye
here zwa
▁ba sket
▁e co
▁mun ini
▁nk’ in
▁mu shinga
fa ri
di a
hi o
▁nya bi
▁b on
kuriki je
yo bwa
go ye
▁primu s
▁igihe mbo
▁yandi tse
ru kundo
▁bi ciye
▁baza jya
shyira ho
▁e shatu
▁v y’i
▁a ir
▁aba hinzi
▁d ’
▁bap tiste
ri mi
▁bu vuga
▁y’a ho
hu riye
▁imi korere
▁guha garika
ko no
▁ic yumweru
▁cya bo
▁ba kana
▁n’ama hanga
p hone
di yo
m wana
▁gu kunda
▁bu tandukanye
▁ru kino
▁ibi yobyabwenge
▁wa mu
▁de s
▁bi fuza
▁ibi ti
tin ze
▁n’igi ce
▁b ri
bi rwa
▁bi ca
▁mu gambwe
kan gura
▁yo u
jyan wa
▁wo se
ran ze
▁ru he
ne y
t he
▁bi janye
▁ni ho
a ri
▁n’a handi
pi ma
▁n’aban yarwanda
yobo ke
▁runa ka
ze za
▁kw’i genekerezo
▁u yobora
▁ma rushanwa
▁c he
man za
r wanya
▁ki li
▁yi fuza
▁ibiro ri
▁cu mi
▁yonge ye
lle s
▁c lo
▁rw’ u
▁pas cal
▁u komeye
▁bi ganiro
tegu ro
▁ya ma
▁b’ umu
▁ R
▁i shirahamwe
yu n
li ya
g ne
▁bu shinwa
man yarwanda
▁ry’i bi
t ro
▁a ke
re kanye
▁na ra
gerage je
▁ibwi rizwa
▁u hagarariye
▁ya ko
▁gu kurikirana
si teri
han ganye
▁gu to
▁ki gero
ru gero
▁n’i kin
▁nya bu
ro ndera
▁ubu ra
▁habya rimana
▁bi zo
one ste
▁na twe
▁the oneste
kani sha
g h
▁u ti
gi rana
bu tumwa
▁ma zi
▁uru kino
▁guku mira
▁m bona
▁w’i gi
▁mu shya
▁za yo
▁b winshi
▁aba yi
▁ki zi
▁ki vu
menye kanye
tin ya
▁in dege
▁yongera ho
▁gu curuza
▁in no
▁ma saha
▁wa baye
pe r
▁i mari
ta li
▁bu mva
▁in sta
p f
▁a garagaza
▁bu taka
▁in yama
▁e se
po ir
▁n’a ka
▁uru banza
ju ra
hio pi
ra mo
▁im yenda
▁ni yi
▁vi rusi
in t
▁bu tare
u ri
rwa ga
rwa mo
kwa ho
▁rw’i gihugu
▁twe se
▁u kora
▁ry’ in
▁bita ri
que s
che ster
▁ win
▁i shinga
▁gu hanga
fashi shwa
▁hari mwo
▁c’ umu
i ro
▁ri kaba
▁bwi te
▁nk’i ki
ken ke
m paka
▁kan ya
gene ra
va mo
▁n’umu n
▁ku b
tan yi
▁wa cu
▁i gera
ga be
▁gi fite
▁bya baye
re mye
▁mu tima
▁imyi tozo
▁u bwe
▁bi hingwa
mi ye
▁f la
▁umu turage
he rero
li sa
▁zi fite
▁ya he
▁ma sezerano
▁n’i bya
▁cy’i myaka
reke zo
fati ra
▁es poir
p he
mu na
▁aha ri
si mbu
▁ha to
▁baka bi
ven i
▁insta gram
li ki
gan jemo
▁an e
mvu ra
▁c’ u
hu mu
▁ha baye
s ti
▁be r
▁u ha
▁ubu muga
gi riye
▁ama raso
▁yaha ye
maga rira
▁ku bana
▁we nyine
▁u ki
▁et hiopi
yo vu
▁ya ta
▁ya ciye
▁rw’ ama
▁i vu
si ze
▁ari ho
▁n’aban ya
▁n’ama faranga
▁gi tega
▁mo to
▁ba saba
▁ku ganira
yobo we
▁ubu hinzi
kore shejwe
▁ni co
▁bi zimana
▁umu biri
▁n’a manota
▁le o
ngan e
▁ C
▁a tandatu
▁ba vuze
gu fi
▁ku ki
da ga
▁vi si
▁ar se
neze ro
ga ze
▁m en
▁ru byiruko
hoho tera
▁gasa bo
▁basket ball
shyi zweho
▁ya tu
hora ho
▁u bwenge
ku mana
▁no r
▁nyama sheke
▁uta ha
▁muse veni
▁gera rd
geze ho
▁abanya gihugu
▁sita de
▁n’a bi
▁d j
▁kili ziya
me zo
yere kano
▁ shingiro
▁a kwiye
bi mana
ki mbi
▁aba bi
▁mi rongo
▁nshin giro
yigi sho
▁i geze
▁u yo
▁ma rtin
cu mbi
▁man chester
▁ba tanu
▁p s
shin ze
▁n’umu ryango
▁umwu ka
n ini
▁a te
▁mu co
▁nta ho
▁vi deo
▁u giye
cu kiro
▁bya mu
▁iki ba
ron se
m pu
▁n to
▁gu tangiza
kuriki ye
ge ri
ly mpi
i lle
▁ba kina
▁ama kosa
a te
y wanyi
ri ma
bwa ho
▁guke mura
▁i tera
▁a komeye
▁n zo
▁bu za
lle y
▁ja c
▁mu ta
▁ama soko
▁inno cent
▁a c
▁ry’umu pira
e f
▁mu kan
▁gu kin
kome ze
do rali
▁gise nyi
a s
▁ba genda
▁f re
▁yan jye
▁the o
▁aban yamakuru
▁w’in gabo
kimbi rane
▁i she
▁ki yovu
su ngane
▁ku ku
▁bi gize
▁utu ye
hi re
▁ga kenke
ra tion
▁bi ke
yu jije
▁kuri nda
yan i
▁baka jya
ha m
▁bi bi
▁mu kura
tanga zo
rani je
mi kino
▁ki cukiro
▁ru banza
▁a geze
▁bu kaba
ran yo
▁bw’ akarere
▁w’in ama
▁mu goroba
▁ama rushanwa
shyi kiri
▁a zwi
mu ntu
▁ya bereye
▁kw’i si
rali rwa
an di
▁b ralirwa
▁ba gu
▁ubu rwayi
▁o lympi
▁n do
▁bi maze
▁ya vuye
▁ambasade ri
▁abakiri ya
h wa
mo gi
▁rwa ri
▁aha bona
▁y’a merika
▁z’ama faranga
kangura mbaga
▁ama gara
nge ye
su n
▁l ’
shan u
s to
▁bi vuze
▁bi saba
▁aba gize
fa shwa
▁mi lli
kora ga
▁ba sabwa
ku zi
▁ru gendo
▁ma ri
▁b n
▁imi soro
▁aha bwa
ta he
▁aga ce
taba zi
▁ku mwi
senge sho
▁a sa
te rere
rwa ruka
▁y’u mwaka
▁a renga
▁ibi tsindo
▁kwi gisha
pfu ka
▁cy’ a
▁bu hinzi
▁w’i bi
sobanu ro
n ko
ro he
▁p re
hin ze
▁batu rutse
ta ha
▁mu tu
▁zo mbi
▁cha mpi
▁vo lley
▁i te
▁gu pfa
▁n’a bana
▁bya tangajwe
zamu tse
▁a sanga
▁a rongoye
▁bi geze
se nga
si tu
▁e mail
soho ye
▁c yu
▁c yemezo
gen i
▁ku genzura
▁ya ku
hari we
fashi shije
▁i sanzwe
tu ruka
▁umu gambi
▁de ni
▁ubwi canyi
▁ku zana
▁ya ka
▁abi vuga
riri tse
▁tu ga
▁du ce
▁n’umu tekano
l ine
▁ma la
shyi mbo
ru hu
banu tse
reke je
▁mwa shakanye
▁haza za
ko ko
han gan
▁ubu fatanye
▁yo ba
▁ama hugurwa
yuba ka
no w
▁an ge
▁da r
hu ta
▁aba sore
▁kire kire
▁u p
▁ibi dukikije
▁ku wu
bu tsa
ji ma
▁kun ywa
ge jeje
i se
▁uwa ri
▁ya shimiye
▁me ssa
▁guveri neri
▁tu yi
shiki riza
▁ ani
▁uku riye
▁kubi kora
mpa ye
x i
▁s te
▁y’aba minisitiri
ti en
reke ye
▁a gi
▁umu shikiranganji
▁aba ganga
ke nyezi
▁mun yan
tegan yo
▁bn r
▁bi shop
▁bu rera
▁na zo
▁t ha
dri d
▁bi meze
hi mana
▁ja y
▁a mi
▁a genda
tu re
ze ngu
she ho
▁n’ibi korwa
▁kwa mbara
▁in yubako
▁mun yarwanda
▁abanya muryango
e s
▁u zaba
▁mu paka
▁ubu basha
▁mu biri
hu rira
▁N i
c yumweru
▁aba rwayi
▁nti bya
▁g rou
gami zi
▁i gamije
▁m pa
▁bu mwe
▁tu giye
▁afri can
▁ba keneye
▁ga kondo
▁bya ha
dan ye
▁nan jye
▁b ra
ga l
▁ya sa
▁bu shya
▁li tiro
▁k’ ubu
▁nshin gano
▁z’umu tekano
▁nshinga mateka
▁ba fata
▁ba sanze
▁gu tunganya
▁nyama ta
fatanya bikorwa
▁u komoka
▁ba koresheje
▁ku menye
ran wa
to re
▁ri b
▁i shyirahamwe
▁a vuye
▁gu tandukana
▁ca f
▁bari ko
▁arse nal
▁kwi twara
▁mi rimo
▁e x
▁iki za
▁ye gukanye
kuriki za
▁di eu
▁b’i bihugu
▁inter na
▁in tsinzi
mari ya
kurikiran wa
▁e shanu
▁nya mira
▁ingo ma
▁i tara
▁aka za
▁y’u yu
▁w’ubu mwe
fashi shijwe
▁gu seze
▁gu sin
vu zwe
▁aba shoramari
▁ru kiko
▁hi timana
mo n
▁ma drid
yuba hiro
shiman gira
▁ D
▁n gabo
gu we
ho lan
shi rwa
▁gi shize
▁ka ro
▁inta mba
▁gu fungura
▁bu horo
▁ka ma
▁wa hoze
▁ri za
soho tse
ta mba
ta biriwe
▁mu rongo
▁tu zi
▁yi geze
▁ye rekana
▁n’i yi
▁usi bye
▁ba ko
ti shoboye
▁wa bi
so za
bona ga
mbu ka
▁vi c
▁byi ciro
giri zo
cha rd
▁u yi
mi rimo
he sha
▁ari bwo
pfu za
▁gu ka
▁bu ga
▁ki zaba
▁ka mi
▁igi tekerezo
yon za
t wo
▁uru buga
▁bw’ ubu
▁re ka
guri rwa
▁kayi ranga
▁n jyana
go nda
▁ibi taramo
tege reza
▁rd c
▁n garuka
▁u kunda
▁rwa bo
▁tu ta
▁n’aba gore
mvi se
fungu rwa
kin girizo
gara riye
▁ib yangombwa
jya ga
▁cye nda
▁n’u ndi
▁sa fari
▁zo ne
mu ngu
sobanu kirwa
▁uwi twa
▁impu ngenge
▁i songa
▁in kino
▁yi ca
ce lo
p g
▁a man
▁ba va
▁gu subira
rwa ra
▁pa diri
kene ra
▁rwi butso
suzu ma
sivi le
▁i fu
▁ku garuka
so ni
▁kuri rimba
▁da vi
▁i teka
▁mu r
▁n’ indi
mi gambi
▁ru lin
▁yi ru
▁ri chard
▁ib yiza
▁patri ck
ga ga
do n
▁j i
▁an gana
c ho
▁a g
▁in zi
ne ra
▁kuba kwa
ci bwa
▁n’ubu ndi
i d
tan guye
▁aba ro
▁kigali to
ko l
tu nga
▁tu gomba
▁tele vi
▁n’i kipe
▁z ina
▁twa bi
fun zwe
▁ibi za
men ce
▁re ba
▁yabi vuze
▁chi ef
▁ba go
▁gu hungabanya
be r
▁ba korana
zi yo
me d
▁bu komeye
shyirwa ho
▁i dini
▁ku no
▁bu curuzi
ne za
▁igi zwe
ce s
▁uwu ndi
holan di
▁ka yonza
san si
mama za
▁rulin do
bi tekerezo
▁m v
▁aka ya
▁pa ruwa
▁cle mence
▁nyamu kuru
r k
▁bu bi
▁no ir
gende ye
▁m yanya
▁umu hango
▁ma ma
▁v yi
mwa mi
▁ai gle
▁kwandi ka
▁ba menye
si mbura
▁aba kinyi
so ma
▁nyamira mbo
▁mu gwi
hindu tse
▁ngu fu
mu co
▁ba curuzi
▁gu huza
▁gu fatanya
▁se na
ju je
zamu ra
▁li sansi
▁amaso mo
se gonda
▁ya fashwe
yu nge
▁i jejwe
re je
▁ka be
▁aban za
▁n’umu gabo
▁gushyira ho
yami riza
▁kato lika
ko perative
c yari
▁in ganda
su mba
▁y’i si
bone za
tu ranyi
▁ubu fasha
▁im pinduka
shin gizi
▁n’aban yamakuru
▁bi garagaza
▁gu hohotera
si mbi
do rari
▁w’u ru
fashi jwe
n si
▁u sa
te te
ban di
▁w’i mana
▁y’ubu curuzi
▁bo sco
▁clo se
▁volley ball
▁kigalito day
han u
renge je
yamama za
▁b yeme
▁ya tangarije
▁i shyaka
▁n ubu
▁ba sanga
fu ra
▁ho teli
▁misi ri
b y
▁gu ma
▁ama ta
shu li
▁aza jya
wa rd
▁aba kora
ran ywa
▁ngo rorero
▁aca de
▁ku zu
▁gu hinga
▁gu fungwa
▁aba za
▁ika za
▁n tangi
ha ranira
yi si
▁by’ a
rabu zima
▁ba tangira
vu tse
▁n’in shuti
▁kuvu ra
▁ikiri ngo
▁umu kono
▁p u
▁se bu
▁ndi kumana
▁kwan dura
▁nyabi hu
▁i fise
▁i buka
▁mi renge
wan i
▁nde rabuzima
▁n kino
▁v yinshi
tegere zwa
▁zi ga
▁by’i mi
▁interna tional
ka ga
▁kuba fasha
gani re
▁bite rwa
▁tele phone
▁ba fashe
gu riye
▁aba polisi
le ss
▁re mezo
▁gusha kisha
▁a d
ba jije
▁ba saga
ge reza
gara ma
▁t w’
shigi kiye
▁paruwa si
▁ku boneka
▁bu rasirazuba
▁gi tabo
gara ra
▁uru pfu
▁t ru
▁ko mini
▁wu mva
▁w’iki go
▁k wu
tege kani
kwi gendera
▁bi koresho
▁aba gera
kin go
shaka ga
sa gara
▁ha zaba
▁v e
▁a korera
mu tima
▁ q
▁bi shwe
▁in gwara
hanga yi
ywe ho
hagara ra
u a
ye zu
▁bu banza
▁ubu shinjacyaha
mbi re
▁pro mo
▁a tangira
ho teli
▁nde ge
riwe ho
▁lt d
gi de
▁aba rokotse
▁ka bo
na li
▁s tu
▁re al
▁karo ngi
za mbi
da te
▁bi tangazwa
▁aka mu
▁nsengi yumva
n c
▁i i
▁m bo
▁ma soko
▁kwi zera
shobo re
▁yeme ye
ha za
▁m bu
▁n’ubwo rozi
▁cnd d
a ta
▁n teko
▁ba ciye
zi ba
▁bi kwiye
yobo rere
▁bwi canyi
▁y’a gaciro
▁niyon zima
▁a tanu
▁n ini
▁umu sanzu
▁n’a ga
▁j an
▁pa ris
▁hi fashishijwe
▁l oni
ya bu
gu ruka
▁n’i mwe
rengan e
▁nya kwigendera
▁yabi tangaje
▁char les
▁n in
▁ya gombaga
▁in genzi
▁bar celo
kandi da
ga ba
▁u ndi
yan ge
ano ne
shikiri je
▁n sa
ga ho
▁ama shirahamwe
▁im yumvire
▁we nda
tangi jwe
ku we
▁s ina
▁w’i kipe
fati ye
▁impan uka
▁y ve
▁ku gurisha
▁ha re
danda za
▁cent re
a son
▁e l
▁vi tal
zihi za
▁cen i
▁messa ger
▁ ’’
ka wa
▁ku mara
bu kuru
▁ya tumye
gwa ga
▁e di
mbi ra
▁we e
bya ye
▁iza jya
▁z’a merika
i bi
▁a la
▁ubu shake
▁kwi yongera
▁ib y’i
▁ic yu
▁haba ru
▁nyi ri
▁yita biriye
b s
▁n yine
▁ya kozwe
▁ki mi
▁ce ca
p ri
bu kije
▁gu subiza
▁ki ka
rari bonye
▁i ko
▁ya pfuye
▁umu rimo
▁y’ aka
su ku
bwi re
▁iv an
▁mbe se
▁u tari
re be
▁umu rwayi
▁zi renga
▁ari byo
▁mo u
▁so u
▁lo u
yamba ro
▁i banga
▁n shuti
▁n anone
go ri
tsi bo
gena migambi
ga ye
he za
su ma
garaga zwa
gene rwa
▁isan o
▁i koreshwa
▁k indi
re fe
▁umu ririmbyi
▁ban ya
g n
’ o
▁b ina
▁wa je
▁tu kaba
kura mo
▁ika mba
▁ P
▁n yungu
▁na we
▁a pp
▁ba kundana
la mu
▁pa ri
▁inta mbara
▁gato lika
▁nyaru genge
▁ku ti
▁ama shanyarazi
▁ga tsibo
shyi ki
▁za ra
▁mun ani
▁y’umu kuru
kwira kwira
▁mv ama
f an
g g
▁a je
▁n tan
hu tu
▁imi deli
▁ba hita
▁gu tsindwa
▁by’i bi
tin da
▁i komeje
▁i jwi
▁bw’i bi
▁inko moko
▁umura mbo
me ye
▁in zara
kun dwa
zambi que
ge me
▁gu kangurira
twa za
▁t ho
▁ra diyo
▁n serukira
li e
▁ki maze
▁im pa
▁ku du
▁bya kozwe
▁an to
▁yan yu
▁ye su
hindu ye
▁man da
▁ rona
▁ni mu
▁n’ama teka
s ubu
▁ba ran
▁c hu
▁ya te
▁ya guye
▁in do
han gano
▁kumu rika
▁ 1
▁mu kerarugendo
▁gu fatwa
to ke
kore zi
mpan yi
▁a ward
▁z indi
▁n’u yu
guru rwa
▁ba fashwe
gan za
▁ibi ra
▁tu rimo
gani sha
▁bo y
▁kin yamakuru
▁gutanga za
cyu namo
ate ur
t ta
▁k now
▁twa ra
▁ba shya
▁ku ran
▁bi gera
▁gu tora
▁ru ka
▁he gi
▁is pg
▁u vuga
▁ba kozi
▁ubu hanga
▁ga tu
▁ta liki
▁baba she
▁mu ga
shin i
ngu ra
▁so ma
gami ye
▁yin di
▁mvama kungu
re ze
ke reza
san gira
mana ho
▁sa int
▁haga mijwe
▁a sobanura
ge zwa
▁ubu shikiranganji
▁ahe rutse
te zwe
ku ze
go go
▁ubu kerarugendo
▁na cyo
▁ca r
▁rwa ga
▁n’ibi hugu
rwi butso
go bo
vuga butumwa
▁be rekeza
▁baba ga
hangan ge
▁a ganira
ba shije
▁u tara
▁kwi baza
▁rwa ra
▁a me
▁u gira
▁umu sa
▁ri ka
mbi tse
▁M a
▁y’im insi
▁abaro rerezi
m ve
▁i shyamba
▁a fata
▁igi tu
▁imi biri
shan ga
▁he za
yemeza mirimo
c t
▁u banza
▁ya bu
▁bu holandi
cu ngire
garu rira
▁mada mu
▁acade my
▁ku zo
▁ya mbaye
▁ki ciro
▁uru rimi
banga mira
▁su r
lin g
▁televi ziyo
ro c
▁aba jejwe
▁ko se
▁bahu ngiye
▁kuno za
r c
ki ze
▁aba tishoboye
▁ma i
▁ma ka
▁v in
▁abi tabiriye
pite ni
ri kana
ha kana
vu ka
▁n’ama kipe
p en
▁n san
▁bi gira
▁haba ho
▁mu ziki
po rt
▁li gue
▁ethiopi a
▁b yana
te si
▁bi bili
▁ki rere
▁kwe gukana
bon an
▁gito li
t ya
▁i shaka
▁n danga
ye shyamba
mo nyi
▁ru kaba
▁iki banza
shan yo
t han
ta riki
ki liya
▁no el
▁imu rika
o d
▁bya genze
▁i ce
▁n yubako
▁bu menyi
de n
li a
▁ru banda
▁co rne
gani jwe
▁kwa gura
e b
▁a kinira
▁a zoba
▁n '
▁bi gamije
▁gu koreshwa
fu ka
cu kuzi
mbi a
▁i foto
ta mbara
bu rengerazuba
▁gu shyigikira
▁yaba ga
bonera kure
▁mwu ga
▁jac ques
k wo
▁bi humbi
vu duko
▁n’i myi
▁bya garagaye
▁b’ abanyarwanda
▁y’a bi
▁nk’a ho
▁kugu ma
▁ibyi shimo
f f
g wanyi
ge so
▁ya sin
hu se
sha kira
gira ho
▁imi handa
▁z’i gihugu
▁K u
▁n’im pu
▁a koresheje
▁ya seze
▁mu gambi
ro hereza
▁zi saga
▁nta we
▁w’umu gambwe
l do
gen dana
ci en
▁vi ateur
yoro ro
▁vic to
▁ba garagaje
ta bire
▁ya twaye
▁umu handa
▁gi tu
▁rwanda ir
▁kwe mera
▁ 2
▁in dwi
▁igi tero
▁n’ibi bazo
▁i mwe
▁bi zi
go ngo
▁bu shobozi
▁po ur
▁c’ in
mwi za
▁ubwo ko
▁uwi mana
yongera ho
yi ta
se a
▁mu gihugu
▁ka piteni
▁zi maze
▁yi we
ngan ya
▁gra ce
ko ranire
▁bi hagije
▁im yan
▁bw’ a
▁n’umu rwi
▁w’ubu zima
▁wu ndi
▁kami chi
m bera
▁ku rangiza
▁nda mu
▁aka bi
▁abatu ye
▁me ssi
▁ub wanditsi
▁ya kwi
▁ibi sabwa
▁n’aba hanzi
▁ic yenda
▁nor bert
e t
g wanya
kore she
▁f an
▁cya cu
▁po lly
▁hi ganwa
▁mu ma
▁ubu tabera
▁zi gera
▁guta ha
▁edi tor
▁i ma
▁ru maze
▁isu kari
▁ba byi
▁baka mu
▁bin yuranye
ri zo
▁ba wu
▁ku bo
▁bi se
▁pa siteri
fati ka
▁bi shoboka
▁ca p
▁nya furika
ine ma
▁iv yi
▁kuzamu ka
▁gukura ho
ru ngi
▁ku byi
▁gu kinira
nge rera
▁e gide
twi te
ran yijwe
▁mi che
▁aga mije
▁guso hora
▁ G
▁n yaka
fungu ye
▁cu p
tegekani jwe
▁mu ki
ku biri
mi a
▁f lo
lan d
▁kon ti
songa ti
▁ba mbaye
▁ya fatiwe
▁mu pira
▁in twari
▁ru gero
▁bwa kozwe
▁n’ibi humbi
ba siye
te le
yi riza
▁m p
go ma
sa ka
▁ma roc
▁bahu riye
s san
▁ibi taro
hise mo
▁grou p
m wanya
▁ku bwira
▁bi menyetso
▁ha bi
▁ru ku
hi rwa
▁nta ki
menye rewe
▁kure ka
genza cyaha
▁ba shakanye
▁mu kinnyi
▁z’i joro
▁ry’i gihugu
▁biza tuma
▁icyi ciro
▁intera hamwe
▁a tangaza
▁bi taramo
mi deli
▁ban ga
▁kin yarwanda
shyigi kiye
▁i higanwa
▁ba banje
o t
▁i shinzwe
mu gabo
me reye
▁im bonerakure
▁n’umu ntu
▁sa m
▁w’umu kobwa
▁atu ye
▁bi baye
▁ya subi
yu ga
ran eza
han ganira
cu ti
▁mo zambique
genzu zi
gati fu
▁bi bu
▁ri der
▁fa rg
▁ibya go
a ti
tan ge
▁ibi shoboka
po ol
t ho
▁i sura
▁a kan
▁gu sanga
me na
▁p hi
▁ko hereza
▁rw’ in
▁so ko
▁i zuba
▁ba mwi
▁ya za
▁mu mu
tan gu
▁zi da
zu rugero
ni mana
bon ana
▁bahu ye
hinda gu
▁niyi zurugero
▁a kurikiran
▁in tebe
▁kwi tegura
▁rwi yemezamirimo
’ ubu
an d
re s
we ho
▁ubu kene
hi zi
hi mba
▁bya giye
yama tsiko
u yu
▁i re
▁ba komeza
▁hari ho
▁cy’i gi
▁me tero
ci riritse
▁ri shinzwe
▁nk’ ama
nye ne
▁iga banuka
▁imbo gamizi
▁ J
▁bi genda
hi zamu
▁f pr
▁aka jya
ver pool
▁on u
kwirakwi za
▁i shyirwa
▁i shoramari
▁ba sabye
▁ku bya
▁umu si
▁gi tsina
▁ki jyambere
fu ngi
▁imyi yerekano
▁umwi hariko
▁haki zimana
▁ L
ya bizi
▁ku ma
ci ra
▁yeme ra
▁ryi ta
▁fran co
mama ye
▁yadu tangarije
▁ntangi riro
d in
▁mu turage
bwo ba
geza ho
cya yi
▁fran ci
abi korera
▁bibili ya
r n
▁n gendo
▁bu ke
▁ama tungo
▁ka yumba
▁kan seri
▁mun ye
kuriki rwa
▁bo ko
rani ye
▁nyama gabe
tungu ye
yabizi ga
n gwa
▁mu songati
▁gu toza
▁gute kereza
▁uwi mani
▁kwin jiza
sangan yamatsiko
▁pari ke
▁in o
▁ka ru
▁im bi
haga rika
▁guso ma
▁bi vuga
▁kwi teza
ryo he
▁g lo
▁en ye
▁ya tsinzwe
▁igi hombo
▁n’umu kuru
▁n’ibi go
▁ikiba sumba
r wana
▁b ru
▁n gwara
▁ku bandanya
▁mu shasha
▁gu sohoka
to rwa
hi sha
ci a
▁ubwanditsi muhaburarw
▁ama buye
riri mbye
min ota
genga bitekerezo
t ra
▁aba hanga
▁imi rwi
▁gute rwa
▁ye rekeza
sin zi
tegu rwa
mban e
▁n gi
gi riza
▁ku zaba
▁ku byara
▁han tu
▁n’ubu rundi
▁yavuga ga
▁corne ille
▁uwimani mpaye
mu re
▁bi re
▁c g
kuru ra
gen dan
▁kur ’u
fungu ro
▁ruta hizamu
▁tru mp
▁i gomba
ri ze
▁bi twa
go mbye
kin gira
fu zo
vi ramo
mbo nera
▁fa u
▁fa shi
tegere jwe
toro shye
▁n genda
▁u kwiye
hin de
▁al bert
▁champi ons
▁tu na
▁olympi c
▁n yandiko
▁ba bana
▁gu shora
▁wa bereye
▁n’aba kozi
reke zi
▁ishe ma
j on
▁bi fasha
me je
▁aka gari
▁sa l
▁ben in
▁stu dio
▁bi yemeje
▁mu bu
go la
shi zwe
▁ma uri
hi she
▁ni cyo
yin di
▁cya bereye
▁ata bi
▁uwa mariya
fun giye
▁bigo ye
▁ber nard
▁milli ons
▁fashi on
▁i dasanzwe
ba l
gu ta
ki shije
▁aba hungu
tandu kani
▁te am
van ye
▁ubwi za
▁gushi shika
▁dan ny
▁know less
▁n te
re na
▁bi tanga
▁mu sozi
▁r waka
▁tu ni
▁iki ro
▁su dani
▁bika za
▁z’umu goroba
▁niyon shuti
humu riza
▁rona ldo
w s
we mo
▁ya tewe
▁ya garutse
hi a
twa re
fu nze
▁t w’i
▁iza bera
tangi re
▁iba ruwa
▁ama kimbirane
▁ma jwi
kin gi
cu mi
▁nta ba
▁n’aba kinnyi
yaka zi
▁yin jiye
▁guso za
▁ba se
ru nga
▁n’ e
ku za
sa ta
▁aba ha
▁kan o
ce r
lo metero
un g
▁vin cent
▁b ine
gi rizwa
hu ngiye
le n
▁n’in garuka
▁ry’i mi
m ina
▁gi shobora
▁ka monyi
▁ri komeye
▁kw’i jana
▁ry’umu ryango
o gle
ha hi
▁ma ca
▁ma gana
yandi tswe
▁b ro
▁u jya
garaga riza
▁z’i bi
shishika riza
▁m on
▁ma ra
▁im papuro
▁iki menyetso
▁y’i gihe
mbo ra
▁nta go
▁d ro
▁anto ine
▁ba sore
▁ku tu
▁c ho
▁li verpool
bin yujije
▁yavu tse
▁b eza
▁mu gisha
▁yaka tiwe
i di
▁a saga
ga banutse
me re
hu ha
gan yi
▁yi bukije
tum vi
ngi ka
▁z’ama dolari
▁alex is
▁habaru rema
ge zi
tu be
ro ra
▁in teko
so je
▁mi shinga
▁ib yemezo
▁co u
▁w’umu nya
▁z’i banze
▁bw’i ki
b indi
ru shi
▁umu menyereza
▁nu mero
here jwe
▁ukun di
yan ka
▁buda ge
mbonera kure
i t
▁b la
▁ba si
ca manza
▁za ba
▁nya ba
▁boko ta
▁i fasha
▁n tego
ha va
▁ki bi
▁ki vuga
gan de
▁ubu tunzi
▁e rne
▁tu bona
▁pe refe
▁b’ ama
▁yara ye
com yiza
▁ibiri bwa
▁a ru
▁n guru
▁umu gisha
▁ibi tero
▁mi comyiza
f t
m wan
u ko
▁i fatwa
ri ca
▁u no
▁bu gufi
▁aba koze
to phe
▁bya je
▁yi shwe
ju gu
▁kuvu gana
▁i g
▁a h
▁n giye
▁ba hora
▁bi dasanzwe
▁umu kinyi
▁igi tsindo
▁wa sanga
ranga mutima
▁ban duye
▁ti go
b ri
’ s
wa bo
▁ba sigaye
▁bi yi
▁bi to
ki shwa
▁ki da
vi lle
rere zo
▁ban jye
bone yeho
▁air tel
▁u rwibutso
▁gu ko
▁na eb
▁wo r
▁wee k
▁boy z
ge rwaho
▁ya teguwe
▁ma tsinda
▁mi twe
tangi riye
▁n’iki bazo
- a
▁i kubi
▁r nc
▁ha je
▁ma boko
▁im buga
▁n’i terambere
▁y’i yi
pe ri
rizwa mo
guri we
▁ka bu
gira ga
▁bya yo
▁ryi twa
▁impu nzi
▁n’ikin yamakuru
▁rider man
▁b wu
gu fasha
to ndo
▁kwita ba
▁ Y
▁ru kora
▁ma jyaruguru
ngu ru
▁ca mero
▁an ne
st ine
huti sha
▁ihu riro
▁m pi
▁nta mbara
▁yo ung
▁cy’i mi
▁maca da
▁a kina
▁n gamba
▁ku nye
▁im an
▁uru hu
mye nda
▁w’ubu rundi
▁bitu rutse
▁njye we
▁ruga gi
▁franci s
m insi
▁aba menyeshamakuru
to ni
▁zi vuga
▁mi bereho
▁an gola
▁icya kora
▁W a
m bwira
o u
▁a twara
▁r yeme
vi c
▁n’aba ri
▁cya baye
▁bwa garagaje
hoho terwa
▁ba ca
▁bi ha
▁ya banje
▁ya kiriye
▁imi si
▁f bu
▁se ne
▁by’u kuri
▁mpan de
▁ser vi
d s
tu s
bo ra
▁ha giye
▁zi bi
tege rerezo
kuriki yeho
▁ja ck
baba je
c le
▁i genda
▁a yobora
re bye
▁umu ganda
▁in yigisho
▁kwi fatanya
cu ment
▁tu mu
▁kuba ha
tera hamwe
ani we
▁bata zi
hahi rane
vu nyi
▁ari cyo
mbi ye
▁ic ye
gari tswe
w n
▁ que
▁p rin
▁je u
curu riza
▁to day
▁kuvu gurura
v in
▁u korera
▁r wo
▁bu shobora
ju mba
▁kure ngera
▁go se
▁akana ma
n je
▁bi zwi
▁aba ta
mbi ka
po ri
▁o ne
▁cy’i si
▁ye zu
▁al geria
tsindi ye
▁bu ntu
kan ywe
▁wa tsinze
cu ro
ca kubiri
ngu ka
gari tse
▁iz wi
gwi za
u nda
▁ zuba
▁n kunga
▁c yumba
ku san
▁ki to
▁igi tsina
▁yi hariye
▁t v
bona mo
▁umun ye
▁n’umu co
▁kwa mamaza
▁rusan gi
▁muse nyeri
▁ala in
▁ tangazo
▁n twa
▁ba tandatu
ro hera
▁in yi
▁ha koreshejwe
▁yi teguye
▁kugera geza
▁fili mi
zengu ruka
i mba
▁m wan
▁ki rimo
▁ki buye
gwa bira
▁ib yumweru
pp y
s p
▁a koresha
▁bu yobozi
▁in tumwa
▁im yambaro
▁imi gabane
bwi rwa
▁vi rus
▁abatu ranyi
▁fa mi
poli tiki
t r
▁ru hu
su biri
▁nta gwabira
▁ko mpanyi
▁ara ba
▁l on
▁yaba shije
▁ahe ruka
▁ugere ranije
gh t
daga du
▁ni bi
kome ra
ca r
▁n’aba kobwa
ji sho
▁w’umu n
▁fi l
here je
▁amavu ta
▁a wu
▁ba tewe
bu rira
y’ aba
▁gu hora
▁ama boko
▁ru ndi
▁n’umu kobwa
▁i saba
▁a shinjwa
ga yi
▁gu hita
ban ire
▁ha sigaye
▁kigalitoday com
▁vital ’o
▁franco is
▁ E
ka ye
▁bi tanu
▁ru sengero
▁bara mu
▁by’in gendo
▁davi d
▁bago sora
▁avuga ko
menye she
▁twa ba
▁n’in dwara
▁n’ib intu
s ine
ri tse
te s
▁n’ andi
wan du
▁y’ akarere
▁igi fungo
▁wa ha
▁ry’ a
jo ra
▁in toki
▁sin zi
▁kumenye kanisha
l sea
n ni
▁a hora
▁ibi janye
▁imi paka
▁s indi
wu ndi
▁pa rt
▁bwa we
subi zwa
▁guha ranira
▁g hana
hagari tse
pf umu
▁ha bayeho
▁ha bonetse
▁ki giye
▁igi subizo
▁ga sana
fati rwa
▁kuta gira
▁guhi mbaza
▁inyama swa
▁glo bal
▁a vugwa
tu rere
▁aba kuru
▁y’ indirimbo
du fasha
fu r
ci de
tandu kanya
▁si ko
▁z’u kwezi
▁award s
▁bi shimiye
▁ha ka
mi sha
cu nga
zu ra
▁y’u bwi
▁du kora
▁n’ama segonda
▁in gana
▁aba toza
li mu
ne gihugu
kan da
▁po ro
▁guha garara
▁inga gi
▁ica ha
ru kana
▁gu hana
le ti
▁iki gega
▁n’ubu zima
▁a subira
tu ngani
han do
▁ka b
shu ye
▁i bu
▁i sha
gu ha
▁ya shize
▁na ryo
▁yi zeye
m yo
▁ya shyizwe
mi e
▁iki zere
▁n’in gabo
hara ra
s pe
re a
yo ma
▁mu cyo
▁gu siga
▁bu kene
mi rwa
▁ama ke
han wa
▁ka gali
▁ubu jura
▁e ri
ren ce
tion s
yun gwe
c s
▁ya teye
▁mu kundana
▁bu vuzi
▁ata zi
▁d y
▁n’ubu tegetsi
byin iro
▁fu nd
aga teganyo
▁ba fana
si gara
▁gi tero
hi ye
▁zi tari
▁mi riyoni
▁kwe rekeza
kwe to
tanda ro
▁yakore sheje
▁fi fa
▁iri ho
▁pro f
▁bada fite
mban yi
▁nyabu gogo
▁u geze
gi rika
▁gu ho
be ho
▁ki yaga
fu byi
▁t wu
▁nti yi
kwa ya
▁to rero
▁al p
rongo ra
▁imyi teguro
▁ea st
▁kari simbi
▁kizi to
unda tion
▁i terwa
ri m
▁ki ga
▁ru nini
twa rwa
▁y’i myi
danda zwa
▁gucu nga
▁men ya
gobo ka
▁n ganda
gu sa
ru ru
▁ya ran
▁f on
▁t ra
bwi rizwa
▁sene gal
▁n yungwe
ta birwa
▁bi gomba
▁bi boneka
ci shije
ca ra
▁fo undation
▁chris tophe
tien ne
p fi
ka ro
bi kora
▁ma li
▁zi tuma
▁mi cha
▁za ha
▁co se
▁rya bo
▁nk’a manyarwanda
▁macada mia
ri ta
ru ba
▁ku gwa
ha me
▁ibi hano
▁p ri
▁n’i ya
▁zi zaba
▁batu ruka
▁imyi twarire
l bert
▁ri rimo
zwa ga
▁ban gana
▁du tandukanye
▁cy’u ko
▁akaya bo
ki e
ran kunga
san te
ci al
▁y’i tariki
▁n’ibi ro
tin g
▁b’i bi
shyize ho
▁y’igi kombe
▁sy li
▁musa za
▁gushishika riza
▁i renga
gu ke
▁m ina
▁umu rongo
sha sa
▁ibi kombe
▁uru mogi
tandu kan
lo ma
▁ry’umu kino
▁che lsea
▁c’umu kuru
gendan wa
n an
▁ ger
▁i shingiye
▁k ina
ri ndi
se ngera
▁bu ndi
▁aba mu
▁ma shya
▁kwi cwa
▁n’u wi
▁ko rali
▁aga hinda
▁rw’ abikorera
▁bo se
▁bite guye
▁h ana
▁h ’’
▁yabi sobanuye
kuba hwa
▁kaba ya
▁baku ze
▁uri ya
hwe za
n zwe
▁ba sirikare
▁in gengo
▁ki tari
fu zi
▁mo de
▁l y
genera l
yi re
▁gu teka
▁umu paka
he ruka
zo bere
▁ma shusho
la s
▁bara sabwa
▁y’ubu rengerazuba
ur s
▁biba za
▁i herereye
ri bu
▁ba shoboye
ran d
▁ki ro
▁ma foto
▁ma yange
▁n’in ganda
▁z’i ki
rwan o
▁ihe ze
▁guka raba
▁h’’ ’
▁ shyaka
▁umu shahara
▁yi ze
▁cya ha
▁mini s
gwi ro
tungan ywa
▁deni se
▁i be
▁i fata
▁u zo
▁ya sohoye
yan za
▁t y
man ya
▁yan ga
▁nyi r
▁uni ver
vye yi
0 0
t ini
▁ya tanzwe
▁in yandiko
▁ama gare
▁ka ti
▁nde nde
▁n’u rwanda
▁baka vuga
kwe reka
▁leo nard
zi ga
▁bi shya
▁umu ke
mi re
▁k’ ama
c umu
u ru
re ga
▁ba ho
▁mu yoboke
ti ano
▁ka bi
kin wa
▁yi yemeje
▁imi twe
▁mun yakazi
▁iha gaze
▁n’imi ryango
▁yita bye
▁am b
▁cndd fdd
shyiki riza
▁ba hoze
ran ce
▁ibi subizo
nge ri
▁s na
▁w’i mari
▁be a
▁su n
twi tter
gi shwa
di e
▁gu hitamo
si ba
▁umu hoza
gize mo
▁yara bi
▁ika wa
guri shwa
▁T u
🤣 🤣
▁a to
▁a kanya
▁ba rangije
▁ha ma
▁kwi yubaka
en da
▁um wanditsi
▁bita renze
▁basa bwe
▁barcelo na
dagadu ro
i je
▁i d
ru ye
▁gu hinduka
go zi
li que
hi rizwa
▁bya tangiye
pa gne
▁ur ban
▁ifu mbire
p ani
▁ya gizwe
▁gu korerwa
mi we
▁aba hawe
▁mi higo
▁bya bereye
▁hari ya
▁kubi janye
▁da mas
ririm vyi
▁w’a furika
net te
▁ferwa ba
▁dj ama
▁syli dio
s ton
▁ sho
ri ya
▁ba komoka
▁gu cika
tsi ro
▁y’umu kino
▁ry’i mana
go ndo
▁bu shikiranganji
sha kiye
▁w’ aka
▁zi jyanye
gara mu
▁kwi yamiriza
van ga
▁gisa ta
▁is ra
mun wa
▁u kiri
▁ya sanze
▁t hi
menye sheje
bye mera
bara bara
▁kwita bwaho
▁N a
▁sita siyo
p ho
ru sho
▁ya garagaye
▁gu shyin
▁kan ini
▁s kol
▁aha mya
▁ibigo ri
d f
m pe
▁b k
▁a dri
▁w ha
▁sebu harara
a a
z za
▁n zaba
▁u rimo
me ka
▁ru komeye
▁ka vu
▁na mu
▁uru gamba
▁umun yeshuri
▁jo si
gami ra
um z
▁dar fur
k wan
▁i hungabana
yu tse
▁ki gega
zo ga
▁yi shimiye
gere ranya
▁M u
▁z’ama dorari
b yumva
gu fu
▁mu byeyi
go mbwa
▁na mwe
▁e ka
▁imi tungo
shobora ga
▁be yon
▁isi ganwa
▁fa bi
▁i gu
▁i zamu
▁nya kubahwa
▁d ani
▁ara mu
▁ja mbo
seru kiye
yumvi ro
▁kur’u yu
w w
▁mu kaba
de le
▁ubu hahirane
kome reza
shyira mo
▁bitu ruka
▁i tsinze
▁a sigaye
▁u kinira
▁ba hura
▁ku mbu
ze yimana
▁umu ganga
su kari
▁n’u mwana
pfo bya
▁cy’in dege
▁uhe reye
▁amake nga
▁u ne
mu rira
ran s
▁ru tsiro
▁ka rekezi
▁im yanya
▁im boneza
gwa yi
on o
no ne
▁co l
▁n’umu kunzi
▁bwa yo
▁bara saba
▁aha gana
▁kuru ngika
▁by’i mari
▁ingu vu
▁udu shya
▁rwan yu
▁nguru kana
d r
▁a du
di er
▁ha ssan
▁ama hanga
▁ubu rezi
so hora
▁mi ti
▁ri ba
mbo na
▁d ’i
▁n’in zara
▁kwe me
sobanu rira
▁abari mu
▁nga ho
▁yama ho
tumvi kana
▁djama li
▁josi ane
▁ba kin
▁ba baye
▁ku rondera
▁umu dugudu
ban e
▁zi sanzwe
▁imi terere
bone ye
ronavi rusi
▁witwa ga
▁yitwa je
▁micha el
▁ba tera
▁ku jyana
▁ya byo
▁gu kira
▁umu hinzi
▁umu jyanama
he ze
han gwa
▁ubu kangurambaga
▁igi tabo
▁ib yumba
▁bita ba
fo r
▁yaha kanye
▁ch ri
▁a genga
▁u te
▁ba tanze
▁ku menyekana
▁m winshi
▁igi sirikare
▁mi sozi
▁aka yezu
▁abi tangaza
▁hu ba
▁ruhe shi
▁ceca fa
▁i je
▁u zamu
ni a
▁inko tanyi
▁b r
▁u we
▁u rwaruka
▁bi ki
▁ya kinnye
▁gu pima
▁ibi rego
▁n’i myaka
▁kwe meza
rie s
▁cyi twa
▁man ira
▁ci p
▁yin jira
c ro
▁i kosa
ko de
bu re
vu gana
be shye
▁aban yamahanga
▁ibya baye
▁ubura ya
▁fau stin
bu guzi
sha kisha
sa bwe
▁zi ha
▁kwi to
▁e w
▁w’i yi
▁za we
shimi rwa
▁kuru yu
ron ke
▁c’i saha
▁kito ko
m yumbati
ya pani
bi ka
▁bi kana
▁gu shinga
▁in gengabitekerezo
he reye
mba ro
fu je
▁za fashwe
▁sa mura
▁rya ra
▁n’imi bereho
▁es pagne
▁i tuma
▁i kwirakwira
▁umu gera
▁ha teganyijwe
▁aba maze
mo nge
▁ama shami
▁nta wa
▁guha tanira
teke reje
▁z’i gi
▁rw’i si
▁ju pp
▁ku banza
▁gu suzuma
du rira
▁wa menyekanye
shin gwa
man zi
▁n’umu nya
▁pa c
▁bwa cu
▁pe ti
▁bara bi
▁y’a mezi
tn umz
m bya
▁i tangaza
du tse
▁ka wa
▁n’i byi
ce ne
▁imi hango
▁uwa se
▁bura ya
▁abazi ze
▁n’umun yamabanga
▁adri en
- co
e jo
l s
▁a p
ri ko
▁bi we
▁gu shyirwa
si we
▁y’ubu tegetsi
st re
▁ara vuga
▁w’ubu banyi
tegan ywa
▁kugera ho
t ine
▁i we
gi tura
▁ba hinga
bu tse
▁m yan
▁gu tangura
▁aba depite
▁wa gize
▁tu maze
mbu rwa
▁n’ibi koresho
▁y’ama zi
▁yashyize ho
▁d’i vo
▁ew sa
n g
▁ki garagara
ke mura
▁igi curi
▁na ason
▁ga bon
▁mi handa
kuriki ranira
▁w’in tara
▁mana ger
▁a bere
ku bwira
▁bu garagaza
▁kan imba
tin yanka
▁c’ubu mwe
▁imbo ga
▁abanye shure
▁n yu
▁n tera
ga banuka
tu manaho
hu ru
shi kira
▁ari rimba
▁se rena
▁bahu ngira
▁bati shoboye
▁fran k
▁kab gayi
ra ra
li ane
▁n’i zi
▁zi gamije
▁ari wo
garaga jwe
▁nya ruguru
▁y’ubu banyi
▁ce le
▁bi kunze
▁bu keye
▁ma banga
ne rali
▁zi kora
▁na mba
▁nk’ abandi
shyi riweho
▁nti ha
▁twa giranye
😂😂 😂😂
▁yve s
▁jeu nes
ru kira
▁aba renga
▁ru kuru
▁ru hando
vi e
shu ra
▁w’i shyirahamwe
▁sa la
▁y’aba gore
▁biri ya
▁nze li
▁kura mya
▁fon da
▁a bonye
te je
▁gu shize
▁aba koresha
▁im vugo
▁na vyo
▁imi co
korera ga
▁rya yo
kwe mera
▁la u
▁go ma
mun si
▁zin yuranye
sese ngura
▁prin ce
d ge
i ki
▁n kora
re ti
▁gu kurikiranwa
▁umu soro
yu gari
▁gi ke
▁ma shure
▁ban yeshuri
▁ko ronavirusi
▁pe r
▁pla tnumz
hanu zi
▁ntan gere
▁isra el
e lle
ba ka
▁bi gi
▁abi korera
▁evari tse
mu shize
▁ba bone
▁aban ywanyi
ngu tse
▁cya ba
▁mini com
▁jo na
▁i bona
▁i komeza
▁k eza
▁m c
▁gu funga
▁aba sha
▁ibi pimo
▁s c
▁n’aba gabo
▁be st
▁iri ndi
yandi tse
▁ubwa bo
▁bigo gwe
tre a
▁lou is
l b
mu rwa
▁ba ma
bi ro
ge li
▁r w
▁n’a yo
▁buri mbane
▁kwe gera
ngi ro
▁ndayi shimye
muha ye
yandi kisha
▁bw’ama horo
▁mala ria
p y
▁ba zwi
▁gu siganwa
▁aba tari
hugu ra
▁tu mwe
man ye
▁iri ya
giri mana
rwan yi
kini sha
▁uhe rutse
▁mazu tu
▁fabi en
▁i t
▁u gera
re mbo
ha li
bera ga
▁cya ra
▁pe ter
subi ye
mwi ta
▁ju stin
yumva mo
▁ F
▁i jya
▁a komeje
▁ba fitanye
▁bi korerwa
▁m vu
▁ya tangije
hu kana
▁ma hirwe
yin ywa
▁w’i bihugu
▁co lo
tara mira
garagara mo
cyo rezo
▁w’in tamba
▁ge or
jon jora
▁sna ppy
t hi
▁u jejwe
▁ku renga
bo mana
▁ya ru
shi tse
▁in yo
mi rije
▁aba shinzwe
de ro
ne l
▁bya tewe
▁w’i mikino
▁akaba riro
▁ara bi
▁he nshi
▁fa o
▁y’umu ryango
▁con fe
▁su per
▁ubwi genge
▁bitwa je
▁univer si
▁i y’
ku mwe
me rere
ran de
ke ka
yobo ro
▁baka bona
▁z’i mi
.. .
pfuka munwa
▁miche l
▁a bwira
▁ya rana
sa bira
▁ha shobora
▁ru shinzwe
yin ga
▁jean nette
▁ye rekanye
▁muru muna
▁up rona
ra ma
in ya
sa bu
hi tana
▁yi swe
kuriki jwe
ju ri
▁ro bert
ron ko
▁fo ot
▁byo roshye
wuba ka
▁com pan
▁fami ly
▁poro garamu
▁i jisho
▁ba gizwe
▁ya buze
▁ya ronse
di tse
vu rwa
▁ha garagaye
ce lles
sin ga
zin duko
▁yahise mo
▁niwe mwiza
hagari tswe
t ha
ri nde
mu biri
▁bi zeye
▁ri zaba
▁re g
▁muri bo
▁nk’i gi
tungu ranye
shikiri zwa
u ti
▁a shize
mu fasha
▁ba byeyi
▁ya shimye
▁bu hagije
▁ama jyambere
▁ru monge
▁na rwo
▁ga kwaya
ci sha
▁umuhanzi kazi
▁n’e byiri
f rika
▁a jyanye
ba sira
gi na
di s
▁gu sobanukirwa
▁umu vuduko
▁bu kuru
▁bu shingiye
▁ha tegeka
▁ma guru
▁wa hi
mbe au
teri ne
▁di yose
▁ruri mi
shiman giye
ari ko
▁a moko
▁n giro
▁ku ro
bu menyi
▁bu dasanzwe
▁ki e
▁ma bwiriza
▁mi jyi
pe rezida
▁twa vuga
▁sa mu
▁kwa duka
▁man ota
▁au gu
wuba tsi
▁dan s
▁a yoboye
ba tse
mu kira
te ma
▁m pinduka
se neza
▁mu rwa
▁ka yanza
▁mi tali
▁y’i burengerazuba
▁n’u tu
▁si mba
▁bata za
kunda ga
zan ira
▁babi vuga
mbara ga
shyin guye
▁niyo mugabo
▁H a
▁app le
▁d’ivo ire
yugari ro
▁i rya
▁ya rangije
▁gu ine
hu riro
▁n’i mana
▁mi bonano
bwi we
▁n’ubu kungu
▁me ya
goro rwa
▁amu bwira
boneke je
▁mwo menya
’ a
▁u kina
ko ranye
gu kunda
▁bi ti
▁bi renga
▁bi toroshye
▁ru tanga
▁ma jyepfo
▁ga tete
zu za
▁ri ta
▁co a
▁ban ye
▁cya tangiye
▁b’ ubu
bya ha
▁de l
▁no u
i yo
▁i va
▁a ll
▁ya teguye
di kanya
ran te
▁ki garama
▁s pe
▁ic tr
▁du shobora
▁nda ba
tegu rira
mura mpaka
kubi ye
▁yata we
▁hegi tari
▁a tangwa
▁ku rangira
mi co
▁gi tuma
▁gi sozi
▁p ho
▁wa ka
▁kwi zihiza
▁aka yi
▁aka gira
tum va
aban yeshuri
▁abi canyi
▁li ve
baba za
rani ro
▁iwa wa
▁mpan uka
boneke za
yisi re
▁ tegeko
▁i kwiye
re c
▁ya hoze
▁ki retse
▁ma fi
▁ma gingo
▁im p
bwo ko
▁mun ya
▁n’umu toza
kubi se
kundi ra
▁n’icyo rezo
▁iru hande
ruhu ko
ri yari
▁bu kungu
ke re
▁ubu vuzi
▁p en
▁ni mero
fite mo
ja gari
▁mwi herero
hagara rira
▁guse nya
▁ruta yisire
▁mauri ce
e e
▁ shirahamwe
▁n ge
▁n ina
▁bi tara
ku senge
▁gi te
▁kwi gira
▁e tienne
▁baka yi
▁mwi seneza
▁musi c
▁mur ’i
d indi
▁i faranga
▁ba shyira
▁ba kunzwe
▁c in
he nze
▁ma c
▁p gg
▁wa tangiye
▁tu da
▁y’i byo
▁covi d
mban ya
▁umwa rimu
▁a po
ri myi
gi tsina
ka maro
gu re
▁ku vugwa
▁bi komoka
sha ho
na teri
▁t rans
she ngero
▁baka reba
▁vi lla
▁y’umu pira
▁K i
▁ingo rane
▁pla tini
muna ra
▁cy’igi fungo
▁pgg ss
▁ shyirahamwe
ko tanyi
ru ta
si a
▁gi pimo
▁ga ho
▁t hone
pa ti
▁ic yari
▁bwa korewe
kiri ya
▁ntara ma
▁bari ya
mpa la
▁ibin yamakuru
▁cy’umu ririmbyi
▁isa bukuru
▁ruha go
▁promo ter
▁camero un
▁part y
▁foot ball
▁thone ste
ba ha
▁ba menyeshamakuru
gu ro
te mewe
▁bi kuru
▁m pe
▁ya gera
hu ri
▁aba saba
▁ama twi
du ha
▁ri fite
▁za mbia
▁ata ki
shyu he
▁z’ubu zima
▁i tandatu
gu ka
▁bi ze
ku bwa
vu gira
sha shi
▁imi gambi
▁y’i terambere
shyi re
▁n’u b
▁y’ubu rasirazuba
shinga mateka
▁w’umu gabo
yuze mo
bunga bunga
▁servi ce
k h
▁ jya
▁i rondo
gi shije
ru gamba
du ga
pa diri
▁twa ganiriye
▁o r
▁n’ibi ciro
genda ga
▁vya vuye
▁rw’i bi
▁ubwi sungane
▁kame re
▁nsa bimana
▁erne st
u t
▁i shusho
▁u vuye
▁gu tya
kun de
▁s ana
▁nke murampaka
yongereye ho
! !
- ki
▁i shimwe
ta shye
▁ha r
▁ama rangamutima
▁im yumbati
▁ri bi
riki ra
menye reye
yon zi
▁kwe nye
▁aza m
▁yakore ye
▁bira shoboka
▁icya yi
▁wan yu
▁bw’ama gara
k ris
▁n dwi
▁u genda
ge jejwe
▁m bwa
▁aba ririmbyi
ran zwe
▁ki tara
▁ki menyi
▁ga so
▁ri genga
hin e
▁we st
▁n’ama zi
bya ro
▁tuba menyeshe
▁# R
c ana
▁i ran
ba ri
▁ba shinzwe
▁umu huza
▁ha fashwe
▁ru kin
le y
▁na wo
san ya
kun danye
la m
▁n’umu sore
▁baha tanira
reke jwe
▁yita biriwe
▁fla mbeau
▁ba shigikiye
yi ra
▁m r
▁gu kundana
yu ranyije
gen ce
▁mi korere
bya ranye
▁n’ibi he
▁ati geze
jo r
hindu rwa
▁nk’i byo
tin celles
▁kari ndwi
razi l
▁guse nga
▁buta li
mwu ga
guta bara
pori si
m bana
p t
z zo
▁bi huriye
▁c ro
▁aba ye
do re
shyi kirwa
▁v an
sin g
mvi kanye
maga ye
▁inzo ka
zin ga
kwirakwi zwa
▁dani el
s k
▁bi giye
▁m yugariro
▁ya kira
▁ya jyaga
si c
▁aba kiliya
de nde
han na
▁w’umu dugudu
bwira ga
reme zo
▁y’uru byiruko
▁kire he
komere tsa
▁wasanga ga
leti co
▁fonda tion
m c
▁ku ronka
▁bi garaga
ku mi
▁ha bin
▁na himana
▁kuba za
▁ri ti
▁aka gera
▁han d
▁ikin a
▁di ane
ken ya
ris tiano
▁kiza bera
▁min ota
mu ni
da yi
▁ya huye
ku wa
▁y’ abanya
▁ma gara
▁ma shami
fi ki
vuga ga
▁ni zo
▁iki rere
▁imi tima
▁uru mva
▁aka bona
▁ic y’
pu b
rwe nya
▁mini st
menyesha ko
sanzu re
▁iso mo
▁damas cene
z ine
▁ general
▁u t
ka mo
▁ku mvi
zi gamira
▁bu tunzi
▁ama se
li en
▁ma shirahamwe
gara garaga
sho ye
she shatu
kuriki we
fatan ije
kura ho
▁kumu ha
▁ika rita
▁bazi ze
▁kugaru ra
▁ntwa rante
a d
p pe
▁i huza
ta rengeje
fa shanyo
kome reka
▁ri gizwe
▁baka zi
▁uku gira
▁bite ye
▁kugi rana
▁cla ire
▁mugi tondo
▁bene di
▁butali yani
gi si
▁bi yobyabwenge
▁ya koraga
si ya
▁ubu ntu
fu riza
▁s rc
tera bwoba
▁vya ri
▁twi fuza
▁bwo nko
▁uka mu
▁ry’u yu
▁cent ra
▁n’aka rere
▁nto ya
▁ima shini
▁a rusha
ga ma
ba ho
ko mo
gu za
ti re
wan ye
▁ama koperative
to we
▁bya tuma
▁j r
▁nda gi
▁n’ubwi yunge
▁kati ka
▁a byi
▁ba tegereje
li x
▁zi zo
▁wa koze
▁yi she
▁s wi
▁n’umu hanzi
▁aga hita
kuriki ranye
mbe r
▁w’umu rundi
▁baba shije
▁ro se
rwan go
kini ye
▁nserukira gihugu
u x
y mar
ko ni
ta ko
▁bi rego
▁ki twa
han ze
▁ma horo
rere ye
co o
▁gihe mbwe
▁sa date
▁uwa hoze
tswe ho
shyin guwe
▁imbi bi
d ine
▁a yandi
▁n jya
▁ba kwi
bi ye
▁mu gu
▁mu tekano
ki rana
▁gu kwirakwiza
mi r
du kunda
▁n’i tsinda
▁e sheshatu
aka zi
▁pro du
▁by’ama faranga
▁byu kusenge
ata r
▁victo ire
ra bura
te rankunga
▁bi ganjemo
sha je
▁ha boneka
le nt
▁kwi vu
ce ri
▁imi koranire
kiri we
▁muta gatifu
shyikiri zwa
▁augu stin
l lo
y d
gu gu
zi ze
▁in kweto
▁in tandaro
he ba
▁gi ra
▁ka li
▁ri hanna
▁nta wu
▁du kwiye
▁bira boneka
▁impan de
rin ka
▁petero li
▁imyan zuro
g y
o na
▁a ro
▁a keneye
▁ya re
▁in terine
de ri
▁zi biri
ubu mu
▁na bonye
▁mi sa
▁uru nani
▁n’umu jyi
▁cya munara
▁si fa
tiri zi
▁yu nze
▁by’i terambere
m my
▁a komoka
▁n kaba
ri que
▁ba kan
▁ba curuza
▁ku gwanya
▁ku rongora
bi le
▁ru zo
▁n’i genamigambi
kun tu
▁imi tahe
▁s inema
renge ro
▁kigali -
▁y’ubu tabera
▁baha garariye
▁bw’i bihugu
▁ubwo rozi
taka za
▁z’u yu
▁tubi kesha
▁kwo ngera
ngire he
u re
ra ho
▁u kan
▁aba se
▁ki geze
du za
▁mi tu
▁tu r
▁nta hangwa
▁t winshi
▁za giye
▁wi garagaje
▁rwa bu
▁bagomba ga
▁kimi ronko
▁ha kurikijwe
▁y’ abanyarwanda
yu zwa
bwo ngereza
▁vi an
▁fa bri
▁yaha vuye
▁w’ubu hinzi
▁iby’ ubu
n on
r ma
r tu
ri nga
re bera
gi sho
ha ma
▁bi komeje
▁in geso
mo tari
tanga rijwe
▁f ro
va ho
man uka
▁ra ma
▁bo ba
▁cy’i bi
pfu ra
▁he r
▁ry’i ki
▁do cument
▁ihe ruka
ribu te
bu jije
ban ya
yu za
▁ru zi
▁n’i minota
nge rwa
▁kwi hutisha
▁mi bare
▁e tincelles
ca tion
ji riza
▁ndi mi
▁ne ymar
▁y’uru kundo
byin a
▁aku mva
▁x a
▁kuran gura
▁vian ney
n ywa
re d
ta si
▁bi tera
mi riza
▁ibi sobanuro
▁im vu
▁zi terwa
▁n’aba fana
▁du to
▁ata co
▁rwa ba
▁muri ma
▁be merewe
▁baga mije
▁al ubumu
▁biza jya
▁iha bwa
▁iha gije
▁yandi kiye
▁go ogle
yobora ga
▁akurikiran yweho
▁iman za
▁ba gire
ta tt
ge tele
ban k
▁bu tari
▁in gene
▁ha ruguru
▁ru vuga
▁ka za
▁ka mpala
▁wi ga
▁baza komeza
▁yu zuye
▁do n
ment byi
▁ibin yobwa
▁ry’ibi ciro
▁imurika gurisha
▁document getele
tatt ribute
▁documentgetele mentbyi
gi jwe
▁ya ryo
ban zi
mi za
▁ama ra
▁wa mamaye
▁za hawe
▁rwa mu
▁o p
▁iv o
▁bin jiye
bonan ye
▁ V
▁i kana
▁a rwaye
▁ba bayeho
▁bi sabwa
▁bi pfuza
▁ya ya
hu ngirehe
▁aba kunda
▁ibi shyimbo
▁ubu zi
▁yi bwe
hin i
po re
▁nti tu
kene rwa
gende ranire
▁kiri ziya
▁uka za
▁serivi se
▁ti mes
kari ta
▁ps f
▁nzo ga
▁geor ge
▁fabri ce
▁ba seze
▁bi vuye
▁ya hora
▁in sanganyamatsiko
▁ama tsiko
▁gi ca
▁gi ciro
▁gi rinka
▁ibi tabo
▁ka ta
na raribonye
kome retse
▁n’aba vandimwe
▁ta xi
ju rire
▁va len
▁eu ro
▁n’ibya ha
▁ba kunzi
ru byiruko
▁ya si
▁aba vandimwe
he rutse
▁n’i shirahamwe
▁imi cungire
▁n’ama so
▁muri rim
▁me ddy
▁isi gaye
yuba kwa
▁ada shobora
ziya remye
▁cy’a mezi
p ro
’ umu
▁ sh
▁i r
ko ngo
▁ba guye
▁ba hinzi
gu tu
ru timana
▁bi kora
go me
▁bu fite
▁aba hinga
▁ama ko
shin gira
man e
▁bwa ra
▁h c
▁kin gana
▁mwi jima
▁z’u mwaka
▁n’uru byiruko
▁min we
▁bun gana
▁wor ld
▁nou ve
▁ tike
▁i hinduka
ma in
▁mu shiki
▁bu kwiye
▁bu kerarugendo
▁ru hare
▁y’ama rundi
siga jwe
▁w ww
▁mou ssa
▁minis teri
▁ba fa
da ge
da ste
▁ya bo
ti an
▁ubu bi
▁si bomana
▁guha shya
gari jwe
▁rw’i ki
mban o
▁un gana
▁deni s
▁universi ty
▁a binyujije
ba giwe
▁bi shimira
ban i
sa za
▁gi hingwa
en ga
▁y’i mana
yama ze
▁bite ganijwe
sobanu riye
▁baba sha
▁cy pri
sangan ywe
zza ville
▁jona than
f b
h h
p loma
▁a gize
▁bi kozwe
▁bi girimana
▁m ani
▁mu kunda
▁bu hinde
▁wa ri
▁wa tanze
▁ga ke
▁ni yunge
▁umwe nda
▁cy’i cyunamo
▁y’a bo
▁w’a bana
▁ihe ne
ssi on
▁bwan jye
▁icye rekezo
▁ty pe
▁niyunge ko
▁ba pfuye
▁ki ru
▁im fubyi
▁zi dasanzwe
riki ye
zan ywe
rane nge
rali a
▁umwi mbu
▁interine ti
▁a lo
▁ba ganiriye
▁ku m
hu kanye
mi er
so zwa
▁ni mba
bire ti
▁bake kwaho
▁are gwa
sse in
▁myi tozo
▁k bs
ba i
ko ma
▁ba be
yo nga
▁bi g
▁umu kunda
▁bu kwe
▁ubu vugizi
▁im pe
▁n’i c
▁tu ki
▁co lle
▁ban ze
▁yan duye
▁biri bwa
tungan e
▁aki mara
▁and re
▁primu sic
▁maka mba
▁ shi
▁n gira
▁u gi
▁c ristiano
▁mu tabazi
▁gu tura
▁ha garagara
li za
▁ibi tangaza
▁wa kwi
▁kwi shyu
san giye
▁o ya
kiri situ
gari kwa
▁am bwira
▁ruha me
▁chu r
r p
▁i hita
▁a fitanye
▁u meze
bi toke
tu nze
▁m ’ubu
▁ya ranze
▁mu kunzi
me rerwa
ji mana
▁cya yo
▁bara ba
▁iza komeza
▁kuru no
▁utu rere
yonge re
▁muke ba
▁ag nes
▁ntaki rutimana
▁ngenda himana
▁beyon ce
u bwo
▁ba shyize
gu me
▁bi shira
▁ya suye
ro re
▁gu kurikiza
▁ha tanzwe
▁iki ra
▁ib yamamare
▁bw’ abantu
▁n’in zu
▁yamenye kanye
▁cap tion
a c
▁ba tekereza
ti s
▁ma j
kin yamakuru
▁w’ abantu
▁kwi yamamaza
kaba ye
bwa mi
va ra
▁ta tu
▁guha guruka
sobanu tse
▁l in
ken nye
▁cen ter
▁perefe gitura
▁eri trea
coo kie
A N
▁u dasanzwe
▁ba pfa
▁ba shatse
▁mu re
yama swa
▁aga teka
gari je
bon wa
▁kiri ya
▁inzo bere
▁sin ga
’ aba
▁i juru
ya hura
▁u rwa
ho ndo
▁ki bu
▁ru ge
▁ka lisa
san go
do siye
▁imi gambwe
▁nta mba
▁twa giye
▁bara yi
▁g s
▁ja do
rwan ira
▁hand ball
▁benedi ction
r ci
an ce
▁b razil
▁i tangira
▁a tera
▁a koreshwa
ma ble
▁ku rangwa
▁mu nezero
▁s ma
shyi tsi
▁baga kora
▁iza genda
▁kur wana
▁by’in genzi
▁cypri en
i gi
ra ha
▁i baye
▁i gerageza
▁u va
▁u yoboye
▁ku rwara
▁bu maze
▁bu shake
▁in danga
▁ma ze
ne nge
▁kwi twa
shin giwe
▁by’ agateganyo
▁si m
▁y’in ama
huti ra
▁ndu hungirehe
ya mbere
▁ba ganira
▁ku mvikana
▁bi shyura
se nya
▁ya rwo
▁gi shira
▁n’i ri
▁mun yamakuru
▁muri yo
aban ye
▁inzo zi
one l
▁kwu mva
o ts
▁i rengero
ko ngera
▁aba siganwa
▁ibi huha
▁t shi
pa ta
▁ic yubahiro
▁wi ta
▁bata we
▁yan ze
▁li liane
▁ku byo
ha ha
▁bi renze
▁aba twara
to ye
ne r
hi tanye
▁igi hingwa
▁na giye
▁wa ke
tara ma
▁si ganwa
▁yara mu
gene ye
▁y’in gabo
▁nk’umu ntu
▁atu ruka
mwu nganira
▁q atar
▁icyu namo
hindagu rika
i a
▁b rd
ra mbo
▁i han
▁m vura
▁ya gi
▁in gano
yan kore
▁ama fi
▁ama banga
▁gi komeje
gwa ho
▁n’u rwego
▁n’in gu
▁nyi raba
tsa pp
lu s
▁ahe ze
▁ai mable
▁ub wandu
▁gushi ma
▁kugaru kana
▁fan ta
? ?
▁r wu
▁aba jijwe
▁ama tike
▁ma sa
gara gu
▁s t
▁w’i shami
tura rwanda
▁cya fashwe
gani riza
▁o b
▁su pe
▁lo ve
shikiri jwe
▁ps g
▁pre mier
ba girana
▁u two
gi teri
▁ba banye
▁bi kiri
si on
▁umu polisi
▁aba zo
▁ki gamije
na ma
mba bwe
▁zi twara
▁mi re
su ru
bya za
saba ga
▁baha siga
▁vi e
▁iza bo
aka rorero
▁yin jiza
▁cy c
tsindi ra
seke di
▁nsan zimana
t ch
▁ shuri
▁bi ciwe
▁r bc
▁ha kenewe
he mbwa
▁ibi jumba
▁ma jor
▁zi giye
san ge
▁f rano
▁ib yuma
▁aka rusho
tege tse
▁n’umu gambwe
▁n’ama banki
▁y’ubu rezi
▁kwa ma
▁w’u wo
▁ika ze
▁hu ssein
▁bakora ga
▁kuga banuka
▁munyan eza
▁snappy muhaburarw
▁i to
▁a shimangira
gi li
▁ku menyesha
▁mu fite
▁mu gari
yan e
▁ma bi
▁yi jeje
▁iki buga
▁imi pira
▁bara bona
▁me lo
▁kubi ba
kera gutabara
▁n’uru gendo
▁yin jije
▁twe bwe
▁zan durira
▁kw’ aba
u ba
▁ba kinira
▁bu tera
▁in curo
▁aba vuga
▁ibi komere
▁ka hise
▁ni wo
▁du kurikije
bura yi
▁we we
rya mye
▁babi kora
▁w’ama shuri
▁buru siya
▁ibin yabiziga
▁sy l
▁eco net
▁d’ a
a ho
ta in
vu gurura
▁aba hagarariye
▁p on
▁zi komeje
▁zi gezweho
ts wa
vi le
▁ri da
▁du fitanye
▁o ba
▁bw’i mi
▁babi koze
▁ira dukunda
▁bira garagara
yuba kira
▁nyan ja
▁chris tian
▁buka bije
▁samu el
▁rukin zo
i mi
l f
u ro
▁u rebye
▁ku nganya
▁ki be
▁ru rangi
▁zi tara
▁wa yi
▁bwa ba
▁kwa bo
un t
▁ziza jya
sun g
▁dieu don
kol oni
▁i twara
▁i genamigambi
▁mu vara
▁r win
tan ya
▁aba shaka
▁aba kenyezi
hi rije
▁yi tiriwe
▁kwe ge
mbu ro
▁to mbora
▁ryi taho
▁mw’i higanwa
▁pi c
▁udu kingirizo
tungu we
▁yavu kiye
▁you tube
▁bra zzaville
gn none
▁bla ck
▁umuhuza bikorwa
▁nouve lle
▁tshi sekedi
▁ba tangaje
ru go
▁bi va
▁umu ha
hu ma
▁ama hera
▁gi hagije
hi te
▁kan ye
cu pa
▁ca ri
▁nti bu
▁twa mu
▁bata gira
▁n’ubu shobozi
banga miye
▁nyi go
huti rwa
▁agu ma
▁avu ka
▁gukin ga
koreshe reze
p to
sh en
ta vuga
▁m y
ku riye
▁bu so
▁aba shoferi
▁ama shure
bwi za
ren zi
▁c’ ama
▁li onel
▁kin shasa
▁iri ndwi
wandi ko
wandi tse
▁by’ubu curuzi
▁kaba ri
▁gusha kira
▁nyaba rongo
▁i kan
▁n yobozi
▁ba teguye
ta we
si ti
be c
▁ha mbere
▁ru tare
▁kwi han
▁ra b
▁we gukanye
▁o mar
▁cy’i rangiza
kwe rekana
pfu byi
▁bavuga ko
▁y’umu ra
▁b’i mi
pfa kazi
ven tus
▁jeunes se
h wi
▁a fasha
ri se
▁ba rwaye
bu rundi
me r
▁bu fasha
be l
▁gi hanga
▁ru te
▁n’i koranabuhanga
▁ga ga
▁kandi da
▁imi riyoni
▁cya ro
▁yo kwi
rwe ho
guru za
▁baza bona
▁l lb
▁la dy
ron swa
▁bika vugwa
garu tsweho
▁muka karo
▁min ani
▁nyabu ranga
▁jan vier
▁singa pore
n gana
ga s
▁bi cwa
se ruko
▁mu ku
▁gu i
go ga
▁s cien
▁v c
▁v ye
▁n’aban yeshuri
yon yo
▁y’aba gabo
mvi kane
▁kuza jya
▁kano mbe
sine ss
▁zaha bu
p re
▁a shyira
▁ba banza
▁ba sura
▁gu shimira
ti zi
tan zani
▁bu kangurambaga
gwa te
riki re
▁guha ha
▁kuru hande
▁w’a ga
▁au stin
▁vy’ umu
▁uhe ze
▁y’imi kino
▁abakiri situ
▁amenyesha ko
▁fre d
▁ikubi tiro
▁cele stin
m yu
▁ba toza
ki mana
ti zo
be d
▁ha di
du ze
▁ma de
san i
▁ari zo
▁t wose
▁v yiza
▁za tanzwe
▁se ba
▁cya tangaje
▁n’in ama
▁kuru ta
▁ye go
shira ho
▁uwa vutse
▁yeme rewe
▁da y
▁uka bona
▁bati geze
▁com muni
cyi zere
▁yuba tswe
▁iso ni
▁w’umun yarwanda
s so
▁ba sin
ru re
ru kanwa
▁bi ranga
bo nimana
▁ya huje
ban dani
▁ru gan
▁ma shyamba
▁n’i shyirahamwe
▁tu zaba
▁n’u mwanya
menye kane
▁nti mu
▁yo nyine
shyu ye
▁ry’i gi
herere kanya
▁kwan ga
▁vy’ ama
▁vy’ aba
cyi ciro
▁two vuga
▁compan y
x e
▁a subiza
▁ba kinyi
bo zo
ze rwa
▁ya shyizweho
ku bye
go rana
▁igi sata
▁ga re
▁ga sore
▁kuba ba
▁nta mbwe
▁rwa baye
reke ranye
▁kin o
▁sta ge
▁bwo roshye
▁ubwi korezi
▁y '
▁bwan yu
▁habi yambere
n dwa
▁i hari
▁i zoba
▁n kiko
gu ze
▁bi vanye
▁ya shimangiye
ro rera
▁aba cu
fa te
▁ama hoteli
▁n’i zo
gira kamaro
▁n’aba ganga
▁ko re
yeme rera
▁rwi za
▁w’ama gara
▁da ta
mwu ka
▁fu raha
the r
▁impa mya
▁ice gera
▁chur ch
a t
m byo
n ja
an da
▁i jo
te zwa
▁umu gaba
be nda
shi ke
▁wa sa
ce ce
▁iki garagara
▁cya je
▁twa gira
▁bita bira
▁ara saba
fatan we
▁jean ne
▁ada fite
▁as so
▁cy’in yama
▁ngaruka mwaka
▁sam sung
r yi
s per
▁a fi
▁k wose
▁ba rwayi
ge je
se ka
▁ya zo
▁mu gongo
▁mu yinga
▁r ra
be ka
▁ama sasu
han e
▁mi rwi
▁ri kuru
gani rwa
▁ra fiki
▁de muka
ter s
▁ara mutse
▁to p
▁jo ur
▁sta rs
▁is lam
▁umura peri
▁fil m
▁ndagi jimana
▁frano is
▁u bonye
mu bwira
re en
▁bi twara
ku ta
▁ama cakubiri
▁ka mwe
▁ubu so
▁n’i kindi
do u
▁mi hango
▁yi yungu
▁imi zi
on g
ca ca
▁du sanga
▁nti twa
▁sa fi
▁baga habwa
zuba kwa
▁ju ventus
suzu mwa
rusi ya
cye rekezo
▁kita renze
c yura
an yuma
▁i kunze
▁a shinzwe
▁a shirwa
▁u hagije
bi a
ki zi
▁umu lisa
▁umu kenyezi
▁ha vugwa
▁aba shumba
▁zi jya
▁za cu
▁ko ngerera
ani rwa
▁ho use
▁mo se
▁kuvu gururwa
▁nze ro
▁kwiba sira
ua rd
subu kurwa
▁wha tsapp
▁mire mire
i le
i kh
▁b yumweru
▁i tangwa
▁a shimira
▁ya taye
▁mu rimo
▁umu curuzi
▁ha korwa
▁ki geli
▁ru shashi
▁ibi ryo
▁n’i myenda
▁kwi yi
▁yi genga
▁uru ndi
▁rw’ akarere
▁rya tangiye
▁by’i mvura
▁ukwezi com
ra ya
▁a sabwa
▁a jejwe
▁n toki
▁u w’
ge ya
▁bi zoba
ku ko
ti rwa
mo ni
▁ama to
▁ma gare
▁uru byaro
▁n’aba gwanyi
▁wi geze
▁rwa gati
▁uku ba
▁y’a bana
baba rira
kurikira ho
▁cy’ama horo
▁bw’ama buye
▁gucu ngera
▁umwan zi
tani ye
▁kuzu za
▁ndamu kiza
▁demuka rasi
▁yiyungu rizo
m po
o p
ba girwa
▁u gamije
yo ye
▁bi banza
ki ranya
▁gu tangwa
▁ha tandukanye
de ration
du ku
▁n’i tangazamakuru
kan we
▁e st
biri za
garaga mbyo
▁nti wa
▁bata ba
mbu zi
▁hi p
▁kw’i zina
▁uza toza
▁au st
al th
▁peti t
▁i saga
▁u horaho
▁ba ririm
▁ba meze
za bu
▁m ine
▁ya tumi
vu giye
▁in yeshyamba
▁aba yoboke
▁gi hombo
▁im baga
▁kwi kingira
▁n’aba kunzi
▁ban yu
▁se ka
▁se rukira
▁nya benda
▁ci bitoke
▁bahu ngu
▁kuvu rwa
▁tura ba
▁c’i myaka
▁ngu zanyo
▁guku sanya
▁qu i
▁azwi ho
▁tho mas
▁gitu gutu
tandukan yije
▁nyu ndo
" "
▁i garagara
▁i vuye
▁a lly
▁k bc
▁n shaka
ri nzi
▁u rwanda
ye nyeri
▁ba ririmba
zi za
▁bu hamya
▁aba minisitiri
▁ki zo
▁ma to
▁n’u rwa
▁j ye
▁yo rk
jyan ywe
▁bite gura
▁z’i cyumweru
▁abanya furika
▁cy’u mwaka
serukira muco
▁un cle
▁ntaba kuze
▁i korwa
▁a tegerezwa
▁k ris
ge ranyo
▁ya boneyeho
si rwa
▁mi gwi
▁mun yonyo
▁aga saba
▁si mon
▁baka gira
▁ahan i
▁umunya -
▁eu gene
▁munye nyezi
▁muririm byi
l c
l de
y m
▁i se
▁i hanganye
▁i yobowe
▁a meze
ri sha
▁u ririmba
▁bi fashishije
▁gu fashwa
▁bu korwa
rwa ys
▁gi twaza
do uard
ni ka
pi mwa
▁ikin yarwanda
▁ngo rora
▁iza kina
▁kwa magana
▁jo han
taka je
▁n’uru kundo
▁ubwa mbere
▁ai rways
huti shwa
▁imbu nda
▁eco bank
▁ba twara
▁ku ne
▁mu zima
▁umu shoferi
ti c
▁ama tsinda
▁ibi banza
▁ka r
hi mbaza
gira mo
gwa ye
▁tu ndi
zu ka
ngu zama
▁ban yuranye
▁ca rd
▁yaba sabye
▁ye re
tegu riye
▁go r
poli tike
▁n’uru kiko
▁z’aba rundi
suzu gura
▁yahi shuye
▁nk’iki bazo
▁hare rimana
b yu
i vyo
▁a garagara
▁u li
▁ba giranye
▁ya shi
▁bu rwayi
▁bu rengerazuba
▁ama shyamba
▁re ro
▁kure bera
▁ibya vuye
▁z’a manyarwanda
toro she
▁k’i bi
▁biru ta
b re
▁ba tsinze
▁bi ciro
▁ya ro
▁in du
▁ha ti
▁ha bimana
▁gi lbert
ke kwaho
▁aga ha
▁ata za
▁rwa tangiye
subi je
▁pro sper
garu ra
hon se
▁kayi banda
▁guhi tana
▁habin eza
nguzama teka
c yubahiro
d de
s tan
▁b yuma
da ri
▁gu subi
ban ji
▁bu siness
▁in goro
▁ki m
▁zi mbabwe
▁igi ti
▁iki ciro
▁s co
biri bwa
man u
▁mo ko
teke rere
▁bihe mbo
herere za
▁afri que
▁ruhe ngeri
nni s
a ha
k wuba
▁i reme
▁i yindi
▁u gizwe
▁ba jejwe
▁c d
▁ya giriye
▁umu nezero
▁ha ku
▁gi tangaza
▁ru to
▁n’i shami
▁wa giye
▁kwi yandikisha
▁s cho
▁n’aba byeyi
▁co te
ji rira
▁bata zira
▁uku mva
aban yamahanga
guru tse
▁ci we
bibu tse
▁pho to
▁m’ubu rundi
a bo
▁a fatanyije
▁ya cyo
▁umu rundi
li ma
▁uru gwiro
riye ri
lo r
mbu tse
▁y’ama tora
▁so ya
▁kuza kina
▁n’uru za
rin gani
rin ganire
yumvi ra
▁es pe
▁bye rekana
▁san o
▁ivan gura
▁editor muhaburarw
m bwiye
we r
ta za
▁mu shobora
▁mu bano
▁r yan
mi u
▁ubu hinga
▁kwi zigamira
▁ga komeye
▁e qu
▁y’i bikorwa
▁twa bonye
▁twa sanze
subi tswe
▁abi sobanura
▁baha ri
▁me l
▁bira goye
▁b’aba kobwa
▁nsengi mana
▁bahise mo
iro bi
▁coa st
▁serukira muco
re kura
▁ku na
▁ku gendera
▁m ’u
shi p
sa vye
▁ha gende
▁n’i cyaha
▁n’a kazi
▁guha magara
lle r
▁bamu bwira
▁baku mva
▁villa ge
▁pic twitter
v re
▁ba jye
ru bozo
ti f
▁ubu nararibonye
▁zi shinzwe
cu n
▁bya gabanutse
shyi ga
▁n’u mwaka
▁n’aba ba
▁ic anyuma
▁ta lent
▁wi lli
▁n’aban yamahanga
▁de si
▁ikin i
▁y’aba kozi
▁iv y’
tangi rwa
▁y’umu ntu
▁kame mbe
▁ferwa cy
▁gusin ya
▁icyu ho
▁sun rise
▁sma rt
x y
▁ gore
😭 😭
▁u twa
▁u koresha
▁ba teganya
gu riro
▁ku to
▁bi twaye
he ro
mo to
ke le
▁ru re
hi ze
▁kwi tura
▁e me
▁yi tezwe
▁aka jagari
▁n’aba fatanyabikorwa
▁pa si
▁pe nali
▁bata bi
▁kumu bwira
▁baki ze
▁cla ver
tekereza ho
▁zan jye
▁B a
▁bizi mungu
▁ba tegetsi
▁ku gana
▁bi sobanura
▁bi sobanuye
ze rimana
▁ya hu
▁mu hi
▁mu rika
vu riro
hu beka
▁aba guzi
▁gi tera
▁gi shya
▁zi koreshwa
▁mi koro
ci ke
▁t ana
shimi we
▁cy’i terambere
▁w’umu kuru
▁to u
▁di dier
▁af ro
muga yo
hani tse
fashijwe mo
▁q hubeka
▁ibira yi
a bana
c hu
▁i koresha
▁a ran
▁ba fatwa
gu tse
▁ku bwa
▁umu rego
▁ru humuriza
gara rira
▁kwi vana
▁z ine
ca ye
ni or
▁n’aba je
▁ca mp
▁ra p
▁bata ye
▁n’in yungu
subi re
▁nu ko
▁mo ya
▁baga ruka
▁kubi ka
renga giza
▁kura ra
▁bw’aba turage
zihi we
▁yahi tanye
▁bru ce
ruba vu
c ke
▁a su
▁a shingiye
▁u fise
ta is
▁bi fata
▁bi fitiye
▁bi bandanya
▁ya jan
ki shijwe
▁r yose
▁bu su
▁aba shika
▁zi we
mbo la
▁cya tumye
▁ata ba
▁bara vuga
▁aha we
▁aha magarira
▁kwe reka
▁li l
tangi ranye
▁w’u mwaka
▁ubwi tabire
▁pro tais
goro fa
hani shwa
▁ibiza mini
▁yve tte
e st
▁i li
▁ba sobanu
▁ba teye
bo hora
▁bu rimo
▁ru zaba
▁ma kosa
▁wa vuze
▁kwi genga
bwa ga
▁imi renge
▁imi shahara
va l
ngu we
ve lo
▁aha garariye
▁by’i koranabuhanga
▁b’i gihugu
▁rw’i gi
▁z’ama dorali
▁komi seri
▁nka mbi
▁fu l
▁mada me
▁theo gene
▁a kandi
▁n kunda
ku zo
▁r ca
ti a
shi sho
▁ha shingiwe
▁ama guru
▁zi kwiye
▁zi turuka
▁na irobi
▁wa hariwe
▁ga caca
▁uru papuro
▁t pi
pa siteri
▁n’ama horo
▁de pite
▁bo u
shyu rira
▁biba ho
▁iha zabu
lin gi
▁udu ce
roko ka
▁ai me
▁ihe rutse
▁mwe se
▁yuba hiriza
m vya
u wo
▁i gwa
▁n umu
re myi
ye ri
ko mine
▁ba rya
za jya
te sha
▁mu saruro
mwe reka
▁ru byiniro
▁ma zina
▁wa kora
▁e mi
▁n’aba sore
▁cy’i mvura
▁yabi tangarije
mp ani
hangayi kishije
▁ijo si
▁i teganya
▁i genzura
▁a koze
▁n g
▁u wan
▁u keneye
▁ba citse
▁ba kurikiran
bu ke
▁ya kunzwe
be s
▁ama jambo
ke kwa
▁n’a yandi
▁kwi shimira
gen zo
▁ga ciro
▁e douard
▁yi gisha
▁yara maze
▁iv yaha
▁te re
▁yeme reye
twi ka
▁uda fite
▁baru sheho
▁yako ranye
▁cyu ho
▁apo tre
▁amase ti
▁ivo ry
▁cyc ling
▁tana sha
a vuga
▁a ruko
▁a hana
▁a th
ba zwa
▁ba garagara
▁ba gendeye
▁ya tangira
▁gu fa
▁bu ll
▁ha guye
▁aba tegetsi
gan ura
▁kwi mura
▁e to
▁f er
shu shanyo
hin di
▁w’i m
▁w’i ri
▁ban k
garaga rije
▁y’ama jyambere
▁iza tangira
vugwa ho
▁y’ibi runga
▁nka ho
bonera ho
▁agu kunda
▁yato we
▁sou th
▁rugan zu
▁espe rance
▁hagende we
▁n gengo
ga vu
ba ze
▁u koresheje
▁ba suye
▁bi jya
▁m vugo
▁ya serukiye
di cal
vu ta
▁ha da
▁ha bura
▁ama jana
▁ki du
kin ga
▁aban danya
▁mi cro
po ra
▁du shaka
▁wi fuza
▁nya mi
▁bo ngera
▁bite mewe
vuye mo
▁ubwi shingizi
▁bagera geza
mbaga za
▁ura vye
▁muru go
▁ry’ubu kungu
▁ivya vuye
rondo ro
▁bako ngera
▁ji mmy
yabu zima
▁imyan da
▁mwan zuro
▁twu mva
c en
d th
▁ 3
an t
▁u e
ka myo
▁ba rundi
▁ba gura
▁ba fatanyije
▁in i
▁in yarwanda
▁aba ya
▁ni ki
▁wi shwe
▁y’ubu hinzi
▁baha me
▁vi ta
er ry
▁ne mba
▁yitwa ye
▁fo to
rin dwa
▁mwu rire
tio na
▁new s
▁ali g
tandukani ro
tekerere ze
- con
ra hi
▁i hohoterwa
ba je
▁ba sha
▁ba bura
ze we
▁ya zi
si e
si ta
▁ha gomba
▁ru gira
▁ru pfu
han ye
▁igi humbi
▁wa shize
▁ga shumba
▁za idi
byi mana
▁aha za
▁gute mbagaza
▁yaha garitswe
▁n’imi korere
▁ci tiriwe
byin o
▁yuba tse
g b
u kuri
▁u menye
▁ku v
▁ku raba
ha med
▁ya shatse
▁mu byo
▁mu bare
ran da
▁gi tanga
kin g
bere ka
▁kwi fashisha
▁ni joro
▁tu ti
▁ri maze
▁wi dth
▁kwe gura
▁yara gize
▁man e
mp ama
ch ment
▁kuya kurikirana
▁ruku ta
fungi we
▁rwaka gara
▁kiru ndo
▁alig nali
d ra
f c
▁a rt
▁bi menyerewe
yu rwa
▁n’i ca
vi riye
▁tu bibutse
▁ri sanzwe
▁ho p
▁mo bile
▁uza jya
▁ida tta
▁nza ha
▁guke ka
▁documentgetelementbyi d
▁idatta chment
▁a curuza
▁ku renza
ta bwaho
▁bi o
▁bi kurikira
▁ya genewe
▁gu fatirwa
me le
hu re
▁aba di
▁aba rongoye
de ni
▁ama dorali
▁mi co
▁tu geze
▁yi shimira
▁imi rima
aba ri
▁nk’ abantu
▁w’i torero
▁b’ abanya
yeme ra
side nt
▁kubi gisha
▁biba fasha
▁mwa rimu
ganira ga
▁ishe ngero
▁yiru kanye
▁soma lia
▁phi li
hindagu rikire
▁alignali gnnone
ba zi
ba giye
▁u rwango
▁bi fashisha
▁mu tesi
▁gu soho
ti riye
▁ha fatwa
▁ma hia
ne w
▁im paka
le r
▁wa y
▁kuba tera
▁nk’ akarorero
▁ic yuma
▁cya rangiye
▁nya yo
▁yavuze ko
▁y’ubu seruko
▁ke vin
▁b’aba rundi
▁bw’umu renge
▁zin gana
▁ici riritse
▁munyan kindi
ryohe rwa
▁willi am
b wani
▁a yin
zi g
te mbere
▁bi du
▁gu si
ku boza
hu me
▁im fashanyo
▁w’ abanyarwanda
▁zi ja
▁kwi kura
▁mi dugudu
▁e rega
▁ri huza
▁cya teguwe
▁sa i
▁buri ya
▁n’in tara
▁nu r
▁mo ney
shyin gura
pfa soni
▁ana sta
▁by’ama shuri
▁guseze ra
▁n’aga hinda
▁ntamba myi
- la
z umu
ra co
▁i wu
▁i bura
▁a fatwa
▁u hita
▁ba ll
▁ba tangaza
▁bi banyi
▁bi kenewe
▁n’ indirimbo
▁gu sangira
ku mira
go s
go kuru
ban de
▁in jyana
sa be
▁ama sa
▁ru guru
nge za
▁tu ha
▁yi yongera
▁nta ban
ranga jwe
▁wi hariye
▁re pub
▁bata basha
▁n’in terahamwe
▁jo e
siga ranye
▁h ’
▁la pto
▁bin jira
▁y’in dege
▁rwi twa
▁fe sti
sivi li
▁musa byimana
▁kabe ho
tungani je
▁guho mba
▁baririm banye
g wani
j inya
re z
gi e
▁ba so
▁ba zanye
▁ya shakaga
▁mu vunyi
▁aba fatanyabikorwa
han tu
▁wa hawe
vi a
▁du bai
ji zwa
▁ye we
▁bahu rira
yamba rire
▁twabi tangarijwe
▁byeme we
▁kavu mu
p hi
▁ O
▁a ja
▁a twite
ru mogi
▁ya jya
▁ya kunze
▁mu toza
▁gu kurikira
de bu
▁ki dasanzwe
▁ubu suma
▁n’i cya
▁mi rima
▁ri giye
▁ri ca
▁s to
▁ko rana
▁muri co
▁ita bi
▁w’umu rwi
▁z’i cyunamo
rangi re
van wa
▁cyi swe
▁cy’u bwi
▁bato we
▁ar gen
▁nze yimana
yami rije
▁bica mu
▁yasubi je
▁nzaha bwani
▁nzahabwani mana
▁i jyanye
▁i fatanyije
▁n gara
▁u ya
mu rirwa
ko sora
▁ba kurikirana
▁ba rokotse
▁ba shobore
da mu
se nye
▁mu gesera
ho re
▁aba kundana
▁aba shakanye
▁ama sengesho
▁ubu cuti
▁kan da
▁mi shya
▁bya cu
▁y’i b
▁ri gira
▁ic yamamare
▁cy’i hinga
▁y’ama tegeko
garagaza ga
zama ra
▁so na
▁te nnis
▁by’ubu zima
▁bahe rutse
▁ndo li
▁yica ye
▁hegi tali
▁sal on
▁kunye reza
▁n’uwi twa
▁w’aka gari
▁bicamu mpaka
i ce
p tion
▁a mwi
▁n shikiranganji
gi ti
ka bije
te gwa
se mburo
▁gu komera
▁umu genzi
▁bu rezi
▁bu gamije
wan wa
▁ha te
▁aba zungu
▁ki jejwe
gan e
▁n’i mbonerakure
▁kwi ha
▁f fb
yin ya
hin a
▁n’u wu
shimi re
▁n’ubu shikiranganji
mbu to
▁te ch
▁n’ib in
win jira
▁bavuga ga
tangi rira
▁su dan
▁ju st
▁ura bona
▁ako ngera
▁ab du
▁asi gura
▁flo yd
▁alp ha
a da
s pa
▁i tegura
▁a kwi
▁ba yin
ban dwa
▁aba tara
▁gi shanga
▁kwi yubakira
▁ni vyo
cu za
va ga
▁w’i c
▁aga kingirizo
van o
▁abanya mu
▁ju ve
▁are na
▁mpan o
▁rira mbye
▁n’impu nzi
▁minist ries
▁kore ya
c tor
f rique
▁a rangije
▁u jye
mu ko
▁ku zoba
▁ya kan
▁ya size
si lamu
me ri
▁in tanga
▁aba curuza
ran ywe
▁ibi hangano
gen du
▁ri shingiye
▁aka to
▁yo nyene
▁nk’u wa
▁vya bo
▁bari ndwi
garagaye mo
▁rw’aba kobwa
▁bandi tse
▁tuyi senge
▁nubu ryo
▁y’aka gera
▁igitu rire
▁ruhu huma
pfi riye
▁kandida tire
x te
▁i ciye
▁n jyanama
mu ru
wa cu
▁ba ruwa
da shi
bu rg
▁bi korera
bo se
▁ya ki
▁umu shinjacyaha
vu bi
hu ko
▁bu ha
▁in eza
yan ye
▁ki lometero
▁ubu shyuhe
▁uru kingo
▁cya we
▁sa tani
▁sa mpu
fo ro
mbu we
▁ngo ro
▁he a
mine ga
▁com ment
▁at raco
▁she ikh
▁byan ze
pfuka mye
▁ite gamiye
▁ceca b
fan ya
▁2 0
▁atabi shaka
▁alo ys
▁sampu tu
▁a gezweho
ya huye
re kani
re bure
▁ba ririmbyi
ru ganda
▁bi gisha
ki a
▁in yu
▁ru geze
▁ibi reti
▁ka mu
▁ka biligi
ne li
men yo
▁tu jya
▁ri herereye
korwa ga
shobo tse
▁ic yumba
▁um wo
▁mo hamed
nal d
▁gushi gi
▁ser ge
▁yatu bwiye
▁gukin gira
ploma te
’ in
an ira
▁i gura
▁a do
▁n sengero
▁u hora
gu saba
▁bi ran
▁mu kozi
wi si
hu riza
▁ama banki
▁gi sanzwe
▁ki garagaza
▁ka bare
▁im ba
▁p r
▁zi mu
▁wa mbaye
▁kwi hangana
▁kwi fatira
▁bya we
▁iki rego
▁imi rire
▁y’i ryo
ni ck
▁v er
▁ata gi
▁iyi twa
▁biri nda
▁w’ubu curuzi
▁ndi zihiwe
stin da
▁azi ze
▁muza gira
▁biru mvikana
▁ami koro
▁manira kiza
▁penali ti
▁ue fa
o mba
ra ham
▁ba fasha
yi ka
▁mu kin
▁bu suma
▁n’i sabu
▁zi ti
▁na ku
▁bya ku
yobo rwa
▁ri tara
▁je we
▁nda hiro
▁y’aba tutsi
▁c’ aba
▁y’umu renge
sin gi
▁nk’i yo
▁byi basiye
▁w’u yu
▁bin ini
▁rw’i mi
▁sha ddy
mp le
▁ub wu
▁mpan ga
▁patri ots
▁itari ke
▁rika vuga
▁sindi mwo
spe l
▁mafi sango
n za
r st
▁i pa
▁a tekereza
ka rengane
▁ku ngu
se r
▁mu zungu
▁gu sobanura
▁in de
▁gi ta
▁ru shobora
▁ma sengesho
▁ka mpani
kin an
▁wa huje
▁bya fasha
▁ib rahi
▁du ha
gani je
▁bwa tangiye
▁mo ringa
▁gute mbera
rije ho
▁y’in goboka
▁b’i shirahamwe
▁cha mele
▁buru gume
▁buta gira
sengi mana
▁bare be
▁yahe mbwe
▁n’abi korera
rohe je
▁kuzu ra
i j
n s
▁k m
▁gu fu
si tani
ti mes
▁bu r
▁bu zaba
▁ka gabo
▁ubu genzacyaha
▁n’i suku
▁ni ger
▁e d
▁ri shobora
mbo ye
she ma
▁n’aba toza
▁ban i
▁ban yi
▁twa koze
▁bara maze
▁aha gije
▁nda gukunda
▁de velo
kiri ho
▁gute ga
▁ye rekeje
▁nyi gisho
ck y
▁muka minega
▁kun yura
▁inda ya
▁cy’ama shuri
▁kwica ra
▁nga ha
▁muti bagirana
▁n’abanya muryango
▁visi on
▁barcelo ne
▁kubo hora
▁jack son
▁confe deration
▁gaso gi
▁korana buhanga
t v
▁i kwirakwizwa
▁ku yo
ta yeho
yi ko
▁ya bonetse
▁bu tuma
▁aba bwira
▁ama funguro
▁ma hano
▁w’ ejo
▁kan gana
kaba hizi
▁imi yoborere
▁w’i mbonerakure
▁sa sa
kuriki zi
▁bata ha
▁yan ka
▁me dia
▁li bya
▁yakore shejwe
▁rwi gamba
▁mugi raneza
▁ina raribonye
mpan o
▁nki kabahizi
▁ame rica
▁mr nd
a ce
ko man
▁ba ro
▁ba fungiye
▁mu hire
di ka
▁umu hanga
ti je
ti ent
▁bu hinga
▁aba bu
de s
▁ama dini
twa we
▁e r
co me
hin gura
jya mo
▁v daste
▁pa ci
▁re gi
ju ma
▁can cer
▁uta zi
▁mwa mi
▁icyo ngereza
▁bon yene
▁nico de
shyikiri jwe
▁n’imyi twarire
rtu gal
▁ful gence
▁i torwa
▁u k
sh wana
▁ba vandimwe
▁ba kwiriye
▁ku be
▁bi hura
▁ya tsinda
▁mu kandida
▁ha ru
▁im bwa
▁kwi garagaza
▁tu ru
yobo ka
▁imi rwano
▁imi rambo
pe ti
▁aga ruka
mwi merere
▁twi zeye
mama re
▁thi erry
▁oba ma
▁juve nal
- fi
i ka
t sura
▁a seze
ga kwiye
re mwa
gi rango
we za
▁ba kura
▁ba cye
▁ya fashijwe
▁in ke
▁aba gi
▁aba tanga
▁gi tekerezo
to rs
▁ibi ha
▁ubu kana
fi que
▁na je
▁aban duye
▁yi taba
▁yi yamirije
▁imi sozi
▁n’aba yi
menye kanisha
▁ca lli
▁nu mwe
twe re
▁y’a furika
▁byi bura
▁ci twa
▁mwa limu
yandi ka
▁mw’i banga
▁nke ngero
▁gushi man
▁ruta bana
▁mwe ne
▁c’u rwanda
rohe ye
2 0
t zig
u mwe
▁b yumba
ra ga
▁k ini
▁n tebe
▁u kwo
ka ta
▁ba tana
▁ba shumba
ru rwa
ta bare
▁ya bonaga
ro za
▁gu kubita
▁gi taha
▁ibi hingwa
▁ka banda
▁yi fashishije
▁y’i yo
▁ri nini
▁f dd
mbi rwa
▁aga banuka
▁aga toki
▁rwa we
▁ry’ abanyarwanda
▁o u
▁buri ri
▁de o
▁ho n
▁uwa mu
▁icyi fuzo
▁ab raham
▁yiru kana
▁bea ch
c r
n u
▁a zamu
▁k ha
ba ro
we ri
ge ma
▁bi tandatu
▁bi tangwa
▁bi gezweho
▁m baraga
▁ya gerageje
▁umu sirikare
▁ha tari
hi ga
▁zi zi
▁kan yankore
ndi ka
▁f ren
co r
▁n’aba sirikare
▁co rona
▁y’ubu fatanye
▁an ani
▁w’umu tekano
▁kubi tsa
▁li bera
tin yuka
tyo za
van ze
▁go spel
▁ntiba gire
▁kare geya
▁mar ce
▁giti fu
▁by’a furika
▁indo rerezi
▁ntiha gire
▁tubamenyeshe ko
▁b yin
▁i serukiramuco
ge yo
▁bi ko
▁bi fitanye
ban tu
▁bu mu
▁bu mvise
▁ha tangiye
▁n’i si
▁uru gaga
▁f m
▁f ent
ruka ga
▁nda bi
▁baza kora
▁kuru shinga
kina ga
▁yaha garitse
▁by’i gihugu
baba re
▁utu ruka
▁mw’i si
ven ue
▁y’igi sirikare
▁uhe ruka
▁pascal ine
▁inzi tizi
▁hazaba ho
▁kumbu re
▁diyose zi
▁ubuzi ranenge
▁pictwitter com
▁i bara
▁n gomba
ki bi
si gura
me jwe
▁aba saga
▁gi hari
▁ru rimo
▁ibi korerwa
▁n’i mbaraga
▁w’i yo
man ywa
▁pa tient
▁twa hirwa
▁baka ya
shije ho
▁w’umu ryango
dan e
▁ry’i bwirizwa
▁do mini
▁batu ranye
▁batu ranyi
taka ye
▁kiri ngo
▁ju les
▁koro ra
▁you th
sti tu
▁bagu ze
▁mala wi
▁ryeme jwe
▁n’ingu vu
▁impamya bumenyi
▁a zira
▁a fungura
ka mere
▁ku rira
ta yu
▁ya kiriwe
▁mu gera
▁ka zo
le a
▁aban yama
▁mi riyari
▁bya zamutse
▁um wanda
▁w’i shuri
▁za tangiye
man de
▁cya kora
▁n’ubu hinzi
▁y’umu kobwa
▁kur yama
rani sha
yanga mugayo
▁kuva mo
▁mwu ka
yamba je
▁mada gas
▁tw’ ama
▁biyi gize
▁tur qu
▁impe ta
n l
p hine
y ri
▁a ve
ko pi
ru za
yo mo
▁bi vu
he li
yan dura
to je
▁ru tunganya
▁ru nani
▁ka bera
vi s
▁y’i cyo
▁s p
▁rwa cu
ren t
▁ara tangaza
▁y’aba gize
▁te kini
▁kubi vuga
▁do nald
▁vya ra
▁kubu za
▁y’ibi humbi
▁K a
▁n’im pan
▁niyon kuru
bibu tsa
▁H abari
garutse ho
▁ivya tumye
▁rira ma
shikiriza manza
▁umuririmbyi kazi
▁rwaga sore
▁anasta se
▁burugume sitiri
▁a gerageza
▁n sanganyamatsiko
▁u win
re bwa
▁ba zamu
▁ba shika
▁ba riyeri
▁ku ntu
▁ya ke
▁ya sohotse
si tora
▁aba hi
▁aba turarwanda
▁kan yu
▁na tional
▁na than
▁wa vuye
▁mi gi
▁kuba kira
▁yi twara
▁f ina
▁nta mu
▁za tumye
▁co r
▁mun yuma
▁wi teze
▁y’aba kobwa
▁me ga
▁nk’i yi
mwa sa
zani ye
▁ingu rane
▁k’u ru
▁guhe mba
▁kub w’
▁olympi que
▁aman de
▁ly ce
▁kwito reza
juri rira
non ci
▁rurangi rwa
l on
r su
▁ yine
ye nzi
ru di
ge ranye
▁bi hari
ke ko
▁zi tera
▁tu be
▁iki renge
▁ri zo
hin yuzwa
tera ga
▁n’ama hirwe
▁bita ga
shyu shya
▁fa ki
▁twi zerimana
▁cye ra
▁vyo hava
▁ry’u rwaruka
▁bagi fite
▁vy’i tora
rungi kwa
kubwa bo
▁a bonwa
sh ywe
▁ya zanye
▁mu renzi
▁umu gabane
vu ge
he rwe
▁ru bi
so be
so na
▁n’i modoka
▁kwi toza
▁bya teye
▁ib ye
nga kamere
▁n’aba rundi
▁y’u wo
▁re v
▁n’in zobere
▁yara yi
▁baga komeza
▁so gokuru
▁kugi rira
▁rwi haye
▁w’ama shanyarazi
shyin gi
giri tse
▁hakaba ho
tere rano
▁bahe reye
▁wamu fashije
▁mbo nyi
tandukani je
▁que en
▁umuke ba
▁gushiman gira
g m
g re
g han
o su
s c
▁ gan
▁i shure
▁u kwe
▁u rwaye
gi zwa
▁ya funguye
▁ya soje
▁gu kundwa
▁ama bere
▁gi fu
▁ki kaza
▁ru sho
du tangarije
kan ira
▁kwi yu
▁kwi garurira
▁tu gira
▁yi yamamaza
▁f in
kwi za
ji jo
▁gusa mbura
▁baka rondera
▁baha tuye
▁guha gararira
▁baga rutse
▁byi yongera
▁b’i kipe
▁banki we
▁kuzi tabira
▁buju ra
▁cy’ama faranga
▁fran ce
▁en ter
▁vy’ ubu
▁muru kino
▁gusu mba
▁nawe ne
▁samura gwa
▁develo p
’ ama
ma horo
▁ba zira
ta r
▁bi koreshwa
▁r ba
ti me
▁gi kondo
▁mi tungo
▁yi shyura
▁n’aba fite
▁co ge
▁bwa giye
▁n’ama guru
▁n’ama shanyarazi
▁bata gi
▁li fe
rasi re
▁atu rutse
▁niyon saba
▁bw’umu ryango
▁mari ne
▁madagas car
c ani
l ya
▁ shure
▁i ho
▁a bonana
▁a fungiye
ba mwe
▁bi menyeshamakuru
▁bi hangano
bo ur
▁ya gejeje
he nda
▁igi tuma
▁gusa mbanya
▁ata mu
shya mi
▁bara ha
▁bata bona
▁yan en
▁rya kozwe
▁kuru huka
▁yaba bwiye
▁bwi huse
▁vya je
▁ro bo
▁muha bura
▁bida kwiye
erre s
▁at letico
▁n’uwa ri
▁bakaza jya
rwana ho
▁kweme zwa
kris tu
▁afi rika
kwuba huka
▁samuragwa ’
▁develop ment
i riza
l k
▁i tandukaniro
▁a zana
▁a teganya
▁u be
▁ku boneza
tu reka
yi sha
▁bi koresha
▁bi buga
se ma
▁ya gaban
tan ti
▁ha kozwe
mo so
▁igi te
▁igi sigaye
▁wa ririmbye
▁kwi bohora
vi o
▁y’i cyiciro
▁ri korera
▁ri gamije
ca rubozo
▁n’u gu
▁je nda
▁bw’ abanyarwanda
▁ata ha
▁be mera
▁kuri ha
▁do siye
kungu ka
▁twi gire
▁ubwi herero
▁kuvu guruza
▁cye rekezo
▁ana vuga
subira mo
▁cy’in genzi
▁guse nywa
▁mura yo
▁ben ja
▁pla y
▁ibyi ciro
▁y’iki go
▁pac cy
▁gica munsi
▁rute mbe
▁ngorora mubiri
n ham
▁ ,
▁ shoferi
▁i ke
▁i tegurwa
▁n shobora
ba ji
ba gura
▁u kwa
▁ba ze
▁ba hanganye
gu a
▁bi jyana
▁m va
▁ya kuye
▁mu kwi
▁bu gera
▁ha kwiye
▁ama he
ke ro
▁ru ban
gan yije
▁ubu shize
▁zi gomba
▁zi tangwa
▁wa ru
▁ga la
▁ga tera
she ge
ni ye
▁mun tara
▁n’ubu kerarugendo
▁nda shimira
▁bita baye
▁bite kerezo
▁byi buze
▁cyi hariye
▁iwa yo
▁gace rere
▁kari ya
hani rwa
▁yagu manye
▁yato rerwa
▁R wanda
haza bu
generwa bikorwa
bandani je
▁festi val
gwani sho
▁fren ch
▁a di
▁n sanga
▁n geso
ba siwe
▁u je
ma rira
▁ba do
▁ba buze
ta bwa
yi rizwa
▁mu kora
di te
▁r yiza
vu guru
▁bu tege
mo ur
▁ka buga
▁zi tanga
▁ni vya
zu re
▁bya tanzwe
▁bya vuzwe
▁aka rwi
▁co co
▁ta ble
▁nti zi
koresha ga
▁abi gisha
▁kumu bona
▁di e
▁sta tion
rani jwe
fungu we
▁uba rizwa
kubi swe
▁w’aba turage
▁haki yongeraho
zengu rutse
tangu je
banzi riza
b ra
m fura
▁i funguro
▁a k
▁u huza
▁ba gana
da shyikirwa
▁bi en
▁ya rangiye
ro me
▁gu tinda
▁umu ta
ti que
▁bu twarwa
▁bu kinan
he mba
▁ama dolari
▁ru giye
▁ma gendu
▁ka lin
▁zi tatu
▁wa ryo
▁mi to
▁tu rebe
▁imi gwi
▁ib yari
▁n’aba polisi
▁ca koze
▁d c
kuriki rane
▁nda shaka
fata buguzi
rya mana
▁to mbola
▁li erres
▁ci caro
zere we
▁bika bije
▁uka bi
▁utu ndi
▁kuzi rikana
▁indi mi
▁ry’aba tavuga
▁nza bonimana
▁zan yu
▁rw’ubu zima
▁ibice ri
ngani zi
sese ngu
▁yasa vye
▁y’imyi yerekano
▁uwe ra
▁yashi kanye
▁bukinan yana
b intu
s ’
z y
▁ Z
▁ ter
ye jana
in genzi
▁ku gurishwa
▁bi kan
▁gu stinda
si si
▁bu tara
▁in tin
▁aba she
zo ngere
▁kwi ra
▁ga b
▁ni mwe
▁mi ster
vi d-
biri gi
riye ho
▁se ason
▁baza ha
▁ye gukana
▁twi fashishije
vugwa ga
▁bin yamakuru
▁iha magarira
▁y’in gengo
▁uta gira
▁baki baza
▁ke retse
▁kiza jya
▁z’aba sirikare
▁ukun zwe
▁rw’ubu genzacyaha
▁n’abanya politiki
▁umusa za
▁mp ana
▁calli xte
twere rane
an ga
▁a korana
▁a hinduye
▁n ye
ri ngi
ko rano
tu mwe
bu genewe
▁bi shyu
▁mu kinyi
▁r t
▁bu yapani
▁aba hutu
▁ki toroshe
▁ru ti
▁ibi sasu
▁na koze
cu ngira
▁tu nenge
zu kuru
▁hari ko
▁imi sa
▁aka ga
▁za vuye
▁sa idi
▁bata zo
▁n’ubu renganzira
guru kira
▁be l
▁baga shiraho
▁bakaba sha
tangi we
▁bw’i banze
▁twi bonekeje
▁ira shobora
▁nshya shya
lla h
▁bw’in dege
reme re
▁b’in zego
▁maso mo
hwe zo
▁mpi ta
▁inyi go
▁gike nye
▁busu wisi
ra yi
▁a kin
▁a jye
▁a tangiye
▁n dan
ga je
gu nge
▁ku beshya
y’ ubu
▁r pa
▁umu tutsi
ti rira
▁aba sigajwe
li m
▁ma te
▁ka co
▁n’i za
▁zi gira
nge rerwa
▁nta zi
▁gihe rereye
▁n’aba sivile
▁du ke
▁aga he
▁bwa shimye
▁po rtugal
▁n’in gamba
▁baka ha
▁vi p
▁kwa ri
siga je
▁y’umu jyi
▁w’ama faranga
▁z’u ko
▁ntiba bi
▁muka ru
sta che
▁lo dge
▁nyira ma
▁ina ha
▁b’umu pira
▁ikiza mini
▁tw’i gihugu
rp ong
▁ahani shwa
f in
v yun
▁ba c
▁ku gondo
tu ka
bu ryo
▁bi rangira
▁c sk
▁mu vyo
▁in tore
gan we
so jwe
▁n’i hazabu
▁wa maze
▁wa yoboye
▁kwi jana
▁e -
▁bya geze
▁uru muri
▁s ty
▁n’u kura
▁w’i cyumweru
▁yara bonanye
▁rya koresheje
▁abi hweza
▁y’aba citse
▁y’umu nsi
▁k’ aba
▁icya tumye
taba riza
▁ntiba fise
▁guta hukana
▁bato ye
▁umwi hwezo
▁mura sabwa
▁umunya merika
danda ji
▁gucu kura
▁guhu vya
▁gutu nga
▁y’aka zi
▁kubya za
▁bro wn
lique z
banji rije
ringani za
▁ayin gwe
▁fent rec
d ro
s tsi
▁i teye
ga tatu
▁u ze
gi ta
▁umu sivile
▁ha su
▁gi ha
tse mba
le nge
▁wa vu
▁wa rangiye
▁kwi ye
▁ni ryo
tanga riza
▁uru n
▁nta boneke
▁s wa
▁gihe mbo
po r
▁ca re
▁n’umu sivile
▁rwa bi
▁rwa bereye
▁re rou
▁aha kana
▁muri bi
rya yo
▁baga hita
nd we
▁bahu nga
▁abanya mi
▁kame nge
▁impu guke
▁ai m
▁cy’ama tegeko
▁nyira mu
▁yagu ze
▁ruda hagije
▁mukan goga
shyikiri je
gezwa ho
▁rwaga ju
▁uzamu kunda
▁benja min
▁intin zi
a rs
ba fasha
▁u tanga
▁ba fashwa
▁bi hu
▁bi shingiye
▁ya fata
▁ya mwi
sa zi
▁gi shike
▁ru be
hi ri
▁kwi ma
▁ari teze
▁ic enda
▁yo kwubahuka
▁b’ a
▁n’ubu tumwa
ine s
mbu re
▁be gukanye
▁rya garutse
▁ahan zwe
▁twi bande
▁biza genda
▁cyi ta
kubi twa
▁ziri ya
▁rwan gombwa
▁ivya hora
▁ici tegererezo
▁wose ’
▁bizo tumwa
mwan ka
▁br b
▁tpi r
▁libera t
vyun yura
▁kugondo za
g ba
u ran
▁a shigikiye
wa mwi
▁ba shi
▁ba reba
▁ba garagaye
tu mba
▁ya byi
▁ya mbara
▁ya turutse
▁umu camanza
▁bu gezweho
▁bu hagaze
▁ama hinduka
▁ibi taye
▁zi haye
▁na o
▁wa byo
▁kwi terambere
▁ari twara
▁y’i hinduka
▁ri shya
▁v yu
▁du sanzwe
▁aga higo
bye meza
▁sa rpong
▁rya shatse
▁baba tabare
baba ro
▁nyama buye
▁ro ho
▁icyi caro
▁bati teze
▁rw’ubu kene
▁ruda hunga
▁bon yine
▁ate gamiye
▁ste ve
▁ruku mbi
▁k’ama faranga
▁igu mane
▁chri stine
▁ukan gisha
▁yabo ’
▁scien ces
▁abadi plomate
▁mukin do
m vye
▁i tsindwa
▁a gondo
▁k waka
mu ke
▁ba kira
▁ba bonan
▁ku yine
▁bi shirwa
▁bi hweza
▁m pfumu
▁gu tegereza
▁umu fasha
▁umu kandida
▁ha zi
▁ha bereye
▁ha rungikwa
fa cebook
ke muka
umu sivi
kan gu
▁wa rushi
san giza
▁ga pfukamye
▁e kele
zu ma
▁bya maze
▁iki vyunyura
yama iriza
▁n’aba mushize
▁n’aba kurikizi
▁ca mushize
▁twa vuze
▁by’ akarere
▁bwa takaye
▁yo shaka
▁d juma
▁n’in tureka
▁nda ’
▁uku ringaniza
▁y’ubu gande
▁gukora ivyo
▁jo s
▁kure ra
▁bw’i gi
▁g ym
▁ubwo nko
▁man de
▁ubwi genga
komoka mwo
▁iterambere ’
▁gisa ka
▁abo rohereza
▁yana vuze
▁udu pfukamunwa
▁yari tandukanije
▁afrika au
▁n’im pamvu
▁bitu niye
▁kira mwanka
reme sha
▁wiwe ’
tumi wemo
▁izo kwerekana
▁buba tse
▁wara shizwe
▁nk’aba girizwa
▁baya rorera
▁bizo kwo
▁kumwi giza
▁nshingamateka umusivi
▁rwara duze
▁y’abi yamairiza
▁kunye geze
▁yamaho ’
▁samura rwa
▁ruge rero
▁yokwi tegwa
▁n’abaje nerali
▁ivyaha hora
▁kuv yura
▁kuyakurikirana ’
▁n’ica guye
▁iwu komokamwo
▁gushigi kira
keko ’
▁sogokuru ’
▁rusho mereye
▁butege stsi
▁n’ukura bana
▁n’umusivile ’
▁rerou wamwi
▁ibitaye ga
▁agondo zwa
▁babonan ko
▁kuyine bagura
▁mpfumu keko’
▁warushi rijeho
▁ekele ziya
▁n’abamushize ho
▁gukoraivyo tuma
▁bizokwo rohera
▁nshingamatekaumusivi vile
▁yokwitegwa ko
▁rerouwamwi tangiye
f fi
▁ gerageza
▁i twaye
mu ye
gu rika
▁c li
ku li
▁ama cumbi
li an
▁gi fasha
▁ru gomba
▁zi ki
▁zi je
▁wa ma
▁wa ko
▁ni shimwe
▁kuba mo
po s
▁le one
ve s
▁nya byo
▁n’ibi ganiro
▁jean -
▁so ur
▁al ine
maga we
▁bida tinze
koro ni
hwe ma
▁cy ber
▁asi mbuye
▁bica ye
▁ii i
k wu
v ani
▁n d
sh yo
▁ba ja
▁ba kangurira
me zwa
hu r
▁bu tinyanka
mi koro
▁aba ru
de e
▁ama kungu
▁n’i mvu
▁zi fata
do zi
▁yi yongereye
▁uru hara
▁ic yangombwa
▁w’i kinyamakuru
▁ban ywanyi
▁aga habwa
▁pa ra
▁nti ri
▁yo hani
▁d ji
▁bo ngeye
▁baha ti
sobanu kiwe
▁yaba jijwe
▁mpu nzi
siga ro
▁g reen
▁ugu shaka
▁fi dele
▁w’ubu raya
▁wu juje
▁kuvu gisha
▁pro gram
▁gicu ti
▁nk’umu n
▁U bu
▁z’aba turage
▁nk’a ya
▁kwan giza
▁kuta bona
▁y’uru pfu
▁guhi ga
▁n’umun yamakuru
▁noel la
▁yasin ye
mure myi
▁ije rekani
▁aust ralia
▁ntaban duka
▁lapto p
▁a van
ri en
▁ba zana
▁c p
ro she
▁umu yaga
▁bu ti
sa l
de he
ran gura
gan je
▁ma banki
▁ma kimbirane
▁ubu cukuzi
▁n’i vyo
▁zi vuye
▁n’u du
▁du koresha
▁wi tabiriwe
▁pe ace
▁d ja
fo rd
▁bwi sungane
▁kw’i shure
▁ndi mo
▁bika mu
▁guta bara
ven u
▁jose e
▁y’igi curi
▁lu c
▁guto rwa
▁dieudon n
▁chamele one
l m
t wan
▁b y
▁i korana
▁a teka
▁a tin
ga ju
▁ku rwego
tu ku
▁bi garagazwa
▁m papuro
▁ya shikirije
▁r yu
▁umu maro
▁umu shumba
▁bu cumi
▁in ve
du ma
nge reye
▁wa zo
▁mi sigaro
▁co o
▁po p
kuriki zwa
▁ngo rane
gere ranyo
▁su gira
kubi yemo
▁bigo ranye
▁gucu ranga
▁pas tor
▁par ta
▁qu bec
daga ro
yabu pfura
subiri ra
f fe
ra h
▁i rusha
▁i gendanwa
▁a shoboye
▁ba bo
ta renza
bi an
▁bi shyimbo
▁ya tuma
▁ya tsindiye
▁mu so
▁umu ga
▁in d
mi c
yan si
▁ru jya
▁ka bone
▁wa tu
▁wa hinze
▁ga r
ci e
▁ri zwi
▁n’aba shoramari
▁w’i mi
▁le on
▁wi tabiriye
▁bwa byo
▁bwa tanzwe
▁baka gera
▁baba rirwa
▁n’imi yoborere
▁man zi
rani shwa
▁ubwa we
▁kuzi gama
▁htt p
kuri yo
▁inko ko
byin nyi
▁koro hereza
▁w’igi curi
▁bike kwa
▁nyiri zina
▁by’ibi shyimbo
▁kuran dura
▁abase nateri
hume kero
i fa
m b
▁ tanu
▁a reba
▁n kurikiye
ba kira
▁u kana
wa ri
▁ba generwa
▁ku yinywa
▁ha tara
▁aba je
▁n’i z
mba rwa
▁y’i mbere
▁nta ri
nga l
▁n’u ku
ngu ranye
▁v ane
▁cya hoze
▁o bed
▁n’ama jwi
guru be
▁yara giye
er ra
tangi zwa
▁y’umu co
▁ndayi saba
▁cyi lima
▁da i
▁mwa ri
wandi kiye
▁uni que
▁w '
▁bivugwa ko
▁k’u kuboza
▁ake ka
▁tha dde
▁kama buye
hangayi kishijwe
▁igitu tu
▁imbi be
▁kabu rimbo
▁sindi kubwabo
▁alp honse
▁w’aga teganyo
g s
o ise
▁a tyo
▁u gana
ye ro
▁ba fatanya
▁ba shimye
▁ba korewe
ru kanye
ro id
▁bu to
▁ha zo
▁aba mi
▁aba habwa
gan zo
▁ka manzi
umu gore
vuga ho
▁kan wa
fu rije
▁kuba hirizwa
▁bya fashwe
▁imi banire
ndi ra
shu he
▁nk ana
▁nta yo
▁s tro
ni mpa
no ze
▁n’aba pfakazi
▁za baye
▁se con
▁n’umu hungu
pi tal
▁sa fa
ve stre
ani ye
▁ho ba
tiri rwa
▁bite ro
rd c
▁kure kurwa
▁byi tezwe
▁haba ga
▁mw’i tangazo
▁by’umu ganda
▁muti jima
▁ani ta
▁kwivu riza
▁kwama mara
▁turqu oise
w ca
y lor
▁i meze
▁a shikiriza
ba hiriza
▁u s
▁u tuma
▁ba hitamo
▁bi je
▁bi bwa
▁bi zamu
ro ha
ki mwe
go ogle
▁umu zi
▁umu riyoni
▁ha vu
▁aba bo
▁aba gororwa
▁ama bi
▁gi terwa
▁ki el
▁ma ry
▁ka rangwa
so ye
▁na vuga
▁ga si
▁ga spa
▁cyan gugu
▁iki bi
ndi ro
▁y’i shuri
▁f nl
▁sa ba
▁ara shaka
fatan ywe
▁y’ama horo
▁aza bi
▁k’ a
▁y’a ga
▁ja df
van gura
rie l
▁wu batse
sta uran
maga zine
▁bajya ga
▁azo kwi
▁par k
▁ethiopi e
▁bubi ko
dashi an
▁ba koreye
gu zwe
▁ya shinzwe
▁mu curuzi
▁gu pfu
tan wa
▁in garagu
▁in stitu
▁ru ju
▁ka ruko
▁zi tu
▁igi ze
su mo
▁e ddy
▁tu kiri
▁y’i ri
▁y’u rugendo
ji ji
▁aga sanga
▁nya mwasa
▁bite ze
▁guha tana
▁ye nda
▁babi zi
▁biza fasha
▁hu riro
▁y’in tara
▁iri ko
▁ada kwiye
▁amu saba
kinira ga
▁au di
▁umwi gisha
▁ti me
gendera ho
▁guhu rira
▁nshimi rimana
▁chan tal
line s
▁cou p
foro mo
▁paci fique
lya yo
▁i go
▁i sesengura
▁a kurikirwa
▁n se
▁u habwa
▁u kurikije
▁u sengimana
gi ne
▁ba garaga
▁ba ck
▁ba cika
yo bera
▁bi reba
▁bi pimo
▁mu ho
▁gu taramira
vu gisha
ho mba
▁bu s
▁zi twa
▁bya za
▁nde rere
▁iki remwa
▁imi genderanire
hin guriro
▁n’u mwami
pa tanti
▁v en
▁du sin
▁twa tangiye
▁bara cya
▁d cor
▁kwe gereza
zamu ye
▁baha ranira
nde ri
▁mpu ngenge
mwi ca
▁b’i yi
▁bamu saba
▁nyama swa
▁z’u ku
shyin gurwa
bin jira
▁n’ubwi tabire
▁isan duku
▁victo ry
rushi mana
▁parta ger
▁gaspa rd
f rica
g wan
j ama
t to
▁b oni
▁a ze
▁a bura
▁u -
▁u koze
ma rtin
ru ke
yi sumbuye
bu hamya
▁m bonye
▁ya ga
wi twa
si fuzi
▁umu jinya
▁ibi ba
▁zi zwi
▁ga ta
rere kana
▁n’aba turanyi
▁ban yuze
▁ko ra
pi misha
▁rw’ abantu
▁aha sanzwe
▁be me
▁baga sanga
mwi jima
▁la bora
▁yabi garutseho
▁uka bije
kani je
hagara riwe
▁gushyira mo
▁em my
▁U mu
▁ziza komeza
▁by’umu biri
▁kub w’i
▁akan tu
cia tion
▁inyo ta
▁kar dashian
- e
- u
k y
m me
sh wanwa
▁ba rana
▁ba ganga
zi ryayo
▁ya gira
▁ya kora
▁ya tangajwe
di c
me dical
ti er
be at
shi mana
▁ha shyizweho
▁aba giye
▁aba vyeyi
he ranwa
▁ibi s
▁kwi hanganira
▁kwi rukana
▁s ngal
▁aka rorero
▁aka rengane
menye ra
▁j -ki
▁ca ha
▁n’umu vugizi
shimi shwa
▁twa maze
▁po ri
▁buri ho
▁uku menya
▁kumu baza
▁fa tizo
▁batu riye
▁bari fuza
▁w’ubu shoferi
guri re
garu riye
yamama riza
reme reye
▁y wca
tumi re
▁ac tis
shyiki rano
▁nimu goroba
ganyi ka
▁mode m
ronke jwe
▁ntawu kuli
▁abakunda kawa
▁indanga gaciro
▁kubaba rira
▁m’u rugamba
▁ngara mbe
▁rutembe sa
▁fentrec liquez
▁karuko go
▁nderere he
▁j-ki d
▁ntawukuli lyayo
h wanye
▁a bone
te zweho
bu ri
▁bi curuzwa
▁bi hagaze
▁ya tunguye
▁umu gani
▁bu ki
▁in kingi
▁aba hoze
▁ubu su
▁zi shyirwa
su ka
▁bya turutse
▁bya garutsweho
nga yire
▁rwa yo
▁bwa rwo
▁rya baye
▁hi ciwe
▁yu hi
▁biza bera
rwan ye
▁cy’ama zi
😂😂 😂
gerage zwa
▁win do
n gwe
t ney
▁i shingiro
▁i sengesho
▁u rya
bi sha
▁mu pen
ku geza
▁umu pfasoni
▁bu t
▁bu zi
▁bu roko
▁ama rira
▁ibi gwanisho
▁na kwi
▁bya mamare
▁y’i soko
▁w’i shirahamwe
▁w’i shyaka
▁cya tanzwe
▁n’ama zu
▁bata hu
▁nda bona
yon yine
▁be meje
▁guha garikwa
▁vya shikirijwe
▁by’u rukundo
▁wan ge
▁bada shobora
herere kane
lan de
▁myi twarire
▁yifuza ga
pfi ra
▁gushyin gura
▁myan dagaro
zumu remyi
▁repub lika
▁abdu l
▁ibrahi m
▁vane ssa
s me
u ma
▁a cibwa
▁u saba
mu nezero
ma tegeko
▁ba funzwe
▁ya fashije
▁r gb
ti e
mi de
zo ka
▁zi hari
▁wa mbere
▁kwi rebera
gen dwa
▁cyan jye
ca ption
▁bw’ aka
▁n’umu kinyi
pi ki
▁bwa je
▁re ma
▁bara ra
▁mini sante
guru kiye
▁be rekeje
rt h
▁y’aba zize
sobanu rwa
▁me r
▁jo ro
▁ye gereye
pr c
sirika ri
rengan ya
▁ibya bo
wandi kira
myi dagaduro
cya ro
▁lu anda
▁san t
▁y’im yuga
kundi ro
▁ubwe negihugu
▁mari ya
▁inzi butso
▁rama d
magazine com
O T
▁a shima
ri ne
ga gi
ya gize
ka tiwe
▁ba zin
▁ba tinya
▁ku bwi
ta ire
▁mu l
si tion
me ne
▁umu toni
▁bu shoboka
▁ha gira
he rekeza
▁ama karita
▁gi sigaye
▁ki gizwe
to rera
▁n’i soko
▁n’i mvura
▁igi koresho
▁na co
gwa mo
▁bya gezweho
▁yi yahuye
rere si
po rts
▁n’in dege
▁cy’i minsi
▁spo r
▁bwi hariye
▁bw’i koranabuhanga
▁yeme we
▁man ywa
▁yandi ka
fatwa ga
▁ryi tabiriwe
vo ka
▁umwa mbaro
shishika rije
kundi sha
▁yabu riye
▁produ cer
tain ment
▁ruban gura
ra ge
▁i zamuka
▁a pfa
▁n tekereza
▁ba rushaho
▁bi hano
▁bi ziyaremye
▁c te
▁mu gomba
▁gu shimisha
be merera
mi si
▁aba dandaza
yan duye
▁gi teye
▁ubu jurire
kan ywa
gen danye
mbi tswe
▁za je
▁cya bi
gani ye
▁yo se
▁bwi shyura
▁kugi rwa
can e
▁nku si
twi kira
▁tura bi
hara ge
vo ma
▁ur w’
▁kizi genza
▁k’ubu sa
▁ikubi yemo
▁n’utu ndi
▁nge we
▁kibu ngo
▁emi le
▁argen tine
▁mpana byaha
b li
i yi
n wa
t -
ra ye
▁i l
▁n el
▁ba tegura
▁ya tangijwe
▁ya byaye
▁ya vaga
▁mu gezi
▁mu zinga
ro nde
di um
▁in tare
to ri
▁ma kungu
▁zi va
▁zi shingiye
sho meri
▁kwi sobanura
▁mi paka
su suru
men yana
▁n’aba menyeshamakuru
▁za c
▁bita genze
▁yara tanze
▁w’umu ntu
▁me ghan
garu kira
▁mw’i shirahamwe
▁abe negihugu
▁n’igi kombe
▁of f
▁rw’aba kinyi
▁kaba rore
▁visi t
▁guine a
▁del ta
▁scho ol
e le
m v
n yura
▁i ye
▁i gezweho
▁u fata
gu i
▁ya wo
▁ya kundaga
ki jwe
▁bu jyanye
shi dikanya
▁ru ke
▁p an
▁p lus
▁n’i tegeko
▁wa tangijwe
▁kwi huta
▁mi kuru
▁e ta
▁tu tara
▁ri ga
▁ca tho
rira ho
▁sa lo
▁bara gerageje
▁si ku
▁n’ubu taka
▁vi o
▁to tte
▁fa rdc
rd s
▁babi tangaje
▁cyi caro
▁ndi kuriyo
guri shije
rin g
lan ge
▁kare mera
shigi kira
ziba r
▁iby’i mi
▁umuke curu
▁huba kwa
▁ribi vuga
▁fro debu
1 9
d ja
▁u rangira
▁ba jyanwa
ge rweho
da ye
ro ka
▁gu cibwa
▁gu takaza
hu ngiro
be ye
▁in gero
▁in tyoza
sha kishwa
to nda
▁mi gambwe
▁tu zo
▁tu vuga
▁uru jya
shu ka
▁nta ka
▁nta hinyuzwa
▁t ro
▁je nerali
▁aga tanga
▁bara ya
▁aha bereye
▁abi kora
▁y’ama saha
pan gu
seze reye
▁baki riye
▁n’uru ganda
ven tion
▁yari ko
▁nyira yo
▁at m
▁n’ubwi canyi
seke je
▁instagram martin
▁martin twitter
▁bra rudi
▁c’in gwara
▁bibu mbiye
▁bire bana
▁Y a
-co vid-
▁cin jijwe
▁promoter facebook
▁bigaraga rira
▁promoterfacebook munezero
▁n kan
▁u tera
re kurwa
▁bi gizwe
▁bi haye
ku mva
▁umu seke
vu ganye
he mu
▁ama ba
▁ki zwi
▁ma di
▁ka cyi
▁kwi murira
▁kwi yahura
▁w’i byo
▁w’i tegeko
▁bwa fashe
▁re b
▁re stauran
▁b’ abanyamahanga
▁n’ama soko
▁umwe te
▁yan i
▁bwi gunge
▁iyi cwa
▁ja son
▁ika ra
mpi ke
▁su p
▁y’in zego
sura ga
▁cla ris
yumvi kana
▁A ba
▁w ine
▁bida shoboka
▁kwan girika
▁umura va
▁muhanzi kazi
▁bun ini
▁gatu na
▁ivyi yumviro
cunga mari
▁gaho ngayire
▁w’ic yamamare
e d
▁i yoboye
ri ngiro
▁u menya
▁u tangira
re di
ko za
ka ma
gu kanywe
▁ku vana
▁bi tegekanijwe
▁ya hita
▁ya genze
▁ya ririmbye
ro w
y’ umu
ki ya
di kanije
▁gu hererekanya
▁umu turanyi
▁umu genzuzi
▁in yenyeri
yu ranyo
mo ja
▁ki mu
▁ki rwa
▁ki gera
▁ru korwa
▁ma cye
kan yi
▁mi banire
▁y’i tegeko
▁uru sengero
▁uru jijo
nga bo
▁cya tsinzwe
▁nya kuri
▁z’i terambere
zan wa
▁kw’i cumi
▁fi ston
▁ro ck
▁mwa ra
tt y
▁witwa ye
▁tan ganyika
riwe mo
▁isu gi
▁inda bo
▁kw’ ama
▁asi ze
shinjwa ga
▁kimi sagara
▁c’in dege
▁umusi fuzi
▁indu ru
▁yajan we
-la dy
rst -lady
▁nicode m
-fi rst-lady
▁enter tainment
▁sty le
g he
s tu
▁i prc
ri rana
ri pt
▁ba komeze
za ga
ru me
▁bi ku
▁m bon
▁ya garuka
▁ya beraga
▁mu polisi
▁mu nama
wi mana
vu n
▁in kiko
▁im vaho
▁wa ga
vi deo
▁nk’ abanyarwanda
▁aka ryo
▁z’ abantu
▁ry’ abantu
kuriki ranya
▁y’ubu yobozi
▁be rekanye
▁iyi carubozo
▁ira ba
gere ranywa
yuba tse
ywe ye
com men
▁guta bwa
▁guta hura
tumi za
▁banya muryango
▁sho w
▁kwito nda
▁colo nel
tanzani ya
▁rure rure
▁zac hari
b yamamare
o go
z q
▁i gorofa
▁ba zoba
▁ba cururiza
te n
te ur
bu no
▁bi buka
▁bi tangazamakuru
▁ya bona
▁gu tungu
go ranye
▁umu gozi
▁umu shikirizamanza
▁bu tanga
▁bu giye
▁ha i
▁aba gizi
▁aba huye
gan zwa
▁ma ku
▁ma higanwa
▁ubu ranga
▁zi fasha
▁zi kunze
▁wa geze
vi ze
▁bya hise
▁s ini
▁n’u kuntu
▁n’aba curuzi
▁aga sa
▁pa la
▁nti ra
▁twa kwi
▁twa gerageje
byi bu
▁sa le
▁pe tro
▁aha gaze
▁bo na
▁can kuzo
▁baha gaze
▁y’aba tarengeje
▁w’umu kino
▁yaba haye
▁te ta
▁gutanga zwa
yandi kishije
▁kumwe reka
▁byo herezwa
ven ture
▁com mon
▁champi on
▁spe ars
▁centra frique
▁a soza
▁u sigaye
▁ba we
▁ba dege
▁ba siganwa
ta ma
tu bwira
▁ya rimo
▁mu ni
▁mu rwayi
shi riza
▁in sengero
▁ha shyirwaho
▁y’ aban
▁ki gira
to ne
to tsi
hugu we
▁rwanda magazinecom
▁kwi shyira
▁kwi heba
▁n’aba fasha
▁y’u kwezi
▁du tu
▁du keneye
▁ta ylor
▁wi l
gura ga
▁bwa mi
▁n’ubu menyi
▁de bora
▁yan nick
mbu kiranya
▁aza komeza
▁yaba jije
▁so lange
▁bwi we
▁kure kura
▁bw’i yi
▁di ddy
▁sha mi
▁uta ba
▁bake ka
▁nyan dwi
▁n’im insi
▁ruza jya
▁T a
▁iby’ a
▁by’aba turage
▁bavu tse
▁air lines
▁bri tney
▁l’ est
▁guseze rana
▁promo tors
subu kura
▁flo ri
▁w’umunya merika
▁rw’iki renga
▁melo dy
▁art hur
▁domini que
c b
w umu
▁n yo
▁ba reka
▁ku ranga
▁ku byina
ta lo
▁c l
▁m yumvire
se tattribute
▁ya wu
▁mu dende
▁mu tzig
y’ in
me sha
▁bu basha
▁ibi ta
▁ma jambo
▁ma gufu
tse tattribute
▁im fungwa
hi riye
▁wa menya
▁yi tegura
▁yi ganjemo
▁y’i zuba
▁ri komeza
▁pa m
▁nti ru
▁nti garagazwa
▁po st
▁nda daye
▁yara koze
kiye ho
▁ira mutse
wandi ka
garu gori
▁aki gera
▁nga bi
▁k’i mi
▁rw’umu ziki
▁hata gira
▁isha vu
▁n’ibyi ciro
huri ranye
xe lles
▁documentgetelementbyid commen
▁totte nham
▁zachari e
▁documentgetelementbyidcommen tsetattribute
M A
l ue
r to
▁i bera
▁i duka
▁k w
▁u garagaza
▁ba ye
▁bi rwa
▁bi garagaje
▁bi shimishije
▁r n
▁in c
▁ha gize
▁ru zinduko
hi gwa
▁ga ha
▁ni ck
▁t ri
ji li
lo neli
▁rwe ru
▁yu mvise
▁uburyo he
▁kumu fata
▁byi twa
▁byi fashishwa
van ge
can ga
▁n’imi rimo
soho we
▁utu ntu
che lles
▁izaba fasha
toro tse
▁bw’umu tekano
▁ntu za
zihi zwa
▁gen o
yigi nya
▁grou pe
▁guseze rera
▁rwabu gili
▁valen s
▁asso ciation
▁sona tube
▁kini gi
▁pori tike
c ra
r m
▁i du
▁i sabwa
▁a tsinda
▁a fashe
▁a pfuye
▁a fitiye
▁n twaro
ri lla
▁u hu
▁ba mara
▁ba shyirwa
gu muko
▁ku te
▁bi hana
▁bi fatanyije
ze ro
▁mu gabe
▁gu kiza
▁gu kurura
▁r wandiko
▁umu vugabutumwa
tan ywe
▁in spe
▁ha tege
▁aba da
▁aba kerarugendo
▁ru rema
▁zi gi
sho ro
▁wa gombaga
▁ari ri
▁y’i bya
▁ri gena
mbo go
kana ma
▁aga shimwe
▁sa rongo
▁ry’ aban
▁o ka
▁si mu
▁si yansi
subi rwaho
▁yara tangiye
▁be be
▁rya cu
sobanu rirwa
▁yu mvikana
pan ga
kiye mo
rani shi
jira mo
tonde ra
▁ju v
▁ju nior
▁uwi zeye
▁uwi zeyimana
▁ada shaka
▁imyi garagambyo
hungu ka
rirwa ho
▁nke nguzamateka
▁z’a bana
▁hato we
▁fre e
by google
▁mbu mbe
▁guko sora
▁dy na
- mu
i i
▁ hanga
▁ba size
bu ja
▁c yamaze
▁mu sha
▁in tumbero
▁aba rimo
▁ru gi
▁ru hagaze
▁n’a ya
▁zi hanganye
▁na bonaga
en dele
shin ya
▁yi basiye
mbi kwa
▁umun yama
▁twa baye
▁ry’ akarere
▁d ra
fo toza
kwa vu
▁bo o
twara ga
▁l an
▁ye ar
▁kumu fasha
▁babi shaka
▁byi shimo
▁con ne
fuza ga
▁iba fasha
▁ro ss
boneka mo
▁pro fe
▁nka we
▁zan zibar
▁kurya mana
yere kwa
▁ndu mva
▁byu zuye
▁rwaka tiye
▁dro nes
▁ah ly
▁ntiyi geze
▁jr me
▁syl vestre
▁mel chi
▁e- mail
▁debora h
b yan
i f
s yi
▁i koze
▁a cu
▁a jyanwa
ga r
▁u toza
re bana
▁ba shinja
▁ba sanganywe
te rera
▁ya sigaye
hu nze
sha ra
▁ha ko
▁ama hame
▁ma jyambere
fi taniye
▁zi dane
▁ib yan
garaga rira
▁cya kozwe
▁nti baba
▁sa wa
▁rwa je
▁rw’ a
▁n’ama ta
▁w’umu hungu
▁mpu za
banga miwe
zan e
▁baba fata
bira yi
▁ika gira
tso n
▁ira koze
▁wo ba
▁w’ama raso
▁yatangaje ko
▁abari myi
▁ryi sumbuye
▁impu hwe
▁guse sa
▁z’a manywa
tri ce
▁umura ge
▁bina gwaho
▁mp yisi
▁ikiro ri
▁kumbu ga
juri riye
▁swi ft
▁seka mana
cun cu
▁basobanu riwe
senye ra
cani ro
▁secon da
l ter
r ra
▁ shop
▁a menye
gi raneza
▁ku ndi
▁bi ryo
▁c el
▁m fata
▁m yenda
ti l
▁aba fashwe
▁ama kara
wo od
▁n’i ryo
▁zi on
le i
▁wa si
▁wa hise
▁wa bonetse
▁aban yonzi
▁kuba gu
▁kuba gezaho
▁s pa
▁n’aba vuga
▁co unt
▁rya ba
▁fa i
▁ahu ra
▁yaha bwaga
▁con ce
▁bin gana
▁y’in teko
▁ne retse
▁tura shaka
▁impan uro
stin zi
▁nyan ge
▁iya mu
▁isu zuma
▁of fi
toro ka
▁com mi
▁S i
tangiza ga
▁bizaba fasha
▁cle ment
▁by’ibi komoka
▁chri st
▁bama ranye
▁vie ws
▁kwihan gira
▁intyoza com
▁kacyi ru
▁ shyamba
▁i ku
▁i gabanya
▁a vuze
▁n gamije
ba jwe
▁u vuze
mu rika
ta ry
bo hero
▁ya tanga
▁ya koreraga
▁ya kiniye
▁mu zuka
▁umu sozi
vu gururwa
▁bu garagara
▁ha heze
ke curu
▁ibi sheke
▁zi koresha
ubu sa
▁kwi shyurwa
do ul
▁bya shize
▁iki vi
▁t re
▁t mc
▁n’aba hungu
▁co me
▁han di
shwa ga
▁so cial
▁ye rekeye
▁kin yejana
▁ugu kunda
▁y’in gu
▁b’i ki
rengan yo
▁M o
▁bihe nze
▁iga re
vo r
▁nk’umu kinnyi
yumvi sha
▁kun gana
’i yo
lari ya
▁z’in korano
▁avu gira
▁uruhu shya
▁inyi shu
▁kina zi
▁Tu na
▁banye shure
▁d’a mour
▁agaha ze
- in
a ra
f ranga
i x
l ina
z z
z zi
▁i banza
▁a shi
▁k y
▁ba polisi
▁ba shishika
ge mwe
▁bi komeza
▁bi gari
▁bi tangaje
ban yarwanda
▁bu meze
▁ma lariya
ne n
▁zi ze
sho nje
▁na hise
▁wa ta
▁ga biro
▁ga kabije
▁mi biri
▁mi gambi
▁e du
▁imi tsi
gera ga
▁n’aba tari
▁ban za
▁se pe
▁n’umu kinnyi
▁n’umu twe
▁aga shaka
▁we a
▁n’ama gambo
▁bata yo
▁n’in gendo
▁bita bo
▁abi ta
▁no heli
▁bw’i si
▁nk’i mi
▁by’i yi
▁uza bera
▁z’ama hanga
▁z’ama shanyarazi
ria l
▁bagera geje
▁repubu rika
▁ry’ubu rezi
▁guhu meka
▁kara ma
▁cnl g
▁rw’u yu
▁ibira ro
▁zibi shinzwe
▁ger main
▁diyose ze
▁gite rane
kongo ro
▁bayin gana
▁nel son
▁ 😂
▁ba bya
yo r
▁bi si
▁bi habwa
▁bi zumuremyi
▁gu risha
hu rura
shi sha
▁ha menyekane
▁aba shakashatsi
▁ama gaju
▁gi twari
▁ibi cu
▁ka ka
▁na tiona
do cument
▁tu gize
▁yi haye
aba ma
▁aka mo
▁ic aba
man ga
▁ca s
▁twa ha
▁bwa ho
gana ga
▁aha hoze
▁baka me
▁baka zo
guru ye
▁n’ibi za
▁iza hita
▁so nia
▁he n
▁nk’i gihugu
▁sta dium
▁bamu ha
mya biri
▁go rilla
seru kizi
genzu rwa
▁cy’ubu rwayi
▁gukura mo
simbu rwa
▁richard muhaburarw
▁kika vuga
▁rwaga sana
▁twagira mungu
▁afro beat
▁ahaza za
koman goma
yri u
▁hatege kimana
a rd
u d
ya l
▁ba tiri
▁ba bwiye
▁ku menyereza
te ranya
bu jijwe
▁m paka
ki banza
▁gi fata
▁ka geyo
hi twa
▁wa r
▁kwi shima
▁ni bin
▁t wuba
▁n’aba gize
▁se y
▁se nderi
▁n’umu bare
▁cya yi
▁by’ abanyarwanda
yeme rere
▁n’ubu shake
▁nk’u ru
▁nu su
▁cy’i hungabana
▁y’aba kinnyi
▁aza hura
▁uwa gatatu
siga rana
▁by’i banze
▁ira vuga
▁con vention
▁ubwi sanzure
▁kuvu rirwa
▁pro je
▁ry’umu jyi
▁kuzi fata
▁au tho
▁kayi tesi
▁uri ko
sese kaye
hagari kwa
▁umunyarwanda kazi
▁R a
zamutse ho
hangan e
▁byeme jwe
▁ig na
▁amato hoza
▁way ne
▁table t
▁imisa tsi
▁dja bel
▁maku myabiri
c ine
▁i ro
▁i tunganya
▁i teganyijwe
▁i phone
ri ty
ma e
▁ba tan
▁ku bwe
bi koze
tu gu
bu kwa
▁bi she
▁bi huza
▁mu shaka
▁bu horaho
shi mu
▁in stinzi
▁ha tu
▁aba gwayi
▁gi hu
▁n’a mande
▁n’a yisumbuye
▁wa shinze
▁ri zi
kora ho
▁se c
▁gusa tira
▁sa hara
▁rwa ruka
ani rana
▁we merewe
▁baka guma
▁haga kurikira
▁y’ubu mwe
▁bo ro
▁bo ngere
▁hi rindwa
gene ke
▁ahan ganye
ngan ye
▁w’in kino
▁w’u rwego
▁bira ba
▁bira vugwa
▁rw’i cyo
▁none se
▁y’ibi he
shyize mo
ly se
▁by’in dashyikirwa
▁ntibi zongere
▁bida huye
▁ibin yoma
▁cy’ubu zima
▁bw’umu ntu
▁bwiza com
▁kwandi kira
▁davi do
jugu nya
▁pon ce
▁bakurikiran yweho
▁bio medical
ringi yimana
▁inspe ctor
▁juv nal
o o
▁a shyirwa
▁a tangazwa
▁a shyiraho
ko n
▁ku gaban
▁m bili
▁m yambaro
se kuru
y’ ama
▁gu sana
go rane
ho teri
▁bu teye
▁aba tegura
yan ja
▁ama hano
▁gi faransa
▁ka zungu
▁ubu remere
▁im yuga
▁n’i hungabana
▁zi temewe
▁wa fashe
▁ni baza
▁kuba ra
▁kuba sha
▁ri gi
▁aka menyesha
▁n’umu tima
▁aga fata
▁nti bira
▁uku boko
▁rya shyizwe
▁kubi ce
▁ry’i cyorezo
▁byi huse
▁ika gera
ganira ho
▁fe lix
▁cy’u ru
▁ana ba
maga riye
▁ry’u ru
rwan i
▁nza ra
▁mba rushimana
▁ngu vu
▁kwiba sirwa
▁n’ubwi korezi
▁z’in dege
▁ukwi riye
▁rw’umu vunyi
▁kara te
▁b’umu ziki
humu re
▁milli on
▁mutu mba
▁gusin yisha
▁yate ranye
himba zamu
▁yaran duye
▁myan zuro
▁kata uti
▁johan nes
▁gab riel
▁iyamu remye
i e
u nd
▁i kozwe
▁i hana
▁i shyirwaho
▁n sanzwe
ri me
▁u komeje
▁u rebe
▁ku mera
ge ye
▁ya go
▁gu pa
▁gu kaza
▁gu pfobya
▁umu te
ban que
▁ha m
▁ha raba
▁aba sivili
▁ama tara
▁gi tego
▁ru gera
▁ru keneye
▁ma raso
▁ka yo
▁ubu rari
▁im yuka
kin shasa
▁n’i cyerekezo
▁zi hagarara
▁e li
zu yemo
▁bya rangiye
▁iki rundi
▁imi hoho
▁ri fasha
la tion
▁ic yiza
▁za tuma
▁za kunzwe
▁co ol
▁ca ra
▁n’umu gwi
▁po pu
▁be re
▁hi t
▁baha ye
▁aza za
▁bw’i m
▁babi kunda
▁byi hariye
▁biba baje
rongo zi
kunga haye
▁ryi we
rin ho
▁yonge reye
▁izi gera
▁umunya muryango
▁bahe ruka
▁qu ar
ber to
▁sala am
▁ikina mico
▁xa vier
▁tere fone
▁inve st
▁ramad han
g ri
h wanya
u vre
▁i tangiye
▁i yari
▁i banki
▁a tan
▁a toza
▁a teye
▁n twari
▁u baye
wa wa
in ga
we alth
▁ba menya
ha mijwe
ze n
▁mu hungu
si mba
shi me
fa d
fa to
▁gi kongoro
▁ki bo
▁ki genda
gan nye
▁ma sha
▁ma dini
▁igi songa
▁wa bonaga
▁ga ko
▁ko meza
shaka mo
▁ca mera
▁cya tuma
▁pa ys
▁bwa to
▁bwa tangaje
▁baka genda
▁bo bi
▁hi ll
▁y’aba kuru
reke ra
▁li be
▁yaha mijwe
can da
▁su de
▁iri nde
▁biga tera
▁iba ha
▁abanya mideli
▁ubwa tsi
bin yabuzima
▁mw’i joro
vo gera
▁ry’aba ririmbyi
▁inko ni
▁b’in tara
▁nan ge
▁aku bwira
▁bap fana
mpin duka
▁bun yuranyije
▁gusu kura
sen yuka
hagarara ho
date no
▁bw’iki go
▁dy namo
▁thi s
mpama gaye
▁oka pi
▁sey chelles
L I
b wubatsi
i jwe
m fasha
t ina
▁b re
▁i shuli
ba bi
▁ku ji
bi mwe
▁bi sese
▁gu hunga
▁umu fana
▁gi kora
▁ki gomba
ke r
▁ru shya
▁ma dosiye
▁ubu rozi
hi gwaga
ubu sanzwe
▁wa shikirije
▁ari ya
▁ni mwiza
▁mi rwano
▁yi ba
▁imi gumuko
▁ri garagaza
▁n’u kwezi
▁n’aba shinzwe
▁bw’ abanya
▁cya giye
▁ta ba
▁n’ama shirahamwe
▁bata gomba
▁baza habwa
▁ibikorwa remezo
baba jwe
▁yabi koze
gende rwaho
soho kana
▁by’u bwi
koreshwa ga
▁w’aba depite
▁kazi hise
▁by’in tambara
▁ry’aba tutsi
▁hara baye
hungaban yije
▁clau dine
▁yato rewe
▁gra tien
tali yani
▁yahe rukaga
sun zwe
▁pu la
▁G u
▁phi lbert
▁tw’i mi
▁yagera ga
▁nyiraba hire
sesengu zi
▁autho rity
f en
▁a gen
mu neza
▁ba hera
▁ba shikirizwa
▁bi gu
se tsa
▁ya ganiriye
▁mu singa
si l
si tiki
vu na
mi li
▁aba rwanyi
de ra
▁gi hamya
▁ki baye
▁ibi bi
▁ubu twari
kin giye
▁rwanda ’
▁kwi tegurira
▁ga shinzwe
▁mi lan
▁cyan ditse
▁iki guzi
mbi we
▁w’i cyayi
ji re
shimi shijwe
▁o swa
▁bo bo
▁cy’i mari
▁ara za
▁baga saba
▁kwa mbuka
▁yu juje
pan ye
ll in
▁bw’i kipe
sin ya
▁biri ho
▁bin jiza
▁by’u rumogi
▁ntibi shoboka
▁by’ubu kungu
▁tuza komeza
um wana
▁ibyi fuzo
▁urugo mo
▁cy’aba tarengeje
▁w’ibi ro
hinze mo
▁ry’igi kombe
▁http st
▁claris se
a kaba
▁ teri
▁ wanditse
▁i wan
▁n shasha
▁u garagara
▁ku nya
ge rie
se suye
▁ya tinze
▁ya shinze
▁mu reka
▁gu siba
si bo
▁bu tu
▁bu gomba
▁in u
fa dikanije
yan o
▁gi komeza
▁gi rma
▁ma ga
▁ma shini
▁ka buza
▁im pfubyi
▁n’i co
▁na ha
su re
ama foto
vi ko
▁imi bu
riki rwa
ca s
menye shejwe
▁yo ro
▁bita vye
▁ho pe
▁y’aba fana
▁to tal
▁li ck
▁bw’i myumbati
▁bin yobwa
▁rwi we
ron sa
tegu re
▁gato rika
mpa puro
▁c’i si
’u ko
▁isa ac
yere kanye
▁bitegan ywa
▁buba ka
▁she ki
▁y’iki rere
▁ruda higwa
▁yato mboye
▁ubura kari
▁kwitwara rika
▁lon don
▁ly dia
▁confe rence
riyari di
▁icyari mwe
▁taxi -
▁gufa shanya
▁inke ke
▁count ry
s ca
▁a ction
▁u bwira
te c
te nde
▁m vuga
▁ya se
▁gu kini
si te
▁umu byara
ti sh
▁aba jya
▁gi kuru
▁gi kwiye
▁ki beho
to -
▁ru kaza
▁ma rt
▁ubu genzuzi
▁kan kindi
▁wa shaka
▁wa yoboraga
▁kwi ruka
do go
▁mi mi
▁e gy
shin g
▁bya korewe
▁imi tako
▁nta ganda
▁je rome
▁re sitora
▁o le
▁nk’u mwe
mbu ke
subi ze
ren te
▁iza gwa
▁gute mbere
▁jo jo
▁jo bs
pfu nyi
▁rwi rangira
▁bahu je
▁tura saba
▁uga shi
▁cy’u yu
▁muka mu
▁mugi ce
▁bar wana
▁bakunda ga
▁B i
sangan we
▁bri tish
▁ivu riro
▁nico las
▁men ye
▁sena teri
▁pu bli
▁zuba tse
▁umunye zamu
▁mvu to
lien ne
▁ububi ko
▁yakan guriye
▁tekini ke
▁dc mp
▁nao mie
▁common wealth
himbazamu syi
e ing
v c
▁i renze
▁a muha
▁a rushaho
▁n genga
ga juru
▁ba gwanyi
▁ku bangamira
tu mira
hu ngira
▁bu sha
▁aba biligi
▁aba gwanyi
▁aba motari
ran zi
ke za
▁ru garagara
▁ru kara
▁ru gwiro
han an
▁ka buye
▁im vano
kin we
hi shwa
umu yobozi
▁zi gize
▁wa tangije
fu zwa
cu ra
▁aka muha
▁aka renganyo
▁w’i cyo
▁co sse
▁mun yororo
▁aga shya
▁rwa huje
▁re ij
▁po int
lo gy
▁n’aban ye
▁n’ama shusho
▁aha vugwa
▁y’ama dorali
▁te s
▁ahu ye
▁di sp
▁ugu ha
gere je
el d
▁uza bona
▁abanya merika
▁icya teye
yumvi se
▁azi ya
▁yari fise
▁ntibi vuze
▁bashaka ga
rerwa mo
▁nk’a bo
▁ab doul
▁guhu ngira
▁zin jije
▁batara menyekana
▁gutu za
▁x i
▁koro shya
▁kabe ruka
▁w’uru byiruko
kris to
▁batazo kwemera
▁urun ana
▁caha vuye
▁bisese ro
▁reij nen
B A
c ka
j ani
▁n kingi
▁u shira
ma li
▁ba twaye
▁ba kurikira
▁ba shima
▁ku nyi
▁ya mbere
▁ya riri
▁ya gombye
▁bu ma
▁bu ja
sa ku
yu mu
ran ge
▁ru kingo
▁ibi buga
▁ka kaba
na t
na de
▁na shakaga
fu mbire
▁ni ha
▁mi cungire
▁kuba fata
ce f
▁co sta
▁ata zongera
byi zi
shya ri
▁we ma
▁bata ru
▁bata shye
▁an nan
▁ara ra
▁bite za
▁gute re
▁gute ma
▁yaba sha
▁he he
▁wo rk
▁abanya rubavu
▁ce ci
▁atu bwira
▁by’in yama
lly wood
▁ry’ama faranga
▁umwami kazi
▁mbe ga
▁yama ganye
▁fre ddy
▁mutu elle
▁ste ven
pen da
tungani jwe
pati te
▁ihan zwe
▁phili ppe
▁tw’ama tora
▁stro mae
▁nibin tije
H A
b yanga
▁b yuba
▁k wuba
ko pf
ka pu
▁ba renze
ku u
shi shi
▁ha pfa
▁aba gizwe
▁aba giriza
to to
to ranyijwe
▁ru vu
▁ubu tinyanka
hi we
▁n’i shengero
fi siye
▁na yi
▁mi terere
su nze
▁ca sh
▁pa ki
▁po wer
▁bita za
nde tse
▁l abama
▁so l
er s
▁k’ in
▁yakore shwaga
gami jwe
rongo we
▁su a
▁n’imi co
shora mo
▁fe st
▁ivuga butumwa
ly ne
▁ntibi geze
roko keye
▁bida subirwaho
▁and r
▁bw’ama faranga
▁I n
▁byara tangajwe
▁basa bose
▁yagu mije
▁chan ce
cyu ho
▁ikorera mwo
▁bri ga
▁byeme zwa
sing ye
▁don na
▁bikavugwa ko
▁sano fi
shisho zi
▁haru na
▁gifu mba
▁nyiramu hire
▁ruju gira
▁ross kopf
d c
d res
n yamabanga
p hia
▁a kunze
in tara
▁ba shinjwa
▁ba kinnye
ta mo
yi ha
▁bi jyanwa
▁bi dufasha
ro o
ti ranya
▁bu temewe
▁ha sanzwe
▁ha dutse
mi ka
mi bu
he ye
▁ama te
▁gi hanwa
▁gi tarama
kin ye
▁p lc
su mbu
su huka
▁bya tanze
ca m
ni e
▁n’aba tegetsi
▁cya mu
▁cya garagaye
▁nti bara
▁bwa koze
lo te
▁aha zwi
▁n’in gingo
ina h
▁yara baye
▁be lla
tangi riro
▁go ld
▁imyi rondoro
▁ry’aba turage
▁umunya mideli
▁uri ho
ngani je
▁y’im pu
ction s
▁ake kwaho
▁n’ikin tu
▁mou rinho
▁igitu ntu
▁ababu ranira
▁hasu we
▁quar tier
- zo
p ha
v r
v on
v ota
▁b lue
▁i p
▁i fitiye
▁a pi
▁a hera
▁a tsinze
▁k hali
ri nze
ya remye
▁u hura
gi mbi
▁ba subira
ru ya
ru nguru
▁ku bonera
bi we
bi tsi
tu rire
▁bi ble
▁c yobo
▁ya shyira
▁ya tanguye
▁ya takaje
▁mu zo
▁gu tandukanya
ho o
▁in kwi
▁aba fasha
▁gi hindurwa
to nze
▁ma l
so mye
▁im fura
▁wa bona
▁bya garagajwe
▁yi baza
▁yi tuye
tege kanya
kira mo
▁rwa shyiriweho
▁n’ubu sanzwe
▁bo eing
subi rana
▁mo shi
kina mico
ngan o
▁batu bwira
▁iba rizwa
▁ro yal
▁wu mve
▁uba ld
▁n’uru toki
▁bato ranyijwe
▁K o
mban da
▁ihe nze
▁gushi dikanya
▁bagi rana
▁bw’aba tutsi
▁itu manaho
▁bisa ta
▁uha ranira
▁guseze rerwa
▁umusa tirizi
▁nsan zaba
▁byana tumye
▁umunye shure
▁amako ri
▁zitara hunguka
▁muhi ma
▁rw’igi faransa
▁kidu mu
▁ball on
▁lyce e
bour g
▁yanen ze
▁catho lika
▁tw’imi sozi
- kinshasa
a gira
g ru
▁b cr
▁i pan
▁a menya
▁a bereye
▁a janye
ri o
ga ya
▁u hari
▁ba guma
▁ku bonana
zi bera
zi rikana
tu za
▁ya ganiraga
▁ya shinjwaga
▁mu reke
▁mu kotanyi
▁gu shyikirizwa
▁gu pimwa
ku gira
▁umu rwa
▁umu tesi
▁umu ceri
he rekeje
▁ki rundi
to ma
▁ru se
▁ru zin
▁ka mbanda
▁w’ indirimbo
▁kwi rwanaho
▁ni zeyimana
▁bya kwi
▁yi huta
▁ri tu
▁ri gomba
▁uru zinduko
pa wundi
▁se zibera
ngo zi
▁wi yemeje
▁yo weri
lo m
▁jo ye
▁ye guye
▁y’a be
▁n’uru pfu
terwa ga
▁bw’u ko
▁ahe mbwa
tel li
▁amba ssa
▁tuza jya
▁bahe mbwa
▁john son
rema re
▁ivu ge
mina ri
▁rw f
▁inyo ko
▁mani shimwe
▁colle ge
▁n’isabu ne
▁invest ment
▁oswa ld
▁mureka tete
d ha
n ti
u bira
▁ 😂😂😂😂
▁a kurikira
▁a serukira
▁a cumbi
▁n ana
▁n curo
ru m
ge ment
yo ta
▁bi bera
▁m tu
▁ya pfiriye
▁ya shishikarije
▁mu te
▁mu mun
ki gali
ho rera
▁bu ze
▁bu singye
▁in tererano
▁ha mi
▁aba gwanya
▁gi canda
kin tu
▁n’i mbu
▁igi sagara
▁kwi fashishwa
▁ga tson
▁tu ya
▁tu tari
▁bya bonetse
▁ri tanga
yama am
▁n’aba mu
▁w’i shure
▁za ma
▁du fise
▁ca runguru
▁wi ca
▁bwa fatanwe
▁nya mvu
▁bata yerekwa
▁n’ubu tumwe
▁n’in yigisho
▁nda saba
▁yan aniwe
subi kwa
▁rya bereye
▁ara hesha
▁ati ’’
▁uwa mahoro
▁kumu si
seze ranye
▁vya bona
ste m
▁biba gora
▁hu duma
▁w’ubu tegetsi
▁n’imi ti
gwi ra
▁iba cira
che l
▁muka rwe
▁’ bagiye
▁ar row
▁nke ya
▁guse ngera
▁mura mbi
▁bagi shika
▁by’ama teka
▁ziza fasha
yami deli
yamba za
▁myi yamaam
▁gushira ho
▁guto rera
▁hato ba
▁mutu zu
▁sena tre
yisi lamu
▁mai son
tele fone
▁kabu hariwe
▁kabi la
▁abazo ronka
▁kazo za
▁nivya tangajwe
▁kalin ganire
▁azokwi twara
▁madi ba
▁kubagu miza
▁icaba fashe
▁abagwanyi ’’
▁mumun yororo
▁carunguru je
▁myiyamaam zo
i cyo
i ty
m yuga
s ina
▁i ranga
▁i kurikira
ya zana
mu nd
re y
▁ba shoye
▁ku yobya
▁ku nguka
da m
bu zi
▁c inema
▁ya shoboye
▁gu hugura
▁umu depite
▁umu gongo
▁umu rungi
▁umu kiriya
▁in yoni
▁ha kaza
li f
▁ma ria
▁ma buye
hi li
▁wa gira
▁wa guriwe
do ra
▁ga z
▁ga sozi
▁mi tima
vi ye
pe s
la ire
hin giraga
▁n’aba rimu
tege tswe
ji ri
▁yo gu
▁we na
bya rira
▁jeno cide
▁uku bera
▁n’ibi tekerezo
nde reza
▁w’umu gore
▁g rand
sin gwa
▁y’in go
▁bamu guriye
▁ken zo
▁ro ma
▁ibya tangajwe
▁bwe rekanye
komoka ho
▁N ta
▁haza korwa
▁inda shyikirwa
▁cyo ngereza
▁kira zira
▁agat he
▁bw’umu jyi
▁naba bwira
▁S a
▁byan yu
▁ser bian
▁numva ga
▁R e
tro s
▁nk’iki yobyabwenge
▁gukin wa
▁kuku bwira
▁hare bwe
▁app li
▁mumu tashye
▁mukaba dege
▁#R w
▁yunze mo
▁fer din
▁gasi gwa
▁johannes burg
W A
b yutse
f er
g z
▁ (
▁a twaye
▁a mani
▁ba shimiye
▁ba korerwa
▁ba gwayi
▁ku bwirwa
zi ri
▁bi shize
▁ya shoboraga
▁ya sobanuriye
▁ya sabaga
▁ya tunguwe
▁gu simbura
▁gu subizwa
▁bu na
▁bu cukuzi
mi s
▁gi fise
▁ru kiri
▁ru yigi
▁ibi gwi
▁ma koperative
▁ka renge
kin yarwanda
umu ro
▁wa kunze
su s
▁yi fuje
▁f ra
▁s tan
▁w’i cyizere
▁za maze
▁za baga
▁j ama
bura ya
▁nti ki
▁nti wi
▁re venu
ani ranye
▁n’ama tungo
▁uku mu
▁bo cka
▁ikin wa
▁cy’i myumbati
▁hi yo
▁aza tangira
▁so py
▁al gerie
▁bira babaje
▁kuza hura
▁rw’i binyabuzima
gende keye
▁sha lom
▁w’ama gru
▁mwa ba
▁z’u ru
ndu ra
▁vu mbi
▁ai d
suzu misha
▁umura ma
▁at pr
dri ne
▁bahe jeje
▁iti shoboye
▁S e
▁ry’ubu hanzi
gerage zo
▁bahi ge
▁rira she
simbu za
▁ji mbere
▁muki ganiro
ati an
▁ngi rente
▁nte ziryayo
▁bw’iki rere
▁wor ship
▁nzaba korana
▁kumvi kanisha
▁mushiki wabo
rci sse
▁william s
▁umuga birwa
▁safa li
▁diddy -zo
▁ponce use
▁nyamvu mba
▁bocka rie
▁sopy rwa
g li
o re
▁i geragezwa
▁n geri
ba giza
▁u fasha
▁ba l
▁ba mbara
▁ba twi
▁ba byaranye
za ha
ru lo
▁ku zenguruka
ta ga
da li
▁c ul
▁ya tandukanye
▁mu hira
▁mu ganza
▁umu vandimwe
▁bu ca
▁in ya
▁ha tangwa
▁ru do
▁ibi du
hi gi
▁n’a bu
▁zi yi
▁aban gavu
▁e vo
shin ge
zu ki
yobo rwaga
▁ri gezweho
▁n’u m
nda ga
▁o de
▁n’ubu hanga
▁de rulo
▁uku ta
▁be rekana
▁vi sa
▁w’u mwana
▁bari mu
▁n’imi twe
tegan yi
poro so
mura ge
▁ke lly
maga rwa
ndu tse
giri jwe
▁nyira ha
▁hara cyari
▁ubusa mbanyi
▁ndu wimana
▁patri ce
▁kuga ba
▁w’igi ce
▁bumva ga
ziba girana
▁indo to
▁ndanga murage
▁ino ti
▁gusiga sira
▁nzaba mwita
▁k’ibi yaga
▁gala xy
▁institu te
▁joye use
▁#Rw OT
▁ferdin and
- sa
e a
s b
▁b yongera
▁a genewe
▁ba han
▁ku twi
ta hura
▁ya mara
▁mu he
▁mu sana
▁mu fuka
y’ u
ki rira
▁gu kwirakwira
ku rira
▁r wuba
be shaho
▁in girakamaro
▁ha fi
▁ru zoba
▁ma shanyarazi
▁ma remare
▁n’i joro
▁kwi siga
▁mi zi
▁kuba bwira
▁bya fashe
ce t
▁ri hu
▁t wubaka
▁gihe ruka
▁n’aba jejwe
▁ata gira
▁twa yi
▁twa je
lo tte
▁n’in kumi
▁baka menya
▁kwe ra
▁n’ibi hano
▁nu wo
▁cy’i yi
▁hi i
hindu we
hindu kira
▁y’umu gabo
▁nk’i zi
▁ndayi zeye
▁iha me
▁nku mva
▁ro sa
▁uta za
▁uwi ringiyimana
siye ti
veri en
▁umwi herero
roko ye
▁bye rekeranye
▁muru gamba
▁z’ubu yobozi
▁waba ga
▁char lotte
gabe kazi
▁ah med
▁lon dres
kanda ra
dende zo
dayi moni
▁mitu mba
▁kwishyu za
▁ob r
▁communi ty
▁bur kina
▁coge banque
▁spor tif
▁seconda ire
U R
▁i y’i
▁i pfu
▁i rangiye
▁u rangwa
▁ba mbuka
▁ba kenera
▁ku mena
▁bi sigaye
ze e
se l
▁ya funzwe
▁mu tanga
ku a
▁umu geni
▁umu singi
ti as
▁bu mvikanye
▁ru tara
du kira
▁ibi tanda
▁p in
nge r
▁kuba bara
▁iki gero
▁ri ki
▁t h
▁n’aba sohoka
▁aga hora
▁twa fashe
▁yo ur
▁yo hereje
▁ita liki
▁guha mwa
guye mo
yuba hiriza
can co
▁y’in ka
▁cyi mana
▁bahu nze
▁n’uru hare
▁kiza za
▁ibiro metero
▁ti fo
▁ida fite
▁ayi sumbuye
sanzu ye
▁icu mbi
▁ahi shakiye
▁buba kiwe
▁uda shobora
▁kuha gera
▁ishinga mategeko
▁yaseze rewe
▁y’ubwi shingizi
▁kabare be
▁bel gi
▁magufu li
▁pula sitiki
f lo
i kindi
m fata
s pora
▁b pr
▁i me
▁i shimishije
▁a gire
ba hirije
▁ba gizi
▁ba shyizwe
▁ba shinze
ru kino
ge rs
ha kanye
yi de
da s
▁bi fise
▁ya shin
▁umu ganwa
▁bu re
▁bu zo
be shu
▁gi kunze
▁ki renga
▁ma go
▁ka rimo
▁ubu da
▁ubu gizi
so viye
▁p ha
▁n’i y’i
▁n’i gare
▁zi kunzwe
▁kan yo
▁ari vyo
▁cyan ika
▁e si
▁yi boneye
bwe ho
▁si l
▁si erra
kwa ga
koze ho
▁to go
▁me d
teke reze
▁ry’i mari
▁batu tsi
▁fi zzo
▁kubu tegetsi
▁ro berto
▁ubwa mi
▁bada kwiye
▁U yu
▁c’i higanwa
▁babona ga
▁niyon senga
tumi a
mwu mva
▁iby’ umu
▁mar c
▁for bes
▁badu ha
▁c’u mwaka
▁itera bwoba
▁kumenye ra
▁saint -
▁ivyi gwa
▁dy lan
▁christophe r
ono soye
▁lau rent
▁kris tu
▁amahe rezo
▁melchi or
▁libe ria
▁buma muru
▁evo de
d we
m biriye
m ble
r ye
▁i bereye
▁a zenguruka
mu twe
ma i
in ho
▁ba beshya
▁c yana
se s
se bya
▁ya muhaye
▁ya geneye
▁ya suraga
▁gu tinya
▁gu fatira
ti yo
▁ha komeje
▁ha ciye
ran we
▁ama segonda
han ganisha
▁ma sasu
▁ubu ri
▁ubu shinwa
▁n’i kawa
▁zi te
▁wa bonye
san ganya
▁ari kumwe
▁ri geze
▁uru hande
▁ib yu
▁nta re
▁nta bi
▁s ky
tsi mba
▁n’aba gororwa
▁um va
▁nti rwa
▁rwa giye
▁re d
▁bata mu
▁n’ubu shinjacyaha
▁nda ku
ju rira
▁bo b
▁an yuranye
rt mund
▁aza gera
kura mbere
seze ye
▁z’i mari
▁baba jijwe
tin ganyi
yuba kire
▁y’in yungu
▁kenya tta
▁ju ma
▁gato ya
▁ura mutse
▁lo s
rangwa mo
▁b’aba biligi
▁ababa zwa
▁ivu gururwa
▁yasin yi
▁bire bire
▁jour nal
▁ikiremwa muntu
▁sepe tu
fad hali
▁tifo yide
i ta
▁ shaka
▁a korwa
▁a gura
▁a tanze
▁a teganyijwe
▁u re
mu tungo
▁ba kani
▁bi shikirizwa
▁gu twi
▁gu kwira
▁umu cyo
▁ha be
▁ama hitamo
▁ama saka
▁gi hangayikishije
to ranywa
▁zi ru
▁zi renze
▁igi tangaza
▁kwi korera
▁ga fite
▁ga tanya
▁bya du
▁bya komeje
▁ri baye
▁ri shyira
la y
▁w’i terabwoba
menye shwa
▁mun zu
▁du korana
▁n’umu nye
▁cya hariwe
▁o cam
▁muri ryo
mbu riwe
ren gwa
▁bamwe reka
▁aza koreshwa
▁baza tsinda
▁te mple
▁ntara makuru
▁y’umu tekano
▁al g
▁ci za
▁ibya kozwe
▁bika jya
hinga mo
▁ubwa cu
▁nk’umu hanzi
▁uni on
▁uni cef
▁yamu bwiye
▁bitu nguranye
▁nari rya
▁iby’ aba
▁y’imi deli
▁umunani ro
▁bate merewe
pf ubusa
▁n’imyi dagaduro
▁yasubi ye
▁cho gm
rindi ra
▁mikoro be
▁ibiha ruro
▁bona venture
c p
i m
▁i rwanya
▁a kundwa
▁n tumwa
▁u twite
gi rire
ko so
▁ba kore
▁ba zan
▁ba sangiye
ge murira
ha magarira
▁bi shimirwa
▁c yubahiro
di tswe
▁gu cyura
▁r ss
▁umu zungu
▁bu tangaje
▁bu koreshwa
▁y’ abandi
▁ama rozi
ke mera
▁ru komeje
▁ma saka
▁w’ abanyeshuri
▁na bandi
▁kwi rukanwa
▁aban je
▁mi cye
cu s
▁e le
bwo nko
men ywa
▁tu n
shu shanya
▁n’aba tara
▁n’aba hinzi
▁y’u bwoko
▁cya bonetse
▁twa kira
▁rwa bonye
ju a
▁y’ubu menyi
▁yan dura
▁no mero
▁w’umu pira
▁do rtmund
▁twi ta
▁byi mbitse
▁ika zi
gere jwe
gere ranyije
▁rwi yemeje
▁ju di
▁N one
▁guso mana
▁byaba ga
▁rd f
▁gukorera mo
▁z’a moko
▁cy’umu tekano
▁ubusa be
▁kongo -kinshasa
▁are ruya
▁kwiba ruka
▁W A
▁bare bye
▁bon go
▁jac que
▁yasa bwe
▁gatu mba
▁bw’a bana
▁camero on
ou dite
▁abata vuga
▁guhana hana
▁it sura
cece ka
▁hati tawe
▁utwa bo
▁bou tros
▁kwima kaza
▁muni ch
▁nsanzaba ganwa
o s
▁i ssa
▁a tuma
▁u me
▁u w’i
ka ho
▁ba fashije
▁ba mbwira
bi tse
▁bi pfubusa
▁m po
▁m yambarire
▁ya simbu
▁mu zaba
▁gu fungu
▁umu nota
shi kana
▁aba ga
▁aba fise
▁aba serukira
he jeje
li ana
▁ka rusi
umu rwi
▁zi gendanwa
sho je
▁na mi
▁na gize
▁na tangiye
▁bya tu
▁imi riyaridi
▁f r
▁ata jya
▁nti bin
▁wi yi
▁sa ha
▁rwa tangaje
ve ra
▁we nyene
▁b’ akarere
▁n’ama shyamba
▁y’ubu kwe
▁y’ubu tayu
▁baha mya
▁baga fata
▁baza bi
▁to nzi
▁jo r
▁kubi kuza
▁fa so
▁ry’i mikino
lle n
▁byi fashe
▁haba mo
▁iba rura
▁bika gera
▁buru se
▁uwu zo
▁sin da
▁guhi sha
koro ra
▁dia spora
▁mugi sagara
▁ivya mwa
vana mo
mar k
▁buka vu
▁sebu tege
▁mumu twe
▁supe refe
▁umuha te
▁kris to
▁desi gn
▁eme ry
▁fina l
▁coo perative
▁nse ngu
▁restauran t
▁wil son
l phe
r yama
u me
▁ shu
▁a kura
▁u teye
▁u tegura
re zwa
ye r
▁ba yoboye
▁ba twite
▁ku garagariza
ta bara
bi kira
bu ro
▁ya mamaye
▁gu kenera
▁gu komeretsa
ku riwe
go ba
▁umu kene
hu rwa
▁bu ngu
de ngakamere
▁ama de
▁ibi sanzwe
fi ri
▁zi korwa
▁mi gabane
▁bya banje
▁bya garagaraga
▁yi shyu
▁yi butsa
▁yi pfuza
▁y’i minota
▁nta ma
▁t cha
kwi je
tera mo
▁du sa
▁ata yi
▁ata basha
▁wi th
▁rwa ma
yeme reye
▁aha saga
ju mbura
▁uku tumvikana
▁bo herejwe
▁baga shobora
▁gute gurwa
▁he ro
▁kure ma
▁w’u bwi
▁bari ho
▁bin yu
▁wo nyine
▁b’i gitsina
▁w’ama gare
▁nku ranga
▁niyo ngabo
▁ahe nshi
▁udu koko
zin gi
▁lu dic
gra tias
▁z’ubu vuzi
▁k’u kwakira
▁by’umu tekano
▁maso siyete
▁biru nga
▁fla vor
▁nzo zi
▁vic tor
▁kimi hurura
▁kigali- huye
▁dai ly
▁rss b
e ber
f red
n ta
▁i reba
▁a tangaje
▁n tangira
▁u fatwa
▁ba ge
▁ba gwaye
▁ku tumva
▁bi rangiye
▁c na
se nateri
▁mu vuduko
tan teri
▁aba rangije
he ne
▁ki lo
▁ru sanzwe
▁ru remesha
▁ma ran
▁ma ster
▁ubu taha
▁ubu rebure
▁im vo
▁w’ abanya
▁kwi ya
▁e pfo
▁bya wo
▁yi banda
▁uru sobe
▁co ll
▁n’umu kozi
▁n’umu polisi
▁sa oudite
▁po sition
▁n’ama torero
▁n’ama bwiriza
▁n’ubu curuzi
▁n’in zoga
korera mo
▁ho ld
▁abi geme
▁abi cishije
▁ita za
win gira
▁ry’i yi
▁by’i hungabana
▁byi ringiro
▁ira cyari
▁con tre
▁kw’i soko
▁n’imi gabane
▁bamu zi
▁biga banuka
▁man za
▁M wa
▁y’ibi ganiro
son s
lan ce
▁n’igi korwa
▁A h
▁yamu bajije
▁by’ama jyambere
tumi rwa
muga ye
▁muza hura
▁mwe nda
▁muke curu
▁yumva ga
▁kwo rohereza
▁bri g
▁’’ ’
yororo kere
and re
▁nte ziyaremye
▁z’igi kombe
▁aro ngera
▁kungu rana
▁nsengu muremyi
c ting
i byo
o va
▁a fungwa
▁n gendanwa
▁ku gerwaho
ha d
bu zo
bu nge
▁bi rushaho
▁bi sobanurwa
▁m bonera
ze rere
ro t
▁gu shyushya
▁r an
▁umu shakashatsi
ti sha
tan e
▁bu habwa
▁ha kurikiyeho
mi zwa
▁aba vu
▁aba shyitsi
he mbe
mo ra
▁ibi ganza
▁ma tungo
▁ka rera
▁ka zwi
▁n’a ha
▁n’a biri
▁wa pfa
▁e z
zu mva
▁kuba ga
▁bya shoboka
▁iki yaga
▁imi gani
▁ri shyiraho
yin o
▁t win
pa pa
▁n’aba gizi
tandu ra
byi shimiye
▁yo ze
▁y’ubu taka
▁an ti
▁an nonci
▁ho s
▁vi r
▁kwa mbura
▁so phia
▁n’ib yumba
▁y’umu riro
▁ry’i bihugu
lle nge
▁do g
▁bwo ba
▁yeme jwe
▁bw’u yu
▁ahe reye
raba hizi
▁ruta mu
▁ibin yujije
▁mura koze
▁hara vugwa
▁batari shyurwa
▁avu rwe
mail com
▁yadu haye
▁yahe reye
▁ababi kora
▁ani cet
▁kiro ri
pho nes
▁ath letico
▁vyu kuri
▁mande la
‍ ♂
ra le
▁i janye
▁a sohoka
▁a kwiriye
ya ba
▁u tangiye
▁ba tanguye
gu fa
▁ku go
▁ku bwo
▁ku kwi
▁ku pi
▁ku jyanwa
▁ku rokoka
▁ya hariwe
▁ya garagazaga
▁ya shyikirijwe
ki zwa
di an
▁gu sobanurirwa
ho rana
▁ha gi
▁aba re
▁aba kene
▁ama ka
▁gi rd
▁ru vogera
▁ibi komoka
▁ubu gome
▁zi kiri
▁kwi hugura
▁mi ba
fite ho
▁tu ganira
▁imi ziki
▁imi duga
▁y’i vyo
ni t
▁za hagaritse
▁re a
▁we tu
▁n’ama sezerano
mbe jwe
▁yara tangaje
▁ikin yuranyo
▁hi rwa
▁hi sunzwe
▁guha kana
▁so siyeti
sin yi
ur wo
▁biri ko
▁batu nguwe
▁hu nga
▁zo u
▁kiri ko
zere kana
garu ke
▁bura mbye
garuka ho
▁mw’i barabara
▁nka jya
tegere ze
▁by’ubu taka
les tone
▁kuya fata
▁are meza
▁k’u yu
▁gen til
▁mar k
▁kuzu zanya
▁mbo gamizi
tya zo
tandukan ywa
▁imvu ruru
▁conce rt
▁gird lestone
d h
▁b s
▁i gere
▁a kurikirana
▁n kin
▁n kenerwa
▁ba tangije
te nge
tu ro
▁bi zamuka
▁bi ganza
▁m biri
▁m banza
▁ya zanywe
▁gu cana
▁gu tsindira
▁umu dendezo
▁bu bo
▁bu saba
▁bu hanzi
▁in yuranye
▁in gwate
he r
li mi
▁ki ruhuko
▁ma shyaka
▁ma tch
▁ka yonga
▁zi banze
▁zi himbaza
▁igi polisi
▁wa ki
▁wa gizwe
vi ra
▁bya gendaga
▁s we
va r
ranga muntu
▁za ka
▁y’u kuri
▁ban d
▁nti yari
▁ra chi
▁bara hungiye
lo c
▁n’in ka
▁rya shyizweho
twara mo
▁kuri yo
▁w’umu nsi
zama shyirahamwe
▁me xi
mvi riza
rangi ngo
▁su gar
ken ura
▁kuvu ka
▁kuvu gira
▁bika rangira
▁bwe nge
▁cye rekana
▁bada shaka
▁ntiba zi
ger main
▁A riko
▁ubi kora
▁yavu giye
▁biru huko
▁rw’ubu jurire
▁char ly
sen yutse
▁ake mera
▁mari nes
▁messa ge
▁P o
fungi rwa
▁cou pe
-a f
▁imp umuro
▁melo die
▁mega wa
▁bien venue
▁uze gukana
▁cli p
byibu ho
▁ole mpike
▁rudo viko
K A
a hu
c han
q i
u te
u li
▁b yanditse
ra sa
▁k di
▁u hagaze
re rwe
we li
▁ba hanga
▁ba tsinzwe
▁ba bwiwe
▁ba tumva
yo be
▁bi ll
▁mu ko
▁mu giye
▁mu ci
si ka
ku mbura
▁umu kiliya
▁aba shingamateka
fa ce
▁ama gi
li me
▁ki biri
to ire
▁ru ca
▁zi garagaza
▁zi rwanira
▁ni zeye
kaba baro
▁n’u bwa
▁ic y’i
▁w’i terambere
▁se le
▁se vota
▁ca bo
▁aga ta
▁ata kiri
▁wi yongereye
▁sa hwanya
▁o lo
▁de mo
▁ho llywood
▁n’ibi taro
sin ye
▁ubwo ngereza
▁ika zaba
▁kuza kira
▁cyi tabiriwe
▁baki ga
▁wan duye
▁vyo ba
▁mw’i jambo
herere yemo
▁dore ko
▁impu zu
▁mura ma
▁bagi rizwa
▁vy’ in
hungaban yiriza
▁two ba
▁abu nganira
▁itu ruka
▁ibiti giri
▁agi fite
▁inzi ka
subiri za
▁ziha mye
▁ikan zu
▁llb sa
▁muso zo
▁mupen zi
geneke reje
i z
▁i sho
▁a menyo
▁n tsinzi
▁u ja
▁u nd
▁ba d
gu mana
▁ku nga
zi a
te d-
yi tse
▁bi tangira
▁bi kwiriye
▁m vo
▁ya sobanura
▁ya teraga
▁mu tego
▁mu tungo
▁umu ganura
vu giwe
shi mwa
mi ryango
▁aba te
▁aba kandida
he rewe
li ta
to rewe
▁ka je
▁ka gere
▁ka ranze
▁wa pfuye
▁ari ryo
▁ga se
▁ni tu
▁tu gera
zu rira
▁bya ranze
▁yi fatanyije
▁uru zi
▁nta rengwa
▁s mi
ca ga
▁z’ abanyarwanda
▁n’aba citse
▁n’umu ririmbyi
▁by’ abantu
▁ara yi
▁yu nga
▁jo el
▁uwa ba
▁he mejwe
zan de
▁g n
▁nk’i zindi
gisha kishwa
▁kin ya
▁biza tangira
▁batu jwe
hura ga
▁fi rime
▁ro tary
▁uba jije
shyigi kirwa
▁kugu rana
▁ingo rabahizi
▁kayi rebwa
reme ye
chi el
▁gusha kwa
▁she ma
▁bizaba girira
▁guhe sha
con o
▁badu tangarije
▁fla sh
▁tuyi shimire
▁L e
cumu ra
▁akanya muneza
▁b’ubu zima
-ki gali
▁byatuma ga
▁tech no
▁annonci ata
‍♂ ️
- cro
▁ shan
▁b ran
▁b yemezo
▁i shyize
▁i buza
▁i peti
▁a byemeza
▁k han
▁u reba
▁u shingiye
▁u tegerejwe
▁ba yobora
▁ba fatanyabikorwa
▁ba tegerezwa
ru mva
▁ku ka
▁bi shanga
▁mu menyereza
▁mu shahara
▁gu tin
si zwe
▁umu ririmvyi
▁umu yoboro
vu yo
▁bu tunguranye
▁in kingo
▁aba fatabuguzi
▁ama modoka
▁gi ft
▁ki rangira
▁ru bu
▁ru ki
▁ru korera
han ura
▁ibi dandazwa
▁ma yor
mba bazi
gara riwe
▁igi pimo
▁wa ya
▁wa ll
▁wa ciye
▁ga san
▁ni zi
▁ni fuza
▁tu me
▁kuba gwa
▁kuba geraho
la v
hin yan
▁n’u shinzwe
jya ho
▁n’aba zungu
wu lo
▁ko herezwa
hanga moto
▁du saba
▁ca li
▁aga pfukamunwa
▁wi re
pi lote
▁bwa zo
▁yo tanga
▁re u
▁bara mutse
▁bata vuga
subi rwamo
▁mo ham
▁baga tanga
▁baza jye
▁yu nganira
▁so s
▁bwi shingizi
siga re
tin ye
▁twi teguye
▁bari yamiriza
▁iha mye
▁kubu ranishwa
▁ry’umu kuru
sira mu
▁K wa
▁pi er
▁atu nze
▁z’aba faransa
▁guse tsa
▁bw’in dero
▁hara ca
▁nyaga sani
▁for ce
▁nyaru tarama
mpu nzi
haza za
▁nyaka tsi
llo w
▁kune nga
▁igiti giri
lingi yimana
▁salon go
▁ado lphe
▁jos lin
▁rachi d
a mi
u ge
▁ 4
▁ 5
▁i rangira
▁a pa
▁n ba
ba ru
ma zi
gi shijwe
▁ba vugwa
▁ba rangiza
▁bi gana
▁bi dukikije
▁ya gwaga
▁ya ou
▁ya kubise
▁ya byaranye
▁mu ganda
sa ma
sa tion
▁ha genda
de sha
fa twe
rwa y
▁ama dosiye
▁ki zira
▁ibi kubiye
▁ma kuza
▁ubu rere
umu ryango
▁zi huza
▁zi boneka
▁zi taba
▁kan jon
▁igi caniro
gen je
▁ga horo
▁mi soro
▁yi yita
▁y’i modoka
▁ri hana
ca mo
▁n’u mwi
▁du kura
▁wi ze
pi ta
byi mba
▁bwa kwira
▁re my
▁n’ama cakubiri
▁y’ubu kode
▁an yuze
▁n’ibi dukikije
▁nu mvise
nde reye
▁kumu saba
▁kumu gora
▁nk’i gihe
▁babi bona
sore shwa
ruko za
▁uza sanga
▁M i
▁go od
▁pro line
▁uwi lingiyimana
goro ra
▁abo rozi
▁turi fuza
yamama zo
tekereza ga
▁inzira karengane
▁san drine
▁ntu shobora
▁bimu saba
▁mar ley
ngani ye
▁rura mira
▁abanye politike
▁uha mye
cumbi kiye
▁ite mewe
▁tw’ u
▁lou ise
▁nyaka banda
▁mubu zima
▁iman zi
heruka ga
▁kabi sa
▁wahi ze
▁rwin kwavu
▁basura ga
▁sour ce
▁nyiraha bimana
▁kanjon go
▁ fun
▁a a
▁a kundana
▁a gurisha
re ge
we ra
▁ba tangarije
gu nga
▁ku cyo
▁ku mwa
▁ku gendana
da giye
bu jumbura
▁bi renge
▁ya kurikiwe
ku bera
▁umu hire
▁bu tangaza
▁bu sitani
▁aba sanzwe
▁ru tana
▁ma twi
▁im ani
kin e
▁n’i mpinduka
▁n’a mwe
nge je
ubu yobozi
▁kwi butsa
▁kwi hagararaho
▁ga su
▁e v
▁ri haranira
yin jira
ni o
po l
po loma
▁co ba
garaga ze
▁ko loneli
▁ca cu
▁wi gisha
▁twa kora
▁bara komereka
▁aha tanira
▁yara bashije
▁n’ibi ce
▁abi menyesha
▁abi fuza
▁abi rabura
▁ara pfa
▁mo ise
▁c’ a
▁baga tangira
▁baga banutse
▁me s
▁jo lly
▁kubi jyanye
seze rera
seze rewe
▁z’i bihugu
▁babi bonye
▁by’i si
rangi rire
▁y’in kunga
▁b’i yo
▁rwi gema
▁uza huza
jan wa
▁is lamu
▁by’ama zi
▁san dra
▁muto ni
lari ty
▁waba shije
▁she lter
▁kita gomba
▁mana gement
▁eu stache
the rs
rohe we
▁tha rcisse
▁yaseze reye
▁miche lle
▁albert muhaburarw
▁tuni ziya
▁erne stine
▁E se
▁yize we
▁imp yiko
▁imvu ne
▁valen tin
▁wita bye
▁yatangira ga
-con tra
▁bigizwe mo
▁fai sal
▁proje ct
▁popu larity
▁cosse sona
soviye ti
▁saint- germain
g ye
k t
z wan
▁a girwa
▁u gize
▁u fashwe
mu saba
▁ba depite
▁ya gen
▁ya riye
▁ya yoboye
▁mu yi
▁mu vugizi
ki ka
ti mba
tan o
▁bu kora
▁aba rizwa
▁aba terankunga
▁ama yeri
▁ru shaka
han gani
▁n’i mbaga
le b
▁igi sobanuro
▁wa shing
▁bya hawe
▁nde ra
▁imi jyi
▁ri saba
la ya
la la
▁umun wa
▁ko ga
▁ko pi
▁ko rari
▁rwa teye
▁yo herezwa
▁igihe mbwe
▁nda vuga
▁bo kwi
▁an yu
▁yara ba
▁abi ga
▁hi sto
▁y’ama kipe
▁y’aba hungu
▁iza tsinda
▁baza fatanya
▁yaba bajwe
renga gije
sin du
▁byi ganjemo
gaban yije
▁b’i byamamare
fe ro
▁kigo ma
▁w’aba se
▁ntiba vuga
▁kura sa
▁are be
▁bimu tera
▁ser bia
▁gusu rwa
▁itu ze
sen ce
▁nyabi sindu
gejeje ho
ziba cyuho
▁n’impu guke
▁tuni sia
ziga mye
▁y’ib yumweru
▁agahe nge
▁sua rez
▁musana bera
▁hero es
▁moham med
- f
▁a shatse
▁a ryamye
re m
ma tari
▁ba fungiwe
gu kira
ru ma
▁ku mwanya
bu ndi
▁ya huriye
▁mu zabi
▁mu jyanama
▁gu san
▁gu hindu
▁gu sobanurira
▁bu renze
▁in yura
▁ha kusan
mi t
▁aba shobora
▁aba kina
▁aba generwabikorwa
fa ha
▁ama zamu
li o
▁gi huza
▁ma o
▁ka te
▁n’i hindagurika
umu seke
▁zi genda
▁na si
▁kwi bu
fu nd
zu ri
▁bya gombaga
▁bya vugwaga
▁yi mu
▁yi buka
▁yi yemerera
▁uru shaho
mbo ne
▁aka genda
▁n’aba tutsi
▁za kwi
▁pa wulo
▁akaba sha
pi ri
pi ya
byi za
▁rwa kiriye
ani za
▁n’ubu twererane
▁n’in ko
▁n’in gano
▁kwe merera
▁yara shwe
▁ikin e
ter -contra
▁n’ibi ti
▁no rway
jyan we
▁iza fasha
▁iza sohoka
▁kubi ca
▁kubi geraho
▁z’i sukari
▁y’umu gore
▁h y
▁al -
▁y’a manyarwanda
▁byi tabiriye
guri shijwe
▁baki mara
ir lif
▁M e
▁kuyi rwanya
▁fo re
cya fite
cya mbwe
bin jiriza
▁w’aba zungu
▁guta huka
▁inzu ki
basha kira
shyigi kiwe
▁guse se
▁bw’in zego
▁hara mutse
tumi we
tere ko
▁ab ’i
▁bakiri we
▁ikiri yo
▁ici caro
▁ac p
▁theo s
▁ntan go
▁babana ga
▁tuni sie
-a irlif
▁ryeme ra
pori tike
▁prince ss
kenya -af
▁ut c
▁vye rekana
▁jour nali
-first-lady -airlif
ghe ni
▁maga zine
to- kenya-af
▁work s
▁Ah sante
cting -covid-
▁miba mbwe
rukoza soni
▁washing ton
ter-contra cting-covid-
-first-lady-airlif ted-
to-kenya-af ter-contracting-covid-
I N
d hi
o nal
▁i vi
▁k nc
▁n c
▁u ca
▁u kunze
mu bayeho
▁ku bereka
ha hira
▁bi sobanuro
ze zwa
▁mu kiriya
ku mu
▁umu vu
▁in si
sa mbanyi
▁ha teye
▁aba wu
▁ama zo
▁ka mba
▁ubu faransa
▁im fu
▁im yambarire
hi je
▁n’i shoramari
▁zi sabwa
▁wa tewe
▁bya genda
▁imi tekerereze
▁y’i koranabuhanga
▁uru kuta
on go
shu bije
▁du fatanyije
▁n’umu tungo
▁cya zamutse
▁nti yeme
▁yo hereza
▁we nger
▁abi mukira
▁baha mwe
▁aza kora
▁so vu
▁baba bwira
▁yaha mije
▁ndayi senga
▁wo herejwe
▁atari geze
▁wu han
▁utu bari
▁bura van
▁sen tore
mban ira
▁z’umu ryango
▁guso ra
▁w hite
▁sin gita
▁inko ngi
▁rw’aba gore
▁ub w’
▁nga gi
▁b’in geri
▁bar wanya
▁iby’ in
▁ndu wa
muri tswe
kurwa mo
▁zita za
sen ywe
▁nk’ubu ryo
▁ababi shinzwe
▁bako ranye
▁ndanga gitsina
▁tuni s
tanzani a
▁ikini ga
▁rap port
▁labora twari
▁publi c
hoo com
▁ipan talo
▁med die
' i
- i
i ture
t ti
▁ sobanukirwa
▁a gere
▁n kiri
ya vuze
▁u sabwa
re gura
▁ba tandukana
▁ba shyinguwe
▁ba komeretse
ru he
bi za
ha t
ha magara
bu mu
▁c ine
▁c er
▁c dr
▁c hangamoto
▁ya hungiye
▁mu du
▁gu shyami
▁umu zamu
hu meka
▁in ota
▁in gemwe
▁aba kize
▁aba ririmvyi
yu zure
he sheje
▁ama higanwa
▁ama kamyo
li mana
▁ki la
▁ru herereye
▁ibi sa
▁ma komine
▁ka cu
▁ubu he
▁ubu muntu
so da
so me
so myi
ne ss
▁zi teye
▁zi yongera
▁wa tumye
▁kwi cisha
▁ni l
▁tu bonye
▁imi deri
▁ri korerwa
riki we
▁nta co
▁co un
kwi riki
riye mo
▁se mu
▁cya genewe
byi fuza
▁re ve
▁we mewe
▁bara ye
▁n’in tumwa
▁baka muha
▁n’ibi ra
jyan e
▁baga hitamo
shyu za
▁vya baye
▁ugu fasha
▁ira mbona
▁yabi shikirije
▁n’imi terere
▁ndi zera
▁kubu rana
zani a
▁ibya gezweho
▁uga hita
▁kuzi ba
▁ziri ndwi
▁as mara
▁bye rekeye
▁rw’aba kinnyi
▁bw’in koko
▁vy’ ukuri
▁musi tanteri
▁B u
▁ali ce
▁mazi mpaka
▁abayi silamu
mpu ndu
▁tho dore
▁soma liya
▁yaseze ye
▁bw’a furika
▁bamwi she
▁karu banda
▁mpi mbano
🤣🤣 🤣🤣
▁kuro ta
▁kitara gera
gili kani
▁vy’aba sirikare
damu tsa
▁pr sident
▁marce llin
▁vir gi
- rwanda
D A
b yumweru
c in
i kipe
▁ shyira
▁b yangombwa
▁i funga
▁a zanye
ga bwe
▁u zongera
ko ri
▁ba fatanye
▁ba sohoye
gu mye
bi korera
bi tyo
ge ka
tu mana
tu riye
▁bi kurura
▁bi rande
▁c mi
▁m dr
▁mu rekezi
ana si
▁umu fuka
▁aba ho
▁aba mo
mo s
▁ru saba
▁ibi garagaza
▁ka rengane
▁ubu ro
hi mbano
umu gabo
umu ntu
▁kan tu
▁kwi cungira
▁ari na
do r
▁ga shoboka
▁e van
▁s tre
▁n’u mwuka
po ration
▁co mp
▁se giteri
▁du shya
▁du komeze
▁du sabe
man ura
▁nti be
pi mwe
▁re co
▁n’ubu kene
▁n’in ota
▁n’in yamaswa
▁muri zo
kwa bu
▁bo r
▁baha geze
kwe gera
▁g rande
ste l
▁yabi bwiye
gizi mana
▁ro sine
▁ju lienne
▁icya korwa
▁muka mira
▁nk’umu toza
▁ti to
▁azi tabira
▁inda twan
▁kari m
kuba kira
▁bida hagije
▁kuta babarira
▁bw’in dengakamere
▁buta bera
▁T an
▁mwu mva
▁tuka bi
tira mibu
sen ywa
▁ry’ibi he
▁kub yumva
▁rw’ama shuri
▁uyi rwaye
▁mai rie
▁ndamu kunda
▁n’e jo
▁nyir ’i
▁peti te
▁n’ub w’
gejejwe ho
▁ry’iki rere
▁igna ce
▁jacque line
t hon
v yari
y n
▁a hanga
▁k wubaka
ga za
mu fashije
ma shini
▁ba san
▁ba su
▁ba kundanye
▁ku byemera
te ja
te nan
bo ka
se sa
▁ya zamu
▁ya mamaza
▁ya hinduye
▁ya tangiriye
▁mu mwaka
▁mu gheni
hu di
▁bu cye
▁aba cururiza
▁gi hango
▁gi tsinzwe
▁ki renze
▁ki rangiye
▁ibi lometero
▁ma tt
▁ka giye
▁ubu babare
▁im wi
▁p ris
▁n’i mya
▁n’i vya
▁zi cu
▁wa wo
▁ni geze
▁mi lle
▁mi yoborere
vi l
cu ngu
▁e cono
▁tu kana
▁bya hungabanyije
▁imi higo
▁ri re
▁nta b
▁nta wi
la de
▁aka byi
ni que
▁n’aba kinyi
menye sto
▁j on
▁ban yamakuru
▁ban yuzemo
▁se ra
▁aga tangira
▁cya teye
▁ata bona
▁pa py
▁twa hisemo
pi si
▁rwa gezeho
▁bwa baga
▁n’aban ywa
▁n’ubu vuzi
▁be ra
▁baga koresha
▁w’umu co
zuba ka
▁kin yinya
▁nko kora
▁cane cane
yungu ru
▁kuvu za
▁kuyi kora
▁kuyi koresha
▁n’uru rimi
▁cha llenge
kwira kwiye
▁n’iki gega
▁tanzani e
▁kiza mini
▁au rore
▁nk’umu gore
▁yana boneyeho
▁bida fite
▁bw’in ka
▁guhi miriza
▁un r
▁akana ba
▁b’in tamba
▁bazo ngera
▁umushinga mateka
▁she e
▁bandi kiye
▁myi teguro
diri shya
.. ..
mpan uka
▁yiga ga
▁nk’in tumwa
▁win ji
▁munyan damutsa
▁ger va
▁trans port
▁euro pa
▁murika gurisha
▁cy’ubwi canyi
▁intanga rugero
▁hea ling
▁cor poration
▁baye rn
▁ .
▁i ddy
▁a menyereza
▁u shoboye
▁u twaye
▁u kekwaho
mu zi
ma th
▁ba twa
▁ba tsinda
▁ba tangajwe
ru mbuke
ha go
tu yemo
▁bi yongera
▁bi koreye
▁mu buga
▁gu kwa
▁gu tsemba
▁gu kundisha
si s
si kana
▁bu ciriritse
▁in ganya
▁ha geze
yan g
▁ama duka
▁ama karo
▁ru nda
▁ibi tera
▁ma ba
▁ma vuriro
▁ka maro
▁ubu tungane
so r
▁w’ aban
hi sto
▁n’i biri
▁n’a gaciro
mba vu
▁wa me
▁ari co
▁bya garagaje
▁yi shimye
▁yi fashisha
rere we
▁ri komeje
ryo zwa
▁f t
ca le
▁n’u mwu
▁ban yamahanga
▁cya geze
▁wi lly
▁rwa fashe
▁re n
▁si byo
▁bita zongera
mbere ye
▁y’aba tabazi
▁baga ca
sobanu we
▁gute gera
▁jo lie
hora ga
▁di vi
▁bira mu
▁su m
▁n’imi kino
soho kera
▁bazi tabira
swa hili
▁uba she
▁ze rekeza
▁inta ma
cya komeza
▁bati shimiye
▁indi ri
vo id
▁yita bira
▁ub wan
▁ub winshi
▁mba ga
▁y’uru kiko
▁y van
cwa ga
▁lu cky
tumi zwa
▁baku ye
▁yuba ka
▁va ti
sana mu
▁bavu ka
▁n’umun si
▁pre sident
▁yasa biye
▁aman ywa
▁kubya rira
▁bru xelles
▁cy’imi rire
▁kavu kire
▁spe cial
▁V i
▁kwege ranya
▁eto ile
▁uwin eza
▁cali for
▁wire less
a we
c l
n ywe
ra ine
▁i sezerano
▁i kenewe
▁a twi
ri kwa
▁u herereye
▁ba fatiwe
ha yo
ha rangwa
▁bi koze
▁bi hita
bo ho
▁c vr
▁ya koreshaga
▁mu bona
▁mu shikiranganji
▁gu hoza
▁gu twika
vu we
▁in teguro
▁ha ll
▁ha kazi
▁ha vuka
▁aba camanza
ran dura
mwe ngu
▁ki gura
▁ma se
▁im bura
mba buzi
▁igi faransa
▁na fashe
▁wa garagaye
▁ga ston
ci rwa
▁yi rirwa
▁nde bye
▁s ms
co s
▁aka zo
▁aka boko
wu nge
man ganya
▁aga kiza
▁re so
▁ra chel
▁bata jya
▁bita jya
▁uku reba
▁y’ubu humekero
shan ye
▁yan gije
mbu tsa
▁be meye
▁n’ibi sasu
▁y’ama dolari
▁baha gurutse
▁aza gerageza
vuye ho
▁z’i yi
▁y’umu hondo
▁bw’i myaka
sin ywa
▁w’u rukundo
▁ja zz
▁w’ubu shikiranganji
▁yabi vugiye
▁iri mwo
yungu kiyemo
▁bimwe merera
▁kuyi toza
tungan yiriza
▁’ i
▁frw s
▁ihe rezo
▁inko ho
▁y von
ngani jwe
▁rwan yuma
▁byan jye
▁gise ke
▁bavu ganye
▁mwo bo
▁eco le
▁ve stine
▁mbo nimpa
▁baran dagiye
▁kuzaba fasha
▁sal ama
▁avugwa ho
▁mina loc
vie w
abanye shure
▁vy’umu kuru
▁mose s
▁abanyami tahe
▁tukiri nda
▁ngabi rano
▁briga dier
▁und p
tumana ko
pisi kopi
f fa
m yumvire
t b
▁ ""
▁i shi
▁i boneka
▁a sha
▁a rangwa
▁a kunzwe
▁a funze
▁u kurikiyeho
ka mbi
▁ba gejeje
▁ba gendana
▁ba rangajwe
▁ba hangayikishijwe
zi l
da bo
▁bi shaka
▁bi hariye
▁bi gendanye
▁c r
▁m sa
▁ya hindutse
▁ya mbwiye
▁ya juririye
▁gu kubitwa
▁umu bwira
▁umu hanuzi
▁bu hari
▁in sinzi
▁in keragutabara
sa bo
▁aba sigaye
yu z
li cien
▁ki tu
▁ru gende
▁ma ralia
▁ga ze
▁e ra
shin e
▁y’i zamu
▁s sp
ca t
la in
▁n’aba ta
▁w’i bikorwa
▁n’umu ziki
▁nti du
▁pe mbe
▁pe op
▁igihe com
▁po ste
lo s
lo re
fo tora
kiri ro
▁y’aba rundi
▁mo tema
▁baza ga
▁baza kina
nzi re
bara sa
▁kure bwa
▁ry’i banze
▁by’i burayi
▁biba ha
▁biza komeza
▁bin ya
▁kw’i bi
▁nyi ran
▁z’u mwijima
▁bihe ruka
▁ubwa yo
▁kuzi taho
▁bw’u mwana
▁lo cal
▁yonge re
▁z’umu tima
▁by’in terahamwe
▁I mana
▁kw’ in
komere je
▁yagu zwe
▁sy stem
kundi ye
▁ruha shya
▁ange les
▁gusin yana
▁ivan wa
▁yabu genewe
▁n’impu ngenge
rwana shyaka
▁w’umun yama
▁bakin ana
kode sha
thi lde
▁n’ibihe mbo
hindi ro
▁nyami tari
phi le
▁shaddy boo
▁ubwu mvikane
pos ts
▁boni face
▁baraya gwiza
▁ibicu rane
▁n’imbu nda
▁gerva is
- b
a h
c ca
d le
m cuncu
n yarwanda
t cookie
y miu
z rsu
▁a hindura
▁a kuramo
ri ur
▁u rwi
▁u kinwa
mu kanya
▁ba b
▁ba hin
▁ba ririmbye
▁ba shyizeho
▁ku ze
▁ku cyumweru
bu ne
bu riwe
▁bi bangamira
▁bi eber
se be
▁ya gendaga
▁mu shatsi
▁mu mena
▁bu renganzira
be rg
▁in kuba
▁ha kana
yu myu
▁ama fa
▁ama rembo
han yura
▁ibi hangange
so ft
mba sa
▁wa t
▁wa shinzwe
▁wa kozwe
▁wa vutse
▁kwi tanga
▁ga tabazi
▁mi fuka
su yriu
cu myu
▁e tiyo
▁ri ha
rika zi
la h
▁w’i huriro
▁y’u turere
▁ko min
▁du komeza
▁gusa mbana
▁nti za
pi s
▁cy’ aka
▁n’ubu rwayi
▁nk’u yu
▁yara vuze
▁n’ibi menyetso
▁n’ibi ciriritse
▁baha raniye
▁w’umu zungu
▁kubi bona
▁kubi kurikirana
pfu shije
▁do na
mvi sha
▁twi buka
▁af fi
▁bari shwe
▁nyi raneza
▁n’ubwo ko
▁ro b
▁by’u yu
▁yitwa ga
taba ho
▁uwu rongoye
▁umwi geme
▁umwa limu
▁bitu mizwa
▁kura bo
▁cy’umu kinnyi
▁uko ngera
▁yavu zwe
or dateno
shishika rijwe
▁ur wandiko
▁zita ha
▁gutu ruka
rondo ka
▁bri ght
▁bamenye reye
▁promo tion
▁mbo go
▁kubya kira
▁kutu bahiriza
▁ngurukana bumenyi
▁bakin e
▁supe rs
▁dieudon ne
▁b’imi dugudu
miu osu
rsu riur
sc ript
▁pala ce
document cookie
flo ordateno
▁cna red
▁ez ra
qi u
math floordateno
▁etiyo piya
miuosu mcuncu
mathfloordateno we
g rou
i sha
i gihe
p la
▁ gere
▁ ent
▁i tangaje
▁a shakisha
▁n genzi
▁n soro
▁n din
ri ho
ba r
za yi
▁ku hu
▁ku mwo
▁bi be
▁c hora
▁ya kinaga
▁mu bye
▁mu koresha
▁mu hizi
ki wa
▁gu taba
▁gu ar
▁gu tumiza
ku rire
▁r y
▁r winshi
▁umu tahe
be ya
▁ha tangi
▁ha tangijwe
▁ha tegerejwe
▁aba du
yu ndo
yan jye
▁gi hano
▁ki guzi
ke nd
▁ru huza
▁ibi gega
▁ibi tangazamakuru
▁ibi fungurwa
▁ma gufi
▁ubu ringanire
hi mbye
▁n’a mezi
▁na sanze
▁kwi fata
do giteri
fu ndi
fu rushi
▁ga u
▁ni mi
su l
▁tu kaza
▁bya gize
▁yi vuye
▁n’aba bi
▁umun yamahanga
▁za mu
▁bwa cyo
ve l
▁n’ama tora
curu rizwamo
▁de r
mbu za
▁rya tumye
▁no tre
▁bite gure
▁y’aba shakanye
▁guha za
▁abandi tsi
▁yu garije
▁uwa cu
tin gi
▁twi shimiye
▁w’u kwezi
▁ira teganya
▁ira kangurira
▁la gos
▁kujya mo
▁w’ubu shinjacyaha
fungu zo
huza ga
hagara ro
shyirwa mo
▁ry’umu rimo
▁ar ti
▁guso mwa
▁cy’ubu jura
▁ruri ho
▁ntu ka
▁w’iki tegererezo
▁basa za
▁H i
▁by’umu tima
▁fu ture
▁kwandi kisha
▁nsengi yaremye
ari fa
▁ange lique
▁ntangi ro
▁ice se
▁bwu mvikane
▁minist ry
▁communi cation
▁equ ity
▁micro soft
▁dusin gizimana
▁geno cide
endele a
▁teri twari
▁kwuba hiriza
▁hunga bana
a to
d da
o zi
u ku
▁ 0
▁i genewe
▁i shyari
▁a kurikije
▁a boneraho
▁n geze
▁n kura
ri tsa
ga he
ba rizwa
▁u fatika
ka gombye
▁ba bwi
▁ku pata
bi gwi
▁bi saga
▁bi genze
▁bi byara
▁c ri
▁ya k
▁mu sabwa
▁gu hungabana
▁gu fungurwa
▁gu twarwa
ku tangije
▁in gurube
▁ha shoboka
▁aba pfuye
he mbwe
de on
▁gi an
to a
▁ibi si
▁ma tyazo
▁im f
fi tiwe
▁zi tanu
▁na geze
▁kwi yungu
▁kwi yemeza
gen jeje
▁ga mes
▁ni ri
▁mi ra
cu ma
▁e ze
▁kuba fite
▁bya tangaje
▁bya kabaye
ci o
▁ri kora
▁ri dasanzwe
▁f lix
▁je nni
▁cya tumiwemo
▁ta mbwe
▁bwa bi
▁bwa baye
▁yo shobora
▁si ma
▁n’ubu muga
▁bo ts
▁rya rangiye
▁te kutangije
shira mwo
▁he ne
tangi rana
▁di re
▁af p
▁ika mu
yuba ha
▁y’in kondo
▁n’imi koranire
▁ro dri
▁go d
▁ntiba ri
herere je
yene ye
▁kun yonga
▁atu yemo
▁ry’u bwi
▁ntibi buza
▁sin dayi
▁bw’ama hirwe
ph rem
▁umura byo
▁bifite mo
▁uzi rwaye
▁d’ or
▁ry’in dege
▁n’abanya gihugu
▁wabi mburiwe
two rk
▁kudu fasha
▁ig p
pho to
▁mwomenya ko
▁or gani
▁eto ’o
▁robo t
▁rw’icyo ngereza
koso we
▁yoze fu
▁yvon ne
d ina
d ric
i mwe
m biri
o f
p te
▁i kunzwe
▁a hitamo
▁n tandaro
▁u rangiye
gi a
te zi
▁bi bwira
▁bi shyize
▁mu myaka
▁mu soni
▁mu randa
di en
▁gu kurikizwa
wi tter
me ru
vu je
▁in yangamugayo
▁ha pa
▁aba rezi
ran guwe
▁ibi renge
▁ubu shomeri
▁ubu shishozi
▁p hone
kan gurirwa
▁kwi si
▁kwi fuza
▁kwi girira
▁kwi kinisha
▁kwi pimisha
do ga
▁ni shimiye
su pu
tanga rugero
▁tu genda
▁uru saku
▁aka menya
▁n’aba rimo
▁za re
tura l
▁ko sa
tera si
▁du tanga
▁du fata
▁ca leb
▁n’umu nani
▁twa ya
▁sa b
▁sa r
▁sa ke
▁bwa mu
▁bwa ha
▁yo ri
▁bara za
▁o pera
▁rwe meza
▁uku bi
▁abi twa
▁baha hungiye
▁y’aba sirikare
▁baga tera
▁yu mve
▁jo vani
hindu re
▁uwa yi
mwi she
▁z’i byo
▁di ya
▁al li
▁biza korwa
▁la c
▁bira ro
▁bamu teye
▁man ini
sabwa ga
▁pro tec
▁yabaye mo
subira ho
▁w’aba gore
th re
▁bw’in twaro
▁izo ngera
▁ruza kina
▁ubi zi
▁z’ubu kungu
▁kwo ro
▁nk’in yama
▁d’ ar
▁nico le
▁sur vie
▁abaha tuye
▁b’ibi yobyabwenge
▁nyir ’ama
▁mac ron
cke r
▁w’im fubyi
▁iho rere
▁igite rane
▁care er
▁yatanga ga
▁jenni fer
▁muranda si
e sa
g f
k hana
n ’i
ra l
ra po
▁i subira
▁a go
▁n je
▁ba ryo
▁ba rwo
▁ba fitiye
▁ba shasha
gu shyingo
ta baza
yo ka
▁bi fatwa
▁bi tana
▁ya hinze
▁ya girizwa
▁ya kubiswe
▁mu bikorwa
▁mu cya
ki go
si me
ku mbuye
▁umu hini
▁bu shasha
▁bu garama
wan ira
▁ha korera
de f
▁ama shuli
▁ki jyanye
gan ywe
▁ubu tasi
▁n’i mari
▁igi ta
▁igi tangaje
▁igi foromo
▁wa cyo
▁ga herereye
▁bya hoze
▁yi yi
▁yi shyurwa
▁ri bera
▁ri tuma
▁uru simbi
▁uru dandazwa
pe rikazi
shyi rwe
▁aka gi
▁aka gu
▁t wan
▁n’aba kuru
▁n’aba kora
ngu bu
▁du kundana
▁n’umu renge
▁akaba kaba
▁d jo
▁n’ama dolari
▁bata ki
▁bata bashije
▁muri ro
fata ga
▁uku ze
shan ywa
▁yan ge
▁yara je
▁ikin yobwa
▁abi mana
▁baza gera
▁so n
▁he alth
▁baba rizwa
▁yaha ga
▁biga korwa
▁kubu bakira
▁uba ho
curuza ga
▁bada shoboye
▁bw’u rukundo
▁byo ngeye
zin da
▁muda cumura
▁muru yo
abanya furika
seke za
▁arse ne
hurira mo
▁intamba myi
▁bago mbye
▁ire mbo
▁b’ibi go
dindi ye
pre ss
▁imizi go
▁k’a furika
▁profe ssion
▁wea sel
▁mart ine
▁n’iy’i burengerazuba
▁jor dan
▁hos pital
▁kupi tia
▁ntab goba
▁affi che
▁protec ted
Y A
▁a min
▁n yeshyamba
ri zi
▁u kin
▁u renga
mu lenge
▁ba rangwa
▁ba horaho
▁ba rwanyi
▁ku gisha
ge s
bu tu
bu mbiye
▁bi ya
▁bi hinduka
▁bi zera
▁bi kennye
▁ya m
▁ya zamutse
▁ya giraga
ro s
ro ta
si gana
▁umu hinga
je ho
ti jwe
▁bu gira
▁in yinshi
sa tirizi
he n
ran du
▁ama dorari
▁ama yobera
▁ru tangiye
du c
▁ibi maze
▁ibi vugwa
▁ma taba
▁ubu banyi
▁ubu baji
▁im pfu
▁na ka
▁wa za
▁ga bo
▁ga shya
su r
cu le
▁bya twara
▁bya bayeho
▁bya teguwe
▁yi teze
▁nde ba
shu mbu
▁nta shobora
hin o
▁n’aba hagarariye
▁y’u rwo
▁bw’ aga
▁ko ngerwa
▁n’umu riro
▁cya tangiriye
▁twa tsinzwe
mva ho
▁be i
▁ye mwe
▁n’ib yamamare
▁babi genza
▁bira kwiye
▁y’in zoga
▁uta mu
rengan ye
▁utu butse
▁amu kunda
taba zwa
▁biro metero
▁muka rere
▁au re
ndu ro
▁yana sabye
zin go
yura mo
▁cy’in tara
▁ub wubatsi
fungura ga
▁n’ubwi sungane
▁z’in yama
▁rw’ubu kerarugendo
▁y’im yumbati
▁kiba ho
▁ihu manya
▁ali cia
▁ry’ama gare
▁n’uwa hoze
▁zika jya
▁nyabu na
phe n
simbu zwa
▁ababi koze
▁ami ssi
▁ntibya bujije
▁ag ri
▁ad dis
▁ve daste
▁chu k
▁yaseze ranye
▁dro gba
ziga me
▁hama d
▁br sil
▁ikira ro
▁yaro hereje
▁mul indi
▁bataru zuza
▁Tan zania
▁califor nia
▁bots wana
▁b lo
▁a so
▁n yubakwa
wa hoze
ye reka
gi sa
▁ba g
▁ba suzu
▁ba gurisha
▁ba rongoye
▁ba cyi
▁ba vyi
▁ba tangizaga
ru huka
▁ku tumvikana
ta vye
bi ga
bu ranisha
▁bi shika
▁bi zongera
▁c yonyine
▁mu jye
di van
▁gu shikiriza
si ma
▁umu tu
vu kana
▁bu c
▁ha ke
▁ha mbavu
▁aba padiri
li wa
▁gi shwa
▁ki banyi
▁ru mu
▁ru tangira
▁ru pangu
▁ma x
▁ma toni
▁ubu dozi
▁im pin
▁n’i v
▁zi fashwe
▁zi shimira
le ra
▁ga sanzwe
▁ga tabo
▁ga hindiro
▁tu ne
▁ri shasha
riki zi
▁aka ha
ngu kira
▁za jya
▁y’u rwanda
▁y’u mwami
▁le ga
▁se x
▁du komeje
▁aga himbazamusyi
▁rw’ agateganyo
▁bata rya
▁an ganya
ren gana
▁be au
▁be gereye
▁abi zeza
▁ara mbye
▁aza shyirwaho
▁baga burira
▁l and
▁kumu kunda
▁byi basiwe
gaban ywa
rangi rira
▁ugu shyira
▁bin yuranyije
▁bin ubira
▁ndi ri
▁kubu fatanye
▁kuvu tsa
▁ne t
▁ne twork
twi tse
▁bura matari
herere jwe
lin da
▁bw’u turere
▁muha zi
▁es sence
▁amavu riro
▁ida kingiye
qu a
▁kura mba
▁isa be
▁bakorera ga
▁bakiri nda
▁nyaru rembo
▁b’umu gambwe
simbu rana
geri an
▁l’ a
▁cyu garije
▁vyi we
▁P a
▁bro thers
▁baho mbejwe
dindi za
!! !
▁wasa fi
▁haku rya
viriye mo
▁deo gratias
▁kwiyu manganya
▁wavu kiye
▁windo ws
tsimba taza
▁muci caro
▁pier rot
▁peop le
▁gishwa ti
R I
g t
p pa
▁ genda
▁i bere
▁i korerwa
ma la
▁ba byin
▁ba yobowe
▁ba sangira
▁ba mpo
za gira
ru ngu
▁ku ban
▁ku gurirwa
▁ku gwiza
▁ya tangazwa
▁mu ganira
▁umu shi
▁umu tware
ti ze
be te
▁in s
▁in anasi
▁ha boneke
▁ha beho
▁aba ra
▁aba tora
▁aba komeje
ran ana
▁gi sha
▁gi tangwa
▁ru tari
▁ka baye
▁p ra
hi ma
hi shu
▁n’a be
bere ra
mba guza
▁zi korera
▁zi teza
nge ze
le urs
▁wa garagaje
▁wa koraga
▁wa hisemo
▁wa twaraga
▁kwi kubita
su gi
▁tu gi
▁tu menye
▁yi yemeza
▁s tra
tsi ma
▁ic yemeza
▁aga taro
▁cya vuye
▁twa gize
▁rwa citse
▁n’ama kuru
▁n’in tego
▁nda tekereza
bya kira
mbu ngo
▁by’i tumanaho
▁byi basira
▁biri ndwi
▁ira saba
▁iha garariye
▁y’in genzi
▁cyi zere
mwa duko
▁ubwi yongere
ck s
▁wu ba
▁uza yi
▁y’ibi ro
▁ke ys
▁nk’umu gabo
mban i
▁as si
▁z’aba hanzi
cha r
▁fran cine
▁by’ubu hinzi
▁tuba she
▁mwe zi
▁ntu ga
▁iby’ u
cyi tegererezo
▁k’i gihugu
▁biru shijeho
▁ihu mure
tsindi we
▁gutu ritsa
▁nk’ibi sanzwe
▁abazi tabira
▁mazu ru
▁kugaru rira
▁clo thilde
▁n’aka maro
▁C o
▁nor fund
▁dar ling
▁tha t
▁mbu to
▁bw’ibi taro
▁rona ld
▁twara baye
▁banga lore
▁bibu tse
▁dro ne
▁nyaba gendwa
▁ibe ndera
▁#R wanda
▁centra l
komo tse
hwi tse
▁cd ric
▁inyarwanda com
▁n’ibin yobwa
shege shwe
▁avan ce
▁tro pi
▁flori bert
▁imani shimwe
umuseke rw
▁pris ci
▁komin ya
▁chora le
T A
i te
i gn
k s
n we
ra m
▁i bone
▁a gizwe
▁k er
▁u hana
▁u shimishije
▁ba subiye
ru gu
▁ku van
yi ro
bu je
▁bi kunda
▁ya kabaye
▁mu mi
▁mu cye
▁gu toroka
ku va
je ni
tan t
▁bu te
shi di
sa mana
▁aba ki
yan gwa
▁ama shyaka
▁ama telefone
▁ru papuro
▁ibi tsin
▁ibi tandukanye
▁ka mara
▁ka guta
▁im ye
▁n’i cyizere
▁zi gizwe
▁zi habwa
▁wa fashwe
▁wa twaye
▁kwi rara
san gije
▁ari ndwi
▁aban zi
▁tu wu
▁bya tera
▁nde ngera
▁iki gamijwe
korwa ho
▁f ri
shu a
▁aka gali
▁n’u kwi
no t
▁n’aba hutu
▁n’aba mwunganira
menye rezo
▁ko fi
▁n’umu fasha
▁aga komeza
shimi yimana
▁twa hawe
▁rwa koze
riza ga
▁ra y
▁ra mba
▁bara fise
▁bata renza
▁nda gu
▁rwe meje
▁uku bura
mbu kanyi
▁be er
▁no t
▁ita zajya
▁y’ama teka
▁vi de
▁mo be
▁gute rera
sin yanye
▁yaha geze
▁babi fata
▁by’i gi
▁b’i mana
▁b’i myenda
▁w’ubu tabera
▁rw’i wawa
▁iba rirwa
▁ci vil
▁baki cwa
▁uza shyingura
▁kuyi tsinda
genga bi
▁ubwa to
subira yo
▁kiza gera
▁indi shyi
vo mesha
▁K U
▁U na
▁by’in ama
▁inda twa
▁inko no
▁rukundo muhaburarw
reme we
kini rwa
▁mar ket
▁busa samana
▁sy ria
▁guhe ma
eu tenan
▁kwo rora
▁c’umu pira
▁yata hukanye
banutse ho
▁kami kazi
▁tuta zi
den ce
▁yasin ywe
▁mon de
▁beyon c
▁ap tre
▁gukurikiranwa ho
▁babivuga ho
▁mur’i yo
▁gaho nzire
rikiye mwo
▁seba kungu
ryi tabira
▁eme lita
▁anani as
yomo je
▁ritu bere
▁amade vize
▁olo mide
▁d’ar c
▁nyir’ama zu
▁bampo riki
R A
b ration
▁i buye
▁i keneye
▁a rwa
▁a rana
▁a tana
▁a jurira
▁n gera
▁u tekereza
mu riza
▁ba ce
▁ba shake
▁ba gurirwa
▁ba shyigikiye
▁ba bwirwa
▁ku nganira
ge shi
da ca
▁bi genga
▁bi garagaye
▁bi kubiye
▁c hina
▁ya su
▁ya kwa
▁ya hera
▁mu m
▁gu suzugura
go sha
▁umu twaro
je vic
ho mbye
▁bu shimishije
▁in tu
▁aba cukuzi
he bura
▁gi shu
▁ki ya
ke a
▁ibi tari
▁ibi tsina
▁ma ko
▁ka geri
so u
▁zi geze
▁zi janye
▁igi fite
▁igi porisi
▁wa komeje
▁wa banje
▁wa shyiraho
▁kwi gana
fu ti
fu jwe
▁ga ti
▁ni li
su ri
bwo rozi
▁tu reba
▁tu basha
▁bya ru
▁ri to
▁ri ndi
▁nk wi
▁n’u wundi
▁umun yu
▁je n
▁za fatiwe
▁mun wa
▁mun yeshuri
▁ban gui
▁se ru
man o
▁cya hawe
▁wi ll
▁wi yongera
▁rwa gize
▁bwa ki
▁yo ku
▁o lu
▁n’in tambara
subi tse
▁minisi tere
▁n’ibi rwa
▁rya we
▁vi za
▁iza tanga
▁abatu riye
▁te l
teke rereza
seze rerwa
bira bura
▁wo men
▁ubwi tange
▁bana ba
▁kuvu mbura
▁kuyi rinda
▁zu zuye
▁iga kurikirwa
mban yije
soro ro
▁y’igi ce
▁y’igi humbi
▁lu ther
▁ruza kira
▁bw’umu biri
▁z’in zungu
▁zin jirira
▁wara ye
▁cy ri
mpan de
▁R u
▁nara muka
▁abayi curuza
▁ani zwe
▁hare bwa
▁ala rm
▁gatu lika
ryohe we
▁Y A
▁gushyirwa mo
▁bigaraga ze
▁wasa c
ice ster
▁regi s
▁ubusu gire
▁sale h
▁gukini rwaho
▁ugashi duka
▁ode tte
▁judi th
▁maran yundo
▁supers tar
Z I
h y
i me
m van
t indi
x t
an de
ra mba
▁i y’aba
▁a mo
▁a vi
▁a men
▁a bera
▁a sanze
▁a jyana
▁a kane
▁a sengera
▁u teganyijwe
▁ba zima
▁ba shimwe
▁ba yoboke
gu sha
▁ku zan
▁ku hungabanya
▁ku mar
▁ku bandi
da rume
▁bi la
▁bi gire
▁bi zana
▁bi shatse
▁bi yambaje
▁gu serukira
▁gu tandukanywa
ti siti
▁bu komeje
▁bu nya
▁in dero
▁aba jyanama
▁aba toye
yu zwe
de l
▁ama ranye
▁ama renga
▁ama bara
▁ki gi
to ngo
▁ru kwiye
han d
▁ma pu
▁ubu ngubu
▁zi bwe
▁zi tangira
▁zi hagije
▁zi genewe
▁zi tegekanijwe
twa rira
▁kan si
sho nga
▁wa koresheje
▁wa wundi
▁ari rwo
▁ga hanga
▁tu ff
▁ri teganya
▁aka manzi
no va
▁n’aba koresha
▁v el
▁ban yonzi
▁ca ssa
▁n’umu saruro
▁wi genga
▁twa koranye
▁we ngi
▁bara ka
▁o mo
▁n’ubu ganga
▁n’ubu baji
▁n’in danga
▁nda yambaje
▁baka rushaho
▁cy’i kawa
▁no ti
▁y’aba yobozi
▁mo unt
▁mo mbasa
▁iza komereza
▁kwa kirwa
▁baza hita
kwe ho
▁kuru buga
▁abatu si
▁li cen
▁ntara ba
▁h ’i
▁babi sikana
ste ur
▁ika bona
▁biba siwe
▁ira gira
▁b’i ri
▁rwi gira
▁w’ubu rezi
▁rw’i sukari
▁bamu fasha
▁kur ’iyo
▁ro nd
▁bazi sanze
▁ibya ra
▁uka vuga
▁uka gera
▁y’ibi hingwa
▁ju n
▁z’ama ta
fun gira
▁ada sanzwe
▁yabaye ho
is se
menyi mana
shami kiye
kwira giye
▁ana shinjwa
bin ywa
haga ti
▁bake nyezi
▁nke ka
▁nza mwita
▁ruri kesha
▁kana ka
▁nga gara
▁ruza cibwa
sanzu ra
▁z’ubu curuzi
▁gucu ra
au x
▁tuka bona
neze za
▁buka gabanuka
▁ste phen
▁african s
▁ex press
▁wabi gize
▁ag be
▁J e
ryohe ye
len ce
manya buraya
▁bahatanira ga
▁yakira ga
▁abase nyeri
▁sh ani
▁andre w
▁ikira ka
▁maze mbe
▁ihan giro
suru tsa
▁ntimu za
▁abacu nguwe
▁utwa tsi
▁kuto ka
▁havu gi
▁ntaka buza
▁agen cy
▁inu mero
▁y’impu nzi
▁nami bia
▁reu ters
▁amazo n
- general
E N
d j
t ts
u p
v ine
▁i po
▁i shira
▁i zan
▁i huje
▁a ce
▁a mbu
▁a shika
▁a tere
▁a funzwe
▁a gence
▁a binjira
▁a subirwamo
re jwe
ma rana
in jiriza
▁ba menyesha
▁ba fatanije
▁ku menyana
ha gera
ha tanira
▁bi r
▁bi bonye
▁bi kanga
▁bi tsura
bo re
bo -cro
▁ya sha
▁mu rangwa
go za
vu zweho
▁in kumi
▁aba gira
▁aba korera
▁aba rara
▁ama shyiga
▁gi koreshwa
▁ru sororo
du mbaguza
▁ubu tabazi
▁im yama
mba ti
▁zi she
le tte
▁wa soma
▁wa kinaga
▁kwi haza
▁kwi twaza
▁kwi bonekeza
▁bya sobanuwe
ci kana
▁yi ciwe
▁yi mirije
▁yi yongereyeho
▁iki buno
▁ri komoka
▁aka bura
tsin de
▁n’aba shaka
▁n’aba sanzwe
▁za bi
maze yo
▁ca sa
▁ca ssan
▁gusa ma
▁wi mu
▁rw’ andi
▁bara cyari
▁o da
ja wa
▁y’ubu kungu
▁n’ibi reti
▁hi gh
▁y’ama hanga
▁baza va
▁yaba fasha
▁ye tu
seze ranya
shyu shye
horo ro
▁do u
▁by’i myidagaduro
▁twi zeyimana
▁yakore rwaga
▁biba teza
▁hu awe
▁bari vuyeho
▁ndi zeye
▁da lla
▁uta shatse
mini st
komoka ga
▁cye gukanywe
▁muka mana
lin der
▁K ama
▁umwu zukuru
▁rw’aba ririmbyi
▁kwan yu
▁b’aba gore
▁mura mvya
▁muse go
reme zwa
▁bwana cyambwe
▁gise mbe
▁par ti
▁bate rankunga
▁nki bi
▁yako mo
▁ubura mbe
▁ry’in yama
▁mbu nda
▁bibu jijwe
▁L i
▁cou leurs
▁euro pe
▁yasi mbuye
▁mure mure
▁ath leti
▁mane geka
▁tugeze mo
▁regi onal
▁turu kiya
▁ind yo
▁coup le
▁ruke rera
ranishi rijwe
▁zize rera
▁nkin jira
eutenan t
▁vel zen
c ne
l n
m pamvu
▁ X
▁ terambere
▁i rushaho
▁a rya
▁a gendeye
▁n gero
ba vu
▁u men
▁u nde
▁u gezweho
▁u vomesha
ye gukana
ma ko
▁ba shin
▁ba tange
▁ku vye
▁ku ryoherwa
se ye
▁ya kiniraga
▁mu korana
▁mu yaga
ki bazo
di es
▁gu humbi
▁gu tangu
▁gu kinisha
si re
▁umu rima
▁umu semburo
ban danye
▁bu se
▁bu ts
▁bu gingo
mi ller
▁aba yinywa
he rekejwe
ran ganji
▁gi twe
▁ki d
▁ki menyetso
▁ki vandimwe
▁ma h
▁ma re
▁ma cumbi
▁ubu sitani
kin ire
▁n’i mbo
le ne
sho za
▁kwi dumbaguza
su kura
▁tu ngu
▁yi pfu
▁yi zera
▁yi kata
▁y’i joro
▁ri sesengura
va rekurwa
ca tions
▁aka bo
▁w’i bireti
▁w’i sekuru
▁za koze
▁co ur
▁du fasha
▁n’umu menyereza
▁gusa ka
▁gusa rura
▁nti byo
▁twa buze
gani rije
▁bwa koreshejwe
▁bara kora
▁bara juririra
▁bita mu
banu ke
▁uku za
subi jwe
▁ho ho
▁nu wa
▁hi giro
▁bite go
▁mo butu
▁aza korwa
▁baga kira
▁baza fasha
zira karengane
kura ga
twe reka
▁uwa mwunganira
seze ra
▁li tro
▁y’umu gambwe
▁nk’i kipe
▁by’i mikino
▁by’i bireti
▁w’in dwi
▁mwi gira
▁ika vuga
▁la kini
gere zwa
▁bari shimira
▁z’u rukundo
▁M ura
▁uka yi
▁uka menya
jan darume
▁go ran
▁n’uru gaga
▁bura cyakomeza
▁ada haranira
▁ke reka
vo iture
▁abe l
▁bato rwa
▁kun anirwa
▁yana hamijwe
▁udu handa
▁izi tabirwa
▁izi hize
▁yari geze
▁cy’in twaro
▁yahise varekurwa
▁ihe ruhe
▁c’i kawa
▁kira mbuye
▁tuza bonekamo
▁ayi ta
▁vo mo
▁ab yumva
▁ab dou
zihi je
▁riri ko
▁muke shimana
▁she h
▁avu nje
shishika jwe
▁ser bo-cro
▁kuha korera
▁babu ranishirijwe
huriye ho
tro fa
▁cy’a manota
▁mutu zo
▁tuyi shime
es bourg
▁mpa garitswe
▁bw’ubu rundi
▁by’a bana
▁n’aga koko
▁chu mbe
▁akurikiran kweho
▁z’ibi ciro
▁ap dr
▁compan yi
▁rwamu hungu
bed ha
▁n’urwa bandi
▁johan esbourg
▁asu mani
▁er linder
▁anani riwe
▁die go
▁iby’imi soro
▁w’ibyo herezwa
▁gutungu rana
▁petro rwanda
▁gaha to
▁abita riye
▁rizi tabirwa
▁taxi- voiture
▁khali da
▁mukarwe mo
▁zou bedha
▁kwibu mbira
▁brigadier -general
▁sab miller
▁kworo zwa
▁profession nel
▁aure lien
▁ibitsin si
▁ntaraba ganyi
▁agbe nonci
▁uwamwunganira ga
▁iheruhe ru
▁serbo-cro atian
▁mpagaritswe nimana
- yo
e rt
k win
m m
v b
🇷 🇼
an u
▁i zima
▁a kira
▁a renze
▁a fatiye
▁n yin
▁n gue
ri ba
ga sa
▁u curuza
gi she
▁ba fashijwe
za bera
te ngu
yo gwe
bu rirwa
▁c c
▁m oni
se y
▁ya shimishije
▁ya funguraga
me nera
hu rije
▁bu hanga
▁in tonde
▁ha banje
mi ro
he l
▁gi subizo
▁ru bona
▁ru kura
▁ibi totsi
▁im ma
hi shi
hi mbiye
▁n’i mbere
▁n’i torero
fi ka
▁zi shaje
▁kwi gishwa
▁kwi shura
▁ari mwo
▁ga tara
▁ga shora
▁ni zera
▁mi s
▁imi fuka
ndi riye
▁ri hari
▁nta ganzwa
▁aka va
▁za geze
▁y’u bwa
▁le icester
▁du habwa
▁du tuye
tara mirwa
kira ga
▁aga kora
pi mye
▁sa u
▁re bero
bana ga
▁de fen
mbe ri
▁uku biri
▁yan yuzemo
mbu riye
▁yara buze
st ry
▁n’ibi jyanye
▁rya cyo
▁no us
▁hi taye
▁ara mbwira
▁baha garitse
▁iza hura
▁yu garijwe
▁kuru hu
pan de
▁kumu shyigikira
▁bwi ra
▁babi gize
▁by’i ki
baba riye
▁bira cya
lika re
▁n’imi hindagurikire
▁ne lly
▁bwe rekana
▁K andi
▁pi a
▁kuta menya
▁guse n
▁mba bwira
▁min u
▁isa bune
▁by’umu jyi
▁S o
▁urugo mero
▁koro he
▁theo phile
ruhu tse
▁D u
▁lau rence
▁y’abanya merika
▁www muhaburarw
▁gusubi ka
▁cd p
▁tou ch
▁sai do
▁abanyamu lenge
▁dutu ranye
▁y’ingu zanyo
-in kotanyi
▁bw’im yororokere
▁huawe i
▁hitaye zu
g ha
m z
▁ genekerezo
▁i ze
▁i shyira
▁i rani
▁i zere
▁i bandanya
▁i deni
▁a rangiza
ri mbira
▁u su
ma y
▁ba tangura
▁ku taba
bi ba
ha bi
▁bi menyimana
▁ya bye
▁mu be
▁gu taka
▁gu shyikiriza
▁r v
me ranya
tan gana
▁bu zwi
▁bu jejwe
sa mbanya
▁aba gana
▁aba bonye
mwe merera
▁ru yi
▁ru sumo
du rwa
▁ka rasira
▁im byino
▁n’i tatu
▁n’a b
na se
▁igi shoro
▁wa reba
▁wa tsinzwe
▁wa ranzwe
do bo
▁ga mbia
su nga
shin gi
▁bya korwa
▁ri tegurwa
▁nk '
va in
▁aka ri
▁aka ranga
ni tse
▁n’aba genzi
▁za koreshejwe
gize ho
hanga rwa
man da
▁n’umu byeyi
riza mo
▁bwa tanze
▁cy’ abantu
▁po gba
▁aha va
▁n’in gene
▁baka byi
ju kira
▁yara tsinze
▁ikin yoma
▁aza bona
▁aza fasha
▁aza hita
▁baga fatanya
▁kuri ndira
▁w’umu jyi
teri mbere
▁fa ce
▁baba haye
▁by’i suku
▁di ploma
▁w’in gengo
▁y’a ya
▁byi mazeyo
▁kugi rirwa
▁ira shaka
▁bira hari
▁su pt
▁y’in zu
▁b’i torero
▁ndi shimye
fati re
▁mwa ro
▁baki zi
dege mbya
▁buru ri
▁yin ji
▁buju je
▁umwi rondoro
▁by’in dwara
▁vu p
▁z’aba gore
▁by’ubu kerarugendo
▁mba she
▁by’ama tegeko
ph ro
▁guku rwa
▁w’iki renga
tere fone
kara ta
▁k’u mwaka
▁b’u yu
▁ndu nduro
▁myi gire
abi geme
▁itu we
▁nk’iki go
tamba ro
kuwe ho
▁el -
▁gatu rika
▁ndanga gaciro
▁n' i
▁zuba tswe
▁mvu ne
▁colo mbe
rama ta
▁iran zi
▁ruzo huza
▁n’amaso mo
▁basin ye
▁zine dine
-con go
▁ryu zuye
▁kunyi ca
▁techno logy
▁evan geli
▁vide wo
s rc
u wa
▁b yumvikana
▁i kwiriye
▁i jonjora
▁a v
▁a ciye
▁a rangiye
▁n gize
mu gire
▁ba ci
▁ba retse
▁ba hanze
▁ba rwanye
▁ku i
▁ku ryo
▁ku vyi
▁ku gena
ta weho
te ho
te jwe
bu riye
▁bi bona
▁bi twaza
▁r yinshi
me lo
▁umu ka
hu zanya
shi kiye
mi ss
▁ama gana
▁gi sobanuro
▁gi sivile
▁ki hariye
▁ru garagaza
▁ru habwa
han zwe
▁ibi vuga
▁ma teke
▁ma hoteli
▁ubu sobanuro
umu ra
▁zi rya
▁igi sibo
do ro
gen we
giye mo
▁imi horo
▁imi yoboro
▁ri je
▁uru bu
ca riye
▁aka ku
ni bya
▁se an
▁se nga
▁se th
▁se kibi
▁du sabwa
man n
tara boneka
▁n’umu yaga
▁cya garagayemo
▁ta ifa
▁gusa kaza
▁wi ki
▁wi twara
▁twa ganiraga
▁by’ aka
ve y
▁pe rezi
▁bara sa
▁baka ganira
saba gina
▁uku beshya
▁yan yujije
tora guwe
▁rya keye
▁cy’i jana
▁hi yongeraho
▁ara shima
▁ita gira
▁baga korerwa
▁iza rangira
▁kuri bwa
▁ye ze
▁isi dore
riri mbira
▁y’umu biri
▁bw’i byo
sin zira
▁di rec
▁kin yobwa
▁ika rushaho
▁la dis
▁bira mutse
▁fi dle
▁kuza yi
▁yabi gezeho
tegan yaga
▁da mi
▁ken ny
▁ubwi rinzi
▁M A
▁kuyi shyira
▁ju ru
▁ubwa byo
▁muka perezida
▁mw’i terambere
▁’ a
▁nka bo
mban ye
maga ro
▁yana garutse
▁ea la
▁kari bu
▁fran ck
▁n’im yumvire
▁b’aba tutsi
▁ge deon
▁un yura
toro ro
▁T e
▁bakoresha ga
▁ade le
▁kita biriwe
▁ine nge
▁isan go
▁guhe mbwa
▁ruda singwa
▁qu in
▁guto ranya
▁win jije
▁guhanga yika
▁nk’iki menyetso
▁ate tse
▁ange l
▁guka bya
▁mur wana
▁pu sh
▁by’imi deli
▁kuti taba
mwan ga
kwan o
▁yaru shije
▁mpe shyi
shyire mo
▁ut d
▁twamu bajije
▁gui de
▁equ ato
▁tech nique
bandwa ho
▁n’isabu ni
▁kha rto
▁yafata ga
▁agasa ro
▁hit ler
yunguru zo
▁n’indanga gaciro
▁ambu lance
b yuka
b wandu
o m
z ini
▁ 9
▁ teka
an za
▁a tewe
▁a shobore
▁a kurikiwe
▁n kore
▁n kombe
▁n keneye
▁n dani
ri mwe
ba ti
mu kuru
re kwa
▁ba le
▁ba cyo
▁ba rwi
▁ba gere
▁ba terwa
▁ba tere
▁ba kurikije
▁ba ronse
▁ba rwara
▁ku guri
▁ku bwiriza
▁ku gezwaho
ge rwa
bu ngo
▁bi ge
▁bi vurwa
▁c ama
▁m vuye
▁ya ciwe
▁mu gire
▁gu shyi
ku ka
▁r yamaze
▁umu terankunga
▁umu herwe
je an
ti us
tan guriye
▁bu fata
▁bu cya
▁bu yenzi
▁ha sha
▁ha fite
▁ha hise
▁aba haranira
▁y’ abanyeshuri
he tse
de ba
▁gi fatanyije
▁ki de
▁ki gereranyo
▁ibi kenewe
▁ibi huru
▁ka we
▁ka ku
▁ka jugu
▁im ya
▁im fungurwa
▁p lan
umu kuru
▁zi raba
▁zi tandura
nge yeho
▁wa kira
▁kwi menyereza
▁kwi shakamo
▁ni ya
ama faranga
men yin
▁imi rongo
▁ib yinshi
▁n’u bwenge
▁t p
▁n’aba za
▁za shyizwe
▁za bukuru
▁n’umu biri
▁aga shyi
▁aga cibwa
▁pe p
▁o s
▁n’ubu shuhe
▁nda bizi
guru we
mbu ga
teka mutwe
▁ikin yabupfura
▁rya ha
zamu re
▁hi tabwa
▁ara genda
▁iza hagararira
▁iza sozwa
jo jo
▁kuru gero
▁uwa mungu
▁isi mbi
▁baba za
▁hu man
▁iha garitse
▁yabi genje
▁n’imi shinga
▁n’imi cungire
sanze mo
▁da sso
▁bika gorana
▁uka jya
▁go l
nya mwuga
▁n’uru buga
▁abari rwa
▁ura ra
▁turi zera
▁n’igi ti
▁w ho
▁y’igi taramo
bunga bu
ssi m
▁ibin ini
▁bagi riza
▁b’in genzi
▁min ini
▁bagira ga
vya ra
▁iti geze
▁ry’ubu hinzi
▁va va
▁azo ca
▁ukwi hangana
▁ihu riye
▁two ngere
▁qu a
▁kwo ngereza
▁ici zere
▁n’ikin yabupfura
▁yaku riye
▁ex ce
▁indo rerwamo
▁gitu mo
▁babyi fuza
▁cap t
▁ngenda kumana
▁mubu ryo
▁mode ste
▁kweme rerwa
▁n’ibyi shimo
▁sala h
▁arabi a
▁gite ranyo
▁mur’i ryo
▁cin jiye
▁cro w
▁nyiraba yazana
▁uli mwengu
▁yajan ywe
▁gar de
▁dra ke
▁wasi mbuye
▁cas mir
▁hen ry
▁appli cation
▁cul tural
▁kanyo sha
nibya hoocom
▁ladis las
I D
U N
b yanditse
d t
j k
l ga
p on
r do
s tus
u u
u su
w ubu
▁ fata
▁ tiri
▁i fungwa
▁i shimangira
▁a ye
▁a tegereje
▁a sohora
▁n teguro
ba rire
▁u hawe
▁u soza
mu kunda
ma d
ka mba
ka biri
▁ba mwo
▁ba mwa
▁ba ada
ge rera
ge ranya
ha rira
yi koze
bu moso
▁bi ruko
▁bi shyurwa
ze rerezi
▁ya tsin
▁ya shyiriweho
▁ya garagarije
▁mu v
▁mu yo
▁mu hura
ro ne
ki riza
di li
▁gu suzumwa
ku yemo
▁umu byibuho
je riya
tan go
▁bu tatu
mi higo
he to
he beye
▁ki meze
▁ki bano
▁ru va
du kiye
▁ibi menyesto
▁ma ru
▁ka i
▁ka bili
▁ubu pfura
▁n’i shuri
▁n’a meza
▁n’a mikoro
twa zo
▁na yandi
▁mi koreshereze
shin di
▁yi sanga
▁iki rango
▁iki ruhuko
▁z ana
▁t in
ranga ga
ranga bo
▁n’aba hoze
▁ban aniwe
tara ganya
▁n’umu ra
▁gusa bana
▁rwa tu
▁ra pi
▁o di
▁aha magara
▁n’ubu fatanye
▁n’in kuba
▁n’in gengabitekerezo
▁abi ze
▁baga kura
▁yu ngu
▁l ama
▁uwa we
pan ze
▁bw’i mana
▁bw’i shyirahamwe
▁do gg
▁di s
▁w’in twaro
▁twi fuje
gami rwa
▁biri rwa
▁nko ndo
gere ho
gere ti
▁bari kumwe
▁y’in yongera
▁kuza ha
soho kanye
▁bazi ca
▁ibya tsi
▁utu zu
▁tura hirwa
▁bada kora
rin zwe
▁muha d
▁ry’u wo
kuba ha
▁nyira bi
▁make ya
teko te
hungaban ye
yere jwe
▁n’abo rozi
▁ry’ubu kerarugendo
▁z’in genzi
▁guhu riza
▁yagu tse
▁bakiri ya
▁chris tiano
▁ami s
▁ad s
hangayi tse
▁nin de
▁el may
▁wee kend
▁habaru rwa
▁cy’imi soro
▁guine e
▁pen do
▁op po
▁sh yogwe
▁bicwa ga
manu tse
▁uwan jye
▁abatanga buhamya
20 2
▁ave c
▁nk’umun yarwanda
shinya guro
▁yariri mbaga
▁moshi ons
▁rwuba tswe
▁gase gereti
zande ngo
▁indatwan et
▁shee ba
▁lega cy
▁gusen yuka
▁kharto um
I S
c ing
p ton
s indi
▁ 6
▁ ?
▁b lan
▁i jyana
▁i sobanura
▁i sanzure
▁a gana
▁n tege
▁n ani
sh ywa
ko nje
in giri
▁ba pfu
gu zwa
zi ye
bu kira
▁ya ci
▁ya retse
▁ya fatanyije
▁mu di
▁mu hoza
go mwa
vu lation
ho ma
be sha
▁aba kristu
▁ama kari
▁ama deni
▁ama franga
▁gi tanda
▁ru no
du ngu
▁ibi mu
▁ma bano
▁n’i banki
▁igi shushanyo
▁wa turutse
▁kwi yamamariza
▁ni rwo
▁mi koranire
▁mi zero
▁cyan ditswe
su di
tanga buhamya
▁tu zabi
▁kuba ri
▁uru hago
▁nk we
▁nta ko
▁nta za
▁n’u rwo
yama ra
▁n’aba ha
▁n’aba gwayi
tege kwa
▁za za
▁y’u mwimerere
mana ma
▁mun go
garaga mbya
▁ta tizo
▁ata ho
▁twa koraga
▁re gide
▁po le
▁bara tu
▁bara ck
▁n’ama zina
▁uku bona
▁aza va
▁baga subira
▁iza kira
▁kwa mbika
▁yu bu
▁iv ye
▁iv y’i
▁te a
▁kumu ca
zan di
▁nk’i mpano
▁vya tumye
▁vya ciye
▁vya shizwe
▁w’u mwami
▁af ter
gaban yuka
▁bin jije
▁kw’i mi
▁kuza bona
▁rw’i cyayi
▁n’imi rire
▁yandi kiwe
tangaza ga
▁baki ba
▁bika gira
hinga ga
ria que
▁abari ko
▁bwe meza
▁bwe mewe
senge ye
▁ruba ya
▁ryi hariye
shikiran gani
▁vyo roshe
▁bake mera
sta l
▁iya ba
▁isu ri
▁ry’u rubyiruko
▁kugu rwa
▁mba zi
▁umunya rwenya
▁vy’ u
▁# K
▁k’u gushyingo
▁H ari
▁oli ve
▁kugaragara mo
or g
▁myi yerekano
▁baru ngika
▁ry’ama sezerano
▁rura teganya
▁bahabwa ga
▁ake meza
▁abayi tabiriye
▁mukan ta
sun zu
▁yaku san
▁mur ’u
▁kwu gurura
▁nsan zabera
▁ivyi caro
sinzi riye
▁yaran zwe
▁pri me
▁rose lyne
▁pasi ka
gua y
▁butara tanga
▁gym khana
piki piki
▁tes fa
▁gutere ta
▁ruzin dana
zaha bu
▁gusese ngura
▁insi guro
▁reve v
▁murwana shyaka
▁regide so
- video
b w’
b les
g r
n k
s m
s r
t ting
ra rd
▁i fitanye
▁a guye
wa ds
ma gari
gi ce
ko mi
ka ze
▁ba koro
▁ba dandaza
▁ba fatanywe
bi genewe
te gurirwa
bu shobozi
▁bi wu
▁bi tura
▁bi gwi
▁mu kiza
▁mu tuye
ki rwe
si r
▁r fi
me rwa
me tro
▁umu kwe
▁bu gizi
▁bu mve
▁ha ve
mi rana
▁aba keneye
he ri
▁gi kundiro
▁ki ha
gan u
▁ibi yaga
▁ma yi
▁ubu ki
umu kobwa
▁na banje
▁wa ho
▁wa byi
▁wa haye
▁kwi vuga
▁kwi suzumisha
▁ga te
cu l
▁bya hitanye
▁ri ngana
▁ri noze
▁s lim
▁n’aba hanga
▁v yan
▁je ff
▁w’i ryo
▁bw’ abandi
garaga yeho
▁ko rea
▁du ka
ji a
▁ca mpa
▁aga ca
▁ata vuga
▁pa steur
gani riro
▁sa lim
▁d ini
▁o fisiye
▁o vulation
▁n’ubu geni
▁baka du
▁yan giza
▁yan ganyije
▁abi zi
▁abi kesha
▁hi bukwa
▁ara sa
▁ara cya
▁ita renga
▁y’aba rokotse
▁kwa guka
▁l yon
er g
▁li eutenant
▁bwi twa
▁yaha magaye
▁w’in yeshyamba
▁ika myo
▁ugu fata
▁con te
▁bari nda
▁kuza tanga
▁iba sha
▁uza shaka
▁bika zaba
▁ibiri ndiro
▁fo rum
▁cha u
▁wan g
▁cy’u rukundo
▁mata riki
▁nyan dungu
▁yita bwaho
▁iya remye
▁A ri
▁es p
ver muhaburarw
▁kuta vuga
▁bw’ama jwi
▁ibin ogo
▁ben i
▁san kara
dri ck
▁bimu fasha
▁guke muka
▁bageze ho
teze ho
▁cy riaque
▁byan giza
▁guhe rekeza
▁mwo go
▁n’umun yarwanda
▁byamu fashije
▁buza jya
▁ex pe
▁ifu nze
tunga mubiri
▁mai sha
himba zwa
▁fpr -inkotanyi
rim bana
▁b’ubu rundi
▁xa vermuhaburarw
▁baseze ranye
▁bafa shanya
▁tuti bagiwe
tembere ra
shyingi ranywe
▁rt lm
▁ceci le
teganyi rize
▁aa ron
▁gasu tamo
▁econo mic
▁bera hino
▁licen ce
b ine
c inya
f yi
f la
l ton
n yuma
an ye
ra muka
▁i hura
▁a ci
▁a mwita
▁a via
▁u zamuka
▁u rwenya
▁ba bwira
za bukuru
ru we
▁ku kamo
ta hukana
da bu
▁bi yemeza
▁bi shobotse
bo uti
▁ya beshye
▁ya tekereje
▁ya tanguje
▁gu ti
▁gu subukurwa
ban anira
▁bu ye
▁bu san
▁bu shikirangani
▁in tangiriro
de rs
▁ru tera
▁ma le
▁ma duka
so mwa
▁n’a hantu
▁zi sa
▁zi kurikira
▁igi tereko
▁wa zi
▁ari fuza
▁ga kingirizo
▁mi tekerereze
▁e va
▁e ve
▁tu ma
▁tu tsi
▁bya saga
▁yi teguriye
ce rs
▁nde ngakamere
▁iki gereranyo
▁y’i zo
▁nta gi
ca f
ca fu
shyi riyeho
▁t wandi
ranga za
pa si
ngu ko
wu nga
▁umun ywanyi
▁y’u bwubatsi
kwi toza
▁mun tumbero
▁j in
▁ko ffi
▁se kuru
▁aga to
▁ta arifa
▁ata renze
▁nya bwo
▁re dee
▁bara be
▁bara pfa
▁n’ubu hinga
▁baka garuka
▁uku girango
▁y’ubu kure
▁yan yuma
▁yara kozwe
▁n’ibi yobyabwenge
▁nu ku
▁hi s
▁ita ki
▁baha magawe
▁guha hira
▁mo vie
▁aza habwa
▁kuri hira
▁kubi bwira
▁ye reke
▁li ke
▁y’umu handa
▁do t
tin o
▁y’a ha
▁hu mura
▁la ke
yuba hirizwa
can ye
▁su d
▁cyi tiriwe
▁sha ssi
tegan yije
▁ne meye
▁ne -yo
▁icya mu
▁bagera ho
fatanya cyaha
▁ke sho
▁amu subiza
tungan ye
hara ro
▁bw’u ru
korerwa ga
▁abo uba
sta fa
kundana ga
▁ry’aba kozi
▁ry’aba polisi
▁amaso siyete
▁b’aba hungu
▁mba li
▁guhi tanwa
▁z’ubu ryo
▁icu ka
▁va r
▁n’ubwi za
▁gutuma tumanako
▁yadu sobanuriye
▁cle stin
▁itu kura
▁byu kuri
▁atara beshu
▁iru ta
▁w’igi tsina
▁c’u rukino
▁yata shye
▁ageze yo
▁bafata buguzi
ber ry
▁w’uru go
pri se
nguru za
▁ifata buguzi
▁har ry
▁icy’ ingenzi
▁ziti taba
▁bivu re
vuguru we
stache nibyahoocom
-u ganda
▁windo wads
▁hai ti
▁iby’a gaciro
▁umunyama tegeko
▁cel ine
▁ruse sabagina
▁msa ada
nova t
▁bibonye ko
▁imma cule
menyin giro
▁ads bygoogle
▁redee med
▁atarabeshu zwa
▁windowads bygoogle
O N
Z A
f ano
g mailcom
▁ gani
▁ 😂😂😂
▁i sanga
▁i gende
▁i shobore
ri ke
▁u a
▁u wumu
▁u genekereje
in s
▁ba shoramari
▁ba by
▁ba hanye
▁bi bereye
bo nimpa
▁m byino
▁ya rangi
▁mu gani
▁mu vugabutumwa
▁gu shobora
ku rana
▁umu bwire
▁umu rindi
▁bu biri
▁bu korerwa
▁bu kurikira
▁bu gande
be mbe
be th
▁in geri
mi zi
▁aba bona
he zwa
fa shanya
mo u
▁gi r
▁gi teganyijwe
▁ki ge
to ze
▁ru shwanwa
▁ibi siga
▁ma mie
▁ma hame
▁ubu shuti
hi si
▁n’i tanu
fi eld
▁zi ca
kan guriye
▁igi so
▁na ru
▁wa jyanywe
▁ni mura
▁mi shahara
▁e liza
▁e stachenibyahoocom
▁kuba shyigikira
▁yi ra
▁y’i bere
▁y’i kipe
▁y’i wabo
▁ri sa
mbi e
▁aka tirwa
▁aka ramata
▁t hu
▁gihe rutse
▁le gen
shaka ho
▁du korera
▁du hereye
▁du terimbere
▁ca mi
▁aga taha
▁cya shize
▁pa pi
▁twa jama
▁sa ka
▁bwa tumye
▁po u
▁o k
▁n’ama vuta
▁n’in twaro
▁baka bu
▁baka jyanwa
mbere jwe
▁an ywa
st ru
▁n’ibi komere
▁y’ama kuru
▁kwa mburwa
▁baza tanga
▁baza hura
▁yu mvi
▁yu mvikanye
▁yaba zwaga
seze ranyije
tangira ga
zan yije
▁baba ho
▁ry’i koranabuhanga
▁do ve
▁h patite
▁babi fashijwemo
▁di on
▁byi geze
▁biza saba
▁batu nze
▁ugu ze
▁y’in tambara
▁kugera gezwa
tegu je
▁dr c
▁uza tuma
▁by’u ko
▁go def
▁tura shimira
▁wan je
taba rutse
▁cy’u kwezi
cya hari
▁ryi gisha
▁cla pton
▁bato ya
maga re
▁yana tangiye
▁as inah
▁kari tiye
shyigi kire
▁y’igi tabo
▁kira ro
▁kayi hura
▁bw’in gabo
▁kana mugire
▁buta zi
▁byara tumye
▁kuha va
▁zika bi
▁kub yuka
daga dura
▁bagenda ga
▁theo dore
▁ex po
▁tw’ umu
ziba girwa
yabu tabire
▁kuti shyura
▁impa mo
gobo tora
▁ndanga muco
▁yaza ga
▁tuna omba
▁n’ibiro metero
▁nyir ’u
▁gushyin gurwa
▁super mar
▁daniel la
▁kumvi ra
▁her ve
▁hada fashwe
▁ini te
▁uk raine
susuru tsa
mv wa
▁conne ct
▁hill s
pfunyi ka
▁jon jora
▁isabe lle
▁cassan ova
▁kajugu jugu
jojo ba
▁twajama horo
f on
h c
m bin
p honse
’ e
▁i tsinzi
▁a kore
▁k lo
▁u fi
▁u zoba
▁u serukira
▁u shatse
re mu
ka je
▁ba mi
▁ba fatiye
▁ba shyikirizwa
gu wa
gu tera
▁ku hira
▁ku jojoba
bo rohera
▁c ni
▁m pin
▁ya mba
ro kora
▁r pf
▁umu faransa
▁umu rerwa
▁bu fise
▁in ingiri
sha kirwa
▁aba yeho
▁aba shinwa
▁aba kekwa
ran duye
▁gi tari
▁gi fatika
▁gi shushanyo
▁ki ki
▁ki je
▁ki ti
ke te
ke nye
ke kaga
▁ru n
▁ru renge
▁ka gi
▁ubu hanuzi
▁n’i vangura
▁n’i fumbire
nge rewe
kuru rira
▁na ta
▁wa du
▁kwi rengagiza
▁ga shimwe
▁mi gani
▁mi tiwe
cu ku
▁tu nini
▁bya gira
▁yi kubye
kome zanya
▁imi sanzu
▁imi koreshereze
▁imi dari
▁y’i cya
▁s ch
mbi je
▁ic yan
▁ic y’aba
▁za shyizweho
menye kani
▁aga tegereza
▁ata ja
▁wi baza
gani rwaho
▁nya cyo
▁re fe
▁bata rengeje
▁n’ubu tabera
curu je
▁nk’u rugero
st le
▁rya zo
zamu we
▁cy’i byumweru
▁y’aba ri
▁iza tangwa
▁baza korera
▁te k
▁jo y
▁bwi herero
▁g r
▁g t
▁babi li
▁al fred
▁mwi geme
▁byi tabiriwe
▁ugu shyiraho
▁con so
can dwe
▁kuza za
▁ndi o
▁kwita ho
▁bahu ngutse
▁bana vuga
▁bana fite
shyin girwa
fun zo
habwa ga
▁ryi tiriwe
▁mw’i shure
herere zanya
vo ir
haga rikira
haga rikizi
▁ziri ko
▁ar my
▁z’aba gabo
▁kugu mana
▁kugu ranana
▁en g
▁cy’ubu shakashatsi
▁guhi rika
▁# I
▁san te
▁san gwa
▁ab da
▁kwiba girwa
▁club s
▁pla cide
▁biru sheho
▁mar sha
▁n’ubwi genge
rabu rindi
▁W e
▁W i
▁iso hora
▁kuga burira
▁bare gwa
▁zikaba kaba
▁abanye shuli
▁cy’a furika
▁yaku we
▁yiru kanwe
▁nubu ndi
▁sal va
▁dro it
▁kida shobora
▁cy’imi bonano
▁lon ce
▁mode l
for m
▁n’umunya merika
▁per ry
▁bazwi ho
yuza mo
▁twagira yezu
▁kuna mira
dro s
▁gupfu sha
▁mbon yumu
▁yagaruka ga
▁kw ine
▁n’amata gisi
▁mfata kibanza
▁gupa gasa
toranywa mo
▁vati can
▁arti st
d re
g j
m wuba
r di
▁ 😂😂
ra do
▁i la
▁i komeze
▁n y
▁n kun
▁u korwa
▁u gerageza
gi rije
in da
▁ba herereye
▁ku kwereka
ta mbwe
tu je
tu gari
bu kwe
bu kungu
▁c ra
▁ya renze
▁ya hanu
▁mu shimiyimana
di ye
▁gu y
▁gu shyirwaho
si gira
▁umu geri
▁bu noze
shi zweho
sa i
▁ha zubakwa
▁aba to
yan t
▁ama shi
▁gi pima
▁ki mo
▁ki rya
ke mutse
▁ma vugo
▁ma xi
▁ubu tayu
kin giwe
vuga ko
kan zu
le k
▁na gira
▁na tion
▁kwi gwa
do rs
▁ni twa
▁mi gari
vi en
▁e ne
shin girwa
men ts
▁kuba kirwa
▁bya raba
kome reye
▁y’i cyumweru
▁y’i bindi
▁y’i tumanaho
▁ri va
co de
hin g
▁t han
▁t wana
▁n’aba zi
menye ro
▁se ma
▁du fatanye
▁aga tsiko
▁cya hitanye
▁ata bwa
▁twa zi
▁sa dio
▁re s
▁n’ama foto
▁n’ama kara
▁n’in go
▁n’in shingano
▁nk’u rubyiruko
▁rwe za
▁bo ur
▁ho r
ren de
▁n’ibi banza
▁nu mber
rt rand
▁y’aba mi
▁kumu garagaro
▁baba fashe
▁ry’i cyo
▁g rena
▁g roo
▁iz ana
ywa ga
tin yiro
▁w’in ka
▁w’in shuti
▁ja bo
▁biza twara
▁biza gusaba
▁batu nzwe
▁bari hiwe
▁bira saba
▁fi stu
▁mwa bi
▁z’u wo
▁bazi koresha
ris m
▁z’ama pawundi
▁utu rutse
garu kiye
foto zanya
▁ze tu
▁icya ba
▁bura tangaza
▁kiza twara
▁iga tsinda
▁ivuga ko
▁abe shya
▁inzo vu
▁y’igi korwa
▁and roid
▁ub m
▁nza ban
▁nyira rukundo
▁bw’in dwara
▁hara teganywa
teganya gihe
▁# C
chi e
um wu
▁com mer
▁iby’ ama
▁H o
▁B o
shiman girwa
▁kuda kora
▁bakiri situ
▁intege r
▁y’iki ganiro
tsindi re
▁n’icyo ngereza
▁cy’aba turanyi
▁bemeza ga
▁bakana ba
▁guto rerwa
▁win jiye
phe t
▁ethiopi an
▁kuwu reka
▁ngabo nziza
▁akabi kora
▁ire kurwa
▁kuma rana
▁bla ise
▁ah wanye
▁y’ubwi sungane
rea t
▁mina gri
▁cele bration
dayi senga
shisho za
▁tube ranye
▁adi l
▁umuta mbukanyi
▁ruti kanga
▁urw’ aga
vun ji
▁dyna mi
▁anaba saba
▁gn ral
▁havugi mana
n ka
o za
▁ gara
▁a komeze
ri ti
▁u waka
gi ciro
we rs
▁ba tura
▁ba hana
▁ba ronka
▁ba binyujije
ru zwa
▁ku gezwa
▁ku goboka
▁ku manuka
▁ku fanya
▁bi hin
▁bi kira
▁bi shinzwe
▁bi soza
▁bi lometero
▁m me
▁ya be
▁ya sohoka
▁ya zize
▁ya tegetse
▁mu sanzu
▁mu yoboro
ro here
▁gu shingwa
vu mbura
▁bu zuye
sha kure
sa biye
▁ha bera
▁aba jura
▁aba kekwaho
he jwe
de re
fa t
▁ama cupa
▁ama sanamu
▁gi ko
▁gi fatwa
▁ki gana
▁ki rego
▁ru zwi
▁ka si
▁ka gera
▁ubu hanzi
▁ubu rimyi
ne rwa
▁na za
▁na kora
▁na tions
▁na dine
▁wa mwi
▁wa teguwe
▁kwi kunda
▁aban yiginya
▁e lie
zu ya
▁yi cwa
▁yi fitiye
▁yi shuye
▁yi tezweho
▁yi kurikiranya
ce gera
rere ra
▁y’i cyubahiro
▁nta kunda
▁s yira
va te
hin ja
ni ty
bwi te
▁n’aba koze
▁n’aba faransa
▁n’aba rwanyi
▁za gize
▁za tewe
kwi taba
▁mun dwi
rana ga
▁ata zo
▁akaba baro
▁nti gi
▁nti bazo
▁twa menye
gore ka
▁yo herejwe
▁bara hawe
geze mo
▁si te
▁aha bera
kwa ma
▁y’ubu ryo
▁yara rangiye
zamu rwa
▁hi bonekeza
▁ara shobora
▁ita zongera
▁y’ama gare
▁baha gurukiye
▁baza za
▁kubi koresha
▁kubi bungabunga
▁uwa mbere
▁baba zwa
▁y’umu tungo
▁g rie
▁babi kesha
▁y’a yo
▁twi rinde
▁biza dufasha
▁batu mwe
▁the re
▁la va
▁kujya yo
▁y’in kino
▁kw’i shuri
bereye mo
▁ro ger
▁uta bi
▁bana bi
▁fo od
shami bare
▁ryi mbitse
▁biro mbe
▁haza rd
▁bato rewe
▁uwu serukira
▁ahe rekejwe
▁z’umu biri
▁yana kwi
▁yana koze
▁ntibi ba
▁umwa ri
▁ida shaka
▁nza yi
▁z’a gaciro
▁lu cas
▁# S
tumi ye
▁at lan
▁bazo ca
▁am ina
▁by’umu kuru
▁z’in ka
girira ga
ing s
▁rura l
▁bica ra
▁w’igi polisi
▁n’abi canyi
▁yaku ze
▁w’uru kiko
▁amata riki
▁sina ri
pri l
▁anto nio
▁1 0
▁1 4
▁ice geranyo
▁y’abi canyi
▁yaseze ranyije
▁bru no
▁ig r
▁mpi ri
▁tumu kunde
▁ibu moso
▁isha je
▁abamu kurikira
▁gushyin girwa
ono tsi
▁n’ub wu
▁har moni
yd ro
▁op rah
▁indanga muntu
▁rutare mara
▁nyami twe
yoboka mana
▁baguze mo
▁kubwi mana
▁salo mon
▁vio lence
▁champion nat
▁ele c
▁semu geshi
▁n’ibira ro
pis kopi
▁olu come
▁mapu to
▁kuvye rekeye
▁ntibyo roshye
▁kuguri zanya
▁cni dh
- ba
d p
f ani
o li
▁b yonyine
ra yon
▁i tinze
▁a gwa
▁a ranga
▁a merewe
▁n gan
▁n gana
ba bayeho
▁u sesuye
ma l
▁ba ve
▁ba teze
▁ba menyekanye
▁ku ruka
▁ku zin
ta t
ge rani
da ta
▁bi tumye
▁bi girira
▁bi hishe
▁ya fasha
▁ya kwan
▁mu tari
▁gu subukura
si giye
▁r b
▁umu higo
▁bu genda
▁bu soni
▁in te
▁ama terasi
▁gi humbi
▁gi hagaze
▁gi poroso
▁ki ss
ke ba
▁ru shanywa
du zwa
▁ibi rango
▁ibi harage
▁ma g
▁ka ty
▁ubu tumire
so mo
▁n’i tumanaho
▁n’i huriro
mba riro
▁zi sigaye
twa je
sho ngo
sho yemo
▁wa ku
▁kwi tandukanya
▁kwi hutira
do ri
fu ko
▁ga tare
cu cike
▁e id
▁e liane
▁tu bizi
▁bya hagaritswe
▁yi banze
▁yi yahura
▁imi hindagurikire
▁imi byizi
▁ri korwa
▁f lu
aba gabo
▁nta jya
▁s rci
▁aka reba
no na
▁j mv
▁ca ro
▁ca guwa
▁cya mi
▁ata renga
▁ata bizi
▁bwa bonetse
▁re verien
▁bara ta
▁bara je
▁baka ki
▁bita goranye
▁de n
▁yan gijwe
▁abi bona
genda ho
▁aza korera
▁iza habwa
▁- -
▁yu ngutse
▁kubi menya
▁uwa baga
▁li bre
▁nk’i zo
▁do gere
▁babi shoboye
▁di st
▁ika va
rangi rana
van ganzo
▁haba rizwa
▁fi re
▁bamu haye
▁man ya
▁uta jya
▁w’aba rundi
▁aki za
rin shuti
korerwa mo
▁yita birwa
▁ry’u du
▁yamu fashije
▁jose phine
▁cyo roshye
one r
▁nk’a ha
▁nza bonimpa
▁mura bo
yonge ye
tungu ra
▁guhi mba
▁mwe mbi
▁iby’ ingenzi
▁uzi ko
▁asi mbura
▁ali as
▁tuka gira
▁ur wanya
▁gusu biri
kanwa ho
▁rw’u wo
▁nzo bere
▁mukan dayisenga
▁yate mberejwe
▁Ku na
▁muma tora
▁ruku mberi
▁mara diyo
mere rwe
▁uruhu sha
kusan ya
00 0
▁hagaragaye mo
▁nk’igi ce
shyinguye mo
▁gaho go
▁rwabu giri
▁op ration
▁kwishyu rana
▁batekereza ga
▁vie w
▁kibe nga
▁kwege rana
▁umwo ngereza
gre e
▁dji bouti
▁beme ranyijwe
▁rn b
▁z’uru daca
▁sportif s
▁ipfu nwe
▁uruzi tiro
▁perezi dan
▁gol den
b wana
d b
u nga
an jye
▁b yumvi
▁i dolari
▁i tegerejwe
▁a tegeka
▁a fatika
ri r
ri shamibare
ya bo
▁ba wo
▁ba shakashatsi
▁ba che
gu fata
▁ku ronswa
ta bi
▁bi shasha
▁bi sasu
▁bi yoro
▁c yuma
▁ya kwe
▁ya remeye
▁mu la
si likare
▁umu shyitsi
vu ganira
hu ze
ho ka
ti metero
be rwa
mi rizi
he muka
▁ama jyepfo
▁ama hinguriro
li yoni
▁ki st
▁ki raba
to ranya
▁ru komoka
▁ru dandazwa
▁ibi tse
▁ma man
▁ubu shimwe
▁ubu hungiro
hi bi
▁n’i yindi
▁zi kunda
▁zi tangiye
▁zi komoka
kan yaga
▁igi se
ubu rundi
sho rwa
kuru rwa
▁na tanga
▁wa jya
▁wa ter
▁wa zamutseho
▁kwi tegereza
▁kwi hisha
san gwa
do m
▁mi ami
▁kuba zwa
▁kuba teza
▁bya terwaga
kome rekejwe
▁iki lo
▁imi shyikirano
▁aka mwi
▁aka kubwira
▁n’u hagarariye
▁n’aba te
▁n’aba shoferi
▁w’i mbere
▁y’u mwana
▁cya genze
▁ta fadhali
▁pa u
▁wi z
▁wi swe
▁twa vuganye
▁bwa ryo
▁rw’ aban
▁we ra
yeme ye
▁bata byi
▁n’ubu twari
▁n’in genzi
▁n’in kiko
▁bita bye
▁bita genda
▁bo ra
▁yan ya
▁yara teguwe
▁yara kiriye
rt yo
▁ara byemera
▁ita kaza
rya mira
▁guha magarira
▁aza kina
▁l uka
▁so f
▁so sumo
▁te dros
teke ra
▁kure shya
▁y’umu ziki
▁g re
▁babi vuze
▁vya kozwe
▁di ana
min g
▁kugi ciro
▁biza za
▁ugu tora
▁ira tangaza
▁yabi koraga
▁kubu zwa
▁da te
▁ro bwa
▁ubwi zigame
▁mwa mbaro
▁bahu riza
▁ibya we
▁uka gira
▁uka reba
che za
ch ris
▁iwa we
▁ana saba
▁kuzi ganya
▁haza garagaramo
rin gira
▁ura mu
▁uwu sanzwe
▁yita vye
▁yamu fashe
kuba ka
▁mura mbo
▁kwinjira mo
tungu ru
▁basa vye
▁yavu gishije
▁isa ie
▁ina tsinda
▁k’u herekejwe
vya vuye
▁oli vis
▁cy '
▁guhe ranwa
kwirakwi jwe
▁bare kuwe
▁k’umu ryango
renza ho
▁d’ e
▁win jira
▁tha de
▁riza bera
pg l
yita ga
▁rw’in tara
tangu re
▁base nyeri
▁Wa ziri
shingwa manza
▁wahi mbye
▁mur’i co
▁y’abanya gihugu
▁misa go
hh hh
▁yatumi ye
▁ise minari
mpama gara
▁sour ces
▁vio lette
▁iwan yu
▁ambassa dors
▁zama lek
▁yashin jwe
▁coll ines
▁isho ti
hinyan yu
mvan eza
▁dalla ire
▁groo ve
▁nzaban dora
c tive
o ro
▁ tse
▁ vari
👇 👇
an g
ra swa
▁i komoka
▁i sinzi
▁a siga
▁a pril
▁n tanga
▁n genderwaho
▁u koreshwa
gi tse
gi nga
ka r
▁ba gezwa
ru shije
▁ku do
tu we
▁bi gabanya
▁bi hungabanya
▁m wanda
▁m zee
▁ya curuzaga
▁mu byu
▁gu shimirwa
▁gu tsimbataza
si liana
▁bu yo
be rana
be nshi
▁in fe
▁in kangu
▁aba rizwamo
▁aba sifuzi
li st
▁ki we
▁ki ja
▁ru bonye
▁ma melo
▁im yinshi
mba sade
▁zi basha
▁wa tangaje
▁wa fatiwe
▁kwi shimisha
▁kwi bika
▁kwi yumvira
▁ga l
▁ni du
▁ni rere
kaba ka
gwa ti
▁e ver
▁kuba geza
rika li
yin tege
ni geria
tege ye
▁y’u mwaduko
▁co mpa
▁se fu
▁du san
▁du hagaze
▁twa raba
ngera ho
▁sa rah
▁sa hel
▁re me
▁bara hunga
▁o man
kuriki rani
▁n’ama koperative
▁n’ama vuriro
▁n’in usu
▁uku baka
▁an der
tsinda ga
▁no ta
kano vera
▁ita ba
▁baha magara
▁guha magarwa
▁vi vier
▁mo na
▁aza banza
▁baga bye
ngi riza
▁kumu gura
▁bwi huta
▁y’umu rimo
▁y’umu tima
▁ry’i byo
▁h ydro
▁kin yama
▁biri nde
▁yabi tewe
▁n’imi genzo
▁iba ze
▁utu gari
▁icyi hutirwa
▁ryi swe
▁bada sanzwe
▁zu ma
▁aki li
▁impan ga
▁haza jya
▁ce pgl
▁ntibi vuga
▁ida kora
▁ida hwitse
suzu mye
suzu guro
▁nyira byo
▁# B
▁min ing
▁am stel
▁mwu mvaneza
▁ade l
komere ze
▁by’aba kozi
▁akiri ho
▁gusu biriza
▁gusu surutsa
▁hata baye
▁hata bayeho
▁hata zagira
▁kugaru za
▁abayi gana
▁rw’ama hina
▁n’abi ciwe
geri ya
▁tha dee
hurira ho
▁Ni ba
▁ntibya du
▁bakorana ga
▁mugwi za
▁fan s
tra l
▁ntaba she
▁base ngera
▁mon tral
gwiza tunga
▁ntwa li
▁ry’a merika
▁ibu ryo
▁y’imyi tozo
▁zizaba fasha
▁arabi e
▁iby’ubu zima
▁fro m
banzi rizwa
▁masa mba
▁sco laire
▁mikoro bi
▁ipa d
▁turu sheho
▁dji had
▁igo r
▁yahita ga
▁ry’aban yamakuru
▁commi ssi
▁gihu ndwe
▁yashyira ga
▁alg rie
▁clip -video
ahu bwo
▁eze chiel
▁minu ar
▁evangeli cal
▁grie z
a b
c c
c ki
g na
o ms
p c
r w’
▁i jye
▁i tuye
▁i aa
▁i lde
▁a giriye
▁u ci
gi ranwa
▁ba ranga
▁ba fungura
▁ba bandanya
▁ba kurikiranwa
▁ba subizwa
▁ba huguwe
▁ku li
zi rika
tu rika
da ha
bu sa
bu shake
▁bi kize
▁ya jyanywe
▁mu sirikare
▁mu canga
ro ni
ki d
▁gu rtyo
▁r pub
▁umu padiri
shi re
shi shwa
▁ha hurira
mi kwa
▁aba zaba
▁aba menyesha
▁ama yero
ke ri
ke nguzamateka
▁ru fise
▁ru tegekanijwe
▁ka ban
▁ka zu
▁n’i bura
▁n’i shyaka
▁zi shwe
▁zi kenewe
▁igi kundi
▁na ya
▁na giranye
▁wa kinnye
▁wa lk
▁ni jeriya
▁cyan dika
su f
cu ke
cu kura
tanga mo
▁tu bane
▁bya zo
▁bya korwaga
▁yi basira
▁y’i mbaga
▁y’i shure
▁y’i torero
▁y’i terabwoba
▁uru ja
ryo hera
kora mo
kora li
shu ke
▁nta kintu
pa l
▁n’aba tu
▁n’aba mi
▁je r
▁co pa
▁mun yamabanga
▁j ane
man uko
▁aga rutse
pi erre
▁bwa maze
▁bwa sanze
▁bwa koreshwaga
▁re sto
▁bata bizi
▁nda kwi
bya riye
fata mwo
st ana
st ina
▁rya tangaje
▁hi shwe
▁ara gira
▁baha korera
▁y’aba polisi
▁guha ga
▁guha rura
▁kwa mba
▁kubi garagaza
▁uwa bi
▁kumu simbura
▁baba ha
▁g su
rus sia
▁iyi tsinda
▁w’in dero
▁byi genga
▁kugi kemura
▁hu u
▁y’in yuma
▁kuza gira
▁b’i mideli
▁rw’i kinyarwanda
▁bamu sabye
ron g
▁mwa mba
muha ga
▁baki tabira
▁icya mbere
▁fo llow
▁wan yuma
tungan yije
bin yoma
▁w’aba kundana
▁kiza tangira
▁mw’i kambi
▁twe gereye
▁nk’umu yobozi
▁turi ko
▁turi zeza
▁kuzamu rwa
▁es panye
▁y’uru go
▁y’uru kino
▁umunya tanzaniya
▁cy’umu ganda
▁cy’umu jyi
▁lu iz
▁kana kimana
▁min ne
▁com pu
▁yongera ko
▁naba bwiye
▁rwan jye
ar ch
▁bwari ho
▁b’umu rwi
▁ubwe gure
▁c’u wu
▁uha sanga
▁yatu nganijwe
▁olympi a
▁w’ibi humbi
▁ntibya mu
don na
▁pari kingi
▁muki banza
▁kubya rana
din ganire
▁rwo hereza
▁mina j
▁damas cne
▁waka ti
▁mac hine
▁abyi fuza
▁zizo bera
▁ito zwa
▁syl vain
▁black berry
▁bull do
▁byin jiza
▁yagaban yije
▁kwira rira
▁mbon yintege
▁uburanga re
▁Ra is
tende nt
▁hami sa
▁tcha d
▁gasan tere
▁yatsin danye
▁commissi oner
▁iaa f
O V
h no
n jwa
t na
▁b rus
▁i fashe
▁i tungo
▁i fatiye
▁a y
▁a fu
▁a bwiye
▁a mwa
▁a kani
▁a terwa
▁n zima
▁n tana
▁u baba
mu hanga
ye d
▁ba jyanama
▁ba soje
▁ba tekereje
te mwe
yi tabira
▁bi korana
▁bi mera
▁bi cye
▁bi bangamiye
▁bi kungahaye
▁ya jyanye
▁mu rundi
▁mu rya
▁gu cururiza
wi zi
si mbuye
ku ja
tan we
▁bu hu
▁bu geze
be n
▁in tekerezo
▁in tungamubiri
▁ha koreshwa
▁ha fatiwe
yan da
▁ama -
▁gi korera
▁gi hindutse
▁ki p
▁ki geme
▁ru tegeka
▁ibi da
▁ma s
▁ma hama
▁ma sisi
▁ka byiniro
▁ubu gingo
▁im bera
▁n’a furika
ubu ndi
▁na gerageje
▁wa buze
▁kwi hesha
ts ’
▁kuba kangurira
▁bya ga
▁bya gorana
ci re
▁yi gira
▁yi zeza
▁yi hishe
▁y’i shoramari
▁ri terwa
▁nta gire
▁nta kindi
▁s se
va mwo
co u
la u
gera gere
▁aka ra
she ra
▁n’aba saga
▁za bwo
▁za kozwe
▁du kunda
▁wi kubye
pi ganwa
▁sa lus
nye we
▁aha ranira
ina raribonye
▁uku jya
▁ho no
▁nu kuri
▁abi ra
▁ati i
▁ita zi
▁ita ha
▁vi et
▁baga shaka
▁kubi tegura
▁kubi kemura
▁n’ib y’i
▁isi ze
▁isi gaje
▁li siti
▁z’i gihe
▁y’umu yobozi
zuba hiriza
▁yaha magariye
▁by’i mbuto
gisha ga
▁w’in zobere
▁byi yongereye
▁kugi he
▁biza gufasha
▁bin yabiziga
van gingo
▁wo l
▁rw’i perereza
▁ndi ra
▁biga saba
▁nku ba
▁M kuu
▁abari nzi
▁w’aba kozi
▁aki zi
th rea
▁uwu ri
▁ida shobora
qu i
▁kugu ha
▁by’ubu vuzi
▁kuta zongera
▁kira geze
▁mba ppe
hoho tewe
▁ina fite
cika mo
▁ndu ga
▁bazaba she
▁ikiri ho
▁zita gira
▁bate raniye
▁byu garije
▁b’umu nsi
▁w’igi kombe
▁bakina ga
▁mutu yimana
▁ntibya kunda
▁mpa ga
▁gusin zira
▁D o
rizo n
▁nyaka buye
▁pri x
▁kiro metero
▁adu tangariza
▁z’imi rire
▁twavuga mo
▁havugwa mo
chu kwu
▁aja x
▁umwo tsi
▁fina le
▁n’imvu go
▁zitu juje
▁bagaraga weho
▁nakwi ta
▁rigi komeje
subirana mo
▁rihu riweho
▁zite ganijwe
▁ent re
▁ker n
▁crow d
- z
b y’
c ques
d ho
e ne
n hi
p d
w ho
x a
▁ hugu
▁ tara
😹 😹
▁i vugwa
▁a boneka
▁a vyi
▁k t
ya gan
ba gije
▁u fashe
▁u tana
▁u shobore
mu rugamba
gi zanya
ko ranya
ko mpanyi
ka se
▁ba t
▁ba huza
ru kan
bi ko
ha rimo
da l
▁bi shyira
▁bi hora
▁bi pfa
▁bi hindura
▁bi vanze
▁c yin
▁mu hari
▁mu sange
ro shya
ki ga
▁gu ci
▁umu kandara
▁bu tike
▁bu hungiro
be st
▁in to
▁in dan
sha mba
▁ha menyekanye
mi d
▁aba geni
▁ama sabu
▁gi kurikira
▁ki swe
▁ki zamara
▁ru kunze
▁ma in
▁ma rs
kin girwa
hi miriza
▁n’i r
na m
kan gara
▁wa rwo
▁wa twi
▁aban yan
▁ni ce
en o
cu rangira
▁e nge
▁kuba gira
▁bya shyizwe
▁bya gakwiye
▁bya guzwe
▁iki renga
▁y’i han
▁y’i banze
▁ri fise
▁uru jeni
shobo keye
▁f ana
aba byeyi
▁t rs
ni ba
no side
▁v yin
▁v yaha
▁ban g
▁ban ywa
▁du hari
▁du hura
▁n’umu kino
▁n’umu shahara
▁ata kwi
▁pa pe
▁nti vya
▁twa geze
byi shimo
ve ment
▁cy’ abanyarwanda
▁bara zi
lo ri
ja cques
▁n’ama sasu
▁n’ubu kwe
▁nda va
▁baka bana
▁umwe reke
▁kwe li
▁yara hawe
▁n’ibi tego
▁rya giye
▁hi bazwa
▁y’ama vuka
▁baha bwe
▁baha garitswe
▁y’aba tishoboye
▁mo sco
▁kuri rimbana
▁yaba ha
▁yaba gamo
▁me mo
▁me chi
▁te tero
▁jo a
▁ye s
▁ye gereje
▁ry’i m
▁ry’i bikorwa
▁di sea
▁w’in yuma
▁twi zera
▁ndayi cariye
▁ugu haranira
▁zo nyine
▁iha garikwa
▁y’in dinganire
▁kw’i terambere
▁n’imi gwi
▁biga cika
guri tse
▁iba korera
▁bahu giye
mp ta
▁tura cya
▁n’uru kino
▁ada ms
▁gato ndo
▁muka range
▁iga habwa
▁au x
▁nka bi
▁nka gira
▁A ma
▁ce rekana
▁aya bo
▁ferwa hand
▁b’aba zungu
kurikiran yweho
▁# A
▁# U
▁muza bona
▁guku san
▁yavu zweho
▁on ly
▁buda sobanutse
▁bare bwa
▁rw’ama shanyarazi
▁C ha
▁kumwi taho
▁pre ss
▁riza tangira
▁buga habwa
▁vyi genga
▁amata ti
▁banya gihugu
▁1 9
▁ruka zo
▁byana tuma
▁gukinira ho
tangu jwe
▁ino mero
▁bire bera
jugu nywa
▁biha mbaye
▁jack -b
▁y’ubwi canyi
▁ibu ranisha
▁ger rard
▁produ ction
▁yasi guye
▁bapfa ga
▁kwiye gereza
▁program me
zzi el
▁bubo roheye
▁nc hini
▁shani ta
▁rwatu byaye
zandi ko
▁urw’aga shinyaguro
▁harmoni ze
▁bache lor
▁igise bo
yagan kuba
I A
c enda
k rasi
k winjira
n yu
t ’
u rwa
x o
▁i gurwa
▁i zanye
▁i kurikiwe
▁i bwami
▁a torwa
▁n ja
▁u san
▁u tere
▁u zziel
re no
gi n
gi shi
▁ba h
▁ba sobanura
▁ba shyigikira
▁ba shyiraho
▁ba tinze
▁ba senga
▁ba shizwe
▁ba hangane
zi ranenge
ta zi
bi ciye
tu na
da d
▁bi tsina
▁c rane
▁ya subu
▁ya sabwaga
▁mu na
▁mu bwire
ku kira
▁umu bona
▁umu tako
ti lo
shi riki
▁in yongera
sa bukuru
▁ha kunze
▁ha tewe
▁aba sesenguzi
he nge
▁ru curuza
▁ru mogi
han ira
▁ubu rusiya
▁ubu twererane
▁ubu shuhe
ne ka
▁p rima
hi di
hi tira
▁n’i cyayi
▁zi hana
▁zi tewe
▁zi hariye
le wa
do ma
▁ni mbona
vi ziyo
▁e phrem
▁tu mwi
▁kuba zanira
ci kwe
▁yi ruka
yobo re
▁ri taba
on gozi
shu shan
la r
▁n’aba fatanya
▁w’i banga
▁za rwo
▁co py
▁se nior
man y
▁n’umu curuzi
▁cya tanze
rira ga
▁pa ssa
▁rwa vuye
▁re ne
▁bara pfuye
▁bara teganya
▁bara shima
▁n’ubu tunzi
▁n’in yandiko
▁nk’u mwi
▁bo russia
▁yan e
▁yan yoye
▁yan ganije
▁n’ibi hangano
▁rya menyekanye
▁cy’i mikino
▁ara shimira
▁l wa
▁abatu nganya
▁so nga
▁so nt
▁te x
▁n’ib yuma
▁kumu shaka
▁li za
▁fa ye
▁g no
▁w’in twari
gaban ijwe
▁nko ngi
▁ira komeza
▁bari mwo
▁rwi sumbuye
rie d
▁kubu mba
mwa ro
▁mwa koze
▁baki teza
▁abanya -
▁bika vurwa
▁z’ama yero
myi tozo
▁ze mewe
▁n’uru go
▁ada m
▁ry’umu saruro
▁inta he
▁yagiye yo
▁iga twara
▁bw’u mwe
▁lo ca
▁ce tte
▁muha med
zin kindi
▁sin shobora
▁y’igi tsina
▁bye nda
▁inko rora
▁kira hari
▁tuba ri
▁kura mukanya
▁imu fasha
▁bw’umu gore
gra ph
▁ubusa bane
▁bahe rekeje
▁bintu nimana
▁yuba kiye
mani ka
▁zin o
▁batara bona
▁guhe nda
▁kuga bana
▁bahi zi
▁bahi tanywe
▁bavu kana
▁bun yuranye
▁aman da
▁davi s
▁ad minist
▁jan ja
▁bikaza rangira
▁z’ibi go
kusan yi
▁baho rana
▁supe rin
lf ram
▁seba gabo
▁pasi poro
▁micro fin
tembere za
▁hate ganijwe
rien d
▁dusin gize
▁kugaban yirizwa
▁httpst co
▁httpst witter
▁belgi que
▁pha rma
▁yasimbu we
▁n’imbo gamizi
▁shassi r
▁ilde phonse
▁bulldo gg
a yo
e li
m r
p fana
r ro
u mva
z n
▁i an
▁i burasirazuba
▁a gende
▁a tegura
▁a fungiwe
ba tsi
▁u de
▁u bone
▁u twara
▁u korana
▁u hinga
▁u shinjwa
mu tera
mu ziki
re kanwa
ye rekana
▁ba wi
▁ba vura
▁ba kanga
▁ba girwa
▁ba trice
za mini
zi o
ta hu
bi e
ha burarw
yi shyira
yi koresha
da ya
da di
▁bi ma
▁bi rana
▁c ric
▁m byi
▁ya sanzwe
▁ya mpaye
▁ya shimiwe
▁mu f
▁mu hora
▁mu zindi
ki ran
▁gu in
▁gu hingwa
▁gu tsura
si to
ku bone
go v
me hutu
▁umu goroba
▁bu ce
▁bu kenewe
▁bu mbogo
▁aba gendana
▁ama ro
▁ama shimwe
▁ama jonjora
▁ama suka
li ba
li ty
▁gi kubiyemo
zo vu
▁ibi rwa
▁ibi rimo
▁ibi bera
▁ibi shobora
▁ibi koko
▁ibi sata
▁ma y
▁ma hera
▁ma huriro
▁ma donna
▁ka da
▁ka gizwe
▁ubu rya
▁im yobo
▁im yubakire
▁n’i teka
fi c
▁zi kana
▁zi fise
▁zi turutse
kan de
▁wa huye
▁wa kiniraga
▁kwi hana
fu re
▁ga ri
▁ga me
▁ga cu
▁ni yu
kun d
▁cyan yu
cu ranga
zu ru
▁yi bajije
▁ri reba
▁uru sha
riki ya
▁aka zana
ngu rwa
wu mva
po st
▁za byo
▁co mple
▁ko be
▁ca iro
▁n’umu shinga
▁n’umu shikiranganji
▁n’umu kecuru
▁aga hitamo
▁cya kiriye
▁cya gabwe
▁ta gisi
▁wi zewe
▁sa vio
▁nya ki
ani si
▁we rekeza
▁bara vuze
▁d la
▁n’in cuti
▁baka va
renge ye
▁ho ngerwa
▁be rtrand
▁abi cwaga
▁ara humuriza
rya manye
▁baha magarira
▁mo r
▁mo teri
▁baga banuka
sobanu ka
gari ke
▁jo shua
▁kubi saba
▁kubi reka
▁uwa mba
▁kumu reba
▁z’i mana
zan eza
riri rwa
sin yweho
▁do mi
▁vya ba
▁vya vuzwe
▁w’in teko
▁ika yi
▁biza gira
▁biza mini
▁yabi gizemo
▁rw’i minsi
▁n’imi gambi
tegu za
▁bazi ranye
▁kiri yo
▁ne s
▁go ver
▁ada hari
▁kuzi mya
▁aki wacu
▁cla re
▁nk’umu nya
tegura ga
▁ahe jeje
▁A ho
▁A sante
▁ce o
▁ce pi
▁ti g
▁izi ba
▁izi tari
kari tiye
▁ea rth
▁amavu gurura
▁z’aba rabu
▁ntibi za
▁cy’in zara
▁cy’in tambara
▁inko vu
▁kuta renza
▁kayi gi
shyan o
▁bw’in zuki
▁by’ama buye
▁kuya gura
koro hera
▁muru gu
byin ira
▁bacu kuzi
▁ziba rizwa
▁muto ya
▁mugi ga
▁mugi na
▁at ini
▁icu raburindi
▁riri ya
▁uri mwo
mun anira
▁b’u ru
▁dan ce
▁avu gana
▁y’iki renga
▁mana sse
▁bahi te
▁bahi mba
▁ruga ga
▁badu haye
▁atara bona
▁eco fo
▁nara mu
▁nara bi
▁c’u bwongereza
▁yatu tse
▁jac kie
▁w’ibi dukikije
rohe rane
▁akaza jya
▁gusin da
▁ag ns
▁by’imi ryango
▁by’imi shinga
▁yakwi twara
▁muki buga
▁ntaki bazo
▁yasubi tswe
▁akan da
▁fau con
▁kweme rwa
▁Ki gali
▁icy’ abanyarwanda
▁mitu weli
▁n’ic yemezo
▁n’ic yamamare
▁shi tani
▁smart phones
▁iteganya gihe
▁gufu ha
shyingi ranwa
▁kwiyu nga
hiri zwe
▁ikara ta
▁kute sa
▁ntibaba shije
▁spa rk
▁twaha sanze
▁paki stan
▁mexi co
▁demo cra
▁smi th
▁imye yo
▁godef roid
▁wiz kid
▁brus se
▁y’ihan gu
▁superin tendent
▁microfin ance
1 8
K U
e ur
f ransa
f lix
l ama
n nye
▁b win
▁b wuba
ra i
▁i mena
▁a rera
▁a shinja
▁a voka
ri riye
ga mbanyi
ya ge
▁u kore
▁u tsinda
wa sa
gi o
ko raniro
▁ba shize
▁ba shimira
gu mya
▁ku garagazwa
yi ja
yo tsi
▁bi ja
▁bi hombo
bo ngerera
se rt
▁ya bwo
▁ya komeza
▁ya fatanwe
▁ya mbitswe
▁ya byutse
ro ro
ki she
▁gu tegeka
▁gu shwana
▁r yubatse
▁umu gezi
vu kiye
▁bu no
▁in yanya
mi korere
▁aba ti
▁aba taba
▁aba pfumu
he be
de nge
▁ama siganwa
▁ama candwe
▁gi shoboka
to s
to mbo
▁ru baye
▁ma torero
▁ma dolari
▁ma sudi
▁ka le
▁ka sho
▁ka boneka
hi rijwe
mba rire
▁kan yinya
▁igi hangange
▁igi teramo
sho rera
▁na maze
▁wa kiniye
▁kwi beshya
▁ga ju
▁ni twe
▁tu girana
▁kuba tunga
▁yi rinda
▁yi huse
▁yi fotoza
▁ri genewe
▁nta gomba
▁nta byo
ni ght
no vic
▁w’i si
▁za wo
▁y’u bwongereza
▁ko hererezanya
▁du shoboye
▁du shyize
▁ca pital
▁n’umu rimo
▁n’umu camanza
▁ta yari
▁gusa za
▁ata ririmba
▁wi zihi
▁sa lle
▁rwa shyizwe
▁o nes
▁si o
▁aha rimo
▁aha korerwa
▁n’ubu shakashatsi
▁de gree
▁minisi tri
▁n’ibi rango
▁rya tanze
▁rya tewe
▁cy’i bihugu
▁abi hakana
▁abi fashijwemo
▁ara menyesha
▁ati iyo
garagara ho
▁aza ku
▁iza tuma
▁w’umu hondo
▁kubi shyira
▁kumu tera
▁kumu rekura
▁bwi yongereye
▁nk’i soko
▁iz in
▁iz ’umu
▁vya yo
sore jwe
▁by’i m
tin ga
▁twi yemeje
▁byi fujwe
▁batu bwiye
▁ugu komeza
▁ira yi
▁kujya ho
▁rw’i shyirahamwe
▁n’imi banire
▁bamu shinja
▁biga komeza
fungu rira
▁iba mba
▁ro me
▁ro gers
▁uta ki
ron kera
▁baki gira
▁kiri situ
▁kiri mbuzi
tonde rwa
▁bika zo
▁kuyi ha
▁uwi hirwe
▁tura tsinze
▁ruba sha
tungan yijwe
bin yabiziga
▁bada huje
▁aki ga
▁mw’i tsinda
dio la
▁kwin jizwa
▁uni t
siyo neri
▁ntibi gire
cha l
kire mwa
▁sin shaka
▁y’igi fungo
▁bitu gu
▁by’ama dolari
▁I yi
▁baku rwa
huti re
▁kw’ abo
▁uzwi ho
▁agu ha
▁ry’ubu shakashatsi
▁guhu ngi
▁myi garagambyo
▁kuda komeza
▁asi imwe
▁ry’ama ta
▁ntiya basha
▁gutu bura
▁akavuga ko
▁bahi gwaga
▁x p
▁k’umu ntu
▁iru ngu
▁ber ch
▁ntaho ndereye
▁buza fasha
▁w’ibi taro
wani sha
▁banya furika
▁utara shatse
▁cap tain
▁ire ne
▁kutu bwira
▁cho ir
▁basi ganwe
▁br yant
▁waka tiwe
▁tuda fite
▁n’ub wubatsi
▁bakan gurirwa
▁baseze rewe
▁n’amaso siyete
▁kwiyi taho
▁aust rali
▁mine mbwe
▁ryan jye
▁basha be
▁biran anirana
▁tekini ki
▁n’impan o
por ters
▁gusesa gura
▁come sa
▁boro jwe
hanan giriza
▁ubuda hangarwa
▁sil va
▁ubuhe here
▁martine z
divan tisiti
▁umutu zo
▁equato rial
▁campa ign
E S
b ro
i ga
n kore
n ing
r ’i
u zi
v p
v y
▁b w
▁i ve
▁i kennye
▁a wa
▁a hinga
▁a subizwa
▁n shi
ri rimbo
ya ra
▁u rongowe
sh ana
▁ba gwa
▁ba tumye
▁ba subiza
▁ba sobanuye
▁ba soma
▁ku wo
▁ku genera
▁ku mbwira
zi muha
te gurire
▁bi beshya
▁bi yita
▁c yeme
▁m s
▁m win
▁m fungwa
ze r
se ndika
▁ya gura
▁ya twi
▁ya rangiza
▁ya komokaga
▁mu yango
▁mu bana
▁mu muryango
▁mu vandimwe
▁gu tunganywa
ku na
ho u
▁bu rere
▁bu kana
▁bu ganda
▁bu herutse
▁in yemeza
▁ha wa
▁ha tangajwe
▁aba kurambere
▁ama shyi
▁ama suku
▁gi ru
▁gi saga
to ranijwe
▁ru dasanzwe
▁ru muri
gan ano
▁ibi genda
▁ibi toki
▁ma t
▁ma dorali
ne sha
▁im bonan
hi rana
hi gaga
▁n’i jambo
▁n’i y’aba
▁zi bayeho
▁zi yongereye
▁igi komangoma
▁wa li
▁wa suye
▁kwi tinya
▁kwi giraho
▁kwi tekerezaho
▁kwi tondera
▁kwi beshaho
san d
▁ga korwa
▁ni ze
▁mi cho
vi re
cu kurwa
men yanye
▁kuba korera
▁kuba rirwa
▁bya tsinzwe
▁yi ce
▁yi kubita
▁yi tirirwa
▁yi rinze
▁y’i ba
▁ri jejwe
▁uru vu
▁z la
shu kuru
aba turage
nga ga
▁n’aba kiri
▁n’aba vyeyi
po lo
indi ra
▁du tegereje
▁ca kozwe
▁cya twaye
▁ata gomba
▁ata remezwa
▁nti rura
▁wi rinde
▁rwa rangiye
▁bwa bereye
▁yo rohewe
▁re novat
▁ra za
▁bara giye
▁aha siga
▁n’ubu babare
▁n’in keragutabara
▁n’in dabo
▁nda gira
▁muri vyo
▁yan yerejwe
shuri rwa
▁ikin ga
▁abi fitemo
▁baha ga
▁mo rale
▁aza be
▁baga tora
▁kuri mbura
▁l ine
▁l ’i
▁so rwa
▁te c
▁ye pfo
hindu rira
ll ing
▁bafite mo
▁z’i bya
▁bw’i humure
tanda o
rasi yo
▁iyi he
▁twi fatanyije
▁twi buke
▁biri mwo
menyesha ga
▁ira genda
▁bira tuma
yuba ke
▁wo te
▁kw’i barabara
▁b’i m
▁n’imi koreshereze
▁ndi ho
▁kur wanira
▁w’ama kipe
ywe ro
▁baki rwa
▁kuwa siliana
▁uza bi
▁kuyi kinira
▁y’ibi lometero
jan we
▁go ro
▁bihe rereye
▁fo rs
▁uga fata
▁N da
▁ana bi
▁w’aba ganga
▁ntiba kunda
▁bati shimira
▁muka ri
▁muka songa
▁w’a bo
▁bato jwe
▁abo ut
▁kun y
▁U ra
▁U bwo
▁ar bore
▁umwi jima
▁ce dric
▁ry’aba ganga
▁muzi yumvamo
▁ida hwema
▁ibin ure
▁b’aba hutu
lla ume
▁mura bizi
▁kura bira
▁ruri ya
▁y’uru gamba
▁nga bire
▁b’in zobere
▁dia rra
▁byara tangiye
▁are bera
▁guke rerwa
vyi gwa
▁yuba kiwe
▁bazaba fasha
▁imin wa
▁tuka gera
▁tuka jya
▁y’iki buga
▁ntiya ba
▁gutu mira
▁bahi ganirwa
▁badu saba
▁ake rekeza
▁bizo tuma
▁fre wa
sto ne
pfuka ma
▁k’ubu curuzi
▁bamenye sheje
▁sou dy
▁kuti ta
▁yate je
▁y’abi gisha
▁rw’in kari
▁ngi rinshuti
▁fil me
▁guhana gura
▁eri threa
▁n’ibiro ri
ziga ma
▁z’igi tondo
▁jona s
▁mc kin
▁or der
▁kali ra
▁kigali- rubavu
▁hc r
▁rwu nge
stan t
▁amasa mbu
▁n’impan uka
▁mate mbabuzi
▁bashishika jwe
▁bashishika rizwa
▁bw’abanya gihugu
llen ce
▁Le o
▁yaou nde
▁n’inko ngi
▁stre ss
▁ry '
▁jen ner
▁oppo rtu
▁esp rance
▁mitiwe ri
▁commer cial
▁viet nam
▁gno cide
▁dusingize mungu
G A
M B
a kana
b be
i si
u ye
▁ shira
ra ta
▁i guye
▁i rerekana
▁a rts
▁a kanga
▁a herereye
▁a kurikiranwa
▁a shyire
▁a sanganywe
▁a shyingurwa
▁n yongera
ga we
ba lala
▁u ’
▁u vuka
▁u huru
mu ma
re ho
re al
ru rira
▁ku wi
▁ku manu
te o
da ru
▁bi jejwe
▁bi shimye
▁bi tumvikana
bo y
▁c s
▁c ru
▁c yama
se gura
▁ya bura
▁ya fatwa
▁ya kirwa
▁ya shyikirije
▁ya fatwaga
▁mu jawa
▁mu hororo
ro hereje
ki renga
di tion
▁gu komereza
▁umu pfumu
ho bo
▁in ganga
sa fari
▁aba baye
▁aba tsinze
ran gurira
ran ganya
▁ama baba
li se
▁ru sanga
zo s
gan go
▁ma shyirahamwe
▁ma vubi
▁ka ki
▁ubu se
▁ubu jyanama
kin ya
▁n’i y’ama
mba yeho
▁zi shaka
nge rwaho
▁igi sa
▁igi tangazamakuru
kuru ye
▁na ga
▁na wu
▁wa toza
▁kwi gobotora
▁kwi fotozanya
▁ga banuka
▁cyan za
cu ranzi
▁tu taba
zu zanye
▁bya tinze
▁bya tunguye
▁bya gufasha
ci t
▁yi su
ce ss
ca go
ca munsi
▁n’u turere
▁t mz
no me
▁za zo
▁za turutse
▁du tangira
maze mo
man swa
▁ca l
▁aga sohoka
▁pa ge
▁twa gombye
▁sa ca
▁rwa tangiriye
▁bara tangaza
zaba sha
▁n’ubu mwe
bya kiriye
▁muri tegurirwa
▁nk’u wo
▁y’ubu shinwa
▁bo mbo
▁yan yuze
▁ho me
▁yara sanzwe
▁yara tanzwe
▁can di
▁cy’i zabukuru
▁baha sanga
▁mo ja
▁iza ri
▁iza gera
▁baza ya
▁kuri mba
[...]
