#version: 0.2
a n
▁ b
r a
▁ i
▁ a
▁ k
r i
▁ n
g a
y a
b a
▁ u
m u
r e
w a
s h
y e
m a
k o
i n
g i
▁b a
z a
k a
w e
g u
r u
▁k u
z i
b i
g e
t a
h a
d a
t e
y i
t u
y o
z e
b o
b u
▁b i
▁ ya
▁ m
▁n ’
▁ mu
y ’
s e
▁ c
k i
▁ gu
s i
r o
g o
w i
d i
▁ r
k u
an a
m e
▁u mu
j e
v u
h o
t an
w an
t i
b an
h u
b e
▁b u
▁i n
y u
sh a
▁a ba
▁ y’
y an
d e
m o
s a
m i
▁ ha
h e
f a
r an
r wa
w ’
sh i
l i
wan da
▁a ma
h an
▁ gi
▁k i
▁ ru
d u
t se
m we
▁k a
▁i bi
o n
▁u bu
k e
g an
▁ ma
▁i m
s o
▁r wanda
t o
▁ p
k in
▁n’ i
z o
f i
h i
▁n’ a
▁ w’
w o
be re
gi ra
ge n
m ba
▁ zi
vu ga
▁n’ u
ga ra
t wa
z we
▁k an
k an
n a
s an
▁c yan
ko re
▁k wi
f u
sh o
▁ ga
▁i gi
l e
▁ wa
hu gu
▁a ban
▁a ri
▁m i
ku n
d o
▁n a
fi te
ge ra
c u
b wa
▁n i
e n
▁b ya
▁a ka
s u
tan ga
▁kan di
g wa
t s
n e
ku ru
▁y’ u
z u
yo bo
▁n de
b wo
▁ku ba
ko me
gi ye
sh in
re re
a ma
▁ tu
▁ha ri
p e
▁ku ko
▁ e
▁nde tse
▁ yi
v i
ri ki
▁i ki
yo n
re n
▁y’ i
▁i mi
ko ra
▁u ru
yu ma
c i
▁ari ko
sh yi
ko rwa
r yo
ri ka
c e
▁ z
’ u
m bo
▁cyan e
▁ ri
▁i b
▁n k
y in
j ya
sho bo
▁ s
m bi
sh u
▁ f
in i
me n
a ba
▁c y’
yobo zi
▁ t
bi ri
▁n ta
v a
j we
b wi
n da
ran ga
ya ma
ri mo
▁a vuga
h in
ka ba
▁b y’
▁ je
l a
▁gi he
▁n yuma
n o
t si
tu ra
p a
gi ze
kan ye
ya ka
ts in
▁i c
r wanda
▁m bere
i ra
sh e
▁umu n
wa ka
gara ga
c a
▁n’a ba
bo na
han ga
be ra
▁u m
p o
n gu
ya rwanda
ga bo
’ i
▁ za
in di
tura ge
ri ye
▁aban tu
e za
b ye
▁c ya
▁mu n
fa ranga
▁ j
z wa
▁b w’
u mu
r ana
ba zo
w u
▁b an
m ana
sha ka
vu ze
te ra
kin o
▁ ta
ma ze
k wi
▁r y’
yan go
▁ du
ge re
▁ku gira
c o
ta ra
shobo ra
en shi
bu ra
b yi
k ana
m an
tan du
▁w’ i
▁ se
fa sha
r yango
u bu
ri ra
▁n eza
▁ le
▁p a
n ga
▁ twa
▁gu sa
go re
zi ma
sh ya
▁cyan gwa
ge za
▁n’u mu
ci ro
ki ra
▁k o
▁nk ’u
v e
▁a ga
▁ ra
te ge
▁n ya
n di
▁ta riki
▁p e
wan ya
▁n ti
▁b wa
▁ sa
b ana
g ana
▁ wi
ga li
▁c o
tandu kanye
▁m waka
gan i
▁igi he
ge ze
za ba
▁bu ryo
▁aka ba
cu ru
p i
n yi
ba ye
b ya
san zwe
ru ka
ye me
si de
▁p o
▁r w’
j i
▁ d
▁ we
▁a ta
▁m ini
▁je no
gu ra
▁ya vuze
▁jeno side
gi hugu
▁bu ri
▁ si
▁im bere
▁ki gali
▁r wa
▁ han
ren ge
re zi
ko bwa
r we
shi mi
▁ya gize
▁ka rere
tu m
gan da
▁b enshi
men ye
▁n’a ma
yin shi
▁n’a ban
▁ re
▁r we
▁ku bera
di ri
p u
▁le ta
ku riki
ri za
▁a ha
▁ama faranga
go mba
ban u
shyi ra
m va
▁mi li
b we
▁n’u bu
ran ye
an i
▁ba ra
▁mini si
j ye
▁n’ in
▁ba ka
san ga
in a
n ye
on e
▁u mwe
sh an
kome za
l o
▁ba ta
▁ o
kome ye
▁bi ta
fu rika
▁aba turage
shu ri
tu ma
han zi
rezi da
b yo
▁ku geza
▁mu ri
kore ra
za mu
diri mbo
▁cy’ i
shin zwe
▁ an
kin nyi
fa ta
▁u ku
n ge
▁umu yobozi
sa ba
k wa
tan giye
▁ yan
▁k we
j yan
yi za
▁pe rezida
m be
kun da
yo se
n i
▁ ho
▁gu kora
▁z ’
tsin da
j yi
f o
t in
▁gi hugu
m bere
▁po li
su bi
d wa
n go
w ana
▁rwe go
ti ri
ki ri
▁i kin
m vu
▁ha ga
▁a ti
kore sha
▁n’i bi
▁ya ra
m bu
ko ze
▁n u
▁bi te
po r
fa tan
sh wa
y ana
gen da
yon i
so banu
shi ze
▁ de
▁iki pe
▁nk’u ko
gara gara
kome je
▁ga hu
a ban
te r
▁ba za
gu ru
j u
▁a za
bo ne
▁umun tu
▁gahu nda
ke re
in tu
▁mun si
▁b e
he re
▁i za
ki pe
▁y’ aba
garaga za
te ri
▁aba tu
▁gu ha
▁ba ha
c yo
shi je
gen zi
▁ba mwe
▁r ya
te ka
▁s por
e l
▁y’ ama
mwe ru
▁b o
jyan ye
gen do
r ya
▁mili yoni
▁je an
▁a fite
▁ba ga
▁a bi
ma ri
tanga je
▁i ta
yu mweru
j a
t on
▁haga ti
▁hari mo
▁ya ba
▁y’u bu
in e
▁z ’u
in si
▁u yu
pa mvu
▁m o
p r
gani ro
sh yu
▁im yaka
▁gu te
ra ga
hi ta
▁ vi
ga ri
▁ba fite
▁a ra
k we
▁a furika
r w
▁aban di
▁ku ri
▁n go
j o
shin ga
▁i si
▁ubu ryo
t we
ko rana
▁ te
▁u wa
▁ ye
ru tse
tan gira
▁ka biri
▁aban yarwanda
tanga za
tege ko
▁ra yon
p an
▁ibi korwa
▁ yo
tan gi
▁ hi
▁f c
zi ra
▁ -
▁n’i b
yama kuru
ti on
▁j o
ru sha
m wi
ga mi
n gi
curu zi
so ko
bwi ra
twa ra
ku ra
bu ga
c ya
se ze
▁b yose
tum wa
ren ga
▁ku mu
▁n da
z an
▁ he
r d
zu ba
▁w’ umu
l l
a ka
▁bi korwa
▁ku bi
▁a hu
▁in ga
te kere
▁ba vuga
▁ki mwe
hu mbi
ke ne
▁abatu tsi
▁nk ’
s t
bo nye
w in
▁b wi
▁m pu
tan u
▁z ’i
▁in dirimbo
▁by’ i
▁a han
re ke
▁ l
ri je
kan o
ts we
dwa ra
▁ yu
▁ fa
me rika
▁c a
ha ri
▁nta bwo
kwi ye
▁iki bazo
▁ to
s s
te kano
▁ba ba
m yaka
▁k on
ri ri
so re
▁k wa
▁minisi tiri
te go
men ya
▁ib ya
▁i z
▁b ’
▁mu jyi
▁i yi
shan wa
p fu
▁b yi
y wa
q u
▁a bana
▁ g
to za
n ze
kin a
▁b yinshi
▁nk ’i
ho ro
gu ye
kun do
si ga
▁m e
o ta
s in
v an
bi ra
sh we
▁ka ga
▁w’ u
▁ya kore
▁bw’ i
▁ha mwe
yi je
▁ li
hin du
▁n’aban di
▁a l
▁mpu za
▁ di
▁im ana
▁u ganda
▁bu ru
▁n’ib indi
t yo
▁ba bi
▁bi hugu
▁y’u mu
tara mo
vu ye
▁ahu bwo
▁ku re
bu ka
▁ku bona
▁spor ts
hin zi
▁bi za
▁ so
▁poli si
▁m wanya
▁k in
▁ba kaba
▁ry’ i
e r
▁j a
▁ib intu
▁ic ya
ha re
▁ do
▁igi hugu
▁mu renge
m ye
on i
gere za
m in
ko mbe
ta re
bwi ye
ko zi
▁ba tu
▁ku gi
tan da
ru ko
ri n
sa ru
▁t he
▁ku jya
▁kaga me
gan ya
▁a pr
m vi
▁i ka
▁a gira
▁n ko
▁y’ a
hi se
▁nu bwo
ra si
▁bi ba
▁t wi
ga ban
m bwa
▁in ama
ho ra
▁ama kuru
▁c yi
▁han ze
saru ro
ba re
▁u bwo
ro na
▁mu kuru
san ge
▁m wi
hu ye
▁ya ha
me ra
ri nda
bye yi
gan ira
▁ku za
t so
▁n yi
tera mbere
ran gi
▁c yumweru
l le
▁ubu yobozi
▁umu gore
ban ga
z wi
▁u gu
yon gera
yu ba
fu za
j yana
▁i fite
▁im ba
ri ro
fa she
▁b in
▁ki bazo
▁uru hare
▁n yama
r t
ze go
▁r wi
m ya
byi ruko
ge ro
gen e
m pi
▁ba maze
▁ sha
▁bi tandukanye
▁c on
▁we se
▁ru sange
▁minisi teri
sa bye
ban za
re tse
▁ fi
ye ho
ta ba
▁ku gera
ta tu
do ka
▁y’ in
▁ubu zima
ru s
▁ba mu
▁nta ra
c an
▁mu kino
tanda tu
han go
shu ro
▁aba kinnyi
re zo
shu ti
mo ka
ru shanwa
▁umu gabo
gi sha
▁ya bi
▁ku rusha
aka rere
p fo
▁gu tanga
▁n yinshi
bere ye
ran o
u r
▁b ’i
▁w’ in
▁kwe zi
▁ibi humbi
han da
kun ga
▁i ba
s on
san ze
▁yakore we
▁i ra
▁rw’ i
▁ha ba
▁u ta
gu ri
fa shi
si rika
▁umu saruro
▁i ha
s te
ri e
▁y’i gihugu
qu e
▁n’u bwo
re ra
▁i yo
kun ze
ran go
▁ba rimo
▁ya tangaje
▁yan di
▁d r
rona vi
▁by’ u
▁bi kaba
bi korwa
u za
ki ye
hu ra
mu ha
▁bi tyo
sh yin
▁n’i mi
▁n kuru
▁ku bu
▁ v
▁ da
▁ wu
tum ye
gan o
gen de
▁bi ga
▁ama ze
co m
▁ yeme
▁ni bwo
▁ su
▁ga tatu
sh ye
▁ba giye
ti ma
sirika re
n tu
min uza
f e
fu n
ri re
m bye
▁um wanya
▁te le
y we
gi zi
ko zwe
ha mwe
kun zi
▁ka minuza
ki ko
hi rwe
▁ ro
w on
te ro
▁ata ri
▁aga ciro
▁u sanga
c k
▁u shinzwe
ya ri
zwe ho
▁ic yo
▁u fite
▁bi rimo
▁umu tekano
▁bu zima
▁na ma
▁u bwi
▁kwi ta
▁bi ri
ga mbo
r wanya
ran ya
▁ba zi
▁aka zi
▁ikin di
te ye
▁u za
▁a f
to re
▁b ana
so ho
m wa
pe ra
▁i ri
bura rw
▁mpuza ma
▁ic yi
shyi ze
▁m yaka
▁ba kora
▁s ta
ta ka
mi ra
yu ngu
▁ibi bazo
▁i soko
fu ngu
▁umu ryango
ke n
ke ra
▁n o
hu za
ka zi
ran e
hu nga
gan ga
▁i kaba
▁mpuzama hanga
▁kuba ka
rwa yi
yi jwe
’ ’
▁bi ra
bo n
garaga je
▁co ronavi
shyu ra
▁n ku
▁wi twa
m p
▁coronavi rus
▁n one
ze re
sha tsi
po ro
ri s
▁im pamvu
fo to
▁m an
▁in yuma
▁ri mwe
sho ra
▁w’ ama
▁mun tu
i re
li ka
▁u ba
▁na bo
▁n dirimbo
▁a merika
▁bite we
▁ zo
▁bya ri
▁ba ki
▁ku yi
kun gu
n do
fa ti
shimi ra
▁u r
▁kwi buka
re ka
▁gu shyira
bu hanga
ta ri
▁ku vu
▁u wi
▁m wa
tu ngo
▁m pamvu
shyi rwa
▁i tsinda
▁ la
m ini
gi zwe
she je
▁um waka
u l
yama banga
ji je
p ira
▁k en
gami je
▁y’u ko
▁ku wa
shaka shatsi
▁b yiza
yu mba
h ana
▁z’ ama
si ra
sa bwa
tekere zo
zi za
ta biri
▁gu fasha
man u
▁kugi rango
▁p ro
sa ga
si ye
▁sa a
a l
▁umu kino
▁ru ba
shimi ye
▁u tu
sa ha
s wa
mo doka
▁bi he
▁c ye
▁b we
tsin a
re ba
▁i cu
mba ra
▁ wo
d an
▁mi kino
▁in ka
to ra
pa ka
mu ra
ha gara
▁bi jyanye
▁gi cu
▁umu kobwa
▁f e
ru gendo
tan ze
seze rano
ran sa
▁ ze
▁um wana
▁ba gera
kore shwa
▁ru go
▁bi mwe
in go
kore sho
du gu
▁yi twa
ha bwa
man ota
▁ wan
ri zwa
ho ze
ran ira
▁cy’ u
▁w’ ubu
▁n di
sha mi
ren gan
▁n e
dugu du
m bwe
yo na
te gu
▁m insi
yobo ra
ve ri
ma ra
yeme zo
▁sha mpi
fa ransa
▁ku menya
▁bi ka
shobo ye
▁na yo
r y
fa shwe
j ira
shobo zi
korana buhanga
▁na bi
▁m ba
▁mu ryango
t wi
tu n
ku bi
tsin ze
▁u ka
▁ban tu
f ana
se nge
p fa
▁ki go
vu gwa
curu za
fatan ya
▁mili yari
me re
▁shampi yona
bwe nge
▁imi kino
▁gi korwa
su ra
ri we
▁j u
▁iz ina
t sa
ri rwa
▁ya komeje
mbu ye
▁ya tangiye
▁gu veri
▁a mu
yan di
yin e
▁kon gera
d ana
▁y’i bi
go ro
ga ru
▁n’i gi
ga ruka
▁kwi rinda
gi je
i r
▁han o
▁n’u ko
fatan ye
▁ki pe
▁tu ra
ri a
he ra
ton de
▁e m
mba ga
▁u retse
wan di
▁gu tera
▁ku n
▁gu fata
▁ma rie
hu ngu
garaga ye
▁ni yo
▁ban ki
▁ama teka
▁gu shaka
kwi ra
▁ go
▁im insi
▁gu koresha
▁ba ri
▁in gu
▁ubu mwe
▁ba te
▁m enshi
zi ki
he rere
▁aba gore
▁pa ul
ra li
bi li
▁mu gabo
ko moka
▁do re
han gana
▁a da
▁u ga
▁ibi ri
ju ru
▁ibi hugu
▁ma ta
▁buru ndi
▁igi kombe
▁m yiza
▁ken ya
l u
▁ama horo
▁imba raga
n d
de ge
▁ki ganiro
▁in dwara
▁n’i ki
c h
shobo ka
▁ha za
▁ama hirwe
z ani
▁bi tuma
▁r yo
▁zi tandukanye
ye shuri
te gan
▁ga tanu
▁ba biri
t y
bere ho
▁ba turage
n ya
menye tso
▁ yon
▁ry’ umu
▁f rw
▁yo mbi
▁in kunga
bu ye
▁ama kipe
▁i terambere
p ubu
ro ngo
▁ku zi
fa twa
▁in di
tege tsi
ba zi
▁kan e
▁gu komeza
▁w’ a
bone ka
▁f o
▁ib indi
▁ko mi
▁ya bwiye
▁in ter
▁n’u ru
▁re pubu
▁ zu
b in
▁im pan
ba za
vi d
g ingo
▁ku mwe
tan ye
▁umun yamabanga
▁bw’ u
siga ye
▁i vuga
▁ ana
▁bu ra
▁ba da
▁ruba vu
▁aban ya
▁b en
▁ya baye
▁imi rimo
bi re
▁b wo
▁ya je
▁a shobora
ren ze
▁ki ri
hari ko
di o
▁ki za
t h
an o
▁bi go
me za
z indi
▁ahan tu
▁ba genzi
twa ye
cya ha
m byi
▁se ri
▁repubu lika
gi re
en t
▁mu hanga
ga mba
▁ku rwanya
z ana
▁aba yobozi
kera rugendo
men t
c he
can yi
ran i
manu el
▁a ki
ru guru
▁mi ss
▁seri vi
▁ huye
yu ze
kore rwa
▁con go
▁em manuel
shyira hamwe
▁u bwa
▁ib yo
a m
m waka
▁we ru
▁b yo
▁w’ aba
▁mu ka
▁i modoka
i s
▁ga ce
men yi
te rwa
l an
tan zani
▁weru rwe
▁c ha
aban yarwanda
▁ku zamu
▁i ga
han de
▁umu hanzi
kwe zi
ro ri
ha ye
▁tele f
ren gera
▁aba ri
hin gwa
▁n shin
▁a giye
▁k ’u
me ze
▁n’aban tu
▁n dwara
kene ye
▁im yi
▁ga tandatu
▁c la
▁i ti
▁ubu tumwa
▁n shya
▁u shize
aban tu
ma ro
▁k e
jo ro
▁ya giye
rwe go
yan ga
▁nk’u mu
▁ba ti
kun dana
ma kuru
me na
m bura
shu sho
▁ba yi
▁ga to
gi ranye
▁by’ in
ti ve
tore ro
yi mana
kan i
▁t we
han o
▁um wu
v o
▁gute za
l in
▁i wa
▁mu ha
b c
▁i ya
shya mba
ban da
▁af ri
▁ba gomba
kuriki rana
n du
▁i s
▁ ti
▁gi taramo
▁poli ce
▁n yan
▁k win
▁in zu
▁w’i myaka
sobanu ra
subi za
▁ ’
▁ka zi
▁uru byiruko
▁i da
▁ho se
gen ga
▁ma faranga
▁nti ba
gaban e
▁ h
gu rira
shin ja
▁ yana
▁uru kundo
ki rwa
▁r yi
si yo
gan wa
ha ga
▁mwi za
▁a manota
▁aka rere
ci tse
po li
d y
▁ubu shobozi
▁inga ruka
▁i zi
tanga rije
rengan zira
s tin
▁ tanzani
▁tu ri
▁umun si
▁zi rimo
byi ri
▁spor t
▁ubu ndi
te gura
shora mari
▁za bo
▁sta de
▁ama vu
ran gira
ha mya
shyi gi
▁han yuma
re kana
▁ya mu
▁in zo
riri mbyi
▁nyi ra
sh yaka
sobanu ye
ne t
▁o f
so zi
▁bya ba
▁ngo mbwa
▁mu zi
vu ra
▁ya hise
gen zu
kwa kira
▁n’i zindi
s ta
▁a zi
me zi
▁y’i gi
▁n ka
tekere za
▁ba hu
▁i maze
te we
▁igi korwa
so ro
▁a ko
▁n’i m
▁nku ko
vu gizi
▁b ’u
ha ra
ro ko
kin ira
▁ib y’
▁ya sabye
be rt
n de
ti ye
▁a tu
muha burarw
▁n ziza
yo bya
no ma
▁ikin tu
subi ra
▁mu kobwa
yu mva
gen ge
▁serivi si
▁jo se
▁u b
▁guveri noma
▁u du
l y
▁a be
se ra
▁cy’ in
▁i su
kan ga
z ina
▁zo se
▁co vid
▁he juru
▁inga mba
▁ita riki
tangaza makuru
▁bi shobora
p p
te l
▁n shuro
bura sira
▁bi da
hugu rwa
▁iki go
ki je
▁ama zi
reke za
▁ba ke
c ye
▁ vu
ge je
▁cy’ ama
m ban
▁yon ge
▁a s
▁ma r
▁yandi tswe
▁ yin
hin ga
v en
ge sera
▁in da
▁ku vuga
▁n zu
ha we
▁n an
ja mbo
tabiri ye
▁fi li
y s
ve r
me s
ra zi
▁a u
▁e s
ka ri
▁a r
▁i shuri
▁r d
on a
ro zi
du ka
▁za ri
▁zu nze
▁aba gabo
▁mu da
w’ i
▁imi ryango
▁b ye
ya ga
▁gu hangana
ke sha
▁ hin
ran yije
z on
▁c yose
bu nga
▁c yo
pi te
▁n za
ba ll
tan gwa
▁aba hanzi
kore sheje
burasira zuba
▁nk’ a
▁ lo
▁ibi he
shin giye
j wi
▁in shuro
▁in yungu
▁aba kobwa
ge zweho
▁gu so
▁z’u mu
se n
shan ya
▁ya koze
▁ba gize
▁n yarwanda
te guye
▁hi rya
▁ba jya
▁by’ ubu
▁ N
▁u kwakira
▁ama sezerano
▁gi to
pera tive
gan ye
▁ku va
ki re
t ana
▁i zaba
▁bu faransa
hindu ra
kore re
▁bita ro
here za
▁ka yi
▁i tanga
▁wa bo
▁nti bi
zu ro
t ri
▁ru hande
mwi hariko
m pa
▁fe rwa
▁e ri
▁i shize
▁ama tegeko
▁umu toza
ran gwa
yobya bwenge
▁n ze
tu ngu
▁gu ta
▁ba to
▁w’ akarere
r wan
sh yan
▁in ta
ye mo
bo za
▁um wa
ku ba
ma ga
▁zi ri
ta bo
▁tu rere
shi shi
▁bi komeye
▁wa we
▁i rushanwa
▁icu mu
▁u ra
▁f ran
▁ma kipe
r s
▁u shobora
▁hin o
▁ry’ u
gere ye
ta bira
ban ze
▁ka ba
▁a komeza
in ga
▁gicu rasi
▁i koranabuhanga
▁bi biri
yu mvi
▁nta cyo
▁an d
▁ru ta
▁ibi tego
bwi riza
▁ru kundo
▁kure ba
bon ano
te za
▁im pu
▁kwi ca
mu ryango
▁i rimo
▁ama so
▁na byo
▁i jambo
▁a kora
zan yo
su zu
▁tu za
▁ubu renganzira
▁by’ ama
won gereza
▁umu bare
bili gi
mba ye
▁e jo
gi za
pfu ye
▁cy’ ubu
▁in gabo
fatan yije
▁mu handa
tan zwe
rangi za
▁icyi zere
de li
hagara riye
si zi
▁bwa bo
jya ruguru
▁z’ a
yama ma
▁ibya ha
▁covid -
n g
▁y’ e
kan ya
▁cy’ umu
▁bu tumwa
ran yi
ze ye
▁mu za
▁ka mena
ban je
ran giye
ge ria
▁i ryo
▁ma gambo
▁ibi go
poli si
ki sha
▁ya yo
▁in kuru
kuriki ran
b yin
▁ba tangiye
▁ma teka
▁kwi ga
guri sha
kome re
ga mbi
siye te
ha gije
▁ hu
▁mu tara
▁ibi jyanye
▁ari mo
shyin go
bu ze
▁u ni
▁ibi koresho
▁ra poro
▁ibi ganiro
▁e byiri
c ha
te be
ru si
▁y’e pfo
ba sha
▁ba shobora
▁a ya
▁gu kina
▁bya bo
▁zi za
c wa
tanga jwe
▁y’i myaka
zi mana
he rutse
jye pfo
▁si ta
▁mu dugudu
▁kwi shyura
▁ga shyan
baye ho
▁nyama ra
▁gu korera
me ro
ye nda
▁ku mva
▁vu ba
▁gashyan tare
▁ba shaka
▁bu gesera
▁ku ru
fi tanye
ro shye
n shi
yu ranye
bu zima
▁ha kaba
▁iz indi
▁a zaba
rwa ye
▁ry’ aba
▁ w
▁ama foto
kuriki ra
▁by’u mwihariko
▁ni ba
l la
te ko
▁ni yon
▁umun ya
▁k wan
▁u kun
ra ri
▁i mu
ku ri
▁umu ra
▁ U
▁ba bona
ke mura
▁bya ra
▁b’ aba
▁uru gero
▁ita tu
ma ma
bu m
zi ya
gi rwa
▁bi garagara
▁inter net
su mbuye
ri mana
▁n jye
twa ro
yu ra
▁cy’i gihugu
▁a kana
▁imi bereho
ha riye
▁kuzamu ra
▁aba byeyi
▁in ko
▁ni we
▁n gu
bi hugu
du ra
le s
r wo
▁aba kozi
ru wa
m wu
▁ba cu
ze ra
bu tso
▁ya maze
shishi ka
▁ma hanga
ton do
▁gu hera
ti ki
▁ata tu
▁a bo
▁in shuti
curu zwa
gende ra
s we
▁uru kiko
▁ru za
▁ru sizi
ken shi
twa ri
▁a shaka
▁aka maro
▁ba koze
▁mu se
▁ugu shyingo
goro ba
▁a gomba
▁ba je
▁a biri
▁y’u ru
yeme je
mba sa
▁nya kanga
▁mpuza bi
▁c h
▁mu sanze
▁bi bazo
san zu
▁bi fite
▁bya tumye
gene we
▁zi ba
▁tanzani a
to ki
shin gano
rwa ho
▁ba renga
ban o
yobo ye
hunga ban
▁c i
mu ka
▁in zego
in g
si tiri
shi jwe
jya mbere
▁cya ri
▁uku boza
▁kan yanga
yongera ho
▁a kenshi
▁ahan ini
shanya razi
ri ya
ka za
vu zi
▁buru ndu
m pan
sha kanye
fun gwa
bi zi
▁al bum
▁u da
▁ku gu
▁du fite
▁mpuzabi tsina
▁a gera
win shi
t ter
▁rw’ aba
te ganya
▁k ana
zi hi
▁icyo rezo
m yi
▁kwin jira
p ho
▁u rwego
fi tiye
▁u n
▁cyo rezo
▁u ko
gu kanye
shi man
ko sa
ma gana
▁aha garagara
u ka
▁ya shyize
yan ya
▁k enshi
▁ib in
▁mu hanzi
so bwa
shin wa
▁nshin gwa
▁ I
ka ra
▁umu vugizi
yuba ko
bone tse
an e
▁ san
▁ibi ciro
▁gu ku
hita mo
▁nko ranya
▁bw’ in
▁fili me
▁amavu bi
▁ama gambo
g wi
▁ en
▁nyan za
p h
ne s
rangi je
gaban ya
▁mu twe
hu ti
▁ibi ro
▁batu ye
mbasa de
ngi rije
t n
▁ku ta
▁ y
▁ru swa
▁ic yemezo
▁muda sobwa
c yi
du ye
▁mu gi
▁ku ra
▁w’ama guru
▁ubu shakashatsi
▁by’ umu
▁ba tandukanye
▁ru tonde
▁ya vu
▁umu twe
▁ma ke
to zo
▁bw’ ama
▁a jya
▁ku genda
▁m bi
▁ru shanwa
▁aba fana
▁w’i ki
▁ya ri
c ent
▁u gere
tu mi
hindu ka
he ruka
rere za
▁zi mwe
▁y’i mari
tu rutse
▁d re
▁ku gura
tu ruka
tanga zwa
bya ra
▁eri c
▁ba kinnyi
▁b bc
▁u zwi
▁di a
▁m pera
▁bite gan
ga ciro
▁muzi ka
ga re
bo ko
▁ni bura
▁p i
▁a yi
▁a m
▁nkoranya mbaga
l li
▁komi siyo
▁impan o
kan gurira
▁i shobora
▁um wi
ll y
▁umu renge
▁ki buga
▁nya ga
▁ur wo
bi bu
▁ku ya
▁ru ri
kin i
▁tu ba
hin da
sha ke
▁l u
sha tse
banu ka
i l
re we
to r
gomba ga
▁wan jye
tegu we
▁n zira
▁z’ aba
▁baha we
▁kurusha ho
z in
▁mutara ma
▁bwi za
▁ubu sa
▁bw’ aba
▁bu ta
▁ib yi
soho ka
▁gu hi
re ye
▁a mbasade
▁gu se
kun zwe
ko ro
▁ba gi
▁umu ziki
rengera zuba
shinja cyaha
▁bata tu
▁so siyete
fa shije
g ra
▁ba hanzi
▁aba fite
ji jwe
▁ gen
▁ku rya
▁in zira
▁kwa kira
▁bu da
te li
vi er
▁nshingwa bikorwa
▁ba geze
l d
▁ba gira
▁um wan
s ter
▁ari bo
▁a t
▁ba ku
▁mu sore
shyi zwe
▁bura yi
ji za
▁kwita bira
▁umu shinga
▁wa ba
la ri
▁si da
son ga
▁mu ra
▁umu co
▁im vura
▁muha burarw
▁mu genzi
▁yo u
▁biga tuma
▁in go
tangi za
▁umu kinnyi
▁i sa
▁ka re
▁ku garagara
▁a hi
▁u kaba
▁ki ra
ya mba
mu ga
▁m pan
▁cyi ciro
▁yaha we
▁ A
▁gu tsinda
▁dre am
ge r
bo o
▁gi shinzwe
▁itanga zo
shi ma
▁e a
j ana
zu ngu
ci ka
▁m wu
yeme za
▁ari yo
▁si poro
▁umu kunzi
▁in shingano
d ri
h n
▁bi mu
▁aba kiri
no ta
▁bw’ umu
▁gu korana
▁ingu zanyo
▁a re
te gere
▁s in
▁ban yarwanda
▁ba sa
▁uku ri
▁b intu
▁ha si
▁ru buga
▁b indi
da y
▁ama shuri
sha tu
ri mbo
roko tse
▁b’ in
▁ka gari
▁ko ko
▁z an
▁igi ce
u p
▁ya ho
▁ibi menyetso
▁p la
▁bata ri
▁a saba
▁ahan di
▁telef oni
p in
gu kana
vu ko
▁imi shinga
tsin zwe
▁cla u
▁gi komeye
garaga ro
lu b
▁a de
mu n
tun ganya
m y
▁bin yuze
wo se
▁ubu sanzwe
kore she
s si
▁u maze
▁u kwezi
▁u bi
▁r ye
▁ma so
▁ba kunda
gen ze
c co
▁icya ha
▁ M
▁kana ma
j wa
▁ya giranye
▁bo mbi
▁gu sha
▁jo hn
mini sitiri
▁a ho
▁m we
▁bi ru
▁ki re
▁ubu kungu
haga ze
bi je
▁byo mbi
▁wa yo
▁bitegan yijwe
mu tse
▁ru fite
▁y’i burasirazuba
▁n’ubu yobozi
▁na ba
vu za
▁uru ganda
▁i shami
▁b wongereza
ru ndi
▁u zi
▁im bu
u m
▁igi tego
▁ma shuri
van di
▁ma kuru
▁mu ke
▁c yiza
here ye
▁i hu
mi je
▁ru mwe
herere ye
▁n zego
▁ba gore
in ota
▁ra dio
▁wu ngirije
genzu ra
▁a bona
▁a hita
▁c lub
d wi
gi ri
▁in gendo
re ro
▁in tego
▁n’u bwi
fungu ra
na l
▁na bwo
vandi mwe
r ne
▁bu ba
▁ba yo
▁ka ri
▁gi sirikare
▁na ri
fe ri
▁mu garagaro
▁nze ri
on s
▁n ke
▁bi ce
▁n tu
pe rereza
ri mu
zon gera
▁a ku
▁mu ganga
▁afri ca
gan e
▁i tanu
▁aba genzi
▁a b
▁ba sanzwe
▁w’i gihugu
han di
▁ba zaba
za ra
▁gu korwa
▁ubu curuzi
▁ama zu
▁gi ce
▁ibi tekerezo
se ngi
▁umu kozi
▁bu fatanye
t hi
▁aba ba
▁kon go
▁gu cu
menye kana
▁de moka
▁ba r
hi ra
▁i joro
▁a mezi
yu ka
▁igi taramo
▁n’aba turage
▁z’ama do
▁i torero
rwa mo
su ye
▁nyaga tare
▁k ’
shyigi kira
▁ngo ma
▁gusa ba
▁v o
r g
ge ga
kore we
▁guha bwa
▁imi bonano
boo k
ti ro
▁gi tondo
▁mu gore
▁ha ra
gera ho
▁bi rori
▁kuba ho
shimi shije
▁gu twara
▁ry’ ubu
▁b wana
▁l t
▁demoka rasi
ko ndo
shin jwa
▁umun yamakuru
▁b yan
me zo
shu mba
jyana ma
▁mu hango
rusha ho
▁gu tangira
gera geza
▁y’ubu zima
▁iha ranira
yin a
▁umu jyi
yamama re
gi ro
tu tsi
gen a
han i
ci ye
▁n’umu yobozi
ta bera
▁ho tel
▁ja mes
▁aban yeshuri
du ko
yama hanga
▁kin ini
mo nd
ce book
tandu kana
kwi riye
▁y’i mi
▁umu tima
▁bi zaba
mo ko
▁z in
▁t oni
▁mu to
c hi
▁ya tsinze
t re
▁k ’i
▁ingu fu
te d
hunga bana
▁ama zina
▁ni geria
senge ro
hi ro
▁ni sin
▁inga bire
▁gi se
▁ga sa
tabiri we
▁ch ris
wandi tsi
▁ she
▁bo ys
d dy
▁yi ta
biri ye
gen go
▁umun ani
▁ngo ro
ke t
▁nisin gizwe
ki kije
▁kubu ryo
▁n’a bo
kan e
▁n’i byo
menye kanye
▁uga sanga
ki ro
▁y’aba turage
▁ru hango
me we
▁yeme za
t te
t he
▁bi vugwa
▁mu nota
▁n’a ho
▁n’ubu ryo
▁ya cu
▁m buga
ro n
m s
▁ba komeje
▁gu ca
gen za
▁umu sore
▁a i
▁y’ama vuko
▁kwi ba
▁by’ aba
▁igi ye
wu ba
g we
▁in tera
ku ye
su n
▁ko perative
zan ye
▁ha shize
zu ye
tegan yijwe
gi rira
▁ya we
▁imi bare
she ke
hu je
▁in twaro
▁abe nshi
ma il
▁ki ba
▁ri ri
▁ban di
ga rika
▁gute gura
▁umwu ga
ti mana
subi zo
rin dwi
shi mwe
sho feri
ra so
▁bi ro
▁in a
▁i tegeko
ta ro
▁twa ri
▁n yina
▁c hi
si ganwa
▁ikin yamakuru
▁y’ama jyepfo
▁ni byo
tsi ko
▁sa cco
ho mbo
tan ira
yango mbwa
▁bita biriye
▁z’ in
n zi
gu e
▁c y
ban gami
▁imi ti
▁imba bazi
▁ubwo ba
▁ku bura
▁ba kobwa
▁ku da
de r
tsin dwa
▁ban e
▁yu mva
▁m wana
bu za
▁none ho
ki riye
ti we
▁u gomba
▁jose ph
▁ibihe mbo
ra mo
shi mye
ca l
▁se r
▁ya tanze
hungaban ya
l r
s ana
ma r
▁ba bonye
▁c le
▁cy’ aba
▁pa riki
▁pa tri
shimi yimana
▁w’umu renge
▁ba kwiye
je mo
ri mba
▁n’ama tegeko
ju ra
▁ba koresha
▁ya du
▁im bo
zamu ka
▁yonge yeho
be shya
▁c e
▁ama shusho
▁by’ a
aban ya
▁dia mond
sha hara
▁ba p
▁ma hugurwa
▁poli tiki
se se
▁w’a bibu
ga rutse
▁mu bi
▁nya ru
▁uku vuga
▁ku garagaza
▁ma da
▁z’u bu
kene we
▁ferwa fa
▁f d
▁to ur
gi we
▁r wan
du kikije
▁w’in tebe
gu zi
d ini
▁i perereza
▁iwa bo
ke ye
man i
yumvi re
c yu
▁mu sa
▁ tsinda
▁a le
▁umu tungo
▁ya garagaje
▁ba kiri
▁ba kunze
▁clau de
▁yu ba
▁rd b
▁ugere ranyije
▁m fite
si mbu
▁w’abibu mbye
▁nu mva
pin duka
▁ki ta
v ana
▁bu rya
▁rwa magana
yandi ko
▁ K
▁ba yobozi
▁umu pira
▁baka za
▁telef one
m insi
▁b on
▁umu byeyi
▁umu bano
▁ya ta
▁rw’ ubu
▁i san
sa su
▁ru na
▁o li
hi riza
▁uru go
guru ra
ki za
▁umun yarwanda
gani riye
▁inzo ga
gra m
n yine
▁n’u mwe
▁yi sumbuye
mu re
▁aba citse
de pite
▁y’ama jyaruguru
▁tu ka
indi rimbo
▁ne w
▁ya sobanuye
kwira kwi
a r
re ma
▁mu gabane
▁gu hu
▁gi ti
▁ki kaba
▁umwan zuro
▁in tege
▁bu shakashatsi
▁ubu kwe
hi go
▁u bona
ti ste
▁bu biligi
▁ubu menyi
na mo
▁co m
▁b yu
tu ye
▁ari we
tege ka
▁baha bwa
▁kin g
▁fo r
n genge
mu ri
ban yi
▁ama saha
▁ba tara
n y
▁mi bi
mp inga
dan ga
rwa ga
▁ va
▁bi sanzwe
▁gu sura
fati we
▁umwa mi
ru ra
fu ngo
pi mo
▁n’i cyo
▁to m
▁mba bazi
ko n
▁fd lr
▁bu n
▁ubu taka
▁gu tuma
▁r wose
▁aba sirikare
▁m tn
mi jwe
c y
▁ gereza
ri jwe
▁ba tanga
▁ya yi
▁kubu nga
▁a bu
ki we
▁aba curuzi
▁pa pa
▁iti ke
▁re mera
▁ade pr
▁ba garagaza
▁umu ti
▁ama bwiriza
▁ni bo
▁ya bonye
▁ru ha
▁a mwe
▁y’i ki
er re
▁i gera
ne ri
▁ rika
▁ba hise
▁ya geze
kin nye
▁nya mpinga
ba ba
▁ibi curuzwa
yumba ti
▁ben e
▁inta mbwe
▁i tangazamakuru
▁n shimiyimana
me tero
mere we
▁ubu hamya
san gan
▁fa cebook
▁in e
sho p
▁gu hura
▁ha bya
▁an di
▁mo doka
▁k w’i
ga ti
▁mu ru
▁e u
twa rire
▁iki ganiro
▁nti ya
ngi re
▁i garagaza
▁bu sa
▁ka ra
▁zi ta
▁rw’ umu
tangi je
ana da
▁bu sanzwe
▁in tara
▁ R
▁gu hindura
fu nga
shi mo
▁ku ga
kin di
▁n sengi
▁ba gabo
▁n’u wa
mvi kana
shishika riza
▁a li
ci we
▁nk’i bi
▁n du
▁u wo
▁m ana
▁gicu mbi
▁igi hano
▁du kesha
riri mba
kun di
▁kubunga bunga
▁ko ro
▁m yi
de o
▁igihe mbo
shyu rwa
vu ka
▁ru ra
▁zi komeye
▁na ko
▁baza jya
▁wo we
▁a gu
shyira ho
si ze
▁ru ga
▁e shatu
ma s
▁mu shinga
▁n’umu gore
▁bita tu
▁i tandukanye
▁umu riro
▁aba hinzi
▁ku ha
ze za
▁ku mi
▁ic yumweru
▁imbu to
te re
cu ri
▁imi korere
▁s y
▁n’ama hanga
here zwa
▁isu ku
se ri
tin ze
▁ibi yobyabwenge
shimi sha
▁ya hi
▁im inota
jyan wa
▁komi te
ti ra
▁ale x
▁nya bi
▁ba re
me rera
▁ba korera
▁le a
▁bwo ko
▁mu ti
fashi sha
▁u yobora
▁ma rushanwa
shiman gira
▁aba zi
▁t ho
▁twi tter
o r
▁cya bo
kan gura
▁ri vuga
va mo
▁nk’ aba
▁bap tiste
▁i komeye
▁c anada
ha gari
▁n’aban yarwanda
▁g ra
▁cha r
▁n ga
▁ gera
▁a kiri
▁m yinshi
▁yi se
▁n’igi he
▁i jana
si teri
man yarwanda
zan ya
▁runa ka
▁i kora
▁u hagarariye
go ra
▁ha maze
▁mi ryango
▁bi fuza
c tion
gi he
▁ba kuru
▁ki gero
▁n’in zego
r wana
▁habya rimana
▁a kunda
▁gu kura
▁yi fuza
one ste
▁be meza
▁bwo se
▁a ir
so ra
vuga ga
▁the oneste
▁ru da
s sa
tsin di
se ke
▁umu hungu
▁mu shya
cu ku
bone ra
▁b wan
bu tumwa
▁ yongeraho
▁c lo
▁ru ganda
kore ye
▁ba ru
bi rwa
▁bu ka
▁ry’ ama
kubi ta
▁a sanzwe
▁gu curuza
b le
▁b ri
▁i mari
▁gi sa
▁guku mira
▁im yenda
▁nk’u bu
n t
▁k intu
▁n ki
▁ba kana
bi korera
▁yi ga
ji ye
kwa ho
hu riye
▁bu shinwa
fu ra
▁bw’i gihugu
▁u shaka
▁ba du
▁ba hi
▁uru tonde
▁vi rusi
n gira
aban di
m paka
▁a tanga
▁kwi vuza
▁sa fa
fashi shwa
▁ke ra
▁ahi twa
ba ra
▁ku yobora
▁gi fite
▁bya baye
tsin zi
e u
gi rana
▁ba bu
▁igi ciro
▁imyi tozo
n giye
▁ba s
▁bi hingwa
▁umu turage
tan yi
shi ra
re kanye
ken ke
▁i gira
▁ha kiri
▁zi fite
u ra
▁umu kuru
yobo ke
▁cy’ a
▁cy’i myaka
▁n’a handi
▁y’a ho
rasi ra
m wana
ga be
▁n’umu n
▁m eza
gan jemo
s co
▁a garagaza
▁in yama
▁ki li
▁bwa ri
▁mu kan
▁im pa
▁wa ra
▁tu bi
▁za yo
▁n’iki go
▁a tandukanye
▁yonge ye
ro ndo
▁wa baye
▁we nyine
▁bwi te
▁n’igi ce
ga mo
▁nk’ in
▁mar tin
▁bu taka
li sa
▁zi ra
▁ni yi
▁d an
ru gero
▁zi ka
reke zo
ho za
▁n’i bya
▁yandi tse
▁bu tare
▁in sta
▁ubu hinzi
▁uru gendo
▁u bwe
▁u komeye
▁gu hanga
li ki
mu na
vu tse
▁ru byiruko
po ir
▁k w’
▁bu mva
shyi zweho
▁bi ganiro
▁wa cu
▁gasa bo
▁gu kunda
▁mi ke
▁guha garika
▁nyama sheke
▁na twe
▁sita de
ven i
▁kili ziya
▁aba kunzi
yobo we
▁bu za
▁ibi ce
geze ho
▁uta ha
▁aba yi
▁icu mi
▁u si
▁ka yon
cu kiro
▁no r
i ro
▁i korera
▁ki vu
pe r
menye sha
▁pi erre
n ziza
▁n’u wo
▁y’ama faranga
n ganira
▁i shinga
re go
▁umwu ka
▁gu tangiza
▁u kwi
ma gara
▁m bona
▁es poir
▁ubu ra
tion al
▁insta gram
▁mo to
▁ukun tu
tan i
mba za
▁e se
▁vi si
▁muse veni
▁in no
li ya
▁n’i yo
o l
t ro
▁gu kemura
cu mbi
▁bya mu
▁me zi
kani sha
yo vu
▁ku gabanya
▁mu yobozi
▁ma zu
▁mun ini
ta ho
▁iki ba
▁u sanzwe
ki mbi
sun gane
▁bas ket
ru hu
▁the o
▁v s
▁utu ye
ta li
▁m pa
▁ga kenke
yu jije
▁ki cukiro
▁aban yamakuru
▁kan ya
bwa ho
▁baka jya
▁w’in gabo
mi kino
▁gise nyi
s se
▁c yu
▁c han
▁bw’ akarere
mvu ra
▁ba komeye
shyi kiri
▁ku bana
▁ama rushanwa
gi riye
rali rwa
▁b ralirwa
▁k wandi
▁u kora
▁ma zi
▁ma la
▁gera rd
yon gere
▁d j
▁yan jye
gene ra
▁ambasade ri
kimbi rane
▁rw’ a
hora ho
kangura mbaga
▁bu tandukanye
▁kuri nda
▁ma saha
shan u
kora ga
▁n’umu ryango
▁n yu
ge ri
▁ha ki
▁imi soro
▁ki yovu
r k
ze ro
ku rwa
▁p s
▁y’a merika
▁bi vuze
▁ubu tegetsi
kome ze
▁abakiri ya
▁i tu
ge ye
mi deli
▁g ro
▁i he
▁bi zimana
▁na ra
▁bu hinzi
hin ze
▁batu rutse
▁b n
zamu tse
here ro
▁zo mbi
thi o
▁ubu rwayi
▁bya tangajwe
▁ita ri
si mbura
yon gereye
sobanu ro
e f
▁c yemezo
▁a tandatu
so za
mo gi
ba ga
▁mu kura
fashi shije
an di
gu rwa
ro he
hi re
▁ry’ in
▁twe se
thio pi
▁nde ra
shyi mbo
▁n’ama faranga
▁ B
si tu
▁bu vuga
ci riri
▁nda yi
▁haza za
▁mu tima
▁c u
▁ubu fatanye
▁mi ri
▁i saha
▁ama hugurwa
▁aga ce
▁mu ba
▁gu kurikirana
no w
▁nya bu
ju je
▁inno cent
ciriri tse
▁ba vuye
▁baka bi
▁a va
in t
▁m be
▁in dege
▁ama soko
▁i re
▁ku ganira
go ye
▁ha bi
▁du ce
pho ne
c en
▁i te
▁i geze
▁gu tu
▁guveri neri
▁ win
▁n zi
▁be r
▁sa m
▁uku riye
▁e thiopi
▁a sanga
▁ya ku
▁mun yan
▁y’aba minisitiri
▁vi deo
▁i tera
▁ba vuze
ru kundo
▁bn r
▁bi shop
▁bu rera
▁ma sezerano
taba zi
n ini
▁aba gize
▁aka za
▁aha ri
ze ngu
to p
ko l
▁ry’i bi
▁ya bereye
▁umu biri
▁mun yarwanda
▁ja y
▁abanya muryango
▁a geze
▁ba kina
▁ki zi
she ho
▁ha ta
▁rw’ u
▁basket ball
c yumweru
▁nti bya
gami zi
mu ntu
gu fi
tegan yo
▁oli vier
▁ba genda
▁ga kondo
▁bya ha
▁nan jye
▁i gamije
▁bu shya
▁li tiro
▁nshin gano
▁u ti
▁ha baye
▁zi shobora
▁e bo
yuba ka
▁nyama ta
▁nkuru nziza
fatanya bikorwa
ka tiwe
▁ri b
lle y
▁ar se
▁i shyirahamwe
▁bi geze
she ma
▁cle men
tu ranyi
▁bi ca
▁ye gukanye
▁uni ted
▁ba tanu
ho ho
▁zi da
here ke
▁kire kire
▁mu ta
▁tu yi
▁u zaba
ye zu
▁gu su
ran ire
▁e shanu
▁nya mira
▁u komoka
▁bita ri
▁ebo la
▁gu pfa
▁aba shoramari
▁ru kiko
▁ni ko
tin ya
mpa ye
▁bi gize
▁e mail
fashi shijwe
ro ngi
ho lan
▁gi shize
▁gi kombe
▁a komeye
▁n to
nye ri
▁ja c
c on
▁a tara
▁ba ya
▁hi timana
▁z’ama faranga
▁usi bye
g h
je je
▁ri za
que s
koreshe jwe
▁ibi rori
▁n gingo
▁ba gu
▁ama kosa
▁wa hoze
▁y’u yu
bona ga
▁byi ciro
▁lea gue
▁aba bi
mi rimo
▁aha bwa
▁rya ri
▁kwa mbara
▁ru banza
▁kun ywa
▁kayi ranga
▁n jyana
fa shwa
▁ki zaba
▁ibi taramo
ke ka
▁mi lli
▁an ge
▁u ha
▁gu tandukana
▁in yubako
▁ibi ti
▁ubwi canyi
a te
s ti
▁bi saba
ban ye
▁n’i kin
▁igi tekerezo
pu ro
▁ya fashe
kan wa
kan di
▁ib yangombwa
▁cye nda
yuba hiro
▁y’ibi hugu
jya ga
▁rw’i gihugu
▁gu he
▁ama tora
▁zi kaba
▁ari ho
▁f re
▁afri can
gen i
▁rwi butso
▁i songa
▁aba sore
▁pa s
rasira zuba
a s
▁ x
ri ce
▁mu goroba
▁ru lin
▁ib yiza
▁uwa ri
senge sho
ta l
go nda
se nga
▁n’a ka
▁s te
▁pa diri
▁kigali to
re mye
geje je
▁vo lley
ge zwa
▁n’i kipe
yan i
▁n’a bana
▁re ba
▁ya shimiye
▁mi rimo
h wa
ran ze
han ganye
▁tu gomba
shyirwa ho
▁ya gu
▁bu curuzi
▁nya mu
gani re
mpan yi
holan di
▁u giye
mu co
re za
▁n’u ndi
san si
zamu ra
▁n’ibi korwa
▁kayon za
▁rulin do
ta ha
▁clemen ce
▁i ru
▁gu seze
▁ari bwo
▁kuba kwa
▁rw’ ama
kuriki je
bi tekerezo
▁umu hango
p g
▁n gabo
▁bi bi
▁c he
ti shoboye
▁ru gendo
▁y’u mwaka
shin ze
▁nyamira mbo
▁tu zi
▁uru banza
mari ya
▁ngu fu
▁ci ty
▁a genda
▁ba curuzi
te rere
▁bi to
▁n’ indi
▁li sansi
▁amaso mo
cha rd
tegere je
▁i so
▁ibi dukikije
ne zero
▁a ca
▁impu ngenge
▁ ge
mu ngu
yo bwa
▁ya vuye
▁gushyira ho
kurikiran wa
▁safa ri
▁n garuka
▁ku wu
▁gu fatanya
▁yeme je
▁ku zana
be r
▁ka mi
▁b winshi
ga ga
▁an e
sobanu kirwa
cya ri
▁m yanya
se gonda
▁ri ra
▁chi ef
d on
▁ on
ga teganyo
di yo
mi gambi
▁n’i yi
▁tu ga
banu tse
mama za
▁kigalito day
▁n’aban yamakuru
rwa ra
▁y’ubu curuzi
che ster
▁b yeme
▁ya tangarije
ti ke
sa bi
▁ma tegeko
▁tele vi
▁z’umu tekano
▁clo se
▁i shyaka
▁ba keneye
▁ubu muga
u s
▁ba go
▁bu mwe
shin gizi
shu li
▁ ve
▁a yo
▁u ki
tu re
▁gu ma
▁ngoro rero
▁patri ck
yi si
▁gu hinga
▁kwi twara
u se
▁ubu fasha
zo ga
▁ri chard
▁n’ubu ndi
taba ra
▁da r
▁a renga
▁mu paka
▁aza jya
tangi riro
giri zo
ko ranye
zi yo
▁in zi
▁na zo
▁yi geze
▁nyabi hu
▁ba tangira
▁ha to
▁mi renge
▁ho teli
▁n shuti
▁bi garagaza
do lari
▁n’in shuti
▁di eu
garu rira
▁ndera buzima
g ne
ba shije
▁ku ki
▁n’a manota
ri mi
▁u yi
▁im pinduka
▁wa bi
▁se bu
▁ika za
▁ku no
▁ki da
▁e x
▁pa ruwa
hu rira
be ho
kin girizo
▁a c
▁ba saga
▁re mezo
▁ku menye
▁bu rasirazuba
▁uru buga
▁b’i bihugu
▁gusha kisha
▁aban za
▁n’aba gore
shaka ga
▁ko mini
▁bi maze
▁aba za
▁aka ya
▁rwa ri
▁arse nal
▁ha zaba
▁igi zwe
ywe ho
ru kira
i lle
▁ubu shinjacyaha
g n
▁ba sabwa
si mbi
mo n
kin go
▁o ms
▁nk’i ki
▁inter na
▁lt d
▁u bwenge
▁aba gera
▁aba rwayi
▁ka rongi
kwi gendera
riwe ho
▁a tangira
▁rd c
we ho
▁ya soho
▁aba rokotse
▁wa mu
▁a te
▁d ’
▁n teko
▁ku zu
▁aba ganga
▁y’ abantu
yobo rere
hanga yi
▁n’umu gabo
▁man chester
▁ qu
▁a sa
▁bi tangazwa
▁mu rongo
▁umu sanzu
▁ma ma
▁twa bi
▁i buka
▁in ganda
▁kuba fasha
▁hi fashishijwe
▁yabi tangaje
▁ku garuka
▁yi bu
ko ko
▁ya gombaga
ti en
ran ywa
renge je
ra tion
▁a zwi
▁u ndi
re fe
rengan e
▁paruwa si
▁ba sanga
▁ama raso
▁im yumvire
▁n’aba yobozi
tangi jwe
▁mu biri
▁ba fata
ho teli
▁gi tabo
kene ra
e s
vu go
gwa ga
▁kwe rekana
fun zwe
zihi za
gara riye
▁ni ho
▁w’i kipe
▁nya kwigendera
bya ye
▁we nda
▁iza jya
a son
▁bi meze
▁gu fungwa
▁ic yu
▁nyi ri
▁iby’ i
▁ki mi
gera geje
g g
wa rd
▁kwi gisha
▁a gi
▁n yine
ni s
ran wa
▁yu ko
▁ ani
ga ze
▁umu rimo
▁e di
tsi bo
tiri we
▁nan one
gena migambi
da ga
▁ari byo
▁tu giye
▁yi tabiriye
gene rwa
me ye
▁umu ririmbyi
▁w’i bi
kuriki za
▁ca f
▁wu mva
▁uwi twa
garaga zwa
▁haba ru
won ko
▁wo se
▁y ve
▁volley ball
▁u kunda
▁we e
kura mo
▁ika mba
▁z’a merika
▁ba koresheje
gen dan
▁i sanzwe
we mo
ta riki
shyi ki
▁t ru
▁rwa bo
▁nyaru genge
y’ i
▁ama shanyarazi
▁ga tsibo
▁pro mo
c to
da te
▁gu huza
▁imi deli
▁l oni
in ya
▁bi shwe
hu mu
▁yi ca
▁guha gara
▁i komeje
▁aka mu
▁by’i bi
▁umura mbo
▁interna tional
▁ q
▁nta ho
▁pa ri
▁ba korana
kwira kwira
ko perative
▁p re
ci bwa
▁s ina
▁impan uka
sen gera
b s
▁a vuye
▁bi sa
▁bya kozwe
▁nde ge
n c
tin da
rari bonye
▁a man
ha m
vu zwe
▁bu ga
▁aba kora
han gano
▁s tu
▁kumu rika
▁a pp
ha za
▁mu kerarugendo
kore zi
mwa mi
ban ki
hu ta
▁tu rimo
tin e
cyu namo
▁isan o
suzu ma
▁rika ba
▁k now
▁ba shya
gani jwe
▁is pg
▁gu sin
▁ubu hanga
ne y
▁ta liki
▁baba ga
▁i van
▁ba hita
▁y’i si
▁n’ama teka
▁he gi
hindu tse
▁n’u yu
fu mbi
▁bw’ a
▁haga mijwe
▁i vu
▁u re
▁n’aban ya
▁bo y
▁abi vuga
▁kuri rimba
▁m in
wi butso
▁ubu kerarugendo
▁na cyo
mana ho
▁a sobanura
▁ya pfuye
▁in gingo
ran yo
su mba
▁gu kangurira
▁baba she
gende ye
te te
▁ya te
vuga butumwa
na li
▁bite rwa
mvi se
ate ur
▁i shyamba
▁a ganira
ga ba
ba jije
▁ku gurisha
▁bu bi
yemeza mirimo
▁char les
▁m bu
▁bu holandi
▁ubu shake
cu ngire
▁mun ani
▁mada mu
mu tima
▁gu tyo
he sha
▁ki ciro
▁ru gamba
▁ku b
▁gu fungura
▁ban ya
mbu ka
▁yaba ga
guri rwa
i d
l ine
▁imi biri
lle s
i se
▁c ent
go go
▁umu rwayi
▁n’ama kipe
▁w’iki go
▁kuno za
pi ma
ko no
▁wa je
▁be rekeza
▁ca p
▁b yana
▁ha re
▁ma ri
▁kwe gukana
▁no el
pite ni
▁gito li
▁televi ziyo
ye shyamba
mo nyi
▁n’i mwe
▁ba kundana
▁ya kozwe
ki liya
▁imu rika
▁nsengi yumva
▁n yungu
▁mu co
▁gu tangaza
▁kwi yongera
kun dwa
▁bya genze
sese ngu
▁in genzi
▁ru banda
▁ye su
▁ wana
▁n ini
▁bi koresho
shan ga
t ta
▁b ina
▁ku boneka
▁gu shyigikira
sha kira
fu nze
mbi tse
▁by’i mi
bu rengerazuba
▁bya garagaye
kere za
▁ibyi shimo
yamba ro
▁u ri
te si
go bo
▁zi ga
▁imi handa
rin de
tun gan
▁n san
▁bi gamije
▁zi saga
▁b’ abanyarwanda
hagara ra
▁gu to
si ri
▁aba tishoboye
yon gereza
▁co rne
▁kwa gura
▁w’u ru
tegu ro
▁umu handa
le ss
▁niyon zima
cuku zi
▁a ward
▁bi gera
▁ye rekana
▁he za
▁u banza
ta bire
yan ge
kuriki ye
mwi za
so ma
▁rwanda ir
guru rwa
▁vi ateur
▁w’umu n
ko ranire
▁bu kaba
▁nta we
gere ra
bangami ra
▁kami chi
ga l
▁yan yu
a ri
▁i i
▁ba vu
ta ye
▁ya seze
▁c hu
▁in zara
shin i
▁y’i minsi
▁abatu ye
▁bwi canyi
▁w’ubu zima
garu ra
▁ub wanditsi
▁i teka
▁bi bili
▁ka piteni
▁ma soko
twa za
do rali
ren za
▁uru pfu
ci a
▁ic yenda
▁n’aba hanzi
▁gra ce
r c
▁ba garagaje
bu kuru
▁po lly
▁uta ri
▁cha mpi
▁a he
▁n yubako
▁ba byi
▁j an
▁pa ris
▁haba ho
▁edi tor
▁i koreshwa
▁ki rere
gira ho
ne za
ji ma
▁nor bert
x i
▁pa siteri
twi te
e b
▁a fata
tu nga
▁ya kwi
▁ya guye
▁in tsinzi
▁ibi za
▁nya furika
▁kuzamu ka
▁mbe se
c t
▁ku byi
te ke
di a
▁ka bo
▁e gi
▁ber na
mu gabo
▁ba sanze
za mbi
▁ya tumye
hu se
▁aba polisi
de n
ran yijwe
▁cya cu
fati ka
▁nk’a ho
▁gu subiza
gan za
▁im yan
▁inta mbara
t ya
▁ fun
▁a d
▁zi gera
▁se na
▁aga mije
▁bin yuranye
▁uwi mana
ba siye
▁igi tero
’’ ’
▁ry’umu pira
▁ama jwi
▁zi renga
▁lo u
▁ethiopi a
o d
ha me
▁p u
bwi re
genza cyaha
▁ya bu
▁mu kinnyi
▁s c
▁v in
▁icyi ciro
▁kwandi ka
▁ba fashe
▁bi taramo
han u
▁ubu tabera
man za
▁vi cto
▁kin yarwanda
shyigi kiye
▁a kwiye
ri kana
ga ho
▁y’ aka
▁ma tora
▁intera hamwe
▁m en
▁w’i gi
▁co l
genzu zi
ki ze
vu duko
▁twa ra
▁ra diyo
pfu ka
▁biza tuma
▁tanzani ya
▁egi de
▁i shinzwe
▁a tangaza
ge rwaho
▁ri der
▁fa rg
▁ibya go
▁n’ubwo rozi
genga bitekerezo
▁tu ta
▁bo sco
▁kin yamakuru
▁i foto
▁a g
▁a la
re rwa
hi rwa
▁z indi
▁ko hereza
▁kon ti
▁atu ye
gati fu
▁u na
te le
▁ya tu
▁ru maze
zu rugero
▁ko se
▁niyi zurugero
▁aba ha
▁sa int
▁n’ibi go
▁rwi yemezamirimo
▁gro up
u n
▁ku mwi
▁ya twaye
▁ru ku
▁bya giye
yama tsiko
▁ic ye
▁a vu
yi riza
kurikiran yweho
▁mwu ga
hu tu
geza ho
▁cy’i gi
▁yin di
▁imbo gamizi
▁ba sore
ban di
hi zamu
▁aka jya
▁n’ibi bazo
▁mo zambi
kwirakwi za
▁i tara
▁i shyirwa
▁i shoramari
▁u sa
▁ba sabye
▁ku bya
zi ba
▁ki jyambere
▁ibi ra
ng we
mama ye
▁umwi hariko
▁n tangiriro
▁ya za
▁ya mbaye
▁yadu tangarije
▁aca de
▁bi re
▁bi kwiye
▁mu turage
▁gu hungabanya
shin giro
▁ri shinzwe
cya yi
bizi ga
▁ba komeza
▁bi gira
▁ka yumba
▁f pr
▁w’umu kobwa
▁nyama gabe
▁ni mu
▁tele phone
▁uwi mani
sangan yamatsiko
▁cu mi
▁i sura
▁bi hagije
fungu ye
tungu ye
▁ba saba
mi a
▁kan seri
▁igi hombo
▁en ye
▁ikiba sumba
▁a koresheje
▁ku genzura
▁m bo
kan gu
▁bwa kozwe
▁iwa cu
▁n’im yi
▁pari ke
▁ubwanditsi muhaburarw
▁gu sanga
▁gu subira
▁mi rongo
▁bo ko
▁kubi kora
riri mbye
▁ya vugaga
▁gu koreshwa
han ganira
du fasha
▁f an
menye rewe
▁mozambi que
▁i zo
▁ku zaba
▁ku byara
▁ya fashwe
▁c g
▁e l
▁za ra
tun zi
▁corne ille
▁uwimani mpaye
▁aba hanga
▁aka vuga
hari we
▁y’a gaciro
hise mo
mere ye
rani je
s to
▁i jwi
▁u tara
▁ba kozi
▁ruta hizamu
▁ fu
▁i gomba
go mbye
le n
reke je
▁wu ndi
h we
▁ya subi
▁fran co
▁kwan dura
rukira muco
ya biziga
▁bi humbi
▁p hi
gira ga
▁kwi zera
▁fa shi
s san
▁i shema
▁kwi tegura
hin de
▁i zuba
▁bi ke
▁aka gari
tangi re
m yu
▁ba huye
ru nga
fu ngi
la mu
fun giye
▁bahu riye
f f
▁cya bereye
gani sha
▁ye rekeza
▁ryi ta
▁know less
▁bibili ya
▁bi menyetso
hi she
kuru ra
▁an gana
▁uwa mariya
▁ca r
▁bw’i bi
▁niyon shuti
a u
m pu
▁ku rangiza
▁r waka
▁ga tu
▁iza bera
▁gute kereza
▁fashi on
bu tsa
▁wa bereye
▁n’aba kinnyi
▁guso za
m ve
▁a herutse
ko de
▁ba banje
kin wa
lo metero
▁iba ruwa
t wo
▁a korera
ge zi
▁ama buye
fu zo
gere je
reke zi
▁me tero
t t
u yu
▁ka monyi
▁jac ques
▁vin cent
▁ba va
▁ba bana
ha hi
gan ge
▁ma gana
su ku
ine ma
▁al bert
▁u jya
▁ba mwi
ha maga
▁ni cyo
vi ramo
ce l
▁bika za
▁i ma
▁mu ziki
▁gi te
▁ma ca
▁nta go
bi bi
ha kana
▁ki to
▁ka ru
▁ry’umu ryango
bin yujije
m yo
bi kora
▁ya katiwe
▁nta ki
▁z’amado lari
an d
▁a saga
▁bi baye
hi zi
▁so u
▁n do
▁in teko
so je
▁mi shinga
▁tu kaba
▁ib yemezo
▁k’u mu
▁a si
▁ya fatiwe
▁m p
▁n’ e
zo bere
▁n’a ga
▁z’i banze
▁g lo
▁habaru rema
▁k indi
▁bu komeye
▁y’igi he
▁b ru
hu ka
▁yaha ye
▁buda ge
▁boko ta
p ri
▁n ge
▁n tego
▁bi shoboka
me je
▁ama kimbirane
▁pe refe
▁baka mu
▁ibiri bwa
▁ rona
▁n yaka
▁n danga
▁bi bu
sa za
▁ubwi za
▁bya je
▁f la
tungu ranye
▁ba wu
▁bi zi
▁mi che
ca ro
▁kwe mera
▁ingo ma
t han
ku biri
▁f lo
▁ban jye
tangi riye
com yiza
▁air tel
▁boy z
j on
▁ba menye
▁ya re
ran eza
▁mi comyiza
▁na eb
pe ri
yaka zi
▁re ka
▁yeme ra
▁ur wibutso
▁zi maze
▁ban ga
fungu ro
lan d
▁berna rd
▁a mi
▁ya tewe
▁r nc
ku ze
tan ge
▁ki maze
▁af rika
rizwa mo
fumbi re
▁b eza
▁bya yo
▁guso hora
m ine
▁i kubi
▁gu toza
▁ibi tero
▁ben in
▁wee k
▁rider man
ga ye
ki shwa
▁ma jyaruguru
huti sha
▁i se
da mia
▁bi tanga
go la
here jwe
fati ra
▁fran ci
▁dan ny
▁maca damia
t ho
▁n gamba
▁ya teguwe
en ge
▁n’umu ntu
mye nda
▁njye we
▁ruga gi
▁bi vuga
▁gu tsindwa
▁n’in garuka
▁icya kora
▁isu kari
ka ga
▁ku bo
ci en
▁cya baye
kuriki rwa
▁ van
▁gu fatwa
▁kan o
▁mi bereho
▁na ho
▁nu mero
kon gera
▁yibu kije
▁ one
ba l
ta mbara
▁gu shora
▁e rne
kuriki yeho
reke ye
▁yin jiye
▁stu dio
m yumbati
▁b ro
▁n in
▁ibi taro
▁y’i yi
▁t w’
▁you ng
hahi rane
ka wa
▁ru kora
▁ma dri
▁ari cyo
▁bwa garagaje
▁han tu
▁guso ma
▁tru mp
▁a yobora
▁n gi
ku za
▁gi tsina
cu ment
▁ri komeye
bona mo
▁kuvu gurura
▁ukun di
▁acade my
’ s
▁u vuga
re na
▁bi gi
▁bi twa
▁ya tsinzwe
▁n’ibi hugu
ju mba
rani ye
▁ti go
▁z’umu goroba
▁ T
▁bi se
▁ha je
▁e co
▁nya ba
▁cy’i si
▁te am
▁ye zu
▁z’i joro
▁n gendo
gi sho
yi ta
▁bi yemeje
sa bwe
▁nta ba
▁bw’i ki
▁yabi vuze
d ani
▁n kunga
▁c yumba
▁kwi teza
▁kwa mamaza
▁ubwo ko
▁kugu ma
▁i fasha
vu nyi
▁ibi sabwa
▁ma tsinda
kan da
san gira
▁an to
zengu ruka
▁madri d
f t
▁umu ganda
wan du
▁ama ta
han gange
gwa bira
▁ib yumweru
curu riza
▁cy’i mi
▁kwin jiza
▁ S
▁n te
▁umu kono
▁mi siri
▁imi gabane
mbi ye
▁abatu ranyi
▁iz wi
▁fili mi
▁akana ma
▁ihu riro
▁a je
te ze
▁ki buye
▁ma boko
▁im buga
▁yi hariye
▁nta gwabira
tera hamwe
▁ko mpanyi
▁yaba shije
▁to mbo
daga du
m bera
gu we
▁ku rengera
me ri
hu ngiye
▁ka bu
▁wo r
tu be
▁zi vuga
▁wa sanga
▁n’umu co
▁n’ibi humbi
▁gute rwa
▁by’u kuri
▁a shinjwa
▁de s
▁kigalitoday com
▁ba he
di tse
bwo ba
▁to day
▁by’in gendo
▁bago sora
ko mo
tu rere
ku san
▁aba koze
li e
▁ru sengero
▁ka to
▁yi teguye
yandi tswe
mun si
▁i g
▁n’ andi
▁ban duye
▁d ro
▁an gola
▁nk’ ama
▁al geria
▁ja ck
▁yavu tse
ri ma
▁ya sin
▁n’i gihugu
▁n’a bi
▁tu bona
▁za ba
▁ba shakanye
▁ya garutse
▁mu si
▁gi shobora
fu ka
ca manza
▁an ne
▁ida sanzwe
▁ea c
▁pas cal
c le
▁u korera
▁ku ti
se a
▁in toki
▁ga sana
▁kuba hiriza
▁z’i gihugu
▁gisa gara
▁inyama swa
▁franco is
▁i genda
▁ya to
▁in yi
▁igi subizo
▁t w’i
▁bi genda
▁ma ro
fu r
mbi a
ca kubiri
▁n’ama segonda
▁fa u
pp y
▁ser vi
humu riza
▁c up
▁gu kinira
▁aba toza
▁y’ akarere
▁ki rimo
▁igi fungo
bura yi
▁d on
▁inga gi
▁me ssi
hinda gu
▁alex is
▁ soko
▁ zuba
ga yi
▁bu shobora
here je
ton i
haga rika
▁guta ha
▁anto ine
i mba
▁ibi shoboka
▁po ro
▁fo u
t r
▁ku r
▁c an
cu nga
▁bya ga
ju gu
min ota
▁bigo ye
▁i banga
▁u gira
wa bo
▁ya shyizwe
▁ru ka
▁iki zere
▁imi paka
▁n’in gabo
▁n’iki bazo
▁ H
▁b ra
▁a ke
▁a tanu
▁bi shimiye
▁ka gali
▁ubu jura
twa re
▁mun ye
ani we
▁mwa shakanye
hara ra
▁milli ons
▁n giye
▁mu cyo
▁gu hora
ce s
▁ry’i gihugu
l do
ban ire
▁ha bayeho
kwe to
▁bada fite
byin iro
▁nyabu gogo
▁fun d
yi re
▁ya banje
▁mu pira
▁ma u
fu byi
▁ni co
ci de
▁to rero
▁kari simbi
▁franci s
fashi jwe
soho tse
▁pro f
▁ryi twa
▁gucu nga
▁award s
hi mana
▁y’u bwi
▁nta mbara
tegere jwe
m ina
s ine
▁gu tunganya
▁im an
she jwe
top he
l m
▁a hora
▁bi fasha
▁bu ke
▁ki ge
su bu
mbi ka
▁n’aba kozi
kwa ya
▁nk’a manyarwanda
ra ra
ta birwa
▁zi zaba
▁z’i bi
▁imyi twarire
▁amavu ta
▁nyu ngwe
u a
▁ku m
▁m wan
▁kuba ha
vi c
▁ri rimo
garaga riza
▁vi rus
▁cy’u ko
▁mpan de
hangayi ki
w n
▁b la
▁n ubu
▁bi gomba
▁gu shishikariza
▁bu yobozi
▁in tumwa
ran kunga
▁n’aba kobwa
por t
shyize ho
▁sy li
▁glo bal
s oni
bu rira
▁bi zwi
▁bu vuzi
zwa ga
▁ry’umu kino
n an
▁n yandiko
▁ba m
▁ba ho
▁ba sigaye
▁mu sozi
▁ma shya
▁y’i tariki
▁ko rali
▁kwe rekeza
▁yabi sobanuye
▁kaba ya
▁rw’a bikorera
▁akaya bo
e t
▁n ganda
si fu
▁in gengo
▁y’ indirimbo
he nge
▁uru mogi
guri we
▁kizi to
s pe
▁ C
▁i terwa
ma li
▁ba bone
bo ra
▁mu tu
▁umu paka
▁im yambaro
kin gi
kome ra
▁yi zeye
nda tion
tandu kan
▁pa rt
ni mana
jo ra
▁musa za
gi rika
▁re al
▁h ’’’
▁ shyaka
▁u kwiye
re be
▁ku ku
▁gu hita
▁bu gufi
hi sha
▁zi bi
▁mini s
▁y’ubu rengerazuba
▁w’umu nya
gwi ro
▁ba fana
te gereza
si gara
▁ru kaba
▁t v
▁n’in ganda
gobo ka
▁fou ndation
▁ G
▁u riya
▁ku gwa
ha ranira
▁ama gare
▁iki ri
mbi ra
▁bara sabwa
▁i y’
▁bi shya
▁ka be
tanga zo
▁cya ha
▁n’umu kobwa
▁nyi r
tegu rwa
rwan o
▁ea st
▁bar cel
▁guhagara ra
▁ya he
▁mu yoboke
▁umu gambi
▁yi shwe
po ol
▁mun yakazi
▁yakore sheje
▁yita bye
shyiki riza
▁i herereye
▁ya kiriye
▁gu sohoka
han do
▁ru ndi
▁ibi subizo
▁ma yange
▁s na
▁cya ra
▁w’i mari
▁fa mi
▁b ine
▁ku bwira
▁umu hoza
▁n’i terambere
▁iki menyetso
gize mo
▁ma shusho
▁kwi yubaka
▁bw’ ubu
▁sa l
▁kuvu ra
▁muse nyeri
▁sin zi
▁nyamu kuru
dagadu ro
▁gu ho
▁gu teka
▁bya tangiye
▁du kora
tanda ro
▁su per
▁inko moko
gh t
r n
gu ruka
▁m pi
▁ma foto
▁mi higo
▁t y
▁bita renze
▁w’a furika
▁ferwa ba
cha el
▁syli dio
▁mu mu
▁n’u m
▁kwi taba
▁kwi cwa
tsi ro
▁bite guye
▁iri ho
kuba hwa
▁am b
hagari tse
▁i d
▁a h
ru ba
▁mu kundana
▁ka b
▁zi jyanye
gara mu
cu ti
▁guha ranira
▁mo de
▁y’umu kino
▁yeme ye
ver pool
▁dj ama
▁maro c
b y
si vi
▁in ge
▁bya bereye
▁iki gega
▁t ha
▁b’i bi
▁ur ban
hoho terwa
tien ne
▁gu shyin
▁gu korerwa
▁s kol
▁n’aba ri
▁aha mya
▁da mas
▁b k
▁ba komoka
▁gu siga
▁in yandiko
▁ha bonetse
▁n’i ya
▁imi twe
▁pe tero
one l
▁kwita bwaho
▁sebu harara
w s
▁n zaba
▁u rimo
▁ba sirikare
▁ba fashwe
▁igi tsina
▁b’u mu
▁dar fur
d f
▁i hungabana
ran zwe
shi di
▁uru rimi
▁ry’ a
▁n’in dwara
mban yi
b indi
b yumva
ri ta
▁mu byeyi
sa ka
▁imi tungo
▁um wanditsi
shobora ga
▁le ona
▁be yon
▁isi ganwa
▁g hana
▁ry’i mi
lin g
▁a koresha
▁a dri
ri tse
▁n genda
▁gu hinduka
di e
▁bu tegetsi
▁gi tero
▁yi shimiye
ngu ka
▁kuta gira
p on
▁ hana
▁ba rangije
▁mu kaba
si ane
sha kisha
▁aba hungu
▁aba hawe
▁ubu hahirane
mba ro
▁aka bi
ci al
shyira mo
▁n’ubu zima
rin zi
▁bida sanzwe
komere za
mun wa
m bana
▁gu hitamo
▁bu ntu
sha sa
▁ubu rezi
▁yi yemeje
▁twa ba
▁rwa ga
pfo bya
▁cy’in dege
▁sita siyo
▁m on
▁ru tsiro
▁p ho
▁j i
▁du tandukanye
▁se ne
▁aha gana
▁z’u kwezi
▁by’i mari
fungu rwa
▁udu shya
n gera
en ga
sobanu rira
▁jo siane
▁z’amado rari
genera l
▁kumenye kanisha
▁djama li
▁bi turuka
▁ya garagaye
▁umu dugudu
▁in gana
▁aka yezu
▁imi terere
▁bata zi
▁da vid
▁witwa ga
zi gami
▁gu cika
go ngo
▁umu hinzi
▁umu jyanama
▁ama hanga
▁ubu kangurambaga
▁nde nde
▁tu mu
▁ib yumba
bwi rwa
▁mun ya
▁n’umu tekano
bone yeho
▁su dani
▁gato lika
▁leona rd
▁ ’’
▁b wu
▁ba hoze
ta r
▁w’ aka
▁bara mu
▁abi tangaza
ra el
▁ru nini
do re
▁man da
▁inko tanyi
gu ke
▁ya kinnye
▁gu tora
▁aba kuru
ran d
▁im yanya
▁na mu
ranga mutima
▁ic y’
▁aga hinda
▁ca mero
▁cyi twa
t ini
▁i zamu
ru ye
ze yimana
ku we
▁umu shahara
▁uru hu
▁abi tabiriye
▁mo u
▁ibya baye
▁b’ ama
▁kuvu gana
▁ci p
▁ubura ya
▁miri yoni
b yu
n si
bu guzi
wi twa
▁ka rekezi
▁e w
▁t wu
▁nya kubahwa
▁ara ba
▁basa bwe
▁ala in
▁kito ko
▁i tangaza
▁i tsinze
▁u zamu
▁u kinira
▁ba tandatu
▁ya sanze
▁in gengabitekerezo
▁mi chael
net te
▁mu ga
▁ha teganyijwe
▁ama shami
▁ki tari
▁wa ha
▁s t
▁ko ronavi
▁guha tanira
▁li verpool
▁sta r
▁ju pp
▁imyi teguro
tsindi ye
gu fasha
ru kana
ki e
fu je
bye mera
▁n’imi bereho
fati rwa
m bya
p fi
▁i kwirakwira
▁imi hango
▁w’i yi
▁re g
▁uwa se
▁abazi ze
▁haki zimana
▁gu shyirwa
▁n’i byi
▁wa menyekanye
▁pa c
subi zwa
▁y’ubu tegetsi
▁kugera ho
▁w’ubu banyi
cen e
▁rona ldo
gi tura
ru ta
▁m yu
be shye
▁aba depite
▁ubu kene
ke mu
▁ata zi
tekere je
rie s
▁N i
▁yashyize ho
▁adri en
▁ew sa
di er
▁bu kene
mi ye
▁igi curi
▁mi handa
▁t hi
tegan ywa
▁abari mu
▁chris tophe
gu ha
▁umu rongo
▁bu garagaza
▁ki yaga
▁kan imba
▁bwa we
▁rw’ in
▁ibigo ri
sabi mana
g le
ri ze
▁u kiri
▁ku jyana
tu manaho
▁ha koreshejwe
▁ru re
▁zi gamije
▁na ason
▁se rena
▁batu ruka
▁fi fa
▁kab gayi
▁i fata
▁n shinga
▁ku ran
▁ya byo
ran ce
garaga jwe
▁n’umu kunzi
shan yo
▁yan ga
▁y’ubu banyi
▁rw’i si
▁yitwa je
▁a bere
▁ha ka
▁ki garagara
▁ki gega
shyi riweho
la s
▁cya ba
▁pe ti
re ze
▁ba mbaye
ru ru
me ka
▁ru hando
▁nta wa
tandu kanya
▁w’i shyirahamwe
▁nya ruguru
▁si ko
tum vi
▁w’in ama
bunga bunga
▁nze li
▁kura mya
▁a wu
▁a kina
ta t
▁gu shize
yu nge
sha je
▁ki vuga
du ha
▁ibi hano
▁y’igi kombe
▁u geze
▁gu kurikiranwa
▁umu soro
sha kiye
▁wa gize
▁hari ya
ce r
▁nti yi
shimi rwa
korera ga
▁fa bi
gendan wa
p ani
▁n tera
▁bi ha
▁ya teye
▁gu kira
si ba
si we
▁umu ganga
man zi
▁ry’i mana
▁su n
a ti
i bi
▁ku tu
▁bi tu
▁aba mu
mi re
▁ama boko
▁mini com
▁bata za
▁rya bo
▁is rael
▁hu ba
▁k’ ama
sesengu ra
▁koronavi rusi
he nze
▁kwi baza
▁igi tabo
zu ra
▁yi ze
▁go ma
▁bigo gwe
▁champi ons
k wan
▁u wu
te je
▁bi tanu
go ri
go ma
▁ha ssan
▁ibi kombe
▁uru gamba
▁bwa yo
ji sho
gari tswe
kemura mpaka
▁i komeza
▁a kan
ga ma
re ti
▁mu gisha
▁zi tari
▁ari rimba
bwi raga
▁zin yuranye
▁mazu tu
▁umu gisha
▁bu shobozi
▁ru komeye
▁zi sanzwe
ryo he
bera ga
▁y’aba gore
gari tse
▁bahu ngiye
▁mana ger
▁yasoho ye
▁sene gal
▁i jya
▁a komeje
re a
▁ba fitanye
gu ma
▁bi kana
▁ya tangije
▁gu funga
▁n’i zi
▁zi kora
garagara mo
▁n’ib intu
▁n’ikin yamakuru
▁sna ppy
▁c en
▁ha giye
▁mi sozi
▁bya tewe
▁w’i mikino
cyo rezo
yo ma
▁ya tanzwe
▁c ho
▁aba sha
hugu ra
yobo ro
yin ywa
tara mira
▁bwa cu
▁iri ya
▁bw’ama horo
▁yve s
pfuka munwa
▁i bu
ko tanyi
▁ya ma
▁ru kuru
kan ywe
shobo re
el le
d ge
▁bi kunze
▁ara vuga
▁byo roshye
▁bati shoboye
▁poro garamu
ra bu
gu sa
me zwa
▁aba shinzwe
▁ha garagaye
▁ki ka
hi a
▁za we
▁akaba riro
ju ri
▁be st
▁l on
▁yahise mo
▁niwe mwiza
zin duko
▁i saba
▁u herutse
mu biri
▁ka vu
hi rizwa
▁ri zaba
ca ra
▁za ha
kwe reka
▁fran k
ron ko
p t
▁ba byeyi
ban e
▁ama jyambere
▁n’in zara
sin ga
▁umuhanzi kazi
▁muru muna
▁n’e byiri
▁ yongera
▁a jyanye
ya pani
▁u hereye
sh on
▁bi korerwa
me rere
▁ha tegeka
▁ka wa
▁p rin
▁twa giranye
▁n’umu nya
▁n’imi ryango
▁guhi mbaza
um z
wuba tsi
i je
re s
▁aba maze
▁ma bwiriza
hi ze
▁mi jyi
pe rezida
ce lles
▁yara bi
▁y’ama zi
van ga
▁n’im pu
▁imbo ga
c ro
l sea
▁i be
se neza
▁aban yamahanga
▁mi tali
▁y’i burengerazuba
gami ye
▁z’i ki
▁y’a mezi
shyin guye
▁niyo mugabo
▁fami ly
▁a kanya
▁a moko
sha shi
▁ru shinzwe
▁ga kwaya
▁n’ubu kungu
▁me ya
byin a
▁ba zwi
gu fu
▁ku mara
▁ma li
▁ma jyepfo
▁cya tangiye
bya ha
kunda ga
▁fa o
hindu ye
mwu ga
▁bito roshye
▁app le
▁ sho
re ga
sh en
▁ba tanze
te ma
bo mana
▁m c
▁ic tr
▁pe ter
kubi ye
▁uni ver
tre a
mure myi
▁a sigaye
▁ki e
du rira
▁kwi zihiza
vi lle
▁abi korera
▁iwa wa
rwan yi
▁baku ze
▁ce le
▁rwan yu
▁yata we
yisi re
▁fabi en
▁ma gingo
▁zi tuma
▁n’u mwana
▁umun yeshuri
▁n’umu toza
▁jean nette
sin zi
goro rwa
▁k’u bu
▁hegi tari
▁gu siganwa
▁bu kungu
▁bu shingiye
▁ma hirwe
▁n’i myaka
fite mo
▁bita ba
▁uku ba
tin g
▁be a
▁rya yo
▁bo se
▁bate we
▁ruta yisire
shiman giye
▁men ya
▁a shize
▁ba baye
▁ku renga
▁ya teguye
ku senge
▁ma fi
▁n’u b
▁kan ini
ne ti
▁ban yeshuri
▁n’ubu tegetsi
bone ye
▁mwi seneza
▁n’icyo rezo
▁i fumbire
▁a twara
▁ba shyira
▁ba kunzwe
▁gi sozi
▁ki ga
▁ru tanga
▁p gg
gen dana
mba raga
▁wa tangiye
ren ce
▁d ani
▁baka reba
▁abi canyi
▁guse nya
▁mpan uka
▁i mwe
▁u gera
tu s
▁ma ra
na teri
▁y’i byo
gari ro
▁he nshi
▁y’umu ryango
▁biri ya
▁amu bwira
▁nto ya
▁cy’igi fungo
▁pgg ss
▁ shyirahamwe
▁a yoboye
ta shye
▁na mwe
▁yi swe
ju rire
▁ntara ma
▁ju stin
▁cy’umu ririmbyi
▁pla tn
▁n kora
▁ba hura
▁ba hinga
te s
▁m winshi
▁aba renga
li ane
ne ste
▁ri fite
▁t ra
pa diri
▁w’i mana
▁bara saba
shyu he
▁pla tini
- ki
ba sira
yi ra
▁m pinduka
ti ano
▁y’u burasirazuba
shyi re
▁mini st
yuze mo
▁umwa rimu
▁tho neste
▁promo ter
jon jora
u ba
▁ jya
▁a bwira
ta rengeje
hu ha
▁n’i c
▁ni bi
genda ga
▁icya ri
muha ye
▁ubwi sungane
▁part y
w w
▁i t
▁i bona
▁i kosa
▁a ll
▁n kemurampaka
▁ya gera
▁gu sobanukirwa
▁ubu vuzi
▁ga tete
▁han d
▁yara ye
tion s
▁iri ndi
▁ruha go
▁n’umun yamabanga
yongere yeho
▁che lsea
▁fau stin
d indi
n gani
s k
re mbo
▁ku menyekana
bu tse
▁bi zeye
▁bu hagije
▁in yo
yon zi
▁rwa ra
▁icya yi
vugwa ho
yumva mo
▁a po
▁ba han
▁umu vuduko
▁bu ndi
▁aba ririmbyi
▁ki menyi
▁ni mero
bya ro
▁m bwa
se nateri
ku re
▁ki bi
▁je u
kiri ya
muna ra
sifu zi
gu tabara
yu ranyije
▁ka rindwi
gere ranya
bya ranye
▁nk’i gi
▁bari ya
geje jwe
mban ye
ruhu ko
l bert
p en
▁ya gizwe
hu riro
▁aba ta
mi e
ca r
▁baha tanira
▁z’u buzima
▁l ’
▁platn umz
▁i faranga
▁u te
ko sora
▁ya jyaga
▁in tebe
▁aba kiliya
▁mi korere
shyi kirwa
▁s pe
tin celles
▁w’umu dugudu
▁nk’i byo
tore we
mere rwa
▁y’uru byiruko
▁kire he
▁wasanga ga
ri ngi
▁ya rana
ku mi
me d
▁ka mere
▁mi bonano
▁yi tabiriwe
▁vi lla
▁wan yu
▁kiza bera
▁inzo ka
mpa la
▁bitwa je
v in
▁ won
▁ ger
ya bu
ba je
ru byiruko
▁ya shize
▁m r
▁ha kuriki
han na
▁gi pimo
▁ma shami
▁aka gera
▁w’i bihugu
▁bwa korewe
▁n’ibi ro
▁li ve
▁ika wa
▁con fe
▁ubwa bo
sanzu re
▁buta li
▁gukura ho
▁damas cene
o gle
▁ba shinzwe
▁ku garura
▁ya ru
shi ki
gara garaga
kun dan
she shatu
▁ban gana
▁ika rita
hagara rira
▁iga banuka
razi l
▁au gu
gwi za
▁M u
▁p ri
rwe nya
▁mwi herero
▁yaha kanye
yandi tse
▁bene di
▁iso mo
▁miche l
▁servi ce
▁mau rice
▁butali yani
▁u p
bi ka
▁bi yobyabwenge
▁ya koraga
gwa ho
▁tu maze
▁e tienne
vi e
▁twa vuga
mwi ta
▁w’umu gabo
▁twi fuza
yamama za
kwirakwi zwa
▁u genda
▁bya tuma
▁tu mwe
▁le s
aban yeshuri
▁n’ubwi yunge
▁ shingiro
▁i rondo
ko ma
li en
hi tanye
▁aka yi
▁ri ba
▁pa r
▁twa ganiriye
▁n’umu hanzi
▁baba shije
▁di ane
▁bazi ze
▁ry’u yu
▁guku san
▁ndayi shimiye
c tor
▁a byi
▁k ina
▁gu suzuma
▁aba koresha
▁ha r
ran s
▁im bibi
gira mo
zu za
▁uru mva
▁gihe mbwe
▁sa date
ja gari
▁ara mu
tswe ho
▁biba za
▁b wonko
▁i tuma
bu te
▁bi ki
▁gu kwirakwiza
▁ha bin
▁e sheshatu
kura ho
▁bate gereje
▁by’ama faranga
▁byu kusenge
▁erne st
zigami ra
re mezo
▁ba kin
▁ba tera
▁ku banza
te rankunga
▁bi ganjemo
▁in o
▁imi koranire
▁co a
▁we st
▁ati geze
▁kure ka
▁kugi rana
guri shwa
mban ya
shyikiri zwa
▁muta gatifu
▁myu gariro
▁i shimwe
go zi
▁in teri
▁in kweto
▁zi ha
fu riza
▁iki za
▁ri hanna
▁f on
kuriki we
▁y’umu pira
kubi se
▁n’aka rere
▁imyan zuro
z ine
zi ran
▁gu hana
si ya
▁n’i tsinda
▁aban ye
▁cya munara
ubu mu
▁n’umu jyi
▁co u
▁cy’i bi
fo r
▁by’i terambere
▁yu nze
▁cla ire
▁i je
▁i kwiye
▁ba shoboye
▁ya buze
▁im yumbati
▁n’i genamigambi
▁s inema
▁y’ubu tabera
rin ka
▁rw’i bi
ris tu
▁petero li
▁augu stin
p ha
▁ya kira
▁r w
so hora
▁nta wu
co o
▁wi garagaje
▁d ’i
▁di yose
▁bagomba ga
kara ba
▁kimi ronko
c s
o u
▁ tangazo
mu kira
▁ba curuza
▁bi huriye
▁y’ abanyarwanda
mi sha
to ro
▁ri ti
tera bwoba
▁n’umu sore
▁z’u yu
▁w’ubu hinzi
▁buda sanzwe
▁ima shini
f ri
m c
t ha
▁bi komeje
de nde
mo tari
▁ki tara
tanga rijwe
▁he r
pfu ra
▁ku mvi
▁gu tya
▁bu tunzi
ran de
ke curu
gan yi
▁kwi fatanya
▁kwi hutisha
▁ga ho
▁mi bare
yobo raga
▁yi she
bwi we
▁du kwiye
▁wi ga
▁baka zi
▁n’ibi ciro
▁fa b
fati ye
▁iby’ ubu
rwan ira
komere tsa
ngire he
▁d’i vo
▁a kurikiranyweho
ba ri
▁tu da
▁rwa bu
kuriki ranira
▁al ubumu
▁biza jya
▁do cument
tri bute
▁lou is
▁dani el
▁ hita
▁n sabimana
mu fasha
gi shije
gu gu
▁ku ma
zi ze
ge tele
▁ya menye
shi mana
wo ro
le y
▁e tincelles
shu ye
▁si fa
▁n’ibi koresho
fatan ije
▁baza komeza
ment byi
▁imurika gurisha
▁victo ire
tat tribute
▁document getele
▁documentgetele mentbyi
▁bi turutse
hu ru
de ri
mi co
li mu
▁ki twa
▁ibi sobanuro
▁wa mamaye
va ho
▁n’aba gabo
▁za fashwe
▁baga mije
▁nk’ abandi
▁mugi he
▁isa bukuru
▁va len
▁impa puro
▁k ha
ba ha
ban zi
han wa
▁ibi shyimbo
▁zi te
▁kiri ziya
▁serivi se
kari ta
▁ugere ranije
▁mala ria
▁ps f
n one
ka ye
▁bi ze
▁in sanganyamatsiko
▁ama tsiko
▁gi rinka
na raribonye
▁ri gizwe
▁n’aba fana
▁rwa mu
▁n’ibya ha
ra ma
▁n jya
▁n zoga
re bera
gi tsina
▁bi garaga
wan ye
gen ce
sho ye
▁imi cungire
▁aga hita
▁kigali -
▁ye rekanye
▁me ddy
▁yakore ye
zon gere
▁musi c
▁fon da
u ko
▁ba hinzi
da ge
vu gurura
▁bu fite
▁ka za
▁iki ro
▁n’aba vandimwe
▁iha bwa
▁n’uru byiruko
ziya remye
hagari tswe
shidi kanya
▁i kana
ta ko
▁ya shimye
hu ngirehe
▁bu kerarugendo
▁aba vandimwe
▁ru hare
▁ka li
▁na rwo
ci sha
▁vi an
siga jwe
▁pro du
▁go ogle
▁cy’a mezi
▁minis teri
d s
▁i tandatu
▁i jisho
▁a bonye
ri nga
gu re
da ste
mi r
▁ha sigaye
▁igi tu
▁pe r
▁uku gira
▁guha shya
▁iha gije
s p
▁i shaka
▁a binyujije
ko ngo
te zwe
▁gi hingwa
po re
ji riza
▁n’ama so
▁baka yi
▁n’ibi he
▁bite ganijwe
sobanu riye
▁baba sha
▁ntaki ru
▁vian ney
▁ general
▁gu sen
go me
▁bu hinde
▁ha boneka
▁ma i
so zwa
kini sha
▁cent re
▁icye rekezo
ka maro
bu re
me mbe
▁ka mpala
▁im fubyi
▁cy’i cyunamo
▁bira shoboka
▁barcel ona
▁hakuriki jwe
▁interi neti
ri ndi
▁ku du
▁ku rangira
▁bi shimira
ti s
sa bira
▁gi ra
▁umwe nda
▁uka za
bire ti
▁bake kwaho
▁myi tozo
▁ihe ne
ari ko
g y
▁i shusho
▁a heruka
mu rira
we ra
▁bi tara
▁m wo
▁bu kwe
▁in tandaro
du tse
▁ubu vugizi
▁ubu basha
▁ban ze
▁ara bi
mvi kanye
rali a
k h
▁k bs
▁ba riri
▁ya hu
vu gana
▁ama koperative
hi ye
▁kwi shyu
▁tu r
▁t wo
hin e
kiri situ
▁nda gi
▁ro bert
manu ka
mban o
▁impu nzi
▁mugi tondo
▁are gwa
▁ruha me
▁ge or
▁chu r
tumvi kana
▁i we
▁i renga
▁a komoka
▁a fitanye
ko ni
yu za
▁aba kunda
▁kwi gira
kun de
ci ra
▁z ina
▁ib yamamare
▁s rc
tandu kani
▁iza komeza
▁biri bwa
▁impan de
▁aki mara
pri en
▁beyon ce
▁ngenda himana
▁univer si
▁u vuye
gi shwa
▁ba seze
▁ba shyize
▁ya ya
▁ya suye
▁mu kunda
▁gu tura
▁ama tungo
▁wa kwi
▁z one
va ra
▁bite ye
jo r
▁cap tion
▁ty pe
▁i vo
▁ba tekereza
▁m ina
go mbwa
ku bwira
ban k
▁na we
bwa mi
▁s inga
▁ata ki
▁kwe meza
ken nye
▁perefe gitura
coo kie
▁ntakiru timana
d r
gu kunda
bi le
▁bu keye
▁ha garagara
du kunda
▁ibi tabo
hi tana
zan ira
huza bikorwa
▁inzo bere
▁guse nga
▁muke ba
p he
▁a genga
▁ba bayeho
gu za
▁ka lisa
▁mi sa
▁co lle
sobanu tse
▁g s
▁ja do
▁utu rere
▁ti mes
kandi da
▁benedi ction
ziran enge
g ina
p pe
an da
ra ba
▁i tangira
ya hura
▁ya huye
▁gu kundana
wan i
shi sho
▁y’i terambere
shyi tsi
yama swa
kaba ye
▁si bomana
▁iza genda
▁by’in genzi
kundi ra
▁wor ld
▁i va
▁i hita
▁a ru
▁u yoboye
▁ba se
ro re
▁in danga
▁ha fashwe
▁ri da
▁ta xi
ton da
▁ubwo rozi
▁hand ball
ya mbere
▁ku rangwa
▁ama ka
▁im vugo
▁zi terwa
▁mi twe
▁ni zo
shin gira
▁iki rere
▁mun yamakuru
yeme rera
▁am bwira
▁bun gana
▁q a
▁b razil
▁n umu
▁ba ma
▁ba hora
▁m inota
▁aba siganwa
▁ic yubahiro
▁bwa ba
▁yan ze
▁z’i mi
gene ye
kini ye
▁fab rice
▁d’ivo ire
y d
▁i fatwa
▁ba guye
ro ro
▁igi hingwa
▁si ganwa
▁muri ma
▁rya ra
▁y’in gabo
▁kiri ya
▁cy prien
▁by’a gateganyo
▁bwan jye
▁icyu namo
▁jeu nes
u ti
z za
▁b rd
▁i juru
sh yo
▁ku ro
▁bu horo
▁bu tari
yan kore
▁gi komeje
▁kuba za
shin giwe
▁yi bwe
man ya
▁nti ha
ji mana
▁ikin a
▁ndu hungirehe
▁u kina
▁ba ganiriye
▁r wu
li x
vuga ho
gara gu
▁wa tanze
▁imi tima
tura rwanda
pa gne
▁za giye
▁cya fashwe
tara ma
▁w’i shami
yeme ra
tum va
▁ti ke
▁inzo zi
▁ry’ibi ciro
ra mbo
ba girana
▁ku rwara
bu jije
▁gu karaba
▁bu shake
▁ka ta
▁sa mu
bya za
saba ga
▁ub wandu
mwu nganira
heruka ga
▁nsan zimana
▁fan ta
▁prin ce
ra bura
▁i ran
ba i
mu rwa
▁ku rwana
▁bi shyura
▁r bc
▁aba rundi
▁ibi jumba
gan de
▁im p
▁ib yuma
tege rere
▁n’in zu
▁y’ubu rezi
▁ry’i ki
▁bakora ga
mwu ka
▁R wanda
▁munyan eza
▁inge so
▁snappy muhaburarw
e jo
▁n ina
▁mu fite
▁mu kunzi
ki rana
▁ki gamije
▁wa koze
▁yi jeje
▁y’i mana
▁za mbia
▁cya yo
kuriki ranye
▁me lo
kera gutabara
▁zan durira
i yo
o t
▁i huza
▁i heruka
▁mu gari
▁bu kuru
▁ibi tangaza
▁ma j
▁kumu ha
▁ibin yabiziga
▁mu shiki
▁in gano
▁zi komeje
▁du fitanye
goro fa
▁eri trea
tungu we
hanu zi
▁ag nes
kundan ye
tu nze
▁bi ciwe
▁ya ga
▁ubu bi
▁ma horo
gara ma
▁na giye
▁iki ra
▁ri ta
▁t rans
▁buru siya
mya bu
▁w’in tara
▁w’ama shuri
▁ziza jya
▁ure bye
henge ri
▁cen ter
ra ho
▁i ko
▁i genamigambi
▁a du
▁a shimangira
gi teri
ge rwa
▁mu vara
▁aba saba
▁ama rangamutima
ke muka
▁zi twara
cu n
su ru
su kari
▁du shobora
▁o r
▁kwe gera
here zo
zan ywe
▁la dy
▁nyan ja
maga rira
kol oni
gn none
▁tombo ra
▁ku mvikana
he mbwa
su ng
menye reye
▁baga kora
▁nyi go
▁w’a bana
koreshe reze
▁fonda tion
re en
▁ba kwi
zi ga
▁zi gezweho
▁t shi
▁sa r
▁nda ba
▁wu ba
bon ana
▁by’ubu curuzi
▁gusha kira
seke di
▁buka bije
▁nyaba rongo
tegerere zo
▁a tangwa
gi riza
▁gu shinga
▁bu tera
▁ha tanzwe
▁ha kenewe
▁wa yi
▁na bonye
▁ra b
▁we gukanye
▁cy’i rangiza
kiri we
▁be merewe
pfu byi
▁y’umu ra
▁nk’umu ntu
▁un gana
▁iman za
▁bla ck
d in
r ma
▁i rindwi
▁a kinira
▁a rwaye
▁ba gire
▁ya gi
▁ru te
▁p en
▁n’i koranabuhanga
▁ga ga
ren zi
▁cya ro
▁wi ta
▁si mba
mbu ro
▁baza bona
▁yu zuye
pfa kazi
garu tsweho
▁nyabu ranga
▁singa pore
gi jwe
▁ba si
▁ba tangaje
gu riye
▁c ris
▁bu so
▁ibi pimo
bone za
gari jwe
▁kin gana
▁iha gaze
▁umunya -
▁kano mbe
▁zaha bu
m my
▁a shyira
▁n kaba
ba giwe
gi li
▁ba kunzi
▁bi kuru
ho ndo
▁bu kangurambaga
▁aba ye
▁ru tare
▁ubu ntu
▁p on
san go
su raga
gwa te
▁s ma
gani ye
▁bara yi
▁yara mu
▁ye go
▁nda mu
▁au stin
▁abakiri situ
▁ikubi tiro
u re
ba zwa
ma ble
▁ba shatse
▁bi kora
▁ki bu
▁ki geze
kome retse
kome reka
▁cya tangaje
▁sa la
▁si m
one y
▁de nis
▁aza m
poli tiki
▁es pagne
cyi zere
▁ruri mi
▁y’imi kino
▁eu ro
▁fre d
mu ni
▁ba ran
▁c n
si a
be d
▁ru gan
▁ma shyamba
▁n’i mana
▁n’i shyirahamwe
▁n’u rugendo
▁ga sore
▁mi re
▁tu zaba
▁twa giye
▁ata za
▁guha ha
shyu ye
▁cy’u bwi
twi tter
▁bate ganya
▁ada shobora
▁yon yine
cyi ciro
▁tshi sekedi
l s
▁ba toza
bo zo
▁bi yi
▁bi renga
▁bi renze
▁ya menyekanye
▁ya shyizweho
ku bye
▁aba jijwe
mi rwa
▁ma jwi
▁kwi han
▁du to
tege tse
▁uwa vutse
▁ubwi korezi
▁kuvu gwa
▁nyira ba
▁and re
sangan ywe
▁habi yambere
▁w’umun yarwanda
▁gu ine
sha ho
▁ama hoteli
▁kwi twa
le nt
yama ze
ca ca
▁y’aba gabo
▁isi gaye
pfu mu
shyin guwe
▁v c
▁nza bo
▁kaba ri
▁ai mable
▁tubi kesha
▁sam sung
▁geor ge
▁chur ch
m byo
▁i kan
▁a subiza
▁u meze
▁ya rwo
▁m pe
▁umu gaba
hu ri
▁e va
▁cya je
▁n’ama banki
nge ro
▁ada fite
▁cy’in yama
▁bwan yu
▁ngaruka mwaka
▁i jo
▁n kiko
▁ba cye
▁m vura
se ti
▁r ra
▁umu polisi
▁n’u rwego
riki re
▁twa mu
rwe ho
▁n’ubu shobozi
▁de muka
yuba kira
▁ro se
taka za
yandi kisha
herere kanya
▁kwan ga
▁umura peri
pho n
▁cy c
c yubahiro
d ine
y mar
▁i renge
▁a keneye
▁bi cwa
▁mu tabazi
be c
▁aba twara
▁ibi komere
▁ubu so
ke kwaho
▁n’a yo
rere ye
▁e t
▁se n
gani riza
▁baka vuga
mbu rwa
zuba kwa
▁ika ze
cye rekezo
▁y’uru kundo
▁kuga banuka
▁jeunes se
▁ E
bu ne
▁ya hoze
▁ya ranze
si ti
▁umu lisa
▁aba shumba
▁ha ruguru
▁ru sa
▁ru vuga
▁im pe
▁zi jya
cu mu
▁ban yu
subi ye
▁vi e
▁kon gerera
▁li liane
vuye mo
▁fi lm
▁kuvu gururwa
▁aku mva
▁kwiba sira
c yura
r ci
▁b yumweru
▁n yobozi
▁ba pfuye
▁umu curuzi
▁ru shashi
▁ibi ryo
▁n’i myenda
▁wa ri
▁mi hango
▁rw’ akarere
▁o p
▁rya tangiye
▁jean ne
▁z’u mwaka
▁by’i mvura
▁atu ruka
▁ukwezi com
▁kige li
▁i kunze
▁a shinzwe
ba rira
gu me
▁ku byo
bi ro
▁bi kiri
▁ya shimangiye
▁m y
▁r win
▁umu huzabikorwa
▁ma c
▁ma gare
▁n’i ri
▁n’i minota
hi te
▁uru byaro
ngu tse
▁se ba
▁rwa gati
ani rwa
▁baha garariye
▁so p
▁cy’ama horo
▁w ww
▁bw’ama buye
▁umwan zi
rohe ye
▁demuka rasi
ri se
re z
▁ba be
▁ba kan
▁ba ganira
da yi
▁mu rwa
▁mu rimo
▁mu nezero
ku riye
▁ha tandukanye
▁ama tike
▁ki ro
▁n’i tangazamakuru
bwo ko
ce ce
▁t wuba
garaga mbyo
▁j r
▁bw’ abantu
▁n’aban yeshuri
▁muri ri
▁baga habwa
▁uwa hoze
▁uza toza
▁sta ge
al th
▁bate guye
▁h c
▁kita renze
▁yata ye
tungan ywa
▁qa tar
▁irenge ro
▁i saga
▁n toki
za bu
▁ku nye
▁in yeshyamba
▁ama twi
▁gi hombo
▁ru zi
fi ki
▁tu ni
▁j ona
nye zi
▁imba ga
▁ira dukunda
▁da y
▁udu kingirizo
▁ngu zanyo
▁nyu ndo
▁ps g
▁iru hande
▁azwi ho
tandukan yije
▁gukusan ya
▁k bc
▁u gi
▁u gamije
▁bi giye
▁bi tera
▁mu ki
▁gu ka
tan ya
wan go
be l
▁bu hamya
▁aba minisitiri
▁gi ciro
▁ka r
▁ga re
▁ga bon
▁t wose
▁j ye
▁rwa ba
jyan ywe
▁kuza jya
▁rw’i ki
▁yandi kiye
▁cy’u mwaka
▁abanya furika
huti ra
▁ntaba kuze
▁i r
▁u hagije
tu we
si rwa
▁bu maze
▁bu fasha
▁ka ma
▁w’ abantu
gira kamaro
ca munsi
▁se ka
lo r
▁ara mutse
▁z’i cyumweru
▁ne ymar
▁yin jiza
kurikira ho
▁eu gene
▁kuzu za
▁munye nyezi
▁muriri mbyi
n on
s ’
▁bi fashishije
be ka
▁ama cakubiri
▁gi twaza
▁im vu
▁p rimu
▁twa gira
▁iza kina
▁kwa magana
suzu mwa
▁un cle
huti shwa
▁imbu nda
▁ngoro ra
sine ss
▁camero un
▁ba pfa
▁ya rangije
▁bu kwiye
▁aba shoferi
▁ama fi
▁ma sa
▁imi pira
▁ban yuranye
▁ra fiki
▁ho use
▁yaba sabye
▁l y
▁n’uru kiko
▁ndagi jimana
m bwira
▁i yobowe
▁a koreshwa
▁u ririmba
▁ba gizwe
ta si
▁bi ti
si mbuye
ti c
▁bu rengerazuba
rwa ys
▁ama shyamba
▁aka gira
▁avuga ko
▁bite gura
▁yo rk
▁kure bera
▁la u
▁bwo roshye
▁h ’
▁z’a manyarwanda
huti rwa
▁yavu kiye
▁biru ta
▁ai rways
▁yuba tswe
▁eco bank
▁cris tiano
m pe
▁i twara
▁u rwa
▁ba banye
▁ya tumi
▁ru hengeri
▁tu ndi
▁rwa tangiye
▁kin shasa
▁kayi banda
▁ibin yobwa
▁yahi shuye
▁impa myabu
▁habin eza
▁documentgetelementbyi d
▁mire mire
▁primu s
▁ shuri
▁ fura
▁b yuma
▁k eza
ba girwa
▁ba fa
▁ya ryo
▁m ani
ki ranya
ban ji
be ro
▁bu rwayi
yu tse
▁aba tari
▁ha korwa
du ku
▁ubu re
▁kwi vu
▁iki ciro
▁nti wa
▁ikin yarwanda
▁ca rd
rin dwa
▁bihe mbo
▁peti t
▁cele stin
a t
c ho
▁ tegeko
▁ama tsinda
▁n’i shami
▁tu ki
▁wi geze
▁bara ba
▁o ya
ni ka
▁su r
soho ye
▁uka mu
▁ W
▁a garagara
▁a fatanyije
ye nyeri
ru re
ge ya
▁ya cyo
go rana
▁aba vuga
▁aba cu
▁ma jor
▁uru gwiro
▁s wi
▁ara saba
▁so ya
rin ganire
▁kuza kina
▁da ta
herere za
▁kuru ta
▁ivan gura
▁editor muhaburarw
▁universi ty
ra l
▁i korwa
▁n shaka
ma d
▁ba banza
sa tsi
shi p
▁ama sasu
▁ma de
hi rije
▁kwi zigamira
▁ga so
ne gihugu
zu ka
▁yi tiriwe
▁ri bi
▁n’aba byeyi
▁se rukiramuco
subi tswe
▁abi sobanura
▁to p
▁ndi mi
ssi on
▁bahise mo
▁nsengi mana
▁zida sanzwe
▁coa st
▁fura ha
a d
▁ 1
▁i garagara
▁n zo
▁n gira
mi u
▁ha gende
▁n’i cyaha
▁baka bona
▁kubi ba
st re
mvi kane
▁bati geze
mpan y
▁uda sanzwe
▁san o
▁i sha
▁ba jye
▁ba sin
ru bozo
ti zi
▁ka membe
▁ubu nararibonye
mba bwe
shyi ga
▁sa fi
reke ranye
tekereza ho
▁nza ha
▁ferwa cy
▁icyu ho
▁jan vier
teke rere
▁byaga banutse
b li
▁ que
▁a rusha
▁ba giranye
▁ki giye
biri bwa
pa puro
ca tion
▁n’aba fatanyabikorwa
▁mo ko
▁kugera geza
▁by’u ru
▁zan jye
the r
l c
l de
o ts
▁i dini
▁u horaho
▁ku gana
ze rimana
▁bi sobanuye
▁mu zima
▁mu tekano
go ga
▁umu shoferi
hu beka
▁gi shya
co r
▁bita bira
▁cy’i terambere
tangi ranye
suzu gura
▁you tube
▁q hubeka
▁ibira yi
fashijwe mo
l f
▁ shi
▁u t
ye re
ma rira
gi ti
▁ba sobanu
▁gu subi
▁umu rego
shi mu
▁ru humuriza
gan ura
▁kwi vana
▁bya ku
▁imi co
riye ri
▁pe nali
gari kwa
▁y’in ama
▁bamu bwira
twi ka
zihi we
▁bw’aba turage
▁she i
▁dieu don
▁villa ge
p f
▁i baye
▁a fasha
▁a vuka
▁u kwe
▁ba rwaye
▁bi sobanura
▁bi fitiye
▁mu bano
▁aba shaka
▁y’i bikorwa
▁t ana
▁umun ye
▁cya tumye
▁ta lent
▁nti mu
ji rira
▁ikin i
▁b’ a
roko ka
▁es pe
▁yve tte
▁ibiza mini
▁n’um wanya
b wongereza
p re
se ka
ro u
▁bu korwa
▁bu rimo
▁ru zaba
hi gwaga
▁kwi yi
▁imi zi
▁imi renge
▁bata gira
▁jo han
▁by’i koranabuhanga
▁z’amado rali
▁mada me
▁kw’ aba
▁theo gene
ruba vu
l lo
▁ba hungu
ta is
bo hora
▁bi ranga
se nya
▁bu siness
mo ni
▁ha shingiwe
▁ga ke
▁ga komeye
▁ga caca
pa siteri
▁twa bonye
▁co mpany
menye kane
▁de pite
shyu rira
▁iha zabu
▁ubwi tabire
▁pro tais
bangami ye
▁ser bi
▁sun rise
phon se
g ye
h wi
i t
▁ba ririmba
za jya
ta in
▁mu saruro
ci ke
▁ata bi
▁cy’i mvura
▁li l
▁yabi tangarije
mp ani
▁as so
▁yahi tanye
▁ijo si
ban ya
▁ru byiniro
bwa ga
▁n’ama zi
▁o ba
mbe r
subi je
aban yamahanga
▁mo ya
▁ahan i
▁l in
▁ibya vuye
▁w ha
▁b’aba kobwa
▁tho mas
▁baru sheho
▁cyu ho
▁apo tre
▁ivo ry
▁cyc ling
▁tana sha
u ru
▁k woro
▁ba garagara
ru kanye
▁ya tangira
▁gu fashwa
si lamu
▁bu ll
▁ha mbere
mbo na
▁s cien
▁w’i ri
▁iza tangira
▁y’ama jyambere
▁babi kora
taka je
▁y’ibi runga
▁rugan zu
▁hagende we
r yi
▁i teganya
▁i genzura
▁a shingiye
▁n gengo
▁u w’
▁u va
ko man
▁ba suye
we r
▁ya zo
▁ya kunzwe
di cal
he ba
▁ama sa
▁gi hanga
▁gi tangaza
▁ki m
▁zi shinzwe
▁t pi
ngu we
▁nti tu
▁si mon
▁mo se
▁kubi ka
▁ja mbo
▁da vi
▁uda fite
▁ry’ubu kungu
rondo ro
▁mwan zuro
u bwo
ra co
ga vu
▁ba fatanyije
▁bi kozwe
▁gu kurikiza
▁ha guye
▁aka bona
ne r
po ra
▁ta tu
▁ko re
▁nti twa
▁wi shwe
▁wi fuza
▁nu ko
▁baha ri
▁baha me
▁y’ubu hinzi
▁y’a bana
▁la p
▁uka bona
▁mwu rire
▁bru ce
hangayiki shije
tekerere ze
s ton
x y
▁i rya
▁bi fata
▁mu rika
▁r wo
▁aba yoboke
de ration
▁ha ku
▁ha gomba
▁ki be
▁ma bi
▁kwi shimira
▁ga shumba
▁mi ti
▁ni joro
byi mana
▁wi lli
▁y’a bo
▁n’imi korere
▁ubwi shingizi
byin o
▁guhi tana
▁sc ho
d th
g nali
u t
▁a hana
re kura
ha ma
te ga
yo ye
▁bi twaye
▁mu byo
me r
hi ma
kan we
san i
shu shanyo
garaga rije
▁za cu
▁wi dth
▁aha garariye
▁bara bi
▁kwe gura
▁baga ruka
ur s
▁yeme rewe
▁yitwa ye
▁ne mba
ch ment
▁kura ra
▁baku mva
▁ali gnali
▁ruku ta
▁rwaka gara
c ana
ri ste
▁n kunda
ka bije
gu ka
▁mu re
▁mu bare
y’ aba
ti rwa
▁ha te
▁mi koro
▁aha za
▁ho p
▁nu r
guru tse
tangi rwa
▁di dier
▁uza jya
▁ida tta
▁idatta chment
▁ P
▁a gize
gu ze
▁bu te
▁ama dorali
▁ru rangi
▁zi giye
▁kwi mura
▁wa vuze
▁ni ki
va l
wu ndi
bura ya
▁w’i torero
▁nti bu
aka zi
▁w’u mwaka
▁y’a bi
ganira ga
ris to
▁go r
▁n’uru kundo
▁au st
▁lo ve
▁pre mi
▁espe rance
▁alignali gnnone
a ga
▁ba citse
▁ya huje
▁ya giriye
▁mu tesi
fa te
▁ma ze
▁im paka
▁s indi
▁ic yuma
▁cya rangiye
▁uku mva
▁de si
▁ur wango
▁bw’umu renge
hani tse
▁munyan kindi
hoho tera
▁fu l
▁twu mva
f rika
▁ D
re kani
ma horo
ku boza
me ne
vu gira
▁bu su
du za
▁n’u rwa
le one
▁mi dugudu
▁aka jagari
▁cya teguwe
▁w’i m
shyin gura
mp in
▁mwa rimu
stin e
▁by’ama shuri
▁sou th
▁bizi mungu
hindagu rikire
▁sma rt
▁i ciriritse
▁ba rwayi
▁ya koranye
▁in jyana
▁ha bura
▁ka beho
▁ubu ba
le r
▁wa giye
▁ic yamamare
▁n’aba ganga
▁bara vuga
kene rwa
won gera
▁af ro
▁man e
▁tura ba
▁musa byimana
sivi li
▁bariri mbanye
b wani
▁i vuye
▁i shingiye
ma in
▁ya shakaga
▁m oney
▁in yarwanda
▁aba fatanyabikorwa
▁w’ abanyarwanda
san giye
shimi we
lo ma
▁guha magara
▁ye we
iro bi
hereke za
▁byeme we
▁twabi tangarijwe
tandukani ro
▁ 2
▁a twite
zi g
ze rwa
▁ya jya
▁mu toza
▁in twari
kin yamakuru
▁zi koreshwa
▁wa y
kun tu
▁ban k
▁ko rana
shimi re
▁bata ba
▁bata basha
▁z’i cyunamo
▁li onel
▁cyi swe
▁bica mu
hereke jwe
▁yasubi je
▁nzaha bwani
▁lap top
▁nzahabwani mana
t ch
▁i tangwa
▁i fatanyije
▁u wan
▁ba rokotse
▁ya shatse
▁mu gesera
▁mu vunyi
▁n’i cya
▁mi shya
▁yi taba
riki ra
ce ri
▁buri ya
▁n’in yungu
▁cy’i hinga
garagaza ga
▁nk’ abantu
▁baki ze
▁ana sta
▁is la
▁by’ubu zima
baba je
▁hegi tali
▁ndo li
▁w’aka gari
▁kunye reza
▁bicamu mpaka
e e
s tan
▁ Y
▁ba bura
bu ryo
▁bi menyerewe
▁ya m
▁ya zi
▁m ine
se mburo
ku bwa
ti riye
▁aba hagarariye
▁ga ciro
▁na irobi
▁du bai
▁n’aban yamahanga
▁n’in terahamwe
▁bite mewe
▁te n
tangi rira
▁bavuga ga
▁man ota
ly mpi
hani shwa
▁imyan da
kangu riye
g b
h h
j inya
an ce
▁n gara
se ngu
▁ha da
▁gi shanga
▁kwi fashisha
▁kwi yubakira
▁y’i myi
▁t winshi
va ga
▁n’aba sore
▁n’ama horo
▁w’u wo
yamba rire
tsindi ra
▁rira mbye
▁minist ries
▁premi er
a a
▁a meri
▁u jye
▁ba rindwi
gu ro
ru kanwa
▁bi o
▁c nd
▁gu shimira
▁gu komera
hu me
▁bu rezi
▁bu gamije
▁aba curuza
▁aba guzi
▁ibi hangano
ke kwa
▁ri kuru
ter s
van wa
van ge
garagaye mo
▁udu ce
▁mwe se
▁com muni
▁y’aka gera
▁guho mba
▁a shimira
▁a curuza
▁n jyanama
ya buzima
ba ze
ta bwaho
di s
▁umu shinjacyaha
vu guru
▁bu menyi
▁ki lometero
▁ubu shyuhe
to we
▁kan da
▁y’i b
gere ro
▁bwa ra
pu tu
▁baka gira
▁o lympi
▁hi p
▁kubi gisha
▁b’ abanya
mp ama
▁bye rekana
rusi ya
▁at raco
▁byan ze
▁ire me
▁ite gamiye
▁sam putu
mine ga
▁n el
▁ba sha
▁ba ririmbyi
se nye
▁gi tu
▁ka biligi
▁ibi reti
▁zi turuka
▁na wo
▁tu jya
korwa ga
▁ri herereye
▁ic yumba
mbu zi
▁bw’i mi
▁biba ho
▁rw’aba kobwa
▁ab ra
▁yuba tse
▁willi am
o p
▁a lly
▁n sengero
ma mara
▁ba kinira
▁ba gendeye
ka rengane
si on
li ma
▁ka mwe
gan yije
▁n’u mwaka
▁e qu
▁iki rego
▁imi rire
▁uru kingo
▁f rano
▁jo e
▁iyi twa
▁biba fasha
▁w’ubu curuzi
▁ndi zihiwe
▁azi ze
▁muza gira
▁tuyi senge
fungi we
▁n’aga hinda
▁kavu mu
▁ gore
ba ro
ba jwe
▁ba tangaza
ze we
▁bi twara
▁bi sabwa
▁mu kin
me sha
vu bi
▁ru gero
▁aka to
▁yi shimira
▁ri shingiye
bwi za
▁ban yi
gari je
▁jo ur
▁byi basiye
▁y’umu renge
▁sha ddy
lin gi
▁yin jije
▁zin gana
▁mafi sango
▁a meze
▁a tekereza
ri ko
▁ba zo
▁ba yin
▁ya genewe
▁r yan
vu ta
ti an
▁aba gi
yan ye
▁ha di
▁ama ra
▁ki garagaza
▁ka mpani
▁zi mbabwe
▁wa huje
▁bya fasha
vi a
▁n’aba ba
▁bwa tangiye
▁sa tani
▁rwa baye
▁bata bi
rya mye
▁mo ringa
▁bavuga ko
▁al pha
▁buru gume
▁y’in goboka
▁ju st
▁cha me
▁afri que
ven u
mpan o
▁bare be
bonera ho
sse in
▁yahe mbwe
▁penali ti
p ro
y ri
▁i herutse
▁u ya
▁bi ciro
▁ya kunze
▁gu soho
si tani
▁r yose
▁bu zaba
▁in tanga
▁ama seti
▁ubu genzacyaha
▁zi mu
▁bya cu
▁yi gisha
▁uru n
jya mo
▁n’aba toza
riye mo
▁ata ba
▁kwe reka
▁gute ga
▁nda hiro
siga ranye
▁kun yura
▁muka minega
▁cy’ama shuri
muga yo
▁com ment
▁muti bagirana
▁n’abanya muryango
▁jona than
▁gaso gi
▁korana buhanga
p hine
▁i gwa
▁i koresha
▁i tegura
▁u taba
▁ba gura
▁ba ruwa
ru ganda
▁bi rinda
▁gu fatirwa
wan wa
▁aba kundana
▁n’a bikorera
do u
▁na ryo
▁e li
▁imi yoborere
▁s ona
hin di
kaba hizi
ca ye
ve lo
▁n’in ama
shije ho
lle r
▁rwi gamba
mama re
sengi mana
▁k’ a
▁nki kabahizi
▁mr nd
h ini
▁a lo
▁a koze
ga banuka
▁ba tsinze
▁ba fungiye
▁ya size
▁m yan
▁aba zungu
▁ki du
▁ma kosa
▁ma hia
▁wa sa
▁mi cro
ranga jwe
▁ic yongereza
▁aha gije
ju mbura
▁ye rekeje
▁y’in dege
▁b’i mi
▁v daste
▁nka ho
▁mpan ga
▁bandi tse
shyikiri jwe
▁n’imyi twarire
▁nico de
▁pho to
▁ful gence
ba ho
▁u koresha
▁ba herutse
▁ba vandimwe
▁ya ka
▁mu kozi
wi si
ban dwa
▁aba tara
▁ma hano
hi mba
bere ka
▁kan ye
▁wa hawe
▁e mi
▁imi rwano
▁imi rambo
▁nta mbwe
▁poli tike
mbu tse
▁mo bile
mwi merere
▁li bya
▁ju ve
▁is oni
▁mugi raneza
hereke je
▁guseze ra
▁kubo hora
d d
s la
t sura
▁b yin
▁i hari
ri sha
ya huye
▁u keneye
▁umu hanga
▁gi tekerezo
▁ru geze
▁ubu kana
yobo rwa
▁e me
▁du shaka
▁y’aba kozi
▁bo u
twe re
▁ca lli
van o
▁man ira
▁inda ya
▁ruta bana
▁nke ngero
▁x a
sabi ye
spe l
▁samu el
n zwe
n dwa
p tion
t zig
▁b yumba
▁i gura
▁i jyanye
▁i kwirakwizwa
▁a su
sh wana
▁ba kurikirana
▁ba shumba
▁ba kwiriye
yo ro
▁ya bonaga
▁c ro
▁r t
▁aba bwira
▁gi tuma
▁gi taha
▁ka mu
▁ka banda
▁ibi hingwa
▁tu geze
▁yi fashishije
▁t on
▁ry’ abanyarwanda
▁icyi fuzo
▁bahu rira
▁ina raribonye
▁kore ya
▁abra ham
’ a
▁a zamu
▁a mwi
▁a subira
▁u hita
ge ma
ge yo
yi ko
▁gu pima
ti f
mi we
▁ru pfu
to rs
▁kan yankore
▁aban duye
▁pa si
tin yuka
▁y’aba tutsi
▁y’ubu fatanye
▁uwa mu
van ye
▁y’a furika
▁rwi za
ck y
▁bira goye
lu s
▁fo to
▁ke vin
▁kare geya
▁by’a furika
▁giti fu
▁visi on
▁habi mana
▁k ini
▁u hora
ze n
▁bi fitanye
▁bi kurikira
▁ya tsinda
▁ha tangiye
▁ha vugwa
han e
▁ru shobora
▁n’i mbaraga
▁tu na
▁uru ndi
▁uru gaga
’u bu
▁du sanga
▁aga toki
▁baza kora
▁by’i gihugu
kina ga
▁so mali
▁biru mvikana
▁hazaba ho
▁d’ a
▁ise rukiramuco
▁diyose zi
d ra
▁u e
ye ri
▁m vugo
▁n’ indirimbo
▁mu hire
ro hereza
▁r ca
me jwe
▁umu ha
▁aba saga
yan e
▁ru rimo
hi mbaza
▁imi sozi
mbo ye
man ywa
▁twa hirwa
▁nya yo
▁kubi tsa
▁do mini
▁batu ranye
▁batu ranyi
▁yeme reye
yanga mugayo
▁koro ra
▁hare rimana
▁impe ta
▁impamyabu menyi
▁frano is
b ra
▁u two
ta yu
ha gera
da mu
ti ent
han tu
▁ubu ziranenge
▁kwi garagaza
▁bya zamutse
yin ya
▁za tangiye
▁cya kora
▁n’ubu hinzi
▁bita ga
▁utu ruka
▁kuva mo
▁hu ssein
▁you th
yamba je
▁mpan o
garutse ho
▁kuzu ra
▁jack son
▁pascal ine
s so
▁a kurikiran
▁a rangije
ka mere
yu rwa
▁kwi yamamaza
do siye
▁s co
▁yavuze ko
▁ara tangaza
▁te kini
▁w’u yu
▁fi de
▁twe bwe
▁umuririmbyi kazi
ryohe rwa
juri rira
zza ville
▁anasta se
▁burugume sitiri
n gana
▁i hohoterwa
▁n sanganyamatsiko
re mwa
▁ba zamu
▁ba zanye
▁ba riyeri
▁ku renza
▁bi g
▁bi jya
▁bi korera
▁bi shyu
si tora
ku ta
▁aba turarwanda
he li
▁ama sengesho
▁ka bare
▁im yu
▁n’u tu
▁kan yu
▁kwi hangana
▁wa mbaye
▁na ku
▁na than
▁ra p
ni ck
▁twi zeye
rani ro
▁nka mbi
▁mwu ka
simbu rwa
hindagu rika
▁shei kh
▁rurangi rwa
▁somali a
a c
an ira
▁i bura
▁a seze
▁a fatwa
▁n gomba
▁ba ll
ru sheho
ha bi
bu rg
▁umu genzi
▁y’ abanya
▁ru tunganya
▁zi zi
▁n’aba yi
tera ga
▁w’umu ryango
▁y’umu ntu
▁twi zerimana
▁rwi twa
▁go spel
▁bagi fite
▁K u
s pa
▁u rwanda
sh ywe
ta we
▁mu renzi
he rwe
▁ma sengesho
▁bya teye
yon geye
▁imi shahara
▁imi rima
▁ib ye
▁ban i
▁buri ri
▁re v
▁n’in zobere
▁an ani
kiri ho
▁y’aba kobwa
▁y’umu kobwa
shyin gi
mwa sa
▁fe sti
gendera ho
tumi zwa
giri tse
▁k’i bi
▁inzi tizi
▁mbo nyi
▁ami koro
▁juve nal
o su
▁a gezweho
re bwa
▁ba fasha
▁bi gezweho
▁ya soje
▁bu mu
▁bu jura
▁ki kaza
▁ru gira
du tangarije
▁ka bera
▁ibi korerwa
▁im bwa
▁n’i zo
▁n’i suku
san te
▁igi humbi
▁mi gi
▁tu be
▁yi yongera
’u mu
▁ri shobora
hin a
nga kamere
▁nk’u wa
ji jo
▁n’ama hirwe
▁re gi
▁ho n
▁bite kere
▁de velo
▁baha tuye
▁byi yongera
▁nk’i yo
▁bin jira
▁b’i kipe
▁w’ama shanyarazi
▁kuzi tabira
▁ub wu
▁cy’ama faranga
▁U mu
▁chris tian
▁bagu ze
▁flo yd
ua rd
kubwa bo
g han
r su
▁bi ciye
▁ya bonetse
▁gu sobanura
▁gu shimangira
ro mo
▁umu gabane
hu re
be s
▁ama funguro
▁gi kondo
so be
to je
kin g
▁n’a kazi
▁mi co
▁mi tungo
do uard
ts wa
▁kuba kira
▁n’aba fite
▁aga kingirizo
▁co ge
▁n’ama shanyarazi
oni a
rasi re
▁b’i gihugu
▁kun ganya
▁komi seri
▁bw’umu ryango
pfi riye
▁ue fa
f c
▁ yine
▁a fungiye
▁u koresheje
▁u rwaye
wa cu
▁bi hangano
▁ya gejeje
▁ya funguye
▁r ba
▁in yu
▁ha fatwa
to rwa
do rari
▁aka ru
▁e r
shobo tse
▁pa tient
▁gusa mbanya
shya mi
▁sa i
▁co te
▁yan en
rya mana
shyu shya
▁bakaza jya
▁n’uwa ri
rwana ho
▁kida sanzwe
▁a zana
▁ku boneza
tan ti
hu riza
sa zi
▁gi camunsi
▁ma zina
▁kwi bohora
▁wa ririmbye
cu za
▁y’i cyiciro
ca rubozo
▁um wanda
gere jwe
▁yara yi
▁y’aba gize
▁twi gire
▁rwi haye
▁su pe
▁cye rekezo
▁muha bura
subira mo
▁hakaba ho
▁ibyi ciro
▁mari ne
▁pac cy
▁gusen ywa
▁rute mbe
▁ngorora mubiri
i j
i ki
l ya
x te
▁ gan
▁a sabwa
▁n dan
▁ba meze
gu nge
▁bi jyana
▁ya gerageje
▁bu gera
▁aba ya
ran ywe
▁gi hari
▁ru ban
ke r
▁zi tera
▁zi gomba
▁na je
pe ti
▁f ren
she ge
▁n’aba kunzi
▁bw’ abanyarwanda
menye kanisha
▁aha we
▁n’ubu kerarugendo
▁bwi huse
▁byi bura
▁byi buze
▁cye ra
▁ai me
▁miri ma
generwa bikorwa
haza bu
▁confe deration
▁bitekere zo
ra hi
▁a teganya
ba ka
ba siwe
▁ba tana
yo mo
bo se
▁in du
▁ka buga
twa we
▁kwi kura
▁ni wo
▁bya tanzwe
▁bya vuzwe
▁e d
▁yi genga
▁ri nini
ca fa
koresha ga
▁baga komeza
renga giza
▁kumu bwira
▁ca mp
▁me ga
fungu we
▁n’uru za
▁atu rutse
▁haki yongeraho
zengu rutse
▁ten nis
▁festi val
a vuga
b ri
m fura
▁ shoferi
▁u wera
▁ba hanganye
da shyikirwa
▁ya boneyeho
▁gu kin
▁gu tinda
▁umu sirikare
▁ama guru
▁ka riya
▁ga tera
▁tu rebe
▁bata ha
fata buguzi
▁nda shimira
▁ibya ri
sin gi
▁babi vuga
▁rw’i mi
▁ro bo
▁kuvu rwa
▁bagera geza
▁w’aba turage
nde ra
▁zan yu
▁ser ge
▁ce cafa
▁ibice ri
▁mala wi
▁ji mmy
banzi riza
▁nzabo nimana
c yamamare
ye jana
ko so
yi rizwa
▁umu saza
▁bu r
mo so
mo ur
▁ru hu
▁igi te
▁aban yama
▁mi ster
tanga riza
yobo ka
▁ri gamije
▁je nda
▁se ason
▁aga ruka
▁yara gize
▁ye gukana
▁nk’i yi
▁yakore shejwe
er ry
▁y’in gengo
al d
vugwa ga
▁kiza jya
▁ke retse
▁kuru shinga
▁rw’ubu zima
▁rw’ubu genzacyaha
▁phi li
twere rane
▁calli xte
▁develo p
g inya
i a
▁i funguro
▁u win
▁u huza
mu bwira
ko rano
gi rango
ze rere
bu genewe
▁bi tangwa
▁gu kundwa
ro me
▁ka gabo
ke ro
ke ke
▁twa sanze
▁bakaba sha
mura ge
▁bika bije
▁muka ru
▁nshya shya
▁bw’in dege
▁muru go
▁inyi go
pon g
▁busu wisi
▁fren ch
- a
f re
g m
▁i tandukaniro
▁a jye
▁a tangiye
▁a fungura
▁u heruka
▁ba teye
▁ba fatwa
▁ku beshya
yi sha
▁bi du
▁ya ro
▁ya gaban
▁gu tangwa
vu ge
▁aba she
▁aba sigajwe
he mbe
▁n’u witwa
▁wa kora
▁yi shyura
▁gihe rereye
▁cya we
▁bwa giye
▁n’in gamba
bone ke
▁ye re
▁bw’i banze
▁twi fashishije
▁mwa limu
jira mo
▁ana vuga
▁yasoho tse
▁sal on
▁ikiza mini
▁tur qu
k ristu
n gwa
gi si
▁ba hereye
▁ku yo
ze gukana
▁c sk
▁bu yapani
▁gi fu
▁ka lin
so jwe
▁n’i hazabu
▁kwi ha
▁kwi garurira
▁wa yoboye
▁bya geze
ne rali
▁ib rahi
▁n’aba sirikare
▁za vuye
▁w’i yo
▁w’i cyumweru
▁twa koze
▁baka ya
▁de l
▁y’aba citse
▁yaba bwiye
▁to u
▁y’umu jyi
▁icya tumye
rangi re
▁umunya merika
▁mura sabwa
▁ina ha
▁yatu bwiye
▁kubya za
banji rije
▁develop ment
i ka
i ce
m wan
ba ru
▁bi koresha
▁ya ki
▁mu kora
di ka
▁ha su
▁kan gana
▁igi sigaye
▁wa rangiye
▁tu ti
vi o
▁gihe mbo
▁za tumye
▁po r
▁rwa cu
mbu to
rya yo
▁kumu bona
▁so ma
▁cyi ta
▁uta zi
kungu ka
yandi ka
▁nyira mu
▁bahu ngira
▁cy’ama tegeko
▁lo dge
▁impu guke
▁are na
▁mukan goga
shyikiri je
▁guhe mba
▁inyi gisho
▁tw’i gihugu
▁kur yama
▁rwaga ju
▁uzamu kunda
a rs
p hi
▁bi rangira
▁ya rangiye
si ta
▁r yu
vu giye
▁bu ha
▁in tore
yan dura
▁ama dini
▁ama dolari
tse mba
▁ubu shize
▁ga la
zu kuru
▁s tro
▁ko mine
▁be gukanye
▁biza genda
▁yaha maga
▁kubu rani
▁utu ndi
▁iwa yo
▁ziri ya
▁rwan gombwa
▁aman de
▁bro wn
subu kurwa
▁mpi ta
▁eva riste
▁tpi r
b re
▁n sanga
▁ba reba
▁ba garagaye
▁ya byi
▁ya zanye
▁bu tuma
▁in eza
sa gara
▁gi sanzwe
▁wa byo
do zi
▁iki renge
▁ri gira
▁ri shya
bye meza
▁aga higo
▁ata ha
▁re venu
▁o mar
▁gute gereza
▁g reen
▁di e
▁kugi rira
▁nyama buye
▁uta gira
▁ubwi herero
▁icyi caro
▁iby’ a
▁bon yine
▁y’iki go
▁ruda hunga
ngani zi
▁sar pong
▁mukin do
▁i tegurwa
▁n g
ba kira
▁ya kuye
▁gu sangira
ku ko
de he
▁ha shobora
▁gi tera
gan zo
▁ma ka
to ye
▁igi sirikare
cu ngira
▁iki buga
no ze
riye ho
▁n’ubu renganzira
mbu we
mp le
▁n’im pamvu
▁udu pfukamunwa
tumi wemo
▁gisa ka
rohe je
▁guhagara rira
▁kuran gura
▁isla m
s c
s per
’ aba
▁i pa
▁a tera
▁u bonye
▁gu kubita
ti zo
▁bu hagaze
▁ha ti
▁ama cumbi
▁n’i si
hi ga
san giza
cu pa
zu re
▁kuba mo
▁nta mu
▁by’ akarere
▁ita bi
▁z’u ko
▁ro ho
▁bida tinze
▁ukun zwe
▁cy ber
sti tu
▁yagu ze
▁yica ye
hwe ma
▁asi mbuye
▁ameri ca
in genzi
▁ba kangurira
bi ba
ha guru
te zwa
te mbere
▁bi tandatu
▁ya fata
ro ka
▁ru guru
▁ru gerero
▁e rega
▁ri ca
▁ic yangombwa
sobanu kiwe
▁rya kozwe
tangi we
▁w’umu tekano
▁w’u buraya
▁li fe
▁kuvu gisha
▁gicu ti
▁nk’umu n
▁kwan giza
▁gucu kura
▁n’umun yamakuru
▁noel la
▁ije rekani
▁fide le
▁umu tutsi
▁aba tanga
▁ka bi
▁ubu cukuzi
▁ubu cuti
▁ma kimbirane
le nge
▁na tion
▁hari ho
▁ri maze
▁wi tabiriwe
▁co r
▁bwi sungane
▁ndi mo
▁abanya mu
▁y’igi curi
▁jose e
▁niyon saba
▁z’aba turage
▁agu kunda
▁thi erry
▁chame leone
▁alo ys
f one
an ga
▁a tin
ri ne
za ga
da shi
▁umu shumba
he mba
▁n’i za
▁kwi ma
▁ari zo
▁e douard
▁y’i cyo
men yo
▁n’ubu tumwa
ani ye
▁baga rutse
siga ro
tyo za
▁v en
▁wu juje
▁su gira
▁sta tion
kubi yemo
tsa pp
▁yana vuze
▁isu zu
▁ar gen
▁ura bona
▁guhi ga
▁gucu ranga
hani rwa
▁pas tor
▁qu bec
▁bra zzaville
yabu pfura
▁aust ralia
o ise
x el
▁i gendanwa
▁a zira
ka ta
▁bi shyimbo
▁ya kiriwe
ku zi
ku mwe
▁umu camanza
▁aba shakanye
▁aba senateri
▁ha kozwe
▁ru jya
▁wa hinze
gwa mo
▁ri huza
▁s p
▁s ty
▁n’aba shoramari
▁le one
▁bwa byo
▁rwa bi
▁be mera
▁jean -
▁baba rirwa
▁iba ra
▁n’imi yoborere
▁uka bi
▁ry’u ru
byin nyi
▁pla y
rwana shyaka
▁nyiri zina
▁by’ibi shyimbo
▁w’igi curi
▁mp ana
hume kero
n en
▁a teka
▁a reba
▁a keka
ga s
▁u twa
▁ba ko
▁ba gana
▁ba generwa
▁bi kenewe
▁bi garagazwa
▁mu shobora
▁umu nezero
ti me
▁ru be
▁ibi rego
▁kwi yandikisha
▁mi sigaro
▁tu gira
▁y’i yo
▁cya hoze
▁ta ble
▁w’i kinyamakuru
▁o bed
zamu ye
▁yan duye
ni or
guru be
▁yaba jijwe
tangi zwa
st one
▁y’umu co
▁cyi lima
taba riza
▁mwa mi
▁mba raga
▁kuzi rikana
▁k’u kuboza
▁uni que
▁U bu
▁maso mo
▁kama buye
l k
w ca
▁ku garu
▁ya turutse
▁gu si
ho re
▁ka manzi
▁zi gira
▁kwi yu
▁bya fashwe
▁imi banire
▁ri zwi
▁je n
▁n’aba pfakazi
▁po p
▁bata gi
▁de o
▁baga hita
▁vi p
▁byi tezwe
▁al ine
▁y’umu nsi
▁haba ga
▁man zi
▁uba rizwa
▁kuzi gama
▁w’a gateganyo
▁by’umu ganda
▁mwe ne
▁muti jima
▁ste ve
▁turqu oise
g re
▁a korana
▁ba hitamo
▁ku yinywa
▁bi hari
▁ya ran
▁mu gambi
sa be
▁ha zi
▁ha kwiye
▁ha bereye
fa cebook
▁ki el
▁ka bone
▁ka rangwa
▁cyan gugu
▁na vuga
▁na koze
▁y’u b
▁yi twara
▁ja df
▁bajya ga
maga zine
▁en ter
▁ab du
▁bon geye
▁ani ta
▁tombo la
hangayiki shijwe
▁wuba tse
▁que en
▁sindi kubwabo
dashi an
e ssa
f fi
t wan
▁ riki
ra h
▁a ran
▁a kin
▁a tyo
ga ju
▁ba fatanya
▁ba korewe
gu tse
bu hamya
▁bi zamu
▁ya tuma
▁mu curuzi
▁mu zungu
ku li
▁umu yaga
ban tu
▁in garagu
▁ka ruko
on gera
▁ri genga
▁nk ana
▁nya mwasa
▁nti ri
▁wi tabiriye
▁d c
▁re ro
▁aha kana
▁bara cya
fo romo
▁guha tana
▁y’ama tegeko
▁ye nda
▁kwa mamara
▁biza fasha
kinira ga
ven tus
▁fran ce
▁lu c
▁chan tal
lya yo
c r
▁i korana
▁i sesengura
▁a di
▁u be
▁ba kira
▁ba fashwa
▁bi reba
▁bi shingiye
▁ya mwi
▁gu taramira
▁aba mi
▁aba gororwa
▁ma ry
kan ira
▁ga si
▁wa vu
gera ga
▁nde rere
mbi rwa
pa tanti
▁du sin
gere ranyo
▁pa ci
▁bara maze
▁baka ha
▁ara shaka
▁nda gukunda
▁kubi vuga
▁nyama swa
▁yabi garutseho
▁b’i yi
nde ri
▁ub wonko
▁nk’a ya
▁kwica ra
▁y’uru pfu
▁n’ubwi tabire
▁isan duku
▁gite ga
▁igitu tu
a ho
f en
▁i rusha
▁a van
▁u menye
ye ro
▁ku gurishwa
ro hera
▁bu ki
▁bu mvise
▁in goro
▁aba habwa
▁ru gomba
▁ru ju
yin di
▁ban yuze
kwi ta
▁n’in tara
el ine
▁te ch
mwi jima
▁bin yamakuru
▁gushyira mo
▁uka bije
▁em my
▁ziza komeza
▁by’umu biri
▁chris tine
▁ruku mbi
▁k’ama faranga
▁kar dashian
▁ahani shwa
▁u kurikije
▁u sengimana
sh wanwa
▁ba garaga
zi ryayo
▁bi kan
me dical
hu ko
be at
de s
▁ha shyizweho
fa ri
▁ibi s
▁ga ta
▁bya mamare
▁aka rengane
▁y’i ri
▁n’aba turanyi
▁j -ki
▁aga habwa
▁d cor
▁mpu ngenge
▁fa tizo
▁al phonse
er ra
▁batu riye
▁pro sper
▁w’ubu shoferi
▁bari fuza
▁kuru huka
▁y wca
▁patri ots
▁ac tis
shyiki rano
▁nimu goroba
▁don ald
▁mode m
▁ntawu kuli
▁abakunda kawa
▁indanga gaciro
▁ngara mbe
▁rutembe sa
▁karuko go
▁nderere he
▁j-ki d
▁ntawukuli lyayo
h wanye
i le
▁a p
mu rirwa
▁ku gendera
ge ranye
yi sumbuye
▁bi curuzwa
▁ya tunguye
▁r pa
▁umu jinya
▁bu gezweho
mi koro
he ranwa
▁ru ti
▁zi je
▁zi shyirwa
fu rije
▁bya we
▁bya turutse
▁bya garutsweho
▁nta zi
nga yire
▁bwa tanzwe
▁co up
▁ata mu
gura ga
▁baka gera
▁be me
rd c
▁yu hi
▁biza bera
▁cy’ama zi
▁agera geza
▁koro hereza
▁kwivu riza
t ney
v ani
▁i to
▁ku taba
te n
yo bera
▁bi vuye
▁mu pen
ku mva
▁bu roko
▁aba hutu
yan si
▁gi tanga
▁ma gen
fi que
mba rwa
▁bya za
▁bya maze
ne w
zu muremyi
▁e to
▁iki remwa
yon yine
ca ption
▁cya tanzwe
▁w’i shyaka
▁se con
▁buri ho
▁kwe gereza
▁bo ro
mwi ca
shyin gurwa
kubi twa
▁au di
▁b’in zego
▁buba tse
ron gera
▁myi twarire
▁yifuza ga
myu ga
▁kabu rimbo
▁G u
▁gushyin gura
▁magen du
j ama
▁i twaye
▁u koze
▁ba zana
gu zwe
▁ku rira
▁m bonye
ki mana
▁umu ga
▁bu jumbura
sa l
▁ama de
hi mbye
gen dwa
▁cyan jye
▁kwi rebera
▁mi to
▁ni shimwe
▁kuba hirizwa
shin gwa
▁nta yo
▁bw’ aka
▁ta y
▁le on
▁mini sante
▁bite ro
▁be rekeje
▁y’aba zize
pr c
▁hi ciwe
cya ro
▁ibya bo
▁yaha garitse
sirika ri
▁w’ama faranga
hagara riwe
▁ju ventus
garu riye
▁mar ce
myi dagaduro
▁lu anda
mar tin
▁inzi butso
▁oba ma
magazine com
z zo
▁b oni
▁b lu
▁u tuma
mu nezero
▁umu toni
vu n
▁in de
▁ha tari
▁ama banga
▁ama karita
▁ki ru
▁ki gera
▁ru bi
▁ibi sasu
▁ibi huha
▁n’i mvu
gara ra
▁kwi hanganira
▁na mba
▁bya gezweho
▁aka ga
▁e -
▁yi yahuye
ren t
▁d y
▁cy’i minsi
▁kwe mezwa
▁aza bi
▁bw’i koranabuhanga
▁man ywa
▁wan ge
herere kane
fatwa ga
▁bigo ranye
▁ti me
shishika rije
▁A ba
▁visi t
▁gutu nga
▁ii i
▁van essa
▁produ cer
▁ruban gura
m wo
t ra
▁ tanu
▁i zamuka
▁n tekereza
▁ba ck
▁ba rushaho
▁bi koreshwa
▁bi ziyaremye
▁r gb
▁ubu jurire
▁zi zwi
▁kwi ye
▁wa vuye
su suru
▁y’u rugendo
▁tu kiri
yon ga
ren ganya
▁s on
pa ti
▁du ha
▁du koresha
▁d ja
▁re ma
▁bwi shyura
▁nku si
▁bika mu
twi kira
kubi swe
sta u
▁guhu rira
▁nge we
▁ikubi yemo
▁kuran dura
▁mpana byaha
a rd
r ra
▁i sengesho
▁ba cika
▁bi gisha
▁ya tangijwe
▁ya byaye
▁ya vaga
▁mu ho
▁mu gezi
▁gu i
▁r yiza
▁umu maro
▁bu shoboka
▁in tare
▁ha vu
hi ri
▁kwi sobanura
▁wa maze
▁na o
▁y’i mbere
▁f m
▁yara maze
▁bwi hariye
▁me ghan
rin g
▁cyi hariye
▁yaha garitswe
▁min ani
kode sha
l on
▁u gana
ma tegeko
▁ba buze
▁ba shimye
tu ku
▁bi va
▁bi hagaze
▁ya kundaga
▁m bon
▁mu gomba
ro za
ku geza
▁umu kecuru
be ye
▁bu jyanye
gan je
▁ma te
▁n’i modoka
▁wa tangijwe
tara boneka
▁co o
▁n’ubu taka
▁fa rdc
▁babi tangaje
▁cyi caro
rani jwe
▁nyira ma
▁kare mera
▁iby’i mi
gendan ye
▁bike kwa
▁kibu ngo
d we
f fe
m v
r m
▁a rt
▁n shobora
▁u habwa
▁u rangira
▁ba jyanwa
bu ri
▁m va
▁in stitu
▁in tyoza
sha kishwa
▁ru to
▁n’i z
▁zi twa
▁ni mwe
▁y’i soko
▁uru jya
▁t ri
▁je nerali
byi bu
▁twa maze
▁bata bona
▁baha ranira
▁nda shaka
▁mba ru
▁indi mi
▁ryi tabiriwe
▁nyira yo
▁n’im pan
▁bida kwiye
▁at m
▁martin twitter
▁instagram martin
▁victo ry
▁bire bana
▁bibu mbiye
▁promoter facebook
▁promoterfacebook munezero
l g
▁a cibwa
wa ri
▁ba bo
▁ba sura
▁ya mbara
▁umu seke
▁gi fasha
▁ka cyi
▁kwi yahura
▁wa zo
▁y’i ryo
shu ra
▁za je
▁za tanzwe
man ye
▁w’i byo
▁w’i tegeko
▁w’i cyamamare
▁n’umu hungu
▁bwa je
▁re b
▁aha sanzwe
▁bwi gunge
▁z’i gi
▁b’ abanyamahanga
▁kure kurwa
▁ja son
mpi ke
▁witwa ye
▁la bora
▁amu saba
▁cla ris
▁kwan girika
▁inko ko
▁muhanzi kazi
kon je
▁gatu na
cunga mari
▁gaho ngayire
▁wha tsapp
▁akaru sho
u x
u mwe
▁i teye
▁i yoboye
▁k waka
ba baza
▁u tangira
gu kanywe
te zweho
▁ya hita
▁ya tangajwe
▁ya ririmbye
ki yeho
▁umu turanyi
▁umu genzuzi
yu ranyo
▁gi lbert
▁ma cye
▁im vaho
▁n’u mwami
twa raga
▁kwi ra
▁ari ri
▁e ddy
▁uru jijo
▁f in
▁cya tsinzwe
▁pa ra
▁n’in dege
por ts
▁z’i terambere
▁ro ck
riwe mo
bin jira
▁kaba rore
▁w ine
tumi za
shinjwa ga
▁gusu bu
▁kimi sagara
ringi ro
▁nicode m
b yamamare
d c
z y
▁ sh
▁b yuba
▁i prc
ri pt
ko za
gi fite
▁ba kura
▁ba komeze
▁ba kongera
gu zanyo
▁ku ngu
▁ya garuka
▁ya beraga
▁in kiko
he nda
▁ama gara
▁kan wa
▁kwi murira
ci e
▁nya mi
▁pe tro
▁bwa rwo
ji zwa
fo rd
▁y’ubu yobozi
▁gute mbera
▁nk’ abanyarwanda
▁iyi cwa
▁iyi carubozo
van gura
▁babi zi
▁do siye
▁kugi rwa
ywe ye
rani sha
lan ge
▁hu riro
kundi ro
▁sy l
▁banya muryango
▁huba kwa
▁yamenye sheje
i ti
▁i meze
▁i shingiro
▁i gorofa
▁ba cururiza
bo ur
▁bi komoka
▁bi tangazamakuru
▁mu gongo
▁c p
▁gu tungu
▁gu hererekanya
▁bu re
li an
▁ru giye
▁ma guru
▁wa geze
▁mi banire
▁bya hise
ne l
vi ze
vi deo
▁uru muri
▁n’aba curuzi
rira ho
▁twa tangiye
▁n’ama jwi
▁y’aba tarengeje
▁te ta
▁w’umu kino
▁bin ini
▁n’uru ganda
▁byo herezwa
▁kuta bona
seke je
▁B a
▁ndayi saba
line s
▁y’aka zi
▁spe ars
stau ran
a ha
g s
▁a soza
▁k m
▁n kan
ba mwe
▁ba zira
▁ba dege
ru na
▁bi je
▁ya rimo
▁gu tabara
▁in sengero
▁ha shyirwaho
shi mwa
▁ma riya
▁im fa
▁rwanda magazinecom
to ri
to tsi
▁kwi shyira
hugu we
▁tu ha
▁tu tara
ci shije
mbi tswe
▁aga sanga
▁rwa we
mbu kiranya
▁de bora
▁aza komeza
▁bw’i yi
▁di ddy
com men
▁bake ka
▁guta bwa
▁ruza jya
▁ntu za
▁by’aba turage
▁bri tney
▁guseze rana
▁on u
▁promo tors
▁yabu riye
▁melo dy
▁rw’iki renga
▁dieudon n
▁scien ces
▁domini que
g ba
t to
▁ shop
an t
ra s
▁i tsindwa
▁a kurikirwa
▁ba ganga
▁ku byina
bu no
▁m yumvire
▁mu tzig
se tattribute
ki shije
vu riro
ban yarwanda
hu riweho
▁in d
▁gi ta
tse tattribute
▁im fungwa
▁n’i sa
▁zi kunze
▁zi shingiye
twa rwa
▁ga spa
▁wa menya
▁kuba tera
▁yi ganjemo
▁ri komeza
▁twa vuze
ve s
▁nti garagazwa
▁aha bereye
one li
▁yara giye
aban ye
▁be meje
ine s
ngi ro
▁bamu saba
▁gutanga zwa
▁mwa ri
garu gori
▁aki gera
▁of f
ven tion
▁inda bo
▁nze yimana
▁fre e
▁flo ri
▁documentgetelementbyid commen
▁documentgetelementbyidcommen tsetattribute
▁i ye
▁i gu
▁i duka
▁a pfa
▁u garagaza
gi e
gi ta
▁ba siganwa
ru me
▁bi garagaje
▁ya fashije
▁mu bu
▁gu shima
▁umu fasha
ran da
▁ru zinduko
▁kwi huta
sho ro
▁ni ck
▁yi tegura
▁y’i shuri
▁du sanzwe
subi re
subi rwaho
shwa ga
▁jo ro
▁byi twa
▁byi fashishwa
van ze
▁so lange
▁sha mi
▁y’in zego
kiye mo
rirwa ho
wandi kiye
boneka mo
▁yin jira
▁izaba fasha
zihi zwa
▁miri yari
▁n’ibyi ciro
▁rwabu gili
▁valen s
▁sona tube
▁kini gi
▁sty le
▁tay lor
a ce
▁b yumvi
▁a kandi
ri lla
▁ba shyirwa
▁ku rwego
▁ku gezwa
te sha
▁bi fatanyije
▁ya sa
▁ya kora
▁mu gabe
▁mu dende
se r
▁gu sobanu
si si
▁umu vugabutumwa
▁umu sifuzi
ho mba
ban i
▁aba kerarugendo
▁ama rira
▁ki rwa
▁ubu su
▁ubu ranga
gan zwa
▁n’i soko
hi gwa
▁wa ga
▁wa gombaga
▁yi yongereye
▁y’i bya
kana ma
▁sa le
▁sa rongo
▁si yansi
▁bata we
▁yara tangiye
▁yara tanze
▁z’u ku
▁w’umu ntu
▁kure ra
won gere
▁uwi zeye
▁uwi zeyimana
▁cy’u ru
▁ju les
▁imyi garagambyo
rwan ye
▁en g
▁n’ubwi canyi
▁rw’umu ziki
▁gusin ya
▁mbu mbe
▁gaspa rd
b yan
c hari
i yi
p s
▁i gezweho
▁a bura
▁a bone
re bye
▁ba bya
tu ka
▁bi rwa
▁mu rwayi
▁c yamaze
▁in do
▁aba rimo
▁ru hagaze
▁ma ku
▁zi tanga
▁zi hari
▁zi hanganye
▁kwi tonda
▁na bonaga
shin ya
▁yi basiye
▁ri korera
▁nk’u ru
▁nya byo
▁nti zi
▁wi l
▁co lo
▁n’ama guru
▁n’ama soko
▁rwe ru
▁baga sanga
▁ye ar
▁ca re
▁byi shimo
fuza ga
rt h
▁ro ss
bon an
▁ubwa we
lla h
▁byu zuye
▁bun ini
▁rwaka tiye
▁dro nes
▁ly ce
▁debora h
j an
▁i go
▁a kere
▁a size
▁a jyanwa
ga je
▁u toza
gi zwa
▁ba shinja
▁ba zin
ru ke
yi ginya
▁ya ciye
▁m vu
▁c ri
▁c li
ro ha
ku mira
▁umu gozi
▁in spe
▁in yenyeri
▁aba je
▁aba giye
▁ki biri
▁ma di
▁ma jyambere
▁w’ ejo
▁zi fasha
▁zi fata
▁n’u wi
▁wa ke
su biri
▁y’u wo
▁tu vuga
▁ri gena
▁ib yan
▁cya kozwe
ndi ro
kuriki rane
▁o ka
▁yan i
▁be be
pan gu
▁kumu baza
zan wa
▁mpu nzi
bira yi
▁ira mutse
▁yatangaje ko
▁w’ubu mwe
▁z’a manywa
yamama riza
▁umura ge
▁gen o
▁bina gwaho
▁col onel
▁mp yisi
▁bigaraga rira
▁seka mana
▁swi ft
▁basobanu riwe
b intu
▁ hanga
▁i fu
ya gize
bu ke
▁ya riri
▁ya tsindiye
▁m yenda
▁umu gani
vu gururwa
tan wa
ti rira
be merera
▁ama hame
mwe reka
▁zi ki
▁kwi heba
▁aban yonzi
▁kuba gezaho
▁tu n
▁bwa mi
▁co rona
yeme rere
▁bara ya
▁bata hu
▁bo o
▁yaha bwaga
▁y’in teko
▁n’imi rimo
▁ne retse
▁tura shaka
wandi kira
tangiza ga
▁bizaba fasha
▁by’ibi komoka
▁tw’ u
▁rure rure
juri riye
▁sho w
▁inyo ta
▁kwihan gira
▁scho ol
▁isuzu ma
▁intyoza com
▁kacyi ru
▁ shyamba
▁i koze
▁n gamije
▁u rya
mu rika
ko pi
▁ba reka
za ma
ka pu
▁ya gira
▁ya sigaye
▁ya koreraga
▁mu zuka
▁gu kurura
▁bu basha
▁in gero
shi sha
▁ru korwa
▁ibi sheke
wo od
▁zi ze
▁zi koresha
▁kwi shyurwa
▁bya shize
▁iki vi
mbo go
▁t mc
▁du ke
▁wi hariye
▁bara ha
sobanu rwa
▁kin yejana
▁yandi ka
▁ur w’
▁bihe nze
▁iga re
▁cy’in genzi
ven ture
bibu tse
▁z’in korano
▁nga bi
▁hata gira
▁uruhu shya
▁kina zi
▁guine a
▁vie ws
g he
s yi
z q
z zi
▁ gerageza
▁i banza
▁ba ca
▁bi komeza
▁bi gari
▁ya ko
▁ya shinzwe
hu rura
▁in c
han ze
▁ga biro
▁ga kabije
aba ma
▁za chari
▁w’i shuri
▁n’umu kinnyi
gana ga
▁n’ama gambo
ani ro
nge rwa
▁yan nick
▁z’ abantu
fo toza
▁yo we
guri shije
▁ro ber
▁uza bera
▁no heli
▁z’ama hanga
▁z’ama shanyarazi
▁bate gura
▁ada kwiye
vo r
▁ry’ubu rezi
▁guhu meka
▁ubwe negihugu
▁ibira ro
▁gite rane
▁akan tu
kongo ro
▁cn lg
▁bayin gana
▁i ho
▁a pfuye
▁u menya
bi tyo
tu ri
▁bi zumuremyi
▁mu l
se kuru
▁gu takaza
▁bu ti
▁bu garagara
de ra
▁gi twari
▁n’i y’
▁mi biri
do cument
tanga ga
▁iki bi
▁iki rori
▁uru sengero
▁s onia
▁f ri
la si
▁umun yama
▁du tu
▁n’ubu ba
▁baka me
▁uku menya
▁iza hita
▁yaba haye
▁ugu shaka
mya biri
▁pro gram
▁go rilla
▁cy’ubu rwayi
shishika rizwa
▁gukura mo
▁richard muhaburarw
tho ri
▁nyir ’i
▁rwaga sana
cun cu
▁twagira mungu
koman goma
▁afro beat
yri u
▁d’a mour
▁zachari e
l ter
s tu
▁ F
▁i ku
▁ba we
▁ba tiri
▁ba vutse
ha ha
▁bu t
li a
han ye
▁ka geyo
▁zi vuye
▁igi ze
vi s
▁y’i zuba
▁imi satsi
mbi kwa
▁by’ abanyarwanda
▁cya yi
▁ry’ akarere
▁se nderi
▁n’umu bare
tege kimana
▁po st
▁d ra
▁we a
▁rwa yo
▁cy’i hungabana
▁n’ibi ganiro
▁aza hura
▁y’aba kinnyi
▁rya baye
▁yaba jije
▁kumu fasha
▁me dia
▁babi shaka
▁con vention
▁ubwi sanzure
▁kuvu rirwa
al ing
▁ndi ku
▁kun gana
zani ye
▁ry’umu jyi
▁kuzi fata
vo ma
▁umura va
▁ch ri
sese kaye
▁umunyarwanda kazi
▁com mon
▁kara ma
zamutse ho
▁byeme jwe
▁cent ra
▁asso cia
▁way ne
▁secon da
▁maku myabiri
c hu
z inga
▁i teganyijwe
▁i phone
mu riwe
▁ba kurikiranyweho
▁ku bwe
ta lo
yo r
▁ya bona
ro w
▁umu kunda
▁bu horaho
▁ama gaju
▁n’i mvura
▁igi koresho
▁iki banza
shu ka
▁rwa je
menye ra
▁n’ama zu
▁re stauran
▁n’ibi za
▁de ni
▁yo hani
▁hi rindwa
▁n’ib in
seze reye
▁ahan ganye
▁yu mvikana
▁nk’i gihugu
▁me r
yuba tse
▁none se
▁nk’umu kinnyi
▁by’in dashyikirwa
▁ntibi zongere
▁z’a bana
shishika jwe
▁bwiza com
mure mye
▁bubi ko
jugu nya
ringi yimana
▁ikina mico
▁pon ce
tain ment
▁davi do
▁ahaza za
▁bio medical
▁table t
▁inspe ctor
c yongereza
d -
u bira
’ ama
▁ ter
▁i bera
▁a ro
▁a shyirwa
▁a shyiraho
ba hiriza
▁u k
▁u kwa
▁u gizwe
▁ba funzwe
gu rika
▁ku gaban
▁bi ryo
▁gu hindu
▁gu shimisha
ro s
vu gisha
▁bu sin
▁bu meze
yan ja
▁n’i hungabana
▁zi tu
▁na hise
▁nta ri
gere ranywa
▁n’umu twe
ji ji
▁n’ubu menyi
ina l
▁rya shyizwe
▁z’u ru
kwe mera
▁kwa ri
▁byi huse
▁bw’i si
▁ry’i cyorezo
▁ika gera
▁iba fasha
▁baki riye
▁fo ot
▁iya muremye
▁nza ra
▁cy’ubu zima
▁n’ubwi korezi
▁kwiba sirwa
▁z’in dege
▁rw’umu vunyi
▁rw’u yu
▁bica ye
▁milli on
▁yate ranye
▁nge so
▁ig na
▁kata uti
▁myan zuro
▁dja bel
0 0
f in
f er
k y
▁i shyirwaho
▁u komeje
ge rweho
ha mijwe
▁bi habwa
▁bi pimo
▁bi fashisha
▁gu kaza
▁gu pfobya
▁umu ru
▁umu sozi
▁in ya
▁aba sivili
mi sozi
▁ha tegekimana
▁gi tego
▁ki gizwe
▁ka m
▁ubu rari
kin shasa
▁n’i cyerekezo
hi twa
▁n’a yisumbuye
▁zi hagarara
sho meri
▁wa shinze
▁bya rangiye
▁tu gize
kora ho
▁ri giye
▁ic yiza
garaga rira
▁za tuma
▁za kunzwe
▁twa gerageje
▁sa lo
▁d ji
▁aha magarira
ani rana
▁aza za
ja min
▁nda bona
kunga haye
▁ubwi genge
shyize mo
lan de
▁izi gera
▁au thori
▁umunya muryango
banutse ho
▁cou nt
▁ibrahi m
xel les
O T
e d
g in
r ye
▁i tangiye
▁n twari
▁ba rya
▁ba bwiye
we alth
da ri
▁bi ran
▁bi tangaje
▁bi gizwe
▁bi shimishije
▁c te
▁umu te
▁aba fashwe
▁aba tegura
▁gi kongoro
▁ibi ba
▁ibi cu
gan nye
to ranyijwe
▁igi songa
▁wa tsinze
▁wa bonaga
▁kuba sha
men yana
▁n’aba gize
▁cya tuma
shaka mo
▁aga fata
▁bwa tangaje
▁bata yo
▁rya ba
▁hi ll
▁mwa ra
bin yabuzima
▁abanya mideli
▁nka we
▁nan ge
sen yuka
▁kayi tesi
▁ry’aba ririmbyi
▁k’ aba
▁bun yuranyije
▁air lines
date no
▁zibi shinzwe
▁ah ly
shon je
▁bea ch
mpin duka
himba zamu
▁oka pi
- u
an g
▁i tunganya
▁i shuli
▁n yo
gu nga
▁bi hana
▁bi sese
▁ya herukaga
▁mu ma
go ranye
ban que
▁aba huye
▁mi rwano
▁ni mwiza
▁ri garagaza
▁n’aba shinzwe
▁cya giye
▁se c
ubu sanzwe
▁po pu
▁re pu
▁n’ubu shake
▁bata gomba
▁baza habwa
▁baha gaze
▁ibikorwa remezo
▁hi t
▁byi hariye
▁babi kunda
▁so cial
▁by’u bwi
ken ya
koreshwa ga
▁y’ibi he
▁w’aba depite
▁by’in tambara
genzu rwa
▁b’aba rundi
hungaban yije
▁bw’umu ntu
▁kw’ ama
tali yani
rk s
▁hato we
sesengu zi
▁phi lbert
▁thi s
▁yagera ga
▁nyiraba hire
▁authori ty
u ro
▁ ’i
▁a tangazwa
▁ba polisi
▁ba koreye
▁bi gu
▁m yambaro
▁mu singa
▁gu sana
▁aba hoze
▁aba rwanyi
▁ama ba
▁gi teye
▁gi hamya
▁rwanda ’
hi riye
▁cyan ditse
▁kwi shima
▁ga shinzwe
▁ari ya
▁e du
▁t ro
▁ta ba
▁du keneye
▁w’i cyayi
▁ko ra
▁co ol
▁rw’ abantu
▁umwe te
▁cy’i mari
ton go
▁vi ta
▁ye gereye
▁ahu ra
▁yu juje
▁ca mera
▁kwa mbuka
pfu nyi
▁bw’i kipe
▁li be
▁yaha mijwe
ganira ho
▁bin jiye
▁con ne
taba za
can ga
▁da i
▁by’ubu kungu
▁tuza komeza
▁ibin yamakuru
▁ibyi fuzo
▁k’i mi
▁cy’aba tarengeje
▁urugo mo
hinze mo
▁gusin yisha
hagarara ho
▁bw’iki go
sivi le
pfi ra
▁by’uru mogi
▁claris se
c ka
s ts
u nd
▁i gabanya
▁u je
ma e
ta yeho
▁ya tinze
se tsa
se suye
▁gu kurikira
▁umu fana
▁bu gomba
▁in keke
▁ha menyekane
▁gi sigaye
▁gi rma
▁ki gomba
▁im pfubyi
▁p an
▁mi paka
ama foto
▁ko meza
▁sa hara
kwa vu
▁w’umu hungu
▁li ck
▁ika gira
lle n
▁ugu kunda
gende rwaho
▁su dan
▁pro fe
▁ry’aba tutsi
▁umunya mideli
▁bitegan ywa
▁guse sa
▁she ki
abanya furika
▁y’iki rere
▁ruda higwa
▁yato mboye
▁icyari mwe
▁enter tainment
▁abdu l
0 2
w umu
▁a k
▁u tera
wa wa
▁ba size
bu zi
▁bi haye
▁bi hano
▁ya wo
▁ya kanguriye
ki jwe
▁gu kini
si bo
di re
▁umu byara
▁umu rundi
ti sh
hu mure
▁aba ru
▁aba jya
▁ama hano
▁ki zwi
▁ki beho
▁ubu genzuzi
▁kan kindi
▁ga ko
▁wa shaka
▁wa bonetse
▁wa yoboraga
▁ni ryo
▁bya korewe
▁kuba ra
▁yi ru
▁imi tako
▁ri zi
▁nta ganda
▁n’aba fasha
▁pe ace
▁nti ru
▁re sitora
▁o swa
▁bite ze
▁iza gwa
▁jo jo
▁jo bs
▁nda bi
ll in
▁al -
▁di re
▁rwi rangira
▁cy’u yu
▁ben jamin
▁muka mu
▁bida shoboka
▁ntibi shoboka
▁san t
koro ni
▁bakunda ga
▁bri tish
▁guseze rera
▁sena teri
lien ne
▁jr me
mpama gaye
▁urun ana
▁emi le
▁tekini ke
▁dc mp
▁paci fique
▁mbaru shimana
▁common wealth
t ty
▁ teri
▁a rushaho
ga juru
re bana
▁ba sanganywe
▁ku bwi
▁ku ranga
▁ku bangamira
▁ya genze
▁ya kiniye
▁mu so
ki bi
▁umu kandida
ti je
▁bu sha
▁bu tanga
▁aba bo
▁aba motari
han an
▁gi komeza
▁ru garagara
▁ru gwiro
▁ka buza
▁ma gufu
▁im yuka
▁im vano
gen zo
▁zi tangwa
fu zwa
▁wa tangije
▁tu bibutse
ren te
▁aga shya
▁nti bira
▁we merewe
▁re ij
kuriki zwa
▁aha hoze
▁yara koze
▁y’aba fana
▁y’ama dorali
▁n’ib y’
▁ca s
▁to tal
▁w’u rwego
▁di sp
▁icya teye
▁biba baje
zere we
▁n’igi kombe
▁tura bi
rongo ra
▁ana ba
▁N ta
▁bashaka ga
▁koro shya
▁gra tien
▁w’uru byiruko
▁kabe ruka
▁ntiha gire
▁bisese ro
▁reij nen
b yanga
e ing
v nal
▁ yose
ri zo
▁n tebe
re kurwa
▁ba hera
yi ka
tu bwira
▁ya ganiriye
▁ya gombye
▁ki mu
▁ru kingo
▁ma banki
▁zi tara
▁wa ka
▁mi cungire
▁na tional
▁na shakaga
▁f ro
▁je rome
byi zi
shya ri
▁nti ki
▁bwa fashe
▁n’in gendo
▁bata shye
▁an nan
fatan we
▁be l
▁y’ama tora
▁yaba sha
▁gute ma
▁vi o
pan ye
▁bin gana
▁bin jiza
▁biga tera
▁tura saba
▁abanya rubavu
▁by’in yama
vo gera
▁bar wana
▁byan yu
cyu ho
simbu za
▁umwami kazi
▁H a
▁ntiyi geze
▁yama ganye
▁stro mae
lasi tiki
▁foot ball
himbazamu syi
- in
▁ L
▁i kozwe
▁a kwi
▁a tsinda
▁k el
ko pf
▁ba rana
▁bi buka
▁bi huza
▁mu kwi
▁mu reka
di te
ti l
▁aba shakashatsi
▁aba biligi
sa ro
fi siye
▁n’u kwezi
le mpike
▁yi haye
▁w’i cyo
▁pa ki
▁bita za
▁be lla
▁l abama
▁yakore shwaga
rin ho
▁fi ri
guri re
shora mo
▁ju vnal
▁uga shi
▁ivuga butumwa
roko keye
▁bida subirwaho
▁N a
tri ce
▁byara tangajwe
▁pi c
lly wood
▁isa ac
▁basa bose
▁clau dine
▁zin jije
sangan we
▁byeme zwa
▁don na
shisho zi
▁sano fi
senye ra
▁gifu mba
▁nyiramu hire
▁ruju gira
▁ross kopf
t ina
▁a toza
▁a kunze
▁a ction
▁u sigaye
gi raneza
▁ba shinjwa
▁ba kinnye
ka ho
▁bi hu
▁bi jyanwa
▁bi dufasha
▁m el
▁mu hima
▁gu fa
ti e
ti co
▁aba tegetsi
shi me
▁gi tarama
▁ka zungu
▁ubu tunzi
▁p lc
▁bya tanze
su huka
la ce
▁cya mu
▁cya garagaye
kira mo
▁ata zongera
menye sheje
▁n’ama shusho
▁aha zwi
▁baka genda
ina h
▁be rekanye
▁rya cu
st ri
▁by’i yi
pfu sha
siga rana
▁so l
▁con ce
can da
▁rw’i gi
▁fe lix
▁ubwa tsi
▁imyi rondoro
▁ry’aba turage
▁zuba tse
▁lon don
▁ribi vuga
▁umunye zamu
▁johan nes
▁hasu we
▁nao mie
▁associa tion
c ine
u pe
▁i fitiye
▁n genga
▁u tanga
▁u garagara
ye r
gi mbi
ru ya
▁ku vana
▁ku bonera
▁ya go
▁ya shyira
▁c yobo
▁gu pa
▁gu kiza
▁gu cibwa
▁gu kosora
▁gu shidikanya
mi de
▁ha gira
▁ka buye
ke nga
▁ma ga
▁ma shini
▁ma dosiye
▁n’u du
▁mi terere
▁bya garagajwe
▁j on
▁ko l
▁rwa shyiriweho
▁n’ubu sanzwe
▁ho pe
mbu ga
fatan ywe
▁bo eing
▁mo shi
zan e
▁fa i
▁di p
▁uba ld
▁n’uru toki
▁ntibi vuze
▁ntibi geze
▁bato ranyijwe
▁I n
tte n
▁itu manaho
▁ihe nze
▁guseze rerwa
▁ure be
▁byana tumye
▁nsan zaba
▁tw’i misozi
▁kha li
▁yanen ze
- zo
- kinshasa
n je
v ota
▁b cr
ya remye
zi bera
bi koze
yi gisho
tu mira
▁ya wu
▁ya ganiraga
▁ya shinjwaga
▁mu kotanyi
▁gu shyikirizwa
▁umu tesi
▁aba ra
sa ku
▁gi hanwa
▁ru zin
▁ubu he
zo ka
▁zi on
▁kwi rwanaho
▁ni zeyimana
▁e ta
▁uru zinduko
▁ib yu
pa wundi
▁n’aba vuga
▁se zibera
▁nk’u mwe
▁bwa ho
▁bwa to
▁bwa koze
pi tal
▁bata ru
▁uku boko
ni a
▁y’ama horo
▁ye guye
▁by’i banze
reke ra
▁bira vugwa
▁bagera geje
▁yon gereye
▁b’u bu
nde reza
▁tuza jya
rema re
▁R w
▁mala riya
▁guto rwa
▁ake kwaho
▁mutu elle
▁inyo ko
▁confe rence
▁rw f
▁ubure mere
▁kam banda
i gi
y m
▁b y
▁i renze
▁a ze
▁a shi
▁n sa
▁ba so
▁ba do
▁ba twara
▁ku ndi
yi ha
tu gu
tu gal
▁ya si
▁ya shishikarije
▁gu risha
hu ngira
li que
▁gi ha
▁gi canda
▁ru keneye
▁kwi fashishwa
▁mi tuwe
▁bya kwi
▁bya bonetse
riki rwa
ca m
▁aga saba
▁nya mvu
subi kwa
▁guha garikwa
▁y’ama saha
▁uwa mahoro
rd s
▁ahu ye
▁g rand
kina mico
▁bw’i myumbati
▁fi l
▁fe st
▁w’ubu tegetsi
▁muka rwe
▁by’ama teka
▁ziza fasha
tumi re
▁bagi rana
yamba za
bangami we
yisi lamu
▁kabu hariwe
▁kalin ganire
▁e- mail
▁busin gye
d ji
g ru
n yu
s ina
▁i v
▁ku ntu
▁ku yobya
▁ku nguka
te ranya
▁c yongereza
▁gu hugura
▁umu sa
▁umu depite
▁bu s
▁in kingi
▁ha gize
▁gi fata
▁ki baye
▁wa gira
▁wa guriwe
shin g
rere kana
vi ye
▁z on
biri za
hin giraga
▁za ma
▁aga the
bya rira
▁jeno cide
▁bita bo
pan talo
▁jo ye
▁yu mvise
▁kwa bo
▁ibya tangajwe
sin gwa
▁y’in go
▁bamu guriye
ste m
▁biri ho
▁ken zo
komoka ho
▁haza korwa
▁n’uru pfu
tanzani ya
▁bahu je
▁iby’ umu
▁inda shyikirwa
▁bw’umu jyi
▁john son
▁naba bwira
▁numva ga
▁ndu mva
▁gusu kura
▁n’ikin tu
▁ste ven
▁nk’iki yobyabwenge
▁hare bwe
▁uri ho
▁mumu tashye
▁mukaba dege
▁yunze mo
▁colle ge
▁serbi an
▁imyu ga
▁gasi gwa
pati te
▁oswa ld
▁mureka tete
y rwa
▁i p
▁a fashe
▁a cumbi
▁ku nyi
▁ya shoboraga
▁ya sobanuriye
▁ya sabaga
▁ya tunguwe
▁gu hunga
▁gu simbura
me rwa
▁bu cukuzi
▁in kwi
yu mu
ran zi
▁ama bere
to ma
kin we
kin yarwanda
▁wa bona
zu yemo
▁yi shyu
▁yi fuje
mbo ra
▁s pa
▁n’aba hungu
ngu ru
▁za baga
umu ro
▁w’i cyizere
▁co me
▁po wer
▁n’ama tungo
▁re s
riza mo
▁cy’i myumbati
▁bo cka
ton ze
▁bw’i bihugu
▁batu bwira
▁kuza hura
▁rw’i binyabuzima
▁kubu za
gende keye
▁w’ama gru
▁y’ibi humbi
tonde ra
▁ada shaka
terwa ga
▁azi ya
▁ar row
yumvi sha
▁impu hwe
▁umura ma
▁at pr
▁mura mbi
▁ry’ubu hanzi
▁K i
▁guhu ngira
▁bahi ge
▁safa li
keka ga
▁rira she
▁app li
▁ngi rente
▁bw’iki rere
▁nte ziryayo
▁wor ship
▁nzaba korana
byu tse
ati an
▁kumvi kanisha
▁taxi -
▁sop yrwa
▁william s
▁umuga birwa
▁diddy -zo
▁ponce use
▁nyamvu mba
▁bocka rie
e ber
f ranga
▁a ruko
▁k y
ri o
▁n ana
▁u hari
▁ba byaranye
ru lo
▁ku zenguruka
ge zo
te c
▁ya tandukanye
▁mu ku
se l
▁c inema
▁umu ka
▁umu vandimwe
▁bu ze
▁in yoni
ran ge
▁ki genda
▁ru kaza
▁ma to
▁ma buye
▁n’i tegeko
▁ga sozi
▁igi ti
▁wa hise
▁aban gavu
▁y’u kwezi
yobo rwaga
▁tu ru
▁ri gi
mbi we
▁ic a
▁ry’ abantu
▁aga shaka
▁wi yemeje
▁n’ubu hanga
mbu nda
koze ho
▁de rulo
here we
▁y’aba kuru
▁gute mbere
▁ara ra
▁he n
▁do g
rin ganiye
▁n’imi twe
▁su de
tore rwa
bon gereza
poro so
▁mwa ba
▁guta hura
rwan i
▁aku bwira
▁hara cyari
▁kara te
▁pu bli
ziba girana
▁ndanga murage
▁gusiga sira
▁nzaba mwita
fri ca
▁zite mewe
▁mani shimwe
▁bute mewe
▁n’utu ndi
▁gala xy
▁institu te
▁imfa shanyo
▁Rw OT
▁joye use
i e
t v
▁b yongera
▁b ona
▁a bereye
▁a muha
▁a shima
▁u s
▁u fasha
▁ba tan
▁bi ku
▁ya torewe
▁mu shaka
▁mu sana
▁mu fuka
▁gu kwirakwira
▁gu subizwa
ho rana
ho rera
hu ngiro
▁ru shya
▁ka renge
▁ibi gwi
▁ubu rozi
▁ma shanyarazi
▁ma raso
▁ma remare
to ranywa
le i
▁bya fashe
su ka
ren da
▁n’aba polisi
▁gusa tira
▁han di
shimi shwa
▁bara ra
kwa ga
▁kwe ra
▁ikin wa
▁ati ’’
aban yamakuru
▁w’umu gore
▁bin yu
▁b’i ki
▁iba rizwa
▁uta za
▁iha me
▁su pt
▁uwi ringiyimana
siye ti
▁bada shobora
▁iti shoboye
▁of fi
▁bye rekeranye
▁umwa mbaro
▁U yu
▁ibin yoma
▁bw’ama faranga
▁waba ga
▁z’ubu yobozi
▁bon gera
gabe kazi
▁bumva ga
▁uha ranira
hamaga ye
kanda ra
▁lon d
▁kwishyu za
shisho za
▁ball on
▁coge banque
bour g
▁madi ba
▁count ry
- con
c ra
g ri
i mi
m pamvu
z z
▁ ver
▁b r
▁a do
▁u fata
▁ba l
▁ba ze
▁ba twaye
▁ba mbuka
▁mu reke
▁mu ganza
ki ya
ki gali
▁r wuba
▁umu kiriya
▁umu singi
▁ubu twari
kin giye
▁n’i kindi
▁ga z
▁wa fashe
zu ki
▁e vo
▁ri gomba
▁ri gezweho
▁nta re
▁aga hora
pi misha
▁uku bera
tiri rwa
▁bite za
▁guha mwa
▁abi kora
▁ita liki
▁te re
▁yo hereje
▁ca sh
▁me d
▁bw’i gi
▁cyi mana
▁ira ba
▁icu mbi
▁yon gere
▁bw’u ko
▁kiza za
che lles
ndu tse
▁nyan ge
▁ida fite
rangwa mo
▁kira zira
▁igera gezwa
▁kuha gera
▁ishinga mategeko
rohe we
▁pu lasitiki
▁bahe mbwa
▁b’umu pira
▁mou rinho
dende zo
▁kabare be
▁chri st
▁deni se
▁umuru ngi
▁kel ly
r wi
▁b pr
▁k ristu
▁n giro
▁u hura
▁ba shimiye
▁ba shyizwe
da li
yi de
▁ya takaje
▁umu zi
▁bu na
▁in girakamaro
▁ama te
tse ho
▁ka rimo
▁im fura
so viye
▁n’i joro
▁n’i gare
▁zi kunzwe
▁cyan ika
▁wa kunze
do ws
▁e si
umu gore
▁n’umu tima
▁sa ba
shimi shijwe
bwe ho
lo gy
subi rana
▁aza tangira
▁mo hame
seze ranye
tekere ze
win jira
▁ry’i mari
▁batu tsi
yuba kire
▁wu mve
tegu rira
tegan yi
▁n’uru hare
▁ubwa mi
roko ye
▁isu gi
tel li
▁nk’a bo
shishi kari
▁and r
▁niyon senga
▁babona ga
▁ingo rane
▁nke ya
▁ai d
▁for bes
▁ethiopi e
tele fone
▁christophe r
fri que
huri ranye
▁dy lan
▁evo de
n yura
v on
’ in
▁ ren
▁i ranga
▁i rinde
▁a gen
▁a ve
▁a teye
▁a zenguruka
▁n twa
▁n kingi
▁u kana
▁ba beshya
▁ba shoye
▁ya funzwe
▁ya geneye
▁ya suraga
▁mu sha
se bya
▁c yana
si te
tan ywe
▁ha komeje
▁ama banki
▁ibi bi
▁n’i kawa
▁w’ indirimbo
▁mi zi
▁na yi
▁n’aba tari
▁n’aba gororwa
▁se y
▁nti bazi
kuriki ranya
▁n’ubu shinjacyaha
fo yide
tin ganyi
ju rira
▁aza gera
▁bo bi
▁z’i mari
guye mo
sin ya
▁kenya tta
▁ti foyide
▁ntiba bi
sta r
▁ura mutse
▁b’aba biligi
▁buba kiwe
▁ababa zwa
▁kuga ba
▁ubura kari
▁gro upe
▁ivu gururwa
mina ri
▁ububi ko
▁twuba ka
▁argen tine
▁ikiremwa muntu
c ke
c aniro
i jwe
▁i pfu
▁a twaye
▁a fitiye
▁a teganyijwe
▁n sanzwe
▁u vuze
mu tungo
ye nzi
▁ba c
▁ba renze
▁ba shinze
bi tsi
ha kanye
ha magara
ha guruka
bu ja
▁bi she
▁bi tunguranye
▁ya shin
ki a
▁umu cyo
▁bu teye
▁aba gizi
he za
li za
▁ama hitamo
▁ama herezo
▁gi hangayikishije
▁ru gera
so mye
▁n’i y’i
kan ywa
▁ga fite
▁ga tanya
▁mi lan
▁bya du
▁bya komeje
▁imi bu
▁ri shyira
▁n’aba rimu
▁za maze
▁cya hariwe
▁mun i
co me
▁w’i terabwoba
▁twa yi
▁aga ta
▁aga tanga
▁si erra
lo te
▁o cam
mbu riwe
▁baza tsinda
▁aza koreshwa
▁bamwe reka
▁ita za
▁y’ubu mwe
▁te mple
▁nda saba
▁ibya kozwe
▁nk’i zi
▁nk’i mi
▁ika zi
▁ntara makuru
▁wan ditse
▁bika jya
▁ubwa cu
▁nk’umu hanzi
▁N one
▁y’imi deli
▁bri ga
▁n’imyi dagaduro
▁cho gm
▁mushiki wabo
cece ka
▁mikoro be
▁kidu mu
▁lyce e
▁seconda ire
▁libe ria
▁lond res
▁mohame d
i kindi
▁a mba
▁n geri
ba bi
▁u saba
▁u twite
▁ku be
bi a
bu jijwe
▁bi shimirwa
▁gu cyura
▁r ss
ti ranya
▁bu zi
▁bu tangaje
▁aba ga
▁ha mi
he ru
▁ama rozi
▁ama segonda
▁gi kuru
▁ru komeje
▁ibi du
▁ibi tanda
▁ma dini
hi we
sho je
▁mi cye
▁ri tu
men ywa
▁n’aba hinzi
▁n’aba sohoka
▁um wo
▁cya bonetse
kwi za
gere ranyije
▁twa fashe
ve st
▁rwa bonye
kere je
▁y’ubu menyi
▁ara za
▁kumu fata
▁byi mbitse
▁mwi jima
▁pro je
▁bari mu
ndu ra
▁byaba ga
▁iby’ aba
▁rd f
▁guso mana
yumvi se
▁cy’umu tekano
▁gukorera mo
▁ubusa be
▁kurya mana
▁are ruya
▁b’in tara
▁kongo -kinshasa
▁mada gas
▁com mi
baba ro
▁bare bye
▁yaseze rewe
▁y’ubwi shingizi
▁it sura
toro tse
▁bama ranye
roro kere
▁hati tawe
▁kwima kaza
▁nsanzaba ganwa
▁madagas car
l ina
▁ shyo
▁i hana
▁a menye
▁n sengu
▁ba twite
ge rs
▁bi shize
▁bi buga
▁ya simbu
▁mu zaba
▁gu fu
▁gu sengera
ro ra
de e
▁ha pfa
▁gi kora
▁gi kunze
ke za
▁zi ti
▁zi gendanwa
▁wa ryo
▁na tangiye
▁aka muha
▁ri tara
▁n’aba mu
▁w’i mi
▁wi yi
▁ata jya
▁n’ama shyamba
▁n’in kumi
▁bita baye
▁baha mya
▁y’ubu kwe
▁y’ubu tayu
gami jwe
▁kubi kuza
▁byi fashe
▁ry’i mikino
▁iba rura
▁haba mo
▁nku mva
▁man de
che l
▁ako ngera
ly ne
▁umunani ro
vana mo
▁bon go
▁batara menyekana
tro s
▁sebu tege
▁ton zi
▁umuha te
▁supe refe
▁coo perative
- mu
A N
u d
▁i yari
▁ba yoboye
ka myo
gu ta
bu kije
▁ya vuga
▁ya mamaye
▁mu te
go s
go ba
han ganisha
▁ma ria
▁w’ abanyeshuri
mba bazi
▁kwi ruka
▁bya banje
▁bya garagaraga
▁y’i myuga
ca ga
▁ata basha
▁aha saga
▁an yuranye
▁yara baye
mbu re
el d
▁bo herejwe
▁abi ta
▁uburyo he
▁yo ur
▁b’ akarere
▁w’u bwi
▁w’u mwana
▁kure kura
▁nku ranga
▁w’ama gare
▁k’u kwakira
▁n’im insi
yumvi ro
▁z’a moko
▁ibiro metero
▁by’umu tekano
▁ayi sumbuye
▁ubusa mbanyi
▁maso siyete
▁biru nga
▁kimi hurura
▁ivu riro
▁fla vor
▁bigi rimana
▁can cer
▁camero on
▁won yine
▁kigali- huye
▁nel son
▁phili ppe
▁johannes burg
▁sey chelles
▁rss b
▁ ’’’
▁i wan
▁a genewe
▁k risto
▁k wongera
▁u fatwa
▁ba mara
▁ba tinya
▁ku ne
▁ku mena
ha to
tu za
▁ya pfiriye
▁m yambarire
si gira
me ranya
▁aba rangije
de ngakamere
▁gi terwa
▁ibi ta
▁ma koperative
▁zi kwiye
▁zi renze
▁wa r
▁ari wo
▁bya wo
▁yi banda
▁yi boneye
▁uru sobe
▁ri fasha
▁ri sanzwe
▁um va
▁twa kwi
▁nti bin
▁wi ca
▁rwa tangaje
▁n’ama torero
▁n’ama bwiriza
korera mo
▁yan aniwe
▁n’ibi hano
win gira
▁by’i hungabana
▁byi ringiro
▁buru se
▁biba gora
▁ira cyari
▁n’imi gabane
▁w’ama raso
tegu re
▁ju nior
mban e
suzu misha
▁by’ama jyambere
▁muza hura
mpan uka
▁umwi herero
▁guhi sha
dri ne
▁muke curu
▁yumva ga
ar ti
▁bri g
▁nte ziyaremye
▁desi gn
▁xa vier
▁kungu rana
▁nsengu muremyi
d da
i f
u ri
▁i reba
▁a kundwa
▁n tumwa
▁u rangwa
▁ba zan
▁ba menya
▁ku gerwaho
ta mo
tu ro
▁bi rushaho
▁bi sobanurwa
▁m vuga
▁m bonera
▁gu kinwa
▁gu komeretsa
▁gu shyushya
ro id
▁umu ta
▁umu kene
hu r
▁aba shyitsi
mi riza
▁ha sanzwe
▁ha tangwa
▁ha kurikiyeho
▁ha dutse
he ne
▁ama kenga
▁ka zwi
▁ubu ri
▁ma sasu
to rera
▁zi yi
▁zi banze
▁wa ru
▁wa ho
▁wa pfa
▁bya shoboka
▁kuba bara
▁iki guzi
ci le
▁ri shyiraho
▁n’aba tara
▁ban ye
▁twa kira
yeme reye
▁ho ld
mbu ke
guru kira
rd le
▁y’umu riro
▁kure ma
▁y’a ga
▁y’in ka
▁y’in yungu
▁bwe rekanye
▁ju di
▁go ld
▁bw’u yu
▁iby’ u
▁ruta mu
▁ibin yujije
▁batari shyurwa
▁bire bire
jugu n
▁sop hia
▁kiru ndo
▁yowe ri
c b
v c
▁ J
▁i du
▁i sabwa
▁a tsinze
▁a kwiriye
▁n kin
▁u tangiye
gi shi
▁ba twi
▁ba korerwa
▁ku jyanwa
▁ku bwirwa
▁ku rokoka
▁ya garagazaga
▁ya shyikirijwe
▁gu twi
ro es
▁r n
vu rwa
▁aba fasha
de tte
▁gi rdle
▁ki renga
▁ru kara
▁ru vogera
▁ka ka
▁ibi komoka
▁ubu taha
▁ubu gome
▁kwi hugura
▁mi ba
fite ho
▁tu ganira
▁za ka
▁za hagaritse
▁du korana
▁n’umu vugizi
pi mwa
▁aha gaze
▁n’ubu curuzi
lo tte
▁ikin yuranyo
▁spor tif
▁n’ib yumba
rd in
hindu we
▁so siyeti
▁ry’i gi
▁ry’i yi
▁batu nguwe
▁ro sa
▁uza bona
garuka ho
▁bura mbye
vo ka
▁yamu bajije
▁nka jya
▁by’ubu taka
▁ci vi
▁bw’aba tutsi
▁char lotte
▁kuzu zanya
tya zo
▁mbo gamizi
▁rure mesha
raba hizi
dayi moni
▁imvu ruru
▁n’isa bune
▁gusobanu rirwa
▁wil son
▁girdle stone
e z
▁a fungwa
▁n d
▁n ye
ya zana
▁u teye
▁u zegukana
ma i
▁ba tangije
▁bi zamuka
▁ya se
▁mu hungu
▁c ul
▁umu rwa
▁umu geni
be shaho
▁bu hanzi
▁in gwate
yu zwa
mi c
▁ibi ganza
▁ma l
▁ma shyaka
▁n’a biri
▁zi himbaza
▁wa bonye
▁wa gizwe
▁mi gabane
▁ni ha
▁bya gendaga
▁cya bi
▁pa rk
▁wi th
▁ata yi
▁bata mu
▁o lempike
▁yan dura
subi ze
▁be re
▁rya shyizweho
twara mo
siga je
▁rwi yemeje
▁bamu ha
▁b’i gitsina
soho kana
▁cye rekana
▁bika rangira
▁bari ho
▁uda shobora
pho nes
▁yavu giye
▁ahi shakiye
▁A riko
▁mwe nda
▁biru huko
▁z’ubu vuzi
▁K o
▁char ly
▁kayon ga
▁w’ibi ro
▁ahe mbwa
▁nico las
▁imp umuro
▁melo die
▁nzo zi
▁olympi que
▁mega wa
byibu ho
zama shyirahamwe
b y’
i cyo
▁b yanditse
▁i ro
▁i gere
▁a vuze
▁k di
ba hirije
ye rn
▁ba hanga
▁ba kenera
zi rikana
▁ya shinze
▁m bili
▁mu he
si e
▁umu nota
▁umu kiliya
▁umu dendezo
▁bu giye
fa ce
▁zi rwanira
▁ni tu
▁ni zeye
’u ko
▁ic y’i
▁se vota
▁twa je
▁nya kuri
▁po int
ani ranye
▁an non
mbe jwe
▁ho llywood
▁yara tangaje
▁baza bi
▁baha ye
▁y’ubu taka
▁gute gurwa
▁vi sa
▁uwa ba
▁hi rwa
▁ika zaba
▁cyi tabiriwe
▁kuza kira
▁bin yobwa
gene kereje
▁yabi koze
▁biga banuka
▁kuvu ka
ingo ma
wandi ko
herere yemo
▁dore ko
▁k’u yu
▁udu koko
▁vu mbi
▁uni on
hungaban yiriza
▁kuya fata
hagari kwa
▁kw’ a
▁mpa puro
▁inzi ka
▁agi fite
cia ta
tandukan ywa
▁ziha mye
rci sse
habi mana
▁indu ru
▁nation a
▁mupen zi
▁muso zo
▁bona venture
a gira
f lo
s pora
▁i kurikira
▁a shoboye
▁u reba
mu ru
gi rire
▁ba san
ge murira
bu kwa
▁bi tangira
▁ya zanywe
▁ya teraga
▁m banza
▁mu gihugu
▁umu shakashatsi
▁umu ganura
▁bu habwa
▁aba kene
▁ha m
li me
▁ka gere
▁ibi sanzwe
gan we
▁ma saka
▁zi korwa
▁wa ya
▁bya ranze
▁y’u bwoko
▁tu gera
▁yi fatanyije
▁yi huta
vi riye
▁ri re
▁f inal
▁by’ abantu
ca mo
▁n’aba citse
▁za hawe
tandu ra
▁n’umu ririmbyi
▁ra chi
tege tswe
▁nti rwa
▁bo b
▁he mejwe
▁baba jijwe
▁kwa mbura
▁biza tangira
▁batu jwe
gisha kishwa
nd we
shyigi kirwa
▁kayi rebwa
▁dia spora
▁ingo rabahizi
▁gusha kwa
▁bizaba girira
▁she ma
mail com
▁rw’ubu jurire
▁badu tangarije
▁tuyi shimire
▁mari nes
fungi rwa
▁yasin yi
-ki gali
▁byatuma ga
▁bou tros
▁cli p
▁firi me
▁annon ciata
- cro
a rt
n wa
n ganya
p pa
▁b yemezo
ra i
▁i shyize
▁i turuka
▁i peti
▁a tangaje
▁a gire
▁a byemeza
ga gi
▁u nd
▁u shingiye
▁u tegerejwe
mu kiye
▁ba yobora
▁ba fashije
▁ba fatanyabikorwa
▁ba bwiwe
▁ku bwo
▁ku twi
bi kira
ha tanira
▁bi bera
▁bi shanga
▁mu vuduko
▁gu tin
▁umu yoboro
vu yo
hu meka
▁bu tunguranye
▁aba fatabuguzi
▁ha fi
▁gi ft
▁zi gi
▁n’u shinzwe
▁n’u kuntu
gara riwe
▁kwi siga
▁ga san
▁wa ll
▁ni fuza
su s
▁kuba geraho
jya ho
▁s tan
wu lo
▁ko herezwa
▁aga pfukamunwa
▁wi ze
▁co ll
pi lote
▁cy’i yi
▁baza jye
▁rya bereye
zan de
▁bwi shingizi
▁l an
▁twi teguye
▁iha mye
▁bada kwiye
▁abanya merika
lan ce
▁b’u buzima
▁nyaga sani
▁z’aba faransa
▁guse tsa
▁gen til
▁mura ma
▁cle ment
▁buka vu
▁kumenye ra
▁w’umun si
hamaga rira
▁nyaka tsi
▁ikan zu
▁E se
▁equ i
lingi yimana
a kaba
e ba
m po
▁a y’
▁n cu
▁u w’i
▁u kwiriye
▁ba suraga
▁ya gwaga
▁ya muhaye
▁ya byaranye
▁mu ganda
▁mu tungo
▁gu kenera
ku mbura
▁umu gongo
vu na
ti as
▁bu bo
▁bu mvikanye
▁ha kaza
rwa y
han ira
▁gi kwiye
▁ki bo
▁ibi kubiye
▁ma kuza
▁p ra
▁kan jon
▁wa pfuye
▁wa hize
▁mi tima
▁mi soro
▁e st
▁iki gero
▁y’i minota
ci yemo
▁nta bi
▁n’aba gizi
▁n’aba rundi
byi mba
▁bwa kwira
▁d ona
▁n’ama cakubiri
▁bara hungiye
▁an yuze
▁z’ abanyarwanda
guru kiye
▁baga shobora
ton gera
▁y’ubu kode
▁kuri ri
▁kumu gora
▁ca li
ss ing
sore shwa
▁zo u
▁uwi lingiyimana
▁pro line
▁gato ya
▁nyira habimana
tekereza ga
yura mo
▁inzira karengane
▁bimu saba
▁rura mira
cumbi kiye
▁ite mewe
▁uha mye
▁bw’a bana
▁nyaka banda
▁iman zi
▁diyose ze
▁rwin kwavu
▁salon go
▁magufu li
soviye ti
▁amba ssa
▁kanjon go
n ani
q i
ga r
▁ba ge
▁ba tangarije
ka ma
▁ku mera
▁bi si
ki rira
go rwa
▁umu hire
▁bu tangaza
▁bu sitani
▁in kingo
▁aba re
ran gingo
li mi
▁ru tara
▁ma yor
▁n’i mpinduka
hi shwa
▁kwi ya
▁kwi hagararaho
▁na gize
cu mura
▁kuba gwa
garaga ze
po loma
umu yobozi
▁n’umu kozi
▁we ma
▁aha tanira
▁n’in go
lo c
▁o lo
subi rwamo
▁yara bashije
kere ra
▁guha guruka
▁baga fata
▁baga tangira
▁abi rabura
▁gute re
▁ye rekeye
▁jo lly
▁kubi jyanye
▁by’i si
▁yu nganira
▁to go
▁babi bonye
▁kin ya
rangi rire
▁rwi gema
▁y’in kunga
▁by’u rukundo
▁uza huza
▁y’ibi ganiro
goro ra
▁kumwe reka
▁yamu bwiye
bunga bu
▁by’ama zi
▁waba shije
lari ty
▁she lter
▁nyaru tarama
▁kita gomba
▁abu nganira
▁kwandi kira
▁saint -
ziba cyuho
▁albert muhaburarw
▁erne stine
▁barcel one
▁imp yiko
▁wita bye
▁ubure bure
▁yatangira ga
▁kuburani shwa
▁bigizwe mo
▁popu larity
▁kol oneli
▁fai sal
▁rachi d
- rwanda
j ani
▁ O
▁i vi
▁a hereye
▁k han
ri nze
ba giza
▁ba hunga
▁ba mbara
▁ba depite
▁ku nga
▁bi kwiriye
▁bi dukikije
▁ya yoboye
▁aba ki
▁aba terankunga
▁y’ abandi
he sheje
li ta
▁ki lo
▁ki rori
▁ki ruhuko
▁n’i mbaga
fi tiwe
▁n’a bu
gen je
▁kwi rukanwa
▁igi sobanuro
▁aban je
▁mi ra
▁mi mi
▁bya hawe
▁imi jyi
▁s mi
va r
ca s
▁za kwi
▁za baye
▁ko ga
▁ko rari
▁aga henge
▁sa wa
▁co sta
▁igihe mbwe
▁n’in ka
▁o u
▁uku mu
mbere ye
▁baza fatanya
▁iza tsinda
▁baha ti
▁baha maga
▁y’ama kipe
▁yaba bajwe
▁yo herezwa
▁nda vuga
▁yu nga
▁to tten
▁byi ganjemo
▁b’i byamamare
▁uba jije
▁utu ntu
▁muka ma
▁turi fuza
▁atu bwira
▁lo s
sen yutse
▁abo rozi
▁san drine
▁at le
▁are be
the rs
▁new s
▁gusu rwa
▁ababi kora
▁ahe nshi
kemu ke
▁n’impu guke
▁prince ss
▁y’ib yumweru
▁jour nal
▁por tugal
▁ndiku mana
▁musana bera
shishikari jwe
m yumvire
▁a kundana
▁u kan
zi ho
yo be
▁bi ll
▁ya kurikiwe
▁mu jyanama
▁gu sobanurira
▁r yemera
ho teri
▁aba generwabikorwa
mi bu
mi rije
▁ha kusan
▁ha runa
▁ama zamu
▁ama modoka
▁im fu
▁n’a mwe
▁zi kiri
▁zi taba
gera gezo
cu mi
▁bya gombaga
▁bya vugwaga
▁ri ga
▁gihe ruka
byi za
▁pa wulo
▁wi gisha
▁akaba sha
▁n’ubu twererane
▁n’in gano
nge ye
jyan we
▁n’ibi ra
▁iza fasha
▁iza sohoka
▁abi mukira
▁vi tal
cya fite
cya mbwe
▁byi tabiriye
▁y’a manyarwanda
▁no rway
▁kuyi rwanya
▁wo rks
▁w’aba zungu
▁cla ver
▁ryi sumbuye
shyigi kiwe
▁bato we
rwan go
gwi ra
tegere ze
▁badu ha
▁theo s
▁ac p
▁nsan za
▁babana ga
▁ikiri yo
▁ut c
ghe ni
▁conce rt
▁miba mbwe
a rez
n yamabanga
o re
o va
▁i pantalo
▁a pa
▁a kura
▁a menya
▁k w
▁k nc
▁n ba
▁n tangi
mu ye
mu bayeho
re m
in tara
▁ba rangiza
▁ba shima
ha va
bo ka
▁bi sobanuro
▁ya zamu
▁mu kiriya
▁c yubahiro
▁gu cana
si giti
ti que
▁bu cye
yan duye
▁ha genda
▁ka rera
ke mera
▁n’i shoramari
▁wa ma
▁wa tewe
▁bya tu
▁bya genda
▁e z
▁e gy
▁y’i koranabuhanga
▁imi gambi
▁imi tekerereze
▁uru kuta
shu bije
▁cya zamutse
▁du fatanyije
▁twa ha
▁n’umu tungo
ve stre
▁nti yeme
pi ri
▁rwa teye
▁re a
▁aza kora
▁y’aba hungu
▁yo hereza
▁he roes
sin du
hindu rwa
▁so vu
ruko za
▁yaha mije
▁yeme jwe
▁atari geze
▁bira babaje
▁utu bari
▁wo herejwe
▁kigo ma
▁bura van
▁bada shaka
▁ntiba vuga
mban ira
▁z’umu ryango
sen ywe
▁guta hu
▁inko ngi
▁mura koze
▁sin gita
▁b’in geri
muri tswe
▁zita za
▁nyabi sindu
▁nga gi
▁itu ze
▁lou ise
▁w’umunya merika
ziga mye
▁serbi a
▁k’ibi yaga
▁labora twari
▁med die
▁proje ct
d re
o s
▁a gurisha
re gura
ko rwe
▁ba shyinguwe
▁ku gendana
ha hira
da s
tu je
▁ya huriye
▁mu ko
▁mu shahara
▁c ine
▁c dr
▁gu shyami
si zwe
di tswe
▁umu zamu
▁aba kize
sa r
li mana
▁ru herereye
▁ka te
▁ubu muntu
so myi
kin gira
▁n’a ha
▁w’ abanya
▁zi gize
▁zi rindwi
▁n’u r
▁ga horo
▁tu tari
ren gwa
▁ri baye
▁t win
▁t wandi
▁cya genewe
▁se mu
▁twa kora
▁si l
▁rwa kiriye
▁yara shwe
▁baga hitamo
shyu za
pan ga
▁he he
zuba ka
▁kubi geraho
▁z’i bihugu
▁z’i sukari
▁ibya gezweho
siga re
gaban yije
▁b’i yo
▁n’imi terere
fun d
▁bika gera
garu ke
▁fo re
vo id
▁as mara
▁mar k
▁bye rekeye
sen ywa
basha kira
▁bw’in koko
bibu tsa
▁buba ka
wuba ka
▁mazi mpaka
▁gutu za
▁kwitwara rika
▁bw’a furika
▁yaseze reye
▁karu banda
▁miche lle
▁kum wanya
▁mpi mbano
▁inge mwe
gili kani
▁sala am
damu tsa
▁cor po
▁marce llin
▁rober to
▁dip loma
b yumweru
f an
k risto
m fasha
p y
▁ tan
▁ shyira
▁b yangombwa
▁i sho
▁i rangira
▁i funga
▁i y’i
▁a mani
ri ti
▁u tegura
▁u zongera
▁ba d
▁ba rwanya
gu saba
ru mva
▁ku te
ge ka
▁bi shira
▁bi kurura
▁ya sabwe
▁m dr
▁mu rekezi
▁c mi
▁r an
▁umu fuka
▁in diri
ran we
shi rijwe
li m
▁gi hu
▁ka kaba
▁ka rengane
▁ibi garagaza
▁ubu da
▁ubu shinwa
▁ma gara
▁im yambarire
hi mbano
▁kwi cungira
su mo
ne ye
▁y’i modoka
▁s ky
shu shanya
la y
▁du shya
▁se giteri
diri shya
▁n’in yamaswa
▁baha mwe
▁baha geze
▁jo el
renga gije
▁nk’i zindi
▁icya korwa
▁wu han
▁su arez
gizi mana
▁ro ma
▁ro sine
▁uza sanga
▁ju lienne
garu kira
▁muka mira
▁nk’umu toza
▁ti to
▁h tt
▁azi tabira
▁iby’ in
▁mar ley
▁inda twan
▁guso ra
kuba kira
sanzu ye
▁san dra
▁bw’in dengakamere
▁buta bera
gra tias
tira mibu
con o
▁ababi shinzwe
▁guhe sha
▁uyi rwaye
▁kub yumva
▁n’e jo
▁yato we
▁peti te
gejejwe ho
▁ikini ga
▁pic twitter
i ture
m me
m ble
▁i gerageza
▁a korwa
▁a tanze
▁a sohoka
▁n diri
▁n tangira
mu nd
▁ba kani
▁ba zongera
ge yeho
te nde
tu yemo
bu mbira
▁bi rande
▁ya tangiriye
▁mu giye
▁mu toni
▁mu gheni
▁gu siba
▁in vest
▁aba shobora
▁aba cururiza
sa mbanyi
▁gi hango
▁ki rangira
▁ru nda
▁ru korera
▁ru kiri
▁ibi lometero
▁im ani
hi gi
▁zi yongera
▁zi dan
▁kwi rukana
▁kwi cisha
▁mi yoborere
▁ni bin
▁bya hungabanyije
▁aka byi
▁tu ya
▁tu ne
▁e pfo
▁yi ba
▁imi higo
ryo zwa
▁s we
▁s to
▁s ini
▁nta b
kaba baro
▁cya teye
▁ban yamakuru
▁ban yuzemo
byi fuza
▁pa m
▁twa hisemo
▁aga tangira
▁bwa baga
▁wi yongereye
▁rwa ma
▁rwa gezeho
▁n’ubu vuzi
▁ara pfa
▁he aling
▁w’umu co
▁kubi ca
▁y’umu kuru
▁nko kora
▁nyi ran
son go
▁baki ga
kwira kwiye
▁go od
bin jiriza
▁kiza mini
▁inzu ki
▁yana boneyeho
▁ub wongereza
▁au rore
▁bato ye
▁rw’aba kinnyi
▁un r
▁bw’in zego
▁ab ’i
simbu zwa
ar c
▁tho dore
▁yiga ga
▁abayi silamu
▁munyan damutsa
▁yaseze ye
▁bamwi she
▁fla sh
kanda gira
▁yasin ye
▁ah med
▁kitara gera
▁kuro ta
▁cy’ubwi canyi
▁lau rent
▁ntimu za
▁murika gurisha
▁communi ty
▁intanga rugero
▁centra frique
▁restauran t
▁maga zine
▁atle tico
rukoza soni
i byo
r yama
t -
▁i rwanya
▁a girwa
▁n kiri
▁u kunze
▁u twaye
▁u kekwaho
ma th
ha t
ha go
bu mu
▁ya kubise
▁gu tsemba
si kana
▁umu zungu
ti mes
▁bu to
▁aba mo
▁ama yeri
▁ki gira
▁ru gi
▁ru shaka
▁p in
▁n’u mwuka
▁wa shing
▁na kwi
cu ra
▁ni mi
▁bya garagaje
zu mva
pe tu
▁yi yemerera
▁ri komeje
▁cya geze
byi shimiye
▁se petu
ubu yobozi
▁bwa mu
gani rwa
▁si byo
▁re my
▁o pera
▁bita zongera
▁an yu
kwa bu
▁kwe ge
sobanu we
▁y’aba tabazi
▁bo r
▁te s
▁jo lie
kura mbere
cya komeza
ss on
▁nk’i gihe
▁n’imi kino
▁bazi tabira
▁baki mara
▁bwe nge
▁kuzi ba
▁bati shimiye
ly se
cwa ga
▁y’uru kiko
▁I mana
▁k’ in
▁nk’ubu ryo
▁win ji
▁rw’ama shuri
▁aman ywa
fumbi ra
▁kubya rira
▁cy’imi rire
▁ndamu kunda
▁tuni sia
▁kabi la
▁igna ce
▁profe ssion
m b
t ti
▁ shan
▁a vugwaho
▁u hagaze
▁u herereye
mu we
▁ku tumva
ta bwa
ha d
da m
te garugori
▁bi renge
▁ya koreshaga
se be
▁gu twika
si mba
me ru
▁ha gi
▁ha vuka
he r
ran yu
▁ama tara
▁ka cu
▁ma ster
kin e
kin tu
mba buzi
▁zi genda
▁kwi butsa
▁igi tangaza
▁igi pimo
▁na mi
▁aka boko
▁nde bye
▁tu kaza
▁uru papuro
▁f r
▁nta ka
wu nge
▁n’umu ra
▁aga kiza
▁ra chel
▁nti yari
▁baka muha
▁bata jya
▁bita jya
▁uku reba
▁yan gije
▁ikin e
▁abi fuza
▁y’ubu humekero
▁g ha
▁y’umu gore
vuye ho
▁ja zz
rin zwe
lle nge
shyin gu
▁n’imi ti
yungu kiyemo
▁kuyi toza
▁bimwe merera
▁mba ga
▁uga hita
▁frw s
▁nk’umu gore
▁atu nze
▁bida fite
▁akana ba
tumi rwa
▁hara mutse
▁byan jye
▁va ti
baba rira
▁ali ce
▁bakana ba
tungan yiriza
▁kuzaba fasha
▁bam bwira
▁tha rcisse
▁n’ub w’
▁mwo bo
▁mina loc
fre d
▁tukiri nda
▁briga dier
▁und p
▁totten ham
▁corpo ration
▁washing ton
a hu
i kipe
n ta
▁a funze
▁u baye
▁u bwira
▁u kurikiyeho
▁ba sangiye
▁ba rangajwe
▁ba hangayikishijwe
gu shyingo
▁ku manu
bi tse
bu riwe
▁bi hariye
▁bi gendanye
▁ya bo
▁gu tinya
▁gu fatira
vu giwe
▁bu ciriritse
▁in yuranye
▁in sinzi
▁in keragutabara
▁aba rizwa
▁ha teye
shi rizwa
▁ama duka
▁ma t
▁ma ralia
▁n’i mbunda
le a
su re
▁y’u kuri
rere we
▁e le
▁y’i zamu
▁ri hana
▁za re
▁ban d
▁du komeze
▁nti ra
▁bwa zo
▁igihe com
▁baza ga
▁baza kina
▁be rekana
▁z’u mwijima
▁mo tema
▁vi r
▁by’i burayi
sore za
▁kure bwa
▁biza komeza
▁ry’i banze
▁biba ha
▁su m
fe ro
▁uba she
▁fe rdin
▁ze rekeza
▁kuzi taho
▁by’in terahamwe
sta che
▁atu ngu
▁bida hagije
komere je
▁y von
▁lu cky
nzi re
▁ruha shya
▁sy stem
▁B i
▁gusin yana
▁ivan wa
▁w’umun yama
▁yabu genewe
and re
▁ndanga gitsina
▁n’impu ngenge
▁spe cial
▁igitu ntu
▁n’ibihe mbo
▁amaka ro
▁shaddy boo
hindi ro
▁nyami tari
▁baraya gwiza
▁muni ch
▁cali for
▁ferdin and
a we
m cuncu
o vic
t cookie
y miu
z rsu
▁ sobanukirwa
▁i ke
▁i shimishije
▁i kenewe
▁i herezo
▁a kuramo
ri ur
▁n twaro
▁u bizi
re dire
▁ba rinda
▁ba ririmbye
▁ba shyizeho
▁ku cyumweru
bi gwi
ge ment
te nan
yi tse
ze zwa
▁bi tumizwa
▁bi eber
▁ya gendaga
▁ya juririye
▁mu mena
▁mu buzima
▁gu tandukanya
di um
vu ganye
▁in kuba
yu myu
▁ha ll
▁ha kazi
▁ki gura
▁ru bu
▁ru sanzwe
▁ka je
▁ubu rere
▁zi garagaza
▁ga se
▁wa vutse
▁mi fuka
▁na fashe
cu myu
▁ni geze
su yriu
▁y’u turere
▁kuba bwira
▁e cono
rika zi
▁s sp
▁cy’ aka
▁nta wi
umu seke
▁du komeza
man ganya
▁n’aban ywa
▁re u
mva ho
▁n’ubu rwayi
▁bara bona
▁n’in tumwa
fata ga
▁n’ibi tekerezo
▁n’ibi ciriritse
▁baha raniye
▁kubi kurikirana
pfu shije
▁me xi
sin ywa
▁bw’i myaka
▁nyi raneza
▁ugu fasha
▁by’u yu
▁yeme we
huza ga
▁man za
▁kuyi kora
▁yitwa ga
▁ub w’
▁umwa limu
▁cy’umu kinnyi
pho to
▁tuka bi
or dateno
▁babu rani
▁kubya kira
▁mbo go
▁mumu twe
▁mon t
▁bakin e
miu osu
▁mose s
▁b’imi dugudu
rsu riur
▁bur kina
sc ript
document cookie
flo ordateno
▁ambassa do
qi u
▁ez ra
math floordateno
miuosu mcuncu
mathfloordateno we
l ini
o m
u te
▁ hungabana
▁a rangwa
▁a shakisha
▁n soro
ba rizwa
za yi
▁ku kwi
▁ku bonana
▁bi saga
▁bi koreye
▁ya sabiye
▁ya kinaga
▁mu bye
▁mu tego
▁mu hizi
▁c hora
▁gu tumiza
di an
▁r yeme
▁bu kora
▁aba wu
yan jye
▁ha tangijwe
▁ha tegerejwe
han yura
▁ru gende
▁ibi tangazamakuru
▁ubu ringanire
▁ma gufi
▁ga su
▁ga shoboka
▁igi caniro
▁bya gize
▁f t
▁nta ma
▁nta rengwa
nda ga
pa pa
po sts
man e
▁w’i bikorwa
▁ko pi
▁nk’u yu
▁bwa cyo
curu rizwamo
▁re so
ni e
ni fer
tin gi
▁bite gure
▁guha za
▁te d
▁by’i ki
▁kujya mo
▁twi shimiye
▁ira teganya
▁ira kangurira
ken ura
shyirwa mo
▁w’ubu shinjacyaha
▁ry’umu rimo
▁fo llo
▁nyan dwi
▁guso mwa
▁cy’ubu jura
▁by’umu tima
▁w’iki tegererezo
ger main
thi lde
▁ai m
▁kwiba ruka
▁patri ce
ction s
▁bri ght
▁ake mera
▁ger main
▁manira kiza
phi le
▁dusin gizimana
▁boni face
▁art hur
▁teri twari
- b
a y
o za
u ge
ra ine
▁i sezerano
▁i hinduka
ri rana
▁u we
▁u fatika
▁u kinwa
▁ba fungiwe
ka gombye
ru ma
da bo
bu ndi
▁bi koze
▁bi hita
▁bi byara
▁bi bangamira
▁ya k
▁ya fungu
▁mu sabwa
▁c er
▁gu turuka
▁gu hoza
▁gu fungurwa
go mo
ku rire
ku tangije
ana si
▁bu tara
▁in yura
yan g
he zwa
▁ama rembo
▁gi tsinzwe
▁ki rangiye
▁ubu gizi
ke mutse
▁ma tyazo
so ft
▁p ris
hi je
▁zi teye
▁n’u bwa
▁kwi fuza
▁kwi yemeza
▁ga u
▁ga tabazi
▁wa kozwe
▁wa garagaye
▁na geze
▁bya tangaje
▁bya kabaye
▁aka genda
▁kuba fite
▁kuba barira
▁tu bonye
▁yi baza
mbo ne
▁ri tanga
▁ri korerwa
▁n’aba tutsi
▁cya tumiwemo
▁ta mbwe
▁w’i huriro
▁gusa mbana
▁ata gira
menye reza
ani za
▁bara mutse
▁n’in zoga
▁aza gerageza
▁guha kana
▁baha gurutse
▁y’ama dolari
▁baga banutse
▁te kutangije
▁he ne
rt mund
▁y’in kondo
▁rw’i cyongereza
▁n’imi koranire
▁kubu rana
▁ro b
▁af fi
▁kun enga
▁bari shwe
herere je
nd wi
▁bw’u mwana
▁is sa
▁atu yemo
▁ar ti
▁umura byo
▁bifite mo
mpan de
▁bw’in ka
ph rem
▁sin da
▁M wa
▁uzi rwaye
▁gise ke
▁bandi kiye
▁myi teguro
bara sa
▁n’umun si
▁itera bwoba
▁jac qu
▁ve stine
▁wabi mburiwe
haza za
renza ho
▁fu ture
▁yasubi ye
myo rorokere
komo je
▁pho ne
dore rwamo
▁eme ry
▁gan g
koso we
▁ntangi ro
▁zidan e
n ja
▁i tangaje
▁i rangiye
▁i shyari
▁a hitamo
ya vuze
▁ba tangajwe
▁ba shobore
gu sha
▁ku na
▁ku bereka
da fite
tu mba
▁bi shyize
▁ya bya
▁ya tangaga
▁mu buga
▁mu soni
▁mu randa
▁gu san
▁gu hohotera
▁umu vu
ti yo
▁in yangamugayo
▁y’ aban
▁ha tangi
▁gi hano
▁ka mba
▁ka maro
▁ibi buga
▁ibi gega
▁ubu shishozi
▁ma o
▁im in
▁n’i ryo
▁zi boneka
kan gurirwa
▁wa t
cu ranga
cu kura
▁ni shimiye
su pu
▁yi shimye
▁yi fashisha
▁uru hande
tura l
▁n’aba ta
▁n’aba rimo
umu ryango
▁du kurikije
▁twa baye
▁pe op
side nt
▁si ma
▁re d
riza ga
▁n’in ota
lo re
▁nu mvise
▁baha hungiye
▁yo ri
▁jo vani
seze rera
▁z’i byo
▁g rande
▁biza korwa
▁do rtmund
▁y’a be
▁yabi bwiye
▁bira ro
▁man u
sabwa ga
▁pro tec
▁ben i
▁yabaye mo
▁w’aba gore
▁ntiba ra
subira ho
▁w hite
▁ruza kina
▁basa za
▁yadu haye
▁z’ubu kungu
simbu rana
▁zita ha
▁nsengi yaremye
ssa ge
▁gutu ri
▁ange les
▁ange lique
▁qu i
▁qu arti
▁abaha tuye
mpu ndu
▁rona ld
▁nyir ’ama
▁b’ibi yobyabwenge
shon ga
▁minist ry
▁ry’iki rere
▁mac ron
▁sur vie
▁w’im fubyi
▁micro soft
▁robo t
▁igite rane
▁jen nifer
▁care er
▁geno cide
▁iho rere
▁publi c
▁yvon ne
▁muranda si
c ket
e ma
r do
▁b yongeye
▁a gura
▁u hu
re p
gi sa
▁ba tsinzwe
▁ku mwa
▁ku menyesha
ta za
tu rire
▁ya hinze
▁ya mamaza
▁mu cya
▁umu hini
▁bu ngu
mi ka
▁ama shuli
▁ki jyanye
▁ki renze
▁ubu tasi
▁im f
▁n’i mari
hi shu
hi sto
▁n’a yandi
▁ga mes
▁ga herereye
▁igi foromo
▁wa cyo
▁wa tumye
▁bya hoze
pe rikazi
▁yi buka
riki ye
▁imi deri
▁uru simbi
shyi rwe
ngu bu
▁cya ga
▁ko min
▁sa ke
▁akaba kaba
▁po ur
▁ata kiri
▁n’ama sezerano
▁n’ama dolari
▁uku ze
tin ye
▁n’ibi ti
▁n’ibi sasu
▁yara vuze
▁de n
▁baza gera
▁rya rangiye
▁abi mana
▁uwa cu
▁hi sto
▁he alth
▁kubi bona
▁iz ongera
▁y’umu hondo
▁twi buka
▁iba ha
▁kubu fatanye
▁bira mu
ingo mbwa
curuza ga
▁n’igi korwa
▁go d
▁n’iki gega
subira yo
▁muda cumura
▁bw’ama hirwe
▁nk’in tumwa
gejeje ho
▁bago mbye
hurira mo
komo tse
▁ig p
▁b’ibi go
▁yize we
dindi ye
rindi ra
▁isha vu
▁tech no
▁wea sel
▁n’iy’i burengerazuba
▁saint- germain
▁ntab goba
▁affi che
▁protec ted
i x
o rg
y n
z ingo
▁a tuma
▁n yeshyamba
▁n tandaro
ye reka
▁ba tsinda
▁ba rangwa
▁ba horaho
▁ba rwanyi
bi mwe
ta ire
▁bi kennye
▁ya riye
▁ya zamutse
▁ya giraga
▁gu kwa
▁gu taba
▁gu kubitwa
di van
ti jwe
▁in yinshi
mi za
▁ha mad
fa twe
▁ama yobera
▁ru tangiye
▁ubu banyi
▁ma taba
▁n’a mezi
▁n’a gaciro
▁n’u mwu
▁kan tu
▁kwi girira
▁ga shya
do giteri
▁bya twara
▁bya bayeho
▁bya teguwe
tanga rugero
ne ss
▁nde ba
▁yi shyurwa
▁y’i myumbati
▁z ine
▁n’aba hagarariye
▁cya tangiriye
▁ban za
▁ban yamahanga
tera si
▁du tanga
▁n’umu renge
▁n’umu ziki
▁sa b
▁ata gi
▁rya tumye
▁gute gera
▁n’ib yamamare
▁kon gerwa
▁di ya
yuba hiriza
▁bamu teye
fungu zo
▁utu butse
▁kun ya
▁repubu rika
ndu ro
▁yana sabye
▁ub wubatsi
▁cy’in tara
sen ce
maga rwa
▁muza bi
▁inko ni
▁bimu tera
▁ihu manya
▁n’ubwi sungane
▁z’in yama
mar k
▁rw’ubu kerarugendo
▁kw’i zina
▁ali cia
▁ry’ama faranga
▁ry’ama gare
▁nk’in yama
▁zika jya
▁ntibya bujije
▁ve daste
▁yaseze ranye
▁chu k
▁bru xelles
▁nico le
zongere rwa
ziga me
▁ububa ji
▁ubwu mvikane
▁uwin eza
▁yaro hereje
▁mul indi
▁ibicu rane
pfunyi ka
▁bataru zuza
▁jacqu eline
a ra
g li
▁ gere
▁i genewe
▁a sha
▁a kurikira
ya ba
mu saba
ko mpanyi
▁ba twa
▁ba gizi
▁ba cyi
▁ba fatiwe
▁ba tumva
▁ba tangizaga
gu i
tu riye
yo ka
▁bi vu
▁bi genze
▁bi zongera
▁mu jye
▁mu shatsi
se s
▁c yonyine
▁gu hungabana
je jwe
hu di
▁bu renze
▁in gurube
▁aba padiri
de ba
de on
he mbwe
▁ama fa
▁gi shwa
▁ru se
▁ru tangira
▁ubu dozi
▁im bura
▁w’ aban
bere ra
▁zi shimira
▁kan si
▁ga tabo
▁ga hindiro
su kura
ci rwa
▁za jya
▁mun zu
▁du komeje
▁du kundana
▁ra ma
▁pe mbe
▁nti wi
ji re
▁we mewe
▁n’ubu muga
▁n’in ko
shan ywa
▁bata rya
▁bata bashije
▁n’ibi taro
▁aza shyirwaho
▁baha siga
▁baga burira
▁ara mbye
▁jo rd
▁baba rizwa
▁byi basiwe
▁bin yuranyije
bon gerera
foto ra
▁uba ho
▁kuvu tsa
twi tse
▁kun yonga
herere jwe
▁bw’u turere
▁gato rika
▁muha zi
▁ry’u bwi
▁zan ziba
▁nyaru rembo
▁bakorera ga
▁nga ho
▁cyu garije
▁rw’a gateganyo
geri an
▁ire mbo
▁win dows
▁champi on
▁bro thers
▁baho mbejwe
▁kutu bahiriza
▁euro pa
▁jour nali
▁wavu kiye
bonan ye
▁gishwa ti
n s
n yarwanda
▁i korerwa
▁a a
▁a kurikirana
▁a zanye
▁u fashwe
mu twe
mu neza
▁ba kore
▁ba yobowe
za gira
▁ku garurira
bi za
ge shi
▁bi rindwi
▁ya tangazwa
▁m paka
▁gu kurikizwa
hu rije
▁aba komeje
mi li
▁gi tangwa
▁gi hagije
▁ru ca
▁ibi renge
on al
▁ma tungo
▁p lus
mba guza
▁kwi fata
▁wa garagaje
▁wa koraga
▁wa hisemo
▁wa twaraga
cu s
cu le
vi riyemo
la h
la ire
▁ic yemeza
▁cya vuye
▁du fata
▁pa ys
nga l
▁twa tsinzwe
▁aga taro
▁ra di
▁rwa fashe
▁rwa citse
▁n’in tego
lo s
▁yan ge
mbu ngo
mbu tsa
▁abi twa
mwi she
▁nda tekereza
▁by’i tumanaho
▁baba bwira
▁me s
▁w’u kwezi
▁cyi zere
ur ce
▁iha garariye
▁ubwi yongere
▁uza yi
mwa duko
▁la gos
▁ke ys
▁ub wan
▁by’ubu hinzi
▁kugu rana
cyi tegererezo
▁ruri ho
▁tuba she
▁z’aba hanzi
▁biru shijeho
▁ihu mure
▁hara vugwa
▁busa sa
▁nk’ibi sanzwe
▁abazi tabira
▁clo thilde
▁nor fund
▁ababi koze
▁dar ling
▁d’ or
▁kub w’i
▁twara baye
▁banga lore
▁T u
▁nyaba gendwa
▁dro gba
▁bakin ana
hwi tse
sengu ra
▁rap port
shege shwe
▁tro pi
▁invest ment
▁imani shimwe
▁nibin tije
▁califor nia
umuseke rw
▁chora le
▁pris ci
▁guturi tsa
▁quarti er
▁komin ya
▁zanziba r
1 9
a re
b yanditse
n ganye
o f
▁i de
▁i bereye
▁n kura
ya l
ba tse
ma la
▁ba kwe
▁ba komeretse
▁ku guri
zi l
ha rangwa
bu tu
▁bi tana
▁ya hungiye
▁ya kabaye
▁mu bona
▁mu cye
go sha
go sla
▁aba kina
▁ha korera
▁ama shyaka
▁ru vu
▁ka yo
▁ibi banza
▁n’i mya
▁n’i cyizere
gen we
▁kwi korera
▁kwi rara
▁aban zi
▁ari ndwi
▁bya tera
▁aka gali
▁tu kana
▁yi rirwa
riki we
▁iki gamijwe
▁imi ziki
▁n’aba mwunganira
po riki
▁za mu
umu gabo
▁se ru
▁n’umu polisi
kira ga
▁aga komeza
▁aga himbazamusyi
▁ra y
▁ra mba
▁rwa koze
▁re co
▁rwe meje
jyan e
▁be meye
▁bo ts
▁baga tanga
▁ita zajya
▁ara yi
▁yo ro
▁by’i gi
▁fa so
sin yanye
▁babi fata
▁babi vugaho
▁ika mu
▁yaha geze
yuba kwa
taba ho
▁b’i myenda
▁iba rirwa
▁rw’i wawa
▁kubu bakira
▁uza shyingura
▁wan duye
▁ndi zera
tegu riye
▁indi shyi
▁n’uru rimi
▁bw’u rukundo
▁kiza gera
▁ubwa to
▁cha llenge
▁ida kingiye
▁inda twa
▁rukundo muhaburarw
kurikiran we
▁yavu zwe
▁mana gement
▁sy ria
eu tenan
▁d’ arc
▁bam poriki
▁beyon c
▁gukurikiranwa ho
dindi za
▁gaho nzire
phe n
▁amaka myo
▁seba kungu
▁k’a furika
▁eme lita
▁anani as
▁kwiyu manganya
▁ap tre
▁amade vize
▁ngabi rano
▁ritu bere
▁equi ty
▁olo mide
▁nyir’ama zu
▁busasa mana
d ina
d ja
n we
ra m
▁i kunzwe
▁a kunzwe
▁a jurira
▁n gan
ga za
▁u tekereza
mu lenge
▁ba shake
▁ba gezwa
▁ba gurirwa
▁ba shyigikiye
ru ngu
▁ku gurirwa
da ca
te zi
▁bi boneka
▁bi kubiye
▁ya sobanura
▁ya hereye
▁ya ou
▁m po
▁mu myaka
▁gu suzugura
▁gu tsindira
ro t
▁umu ceri
je vic
vu we
ti sha
ti mba
▁bu shimishije
▁in anasi
▁aba gizwe
▁aba cukuzi
▁gi si
▁gi shu
▁ka geri
ke ba
▁ma ranyu
zo roza
gen nye
▁zi teza
fu jwe
▁igi fite
▁wa komeje
▁wa shyiraho
▁ni baza
▁bya ru
su ri
▁tu genda
▁tu nis
▁e v
▁yi vuye
▁imi tsi
▁imi gani
▁uru saku
korwa ho
▁ri geze
▁f ra
no t
ca le
▁cya hawe
▁mun yeshuri
▁le ga
▁n’umu riro
▁bwa ki
▁si ti
▁rwa gize
▁minisi tere
nge r
subi tse
▁n’ibi rwa
▁be er
▁iza tanga
▁abatu riye
▁baga tera
▁yo ze
▁ibya ra
▁byi basira
sin yi
bira bura
▁yakore rwaga
▁di vi
yuba ha
▁bin ya
▁bin ubira
▁kun ganira
▁nk’umu gabo
▁by’in ama
vo mesha
▁y’igi humbi
soro ro
mban yije
▁au re
▁z’umu tima
▁ruza kira
▁I ki
▁kura sa
▁lu ther
▁M a
▁zin jirira
▁z’in zungu
danga gaciro
huriye ho
▁abayi curuza
ruhu ka
▁nara muka
▁ndayi senga
▁ani zwe
▁promo tion
▁hare bwa
▁gatu lika
▁bibu tse
▁kuku bwira
▁super star
▁gushyirwa mo
▁akanya muneza
▁bigaraga ze
▁ikira ro
mene ra
▁wasa c
▁kutaba barira
▁flori bert
▁ubusu gire
▁indo to
▁gukini rwaho
▁ugashi duka
▁ado l
▁maranyu ndo
a bi
c ca
e ri
m yanya
t ts
▁ 3
▁a hanga
▁a jyana
▁a vugwa
▁a yandi
▁a kurikije
▁n geze
▁u teganyijwe
ma shini
▁ba ro
▁ba hin
▁ba tandukana
▁ba shimwe
▁ba vuka
▁ba gejeje
ru gu
▁ku van
▁ku hungabanya
▁ku mar
▁ku dufasha
▁ku byemera
te rera
▁bi fatwa
▁bi zihi
▁bi shatse
▁bi ble
▁bi yambaje
▁ya hinduye
▁gu fungu
▁gu tandukanywa
si s
▁umu tu
je ni
ho mbye
ti siti
ban do
▁bu biri
▁bu komeje
▁aba jyanama
de wo
mi gabane
▁ama renga
▁ama telefone
▁ru n
▁ubu tabazi
▁ubu ngubu
▁ma twi
▁n’i hindagurika
fi ri
▁zi tangira
▁zi fashwe
▁ga sanzwe
▁aka manzi
▁kandi da
▁nde ngera
▁tu ff
ci ci
▁ri teganya
▁ri haranira
▁s ms
▁bw’ abanya
▁ban yonzi
▁du saba
gere ho
▁n’umu saruro
▁ko fi
menye shejwe
▁n’ubu ganga
▁baka menya
▁baka rushaho
▁muri ro
▁cy’i kawa
▁an ganya
▁baza hita
▁iza komereza
▁y’aba yobozi
▁abatu si
▁y’ama teka
▁abi zeza
▁mo be
▁vi za
kwe ho
▁nda yambaje
sin ye
▁babi sikana
▁biba siwe
▁yaha ga
▁rwi gira
▁ntara ba
▁b’i ri
son a
▁ira gira
fun gira
▁ro dri
▁bazi sanze
▁af p
bon wa
▁kuyi koresha
▁z’ama ta
▁w’ubu rezi
▁w’ubu tabera
shami kiye
▁y’ibi hingwa
▁ana shinjwa
▁bada shoboye
▁yabaye ho
genga bi
▁h ’i
▁nza mwita
▁ntibi buza
▁w ho
▁ruza cibwa
▁ruri kesha
▁M ura
▁z’ubu curuzi
▁tuka bona
kundi sha
▁buka gabanuka
▁nki bi
▁ry’in dege
den ce
▁ag be
▁dro ne
subu kura
▁mou nt
▁bahatanira ga
▁yakira ga
▁valen tin
▁ikira ka
suru tsa
▁abacu nguwe
pre ss
▁kworo ra
ryi tabira
▁ububa bare
▁utwa tsi
▁deo gratias
▁havu gi
▁sh ani
▁n’ububa ji
▁reu ters
▁peop le
- general
c p
d p
e a
j anda
l zen
m van
ra mba
▁a vi
▁a mbu
▁a menyo
▁a subirwamo
▁n gera
▁u gize
▁u shoboye
in jiriza
gi shijwe
▁ba byin
▁ba koranye
bo -cro
▁bi yongera
▁bi kanga
▁bi tsura
▁ya shoboye
▁ya hindutse
▁ya simbuye
▁mu rangwa
vu je
vu zweho
▁bu hari
▁bu koreshwa
▁aba rara
mi ryango
▁ha beho
ran dura
▁ama shyiga
▁ru ki
▁ru kerera
▁ru sororo
du mbaguza
▁ubu shomeri
▁im yama
▁n’a ya
▁kwi haza
le urs
▁wa soma
▁wa kinaga
▁mi kuru
▁na sanze
▁bya sobanuwe
▁tu basha
▁e vange
▁yi yongereyeho
▁iki buno
▁uru zi
▁umun yamahanga
ngu ra
▁za fatiwe
▁rw’ andi
▁bara cyari
▁n’ibi reti
▁baza va
▁y’ama hanga
▁yaba fasha
▁y’ubu kungu
shyu shye
seze ranya
▁kumu saba
▁by’i myidagaduro
▁ca ssan
▁twi zeyimana
▁ira vuga
▁ira saba
▁uta shatse
▁n’ubwo ko
▁da lla
▁biga korwa
▁ubwi tange
▁no mero
▁bihe ruka
▁cye gukanywe
▁uka gera
▁bari vuyeho
▁bate rankunga
komoka ga
▁umwu zukuru
▁hu awe
cha r
▁b’aba gore
▁rw’aba ririmbyi
▁bwana cyambwe
▁gise mbe
▁kw’i bi
kundi ye
▁ihe ru
▁ry’in yama
▁ve lzen
▁cent ral
len ce
▁tha t
▁cou leurs
▁mane geka
▁tugeze mo
▁coup le
▁ind yo
▁zize rera
▁judi th
▁nkin jira
▁bots wana
B A
i mwe
t indi
▁i bone
▁i rushaho
▁a gere
▁a hera
▁a sengera
▁a gendeye
▁a boneraho
▁u gezweho
▁u vomesha
wa hoze
ye gukana
gi rizwa
gu fa
gu mana
ru m
ru gamba
▁ku mwu
▁bi rangiye
▁ya kiniraga
▁mu zo
se ye
▁c hina
ki zwa
▁gu humbi
ro ne
▁umu semburo
▁aba pfuye
▁aba yinywa
mi ller
▁ama zon
▁ki d
▁ru pangu
▁ibi tsin
▁ubu sitani
▁ma cumbi
▁im ye
▁zi va
▁zi hagije
▁kwi bumbira
▁kwi dumbaguza
▁igi ta
▁wa fashwe
▁ni l
en d
▁tu wu
▁yi kata
▁ri tuma
▁ri sesengura
▁s wa
▁s ngal
▁f lix
▁t wan
va rekurwa
▁umun yu
▁n’aba kuru
gere rwa
▁w’i bireti
▁w’i sekuru
▁le o
▁gusa rura
▁wi ll
▁co mpanyi
▁d jo
▁bara juririra
ni t
▁yara ba
▁yara je
▁baza fasha
▁aza korwa
▁baga mbi
▁abi ga
▁mo butu
▁uwa mwunganira
zira karengane
seze rewe
▁by’i mikino
▁by’i bireti
▁byi maze
▁nk’i kipe
▁li tro
▁y’umu gabo
▁mwi gira
▁con tre
▁rw’i sukari
▁su p
▁ro nd
▁ne two
▁kun anirwa
▁go ran
▁bari shimira
nya mwuga
▁n’uru gaga
bin ywa
▁bura cyakomeza
vo iture
lin der
▁yana hamijwe
▁izi tabirwa
▁izi hize
▁yahise varekurwa
▁udu handa
▁cy’in twaro
▁tuza bonekamo
sanzu ra
▁kura mba
▁kira mbuye
▁bw’umu biri
▁muke shimana
▁ab yumva
▁vo mo
▁she h
▁ser bo-cro
▁by’a bana
▁kuha korera
▁cy’a manota
tro fa
▁mpa garitswe
▁B u
▁tuyi shime
▁ste phen
es bourg
▁kub w’
▁guto roka
▁chu mbe
▁avu nje
▁el -
mpu nzi
▁n’aga koko
▁eco le
▁z’ibi ciro
▁mutu zo
▁sal ama
▁rwamu hungu
bed ha
non ci
▁imvu ne
▁dieudon ne
▁johan esbourg
▁kworo zwa
▁n’urwa bandi
▁asu mani
▁akurikiran kweho
▁anani riwe
▁regi s
▁er linder
▁iby’imi soro
▁w’ibyo herezwa
▁petro rwanda
▁gutungu rana
▁rizi tabirwa
▁khali da
▁mukarwe mo
▁taxi- voiture
▁agen cy
▁abita riye
▁civi l
▁zou bedha
▁profession nel
▁nami bia
▁brigadier -general
▁baburani shirijwe
▁sab miller
▁yoze fu
▁aure lien
▁ntaraba ganyi
▁agbe nonci
janda rume
▁iheru heru
▁ibitsin si
▁uwamwunganira ga
▁serbo-cro atian
▁mpagaritswe nimana
- yo
b ration
m bwiye
▁i zima
▁i zan
▁i buye
▁a rwa
▁n tan
▁n tsinzi
▁u curuza
mu fashije
re d
ru mbuke
te ngu
▁bi gana
▁bi ganza
▁ya bye
▁ya kwa
▁mu koresha
▁gu ar
▁umu twaro
▁bu c
▁bu hanga
▁in s
▁gi subizo
▁ru kura
▁ibi tera
▁ibi totsi
▁ma sha
▁n’i torero
hi mbiye
▁zi she
▁ga ti
▁ga shora
▁wa banje
cu ma
▁aka menya
▁kuba ga
▁yi yemeza
▁yi yita
▁imi fuka
▁nta ganzwa
▁za geze
▁du tuye
gere zwa
tara mirwa
▁twa ya
▁nti be
▁co un
▁re bero
▁o dette
▁uku biri
▁yan yuzemo
mbe ri
kiri ro
▁n’ibi jyanye
▁yara buze
mbu za
mbu riye
▁iza hura
▁rya cyo
▁ara mbwira
▁kumu shyigikira
▁babi gize
gaban ywa
▁fi d
▁y’in zoga
▁y’in guzanyo
▁uta mu
▁n’imi hindagurikire
soho kera
lika re
▁kuvu gira
▁kuvu mbura
hagara ro
▁mba bwira
▁muka mana
▁iga kurikirwa
▁ke reka
▁’ a
▁kwan yu
hungaban ye
▁y van
▁by’umu jyi
▁pi er
▁ihu je
▁K andi
▁myi gire
▁theo phile
▁b’umu ziki
▁ino ti
▁hita yezu
▁www muhaburarw
▁gusubi ka
▁yam bwiye
▁regi onal
▁abanyamu lenge
▁avan ce
▁syl vestre
▁sale h
▁dutu ranye
-in kotanyi
▁turu kiya
▁yafungu raga
▁huawe i
- ba
i gn
s rc
u kuri
▁i shyira
▁a bera
▁a twi
▁a hindura
ba riye
ma y
ma rana
▁ba bwi
▁ba subira
▁ba gurisha
▁ku zan
ha rira
yi koze
▁m biri
▁c yin
▁gu shira
▁gu shyikiriza
be rg
▁bu renganzira
▁bu juje
▁aba ho
▁aba gana
mo cra
sa bo
▁ha be
▁ama ranye
▁gi twe
▁ru yi
▁ru sumo
▁ka mara
▁ka rasira
▁im byino
kin ire
na se
fu ti
▁ga r
▁ga hanga
▁ga mbia
▁igi shoro
le ra
▁wa za
▁wa reba
▁bya korwa
shin gi
▁yi yi
▁cy’ abantu
la in
gize ho
ca tions
▁za koreshejwe
▁n’umu nye
▁bara za
▁bara komereka
▁baka byi
▁o da
▁uku za
▁kwe merera
▁bite go
▁aza bona
▁aza fasha
▁aza hita
▁mo mbasa
▁vi dewo
▁nda ku
▁w’umu jyi
st ry
▁by’i suku
▁me ssage
▁y’a ya
▁kuza yi
rangi rira
▁bamu fasha
▁b’i torero
▁w’in gengo
▁ira shaka
▁ira mbona
▁ro yal
yungu ru
ken d
▁no t
▁bira hari
▁ndi shimye
▁mba she
dege mbya
▁by’in dwara
▁b’u yu
▁vu p
▁mar c
▁by’ubu kerarugendo
▁by’ama tegeko
▁inko no
▁w’iki renga
▁umwi rondoro
▁z’aba gore
▁byu kuri
▁ndu nduro
▁itu we
▁african s
▁wabi gize
▁min u
▁bavu ganye
▁ndanga gaciro
▁n’amaso mo
▁haku rya
▁nel ly
▁equ a
zerere zi
ice ster
subiri ra
▁kunyi ca
-con go
▁diya be
▁jord an
▁adol phe
▁byimaze yo
i z
r to
▁i jonjora
▁a min
▁a tere
ba vu
▁u rangiye
mu gire
ma twara
in ho
▁ba retse
▁ba sohoye
ta ma
bo ho
▁bi garagaye
▁ya shimishije
▁m oni
▁c el
tan gana
hu zanya
▁bu gira
▁in enge
sha ki
▁aba sigaye
de tse
mo to
sa mbanya
he tse
▁ama gana
▁gi sobanuro
▁gi sivile
▁ki hariye
▁ki guzi
▁ru garagaza
▁ibi vugwa
▁ubu sobanuro
▁ma x
▁ma hoteli
▁ma teke
▁ma tch
▁im ma
▁kwi kubita
▁ga bo
▁igi sibo
▁y’u bwa
bwo rozi
giye mo
▁yi ciwe
▁imi horo
▁imi yoboro
▁ri komoka
▁f er
▁by’ aka
▁n’aba bi
▁n’aba shaka
▁cya garagayemo
▁se an
▁twa gize
▁twa ganiraga
▁gusa kaza
ve l
▁aga saro
▁ra mad
▁pe rezi
▁nti za
▁sa ka
▁po ste
▁n’in dangagaciro
▁cy’i jana
▁uku beshya
saba gina
▁yan yujije
▁de fen
▁iza rangira
teri mbere
▁baga korerwa
▁ye ze
▁hi yongeraho
cya hari
seze rerwa
▁by’i mideli
▁yu bu
▁yu mve
▁ca sa
▁bw’i byo
▁bw’i myororokere
▁babi genza
▁ika rushaho
▁biba teza
▁y’in genzi
▁yabi gezeho
son s
sanze mo
▁ubwi rinzi
▁kuyi shyira
▁bw’u ru
▁ubwa byo
▁muka perezida
▁n’im yumvire
▁as si
hinga ga
suzu mye
▁rw’aba gore
▁un yura
▁ade le
▁kiba ho
▁bakoresha ga
▁for ce
▁koro he
▁ruda singwa
cuku rwa
▁ubura mbe
▁win jije
▁ate tse
▁qu in
▁mbu to
▁guto ranya
▁tuta zi
▁ala rm
▁nyir ’u
▁bwu mvikane
kwan o
shyire mo
▁abata vuga
rama ta
▁mpe shyi
▁guka bya
▁lau rence
▁inyarwanda com
▁cnd d-
bandwa ho
▁yafata ga
▁byumvi kana
▁hit ler
▁bel gi
▁ambu lance
- i
f dd
t ’
▁ terambere
▁n kore
▁n gero
ba s
▁u shimishije
▁ba fitiye
▁ba heruka
▁ba kundanye
▁ba yern
▁ku c
▁ku cyo
ta hu
bu moso
bu ranisha
▁bi gire
▁bi zana
▁ya kubiswe
▁gu shyi
▁gu taka
▁gu kwira
▁umu rima
▁umu terankunga
▁umu herwe
▁bu cya
▁in dorerwamo
▁aba bonye
▁aba camanza
▁y’ abanyeshuri
▁ha fite
▁ha tara
▁ha shoboka
▁ama bi
▁gi an
▁gi fatanyije
▁ki gereranyo
▁ibi huru
so me
▁zi bwe
▁zi tandura
▁kwi shakamo
▁igi faransa
▁wa wo
▁wa mbere
▁wa koresheje
▁wa hariwe
▁wa simbuye
▁wa wundi
▁mi s
▁na ha
▁ib yinshi
men yin
▁n’aba kora
▁n’aba zungu
▁za za
▁za shyizwe
▁du fasha
▁se kibi
▁twa hawe
▁n’umu byeyi
ve y
▁aga shyi
▁nti byo
▁bara ye
▁o mo
zamu re
▁ikin yabupfura
▁n’ibi menyetso
▁iza hagararira
▁iza sozwa
▁baga kira
▁baga fatanya
▁z’u rukundo
▁mo ham
▁isi mbi
▁uwa mungu
tangi rana
▁hi giro
▁ca ssa
▁g ym
▁li eutenan
▁kin yinya
▁kugi rirwa
▁yabi genje
guri shijwe
▁n’imi shinga
▁n’imi cungire
▁da sso
▁sta dium
zere kana
▁uka jya
▁uka menya
▁k’u mwaka
▁turi zera
▁nyira bi
▁y’igi taramo
▁es sence
▁ura ra
shiman girwa
ph ro
tumi we
▁bagira ga
▁A ma
▁b’in genzi
▁ihu riye
▁gucu ra
▁ry’ubu hinzi
▁ukwi hangana
tani ye
▁ex press
▁nk’iki go
▁cap t
▁babyi fuza
▁gite ranyo
▁yasin ywe
▁n’ibyi shimo
kemu rwa
▁hita bwa
▁gitu mo
yomo je
▁die go
▁kugezwa ho
▁mvu ne
▁dra ke
▁cas mir
▁cul tural
▁evange li
▁cndd- fdd
f fa
p ton
▁i boneka
▁i kwiriye
▁a sanze
▁a tegereje
▁a binjira
▁n gize
▁u soza
▁ba cyo
▁ba fatanye
▁ba rwo
▁ba fatanije
gu ge
ru za
tu mbi
▁bi r
▁bi hinduka
▁ya shyiriweho
▁ya garagarije
▁mu gu
▁mu hura
se y
go za
go mwa
ku yemo
me lo
▁umu bwira
▁umu byibuho
ti re
▁aba rirwa
▁gi koreshwa
▁ru saba
▁ka bili
▁ubu pfura
▁n’i biri
fi twe
▁n’a meza
▁n’a mikoro
wo hereza
▁zi korera
▁zi shaje
▁kwi pimisha
▁ga tara
▁mi koreshereze
▁ni zera
tanga buhamya
▁e ras
▁iki garagara
▁iki rango
▁iki yaga
▁iki ruhuko
mbo gamizi
ranga bo
ca t
▁n’aba za
gere ti
tara ganya
man o
▁se nga
▁le icester
▁ko sa
▁aga kora
▁ra pi
pi s
▁rwa giye
▁n’ubu fatanye
▁n’in gingo
▁n’in kuba
▁o s
ni mpa
▁rya we
▁uwa yi
gami rwa
▁bwi ra
▁l ama
▁ibya tsi
ywa ga
▁w’u rukundo
▁bw’i shyirahamwe
▁y’umu biri
▁do gg
saru ra
▁su gar
▁bazi ca
▁ken ny
tora guwe
▁ju ru
▁amu kunda
▁tura hirwa
▁zu zuye
▁muha dji
▁yana garutse
suzu mwe
▁ayi ta
▁isa bune
▁mwu mva
giri jwe
▁ry’ubu kerarugendo
▁she eba
▁mukan ta
▁n’ikin yabupfura
▁n’aka maro
▁ge deon
hangayi tse
▁habaru rwa
▁mbu nda
▁el may
▁cy’imi soro
ou dite
▁pen do
▁twamu bajije
▁bicwa ga
yere jwe
▁uwan jye
▁tou ch
▁nk’umun yarwanda
▁abatanga buhamya
shinya guro
▁yariri mbaga
▁moshi ons
▁appli cation
▁rwuba tswe
▁shyo gwe
zande ngo
▁indatwan et
▁pictwitter com
▁gase gereti
yunguru zo
a h
x t
▁ tiri
▁i jyana
▁i sanzure
ga kwiye
▁u nde
re y
in da
▁ba b
▁ba shin
▁ba zima
▁ku bwiriza
▁ku tumvikana
▁ku ryoherwa
tu gari
▁bi shyurwa
▁ya retse
▁ya fatanyije
▁m w’i
▁mu hoza
▁mu rwanashyaka
▁c yama
si re
hu nze
▁bu zwi
▁bu nya
▁in in
ran du
▁gi sha
▁gi huza
▁ru mu
▁ka giye
▁ibi da
▁ibi hangange
▁p ha
▁zi genewe
▁cyan ditswe
▁wa turutse
▁mi koranire
▁aka gu
▁uru hago
▁ri kora
▁s ing
garaga mbya
hanga rwa
▁pa lace
▁twa koraga
▁n’umu biri
▁bwa baye
▁sa oudite
pi ya
tum bero
▁n’ubu kene
ni tse
▁aza va
▁be au
▁iza kira
teka mutwe
▁baga koresha
jo ba
▁te a
tangaza ga
▁kumu ca
▁yu ngu
hindu kira
mvi sha
▁nko ndo
▁kuza ha
▁kuza bona
▁rw’i cyayi
▁iha garitse
ck s
▁af ter
ken de
▁bira ba
▁baki cwa
▁bwe meza
▁bika gorana
▁bura ya
▁k’u gushyingo
▁iti geze
▁ntiba ri
▁ryi hariye
▁nka bo
▁isu ri
maga ye
▁ry’u rubyiruko
▁kuru hu
▁umunya rwenya
zin da
▁guse sengura
▁kugaragara mo
▁bakiri nda
▁bahabwa ga
▁rura teganya
▁ry’ama sezerano
▁abayi tabiriye
▁yaku san
▁yaku riye
teke rereza
▁bamenye reye
teze ho
▁zuba tswe
▁nubu ndi
▁iy’ aba
▁rose lyne
▁wasa fi
▁pasi ka
▁dai ly
▁rw’igi faransa
▁ruzin dana
▁nsanza bera
▁tes fa
▁ntaka buza
▁vir gi
- video
U R
g wan
l n
▁ ’u
▁b lo
ra phine
▁i keneye
▁i fitanye
▁i fungwa
▁i funze
▁a ye
▁a raga
▁a guye
▁a simbu
▁n kenerwa
mu riza
▁ba fashijwe
yi ro
bu kungu
▁bi be
▁bi wu
▁bi bwira
▁bi sigaye
▁bi rego
▁mu vugizi
▁gu kemuka
sha ra
mo ri
▁ha sha
▁ha iti
▁gi kundiro
▁ki zira
▁ru bona
du ngu
▁ibi yaga
▁ma pu
▁im pfu
▁n’i mbere
▁kwi twaza
▁wa byi
▁na banje
▁bya hitanye
▁aka bura
▁y’u mwimerere
kome reke
▁tu menye
▁yi sanga
▁ri ha
garaga yeho
▁n’aba hanga
▁mun go
▁bw’ abandi
▁ta i
▁du sabwa
▁pa u
▁ko rea
▁bwa bi
bana ga
pi mwe
▁we nger
▁n’ama kuru
▁n’ubu geni
▁n’in gengabitekerezo
▁o fisiye
▁yan giza
▁yan ganyije
▁ho s
kere rwa
here yeho
▁y’aba sirikare
▁y’aba rokotse
▁abi kesha
▁uwa we
▁ye mwe
seze ye
▁kwa guka
▁bw’i mana
▁ry’i bihugu
er g
▁twi fuje
▁kuza tanga
▁y’in zu
▁y’in yongera
▁w’in yeshyamba
▁iba sha
▁n’imi rire
▁uza shaka
▁bira kwiye
▁bira mutse
▁bika zaba
▁mata riki
▁fo rum
▁bwo ba
▁iya remye
▁nyan dungu
ver muhaburarw
▁hu mura
▁bageze ho
▁A ri
▁ubi kora
▁byan giza
▁ce cile
▁bakiri ya
▁guhu riza
▁n’uwa hoze
▁n’umun yarwanda
▁buza jya
▁byamu fashije
▁kwandi kisha
▁yagu tse
tunga mubiri
▁fpr -inkotanyi
▁gusen yuka
▁mwo go
▁xa vermuhaburarw
▁rt lm
shyingi ranywe
▁tuti bagiwe
▁n’ibin yobwa
▁repu b
teganyi rize
▁econo mic
▁gasu tamo
▁techno logy
▁netwo rk
▁moham med
2 02
a bana
c yan
o li
▁b ran
▁a kurikiwe
▁a via
ga sa
▁u zamuka
ma ko
▁ku jo
tu byaye
bu je
bu riye
bu kwe
▁ya beshye
▁ya tekereje
▁mu yi
▁mu ja
▁mu yaga
se sa
ban anira
be ya
▁in tangiriro
▁aba vu
mo s
mi t
mi ss
han gane
▁ka guta
▁ma re
▁im ya
▁n’a b
▁zi habwa
▁kwi tanga
▁ga kingirizo
▁igi tangaje
▁igi shushanyo
▁wa shinzwe
▁wa ranzwe
▁ari fuza
▁mi tekerereze
▁ni ger
▁bya saga
▁aka ku
kuru za
▁y’u rwanda
▁y’u mwami
▁nde ngakamere
▁yi su
▁iki gereranyo
▁uru shaho
shyi riyeho
▁t hu
▁nta ku
ranga ga
▁n’aba hutu
ngu ko
▁za koze
wu nga
▁ko ffi
▁bwa koreshejwe
gani shije
▁re dee
▁aza habwa
▁guha hira
ton ganya
▁y’ubu kure
▁mo ise
▁ara cya
twe reka
▁hi gh
▁kwa mbika
▁nk’i mpano
▁y’umu handa
▁so urce
er t
▁icya mu
▁cyi tiriwe
▁ugu shyira
can ye
▁dr c
▁kuyi tsinda
▁ruba ya
▁bagera ho
▁ne t
▁ne -yo
▁mba zi
▁uka yi
fatanya cyaha
▁amu subiza
wandi tse
▁n’uru buga
korerwa ga
kundana ga
▁iby’ ama
▁mar ket
tungu ra
▁bato rwa
▁amaso siyete
▁ry’aba polisi
▁abo uba
ing s
▁n’ubwi za
▁yita bi
▁cle stin
▁yadu sobanuriye
▁yata shye
ruhu tse
▁ageze yo
ber ry
▁bafata buguzi
▁wee kend
▁avu gira
▁H ari
▁ifata buguzi
▁pri me
▁her ve
▁iran zi
▁andre w
▁imizi go
vuguru we
▁ryu zuye
▁iby’a gaciro
▁y’ub wubatsi
▁gusubu kurwa
▁umunyama tegeko
-u ganda
▁conne ct
▁ruse sabagina
▁lega cy
▁imma cule
menyin giro
▁repub lika
▁redee med
c inya
f b
k s
n za
o go
o ve
s indi
t ting
▁ genda
▁i shimangira
▁a go
▁a tan
▁u genekereje
sh ywa
gi ce
▁ba shi
▁ba shoramari
▁ba bwirwa
ru rwa
ru kiye
▁ku menyana
ta weho
▁bi gwi
▁ya kwe
▁m byino
▁mu vugabutumwa
▁gu suzumwa
di es
▁r fi
▁r winshi
▁bu gande
▁in geri
yu zwe
sha kirwa
▁aba du
▁aba rezi
mi bwa
li cien
▁ama dorari
▁gi teganyijwe
▁ki tabiriwe
▁ru shwanwa
▁ibi maze
▁ubu ro
▁ubu shuti
▁ubu faransa
gan ywe
▁ma yi
▁ma banga
▁ma hame
▁ma mie
▁im pin
hi shi
le ne
▁wa jyanywe
▁aka gi
▁aka do
▁aka tirwa
▁kuba fata
▁kuba shyigikira
▁yi tabira
▁y’i kipe
▁ri noze
▁t wongere
▁nta ko
▁cya shize
shaka ho
▁du terimbere
man n
rira mo
▁twa gi
▁twa jama
▁n’umu fasha
▁n’umu yaga
▁sa ha
▁sa lim
▁wi twara
▁n’ama vuta
▁n’in tambara
▁baka du
▁baka jyanwa
▁ho r
mbere jwe
▁n’ibi yobyabwenge
genda ho
▁baza tanga
▁baza hura
▁rya keye
▁yaba zwaga
▁ye reke
tangira ga
seze ranyije
▁l and
▁kwa mburwa
pfu mba
▁byi geze
▁al li
▁di on
▁babi fashijwemo
▁biza saba
▁do ve
▁kugi sha
▁ika myo
▁fi ston
taba rutse
▁by’u ko
habwa ga
▁wan g
▁cy’u kwezi
▁ubwa yo
▁cla pton
▁h patite
▁yana tangiye
shyigi kire
▁y’igi ce
▁ub winshi
▁as inah
▁kayi hura
▁bato ya
▁byara tumye
▁b’aba tutsi
▁kana mugire
▁san kara
▁bw’in gabo
▁bw’ama jwi
▁buta zi
▁kira ro
▁yita bwaho
▁z’in genzi
▁yuba ka
▁zika bi
▁theo dore
yongere ra
▁bagenda ga
▁fre ddy
▁kub yuka
gobo tora
▁yaza ga
▁ndanga muco
▁kuti shyura
▁bahan ze
▁baseze ranye
▁hada fashwe
▁communi cation
▁eto ile
mv wa
▁uk raine
▁hill s
▁jon jora
▁cassan ova
▁fid le
▁twajama horo
c ne
d j
i te
i me
i gihe
s r
v b
▁a tewe
▁a kane
▁n kombe
▁n keneye
▁u su
▁u rwenya
gi she
▁ba kere
▁ba kurikije
▁ba shyikirizwa
gu wa
▁ku hira
bu ngo
▁bi yemeza
▁ya mba
▁mu gire
▁c eline
▁gu twarwa
▁gu pfusha
si l
▁r yamaze
▁r pf
▁umu rerwa
je ho
ho n
▁bu san
▁aba shinwa
▁aba kristu
▁ama franga
han zwe
▁gi fatika
▁gi shushanyo
▁ru renge
▁ibi ha
ke ri
▁ma h
▁n’i tatu
▁n’i vangura
▁n’a hantu
twa rira
na de
▁ga hato
▁wa kira
▁wa twaye
▁mi tiwe
▁bya gira
▁aka ramata
▁kuba ri
kome zanya
▁tu nini
▁yi zera
▁yi teze
▁yi kubye
▁y’i cya
▁imi sanzu
▁imi koreshereze
ce rs
▁s ch
▁nta za
▁ic yan
▁n’aba ha
▁za bi
▁za shyizweho
▁j in
man da
▁twa koranye
▁aga tegereza
▁nya bwo
ndi ra
▁bwa tumye
gani rije
gani rwaho
geze mo
curu je
▁ata renze
▁rwa sa
▁n’ubu tabera
one r
▁bata ki
zamu we
▁cy’i byumweru
▁an ti
subi jwe
▁yara kozwe
▁yara tsinze
▁nu wa
▁baza korera
▁iza tangwa
el s
▁baga subira
▁ara sa
▁nda bizi
▁kubi bwira
▁yu mvi
▁kwa kirwa
▁byi tabiriwe
sin zira
▁babi li
▁do t
▁kuza za
▁nyi gisho
▁ugu shyiraho
can dwe
▁b’i mana
▁yandi kiwe
shyin girwa
won geye
▁bana fite
▁baki zi
▁bwe mewe
▁ne meye
senge ye
herere zanya
▁ada sanzwe
▁y’igi tabo
hara ro
▁bake mera
▁mar sha
▁ar my
kuba ha
▁cy’ubu shakashatsi
▁ibin ini
▁san gwa
▁z’aba gabo
▁baku san
▁isa be
▁pla cide
▁biru sheho
▁kwiba girwa
sun zu
▁oli ve
▁bare gwa
▁cy’a furika
▁chan ce
▁zikaba kaba
▁iru ta
▁ex po
▁bw’a ga
▁gatu rika
▁cy’imi bonano
▁super mar
▁mode ste
▁icy’ aba
▁n’umunya merika
▁bazwi ho
▁har ry
▁abanye shuli
▁per ry
yuza mo
▁W a
susuru tsa
▁mbon yumu
▁yagaruka ga
toranywa mo
▁vati can
▁arti st
▁kuna mira
▁inin giri
▁kujo joba
c ing
d t
l ton
n ti
v p
v ine
▁i sanga
▁i komeze
▁a funzwe
ri ho
▁u renga
mu kunda
▁ba tura
▁ba rwanye
za bukuru
▁ku ka
bi geraho
ta ga
▁mu gani
▁mu shimiyimana
▁gu shyirwaho
si kopi
▁r yinshi
▁umu tsi
▁umu kwe
▁umu geri
▁umu tware
ho o
be n
be mbe
be th
▁bu tatu
▁bu noze
▁ha zubakwa
he to
shi lingi
▁ama kara
han d
▁ru ge
▁ru habwa
▁ibi si
▁ubu tayu
to ranya
▁n’i shuri
▁kwi tura
▁ga te
le b
▁mi gari
su gi
▁kuba kirwa
shin ge
▁tu reba
▁y’i cyumweru
▁y’i wabo
▁y’i tumanaho
▁ri hari
yin ka
▁t h
▁nta shobora
▁je ff
▁cya hitanye
▁se th
kira ho
▁aga tsiko
▁aga taha
▁wi yongera
▁cy’i ki
▁n’ibi komere
▁aza gu
▁y’aba mi
▁ita ki
▁mo ra
▁kuri bwa
▁jo y
zan yije
▁biza twara
▁ry’i koranabuhanga
▁ja bo
▁icya ba
▁ugu ze
▁fi stu
▁y’in tara
▁w’in shuti
▁uza tuma
ris m
foto zanya
▁la dis
▁z’ama pawundi
▁utu rutse
▁bwe rekana
tun gwa
▁ju li
▁go l
▁ibiri ndiro
▁impan uro
▁bura tangaza
▁kiza twara
▁iga tsinda
▁inzo vu
▁nyira rukundo
▁bahu nze
nde tse
▁abe shya
▁lo cal
komere ye
teganya gihe
▁hara teganywa
▁cy ri
▁cy’aba turanyi
▁bakiri situ
▁kuha va
▁bemeza ga
▁impa mo
▁kuwu reka
▁nk’iki menyetso
▁pre sident
▁ad dis
▁bw’ibi taro
▁y’ubwi sungane
▁mpi ri
▁ah wanye
rabu rindi
▁ibe ndera
▁cele bration
▁n’ic yongereza
▁bahan ye
▁kumvi ra
▁daniel la
▁kha rto
▁mina gri
▁eli za
▁tube ranye
▁yahamaga ye
▁adi l
▁ruti kanga
▁urw’ aga
▁anaba saba
▁havugi mana
▁kharto um
e st
g wingira
▁ fata
ra yon
▁a gana
▁a rya
▁a gizwe
▁a komeze
▁ba yoboke
▁ba binyujije
▁ba torewe
▁ba subiye
▁ku goboka
ge ranyo
ha yo
yo ta
ze r
▁bi kira
▁bi shinzwe
▁bi cye
▁bi soza
▁bi lometero
▁ya kan
▁ya sohoka
▁m vuye
▁mu bikorwa
▁mu sanzu
▁mu yoboro
ro kora
vu mbura
▁bu se
▁aba jura
▁aba kekwaho
▁gi fatwa
▁ki mo
▁ki menyetso
▁ubu hanzi
▁n’i fumbire
▁n’u bwenge
▁wa mwi
▁wa teguwe
▁aban yiginya
▁aka ha
▁aka bo
▁e tiyo
▁yi tezweho
▁y’i cyubahiro
▁nk we
▁s tre
▁s yira
bwi te
▁n’aba koze
▁n’aba faransa
▁n’aba rwanyi
▁j ama
man ga
▁gusa ka
gore ka
▁nk’u rubyiruko
▁bwa ha
▁co ur
gani je
pi sikopi
▁aha va
▁n’in shingano
▁bata rengeje
zamu rwa
▁uku bi
ni ty
▁ikin yoma
▁nu mber
▁baza za
guru ye
▁y’ama gare
▁ita zongera
▁mo vie
▁yo herejwe
▁kubi bungabunga
▁baba haye
siga zwa
▁babi kesha
▁y’umu tungo
▁biza dufasha
rin gira
▁kujya yo
▁y’a ha
▁bana vuga
▁sta rs
fati re
sira mu
▁bika gira
▁y’ibi ro
korerwa mo
▁iya ba
▁yana kwi
▁yana koze
▁ryi mbitse
▁nza yi
▁umwa ri
▁san te
▁by’umu kuru
▁guhi rika
▁kire go
▁ntu ka
girira ga
▁biro mbe
▁z’in ka
▁z’ubu ryo
▁va va
▁mukan dayi
▁kami kazi
▁yibu tsa
▁w’uru go
▁w’uru kiko
▁yaseze ranyije
▁ig r
▁mode l
▁gushyin girwa
▁tumu kunde
▁ibu moso
yabu tabire
▁har moni
▁indanga muntu
yd ro
din da
▁rutare mara
▁op rah
▁maze mbe
▁baguze mo
yoboka mana
▁gufa shanya
▁rn b
▁n’ibira ro
▁semu geshi
▁kuguri zanya
bando ra
▁ntibyo roshye
▁ladis las
▁etiyo piya
g mailcom
k wu
m z
▁b yonyine
ra rd
▁i tinze
▁i hanganye
▁a ranga
▁a simbura
ri shami
▁n gana
▁n zobere
▁n gendanwa
ga ya
▁u korwa
▁u sesuye
▁ba rwara
▁ku garagariza
te ho
bu rirwa
▁bi ko
▁bi twaza
▁bi hishe
▁ya rangi
▁ya kwan
di en
▁bu kurikira
▁in kumi
▁aba bu
▁ha banje
he beye
fa t
ran gura
▁ama g
▁ama terasi
▁gi hagaze
▁gi poroso
▁ru shanywa
▁ka ty
▁ibi sa
▁ibi rango
▁ma duka
so mo
▁n’i tumanaho
mba riro
kan zu
▁kwi tandukanya
▁kwi suzumisha
sho yemo
▁ga tare
le k
do ro
▁na za
cu cike
▁ni ri
▁bya hagaritswe
▁aka reba
▁e liane
▁yi banze
▁y’i han
▁imi byizi
▁z ana
▁ri ngana
yin ga
▁s rci
shu a
▁f lu
▁nta jya
▁um wongereza
▁cya mi
▁mun wa
▁j mv
umu ra
umu kobwa
umu ntu
▁du fatanye
▁se x
fasha ga
▁nti du
pi mye
▁n’ama foto
▁rwe meza
▁aha magara
▁o di
▁yan gijwe
▁aza korera
▁iza habwa
▁baga saba
▁abi ze
▁uwa baga
▁l yon
▁yu mvikanye
▁ca guwa
▁baba ho
van ganzo
▁li ke
▁babi koze
▁do gere
rin shuti
▁y’in tambara
▁haba rizwa
▁ju s
▁tura shimira
▁bate rwa
▁bada kora
th re
▁yamu fashije
▁iby’ ingenzi
▁jose phine
▁cyo roshye
rwan ywa
▁inta ma
▁fran ck
▁ry’u du
▁and roid
▁bw’in dwara
dri c
▁bimu fasha
▁mwe mbi
▁ntu ga
▁intege r
kanwa ho
▁ex pe
▁yate mberejwe
▁ruku mberi
▁gushyin gurwa
▁abamu kurikira
▁hagaragaye mo
shyinguye mo
shen e
▁n’ub wu
▁nk’igi ce
▁yaru shije
vie w
▁rwabu giri
▁kwishyu rana
▁batekereza ga
▁nzabo nimpa
▁beme ranyijwe
▁gusubu kura
▁z’uru daca
▁vio lence
▁Ki gali
▁ipfu nwe
▁perezi dan
▁mukandayi senga
- n
f oni
h c
l b
n yuma
ra sa
▁i tegerejwe
▁i shaje
▁a shatse
▁a fatika
▁a herekejwe
ba baye
ba bayeho
▁ba le
bi zeza
ta ry
da ta
bo rohera
▁bi shobotse
▁ya ciwe
▁mu la
▁mu korana
▁c yuma
▁gu kinisha
si giye
▁umu shyitsi
ban gu
▁bu fata
▁bu korerwa
▁in kangu
mi korere
mi deri
he jwe
li ty
▁ama jyepfo
▁ama bara
▁ki gana
▁ki st
▁ru zwi
▁ibi tse
▁ma ru
▁zi tangiye
▁zi gizwe
▁n’u hagarariye
san gije
▁kwi kunda
▁kwi tegereza
fu zi
▁wa jya
▁wa ter
▁wa himbye
▁wa zamutseho
▁na kora
▁bya terwaga
su l
kuru rira
zu ya
▁kuba teza
▁tu ma
▁yi cwa
▁yi yahura
▁y’i tegeko
▁imi shyikirano
▁ri bera
▁s se
▁t p
▁t wana
hin g
hin ja
ca f
▁za gize
▁cya genze
▁du ka
▁pa pi
▁twa buze
▁wi z
▁we ra
▁re fe
riza ho
▁aha bera
▁n’in kiko
▁baka garuka
▁bata byi
▁bita bye
ju ma
▁aza kina
▁baha gurukiye
▁rya zo
▁y’ubu ryo
▁kuri hira
▁hi s
▁kubi koresha
▁ibya we
▁w’u mwami
▁di ana
▁y’umu tekano
▁kure shya
▁biza za
▁bin jije
▁yabi koraga
▁ira tangaza
▁ro bwa
▁ubwi zigame
▁bira boneka
▁uka reba
▁haza garagaramo
tanzani a
▁k’u herekejwe
lin da
▁nza bandora
▁guta huka
▁z’a gaciro
▁kwinjira mo
▁yavu gishije
▁mura mbo
▁ina tsinda
▁oli vis
kwirakwi jwe
▁gro ove
▁win jira
▁arse ne
▁riza bera
▁guhe ranwa
▁iso hora
▁kida shobora
▁ise minari
yita ga
▁n’abi canyi
▁Ni ba
▁kavu kire
▁basin ye
rou nd
baru rwa
▁tech ni
▁yashin jwe
▁coll ines
▁isho ti
cici kana
mvan eza
▁dalla ire
rishami bare
l ga
ra te
▁i po
▁a renze
▁a rangiye
▁a sohora
ri r
▁n genderwaho
▁u kin
re man
in o
gi ciro
▁ba sengera
▁ba by
zi rika
te jwe
ze e
bu mbiye
▁ya sha
▁ya curuzaga
▁mu kiza
▁mu byu
▁c yeme
▁gu shimirwa
▁gu herekeza
▁r b
ku gira
▁umu higo
tan e
▁aba rizwamo
▁ha ve
li st
du kiye
▁ka we
▁ka jugu
▁ma melo
▁im yinshi
▁n’a be
kan yaga
▁kwi vuga
▁kwi shimisha
▁kwi bika
▁kwi kinisha
▁wa haye
▁wa fatiwe
▁mi zero
▁ni zi
▁ni rere
tanga mo
▁y’u mwaduko
shin girwa
▁tu bizi
▁tu rusheho
pe s
▁e id
vi en
▁imi hindagurikire
kora mo
yin tege
▁t here
yama ra
▁n’aba hoze
▁ban aniwe
▁ry’ abanyamakuru
▁du korera
▁se le
▁twa zi
▁pe p
▁bwa bonetse
▁sa rah
▁wi zihi
▁ata bwa
▁bara je
tsinda ga
▁aza banza
▁baga bye
▁ita renga
▁mo r
▁ara byemera
ngi riza
▁w’umu pira
sin g
▁y’umu rimo
▁so f
▁ry’i byo
▁ry’i cyo
gaban yuka
rt rand
▁kugera gezwa
▁yabi tewe
▁uta jya
▁da mi
▁bazi koresha
▁icyi hutirwa
▁bira saba
mp ta
▁kuyi rinda
▁utu gari
tegu je
▁haza jya
tegan yije
▁fo od
▁impan ga
▁bada sanzwe
▁ida hwitse
▁h ydro
▁nyira byo
▁y’igi korwa
komere ze
▁kuta vuga
▁make ya
koro ra
▁mwu mvaneza
▁by’aba kozi
baba rire
▁mazu ru
▁hata zagira
▁ntibya du
▁gusu surutsa
▁rw’ama hina
hurira ho
daga dura
▁bakorana ga
▁sina ri
▁tw’ ama
▁tw’ umu
▁ntaba she
▁zizaba fasha
▁ukuba ka
for m
▁kuma rana
banzi rizwa
▁euro pe
▁sen tore
▁vie w
▁bafa shanya
▁mikoro bi
▁y’imyi tozo
mwan ga
▁ipa d
▁kugaru za
▁yahita ga
▁igo r
▁dji had
▁yashyira ga
▁ntwa li
▁commi ssi
▁clip -video
▁gihu ndwe
▁mont ral
▁ted ros
▁minu ar
▁lieutenan t
▁evangeli cal
k ’uko
▁ gara
▁i bere
▁i jye
▁i tuye
▁i dolari
▁i lde
▁i aa
▁a men
▁a rongera
ri que
▁n y
▁n on
▁n kun
▁u shatse
mu tera
re je
▁ba t
▁ba mi
▁ba bwira
▁ba che
▁ba huguwe
gu zwa
▁ku ruka
bi we
ta bi
▁bi kize
▁ya be
▁ya mbere
▁ya hanu
▁ya zize
▁ya jyanywe
▁mu du
se bo
ro ta
▁umu faransa
▁umu padiri
vu ganira
hu raga
▁bu gingo
▁in dan
▁aba sanzwe
▁aba yeho
▁aba toye
he ri
▁ama tariki
▁ama yero
▁gi r
▁gi tari
▁ki ss
▁ru tera
▁ru komoka
du rwa
▁ka i
▁ibi tandukanye
▁ubu hanuzi
▁n’i shyaka
hi bi
▁cyan dika
▁kwi hisha
▁kwi yamamariza
▁igi kundi
▁wa kinnye
▁wa lk
▁na giranye
▁na bandi
cu ke
▁bya zo
▁bya korwaga
▁aka mwi
▁tu tsi
▁e ze
▁y’i mbaga
▁y’i torero
kora li
▁nta kunda
la de
▁za tewe
▁w’i mbere
▁twa menye
▁bwa koreshwaga
▁akaba baro
menye ro
▁n’ama zina
▁re sto
banu ke
▁bara tu
▁o b
▁bita genda
▁an der
▁yara teguwe
▁be gereye
▁rya tangaje
▁y’ama kuru
ine zeza
▁te k
seze ra
▁kumu simbura
▁kubi garagaza
st ana
▁baba zwa
▁iyi tsinda
▁byi genga
▁g su
▁icya mbere
▁kugi kemura
▁twi rinde
▁kuza gira
yuba hirizwa
▁bamu sabye
gisha ga
▁b’i mideli
▁w’in ka
▁rw’i kinyarwanda
muha ga
▁da te
▁bira garagara
manu tse
▁bate ze
▁kiza tangira
▁aki zi
▁kuzamu rwa
▁nk’umu yobozi
▁turi zeza
▁es panye
▁cy’umu ganda
▁cy’umu jyi
▁hu man
▁kuru hande
▁umunya tanzaniya
▁byara ba
▁am ina
▁lu iz
um wana
▁bar wi
▁rwan jye
▁va r
▁bwari ho
▁ubwe gure
▁yaku ze
▁ntibya mu
pg l
don na
▁pari kingi
▁kubya rana
▁st one
▁abyi fuza
▁mina j
▁rida sanzwe
▁black berry
din ganire
▁yatumi ye
▁bull do
▁rwo hereza
▁y’abi canyi
▁byin jiza
▁sai di
▁yagaban yije
▁ito zwa
▁mbon yintege
▁kwira rira
▁uburanga re
▁kubwi mana
▁gupa gasa
▁zama lek
▁hami sa
▁gasan tere
tende nt
▁mapu to
▁gol den
▁commissi oner
▁iaa f
c ker
e k
i i
i ss
▁ V
ra p
▁i tungo
▁a kira
▁a siga
ga he
▁u gerageza
mu hanga
▁ba gere
▁ba jyanama
▁ba soje
ge riya
da d
te mwe
yi tabira
tu rika
bu geni
▁bi zera
▁bi girira
▁bi kungahaye
▁ya jyanye
ki d
▁gu cururiza
ro shya
ho ka
hu mye
▁bu gizi
▁in tungamubiri
▁aba rinzi
mi higo
▁ha boneke
li ba
▁gi hindutse
▁ki ya
▁ki rya
▁ru va
▁ru bonye
▁ru tegeka
mwe merera
▁ka baye
▁ka byiniro
▁ibi vuga
▁ubu ki
▁ubu gingo
▁ma sisi
▁n’a furika
▁zi rya
▁zi huza
▁zi sabwa
▁zi basha
▁kwi hesha
▁na gira
▁na kwita
gera gere
cu l
cu rangira
▁bya gorana
▁aka bikora
su di
▁kuba ba
▁kuba geza
▁kuba kangurira
rere ra
▁yi zeza
▁yi hishe
▁y’i shoramari
▁ri terwa
▁ri huriweho
shu ke
shu mbu
▁t han
va te
va is
▁n’aba saga
rana ga
▁ta r
▁du san
▁du hagaze
▁le gen
tege ye
▁sa lus
▁wi kubye
pi ganwa
▁ata vuga
▁ata bizi
▁rwe za
▁aha bi
▁bara sa
▁baka ki
▁baka ganira
▁an toni
▁uku jya
tin yiro
▁ati i
▁bo ur
▁baga shaka
▁ita ha
▁n’ib y’i
▁kubi kemura
▁bwi twa
▁z’i gihe
▁by’i mbuto
▁yu garijwe
▁ca mpa
▁byi yongereye
van gingo
▁li siti
▁y’umu yobozi
▁ika va
▁bin yabiziga
taba zwa
▁w’in zobere
▁rw’i perereza
▁uta bi
rera mo
▁nku ba
▁bari hiwe
▁bate raniye
th rea
▁aki za
▁b’u munsi
▁nk’a ha
▁by’ubu vuzi
▁fran cine
cika mo
▁bazaba she
chi e
▁chris tiano
▁yita birwa
▁n’abo rozi
▁ina fite
▁ce pgl
▁urugo mero
▁tuka gira
▁com pu
▁byu garije
▁ndu ga
tsindi re
▁ethiopi an
▁bakina ga
▁hata bayeho
▁ntibya kunda
▁ngabo nziza
▁ex ce
▁w’igi kombe
▁nyaka buye
▁ami s
kusan ya
▁n’abi ciwe
▁kige me
▁iby’ubu zima
▁zite ganijwe
▁z’imi rire
▁adu tangariza
▁kiro metero
▁ir y’
▁havugwa mo
tembere ra
▁bagaraga weho
vun ji
chu kwu
▁zitu juje
▁rigi komeje
subirana mo
▁sportif s
▁follo w
- sa
b yuka
c tive
d ho
m m
s m
u wa
u ve
w ho
ra muka
▁a tegeka
▁n tege
ba gije
gi zanya
▁ba ranga
▁ba shakashatsi
▁ba hana
ka r
▁ku manuka
te ur
▁bi shyira
▁bi pfa
▁ya tegetse
▁mu be
▁mu canga
ki ga
▁gu ko
▁gu shi
ku bera
ku mbuye
me hutu
▁umu kandara
▁aba zaba
▁aba kekwa
▁ha ke
▁ha hise
he l
▁ama ko
▁ama kari
▁ki swe
▁ru kwiye
du c
▁ubu hungiro
so r
▁p fun
▁p lan
▁zi shwe
▁zi komoka
▁igi sebo
▁wa twi
▁aban yan
▁na t
▁na dine
▁bya shyizwe
▁bya guzwe
kuru rwa
▁y’u mwana
▁kuba gira
▁kuba zwa
▁iki lo
ren o
▁y’i banze
▁y’i terabwoba
▁uru jeni
▁ri to
▁ri taba
yin jira
shobo keye
shu shan
▁cy’ abanyarwanda
▁nta gi
▁je r
no side
▁n’aba mi
▁za bukuru
byi shimo
▁pa pe
▁twa geze
▁n’umu kino
ji yemo
▁d juma
▁rwa tubyaye
▁n’aban ye
▁n’ubu kwe
▁n’ubu twari
one rwa
▁uku bura
▁n’ibi tego
▁nu mwe
por tu
▁ita kaza
▁yaba gamo
▁te x
▁hi shwe
▁hi bazwa
cya komeje
▁ca ro
riri mbira
▁di s
▁di sea
▁y’a yo
▁y’in dinganire
▁iba korera
▁kubu zwa
▁baki tabira
▁kuvu za
▁pro ce
▁uka vuga
▁tura cya
▁ada ms
▁abanya -
▁kiza mara
▁muka range
is se
▁iga habwa
▁k’u muryango
▁bahu giye
▁z’umu biri
▁ferwa hand
kuba ka
▁muza bona
▁yavu zweho
kini rwa
▁buda sobanutse
▁isa ie
▁ab dou
bangami rwa
▁R u
▁bare bwa
▁riza tangira
▁rw’ama shanyarazi
▁buga habwa
▁byana tuma
▁bire bera
▁bru no
pri se
▁jack -b
▁gukinira ho
▁byaga kwiye
▁ger rard
▁nyiraba yazana
▁bapfa ga
▁olympi a
mpama gara
▁gukin gira
gre e
zzi el
▁zon yine
▁bubo roheye
▁kuriri mbana
▁bahamaga we
▁ambassado rs
divan tisiti
▁shani ta
▁pier rot
▁ramad han
▁urw’aga shinyaguro
▁bache lor
b wana
c ki
m bwire
’ o
▁b rus
ra buye
▁i fashe
▁i komoka
▁i shira
▁i kurikiwe
▁i bwami
▁a gwa
▁a rana
▁a bwiye
▁u koreshwa
▁u zziel
mu zi
▁ba koro
▁ba shyigikira
▁ba shyiraho
▁ba tinze
▁ba tekereje
▁ba fatanywe
za mini
ka je
gu ay
zi ye
ha rimo
▁bi ye
▁bi tsina
▁bi bangamiye
▁ya subu
▁ya sabwaga
▁m fata
▁mu ganira
▁mu polisi
▁mu gwiza
ro tse
di di
▁umu tako
▁umu rindi
ban ira
be rwa
▁in yongera
▁aba sifuzi
▁aba sesenguzi
mi d
shi riza
▁gi ke
▁ki meze
▁ru curuza
▁ka ban
▁ibi tsina
▁ubu twererane
gan go
▁im bera
▁n’i cyayi
▁n’i mbogamizi
mba ti
▁kwi si
▁kwi gana
▁ari ryo
▁ari kumwe
do ri
▁ni du
en gwa
▁aka va
ne ra
▁tu vu
▁e phrem
▁yi basira
ci kira
ci kwe
▁umun wa
▁n’aba zi
▁n’aba fatanya
▁za bwo
▁za kozwe
▁cya tanze
▁du habwa
man y
▁w’i banga
▁gusa ma
▁gusa bana
▁n’umu kuru
▁n’umu curuzi
▁re ne
▁bara teganya
shan ye
▁bita goranye
▁muri yo
▁cy’i mikino
▁n’ibi dukikije
▁n’ibi hangano
▁de r
▁y’aba shakanye
▁guha magarwa
▁baha garitse
▁rya menyekanye
▁abi ra
▁hi bukwa
▁n’ib yuma
▁kumu shaka
▁kumu gura
zuba hiriza
▁kubi tegura
▁fa ye
▁ca leb
▁baba fashe
▁li za
▁nko ngi
rangi rana
▁rwi sumbuye
▁ira komeza
▁bana ba
▁baki ba
▁z’ama yero
▁mba ppe
▁ry’umu saruro
▁bw’u mwe
▁bye nda
▁N da
myi tozo
▁kuta zongera
zin kindi
▁ubusa bane
▁A ho
▁bintu nimana
▁yuba kiye
▁K wi
▁bun yuranye
▁y’iki ganiro
▁muru gu
▁kuga bana
tsindi we
▁abayi gana
▁mpa ga
▁win jiye
▁ry’ibi he
▁ange l
▁ste f
▁aman da
▁tuta za
▁bikaza rangira
kusan yi
▁z’ibi go
▁ger vais
▁or gani
▁seba gabo
▁masa mba
lf ram
▁davi s
▁mure mure
▁hate ganijwe
▁pasi poro
▁supe rin
▁dusin gize
tori al
▁kugaban yirizwa
▁yasimbu we
jugun ywa
▁aa ron
▁harmoni ze
▁kajugu jugu
▁sof tware
▁ilde phonse
▁bulldo gg
b wubatsi
c c
e ur
g inga
j k
u mva
▁i sobanura
▁i burasirazuba
ri kwa
▁n p
▁n shi
▁n garu
▁u de
▁u ci
▁u sabwa
▁u hinga
▁u shinjwa
▁ba kanga
▁ku bandi
zi gera
yi shyira
bo re
bu shake
▁m byi
▁mu horo
▁mu sange
▁mu sirikare
▁gu hingwa
▁gu tsura
▁umu goroba
je an
wan ga
be st
▁aba geni
▁ha bera
ran duye
▁ama shimwe
▁gi kubiyemo
▁ka gi
▁ka ku
▁ibi rwa
▁ibi rimo
▁ma huriro
▁ma donna
▁im yobo
▁im yubakire
to ze
hi gaga
mba rire
▁zi re
▁zi geze
▁kan yinya
san d
san gwa
▁kwi rengagiza
▁ga cu
▁ga bri
▁wa ko
▁wa kiniraga
su mbu
yobo re
▁tu gi
▁yi bajije
▁imi rongo
▁ri reba
aba byeyi
hin zwe
▁n’aba shoferi
▁za byo
▁cya kiriye
▁w’i si
▁n’umu shinga
▁n’umu kecuru
▁aga ho
▁aga hitamo
▁nya ki
▁bwa tanze
▁sa vio
▁wi zewe
menye kani
▁n’ama ta
ani si
▁baka bana
▁kwe mererwa
tin o
▁aza ku
▁be i
▁y’aba ri
▁abi cwaga
▁mo teri
▁uwa bi
▁uwa mba
▁l wa
sin yweho
▁y’umu ziki
▁biza gira
▁biza mini
er s
▁do u
▁ika yi
▁ika vuga
▁nyi rin
▁ugu haranira
▁yabi gizemo
▁w’in teko
▁rw’i minsi
▁mwa mbaro
▁icu raburindi
tegu za
tun ganye
▁tura ki
ria que
wandi ka
▁ada hari
ch ris
▁ana saba
▁kiri yo
▁aki wacu
▁w’aba kundana
▁cla re
▁twe gereye
▁iwa we
▁ntiba ba
▁ntiba bashije
tegura ga
▁amavu riro
▁amavu gurura
▁yamu fashe
▁cy’in zara
▁cy’in tambara
▁kayi gi
shyan o
▁by’ama buye
byin ira
▁aya bo
▁bacu kuzi
▁ziba rizwa
▁kugu mana
▁I yi
▁bw’in zuki
▁yari geze
▁lu cas
▁guhi tanwa
koro hera
▁at ini
▁ea rth
▁muto ya
▁ce o
▁eu stache
▁R e
▁mana sse
▁ruga ga
▁bahi te
rohe rane
▁akaza jya
▁jac kie
▁atara bona
▁on ly
▁nk’iki bazo
▁gusin da
▁by’imi ryango
▁by’imi shinga
▁yakwi twara
▁yasubi tswe
▁fau con
▁damas cne
▁icy’ abanyarwanda
▁n’ic yemezo
▁n’ic yamamare
▁arabi a
▁twagira yezu
▁shi tani
shimu ta
▁iteganya gihe
▁smart phones
▁Y a
shyingi ranwa
▁yiru kanwe
▁paki stan
▁mituwe li
▁hen ry
▁cyaga bwe
▁imye yo
▁y’ihan gu
▁wiz kid
▁brus se
▁superin tendent
- z
I D
a k
f ransa
g r
▁i gende
▁a rera
▁a shinja
▁a gence
▁a voka
ba tsi
▁u rwanya
mu kuru
re myi
gi rije
▁ba ve
▁ba sobanura
▁ba herekeje
▁ku gena
▁ku garagazwa
zi muha
ha burarw
yi ja
yo tsi
▁bi korana
▁bi mera
▁bi genga
▁bi gabanya
▁bi hombo
▁bi hungabanya
▁ya su
▁ya komeza
▁ya fatanwe
▁ya byutse
se rt
▁c l
▁gu kangu
▁gu shwana
ro ni
go ndera
▁r yubatse
▁umu gezi
ti zwa
ban yamakuru
hu ze
▁bu tu
▁bu genda
▁bu mve
▁aba pfumu
sa tion
▁ha kunze
▁ama siganwa
▁ama candwe
▁gi humbi
▁ki ha
▁ru mogi
du kira
▁ka sho
▁ka le
▁ka gera
▁ibi mu
▁ubu tumire
▁ma torero
▁ma dolari
▁ma vuriro
▁n’i huriro
▁zi hariye
kan de
na m
▁kwi beshya
▁kwi gishwa
▁wa katiwe
▁wa kiniye
▁mi gambi
ts ’
▁y’u bwongereza
▁kuba tunga
▁e ve
▁e ver
▁yi huse
▁yi fotoza
ren de
▁y’i bindi
▁uru bu
ci re
ce f
▁ib wi
▁nk wi
▁nta gomba
▁nta byo
pa l
she ra
▁n’aba tu
▁za ga
▁j ane
▁du shyize
co u
▁se ma
rira ga
▁gusa za
▁n’umu camanza
▁ko hererezanya
▁nya cyo
▁sa hel
▁d ini
▁rwa shyizwe
▁n’ama vuriro
▁aha rimo
▁minisi tri
▁n’in yandiko
▁bita mu
▁cy’i bihugu
▁uku tumvikana
▁ho no
▁ati iyo
▁n’ibi rango
▁de gree
garagara ho
▁baza ya
▁iza tuma
rya manye
▁baga kura
▁abi fashijwemo
▁ita gira
▁vi et
▁ye s
▁kubi shyira
▁kubi menya
st le
▁bwi yongereye
sore jwe
▁iz ana
▁byi fujwe
▁batu nze
▁kujya ho
▁twi ta
▁ugu ha
taba shije
▁bamu shinja
▁w’in twari
▁iba ze
▁iba mba
▁rw’i shyirahamwe
▁biga komeza
▁biga saba
▁ro gers
▁man ini
▁baki teza
▁uwi hirwe
▁mwa mba
▁mwa koze
▁ruba sha
▁wo men
▁cy’u rukundo
▁tura tsinze
▁go ver
▁ingu rane
bin yabiziga
▁kiri situ
▁kiri mbuzi
th le
▁iga twara
▁ida kora
▁ryi swe
▁y’igi fungo
▁ntibi gire
▁by’ama dolari
▁U bwo
huti re
▁uzwi ho
▁tuba ri
▁guhi mba
▁baku ye
▁bw’umu gore
▁ry’ubu shakashatsi
▁cy riaque
▁com mer
▁batara bona
▁kw’i mi
▁ntiya basha
▁myi garagambyo
▁ry’ama ta
▁bahi zi
▁bahi gwaga
▁zira ba
▁guhanga yika
▁buza fasha
menyesha ga
▁mbe ga
▁ire ne
▁gutu bura
▁kizi genza
▁rw’u wo
▁yagu zwe
▁iru ngu
▁w’ibi taro
▁banya furika
▁cap tain
tungan yijwe
▁jan ja
▁ag ri
ziba girwa
▁utara shatse
hamaga riye
▁asi imwe
▁mutu yimana
▁iy’ u
▁ry’a merika
▁bitu gu
▁cho ir
▁n’ub wubatsi
▁tuda fite
▁n’amaso siyete
roro ka
▁basi ganwe
▁bakan gurirwa
▁mine mbwe
▁basha be
▁ryan jye
▁tekini ki
haguru kira
▁boro jwe
▁biran anirana
hanan giriza
▁ubuhe here
▁br yan
▁umwo tsi
▁mande la
▁kute sa
▁ubuda hangarwa
▁mexi co
▁uruzi tiro
▁equa torial
b ine
e au
f lix
g ha
m won
o o
u wo
▁i kennye
▁a kore
▁a ton
▁a hinga
▁a fungiwe
ya ge
▁u korana
▁u cye
re ho
gi ranwa
▁ba h
▁ba subiza
▁ba sobanuye
▁ba kurikiranwa
▁ba shishikarizwa
▁ba shishikajwe
ka zwa
▁ku genera
yi koresha
tu elle
▁bi ge
▁bi kunda
▁bi hindura
▁bi beshya
▁ya sanzwe
▁ya gura
▁ya komokaga
▁m fungwa
▁mu yango
▁mu vandimwe
▁c c
▁gu torerwa
▁gu kererwa
▁r v
me ranye
ti metero
▁bu tike
▁bu mbogo
▁in ota
▁in yemeza
▁ha hurira
▁ama shyi
▁ama suku
▁ama jonjora
▁ama suka
▁gi saga
▁ki gi
▁ru kunze
▁ru riya
▁ibi toki
gan ano
▁ma dorali
▁ma vubi
▁im bi
to ranijwe
zo vu
hi rana
▁zi cu
▁zi bayeho
▁kwi hana
▁kwi tinya
▁kwi giraho
▁kwi tekerezaho
▁ga ju
▁igi komangoma
le tte
▁wa du
▁wa suye
▁ari rwo
▁mi gani
do r
▁bya tsinzwe
▁aka zana
▁kuba korera
▁kuba rirwa
ama jyepfo
▁e lie
▁yi ce
▁yi kubita
riki ya
ryo shya
▁z la
aba gabo
pa si
▁cya twaye
▁du hura
▁du tegereje
▁aga rutse
tege kwa
▁bwa maze
▁bwa sanze
▁wi baza
▁wi swe
▁we rekeza
▁ata gomba
▁aha siga
▁n’in keragutabara
▁n’in dabo
shuri rwa
▁yan yerejwe
ni geria
▁ho ngerwa
tin ga
▁yara rangiye
▁aza be
here ze
▁y’aba tishoboye
▁abatu nganya
▁baha bwe
▁baha korera
▁rya ha
▁abi fitemo
raga mo
▁bafite mo
▁yo rohewe
▁jo a
▁kumu tera
▁nda gu
▁nda gira
zan eza
▁kubi reka
▁bwi herero
▁z’i mana
▁z’i bya
▁nk’i ya
▁bw’i humure
▁so rwa
▁ry’i bikorwa
rasi yo
▁twi fatanyije
▁twi zera
yuba ke
▁con te
rus sia
▁n’imi koreshereze
▁bazi ranye
▁w’ama kipe
▁kuyi kinira
▁ur wandiko
▁uka gira
mere rwe
yandi kishije
▁y’ibi lometero
▁n’igi ti
▁muka songa
▁nk’umu nya
▁ida hwema
▁izi tari
▁muzi yumvamo
▁b’u ru
▁au to
▁ar bore
▁ntibi za
▁eri threa
▁bato jwe
byin i
▁U ra
▁byara tangiye
▁inko vu
▁z’aba rabu
▁are bera
▁b’in zobere
mun anira
▁club s
▁nke ka
▁bazaba fasha
▁tuka gera
▁tuka jya
▁byu mwihariko
▁y’iki renga
▁bare kuwe
▁badu saba
▁badu haye
▁dan ce
▁itu kura
▁fre wa
▁x p
don ke
▁pre ss
▁yatu tse
▁kumwi taho
▁sou dy
▁ngi rinshuti
▁C o
▁icy’ ingenzi
witwa zo
▁rw’in kari
▁ibu ranisha
▁mc kin
▁k’ubu curuzi
▁kigali- rubavu
▁kali ra
▁rwu nge
▁trans port
▁tuni ziya
▁amasa mbu
stan t
▁jen ner
▁mate mbabuzi
▁colo mbe
▁fil me
▁gufu ha
▁smi th
▁htt p
▁n’inko ngi
▁ide ni
▁yaou nde
▁umutu zo
▁Mura koze
▁mitiwe ri
▁mora le
▁dusingize mungu
▁commer cial
- c
d b
f ti
f la
▁b wuba
▁i ve
▁i mena
▁a kanga
▁a kurikiranwa
▁a shyire
▁a shyingurwa
▁n tana
ba ti
▁u ’
▁u vuka
gi tse
▁ba senga
gu tera
▁ku kuba
bi ko
ge s
da ya
da ru
da di
▁bi tumye
▁bi shimye
▁ya shyikirije
▁ya fatwaga
se gura
▁gu komereza
go nga
di ye
ku yeho
▁umu pfumu
▁umu satsi
▁bu saba
▁in ganga
sa fari
mi siri
ran ganya
han ganishije
▁gi shoboka
▁ru huza
▁ubu se
▁ubu jyanama
▁ma g
▁ma shyirahamwe
▁ma xi
so mwa
zo s
fi eld
mba yeho
▁zi yongereye
▁n’u turere
twa je
na t
▁cyan za
▁kwi hutira
▁kwi gobotora
▁kwi fotozanya
▁igi tangazamakuru
▁wa tangaje
▁wa toza
▁mi si
▁na ta
▁na gerageje
cu ranzi
▁ni ru
▁bya hi
▁bya tinze
▁bya tunguye
▁bya gufasha
kuru ye
▁tu girana
▁yi rinda
ci o
▁ri saba
▁t mz
kaba ka
no me
ca go
▁n’aba sanzwe
▁za zo
▁za turutse
indi ra
maze mo
▁du kunda
▁du tangira
man swa
▁se fu
fasha mo
▁twa gombye
▁n’umu rimo
▁sa ca
▁sa dio
zaba sha
▁si mu
▁rwa vuye
▁rwa tangiriye
▁bara tangaza
▁yan yoye
▁kwe gerwa
ni ght
▁nu kuri
▁de mocra
▁baza haguruka
▁iza ri
▁iza gera
▁baha sanga
▁bo mbo
▁abi zi
▁abi hakana
▁kuri mba
▁isi ze
korana ga
pan ze
▁kumu rekura
▁by’i terabwoba
▁yu ngutse
▁ca l
▁ca pital
▁ibya mubayeho
▁iz in
▁biza hita
▁biza tangwa
▁kin yobwa
▁batu nzwe
▁twi yemeje
▁iha mya
rie re
mwa ro
▁icyi swe
▁no tre
▁uwi teka
▁uwi hanganye
▁ze mewe
▁bagera ga
▁ada m
▁haza torwa
▁kuzi shyura
▁zu ma
▁bw’u mwuka
▁aki ga
▁muka rere
mbura ga
▁bayi tsinda
▁by’in yungu
▁ryi gisha
siyo neri
▁es p
▁nk’a ko
kire mwa
▁kayi gamba
▁ntibi vuga
▁umwa li
▁ura mu
suzu guro
▁hakaba mo
▁ry’aba ganga
▁umunya politiki
▁ruza tanga
▁agera ho
kara mu
▁kuta menya
▁tuba he
▁lu x
▁buda hagije
▁kira geze
▁kira hari
▁bimu babaza
▁sin shaka
▁igice ri
▁clau dien
hagaze ho
▁hara cya
▁k’i gihugu
▁biro metero
▁kuda komeza
cyu ye
▁K a
▁guhu ngi
muri hira
▁zita gira
▁akiri ho
▁guhe nda
▁guhe mbwa
▁know les
▁mbu rugu
▁kubyi tabira
▁ndo ba
▁k’umu biri
▁fla vien
saka ye
▁uzamu simbura
▁bahan gane
▁n’ibiro metero
▁pri x
▁par mehutu
▁habin shuti
▁batera ga
▁guhana hana
▁bize zwa
▁baseze rewe
▁banyu zwe
▁op ration
▁gusubi kwa
▁kwiyi taho
▁mine duc
shwana ma
▁bani teguye
▁bur na
▁tou rism
▁utwa bo
▁akin e
▁audi t
▁n’imvu go
▁off s
murika gurisha
▁by’ubwi shingizi
▁amaba ruwa
▁ntibira menyekana
▁kinya mwuga
▁kw inezeza
▁yahuriye mo
▁kwege rana
▁ronald inho
cyan gwa
▁muja wa
▁net flix
▁marsha l
▁isabe lle
hoo com
▁mamelo di
▁ntibyadu kundira
hibi tion
▁brusse ls
e ws
f on
i bya
m bri
n nye
p fana
s me
t one
u ma
u th
’ eau
▁ gene
▁i an
▁i fatika
▁i tangizwa
▁i yindi
▁a y
▁a me
▁a to
▁a subizwa
▁n zima
▁u fi
mu ziki
ye d
ko riko
▁ba girwa
▁ba tange
▁ku ze
▁ku yandura
ta baye
da l
bu rezi
▁bi yo
▁ya rangiza
▁ya mpaye
▁ya ranzwe
▁ya shimiwe
▁mu kun
▁mu rya
▁mu buryo
se ngo
ki rwe
ro ng
go v
▁umu gabekazi
ti riza
ti cs
▁bu kana
▁bu herutse
▁bu kode
▁aba rwaye
yan da
▁ha shyizwe
▁ha kinwa
shi shwa
▁ama ro
▁ama shyirahamwe
▁gi kemuke
▁ki ti
▁ibi bera
▁ibi shobora
▁ubu rya
▁ubu nini
to ire
kin ya
▁n’i bura
▁n’i ciriritse
▁zi sa
▁zi kana
▁zi kunda
▁zi zere
▁zi fashishwa
▁kan yarwanda
fu re
▁ga hini
▁igi fu
▁igi tuma
▁mi rasire
▁na tanga
▁na maze
▁na bantu
▁bya go
▁tu jye
▁e c
▁ri teganyijwe
men yanye
▁nta kintu
la mini
ca ho
umu haburarw
▁du hari
▁du sabimana
▁nk’u rugero
▁aga to
▁nti muga
▁nti rura
▁co pa
yeme ye
▁po gba
▁d lamini
▁ata hanye
kuriki rani
▁bara giye
▁bara pfa
▁n’in gengo
▁bata bizi
▁cy’i zabukuru
▁uku girango
▁yan e
jyan i
▁yara kiriye
▁yara muhaye
sobanu riwe
▁de sert
▁aza turuka
▁be rtrand
▁iza tera
▁iza tangirira
▁y’aba polisi
▁guha magarira
▁abi bwira
▁abi teganya
▁yaba baye
raga rutse
▁ara gira
▁ara genda
▁nda mutse
▁nda hindurwa
ll ing
st ra
▁bwi mbitse
▁z’i yi
▁ca iro
▁kon seye
▁iyi he
▁g no
▁me dical
▁w’u burayi
▁bw’i torero
▁al u
▁rwi hishwa
bereye mo
▁ira yi
▁ira koze
▁uta shye
▁by’u bwoko
ywe ra
▁uza bi
▁baki rwa
pira tion
▁ze merewe
▁bate merewe
tegan yan
▁kuzi mya
▁w’a kanama
bin yoma
▁muka mbungo
▁nyira ru
▁nka gira
▁iby’ uko
mban i
▁rd r
▁by’ubu gizi
▁by’ubu rwayi
▁impu shya
▁niba mara
▁imu rimo
▁b’aba hungu
▁y’uru gamba
▁I bi
▁yavu guru
tumi ye
▁dia rra
▁umwi jima
muga ye
▁gusha kishwa
▁naba bwiye
▁hara barurwa
▁chi cago
▁rwan dan
▁yuba kwa
▁yuba kiwe
▁bun yu
▁bwan gu
▁n’umun ani
▁buza za
▁gutu mira
▁ry’ibi yobyabwenge
▁bica ga
▁yica ga
▁bw’ibi hingwa
▁yare meye
▁S i
▁y’ubwi canyi
▁kabe ni
▁gushyin giranwa
▁ahamya ko
▁mukaba ramba
rea t
▁bama ganye
▁sur ’eau
▁y’abi tabiriye
▁eli as
▁manira guha
▁coge ar
▁die umuhaburarw
▁bw’aka gari
▁blu ez
▁ifu ru
▁n’ububa bare
▁mituwe ri
▁umuka mo
▁esi panye
▁gutere ta
▁gushyami rana
▁champion ship
▁tropi cal
▁n’umunye zamu
▁gatara yiha
▁antoni o
noside ri
▁viet nam
koriko ri
M A
b wonko
f cs
u tse
u ts
▁ tse
▁i zanye
▁a byaye
▁a kubiye
▁a sanganywe
ri rira
ga e
ya gu
▁u shi
▁u san
ko mye
▁ba byo
▁ba kurikira
▁ba herereye
▁ba menyekanye
▁ba sobanukirwa
▁ba vanwa
ka se
gu rane
▁ku juririra
zi ritse
da ha
bo y
▁ya mara
▁ya fatwa
▁ya renze
▁ya korwaga
▁m wanda
▁m fura
▁mu tari
▁mu bwire
▁c ru
▁gu sho
▁gu tegeka
▁gu pimwa
di poloma
▁umu motari
▁umu cungamari
ho ha
▁bu shinjacyaha
▁in te
▁in yanya
▁aba ti
▁aba bona
▁aba pilote
de re
mo ra
▁ha koreshwa
▁ha herewe
▁ama baba
▁ama dosiye
▁gi faransa
▁ka ki
▁ka renzi
ke nye
▁im piri
kin giwe
▁zi shaka
▁zi henze
▁kwi shora
▁ga banuka
▁wa buze
▁wa rwo
▁wa koreye
▁mi deli
▁mi cho
kun d
do m
▁na ru
▁na wu
▁na rinzi
gera mo
en ze
gwa gye
zu zanye
▁tu mwi
▁tu bane
vi le
vi ziyo
▁y’i ba
▁ri ndi
▁ri genewe
▁ib yobo
▁cy’ indirimbo
yama tegeko
▁gihe rutse
▁umun yonzi
▁za rwo
▁cya mbere
umu renge
▁du sabe
▁w’i vugabutumwa
▁twa tsinze
▁nk’u mwi
▁nk’u rwo
▁sa va
▁sa ve
▁ata hita
▁ata renga
▁ata ririmba
▁n’ama koperative
▁aha korerwa
▁bara tangiye
▁n’in teko
▁o bi
▁bita jyanye
▁muri bo
▁yan yuze
▁yara tanzwe
▁baza koresha
▁be zos
teri neri
▁baha magara
▁rya garagaje
el la
▁bo russia
▁ita ba
▁z’u wo
▁kuri ya
▁hi ro
gami ra
seze ranije
▁kumu vuza
▁w’umu hondo
▁baba rusha
▁nk’i soko
▁li bre
▁biza shoboka
▁batu ngu
▁yaha garika
▁kuza hangana
▁ugu komeza
▁fi tina
▁bamu bwiye
▁b’i m
mwa rimu
▁baki gira
▁uwi shwe
manu ra
▁utu je
▁cye za
▁wo rd
▁ana fite
▁bada huje
▁abanya politiki
▁byo roheje
▁bati shyurwa
▁ida shobora
▁izi ba
▁nyira safari
▁y’igi tsina
▁udu tabo
▁cy’ama teka
cha l
▁azaba fasha
▁akana jya
mwu mva
muka tiye
pho re
▁I yo
▁umwi canyi
zin u
▁buta ki
sohoka mo
▁baku rwa
▁mura mu
▁mura peri
▁kare mano
▁bimu kiye
▁ade l
gerageza ga
the w
▁kuda kora
▁kita geze
▁yageze ho
▁busa be
▁yahi mbye
▁bakorera mo
▁bakana tekereza
▁dan y
▁ire shya
▁bica ra
▁yavuye mo
▁ikaza jya
▁tru e
▁buga cya
▁gusin zira
▁yabu ranye
▁men ye
▁kumwi ca
▁ryita birwa
▁ndo rwa
pri l
▁bibu jijwe
tho n
▁ngi shwanama
wn s
▁ikiri ho
▁mon tre
dindi je
tha lie
▁akomoka mo
phe t
▁or der
▁yagi twaye
▁y’ibikorwa remezo
▁D u
▁y’ib yamamare
▁kidu m
▁micro fin
konje sha
▁nkan jye
▁gita mbo
▁cri cket
▁batahu tse
▁fro m
▁nk’imi handa
▁superefe gitura
▁uburi ganya
▁zaka jije
ruma si
▁hos pital
▁odi le
▁campa ign
▁muhoro ro
▁sorwa the
▁mckin stry
S ports
c ques
m r
n hi
n ing
r -
u sco
z n
▁ shyiga
▁b renda
ra swa
▁i ze
▁i gendera
▁i funguye
▁a giriye
▁a shyigikiye
▁n ani
ba se
▁u tana
▁u higa
mu giraneza
re sitora
wa se
▁ba su
▁ba huza
▁ba ciye
▁ba bangamiwe
bi ru
bi kaba
▁bi ma
▁bi shobo
▁bi sasu
▁bi hinze
▁bi vanze
▁ya garagaraga
▁ya gennye
▁m byumva
▁mu na
▁mu hari
▁gu in
▁gu han
go n
▁r mc
ku bone
▁umu senateri
▁umu dali
ti a
▁bu turuka
▁aba sura
▁aba pasiteri
de ga
▁ha tangajwe
▁ha menyekanye
he n
▁gi shingiye
▁ru d
▁ru shyinguyemo
▁ibi songa
▁ma ko
▁ma in
▁ma man
▁ma geragere
▁n’i y’aba
hi li
mba ho
▁zi yobowe
▁zi komeretsa
▁zi rusheho
na el
▁kwi banda
▁kwi tondera
▁kwi menyereza
▁wa ki
▁wa shakaga
▁mi tter
▁na tions
▁ni ze
▁ni twa
▁bya yi
▁aka vuyo
tanga ho
ne li
▁yi fitiye
▁yi kurikiranya
▁yi yemereye
▁uru hererekane
ci ritse
▁ri banza
▁ri kunze
▁f ln
▁ic g
▁n’aba shumba
▁n’aba kiriya
▁za garagara
bye meye
▁cya du
▁cya gize
▁cya gombaga
wu bona
wu mva
▁n’umu turanyi
▁aga korerwa
▁bwa ryo
▁bwa koreshwa
▁wi ki
▁akaba ho
▁akaba fasha
▁ata bona
▁ata gifite
▁rwa maze
▁n’ama shuri
▁n’ama karita
▁re ve
▁n’ubu gizi
▁bara vuze
▁bara hawe
▁baka va
▁baka zaba
▁bata vuga
▁bata haga
▁bita vugwa
▁yan ya
▁baza korana
▁aza yi
▁be li
▁guha mya
rya mira
▁baga fatwa
▁abi tse
▁ita jya
ja cques
▁y’ubu hamya
▁z’u turere
▁mo sco
shyu re
▁gute rwaho
▁ye gereje
▁nda teganya
ll um
▁kubi fata
▁bwi mba
▁l ine
▁fa rumasi
▁g r
▁al g
▁al fred
▁babi gezeho
▁so y
▁ry’i minsi
min g
▁cyi tabirwa
▁bamu garagarije
ste ur
▁n’imi renge
▁v d
gende kere
▁ro ndereza
▁uza va
▁nku liki
▁w’ama vubi
▁kuyi shyura
▁mwa ya
▁la w
▁wan yuma
▁ndi fuza
rengan u
▁ju n
▁tura cyari
bili ty
▁uga fata
boneka ga
baza ga
▁bati shimira
sta te
▁azi fashisha
▁bahu nganye
▁cy’in gwate
tel la
▁tuza bi
▁muza kora
komere tswa
gambi riye
▁bacu kura
▁abo ut
▁y’uru hererekane
teganya ga
▁ibin ure
▁kuya gura
▁at ya
▁basa biriza
▁maso zera
▁john ston
▁yatsinze mo
▁imbo go
▁z’ubu tabera
▁rwan ze
▁yayi tsinze
▁R a
▁kuga ma
▁kuga burira
▁ndu ngutse
▁muti mura
▁bahi she
▁nk’in shuti
▁ukwi zera
▁rw’a ga
▁nara mu
▁nara bi
▁mukura rinda
▁yaku we
▁ane zerewe
▁ex hibition
▁oms who
▁d’ as
▁sina ch
▁bashya mi
▁abivuga ho
▁yate je
▁jan ua
pfuka ma
▁avu kira
▁avu gana
▁yasin ze
▁kuti ta
▁yahe sheje
▁gukorerwa mo
▁mon usco
▁bwu nganira
▁abere ka
▁ntawa bi
kwan ga
ryohe ye
▁bikana tuma
▁bashyira ga
toro shi
▁produ ction
▁misa go
banji rijwe
shimu si
▁myan da
yoro shya
▁rt d
▁yanen zwe
▁gan gi
▁soma liya
▁adi ren
▁ntazi gera
hiri zwe
▁akere keza
▁salo mon
▁eta pe
▁res tora
▁iwan yu
▁b’igitsina gore
▁ncu ro
meru ni
▁z’ibyo rezo
▁gere nade
▁kansi ime
▁korohe rwa
▁rapi de
pis kopi
▁umutsi ma
▁mubyu kuri
▁exce llen
▁nat nael
▁bakoro herezwa
▁arbore tum
▁cyanza rwe
gov rw
▁microfin ance
▁mitter rand
▁janua ry
b yandika
h y
r cu
s -
an go
▁b wubatsi
ra rana
▁i guye
▁i tyo
▁a terwa
▁a tana
▁a byara
▁a tangiza
▁a herereye
▁a tinda
▁a garagaze
▁a pril
▁n zamu
▁n genzi
▁n kingo
▁n dinda
ga mbanyi
▁u wumu
wa sa
▁ba jyanye
▁ba gisha
▁ba hugurwa
▁ba jyanywe
za tion
ka ze
ka lisa
da mbara
ze ze
bo th
▁bi zihiza
▁bi rinde
▁bi den
▁ya bura
▁ya tangizaga
▁ya hanze
▁m banda
▁mu gombwa
▁mu fti
▁c re
▁gu y
▁umu kirisitu
ho both
be mera
▁bu cuti
▁in tumbi
▁aba gira
▁aba korera
▁aba tsinze
▁aba kurikiye
▁aba kandida
mo teri
mi ro
▁ha ji
▁ha mera
▁ha tewe
▁ha garagajwe
▁ama torero
▁gi ca
▁gi kesha
▁gi pima
▁gi kurikiyeho
▁gi huru
▁gi kirisitu
▁ki ki
▁ki zamuka
▁ru gari
▁ka da
▁ka boneka
▁ibi hombo
▁ibi shanga
▁ubu rusiya
▁n’i curuzwa
hi mura
▁zi tewe
▁zi ganjemo
▁zi tangirwa
▁kwi huza
▁kwi muka
▁kwi shakira
▁ga cinya
▁igi kundiro
▁na thalie
cu men
▁ni twe
▁bya vuye
▁bya jyaga
▁aka wu
▁y’u r
▁kuba zanira
▁tu rikiya
pe z
▁yi ye
▁y’i myanya
▁imi rya
ci lle
▁ri je
▁ri curuza
▁ri sobanura
▁s ingombwa
va tion
la tion
▁n’aba ru
rana yi
▁ban gui
co de
byi zeye
nga ga
▁sa lle
▁wi mu
▁wi fatanyije
▁wi yita
▁wi caye
▁co w
▁ata tangaje
▁ata bashije
▁si g
▁rwa mbariro
▁rwa mukatiye
▁re ge
▁re hoboth
▁bara hunga
▁bara hisemo
sanga mo
ina raribonye
lo ri
▁o mbo
▁cy’i ryo
▁cy’i rushanwa
nge je
mbe ho
por ters
▁baza tangira
bone rwa
▁baga kundana
▁y’ubu renganzira
ine zaneza
▁vi ctor
▁ara cyari
jo mba
▁uwa hize
▁hi m
▁kumu geza
▁kumu rikira
▁bikorwa mo
▁bwi swe
riri rwa
▁iz ’umu
▁byi tiriwe
qu are
▁nk’i bya
▁w’u mwimerere
▁li ti
hindu re
▁y’umu tima
▁batu bwiye
▁kugi he
▁biba rirwa
▁biba korerwa
▁bamu zi
▁bamu haye
▁bamu giriye
rie d
▁iri ba
▁bira sa
▁baki gize
▁uwi mbabazi
▁mwa bi
▁mwa duko
▁la ke
▁la va
▁z’ama zi
▁bwe meye
▁wo l
▁rugo mo
▁cy’u bwongereza
shami kiyeho
▁minsi tiri
▁uka banza
▁amu teye
garu za
▁tura yi
▁niyo mufasha
▁bate re
▁kiza gira
▁kiza korwa
▁iga tangira
▁k’u muntu
▁ntiba byumva
▁yamu sabye
▁yamu ritse
▁n’im yu
▁muda heranwa
▁cyo hoha
▁lo ca
▁cy’ubu kene
▁ziza tangwa
▁inko rora
▁ngu bu
▁un yuze
▁kuya kosora
yamba jwe
▁naba ga
▁uzi ko
▁gice ri
▁k’ abanyarwanda
▁by’aba yi
▁kiba ya
▁kara mbi
▁kuga bira
▁nk’aba kinnyi
▁bahi tanywe
▁byamu gendekeye
▁ikiba ya
▁mpa mbara
▁ihe ma
▁ire kurwa
▁yaku bwira
▁kizi guro
▁tuga komeza
▁w’ibi go
▁yate raniye
tta wa
▁guto mbora
▁fan s
▁izuba kwa
▁bahuriye ho
▁car di
▁nyaba byeyi
▁bahe mbwe
▁baho rana
▁guho sha
▁tha cien
▁umwarimu kazi
toro ka
bari rana
▁kuro kora
▁w’umunyarwanda kazi
▁op portu
stre po
▁gusubi rana
hh hh
▁b’abanya furika
▁sona rwa
▁azamu fasha
▁zizi yongera
▁abaya hudi
▁akaga mbane
▁duha ranire
▁n’impan o
▁bihu tiye
▁fil ms
▁spa ce
▁ky lie
▁gutembere ra
tekereze ho
▁buruse li
▁lan do
▁twandi kaga
▁fore st
shyingu wemo
ahu bwo
▁ele c
▁histo ry
▁gutaba rana
▁ins piration
▁gym nase
▁pha rma
▁sing le
▁virgi le
▁eliza beth
▁nkwe to
▁dami en
▁disea se
▁imbera kuri
▁kaku le
▁gabri el
dipoloma te
▁opportu nity
O V
b be
e si
g f
g na
k t
k win
p d
p te
p tiste
▁b waka
ra po
▁i kunda
▁i hura
▁i rwaye
▁i tinda
▁i yoborwa
▁a geza
▁a boneka
▁a tegura
▁a garagariza
▁a shobore
▁a tumvikana
▁a shakishwa
▁k lo
ba ptiste
▁u a
▁u komeza
▁u twara
▁u hamwe
▁u sigaranye
mu kanya
ko ranya
▁ba g
▁ba shu
▁ba vo
▁ba trice
ka mba
ru go
▁ku do
▁ku tara
te o
te rura
te gurire
yi ca
tu rn
▁bi jye
▁bi geraho
▁bi twikira
▁ya shakanye
▁ya kwemera
▁ya yoborwaga
ana f
▁umu koro
▁umu fatabuguzi
▁bu kenewe
▁in su
▁in gwe
yan girika
de x
▁ha garagaramo
he ma
li fe
▁ama -
▁ka gira
▁ka rongo
ke le
▁ma go
▁im bonan
▁p rice
▁zi gere
▁zi komeza
▁zi kurikira
▁zi kenewe
▁zi ryamye
▁kan gwagye
▁kwi hutishwa
▁kwi fotoza
▁ga korwa
▁wa re
▁ari hira
▁ni ce
▁ni bindi
▁bya ho
▁bya tanga
▁bya hagaze
▁aka ra
▁aka kubwira
ama ra
▁tu zamu
▁yi rinze
▁iki renga
yon zima
▁y’i banga
▁y’i rushanwa
▁imi yaga
▁ri tegurwa
yin do
▁t rez
▁nta rwo
▁n’aba genzi
po c
▁ban ywa
▁ta gisi
▁du hitamo
▁du tange
▁w’i jonjora
ubu ndi
▁twa ke
▁twa bashije
ve juru
▁bwa bereye
▁sa kabaka
▁wi cara
pi erre
▁si tting
▁si vile
menye ranye
▁re strepo
▁aha cukurwa
▁n’in cuti
sanga ga
lo ro
▁bata kiri
▁o k
▁kwe re
▁kwe merwa
ni te
▁yara bin
▁yara hawe
▁bite je
sobanu re
▁iza bo
▁rya sinyweho
▁baga banuka
mari e
▁z’u ruganda
shyu we
▁kumu kunda
▁nk’ abanyafurika
▁baba za
▁iz ’i
▁g re
▁li cen
▁kin shi
▁icya garagaye
▁twi bagiwe
▁kuza tangira
yuba shye
▁ira genda
▁iha garikwa
▁biga ga
▁su ndo
▁ro ger
▁biri rwa
▁bazi fashisha
▁bana mu
▁bira mbuye
▁bira cyari
fati zo
▁wan ze
▁ndi ba
▁ne pal
▁em ine
▁bate gerejwe
▁ada shyigikiye
▁n’iki ganiro
▁kuzi ca
▁w’a ga
▁kiza tangazwa
▁w’aba ganga
▁cla ssi
▁bati taye
▁ti g
▁ti mo
▁ida tanga
▁h y
▁yana bwiye
▁muda hari
yumvi kana
▁impu za
▁uni ty
▁kwan gisha
▁b’aba kene
▁b’aba hutu
girwa mo
▁kuta za
▁kuta jya
▁lu is
▁b’in gabo
▁zan giza
▁n’ubwi shingizi
▁gasa sira
▁by’aba gore
▁cy’aba turage
▁tour s
▁bon gere
▁batara basha
▁yayi himbye
▁habya limana
▁kw’i yi
▁tho gne
▁bifuza ga
▁nk’in zi
▁bagu mana
▁w’ibi humbi
▁kub yu
▁w’igi tsina
au x
▁gatu nda
hamaga ro
▁bikaza fasha
▁ntaki bazo
▁ry’a furika
▁b’ama dini
kemu rira
▁biha mbaye
▁bikana gira
▁n’impu zamashyirahamwe
sinzi riye
▁ger many
▁rusa rabuye
▁nzo ve
▁ut w’
▁kw’aba turage
▁y’imyi twarire
▁gusoho za
▁naku ma
▁mpita mo
▁revenu e
▁jean- baptiste
▁bako herezwa
▁kwiyu nga
▁eto ’o
▁kwiye gereza
susuru kije
▁eng ine
▁tun yuranye
▁edu cat
▁n’iby’ in
cke rs
come tse
▁muhe zo
▁est her
jani sha
▁sil ver
▁bor der
▁hakazi yongeraho
▁gang z
▁imin wa
▁igita mbo
▁diyabe te
cul ture
▁gno cide
▁trez zo
▁sundo wns
- ma
g round
i ga
i cya
m bin
n yamaswa
w ri
▁ ques
▁i a
▁i ganira
▁i cika
▁i menyekanisha
▁i yubahirizwa
▁i janisha
▁a shyize
▁a zamuka
▁a yang
▁a phro
▁n tanga
▁n ci
▁n ota
▁n tora
ga baga
ba gabo
▁u ne
▁u bone
mu saruro
ma riye
ma liya
in s
▁ba mwa
▁ba shimira
▁ba rundi
▁ba ciriritse
▁ba ranywa
▁ba subizwa
▁ba sigajwe
za ville
ka re
▁ku kwereka
▁ku gwira
bi rana
ta tira
ta mbutse
tu ne
tu bura
▁bi gaban
▁bi yaga
▁bi tangire
▁bi huru
▁bi sabiye
▁ya fa
▁ya kun
▁ya gwa
▁ya kirwa
▁ya mbitswe
▁m bura
▁m ona
▁m pora
▁mu gira
ki renga
▁gu komereka
▁gu tabariza
ro hereje
di tion
▁umu horo
vu rije
vu kiye
ho use
ti ramo
▁bu kunze
▁in tumbero
▁aba fata
▁aba rwara
▁aba higwaga
de l
de rs
de nt
mo sa
sa ri
mi s
▁ha hembwa
▁ha gishakishwa
he ze
he mukiye
▁ama gi
▁gi hara
▁gi hanishwa
▁ru she
▁ru herereyemo
▁ka si
▁ibi te
ke kwe
kin an
▁n’i tanu
▁n’a kababaro
▁zi ru
▁zi kaza
▁zi rebana
▁kwi gwa
▁kwi bera
▁kwi rindwa
▁igi shanga
▁wa koresha
▁wa hitanye
▁wa tegetse
do ti
▁na sho
▁na vuze
▁bya renze
▁bya twaye
▁tu beho
▁e mira
▁yi gira
▁yi sobanura
▁iki swe
▁y’i cyayi
▁imi semburo
mbo dia
▁ri korwa
▁ri tangazwa
▁f anisi
▁f anaf
▁t cha
tsi on
tsin de
she r
she feri
▁n’aba kene
▁n’aba kirisitu
▁za koreshwa
▁cya shyize
▁mun yanga
▁du fatanije
▁twa saba
geza ga
▁nk’u mwami
ve ra
▁aga sohoka
▁nti ziza
▁bwa gize
▁sa id
▁co mpa
bya zwa
▁ata kwi
▁si di
shimi she
▁n’ubu sa
▁bara katiwe
▁n’in kwi
▁n’in koni
▁baka wu
▁baka renga
▁baka zana
▁o zil
▁o ttawa
▁an ywa
nge ri
kwa re
▁poli cing
▁baza tangazwa
▁baha ba
▁y’ama shuri
▁abi bona
▁yaba bwiraga
▁hi zihi
▁nda ro
▁w’umu twe
▁kubi kunda
▁bavuga butumwa
▁by’i m
▁fa ll
sore zwa
▁byi zana
▁byi yongereyeho
▁g he
▁me ru
▁babi shoboye
▁babi sabwe
▁do wn
▁ika mwa
▁kuza gera
▁kuza habwa
▁rwi zinkindi
▁ira sabwa
▁n’imi bonano
gende rewe
▁ro me
▁bazi zi
▁af c
▁man ya
▁baki zamuka
▁kuyi ha
▁kuyi fasha
▁kuyi curuza
▁kuyi shoramo
▁bwe ruye
▁inka mbi
▁shampi ona
▁kongera ho
herere kanywa
▁uga tekereza
▁indi a
▁kiza ha
▁bigo ri
zana ga
▁miss rwanda
▁w’aba ba
▁w’aba yobozi
▁imyi dagaduro
▁muha yimana
▁inzu gi
▁ida saba
▁muzi rikana
▁n’im yumbati
▁cy’ama rushanwa
inga gi
▁w ri
▁niba girwa
▁rw’aba hanzi
▁uko ngera
mbasade ri
▁kuya renza
▁bagi hura
▁are bana
▁ubi koze
▁ntu shobora
▁bar riere
chi el
▁k’i byo
▁patri cia
▁mubi jyanye
▁musa sa
▁yata mbutse
muri kwa
▁zita ki
▁ali as
▁zika zaba
▁n’ibya tangajwe
▁riza jya
▁n’ikin yarwanda
kandi ka
▁ve terineri
hurira ga
▁min ing
▁bakundana ga
▁fun ction
▁ad mini
▁yare gwaga
kuza ga
cunga mutungo
▁zibi ca
▁minis tiri
▁minis poc
beshye ra
▁n’umunya -
▁bea k
▁ashize mo
▁aramu bwira
▁gaho go
▁mwo rozi
▁byagabanutse ho
▁kwiyi bagiza
▁gitu tu
bwiza com
▁ton y
▁akurikiran weho
▁sco laire
▁bishyu rirwa
▁aseze rewe
▁inyu nganizi
▁gukin gura
▁igite ranyo
▁mukaru gwiza
▁hazi bandwa
▁back ground
▁mva ruganda
▁gutungu rwa
▁ngabi tsinze
▁n’iy’ amajyepfo
babi reba
▁hold ings
▁kutwi ca
▁bucye ye
▁hagi tegerejwe
▁ubwan jye
▁prisci lla
▁mobe tto
tengu shye
▁yabye meje
▁beau ty
▁shanita h
▁gacu riro
▁simu siga
▁icg lr
▁soy co
▁restora tion
▁excellen ce
▁liti lo
▁imbonan kubone
b ro
c rema
f lu
h s
n gano
u shinzwe
x is
▁ ent
ra zzi
▁i f
▁i subira
▁i curuzwa
▁i segonda
▁i gerweho
▁a gn
▁a ryamye
ya komokaho
▁u waka
▁u fashe
▁u fitanye
▁u byara
▁u shobore
▁u huru
mu ke
mu kiza
▁ba wi
▁ba guzi
▁ba rokokeye
ka rani
gu nda
gu ar
gu ngira
ru we
ru ro
ru kan
▁ku si
▁ku yobo
▁ku duha
▁ku rwanira
▁ku rongora
▁ku zubahiriza
zi mpaka
ze rana
▁bi vugira
▁ya komoje
▁mu bana
se mbuye
ki ran
▁gu sangiza
▁gu kodesha
di ho
ku va
▁umu rusha
▁umu pasiteri
be sheje
▁aba ro
▁aba komeretse
de nge
mi kwa
▁ha zwi
▁ha kurikiraho
ran kuru
shi tani
▁ama twara
▁ama cupa
▁gi hira
▁gi tsura
▁ru papuro
▁ka mali
▁ibi zi
▁ibi shya
▁ibi gomba
▁ibi turuka
▁ibi tunga
▁ubu sha
ke zi
▁im va
▁im byaro
to mbo
▁n’i zamuka
▁zi korerwa
▁zi teganywa
▁n’u ku
▁kwi beshaho
▁ga kunda
▁wa zi
▁wa shoboye
▁aban yamabanga
▁na ka
▁na mbaye
▁na himana
▁na shoboraga
cu cu
▁ni rwo
▁bya hu
▁bya bonye
▁bya hindutse
▁aka bije
kuru sha
▁y’u rwo
▁kuba barirana
▁tu gu
▁tu ngo
▁yi garagaza
▁yi sobanuye
▁yi fashishwa
▁y’i joro
▁ri sa
▁ri na
▁ri tangiza
▁ri genzura
aba turage
▁t w
▁nta menye
nda ka
la ted
hanga bo
po lo
▁mun de
▁mun tara
▁ban king
▁du kunze
▁twa bibutsa
▁n’umu shahara
▁ko manda
▁aga tabo
▁aga cibwa
▁sa de
▁sa bin
▁wi zihizwa
bya kiriye
▁aha garara
▁bara du
▁n’in zira
▁n’in gufu
▁baka ririmba
▁bita buza
subi ka
▁n’ibi tare
▁yara pfuye
▁nu wo
▁de li
▁aza shyirwa
▁iza tangazwa
▁guha ra
▁guha hirana
▁baha garika
▁rya giye
▁baga siga
▁baga tora
▁baga sura
▁ita zibagirana
▁gute rwamo
raga ho
▁ara manuka
▁uwa yezu
▁jo shua
zan we
▁he ine
▁kubi saba
▁kubi hindura
▁kubi ryozwa
▁l uka
▁ca e
▁baba ha
▁me ri
van ywe
hindu kire
▁babi vuze
▁babi ciye
▁y’umu ganda
▁y’umu shyikirano
▁biza turuka
▁ika bije
▁nko myi
▁biba jije
▁mwi hariko
▁yaha geraga
▁kuza ya
▁rwi buka
▁rwi mbogo
▁fi r
▁bamu fata
▁yabi bonaga
▁ira za
▁haba gamo
▁wu ngutse
▁yeme re
▁bazi hawe
▁no l
▁bira cya
▁uba rirwa
▁bihe rereye
▁bika genda
▁bika jyana
▁bate rana
▁ry’umu kuru
▁ry’umu biri
▁ry’umu handa
bire bera
▁muka sa
▁iya yo
▁ntiba kunda
▁nyira zo
▁azi fashishwa
▁ub yuka
kari mwe
hindura mo
tungu ka
tungu ru
▁ziri ho
▁cy’ubu faransa
▁cy’ubu shinwa
▁cy’ubu dehe
▁cy’umu biri
kurikiran ywe
kurikiran weho
▁uni cef
▁ry’aba rokotse
▁w hi
▁kwan duza
▁U ru
▁ruza tangira
▁ruza kenera
▁y’uru go
yanya giza
▁san ko
▁kura mbirwa
▁umwi merere
▁umwi rabura
▁tuba haye
banuka ho
▁bw’aba gore
▁ibyi yumviro
▁guse banya
▁mura bizi
▁b’in yangamugayo
▁aku bye
▁she feri
▁chi ld
▁yuba ke
▁myi dagaduro
▁nk’aba hanzi
▁nga bire
▁mukan dori
▁itu nze
▁ite mera
▁uha sanga
▁che z
▁kuwu bungabunga
▁n’iyi cwa
▁uki yongera
▁kida kora
▁w’uru gaga
▁una fite
▁yatu nze
▁abaha ranira
▁itara boneka
▁el crema
▁car los
hamaga we
▁dro it
▁zaba fasha
▁bra zaville
shidi kanywa
▁ry’imi shahara
▁icy’ uyu
kemu ye
▁rure gwamo
▁biha banye
▁bose babireba
▁kibi tangaza
ganyi rije
▁produ cers
▁mai -
▁ibyamamare com
▁sen inga
▁muki ganiro
▁swi ss
▁wha t
▁bagaragara ho
▁ntitu gomba
▁yatsinda ga
▁bazamu re
fre y
▁kuyo yoka
▁argen tina
▁rwabi tangaje
▁blu e
▁buna miye
▁ntibin deba
▁w’abanya muryango
t- co
▁rob son
mili yoni
▁bagambi ki
▁asimbu re
komereke jwe
▁bikazaba fasha
▁jus tus
▁barwi yemezamirimo
▁tex as
▁tse tse
▁jun ction
a mi
b wandu
c yemera
g w
r y’
u me
v ge
▁ yuma
an der
▁b df
▁i kurikiye
▁a mo
▁a horaho
▁a simburwa
ri en
▁n yongera
▁n genzura
▁n garutse
▁u ca
▁u gendeye
▁ba ce
▁ba shimishije
▁ba bungabunga
▁ba gejejweho
▁ku zongera
bo shyi
▁bi tangiye
▁bi bereye
▁bi jumba
▁ya kwereka
▁ya mpamagaye
▁gu curuzwa
▁gu ceceka
si to
▁r s
ku rimo
me li
▁umu hanuzi
tan o
tan we
be rana
▁in tekerezo
▁ha ye
▁ha magara
▁ha shyinguye
▁ha tangiwe
he muka
he nzwe
han ge
▁ki dega
▁ru gwe
▁ka zaba
▁ka wunga
▁ibi bembe
▁ma yanja
to ya
▁p m
▁n’i mbuto
zo zi
▁zi bwa
▁zi jyanwa
san gana
▁igi cumbi
▁wa wu
▁wa towe
▁na buze
▁na vio
cu re
▁bya ko
▁bya sojwe
su huko
▁kuba kisha
▁tu banye
▁e rc
▁yi muwe
▁y’i shyamba
▁uru vu
ryo shye
▁ib inezaneza
yin o
▁s tore
▁t re
ranga muntu
ranga miye
▁je re
▁n’aba byinnyi
po l
kwi zwa
▁ry’ aban
▁du shoboye
co pi
byi ciro
▁se nd
▁pa me
▁pa ssa
▁pa steur
▁twa korana
▁twa teye
▁n’umu tutsi
▁nk’u giye
▁aga teganyo
▁nya m
▁wi bagirwa
yeme ze
▁rw’ indirimbo
▁rwa toranyijwe
▁han go
▁han uba
shimi mana
tum bwe
▁re membe
▁n’ubu re
▁n’ubu fasha
▁bara tangira
▁bara shima
▁n’in goma
▁baka vu
▁baka zin
▁umwe re
▁bata zana
▁bata shakanye
▁cy’i ri
▁cy’i soko
▁uku zi
mbe ye
▁ho ng
▁yara she
▁yara hungiye
▁nu mve
▁y’aba ganga
teri e
▁guha rirwa
▁rya turutse
▁rya huje
▁abi si
▁y’ubu shinwa
▁isi ga
mwi rabura
▁w’umu hanzi
▁z’i cyayi
▁z’i bindi
▁ca mbodia
ss y
▁kon gererwa
▁g rena
▁me teo
▁w’u bwongereza
▁w’u wahoze
▁babi bona
▁biza bangamira
▁biza gufasha
▁ja guar
▁do cumen
▁batu yemo
▁twi buke
▁kuza yobora
lle tte
▁bamu ziza
▁yabi dutangarije
▁ira cyafite
▁uta ki
▁su nda
▁ikaba sha
▁kubaka mo
bon ywe
▁pro state
▁utu nze
rizwa ho
▁tura gira
▁tura tekereza
tonde rwa
▁bari nga
▁uga tangira
▁ry’umu tuku
▁kuzi gurisha
▁w’aba polisi
▁muka ki
▁nk’umu co
▁bati tabira
▁bayi ta
▁bayi kuye
▁ntiba bone
▁yana maze
▁nyira kuru
cye sha
▁as ton
tungu rwa
▁ura bizi
▁ziza gera
▁niyon gabo
▁umunya furika
▁kwan gana
▁imu tera
▁imu fasha
▁byara buze
▁akana mu
▁ngu ema
dura matwara
▁ci a
▁kugu riza
yanya giye
▁en er
▁bw’ama shusho
▁lu cie
▁ingo fero
dri ck
▁john ny
▁ab ’a
▁gucu ngira
▁biro roshye
▁kuda ha
▁kuda heranwa
simbu ka
▁bakaza ya
▁yata haga
▁new times
▁guhu nika
▁batara gira
▁batara menya
▁rw’umu yobozi
▁gera ld
▁buka bi
▁ry’ama soko
▁abayi fite
▁nor vge
▁ry’in zobere
hoho tewe
▁uzaba kiriho
▁bagu re
▁n’aka ga
▁on line
▁hato ranyijwe
▁ate ze
▁bavu kana
▁w’igi hangange
▁n’imyi tozo
▁zara kozwe
▁bikaza bera
▁musi giti
▁y’ubwi za
▁kum fasha
▁n’um wanditsi
▁bakomoka mo
▁munya politiki
▁bwu nga
▁waha bona
▁huba tswe
▁kika mu
▁nkora mutima
▁twavuga mo
▁bakazi rikana
▁kata za
▁adu he
▁yatumi we
▁basin ya
▁baririmba mo
▁mure he
▁hate raniye
▁babura ga
▁banyi ri
▁gusoho kana
▁gusoho kera
shyami rane
▁yagaban yutse
▁del hi
▁ntamu hanga
▁atin jye
▁riki ri
▁muho zi
▁nyirama suhuko
▁babo u
▁bazin dukiye
▁biryo go
▁guhindu rirwa
▁k’imi rasire
▁come sa
muru zi
▁kwiya mbura
▁birande nga
▁gha li
mbone karimwe
▁wat ford
▁kuvan gamo
▁belgi um
mori al
▁bryan t
▁z’ibya tsi
▁mujawa mariya
▁guin ness
▁mosco w
▁rushe shan
▁munyanga ju
besheje ho
▁heine ken
▁remembe r
a tu
b lan
c l
c ript
j yu
l ons
m wanya
s one
z g
▁ 4
▁ hugu
▁ shya
▁i zere
▁i teza
▁i soza
▁i kurikirwa
▁a garagaye
▁a rengera
▁a rangiza
▁a tinya
▁n su
▁n tekerezo
ya bo
▁u hinduka
in kuru
▁ba tuma
▁ba jyana
▁ba zungu
▁ba vana
▁ba soma
▁ba pfobya
za marira
▁ku ban
▁ku bye
ge zwe
ta gira
ta bwo
ha hiro
▁bi ya
▁bi shoboye
▁bi cike
▁bi konjesha
▁ya remye
▁ya kongera
▁ya byina
▁ya shyinguwe
▁ya vugwaga
▁ya tangazaga
▁m yumbati
▁m vp
▁mu hi
▁mu zindi
▁mu bara
se rukiramuco
▁gu tinyuka
go te
▁umu na
▁umu songa
▁umu kurikiye
▁umu sigiti
je e
ti za
▁bu bera
▁bu gere
▁bu genzacyaha
▁bu hindi
▁in se
▁in ganzo
▁aba kire
▁aba mwishe
yan zuro
de na
▁ha bo
▁gi koresha
▁ki je
▁ki banze
▁ru fatwa
▁ru zubakwa
mwe ngu
▁ibi boneka
▁ibi kenewe
▁ubu hangange
▁im yemerere
▁rwanda papa
▁zi bera
▁zi hingwa
▁zi hagarariye
▁zi turutse
▁zi kenera
▁zi mufasha
▁kan dt
kan gara
▁cyan yuma
▁kwi sanga
▁ga fatwa
▁igi sa
▁wa torewe
▁wa garagaraga
▁mi lu
▁bya teza
▁bya girira
▁bya teje
▁kuba bonera
rere ro
▁tu gendeye
▁y’i cyorezo
▁imi vugo
▁uru gi
ci ate
shyi riraho
▁s pi
▁s tella
mbi re
men ts
yaka biri
▁cya gwa
▁mun gire
▁ban de
▁du kingirizo
co s
byi buka
byi cuza
▁w’i terambere
▁n’umu turage
▁aga koko
▁aga hagarika
▁pe te
▁wi bwe
▁co if
▁ata garagara
▁si ho
▁han tandukanye
menye shwa
▁aha sigaye
▁n’in yubako
▁baka gana
▁baka guma
▁o x
▁cy’i myumvire
▁ho me
tin ho
▁n’ibi rori
▁yara funguwe
▁nu bona
▁baha garariwe
▁rya rimo
▁baga tabwa
▁abi bye
▁abi gishwa
▁kuri mbura
▁uwa buze
▁yo hana
▁hi twa
renga gijwe
▁he patite
▁w’umu zungu
▁fa ce
▁to k
▁kwa mbikwa
▁nk’i cyo
▁me ra
▁me morial
sin da
van ny
▁biza subira
▁icya baye
▁batu bwiraga
▁kugi ciro
mvi re
▁ika ri
▁biba he
gaban yirizwa
▁yaha riye
▁ugu shishikariza
▁iha gera
ste l
▁wu ngu
gende kera
▁su sheferi
▁bazi ba
▁uza twara
▁uza habwa
▁bira kaza
▁baki shyura
▁ur wi
tari yani
▁wo lu
rirwa mo
▁go mes
▁bate garugori
lu ka
▁bura mba
dio la
▁k’u burasirazuba
▁cla dho
▁bayi rwaye
shinja ga
▁cy’in ka
mban yijwe
▁nk’a handi
▁lo pez
▁izaba sha
▁ntibi zongera
▁ry’u kwezi
▁kaba lisa
▁byara maze
▁ci ti
▁I byo
▁kuta renza
▁y h
▁ea p
▁bimu tunguye
▁yaho raga
▁ubi korera
▁mwe re
▁ababa baye
▁y’imi rimo
abanya bwenge
sese kara
▁bakiri we
▁agu ha
curi zi
▁ruda shobora
▁ruda kwiye
▁bwan du
▁n’igice ri
▁kw’ in
yujije ho
▁zida fite
▁atara vugaga
▁n’aka vuyo
▁inzi tiramibu
ranwa ga
▁yica raga
tungan yije
▁yatu jwe
▁basore za
▁rwaka zina
▁karu ranga
▁n’aga ce
▁servi se
▁kum bwira
▁C OV
▁w’umunya bwenge
▁pho nes
▁bitu me
dindi ra
▁won geye
▁guhana gura
▁hita we
▁colle ctive
▁cn n
▁mac hine
▁ir y’aba
▁bitegura ga
▁basin ze
▁ntitwa vuga
▁ntitwa bona
▁imyu zure
▁rwitwa zo
▁ibye rekeye
▁ed die
▁abanyama dini
▁kuburani shirizwa
biba fashamo
▁amade ni
▁byuba tswe
▁tuha sanga
▁ak ’i
▁acumbi kiwe
toma tic
▁gutembere zwa
▁mukama zimpaka
▁yazamu kiye
▁muko banya
▁pin k
▁batumva ga
▁uzayi huza
▁babyin nye
char les
▁assi stant
▁akado bo
▁yakwan girika
▁batabyi tayeho
▁kwibika ho
▁than k
▁pfun we
▁bachelor ’s
▁agri culture
▁esp rance
▁yavuguru we
▁loca telli
▁agn s
▁mai- mai
▁milu tin
d w
g ro
r b
r ’i
x p
▁ 5
▁ teka
▁b yanditswe
▁i ce
▁i shobore
▁i rerekana
▁i shyano
▁a kandagira
▁k t
▁n wa
▁n sha
ya jyana
▁u vu
▁u li
▁u tere
▁u shira
ma jwi
ma boko
ma tch
gi ka
▁ba tumye
▁ba gezweho
▁ba kenewe
▁ba siba
ka monyi
ru t
▁ku gurira
ta tanye
yi se
yo zi
▁bi yin
▁bi shyirwa
▁bi kini
▁bi kindi
▁bi fuje
▁bi tongera
▁ya bwo
▁ya saru
▁ya shoye
▁ya funguwe
▁m tzig
▁mu fu
▁mu tsinzi
▁c lin
ki riza
▁gu ke
▁gu tege
▁gu ate
▁gu shishoza
si tion
▁r ho
ku bwiye
▁umu bona
▁umu rwanashyaka
ho bera
tan t
tan zweho
be ga
▁bu he
▁bu kangura
▁in ganya
yu z
▁aba to
▁aba faransa
▁aba kirwa
▁aba kinnye
▁aba vugabutumwa
▁aba byinnyi
▁aba rokokeye
▁aba tabashije
sa int
sa raba
▁ha fatiwe
▁ha rwanywa
he ranwe
li ste
▁ama jyaruguru
▁ama cumu
▁ama hane
▁ama himbano
▁gi korera
▁gi hanirwa
▁ki haye
▁ru gana
▁ru teganya
du jwe
▁ka shyizwe
▁ibi tangaje
▁ibi sigazwa
▁ma shin
▁im wa
▁rwanda he
▁n’i teka
▁n’i banga
▁zi kan
▁kwi rirwa
▁kwi genga
▁igi hango
▁igi hangange
▁igi tinyiro
▁wa ganiriye
▁mi kurire
cu ngu
▁ni buka
▁ni mbona
en tu
▁bya bi
▁aka menyero
gwa ri
▁kuba shaka
▁kuba saba
▁tu bana
▁tu meze
▁yi bi
▁yi ruka
▁yi zihiza
▁imi dali
ci ty
▁ri jyanye
▁ri yobowe
yin yuma
▁s trea
mbi riza
mbi riwe
▁nta cya
bwi rwaga
la tions
▁n’aba wa
▁za gira
▁za muka
zwa ho
rana mu
▁ban enga
▁du hereye
▁du hisemo
▁twa hise
▁aga totsi
▁ra pp
tege t
▁bwa he
▁bwa sabye
▁bwa taye
bana bi
▁wi rinda
▁wi yongere
▁wi tandukanyije
▁co mple
bya riye
ji ri
▁d inah
▁si e
▁si mbi
▁aha zi
▁aha shyinguye
banu ra
▁bara tunguwe
▁bara barasa
▁baka bu
▁o ke
▁o man
▁bita tse
ni u
▁ho zi
▁n’ibi banza
▁n’ibi yakomokaho
▁nu kuba
▁de co
▁baza zenguruka
▁y’aba depite
▁y’aba hinde
▁guha gurukira
▁baha hira
▁rya je
▁rya kira
▁rya tewe
▁rya vuzwe
▁y’ama raso
▁y’ama cakubiri
▁bo rn
▁z’u ndi
▁z’u kuntu
▁gute ranya
▁kuri geza
▁isi gaje
seze rana
▁kubi rwanya
▁kubi tekerezaho
▁ahu nze
▁by’i myaka
siga sira
▁al co
▁di poloma
▁babi jeje
▁biza mba
▁ry’i sumbuye
rin dwe
▁biba shimisha
▁twi gisha
▁mwi fuza
▁ugu subiza
yuba tswe
▁rwi tabiriye
mpi re
▁y’in yoni
▁bamu tera
▁bamu tema
▁bamu ziho
▁w’in zibacyuho
▁w’in tangarugero
▁ira ri
▁iha garitswe
▁by’u rubyiruko
fun zo
foto we
▁kuyi baza
▁mwa jya
▁pro mi
▁bwe nde
▁icu nga
▁kuzi fasha
▁zu mvikanye
▁bada tegereje
▁abanya ki
▁kiza rangwa
▁w’aba fana
▁muka ga
▁iga hita
▁iga yitse
▁bayi geze
kani ye
▁muha m
▁ti t
▁yana shimiye
▁izi kora
▁inzo be
▁byaba shimishije
▁b’u muryango
▁ub w’i
▁udu faranga
rwan yije
▁ngu fi
▁ziba she
▁bw’in zirakarengane
▁kira mbye
▁b’in zererezi
zara mba
thi a
▁ababa jwe
sun yu
▁y’iki gega
▁muru mva
▁ndu sha
▁rura kangurirwa
▁abazi gana
▁abayi rwaye
▁ubura yi
▁chan nel
▁rw’u ko
▁kizaba fasha
▁iso mbe
▁ikaza rangira
▁kuno zwa
▁ex pi
▁bw’a ko
▁banya mideli
▁mari na
▁kubyi hanganira
▁itara bona
▁usa id
▁n’imyi zerere
hwe mye
▁gatu mba
▁k’umu saruro
▁kur yana
▁bam wohereza
▁iy’ ubu
▁mumu jyi
▁ry’imi twe
▁namu bajije
▁b’ama kipe
▁araba subiza
▁uwu hagarariye
ryohe we
▁ibu ryo
bane na
▁niyomugabo muhaburarw
▁bea trice
▁mara diyo
kongo ka
▁arabi hakana
▁colle ction
▁sala x
▁guine e
▁muririmbyi kazi
▁byaku mvikana
▁asso ciate
▁lin da
▁scho of
▁desi re
▁ataba mo
▁kamu tunze
▁bishyu zwa
shege she
▁batagi hari
▁mate raniro
▁sale m
▁akere kana
▁repu bli
▁dai hat
▁gusesa gura
▁byadu shimishije
▁w’imi soro
▁basan gire
▁zakwi fashishwa
▁twin jiza
▁ntawi geze
▁mataba ro
▁imbura gihe
▁reco rds
▁yoro ye
▁guar diola
mako fe
pfumba se
▁kubari mbura
▁techni que
▁np c
▁ever ton
▁emine m
blan ca
▁coif fure
▁COV ID
▁guate mala
▁daihat su
a ir
c tif
e var
i ri
j dw
k ts
m cumyu
n u
n qu
n hc
o ro
o cun
o jyu
q yu
r sun
r yane
t ring
w c
w lc
y mc
y rsuriur
z miu
an gira
▁b ini
ra mu
▁i hora
▁i vugwa
▁i tekereza
▁i shyinguye
▁a soje
▁a gishakishwa
▁k vc
ri riye
▁n sohotse
▁n keragutabara
▁n kiriho
ba kiwe
▁u pfobya
▁u documentcookie
mu teye
re bere
re ca
re al
ma za
ko muna
gi o
gi to
gi riwemo
▁ba ryo
▁ba soza
▁ba ganire
▁ba tangiranye
▁ba koroni
▁ba kurikiranwe
we rs
gu od
gu ojyu
ru rira
ru tswe
▁ku ngiriza
zi ha
bi kaga
ge tcookie
ha bwe
te xt
bu tanga
bu kira
▁bi bonamo
▁bi shisha
▁ya tanga
▁ya menya
▁ya magana
▁ya hariwe
▁ya fatanije
▁m yuka
▁m gr
▁mu bya
▁mu kene
▁mu kwiye
▁mu hana
se rutse
ki kiza
si bomana
ku fi
▁umu su
▁umu shoramari
▁umu vunyi
▁umu byinnyi
vu ba
vu giramo
ban ani
▁bu humbi
▁bu gizwe
▁bu zuye
▁bu rebe
▁bu garama
▁bu hanitse
▁bu garuke
▁in i
▁in u
▁in fe
yu yri
▁aba he
▁aba korana
▁aba kurambere
sa bana
sa zana
mi um
▁ha taraboneka
he mukira
fa saha
shi ka
▁ama ri
▁ama va
▁gi tanda
▁gi koni
▁ki kiri
▁ru yobowe
▁ru koma
▁ka gizwe
▁ka gamije
▁ka gugu
▁ka garama
▁ibi ki
▁ibi kesha
▁ibi geragezo
▁ma bu
to ranyi
to gm
kin girwa
▁n’i cyi
▁n’i siganwa
gen wa
▁zi gura
▁zi zanye
▁zi tange
▁cyan yu
▁ga me
▁ga hima
le e
▁wa shize
▁wa mbara
▁wa hamagaye
▁aban gamiye
▁aban girijwe
▁mi t
▁mi rambo
▁na ki
▁na dia
▁ni ght
[...]
