{"<unk>":0,"-":1,"0":2,"1":3,"2":4,"3":5,"4":6,"5":7,"6":8,"7":9,"8":10,"9":11,"A":12,"B":13,"C":14,"D":15,"E":16,"F":17,"G":18,"H":19,"I":20,"J":21,"K":22,"L":23,"M":24,"N":25,"O":26,"P":27,"Q":28,"R":29,"S":30,"T":31,"U":32,"V":33,"W":34,"X":35,"Y":36,"Z":37,"a":38,"b":39,"c":40,"d":41,"e":42,"f":43,"g":44,"h":45,"i":46,"j":47,"k":48,"l":49,"m":50,"n":51,"o":52,"p":53,"q":54,"r":55,"s":56,"t":57,"u":58,"v":59,"w":60,"x":61,"y":62,"z":63,"’":64,"▁":65,"an":66,"▁b":67,"ra":68,"▁i":69,"▁a":70,"▁k":71,"ri":72,"▁n":73,"ga":74,"ya":75,"ba":76,"▁u":77,"mu":78,"re":79,"wa":80,"sh":81,"ye":82,"ma":83,"ko":84,"in":85,"gi":86,"▁ba":87,"za":88,"ka":89,"we":90,"gu":91,"ru":92,"▁ku":93,"zi":94,"bi":95,"ge":96,"ta":97,"ha":98,"da":99,"te":100,"yi":101,"tu":102,"yo":103,"ze":104,"bo":105,"bu":106,"▁bi":107,"▁ya":108,"▁m":109,"▁n’":110,"▁mu":111,"y’":112,"se":113,"▁c":114,"ki":115,"▁gu":116,"si":117,"ro":118,"go":119,"wi":120,"di":121,"▁r":122,"ku":123,"ana":124,"me":125,"▁umu":126,"je":127,"vu":128,"ho":129,"tan":130,"wan":131,"ti":132,"ban":133,"hu":134,"be":135,"▁bu":136,"▁in":137,"yu":138,"sha":139,"▁aba":140,"▁y’":141,"yan":142,"de":143,"mo":144,"sa":145,"mi":146,"▁ha":147,"he":148,"fa":149,"ran":150,"rwa":151,"w’":152,"shi":153,"li":154,"wanda":155,"▁ama":156,"han":157,"▁gi":158,"▁ki":159,"▁ru":160,"du":161,"tse":162,"mwe":163,"▁ka":164,"▁ibi":165,"on":166,"▁ubu":167,"ke":168,"gan":169,"▁ma":170,"▁im":171,"so":172,"▁rwanda":173,"to":174,"▁p":175,"kin":176,"▁n’i":177,"zo":178,"fi":179,"hi":180,"▁n’a":181,"▁w’":182,"wo":183,"bere":184,"gira":185,"gen":186,"mba":187,"▁zi":188,"vuga":189,"▁n’u":190,"gara":191,"twa":192,"zwe":193,"▁kan":194,"kan":195,"na":196,"san":197,"▁cyan":198,"kore":199,"▁kwi":200,"fu":201,"sho":202,"▁ga":203,"▁igi":204,"le":205,"▁wa":206,"hugu":207,"▁aban":208,"▁ari":209,"▁mi":210,"kun":211,"do":212,"▁na":213,"fite":214,"gera":215,"cu":216,"bwa":217,"▁ni":218,"en":219,"▁bya":220,"▁aka":221,"su":222,"tanga":223,"▁kandi":224,"gwa":225,"ts":226,"ne":227,"kuru":228,"▁y’u":229,"zu":230,"yobo":231,"▁nde":232,"bwo":233,"▁kuba":234,"kome":235,"giye":236,"shin":237,"rere":238,"ama":239,"▁tu":240,"▁hari":241,"pe":242,"▁kuko":243,"▁e":244,"▁ndetse":245,"▁yi":246,"vi":247,"riki":248,"▁iki":249,"yon":250,"ren":251,"▁y’i":252,"▁imi":253,"kora":254,"▁uru":255,"yuma":256,"ci":257,"▁ariko":258,"shyi":259,"korwa":260,"ryo":261,"rika":262,"ce":263,"▁z":264,"’u":265,"mbo":266,"▁cyane":267,"▁ri":268,"▁ib":269,"▁nk":270,"yin":271,"jya":272,"shobo":273,"▁s":274,"mbi":275,"shu":276,"▁f":277,"ini":278,"men":279,"aba":280,"▁cy’":281,"yobozi":282,"▁t":283,"biri":284,"▁nta":285,"va":286,"jwe":287,"bwi":288,"nda":289,"ranga":290,"yama":291,"rimo":292,"▁avuga":293,"hin":294,"kaba":295,"▁by’":296,"▁je":297,"la":298,"▁gihe":299,"▁nyuma":300,"no":301,"tsi":302,"tura":303,"pa":304,"gize":305,"kanye":306,"yaka":307,"tsin":308,"▁ic":309,"rwanda":310,"▁mbere":311,"ira":312,"she":313,"▁umun":314,"waka":315,"garaga":316,"ca":317,"▁n’aba":318,"bona":319,"hanga":320,"bera":321,"▁um":322,"po":323,"ngu":324,"yarwanda":325,"gabo":326,"’i":327,"▁za":328,"indi":329,"turage":330,"riye":331,"▁abantu":332,"eza":333,"bye":334,"▁cya":335,"▁mun":336,"faranga":337,"▁j":338,"zwa":339,"▁bw’":340,"umu":341,"rana":342,"bazo":343,"wu":344,"▁ban":345,"mana":346,"shaka":347,"vuze":348,"tera":349,"kino":350,"▁ta":351,"maze":352,"kwi":353,"▁ry’":354,"yango":355,"▁du":356,"gere":357,"▁kugira":358,"co":359,"tara":360,"shobora":361,"enshi":362,"bura":363,"byi":364,"kana":365,"man":366,"tandu":367,"▁w’i":368,"▁se":369,"fasha":370,"ryango":371,"ubu":372,"rira":373,"▁neza":374,"▁le":375,"▁pa":376,"nga":377,"▁twa":378,"▁gusa":379,"gore":380,"zima":381,"shya":382,"▁cyangwa":383,"geza":384,"▁n’umu":385,"ciro":386,"kira":387,"▁ko":388,"▁nk’u":389,"ve":390,"▁aga":391,"▁ra":392,"tege":393,"▁nya":394,"ndi":395,"▁tariki":396,"▁pe":397,"wanya":398,"▁nti":399,"▁bwa":400,"▁sa":401,"bana":402,"gana":403,"▁wi":404,"gali":405,"▁co":406,"tandukanye":407,"▁mwaka":408,"gani":409,"▁igihe":410,"geze":411,"zaba":412,"▁buryo":413,"▁akaba":414,"curu":415,"pi":416,"nyi":417,"baye":418,"bya":419,"sanzwe":420,"ruka":421,"yeme":422,"side":423,"▁po":424,"▁rw’":425,"ji":426,"▁d":427,"▁we":428,"▁ata":429,"▁mini":430,"▁jeno":431,"gura":432,"▁yavuze":433,"▁jenoside":434,"gihugu":435,"▁buri":436,"▁si":437,"▁imbere":438,"▁kigali":439,"▁rwa":440,"▁han":441,"renge":442,"rezi":443,"kobwa":444,"rwe":445,"shimi":446,"▁yagize":447,"▁karere":448,"tum":449,"ganda":450,"▁benshi":451,"menye":452,"▁n’ama":453,"yinshi":454,"▁n’aban":455,"▁re":456,"▁rwe":457,"▁kubera":458,"diri":459,"pu":460,"▁leta":461,"kuriki":462,"riza":463,"▁aha":464,"▁amafaranga":465,"gomba":466,"banu":467,"shyira":468,"mva":469,"▁mili":470,"bwe":471,"▁n’ubu":472,"ranye":473,"ani":474,"▁bara":475,"▁minisi":476,"jye":477,"▁n’in":478,"▁baka":479,"sanga":480,"ina":481,"nye":482,"one":483,"▁umwe":484,"shan":485,"komeza":486,"lo":487,"▁bata":488,"▁o":489,"komeye":490,"▁bita":491,"furika":492,"▁abaturage":493,"shuri":494,"tuma":495,"hanzi":496,"rezida":497,"byo":498,"▁kugeza":499,"▁muri":500,"korera":501,"zamu":502,"dirimbo":503,"▁cy’i":504,"shinzwe":505,"▁an":506,"kinnyi":507,"fata":508,"▁uku":509,"nge":510,"▁umuyobozi":511,"saba":512,"kwa":513,"tangiye":514,"▁yan":515,"▁kwe":516,"jyan":517,"yiza":518,"▁perezida":519,"mbe":520,"kunda":521,"yose":522,"ni":523,"▁ho":524,"▁gukora":525,"▁z’":526,"tsinda":527,"jyi":528,"fo":529,"tin":530,"▁gihugu":531,"mbere":532,"▁poli":533,"subi":534,"dwa":535,"ngo":536,"wana":537,"▁rwego":538,"tiri":539,"kiri":540,"▁ikin":541,"mvu":542,"▁haga":543,"▁ati":544,"koresha":545,"▁n’ibi":546,"▁yara":547,"mbu":548,"koze":549,"▁nu":550,"▁bite":551,"por":552,"fatan":553,"shwa":554,"yana":555,"genda":556,"yoni":557,"sobanu":558,"shize":559,"▁de":560,"▁ikipe":561,"▁nk’uko":562,"garagara":563,"komeje":564,"▁gahu":565,"aban":566,"ter":567,"▁baza":568,"guru":569,"ju":570,"▁aza":571,"bone":572,"▁umuntu":573,"▁gahunda":574,"kere":575,"intu":576,"▁munsi":577,"▁be":578,"here":579,"▁iza":580,"kipe":581,"▁y’aba":582,"garagaza":583,"teri":584,"▁abatu":585,"▁guha":586,"▁baha":587,"cyo":588,"shije":589,"genzi":590,"▁bamwe":591,"▁rya":592,"teka":593,"▁spor":594,"el":595,"▁y’ama":596,"mweru":597,"▁bo":598,"jyanye":599,"gendo":600,"rya":601,"▁miliyoni":602,"▁jean":603,"▁afite":604,"▁baga":605,"▁abi":606,"mari":607,"tangaje":608,"▁ita":609,"yumweru":610,"ja":611,"ton":612,"▁hagati":613,"▁harimo":614,"▁yaba":615,"▁y’ubu":616,"ine":617,"▁z’u":618,"insi":619,"▁uyu":620,"pamvu":621,"▁mo":622,"pr":623,"ganiro":624,"shyu":625,"▁imyaka":626,"▁gute":627,"raga":628,"hita":629,"▁vi":630,"gari":631,"▁bafite":632,"▁ara":633,"kwe":634,"▁afurika":635,"rw":636,"▁abandi":637,"▁kuri":638,"▁ngo":639,"jo":640,"shinga":641,"▁isi":642,"▁uburyo":643,"twe":644,"korana":645,"▁te":646,"▁uwa":647,"▁ye":648,"rutse":649,"tangira":650,"▁kabiri":651,"▁abanyarwanda":652,"tangaza":653,"tegeko":654,"▁rayon":655,"pan":656,"▁ibikorwa":657,"▁yo":658,"tangi":659,"▁hi":660,"▁fc":661,"zira":662,"▁-":663,"▁n’ib":664,"yamakuru":665,"tion":666,"▁jo":667,"rusha":668,"mwi":669,"gami":670,"ngi":671,"curuzi":672,"soko":673,"bwira":674,"twara":675,"kura":676,"buga":677,"cya":678,"seze":679,"▁byose":680,"tumwa":681,"renga":682,"▁kumu":683,"▁nda":684,"zan":685,"▁he":686,"rd":687,"zuba":688,"▁w’umu":689,"ll":690,"aka":691,"▁bikorwa":692,"▁kubi":693,"▁ahu":694,"▁inga":695,"tekere":696,"▁bavuga":697,"▁kimwe":698,"humbi":699,"kene":700,"▁abatutsi":701,"▁nk’":702,"st":703,"bonye":704,"win":705,"▁bwi":706,"▁mpu":707,"tanu":708,"▁z’i":709,"▁indirimbo":710,"▁by’i":711,"▁ahan":712,"reke":713,"▁l":714,"rije":715,"kano":716,"tswe":717,"dwara":718,"▁yu":719,"▁fa":720,"merika":721,"▁ca":722,"hari":723,"▁ntabwo":724,"kwiye":725,"▁ikibazo":726,"▁to":727,"ss":728,"tekano":729,"▁baba":730,"myaka":731,"▁kon":732,"riri":733,"sore":734,"▁kwa":735,"▁minisitiri":736,"tego":737,"menya":738,"▁ibya":739,"▁iz":740,"▁b’":741,"▁mujyi":742,"▁iyi":743,"shanwa":744,"pfu":745,"▁byi":746,"ywa":747,"qu":748,"▁abana":749,"▁g":750,"toza":751,"nze":752,"kina":753,"▁byinshi":754,"▁nk’i":755,"horo":756,"guye":757,"kundo":758,"siga":759,"▁me":760,"ota":761,"sin":762,"van":763,"bira":764,"shwe":765,"▁kaga":766,"▁w’u":767,"▁yakore":768,"▁bw’i":769,"▁hamwe":770,"yije":771,"▁li":772,"hindu":773,"▁n’abandi":774,"▁al":775,"▁mpuza":776,"▁di":777,"▁imana":778,"▁uganda":779,"▁buru":780,"▁n’ibindi":781,"tyo":782,"▁babi":783,"▁bihugu":784,"▁y’umu":785,"taramo":786,"vuye":787,"▁ahubwo":788,"▁kure":789,"buka":790,"▁kubona":791,"▁sports":792,"hinzi":793,"▁biza":794,"▁so":795,"▁polisi":796,"▁mwanya":797,"▁kin":798,"▁bakaba":799,"▁ry’i":800,"er":801,"▁ja":802,"▁ibintu":803,"▁icya":804,"hare":805,"▁do":806,"▁igihugu":807,"▁murenge":808,"mye":809,"oni":810,"gereza":811,"min":812,"kombe":813,"tare":814,"bwiye":815,"kozi":816,"▁batu":817,"▁kugi":818,"tanda":819,"ruko":820,"rin":821,"saru":822,"▁the":823,"▁kujya":824,"▁kagame":825,"ganya":826,"▁apr":827,"mvi":828,"▁ika":829,"▁agira":830,"▁nko":831,"▁y’a":832,"hise":833,"▁nubwo":834,"rasi":835,"▁biba":836,"▁twi":837,"gaban":838,"mbwa":839,"▁inama":840,"hora":841,"▁amakuru":842,"▁cyi":843,"▁hanze":844,"saruro":845,"bare":846,"▁ubwo":847,"rona":848,"▁mukuru":849,"sange":850,"▁mwi":851,"huye":852,"▁yaha":853,"mera":854,"rinda":855,"byeyi":856,"ganira":857,"▁kuza":858,"tso":859,"▁nyi":860,"terambere":861,"rangi":862,"▁cyumweru":863,"lle":864,"▁ubuyobozi":865,"▁umugore":866,"banga":867,"zwi":868,"▁ugu":869,"yongera":870,"yuba":871,"fuza":872,"jyana":873,"▁ifite":874,"▁imba":875,"riro":876,"fashe":877,"▁bin":878,"▁kibazo":879,"▁uruhare":880,"▁nyama":881,"rt":882,"zego":883,"▁rwi":884,"mya":885,"byiruko":886,"gero":887,"gene":888,"mpi":889,"▁bamaze":890,"▁sha":891,"▁bitandukanye":892,"▁con":893,"▁wese":894,"▁rusange":895,"▁minisiteri":896,"sabye":897,"banza":898,"retse":899,"▁fi":900,"yeho":901,"taba":902,"▁kugera":903,"tatu":904,"doka":905,"▁y’in":906,"▁ubuzima":907,"rus":908,"▁bamu":909,"▁ntara":910,"can":911,"▁mukino":912,"tandatu":913,"hango":914,"shuro":915,"▁abakinnyi":916,"rezo":917,"shuti":918,"moka":919,"rushanwa":920,"▁umugabo":921,"gisha":922,"▁yabi":923,"▁kurusha":924,"akarere":925,"pfo":926,"▁gutanga":927,"▁nyinshi":928,"bereye":929,"rano":930,"ur":931,"▁b’i":932,"▁w’in":933,"▁kwezi":934,"▁ibihumbi":935,"handa":936,"kunga":937,"▁iba":938,"son":939,"sanze":940,"▁yakorewe":941,"▁ira":942,"▁rw’i":943,"▁haba":944,"▁uta":945,"guri":946,"fashi":947,"sirika":948,"▁umusaruro":949,"▁iha":950,"ste":951,"rie":952,"▁y’igihugu":953,"que":954,"▁n’ubwo":955,"rera":956,"▁iyo":957,"kunze":958,"rango":959,"▁barimo":960,"▁yatangaje":961,"▁yandi":962,"▁dr":963,"ronavi":964,"▁by’u":965,"▁bikaba":966,"bikorwa":967,"uza":968,"kiye":969,"hura":970,"muha":971,"▁bityo":972,"shyin":973,"▁n’imi":974,"▁nkuru":975,"▁kubu":976,"▁v":977,"▁da":978,"▁wu":979,"tumye":980,"gano":981,"gende":982,"▁biga":983,"▁amaze":984,"com":985,"▁yeme":986,"▁nibwo":987,"▁su":988,"▁gatatu":989,"shye":990,"▁bagiye":991,"tima":992,"sirikare":993,"ntu":994,"minuza":995,"fe":996,"fun":997,"rire":998,"mbye":999,"▁umwanya":1000,"▁tele":1001,"ywe":1002,"gizi":1003,"kozwe":1004,"hamwe":1005,"kunzi":1006,"▁kaminuza":1007,"kiko":1008,"hirwe":1009,"▁ro":1010,"won":1011,"tero":1012,"▁atari":1013,"▁agaciro":1014,"▁usanga":1015,"ck":1016,"▁ushinzwe":1017,"yari":1018,"zweho":1019,"▁icyo":1020,"▁ufite":1021,"▁birimo":1022,"▁umutekano":1023,"▁buzima":1024,"▁nama":1025,"▁ubwi":1026,"▁kwita":1027,"▁biri":1028,"gambo":1029,"rwanya":1030,"ranya":1031,"▁bazi":1032,"▁akazi":1033,"▁ikindi":1034,"teye":1035,"▁uza":1036,"▁af":1037,"tore":1038,"▁bana":1039,"soho":1040,"mwa":1041,"pera":1042,"▁iri":1043,"burarw":1044,"▁mpuzama":1045,"▁icyi":1046,"shyize":1047,"▁myaka":1048,"▁bakora":1049,"▁sta":1050,"taka":1051,"mira":1052,"yungu":1053,"▁ibibazo":1054,"▁isoko":1055,"fungu":1056,"▁umuryango":1057,"ken":1058,"kera":1059,"▁no":1060,"huza":1061,"kazi":1062,"rane":1063,"hunga":1064,"ganga":1065,"▁ikaba":1066,"▁mpuzamahanga":1067,"▁kubaka":1068,"rwayi":1069,"yijwe":1070,"’’":1071,"▁bira":1072,"bon":1073,"garagaje":1074,"▁coronavi":1075,"shyura":1076,"▁nku":1077,"▁witwa":1078,"mp":1079,"▁coronavirus":1080,"▁none":1081,"zere":1082,"shatsi":1083,"poro":1084,"ris":1085,"▁impamvu":1086,"foto":1087,"▁man":1088,"▁inyuma":1089,"▁rimwe":1090,"shora":1091,"▁w’ama":1092,"▁muntu":1093,"ire":1094,"lika":1095,"▁uba":1096,"▁nabo":1097,"▁ndirimbo":1098,"▁amerika":1099,"▁bitewe":1100,"▁zo":1101,"▁byari":1102,"▁baki":1103,"▁kuyi":1104,"kungu":1105,"ndo":1106,"fati":1107,"shimira":1108,"▁ur":1109,"▁kwibuka":1110,"reka":1111,"▁gushyira":1112,"buhanga":1113,"tari":1114,"▁kuvu":1115,"▁uwi":1116,"▁mwa":1117,"tungo":1118,"▁mpamvu":1119,"shyirwa":1120,"▁itsinda":1121,"▁la":1122,"mini":1123,"gizwe":1124,"sheje":1125,"▁umwaka":1126,"ul":1127,"yamabanga":1128,"jije":1129,"pira":1130,"▁ken":1131,"gamije":1132,"▁y’uko":1133,"▁kuwa":1134,"shakashatsi":1135,"▁byiza":1136,"yumba":1137,"hana":1138,"▁z’ama":1139,"sira":1140,"sabwa":1141,"tekerezo":1142,"ziza":1143,"tabiri":1144,"▁gufasha":1145,"manu":1146,"▁kugirango":1147,"▁pro":1148,"saga":1149,"siye":1150,"▁saa":1151,"al":1152,"▁umukino":1153,"▁ruba":1154,"shimiye":1155,"▁utu":1156,"saha":1157,"swa":1158,"modoka":1159,"▁bihe":1160,"▁cye":1161,"▁bwe":1162,"tsina":1163,"reba":1164,"▁icu":1165,"mbara":1166,"▁wo":1167,"dan":1168,"▁mikino":1169,"▁inka":1170,"tora":1171,"paka":1172,"mura":1173,"hagara":1174,"▁bijyanye":1175,"▁gicu":1176,"▁umukobwa":1177,"▁fe":1178,"rugendo":1179,"tanze":1180,"sezerano":1181,"ransa":1182,"▁ze":1183,"▁umwana":1184,"▁bagera":1185,"koreshwa":1186,"▁rugo":1187,"▁bimwe":1188,"ingo":1189,"koresho":1190,"dugu":1191,"▁yitwa":1192,"habwa":1193,"manota":1194,"▁wan":1195,"rizwa":1196,"hoze":1197,"ranira":1198,"▁cy’u":1199,"▁w’ubu":1200,"▁ndi":1201,"shami":1202,"rengan":1203,"▁ne":1204,"dugudu":1205,"mbwe":1206,"yona":1207,"tegu":1208,"▁minsi":1209,"yobora":1210,"veri":1211,"mara":1212,"yemezo":1213,"▁shampi":1214,"faransa":1215,"▁kumenya":1216,"▁bika":1217,"shoboye":1218,"▁nayo":1219,"ry":1220,"fashwe":1221,"jira":1222,"shobozi":1223,"koranabuhanga":1224,"▁nabi":1225,"▁mba":1226,"▁muryango":1227,"twi":1228,"tun":1229,"kubi":1230,"tsinze":1231,"▁uka":1232,"▁bantu":1233,"fana":1234,"senge":1235,"pfa":1236,"▁kigo":1237,"vugwa":1238,"curuza":1239,"fatanya":1240,"▁miliyari":1241,"mere":1242,"▁shampiyona":1243,"bwenge":1244,"▁imikino":1245,"▁gikorwa":1246,"sura":1247,"riwe":1248,"▁ju":1249,"▁izina":1250,"tsa":1251,"rirwa":1252,"▁yakomeje":1253,"mbuye":1254,"▁yatangiye":1255,"▁guveri":1256,"▁amu":1257,"yandi":1258,"yine":1259,"▁kongera":1260,"dana":1261,"▁y’ibi":1262,"goro":1263,"garu":1264,"▁n’igi":1265,"garuka":1266,"▁kwirinda":1267,"gije":1268,"ir":1269,"▁hano":1270,"▁n’uko":1271,"fatanye":1272,"▁kipe":1273,"▁tura":1274,"ria":1275,"hera":1276,"tonde":1277,"▁em":1278,"mbaga":1279,"▁uretse":1280,"wandi":1281,"▁gutera":1282,"▁kun":1283,"▁gufata":1284,"▁marie":1285,"hungu":1286,"garagaye":1287,"▁niyo":1288,"▁banki":1289,"▁amateka":1290,"▁gushaka":1291,"kwira":1292,"▁go":1293,"▁iminsi":1294,"▁gukoresha":1295,"▁bari":1296,"▁ingu":1297,"▁ubumwe":1298,"▁bate":1299,"▁menshi":1300,"ziki":1301,"herere":1302,"▁abagore":1303,"▁paul":1304,"rali":1305,"bili":1306,"▁mugabo":1307,"komoka":1308,"▁dore":1309,"hangana":1310,"▁ada":1311,"▁uga":1312,"▁ibiri":1313,"juru":1314,"▁ibihugu":1315,"▁mata":1316,"▁burundi":1317,"▁igikombe":1318,"▁myiza":1319,"▁kenya":1320,"lu":1321,"▁amahoro":1322,"▁imbaraga":1323,"nd":1324,"dege":1325,"▁kiganiro":1326,"▁indwara":1327,"▁n’iki":1328,"ch":1329,"shoboka":1330,"▁haza":1331,"▁amahirwe":1332,"zani":1333,"▁bituma":1334,"▁ryo":1335,"▁zitandukanye":1336,"yeshuri":1337,"tegan":1338,"▁gatanu":1339,"▁babiri":1340,"ty":1341,"bereho":1342,"▁baturage":1343,"nya":1344,"menyetso":1345,"▁yon":1346,"▁ry’umu":1347,"▁frw":1348,"▁yombi":1349,"▁inkunga":1350,"buye":1351,"▁amakipe":1352,"▁iterambere":1353,"pubu":1354,"rongo":1355,"▁kuzi":1356,"fatwa":1357,"▁indi":1358,"tegetsi":1359,"bazi":1360,"▁kane":1361,"▁gukomeza":1362,"▁w’a":1363,"boneka":1364,"▁fo":1365,"▁ibindi":1366,"▁komi":1367,"▁yabwiye":1368,"▁inter":1369,"▁n’uru":1370,"▁repubu":1371,"▁zu":1372,"bin":1373,"▁impan":1374,"baza":1375,"vid":1376,"gingo":1377,"▁kumwe":1378,"tanye":1379,"▁umunyamabanga":1380,"▁bw’u":1381,"sigaye":1382,"▁ivuga":1383,"▁ana":1384,"▁bura":1385,"▁bada":1386,"▁rubavu":1387,"▁abanya":1388,"▁ben":1389,"▁yabaye":1390,"▁imirimo":1391,"bire":1392,"▁bwo":1393,"▁yaje":1394,"▁ashobora":1395,"renze":1396,"▁kiri":1397,"hariko":1398,"dio":1399,"▁kiza":1400,"th":1401,"ano":1402,"▁bigo":1403,"meza":1404,"zindi":1405,"▁ahantu":1406,"▁bagenzi":1407,"twaye":1408,"cyaha":1409,"mbyi":1410,"▁seri":1411,"▁repubulika":1412,"gire":1413,"ent":1414,"▁muhanga":1415,"gamba":1416,"▁kurwanya":1417,"zana":1418,"▁abayobozi":1419,"kerarugendo":1420,"ment":1421,"che":1422,"canyi":1423,"rani":1424,"manuel":1425,"▁aki":1426,"ruguru":1427,"▁miss":1428,"▁serivi":1429,"▁huye":1430,"yuze":1431,"korerwa":1432,"▁congo":1433,"▁emmanuel":1434,"shyirahamwe":1435,"▁ubwa":1436,"▁ibyo":1437,"am":1438,"mwaka":1439,"▁weru":1440,"▁byo":1441,"▁w’aba":1442,"▁muka":1443,"▁imodoka":1444,"is":1445,"▁gace":1446,"menyi":1447,"terwa":1448,"lan":1449,"tanzani":1450,"▁werurwe":1451,"▁cha":1452,"abanyarwanda":1453,"▁kuzamu":1454,"▁iga":1455,"hande":1456,"▁umuhanzi":1457,"kwezi":1458,"rori":1459,"haye":1460,"▁telef":1461,"rengera":1462,"▁abari":1463,"hingwa":1464,"▁nshin":1465,"▁agiye":1466,"▁k’u":1467,"meze":1468,"▁n’abantu":1469,"▁ndwara":1470,"keneye":1471,"▁imyi":1472,"▁gatandatu":1473,"▁cla":1474,"▁iti":1475,"▁ubutumwa":1476,"▁nshya":1477,"▁ushize":1478,"abantu":1479,"maro":1480,"▁ke":1481,"joro":1482,"▁yagiye":1483,"rwego":1484,"yanga":1485,"▁nk’umu":1486,"▁bati":1487,"kundana":1488,"makuru":1489,"mena":1490,"mbura":1491,"shusho":1492,"▁bayi":1493,"▁gato":1494,"giranye":1495,"▁by’in":1496,"tive":1497,"torero":1498,"yimana":1499,"kani":1500,"▁twe":1501,"hano":1502,"▁umwu":1503,"vo":1504,"▁guteza":1505,"lin":1506,"▁iwa":1507,"▁muha":1508,"bc":1509,"▁iya":1510,"shyamba":1511,"banda":1512,"▁afri":1513,"▁bagomba":1514,"kurikirana":1515,"ndu":1516,"▁is":1517,"▁ti":1518,"▁gitaramo":1519,"▁police":1520,"▁nyan":1521,"▁kwin":1522,"▁inzu":1523,"▁w’imyaka":1524,"sobanura":1525,"subiza":1526,"▁’":1527,"▁kazi":1528,"▁urubyiruko":1529,"▁ida":1530,"▁hose":1531,"genga":1532,"▁mafaranga":1533,"▁ntiba":1534,"gabane":1535,"▁h":1536,"gurira":1537,"shinja":1538,"▁yana":1539,"▁urukundo":1540,"kirwa":1541,"▁ryi":1542,"siyo":1543,"ganwa":1544,"haga":1545,"▁mwiza":1546,"▁amanota":1547,"▁akarere":1548,"citse":1549,"poli":1550,"dy":1551,"▁ubushobozi":1552,"▁ingaruka":1553,"▁izi":1554,"tangarije":1555,"renganzira":1556,"stin":1557,"▁tanzani":1558,"▁turi":1559,"▁umunsi":1560,"▁zirimo":1561,"byiri":1562,"▁sport":1563,"▁ubundi":1564,"tegura":1565,"shoramari":1566,"▁zabo":1567,"▁stade":1568,"▁amavu":1569,"rangira":1570,"hamya":1571,"shyigi":1572,"▁hanyuma":1573,"rekana":1574,"▁yamu":1575,"▁inzo":1576,"ririmbyi":1577,"▁nyira":1578,"shyaka":1579,"sobanuye":1580,"net":1581,"▁of":1582,"sozi":1583,"▁byaba":1584,"▁ngombwa":1585,"▁muzi":1586,"vura":1587,"▁yahise":1588,"genzu":1589,"kwakira":1590,"▁n’izindi":1591,"sta":1592,"▁azi":1593,"mezi":1594,"▁y’igi":1595,"▁nka":1596,"tekereza":1597,"▁bahu":1598,"▁imaze":1599,"tewe":1600,"▁igikorwa":1601,"soro":1602,"▁ako":1603,"▁n’im":1604,"▁nkuko":1605,"vugizi":1606,"▁b’u":1607,"hara":1608,"roko":1609,"kinira":1610,"▁iby’":1611,"▁yasabye":1612,"bert":1613,"nde":1614,"tiye":1615,"▁atu":1616,"muhaburarw":1617,"▁nziza":1618,"yobya":1619,"noma":1620,"▁ikintu":1621,"subira":1622,"▁mukobwa":1623,"yumva":1624,"genge":1625,"▁serivisi":1626,"▁jose":1627,"▁ub":1628,"▁guverinoma":1629,"▁udu":1630,"ly":1631,"▁abe":1632,"sera":1633,"▁cy’in":1634,"▁isu":1635,"kanga":1636,"zina":1637,"▁zose":1638,"▁covid":1639,"▁hejuru":1640,"▁ingamba":1641,"▁itariki":1642,"tangazamakuru":1643,"▁bishobora":1644,"pp":1645,"tel":1646,"▁nshuro":1647,"burasira":1648,"▁bida":1649,"hugurwa":1650,"▁ikigo":1651,"kije":1652,"▁amazi":1653,"rekeza":1654,"▁bake":1655,"cye":1656,"▁vu":1657,"geje":1658,"▁cy’ama":1659,"mban":1660,"▁yonge":1661,"▁as":1662,"▁mar":1663,"▁yanditswe":1664,"▁yin":1665,"hinga":1666,"ven":1667,"gesera":1668,"▁inda":1669,"▁kuvuga":1670,"▁nzu":1671,"hawe":1672,"▁nan":1673,"jambo":1674,"tabiriye":1675,"▁fili":1676,"ys":1677,"ver":1678,"mes":1679,"razi":1680,"▁au":1681,"▁es":1682,"kari":1683,"▁ar":1684,"▁ishuri":1685,"▁rd":1686,"ona":1687,"rozi":1688,"duka":1689,"▁zari":1690,"▁zunze":1691,"▁abagabo":1692,"▁muda":1693,"w’i":1694,"▁imiryango":1695,"▁bye":1696,"yaga":1697,"▁guhangana":1698,"kesha":1699,"▁hin":1700,"ranyije":1701,"zon":1702,"▁cyose":1703,"bunga":1704,"▁cyo":1705,"pite":1706,"▁nza":1707,"ball":1708,"tangwa":1709,"▁abahanzi":1710,"koresheje":1711,"burasirazuba":1712,"▁nk’a":1713,"▁lo":1714,"▁ibihe":1715,"shingiye":1716,"jwi":1717,"▁inshuro":1718,"▁inyungu":1719,"▁abakobwa":1720,"gezweho":1721,"▁guso":1722,"▁z’umu":1723,"sen":1724,"shanya":1725,"▁yakoze":1726,"▁bagize":1727,"▁nyarwanda":1728,"teguye":1729,"▁hirya":1730,"▁bajya":1731,"▁by’ubu":1732,"▁N":1733,"▁ukwakira":1734,"▁amasezerano":1735,"▁gito":1736,"perative":1737,"ganye":1738,"▁kuva":1739,"kire":1740,"tana":1741,"▁izaba":1742,"▁bufaransa":1743,"hindura":1744,"korere":1745,"▁bitaro":1746,"hereza":1747,"▁kayi":1748,"▁itanga":1749,"▁wabo":1750,"▁ntibi":1751,"zuro":1752,"tri":1753,"▁ruhande":1754,"mwihariko":1755,"mpa":1756,"▁ferwa":1757,"▁eri":1758,"▁ishize":1759,"▁amategeko":1760,"▁umutoza":1761,"rangwa":1762,"yobyabwenge":1763,"▁nze":1764,"tungu":1765,"▁guta":1766,"▁bato":1767,"▁w’akarere":1768,"rwan":1769,"shyan":1770,"▁inta":1771,"yemo":1772,"boza":1773,"▁umwa":1774,"kuba":1775,"maga":1776,"▁ziri":1777,"tabo":1778,"▁turere":1779,"shishi":1780,"▁bikomeye":1781,"▁wawe":1782,"▁irushanwa":1783,"▁icumu":1784,"▁ura":1785,"▁fran":1786,"▁makipe":1787,"rs":1788,"▁ushobora":1789,"▁hino":1790,"▁ry’u":1791,"gereye":1792,"tabira":1793,"banze":1794,"▁kaba":1795,"▁akomeza":1796,"inga":1797,"▁gicurasi":1798,"▁ikoranabuhanga":1799,"▁bibiri":1800,"yumvi":1801,"▁ntacyo":1802,"▁and":1803,"▁ruta":1804,"▁ibitego":1805,"bwiriza":1806,"▁rukundo":1807,"▁kureba":1808,"bonano":1809,"teza":1810,"▁impu":1811,"▁kwica":1812,"muryango":1813,"▁irimo":1814,"▁amaso":1815,"▁nabyo":1816,"▁ijambo":1817,"▁akora":1818,"zanyo":1819,"suzu":1820,"▁tuza":1821,"▁uburenganzira":1822,"▁by’ama":1823,"wongereza":1824,"▁umubare":1825,"biligi":1826,"mbaye":1827,"▁ejo":1828,"giza":1829,"pfuye":1830,"▁cy’ubu":1831,"▁ingabo":1832,"fatanyije":1833,"▁muhanda":1834,"tanzwe":1835,"rangiza":1836,"▁icyizere":1837,"deli":1838,"hagarariye":1839,"sizi":1840,"▁bwabo":1841,"jyaruguru":1842,"▁z’a":1843,"yamama":1844,"▁ibyaha":1845,"▁covid-":1846,"ng":1847,"▁y’e":1848,"kanya":1849,"▁cy’umu":1850,"▁butumwa":1851,"ranyi":1852,"zeye":1853,"▁muza":1854,"▁kamena":1855,"banje":1856,"rangiye":1857,"geria":1858,"▁iryo":1859,"▁magambo":1860,"▁ibigo":1861,"polisi":1862,"kisha":1863,"▁yayo":1864,"▁inkuru":1865,"kurikiran":1866,"byin":1867,"▁batangiye":1868,"▁mateka":1869,"▁kwiga":1870,"gurisha":1871,"komere":1872,"gambi":1873,"siyete":1874,"hagije":1875,"▁hu":1876,"▁mutara":1877,"▁ibijyanye":1878,"▁arimo":1879,"shyingo":1880,"buze":1881,"▁uni":1882,"▁ibikoresho":1883,"▁raporo":1884,"▁ibiganiro":1885,"▁ebyiri":1886,"cha":1887,"tebe":1888,"rusi":1889,"▁y’epfo":1890,"basha":1891,"▁bashobora":1892,"▁aya":1893,"▁gukina":1894,"▁byabo":1895,"▁ziza":1896,"cwa":1897,"tangajwe":1898,"▁y’imyaka":1899,"zimana":1900,"herutse":1901,"jyepfo":1902,"▁sita":1903,"▁mudugudu":1904,"▁kwishyura":1905,"▁gashyan":1906,"bayeho":1907,"▁nyamara":1908,"▁gukorera":1909,"mero":1910,"yenda":1911,"▁kumva":1912,"▁vuba":1913,"▁gashyantare":1914,"▁bashaka":1915,"▁bugesera":1916,"▁kuru":1917,"fitanye":1918,"roshye":1919,"nshi":1920,"yuranye":1921,"buzima":1922,"▁hakaba":1923,"▁izindi":1924,"▁azaba":1925,"rwaye":1926,"▁ry’aba":1927,"▁w":1928,"▁amafoto":1929,"kurikira":1930,"▁by’umwihariko":1931,"▁niba":1932,"lla":1933,"teko":1934,"▁niyon":1935,"▁umunya":1936,"▁kwan":1937,"▁ukun":1938,"rari":1939,"▁imu":1940,"kuri":1941,"▁umura":1942,"▁U":1943,"▁babona":1944,"kemura":1945,"▁byara":1946,"▁b’aba":1947,"▁urugero":1948,"▁itatu":1949,"mama":1950,"bum":1951,"ziya":1952,"girwa":1953,"▁bigaragara":1954,"▁internet":1955,"sumbuye":1956,"rimana":1957,"▁njye":1958,"twaro":1959,"yura":1960,"▁cy’igihugu":1961,"▁akana":1962,"▁imibereho":1963,"hariye":1964,"▁kuzamura":1965,"▁ababyeyi":1966,"▁inko":1967,"▁niwe":1968,"▁ngu":1969,"bihugu":1970,"dura":1971,"les":1972,"rwo":1973,"▁abakozi":1974,"ruwa":1975,"mwu":1976,"▁bacu":1977,"zera":1978,"butso":1979,"▁yamaze":1980,"shishika":1981,"▁mahanga":1982,"tondo":1983,"▁guhera":1984,"tiki":1985,"▁atatu":1986,"▁abo":1987,"▁inshuti":1988,"curuzwa":1989,"gendera":1990,"swe":1991,"▁urukiko":1992,"▁ruza":1993,"▁rusizi":1994,"kenshi":1995,"twari":1996,"▁ashaka":1997,"▁akamaro":1998,"▁bakoze":1999,"▁muse":2000,"▁ugushyingo":2001,"goroba":2002,"▁agomba":2003,"▁baje":2004,"▁abiri":2005,"▁y’uru":2006,"yemeje":2007,"mbasa":2008,"▁nyakanga":2009,"▁mpuzabi":2010,"▁ch":2011,"▁musanze":2012,"▁bibazo":2013,"sanzu":2014,"▁bifite":2015,"▁byatumye":2016,"genewe":2017,"▁ziba":2018,"▁tanzania":2019,"toki":2020,"shingano":2021,"rwaho":2022,"▁barenga":2023,"bano":2024,"yoboye":2025,"hungaban":2026,"▁ci":2027,"muka":2028,"▁inzego":2029,"ing":2030,"sitiri":2031,"shijwe":2032,"jyambere":2033,"▁cyari":2034,"▁ukuboza":2035,"▁kanyanga":2036,"yongeraho":2037,"▁akenshi":2038,"▁ahanini":2039,"shanyarazi":2040,"riya":2041,"kaza":2042,"vuzi":2043,"▁burundu":2044,"mpan":2045,"shakanye":2046,"fungwa":2047,"bizi":2048,"▁album":2049,"▁uda":2050,"▁kugu":2051,"▁dufite":2052,"▁mpuzabitsina":2053,"▁agera":2054,"winshi":2055,"tter":2056,"▁rw’aba":2057,"teganya":2058,"▁kana":2059,"zihi":2060,"▁icyorezo":2061,"myi":2062,"▁kwinjira":2063,"pho":2064,"▁urwego":2065,"fitiye":2066,"▁un":2067,"▁cyorezo":2068,"▁uko":2069,"gukanye":2070,"shiman":2071,"kosa":2072,"magana":2073,"▁ahagaragara":2074,"uka":2075,"▁yashyize":2076,"yanya":2077,"▁kenshi":2078,"▁ibin":2079,"▁muhanzi":2080,"sobwa":2081,"shinwa":2082,"▁nshingwa":2083,"▁I":2084,"kara":2085,"▁umuvugizi":2086,"yubako":2087,"bonetse":2088,"ane":2089,"▁san":2090,"▁ibiciro":2091,"▁guku":2092,"hitamo":2093,"▁nkoranya":2094,"▁bw’in":2095,"▁filime":2096,"▁amavubi":2097,"▁amagambo":2098,"gwi":2099,"▁en":2100,"▁nyanza":2101,"ph":2102,"nes":2103,"rangije":2104,"gabanya":2105,"▁mutwe":2106,"huti":2107,"▁ibiro":2108,"▁batuye":2109,"mbasade":2110,"ngirije":2111,"tn":2112,"▁kuta":2113,"▁y":2114,"▁ruswa":2115,"▁icyemezo":2116,"▁mudasobwa":2117,"cyi":2118,"duye":2119,"▁mugi":2120,"▁kura":2121,"▁w’amaguru":2122,"▁ubushakashatsi":2123,"▁by’umu":2124,"▁batandukanye":2125,"▁rutonde":2126,"▁yavu":2127,"▁umutwe":2128,"▁make":2129,"tozo":2130,"▁bw’ama":2131,"▁ajya":2132,"▁kugenda":2133,"▁mbi":2134,"▁rushanwa":2135,"▁abafana":2136,"▁w’iki":2137,"▁yari":2138,"cent":2139,"▁ugere":2140,"tumi":2141,"hinduka":2142,"heruka":2143,"rereza":2144,"▁zimwe":2145,"▁y’imari":2146,"turutse":2147,"▁dre":2148,"▁kugura":2149,"turuka":2150,"tangazwa":2151,"byara":2152,"▁eric":2153,"▁bakinnyi":2154,"▁bbc":2155,"▁uzwi":2156,"▁dia":2157,"▁mpera":2158,"▁bitegan":2159,"gaciro":2160,"▁muzika":2161,"gare":2162,"boko":2163,"▁nibura":2164,"▁pi":2165,"▁ayi":2166,"▁am":2167,"▁nkoranyambaga":2168,"lli":2169,"▁komisiyo":2170,"▁impano":2171,"kangurira":2172,"▁ishobora":2173,"▁umwi":2174,"lly":2175,"▁umurenge":2176,"▁kibuga":2177,"▁nyaga":2178,"▁urwo":2179,"bibu":2180,"▁kuya":2181,"▁ruri":2182,"kini":2183,"▁tuba":2184,"hinda":2185,"shake":2186,"▁lu":2187,"shatse":2188,"banuka":2189,"il":2190,"rewe":2191,"tor":2192,"gombaga":2193,"▁wanjye":2194,"teguwe":2195,"▁nzira":2196,"▁z’aba":2197,"▁bahawe":2198,"▁kurushaho":2199,"zin":2200,"▁mutarama":2201,"▁bwiza":2202,"▁ubusa":2203,"▁bw’aba":2204,"▁buta":2205,"▁ibyi":2206,"sohoka":2207,"▁guhi":2208,"reye":2209,"▁ambasade":2210,"▁guse":2211,"kunzwe":2212,"koro":2213,"▁bagi":2214,"▁umuziki":2215,"rengerazuba":2216,"shinjacyaha":2217,"▁batatu":2218,"▁sosiyete":2219,"fashije":2220,"gra":2221,"▁bahanzi":2222,"▁abafite":2223,"jijwe":2224,"▁gen":2225,"▁kurya":2226,"▁inzira":2227,"▁kwakira":2228,"▁buda":2229,"teli":2230,"vier":2231,"▁nshingwabikorwa":2232,"▁bageze":2233,"ld":2234,"▁bagira":2235,"▁umwan":2236,"ster":2237,"▁aribo":2238,"▁at":2239,"▁baku":2240,"▁musore":2241,"shyizwe":2242,"▁burayi":2243,"jiza":2244,"▁kwitabira":2245,"▁umushinga":2246,"▁waba":2247,"lari":2248,"▁sida":2249,"songa":2250,"▁mura":2251,"▁umuco":2252,"▁imvura":2253,"▁muhaburarw":2254,"▁mugenzi":2255,"▁you":2256,"▁bigatuma":2257,"▁ingo":2258,"tangiza":2259,"▁umukinnyi":2260,"▁isa":2261,"▁kare":2262,"▁kugaragara":2263,"▁ahi":2264,"▁ukaba":2265,"▁kira":2266,"yamba":2267,"muga":2268,"▁mpan":2269,"▁cyiciro":2270,"▁yahawe":2271,"▁A":2272,"▁gutsinda":2273,"▁dream":2274,"ger":2275,"boo":2276,"▁gishinzwe":2277,"▁itangazo":2278,"shima":2279,"▁ea":2280,"jana":2281,"zungu":2282,"cika":2283,"▁mwu":2284,"yemeza":2285,"▁ariyo":2286,"▁siporo":2287,"▁umukunzi":2288,"▁inshingano":2289,"dri":2290,"hn":2291,"▁bimu":2292,"▁abakiri":2293,"nota":2294,"▁bw’umu":2295,"▁gukorana":2296,"▁inguzanyo":2297,"▁are":2298,"tegere":2299,"▁sin":2300,"▁banyarwanda":2301,"▁basa":2302,"▁ukuri":2303,"▁bintu":2304,"▁hasi":2305,"▁rubuga":2306,"▁bindi":2307,"day":2308,"▁amashuri":2309,"shatu":2310,"rimbo":2311,"rokotse":2312,"▁b’in":2313,"▁kagari":2314,"▁koko":2315,"▁zan":2316,"▁igice":2317,"up":2318,"▁yaho":2319,"▁ibimenyetso":2320,"▁pla":2321,"▁batari":2322,"▁asaba":2323,"▁ahandi":2324,"▁telefoni":2325,"pin":2326,"gukana":2327,"vuko":2328,"▁imishinga":2329,"tsinzwe":2330,"▁clau":2331,"▁gikomeye":2332,"garagaro":2333,"lub":2334,"▁ade":2335,"mun":2336,"tunganya":2337,"my":2338,"▁binyuze":2339,"wose":2340,"▁ubusanzwe":2341,"koreshe":2342,"ssi":2343,"▁umaze":2344,"▁ukwezi":2345,"▁ubi":2346,"▁rye":2347,"▁maso":2348,"▁bakunda":2349,"genze":2350,"cco":2351,"▁icyaha":2352,"▁M":2353,"▁kanama":2354,"jwa":2355,"▁yagiranye":2356,"▁bombi":2357,"▁gusha":2358,"▁john":2359,"minisitiri":2360,"▁aho":2361,"▁mwe":2362,"▁biru":2363,"▁kire":2364,"▁ubukungu":2365,"hagaze":2366,"bije":2367,"▁byombi":2368,"▁wayo":2369,"▁biteganyijwe":2370,"mutse":2371,"▁rufite":2372,"▁y’iburasirazuba":2373,"▁n’ubuyobozi":2374,"▁naba":2375,"vuza":2376,"▁uruganda":2377,"▁ishami":2378,"▁bwongereza":2379,"rundi":2380,"▁uzi":2381,"▁imbu":2382,"um":2383,"▁igitego":2384,"▁mashuri":2385,"vandi":2386,"▁makuru":2387,"▁muke":2388,"▁cyiza":2389,"hereye":2390,"▁ihu":2391,"mije":2392,"▁rumwe":2393,"herereye":2394,"▁nzego":2395,"▁bagore":2396,"inota":2397,"▁radio":2398,"▁wungirije":2399,"genzura":2400,"▁abona":2401,"▁ahita":2402,"▁club":2403,"dwi":2404,"giri":2405,"▁ingendo":2406,"rero":2407,"▁intego":2408,"▁n’ubwi":2409,"fungura":2410,"nal":2411,"▁nabwo":2412,"vandimwe":2413,"rne":2414,"▁buba":2415,"▁bayo":2416,"▁kari":2417,"▁gisirikare":2418,"▁nari":2419,"feri":2420,"▁mugaragaro":2421,"▁nzeri":2422,"ons":2423,"▁nke":2424,"▁bice":2425,"▁ntu":2426,"perereza":2427,"rimu":2428,"zongera":2429,"▁aku":2430,"▁muganga":2431,"▁africa":2432,"gane":2433,"▁itanu":2434,"▁abagenzi":2435,"▁ab":2436,"▁basanzwe":2437,"▁w’igihugu":2438,"handi":2439,"▁bazaba":2440,"zara":2441,"▁gukorwa":2442,"▁ubucuruzi":2443,"▁amazu":2444,"▁gice":2445,"▁ibitekerezo":2446,"sengi":2447,"▁umukozi":2448,"▁bufatanye":2449,"thi":2450,"▁ababa":2451,"▁kongo":2452,"▁gucu":2453,"menyekana":2454,"▁demoka":2455,"▁bar":2456,"hira":2457,"▁ijoro":2458,"▁amezi":2459,"yuka":2460,"▁igitaramo":2461,"▁n’abaturage":2462,"▁z’amado":2463,"▁itorero":2464,"rwamo":2465,"suye":2466,"▁nyagatare":2467,"▁k’":2468,"shyigikira":2469,"▁ngoma":2470,"▁gusaba":2471,"▁vo":2472,"rg":2473,"gega":2474,"korewe":2475,"▁guhabwa":2476,"▁imibonano":2477,"book":2478,"tiro":2479,"▁gitondo":2480,"▁mugore":2481,"▁hara":2482,"geraho":2483,"▁birori":2484,"▁kubaho":2485,"shimishije":2486,"▁gutwara":2487,"▁ry’ubu":2488,"▁bwana":2489,"▁lt":2490,"▁demokarasi":2491,"kondo":2492,"shinjwa":2493,"▁umunyamakuru":2494,"▁byan":2495,"mezo":2496,"shumba":2497,"jyanama":2498,"▁muhango":2499,"rushaho":2500,"▁gutangira":2501,"gerageza":2502,"▁y’ubuzima":2503,"▁iharanira":2504,"yina":2505,"▁umujyi":2506,"yamamare":2507,"giro":2508,"tutsi":2509,"gena":2510,"hani":2511,"ciye":2512,"▁n’umuyobozi":2513,"tabera":2514,"▁hotel":2515,"▁james":2516,"▁abanyeshuri":2517,"duko":2518,"yamahanga":2519,"▁kinini":2520,"mond":2521,"cebook":2522,"tandukana":2523,"kwiriye":2524,"▁y’imi":2525,"▁umutima":2526,"▁bizaba":2527,"moko":2528,"▁zin":2529,"▁toni":2530,"▁muto":2531,"chi":2532,"▁yatsinze":2533,"tre":2534,"▁k’i":2535,"▁ingufu":2536,"ted":2537,"hungabana":2538,"▁amazina":2539,"▁nigeria":2540,"sengero":2541,"hiro":2542,"▁nisin":2543,"▁ingabire":2544,"▁gise":2545,"▁gasa":2546,"tabiriwe":2547,"▁chris":2548,"wanditsi":2549,"▁she":2550,"▁boys":2551,"ddy":2552,"▁yita":2553,"biriye":2554,"gengo":2555,"▁umunani":2556,"▁ngoro":2557,"ket":2558,"▁nisingizwe":2559,"kikije":2560,"▁kuburyo":2561,"▁n’abo":2562,"kane":2563,"▁n’ibyo":2564,"menyekanye":2565,"▁ugasanga":2566,"kiro":2567,"▁y’abaturage":2568,"▁ruhango":2569,"mewe":2570,"▁yemeza":2571,"tte":2572,"the":2573,"▁bivugwa":2574,"▁munota":2575,"▁n’aho":2576,"▁n’uburyo":2577,"▁yacu":2578,"▁mbuga":2579,"ron":2580,"ms":2581,"▁bakomeje":2582,"▁guca":2583,"genza":2584,"▁umusore":2585,"▁ai":2586,"▁y’amavuko":2587,"▁kwiba":2588,"▁by’aba":2589,"▁igiye":2590,"wuba":2591,"gwe":2592,"▁intera":2593,"kuye":2594,"sun":2595,"▁koperative":2596,"zanye":2597,"▁hashize":2598,"zuye":2599,"teganyijwe":2600,"girira":2601,"▁yawe":2602,"▁imibare":2603,"sheke":2604,"huje":2605,"▁intwaro":2606,"▁abenshi":2607,"mail":2608,"▁kiba":2609,"▁riri":2610,"▁bandi":2611,"garika":2612,"▁gutegura":2613,"▁umwuga":2614,"timana":2615,"subizo":2616,"rindwi":2617,"shimwe":2618,"shoferi":2619,"raso":2620,"▁biro":2621,"▁ina":2622,"▁itegeko":2623,"taro":2624,"▁twari":2625,"▁nyina":2626,"▁chi":2627,"siganwa":2628,"▁ikinyamakuru":2629,"▁y’amajyepfo":2630,"▁nibyo":2631,"tsiko":2632,"▁sacco":2633,"hombo":2634,"tanira":2635,"yangombwa":2636,"▁bitabiriye":2637,"▁z’in":2638,"nzi":2639,"gue":2640,"▁cy":2641,"bangami":2642,"▁imiti":2643,"▁imbabazi":2644,"▁ubwoba":2645,"▁kubura":2646,"▁bakobwa":2647,"▁kuda":2648,"der":2649,"tsindwa":2650,"▁bane":2651,"▁yumva":2652,"▁mwana":2653,"buza":2654,"▁noneho":2655,"kiriye":2656,"tiwe":2657,"▁ugomba":2658,"▁joseph":2659,"▁ibihembo":2660,"ramo":2661,"shimye":2662,"cal":2663,"▁ser":2664,"▁yatanze":2665,"hungabanya":2666,"lr":2667,"sana":2668,"mar":2669,"▁babonye":2670,"▁cle":2671,"▁cy’aba":2672,"▁pariki":2673,"▁patri":2674,"shimiyimana":2675,"▁w’umurenge":2676,"▁bakwiye":2677,"jemo":2678,"rimba":2679,"▁n’amategeko":2680,"jura":2681,"▁bakoresha":2682,"▁yadu":2683,"▁imbo":2684,"zamuka":2685,"▁yongeyeho":2686,"beshya":2687,"▁ce":2688,"▁amashusho":2689,"▁by’a":2690,"abanya":2691,"▁diamond":2692,"shahara":2693,"▁bap":2694,"▁mahugurwa":2695,"▁politiki":2696,"sese":2697,"▁w’abibu":2698,"garutse":2699,"▁mubi":2700,"▁nyaru":2701,"▁ukuvuga":2702,"▁kugaragaza":2703,"▁mada":2704,"▁z’ubu":2705,"kenewe":2706,"▁ferwafa":2707,"▁fd":2708,"▁tour":2709,"giwe":2710,"▁rwan":2711,"dukikije":2712,"▁w’intebe":2713,"guzi":2714,"dini":2715,"▁iperereza":2716,"▁iwabo":2717,"keye":2718,"mani":2719,"yumvire":2720,"cyu":2721,"▁musa":2722,"▁tsinda":2723,"▁ale":2724,"▁umutungo":2725,"▁yagaragaje":2726,"▁bakiri":2727,"▁bakunze":2728,"▁claude":2729,"▁yuba":2730,"▁rdb":2731,"▁ugereranyije":2732,"▁mfite":2733,"simbu":2734,"▁w’abibumbye":2735,"▁numva":2736,"pinduka":2737,"▁kita":2738,"vana":2739,"▁burya":2740,"▁rwamagana":2741,"yandiko":2742,"▁K":2743,"▁bayobozi":2744,"▁umupira":2745,"▁bakaza":2746,"▁telefone":2747,"minsi":2748,"▁bon":2749,"▁umubyeyi":2750,"▁umubano":2751,"▁yata":2752,"▁rw’ubu":2753,"▁isan":2754,"sasu":2755,"▁runa":2756,"▁oli":2757,"hiriza":2758,"▁urugo":2759,"gurura":2760,"kiza":2761,"▁umunyarwanda":2762,"ganiriye":2763,"▁inzoga":2764,"gram":2765,"nyine":2766,"▁n’umwe":2767,"▁yisumbuye":2768,"mure":2769,"▁abacitse":2770,"depite":2771,"▁y’amajyaruguru":2772,"▁tuka":2773,"indirimbo":2774,"▁new":2775,"▁yasobanuye":2776,"kwirakwi":2777,"ar":2778,"rema":2779,"▁mugabane":2780,"▁guhu":2781,"▁giti":2782,"▁kikaba":2783,"▁umwanzuro":2784,"▁intege":2785,"▁bushakashatsi":2786,"▁ubukwe":2787,"higo":2788,"▁ubona":2789,"tiste":2790,"▁bubiligi":2791,"▁ubumenyi":2792,"namo":2793,"▁com":2794,"▁byu":2795,"tuye":2796,"▁ariwe":2797,"tegeka":2798,"▁bahabwa":2799,"▁king":2800,"▁for":2801,"ngenge":2802,"muri":2803,"banyi":2804,"▁amasaha":2805,"▁batara":2806,"ny":2807,"▁mibi":2808,"mpinga":2809,"danga":2810,"rwaga":2811,"▁va":2812,"▁bisanzwe":2813,"▁gusura":2814,"fatiwe":2815,"▁umwami":2816,"rura":2817,"fungo":2818,"pimo":2819,"▁n’icyo":2820,"▁tom":2821,"▁mbabazi":2822,"kon":2823,"▁fdlr":2824,"▁bun":2825,"▁ubutaka":2826,"▁gutuma":2827,"▁rwose":2828,"▁abasirikare":2829,"▁mtn":2830,"mijwe":2831,"cy":2832,"▁gereza":2833,"rijwe":2834,"▁batanga":2835,"▁yayi":2836,"▁kubunga":2837,"▁abu":2838,"kiwe":2839,"▁abacuruzi":2840,"▁papa":2841,"▁itike":2842,"▁remera":2843,"▁adepr":2844,"▁bagaragaza":2845,"▁umuti":2846,"▁amabwiriza":2847,"▁nibo":2848,"▁yabonye":2849,"▁ruha":2850,"▁amwe":2851,"▁y’iki":2852,"erre":2853,"▁igera":2854,"neri":2855,"▁rika":2856,"▁bahise":2857,"▁yageze":2858,"kinnye":2859,"▁nyampinga":2860,"baba":2861,"▁ibicuruzwa":2862,"yumbati":2863,"▁bene":2864,"▁intambwe":2865,"▁itangazamakuru":2866,"▁nshimiyimana":2867,"metero":2868,"merewe":2869,"▁ubuhamya":2870,"sangan":2871,"▁facebook":2872,"▁ine":2873,"shop":2874,"▁guhura":2875,"▁habya":2876,"▁andi":2877,"▁modoka":2878,"▁kw’i":2879,"gati":2880,"▁muru":2881,"▁eu":2882,"twarire":2883,"▁ikiganiro":2884,"▁ntiya":2885,"ngire":2886,"▁igaragaza":2887,"▁busa":2888,"▁kara":2889,"▁zita":2890,"▁rw’umu":2891,"tangije":2892,"anada":2893,"▁busanzwe":2894,"▁intara":2895,"▁R":2896,"▁guhindura":2897,"funga":2898,"shimo":2899,"▁kuga":2900,"kindi":2901,"▁nsengi":2902,"▁bagabo":2903,"▁n’uwa":2904,"mvikana":2905,"shishikariza":2906,"▁ali":2907,"ciwe":2908,"▁nk’ibi":2909,"▁ndu":2910,"▁uwo":2911,"▁mana":2912,"▁gicumbi":2913,"▁igihano":2914,"▁dukesha":2915,"ririmba":2916,"kundi":2917,"▁kubungabunga":2918,"▁koro":2919,"▁myi":2920,"deo":2921,"▁igihembo":2922,"shyurwa":2923,"vuka":2924,"▁rura":2925,"▁zikomeye":2926,"▁nako":2927,"▁bazajya":2928,"▁wowe":2929,"▁agu":2930,"shyiraho":2931,"size":2932,"▁ruga":2933,"▁eshatu":2934,"mas":2935,"▁mushinga":2936,"▁n’umugore":2937,"▁bitatu":2938,"▁itandukanye":2939,"▁umuriro":2940,"▁abahinzi":2941,"▁kuha":2942,"zeza":2943,"▁kumi":2944,"▁icyumweru":2945,"▁imbuto":2946,"tere":2947,"curi":2948,"▁imikorere":2949,"▁sy":2950,"▁n’amahanga":2951,"herezwa":2952,"▁isuku":2953,"seri":2954,"tinze":2955,"▁ibiyobyabwenge":2956,"shimisha":2957,"▁yahi":2958,"▁iminota":2959,"jyanwa":2960,"▁komite":2961,"tira":2962,"▁alex":2963,"▁nyabi":2964,"▁bare":2965,"merera":2966,"▁bakorera":2967,"▁lea":2968,"▁bwoko":2969,"▁muti":2970,"fashisha":2971,"▁uyobora":2972,"▁marushanwa":2973,"shimangira":2974,"▁abazi":2975,"▁tho":2976,"▁twitter":2977,"or":2978,"▁cyabo":2979,"kangura":2980,"▁rivuga":2981,"vamo":2982,"▁nk’aba":2983,"▁baptiste":2984,"▁ikomeye":2985,"▁canada":2986,"hagari":2987,"▁n’abanyarwanda":2988,"▁gra":2989,"▁char":2990,"▁nga":2991,"▁gera":2992,"▁akiri":2993,"▁myinshi":2994,"▁yise":2995,"▁n’igihe":2996,"▁ijana":2997,"siteri":2998,"manyarwanda":2999,"zanya":3000,"▁runaka":3001,"▁ikora":3002,"▁uhagarariye":3003,"gora":3004,"▁hamaze":3005,"▁miryango":3006,"▁bifuza":3007,"ction":3008,"gihe":3009,"▁bakuru":3010,"▁kigero":3011,"▁n’inzego":3012,"rwana":3013,"▁habyarimana":3014,"▁akunda":3015,"▁gukura":3016,"▁yifuza":3017,"oneste":3018,"▁bemeza":3019,"▁bwose":3020,"▁air":3021,"sora":3022,"vugaga":3023,"▁theoneste":3024,"▁ruda":3025,"ssa":3026,"tsindi":3027,"seke":3028,"▁umuhungu":3029,"▁mushya":3030,"cuku":3031,"bonera":3032,"▁bwan":3033,"butumwa":3034,"▁yongeraho":3035,"▁clo":3036,"▁ruganda":3037,"koreye":3038,"▁baru":3039,"birwa":3040,"▁buka":3041,"▁ry’ama":3042,"kubita":3043,"▁asanzwe":3044,"▁gucuruza":3045,"ble":3046,"▁bri":3047,"▁imari":3048,"▁gisa":3049,"▁gukumira":3050,"▁imyenda":3051,"▁nk’ubu":3052,"nt":3053,"▁kintu":3054,"▁nki":3055,"▁bakana":3056,"bikorera":3057,"▁yiga":3058,"jiye":3059,"kwaho":3060,"huriye":3061,"▁bushinwa":3062,"fura":3063,"▁bw’igihugu":3064,"▁ushaka":3065,"▁badu":3066,"▁bahi":3067,"▁urutonde":3068,"▁virusi":3069,"ngira":3070,"abandi":3071,"mpaka":3072,"▁atanga":3073,"▁kwivuza":3074,"▁safa":3075,"fashishwa":3076,"▁kera":3077,"▁ahitwa":3078,"bara":3079,"▁kuyobora":3080,"▁gifite":3081,"▁byabaye":3082,"tsinzi":3083,"eu":3084,"girana":3085,"▁babu":3086,"▁igiciro":3087,"▁imyitozo":3088,"ngiye":3089,"▁bas":3090,"▁bihingwa":3091,"▁umuturage":3092,"tanyi":3093,"shira":3094,"rekanye":3095,"kenke":3096,"▁igira":3097,"▁hakiri":3098,"▁zifite":3099,"ura":3100,"▁umukuru":3101,"yoboke":3102,"▁cy’a":3103,"▁cy’imyaka":3104,"▁n’ahandi":3105,"▁y’aho":3106,"rasira":3107,"mwana":3108,"gabe":3109,"▁n’umun":3110,"▁meza":3111,"ganjemo":3112,"sco":3113,"▁agaragaza":3114,"▁inyama":3115,"▁kili":3116,"▁bwari":3117,"▁mukan":3118,"▁impa":3119,"▁wara":3120,"▁tubi":3121,"▁zayo":3122,"▁n’ikigo":3123,"▁atandukanye":3124,"▁yongeye":3125,"rondo":3126,"▁wabaye":3127,"▁wenyine":3128,"▁bwite":3129,"▁n’igice":3130,"gamo":3131,"▁nk’in":3132,"▁martin":3133,"▁butaka":3134,"lisa":3135,"▁zira":3136,"▁niyi":3137,"▁dan":3138,"rugero":3139,"▁zika":3140,"rekezo":3141,"hoza":3142,"▁n’ibya":3143,"▁yanditse":3144,"▁butare":3145,"▁insta":3146,"▁ubuhinzi":3147,"▁urugendo":3148,"▁ubwe":3149,"▁ukomeye":3150,"▁guhanga":3151,"liki":3152,"muna":3153,"vutse":3154,"▁rubyiruko":3155,"poir":3156,"▁kw’":3157,"▁bumva":3158,"shyizweho":3159,"▁biganiro":3160,"▁wacu":3161,"▁gasabo":3162,"▁gukunda":3163,"▁mike":3164,"▁guhagarika":3165,"▁nyamasheke":3166,"▁natwe":3167,"▁sitade":3168,"veni":3169,"▁kiliziya":3170,"▁abakunzi":3171,"yobowe":3172,"▁buza":3173,"▁ibice":3174,"gezeho":3175,"▁utaha":3176,"▁abayi":3177,"▁icumi":3178,"▁usi":3179,"▁kayon":3180,"cukiro":3181,"▁nor":3182,"iro":3183,"▁ikorera":3184,"▁kivu":3185,"per":3186,"menyesha":3187,"▁pierre":3188,"nziza":3189,"▁n’uwo":3190,"▁y’amafaranga":3191,"nganira":3192,"▁ishinga":3193,"rego":3194,"▁umwuka":3195,"▁gutangiza":3196,"▁ukwi":3197,"magara":3198,"▁mbona":3199,"▁espoir":3200,"▁ubura":3201,"tional":3202,"▁instagram":3203,"▁moto":3204,"▁ukuntu":3205,"tani":3206,"mbaza":3207,"▁ese":3208,"▁visi":3209,"▁museveni":3210,"▁inno":3211,"liya":3212,"▁n’iyo":3213,"ol":3214,"tro":3215,"▁gukemura":3216,"cumbi":3217,"▁byamu":3218,"▁mezi":3219,"kanisha":3220,"yovu":3221,"▁kugabanya":3222,"▁muyobozi":3223,"▁mazu":3224,"▁munini":3225,"taho":3226,"▁ikiba":3227,"▁usanzwe":3228,"kimbi":3229,"sungane":3230,"▁basket":3231,"ruhu":3232,"▁theo":3233,"▁vs":3234,"▁utuye":3235,"tali":3236,"▁mpa":3237,"▁gakenke":3238,"yujije":3239,"▁kicukiro":3240,"▁abanyamakuru":3241,"▁kanya":3242,"bwaho":3243,"▁bakajya":3244,"▁w’ingabo":3245,"mikino":3246,"▁gisenyi":3247,"sse":3248,"▁cyu":3249,"▁chan":3250,"▁bw’akarere":3251,"mvura":3252,"▁bakomeye":3253,"shyikiri":3254,"▁kubana":3255,"▁amarushanwa":3256,"giriye":3257,"ralirwa":3258,"▁bralirwa":3259,"▁kwandi":3260,"▁ukora":3261,"▁mazi":3262,"▁mala":3263,"▁gerard":3264,"yongere":3265,"▁dj":3266,"▁yanjye":3267,"genera":3268,"▁ambasaderi":3269,"kimbirane":3270,"▁rw’a":3271,"horaho":3272,"kangurambaga":3273,"▁butandukanye":3274,"▁kurinda":3275,"▁masaha":3276,"shanu":3277,"koraga":3278,"▁n’umuryango":3279,"▁nyu":3280,"geri":3281,"▁haki":3282,"▁imisoro":3283,"▁kiyovu":3284,"rk":3285,"zero":3286,"kurwa":3287,"▁ps":3288,"▁y’amerika":3289,"▁bivuze":3290,"▁ubutegetsi":3291,"komeze":3292,"▁abakiriya":3293,"▁itu":3294,"geye":3295,"mideli":3296,"▁gro":3297,"▁ihe":3298,"▁bizimana":3299,"▁nara":3300,"▁buhinzi":3301,"hinze":3302,"▁baturutse":3303,"▁bn":3304,"zamutse":3305,"herero":3306,"▁zombi":3307,"thio":3308,"▁uburwayi":3309,"▁byatangajwe":3310,"▁itari":3311,"simbura":3312,"yongereye":3313,"sobanuro":3314,"ef":3315,"▁cyemezo":3316,"▁atandatu":3317,"soza":3318,"mogi":3319,"baga":3320,"▁mukura":3321,"fashishije":3322,"andi":3323,"gurwa":3324,"rohe":3325,"hire":3326,"▁ry’in":3327,"▁twese":3328,"thiopi":3329,"▁ndera":3330,"shyimbo":3331,"▁n’amafaranga":3332,"▁B":3333,"situ":3334,"▁buvuga":3335,"ciriri":3336,"▁ndayi":3337,"▁hazaza":3338,"▁mutima":3339,"▁cu":3340,"▁ubufatanye":3341,"▁miri":3342,"▁isaha":3343,"▁amahugurwa":3344,"▁agace":3345,"▁muba":3346,"▁gukurikirana":3347,"now":3348,"▁nyabu":3349,"juje":3350,"▁innocent":3351,"ciriritse":3352,"▁bavuye":3353,"▁bakabi":3354,"▁ava":3355,"int":3356,"▁mbe":3357,"▁indege":3358,"▁amasoko":3359,"▁ire":3360,"▁kuganira":3361,"goye":3362,"▁habi":3363,"▁duce":3364,"phone":3365,"cen":3366,"▁ite":3367,"▁igeze":3368,"▁gutu":3369,"▁guverineri":3370,"▁win":3371,"▁nzi":3372,"▁ber":3373,"▁sam":3374,"▁ukuriye":3375,"▁ethiopi":3376,"▁asanga":3377,"▁yaku":3378,"▁munyan":3379,"▁y’abaminisitiri":3380,"▁video":3381,"▁itera":3382,"▁bavuze":3383,"rukundo":3384,"▁bnr":3385,"▁bishop":3386,"▁burera":3387,"▁masezerano":3388,"tabazi":3389,"nini":3390,"▁abagize":3391,"▁akaza":3392,"▁ahari":3393,"zengu":3394,"top":3395,"kol":3396,"▁ry’ibi":3397,"▁yabereye":3398,"▁umubiri":3399,"▁munyarwanda":3400,"▁jay":3401,"▁abanyamuryango":3402,"▁ageze":3403,"▁bakina":3404,"▁kizi":3405,"sheho":3406,"▁hata":3407,"▁rw’u":3408,"▁basketball":3409,"cyumweru":3410,"▁ntibya":3411,"gamizi":3412,"muntu":3413,"gufi":3414,"teganyo":3415,"▁olivier":3416,"▁bagenda":3417,"▁gakondo":3418,"▁byaha":3419,"▁nanjye":3420,"▁igamije":3421,"▁bushya":3422,"▁litiro":3423,"▁nshingano":3424,"▁uti":3425,"▁habaye":3426,"▁zishobora":3427,"▁ebo":3428,"yubaka":3429,"▁nyamata":3430,"▁nkurunziza":3431,"fatanyabikorwa":3432,"katiwe":3433,"▁rib":3434,"lley":3435,"▁arse":3436,"▁ishyirahamwe":3437,"▁bigeze":3438,"shema":3439,"▁clemen":3440,"turanyi":3441,"▁bica":3442,"▁yegukanye":3443,"▁united":3444,"▁batanu":3445,"hoho":3446,"▁zida":3447,"hereke":3448,"▁kirekire":3449,"▁muta":3450,"▁tuyi":3451,"▁uzaba":3452,"yezu":3453,"▁gusu":3454,"ranire":3455,"▁eshanu":3456,"▁nyamira":3457,"▁ukomoka":3458,"▁bitari":3459,"▁ebola":3460,"▁gupfa":3461,"▁abashoramari":3462,"▁rukiko":3463,"▁niko":3464,"tinya":3465,"mpaye":3466,"▁bigize":3467,"▁email":3468,"fashishijwe":3469,"rongi":3470,"holan":3471,"▁gishize":3472,"▁gikombe":3473,"▁akomeye":3474,"▁nto":3475,"nyeri":3476,"▁jac":3477,"con":3478,"▁atara":3479,"▁baya":3480,"▁hitimana":3481,"▁z’amafaranga":3482,"▁usibye":3483,"gh":3484,"jeje":3485,"▁riza":3486,"ques":3487,"koreshejwe":3488,"▁ibirori":3489,"▁ngingo":3490,"▁bagu":3491,"▁amakosa":3492,"▁wahoze":3493,"▁y’uyu":3494,"bonaga":3495,"▁byiciro":3496,"▁league":3497,"▁ababi":3498,"mirimo":3499,"▁ahabwa":3500,"▁ryari":3501,"▁kwambara":3502,"▁rubanza":3503,"▁kunywa":3504,"▁kayiranga":3505,"▁njyana":3506,"fashwa":3507,"▁kizaba":3508,"▁ibitaramo":3509,"keka":3510,"▁milli":3511,"▁ange":3512,"▁uha":3513,"▁gutandukana":3514,"▁inyubako":3515,"▁ibiti":3516,"▁ubwicanyi":3517,"ate":3518,"sti":3519,"▁bisaba":3520,"banye":3521,"▁n’ikin":3522,"▁igitekerezo":3523,"puro":3524,"▁yafashe":3525,"kanwa":3526,"kandi":3527,"▁ibyangombwa":3528,"▁cyenda":3529,"yubahiro":3530,"▁y’ibihugu":3531,"jyaga":3532,"▁rw’igihugu":3533,"▁guhe":3534,"▁amatora":3535,"▁zikaba":3536,"▁ariho":3537,"▁fre":3538,"▁african":3539,"geni":3540,"▁rwibutso":3541,"▁isonga":3542,"▁abasore":3543,"▁pas":3544,"rasirazuba":3545,"as":3546,"▁x":3547,"rice":3548,"▁mugoroba":3549,"▁rulin":3550,"▁ibyiza":3551,"▁uwari":3552,"sengesho":3553,"tal":3554,"gonda":3555,"senga":3556,"▁n’aka":3557,"▁ste":3558,"▁padiri":3559,"▁kigalito":3560,"remye":3561,"gejeje":3562,"▁volley":3563,"gezwa":3564,"▁n’ikipe":3565,"yani":3566,"▁n’abana":3567,"▁reba":3568,"▁yashimiye":3569,"▁mirimo":3570,"hwa":3571,"ranze":3572,"hanganye":3573,"▁tugomba":3574,"shyirwaho":3575,"▁yagu":3576,"▁bucuruzi":3577,"▁nyamu":3578,"ganire":3579,"mpanyi":3580,"holandi":3581,"▁ugiye":3582,"muco":3583,"reza":3584,"▁n’undi":3585,"sansi":3586,"zamura":3587,"▁n’ibikorwa":3588,"▁kayonza":3589,"▁rulindo":3590,"taha":3591,"▁clemence":3592,"▁iru":3593,"▁guseze":3594,"▁aribwo":3595,"▁kubakwa":3596,"▁rw’ama":3597,"kurikije":3598,"bitekerezo":3599,"▁umuhango":3600,"pg":3601,"▁ngabo":3602,"▁bibi":3603,"▁che":3604,"tishoboye":3605,"▁rugendo":3606,"▁y’umwaka":3607,"shinze":3608,"▁nyamirambo":3609,"▁tuzi":3610,"▁urubanza":3611,"mariya":3612,"▁ngufu":3613,"▁city":3614,"▁agenda":3615,"▁bacuruzi":3616,"terere":3617,"▁bito":3618,"▁n’indi":3619,"▁lisansi":3620,"▁amasomo":3621,"chard":3622,"tegereje":3623,"▁iso":3624,"▁ibidukikije":3625,"nezero":3626,"▁aca":3627,"▁impungenge":3628,"▁ge":3629,"mungu":3630,"yobwa":3631,"▁yavuye":3632,"▁gushyiraho":3633,"kurikiranwa":3634,"▁safari":3635,"▁ngaruka":3636,"▁kuwu":3637,"▁gufatanya":3638,"▁yemeje":3639,"▁kuzana":3640,"ber":3641,"▁kami":3642,"▁bwinshi":3643,"gaga":3644,"▁ane":3645,"sobanukirwa":3646,"cyari":3647,"▁myanya":3648,"segonda":3649,"▁rira":3650,"▁chief":3651,"don":3652,"▁on":3653,"gateganyo":3654,"diyo":3655,"migambi":3656,"▁n’iyi":3657,"▁tuga":3658,"banutse":3659,"mamaza":3660,"▁kigalitoday":3661,"▁n’abanyamakuru":3662,"rwara":3663,"▁y’ubucuruzi":3664,"chester":3665,"▁byeme":3666,"▁yatangarije":3667,"tike":3668,"sabi":3669,"▁mategeko":3670,"▁televi":3671,"▁z’umutekano":3672,"▁close":3673,"▁ishyaka":3674,"▁bakeneye":3675,"▁ubumuga":3676,"us":3677,"▁bago":3678,"▁bumwe":3679,"shingizi":3680,"shuli":3681,"▁ve":3682,"▁ayo":3683,"▁uki":3684,"ture":3685,"▁guma":3686,"▁ngororero":3687,"▁patrick":3688,"yisi":3689,"▁guhinga":3690,"▁kwitwara":3691,"use":3692,"▁ubufasha":3693,"zoga":3694,"▁richard":3695,"▁n’ubundi":3696,"tabara":3697,"▁dar":3698,"▁arenga":3699,"▁mupaka":3700,"▁azajya":3701,"tangiriro":3702,"girizo":3703,"koranye":3704,"ziyo":3705,"▁inzi":3706,"▁nazo":3707,"▁yigeze":3708,"▁nyabihu":3709,"▁batangira":3710,"▁hato":3711,"▁mirenge":3712,"▁hoteli":3713,"▁nshuti":3714,"▁bigaragaza":3715,"dolari":3716,"▁n’inshuti":3717,"▁dieu":3718,"garurira":3719,"▁nderabuzima":3720,"gne":3721,"bashije":3722,"▁kuki":3723,"▁n’amanota":3724,"rimi":3725,"▁uyi":3726,"▁impinduka":3727,"▁wabi":3728,"▁sebu":3729,"▁ikaza":3730,"▁kuno":3731,"▁kida":3732,"▁ex":3733,"▁paruwa":3734,"hurira":3735,"beho":3736,"kingirizo":3737,"▁ac":3738,"▁basaga":3739,"▁remezo":3740,"▁kumenye":3741,"▁burasirazuba":3742,"▁urubuga":3743,"▁b’ibihugu":3744,"▁gushakisha":3745,"▁abanza":3746,"▁n’abagore":3747,"shakaga":3748,"▁komini":3749,"▁bimaze":3750,"▁abaza":3751,"▁akaya":3752,"▁rwari":3753,"▁arsenal":3754,"▁hazaba":3755,"▁igizwe":3756,"yweho":3757,"rukira":3758,"ille":3759,"▁ubushinjacyaha":3760,"gn":3761,"▁basabwa":3762,"simbi":3763,"mon":3764,"kingo":3765,"▁oms":3766,"▁nk’iki":3767,"▁interna":3768,"▁ltd":3769,"▁ubwenge":3770,"▁abagera":3771,"▁abarwayi":3772,"▁karongi":3773,"kwigendera":3774,"riweho":3775,"▁atangira":3776,"▁rdc":3777,"weho":3778,"▁yasoho":3779,"▁abarokotse":3780,"▁wamu":3781,"▁ate":3782,"▁d’":3783,"▁nteko":3784,"▁kuzu":3785,"▁abaganga":3786,"▁y’abantu":3787,"yoborere":3788,"hangayi":3789,"▁n’umugabo":3790,"▁manchester":3791,"▁qu":3792,"▁asa":3793,"▁bitangazwa":3794,"▁murongo":3795,"▁umusanzu":3796,"▁mama":3797,"▁twabi":3798,"▁ibuka":3799,"▁inganda":3800,"▁kubafasha":3801,"▁hifashishijwe":3802,"▁yabitangaje":3803,"▁kugaruka":3804,"▁yibu":3805,"koko":3806,"▁yagombaga":3807,"tien":3808,"ranywa":3809,"rengeje":3810,"ration":3811,"▁azwi":3812,"▁undi":3813,"refe":3814,"rengane":3815,"▁paruwasi":3816,"▁basanga":3817,"▁amaraso":3818,"▁imyumvire":3819,"▁n’abayobozi":3820,"tangijwe":3821,"▁mubiri":3822,"▁bafata":3823,"hoteli":3824,"▁gitabo":3825,"kenera":3826,"es":3827,"vugo":3828,"gwaga":3829,"▁kwerekana":3830,"funzwe":3831,"zihiza":3832,"garariye":3833,"▁niho":3834,"▁w’ikipe":3835,"▁nyakwigendera":3836,"byaye":3837,"▁wenda":3838,"▁izajya":3839,"ason":3840,"▁bimeze":3841,"▁gufungwa":3842,"▁icyu":3843,"▁nyiri":3844,"▁iby’i":3845,"▁kimi":3846,"gerageje":3847,"gg":3848,"ward":3849,"▁kwigisha":3850,"▁agi":3851,"▁nyine":3852,"nis":3853,"ranwa":3854,"▁yuko":3855,"▁ani":3856,"gaze":3857,"▁umurimo":3858,"▁edi":3859,"tsibo":3860,"tiriwe":3861,"▁nanone":3862,"genamigambi":3863,"daga":3864,"▁aribyo":3865,"▁tugiye":3866,"▁yitabiriye":3867,"generwa":3868,"meye":3869,"▁umuririmbyi":3870,"▁w’ibi":3871,"kurikiza":3872,"▁caf":3873,"▁wumva":3874,"▁uwitwa":3875,"garagazwa":3876,"▁habaru":3877,"wonko":3878,"▁wose":3879,"▁yve":3880,"▁volleyball":3881,"▁ukunda":3882,"▁wee":3883,"kuramo":3884,"▁ikamba":3885,"▁z’amerika":3886,"▁bakoresheje":3887,"gendan":3888,"▁isanzwe":3889,"wemo":3890,"tariki":3891,"shyiki":3892,"▁tru":3893,"▁rwabo":3894,"▁nyarugenge":3895,"y’i":3896,"▁amashanyarazi":3897,"▁gatsibo":3898,"▁promo":3899,"cto":3900,"date":3901,"▁guhuza":3902,"▁imideli":3903,"▁loni":3904,"inya":3905,"▁bishwe":3906,"humu":3907,"▁yica":3908,"▁guhagara":3909,"▁ikomeje":3910,"▁akamu":3911,"▁by’ibi":3912,"▁umurambo":3913,"▁international":3914,"▁q":3915,"▁ntaho":3916,"▁pari":3917,"▁bakorana":3918,"kwirakwira":3919,"koperative":3920,"▁pre":3921,"cibwa":3922,"▁sina":3923,"▁impanuka":3924,"sengera":3925,"bs":3926,"▁avuye":3927,"▁bisa":3928,"▁byakozwe":3929,"▁ndege":3930,"nc":3931,"tinda":3932,"raribonye":3933,"▁aman":3934,"ham":3935,"vuzwe":3936,"▁buga":3937,"▁abakora":3938,"hangano":3939,"▁stu":3940,"▁kumurika":3941,"▁app":3942,"haza":3943,"▁mukerarugendo":3944,"korezi":3945,"mwami":3946,"banki":3947,"huta":3948,"▁turimo":3949,"tine":3950,"cyunamo":3951,"▁isano":3952,"suzuma":3953,"▁rikaba":3954,"▁know":3955,"▁bashya":3956,"ganijwe":3957,"▁ispg":3958,"▁gusin":3959,"▁ubuhanga":3960,"ney":3961,"▁taliki":3962,"▁babaga":3963,"▁ivan":3964,"▁bahita":3965,"▁y’isi":3966,"▁n’amateka":3967,"▁hegi":3968,"hindutse":3969,"▁n’uyu":3970,"fumbi":3971,"▁bw’a":3972,"▁hagamijwe":3973,"▁ivu":3974,"▁ure":3975,"▁n’abanya":3976,"▁boy":3977,"▁abivuga":3978,"▁kuririmba":3979,"▁min":3980,"wibutso":3981,"▁ubukerarugendo":3982,"▁nacyo":3983,"manaho":3984,"▁asobanura":3985,"▁yapfuye":3986,"▁ingingo":3987,"ranyo":3988,"sumba":3989,"▁gukangurira":3990,"▁babashe":3991,"gendeye":3992,"tete":3993,"▁yate":3994,"vugabutumwa":3995,"nali":3996,"▁biterwa":3997,"mvise":3998,"ateur":3999,"▁ishyamba":4000,"▁aganira":4001,"gaba":4002,"bajije":4003,"▁kugurisha":4004,"▁bubi":4005,"yemezamirimo":4006,"▁charles":4007,"▁mbu":4008,"▁buholandi":4009,"▁ubushake":4010,"cungire":4011,"▁munani":4012,"▁madamu":4013,"mutima":4014,"▁gutyo":4015,"hesha":4016,"▁kiciro":4017,"▁rugamba":4018,"▁kub":4019,"▁gufungura":4020,"▁banya":4021,"mbuka":4022,"▁yabaga":4023,"gurirwa":4024,"id":4025,"line":4026,"▁imibiri":4027,"lles":4028,"ise":4029,"▁cent":4030,"gogo":4031,"▁umurwayi":4032,"▁n’amakipe":4033,"▁w’ikigo":4034,"▁kunoza":4035,"pima":4036,"kono":4037,"▁waje":4038,"▁berekeza":4039,"▁cap":4040,"▁byana":4041,"▁hare":4042,"▁mari":4043,"▁kwegukana":4044,"▁noel":4045,"piteni":4046,"▁gitoli":4047,"▁televiziyo":4048,"yeshyamba":4049,"monyi":4050,"▁n’imwe":4051,"▁bakundana":4052,"▁yakozwe":4053,"kiliya":4054,"▁imurika":4055,"▁nsengiyumva":4056,"▁nyungu":4057,"▁muco":4058,"▁gutangaza":4059,"▁kwiyongera":4060,"kundwa":4061,"▁byagenze":4062,"sesengu":4063,"▁ingenzi":4064,"▁rubanda":4065,"▁yesu":4066,"▁wana":4067,"▁nini":4068,"▁bikoresho":4069,"shanga":4070,"tta":4071,"▁bina":4072,"▁kuboneka":4073,"▁gushyigikira":4074,"shakira":4075,"funze":4076,"mbitse":4077,"▁by’imi":4078,"burengerazuba":4079,"▁byagaragaye":4080,"kereza":4081,"▁ibyishimo":4082,"yambaro":4083,"▁uri":4084,"tesi":4085,"gobo":4086,"▁ziga":4087,"▁imihanda":4088,"rinde":4089,"tungan":4090,"▁nsan":4091,"▁bigamije":4092,"▁zisaga":4093,"▁b’abanyarwanda":4094,"hagarara":4095,"▁guto":4096,"siri":4097,"▁abatishoboye":4098,"yongereza":4099,"▁corne":4100,"▁kwagura":4101,"▁w’uru":4102,"teguro":4103,"▁umuhanda":4104,"less":4105,"▁niyonzima":4106,"cukuzi":4107,"▁award":4108,"▁bigera":4109,"▁yerekana":4110,"▁heza":4111,"▁ubanza":4112,"tabire":4113,"yange":4114,"kurikiye":4115,"mwiza":4116,"soma":4117,"▁rwandair":4118,"gururwa":4119,"▁viateur":4120,"▁w’umun":4121,"koranire":4122,"▁bukaba":4123,"▁ntawe":4124,"gerera":4125,"bangamira":4126,"▁kamichi":4127,"gal":4128,"▁yanyu":4129,"ari":4130,"▁ii":4131,"▁bavu":4132,"taye":4133,"▁yaseze":4134,"▁chu":4135,"▁inzara":4136,"shini":4137,"▁y’iminsi":4138,"▁abatuye":4139,"▁bwicanyi":4140,"▁w’ubuzima":4141,"garura":4142,"▁ubwanditsi":4143,"▁iteka":4144,"▁bibili":4145,"▁kapiteni":4146,"▁masoko":4147,"twaza":4148,"dorali":4149,"renza":4150,"▁urupfu":4151,"cia":4152,"▁icyenda":4153,"▁n’abahanzi":4154,"▁grace":4155,"rc":4156,"▁bagaragaje":4157,"bukuru":4158,"▁polly":4159,"▁utari":4160,"▁champi":4161,"▁ahe":4162,"▁nyubako":4163,"▁babyi":4164,"▁jan":4165,"▁paris":4166,"▁habaho":4167,"▁editor":4168,"▁ikoreshwa":4169,"▁kirere":4170,"giraho":4171,"neza":4172,"jima":4173,"▁norbert":4174,"xi":4175,"▁pasiteri":4176,"twite":4177,"eb":4178,"▁afata":4179,"tunga":4180,"▁yakwi":4181,"▁yaguye":4182,"▁intsinzi":4183,"▁ibiza":4184,"▁nyafurika":4185,"▁kuzamuka":4186,"▁mbese":4187,"ct":4188,"▁kubyi":4189,"teke":4190,"dia":4191,"▁kabo":4192,"▁egi":4193,"▁berna":4194,"mugabo":4195,"▁basanze":4196,"zambi":4197,"▁yatumye":4198,"huse":4199,"▁abapolisi":4200,"den":4201,"ranyijwe":4202,"▁cyacu":4203,"fatika":4204,"▁nk’aho":4205,"▁gusubiza":4206,"ganza":4207,"▁imyan":4208,"▁intambara":4209,"tya":4210,"▁fun":4211,"▁ad":4212,"▁zigera":4213,"▁sena":4214,"▁agamije":4215,"▁binyuranye":4216,"▁uwimana":4217,"basiye":4218,"▁igitero":4219,"’’’":4220,"▁ry’umupira":4221,"▁amajwi":4222,"▁zirenga":4223,"▁lou":4224,"▁ethiopia":4225,"od":4226,"hame":4227,"▁pu":4228,"bwire":4229,"genzacyaha":4230,"▁yabu":4231,"▁mukinnyi":4232,"▁sc":4233,"▁vin":4234,"▁icyiciro":4235,"▁kwandika":4236,"▁bafashe":4237,"▁bitaramo":4238,"hanu":4239,"▁ubutabera":4240,"manza":4241,"▁victo":4242,"▁kinyarwanda":4243,"shyigikiye":4244,"▁akwiye":4245,"rikana":4246,"gaho":4247,"▁y’aka":4248,"▁matora":4249,"▁interahamwe":4250,"▁men":4251,"▁w’igi":4252,"▁col":4253,"genzuzi":4254,"kize":4255,"vuduko":4256,"▁twara":4257,"▁radiyo":4258,"pfuka":4259,"▁bizatuma":4260,"▁tanzaniya":4261,"▁egide":4262,"▁ishinzwe":4263,"▁atangaza":4264,"gerwaho":4265,"▁rider":4266,"▁farg":4267,"▁ibyago":4268,"▁n’ubworozi":4269,"gengabitekerezo":4270,"▁tuta":4271,"▁bosco":4272,"▁kinyamakuru":4273,"▁ifoto":4274,"▁ag":4275,"▁ala":4276,"rerwa":4277,"hirwa":4278,"▁zindi":4279,"▁kohereza":4280,"▁konti":4281,"▁atuye":4282,"gatifu":4283,"▁una":4284,"tele":4285,"▁yatu":4286,"▁rumaze":4287,"zurugero":4288,"▁kose":4289,"▁niyizurugero":4290,"▁abaha":4291,"▁saint":4292,"▁n’ibigo":4293,"▁rwiyemezamirimo":4294,"▁group":4295,"un":4296,"▁kumwi":4297,"▁yatwaye":4298,"▁ruku":4299,"▁byagiye":4300,"yamatsiko":4301,"▁icye":4302,"▁avu":4303,"yiriza":4304,"kurikiranyweho":4305,"▁mwuga":4306,"hutu":4307,"gezaho":4308,"▁cy’igi":4309,"▁yindi":4310,"▁imbogamizi":4311,"▁basore":4312,"bandi":4313,"hizamu":4314,"▁akajya":4315,"▁n’ibibazo":4316,"▁mozambi":4317,"kwirakwiza":4318,"▁itara":4319,"▁ishyirwa":4320,"▁ishoramari":4321,"▁usa":4322,"▁basabye":4323,"▁kubya":4324,"ziba":4325,"▁kijyambere":4326,"▁ibira":4327,"ngwe":4328,"mamaye":4329,"▁umwihariko":4330,"▁ntangiriro":4331,"▁yaza":4332,"▁yambaye":4333,"▁yadutangarije":4334,"▁acade":4335,"▁bire":4336,"▁bikwiye":4337,"▁muturage":4338,"▁guhungabanya":4339,"shingiro":4340,"▁rishinzwe":4341,"cyayi":4342,"biziga":4343,"▁bakomeza":4344,"▁bigira":4345,"▁kayumba":4346,"▁fpr":4347,"▁w’umukobwa":4348,"▁nyamagabe":4349,"▁nimu":4350,"▁telephone":4351,"▁uwimani":4352,"sanganyamatsiko":4353,"▁cumi":4354,"▁isura":4355,"▁bihagije":4356,"funguye":4357,"tunguye":4358,"▁basaba":4359,"mia":4360,"▁kanseri":4361,"▁igihombo":4362,"▁enye":4363,"▁ikibasumba":4364,"▁akoresheje":4365,"▁kugenzura":4366,"▁mbo":4367,"kangu":4368,"▁bwakozwe":4369,"▁iwacu":4370,"▁n’imyi":4371,"▁parike":4372,"▁ubwanditsimuhaburarw":4373,"▁gusanga":4374,"▁gusubira":4375,"▁mirongo":4376,"▁boko":4377,"▁kubikora":4378,"ririmbye":4379,"▁yavugaga":4380,"▁gukoreshwa":4381,"hanganira":4382,"dufasha":4383,"▁fan":4384,"menyerewe":4385,"▁mozambique":4386,"▁izo":4387,"▁kuzaba":4388,"▁kubyara":4389,"▁yafashwe":4390,"▁cg":4391,"▁el":4392,"▁zara":4393,"tunzi":4394,"▁corneille":4395,"▁uwimanimpaye":4396,"▁abahanga":4397,"▁akavuga":4398,"hariwe":4399,"▁y’agaciro":4400,"hisemo":4401,"mereye":4402,"ranije":4403,"sto":4404,"▁ijwi":4405,"▁utara":4406,"▁bakozi":4407,"▁rutahizamu":4408,"▁fu":4409,"▁igomba":4410,"gombye":4411,"len":4412,"rekeje":4413,"▁wundi":4414,"hwe":4415,"▁yasubi":4416,"▁franco":4417,"▁kwandura":4418,"rukiramuco":4419,"yabiziga":4420,"▁bihumbi":4421,"▁phi":4422,"giraga":4423,"▁kwizera":4424,"▁fashi":4425,"ssan":4426,"▁ishema":4427,"▁kwitegura":4428,"hinde":4429,"▁izuba":4430,"▁bike":4431,"▁akagari":4432,"tangire":4433,"myu":4434,"▁bahuye":4435,"runga":4436,"fungi":4437,"lamu":4438,"fungiye":4439,"▁bahuriye":4440,"ff":4441,"▁cyabereye":4442,"ganisha":4443,"▁yerekeza":4444,"▁ryita":4445,"▁knowless":4446,"▁bibiliya":4447,"▁bimenyetso":4448,"hishe":4449,"kurura":4450,"▁angana":4451,"▁uwamariya":4452,"▁car":4453,"▁bw’ibi":4454,"▁niyonshuti":4455,"au":4456,"mpu":4457,"▁kurangiza":4458,"▁rwaka":4459,"▁gatu":4460,"▁izabera":4461,"▁gutekereza":4462,"▁fashion":4463,"butsa":4464,"▁wabereye":4465,"▁n’abakinnyi":4466,"▁gusoza":4467,"mve":4468,"▁aherutse":4469,"kode":4470,"▁babanje":4471,"kinwa":4472,"lometero":4473,"▁ibaruwa":4474,"two":4475,"▁akorera":4476,"gezi":4477,"▁amabuye":4478,"fuzo":4479,"gereje":4480,"rekezi":4481,"▁metero":4482,"tt":4483,"uyu":4484,"▁kamonyi":4485,"▁jacques":4486,"▁vincent":4487,"▁bava":4488,"▁babana":4489,"hahi":4490,"gange":4491,"▁magana":4492,"suku":4493,"inema":4494,"▁albert":4495,"▁ujya":4496,"▁bamwi":4497,"hamaga":4498,"▁nicyo":4499,"viramo":4500,"cel":4501,"▁bikaza":4502,"▁ima":4503,"▁muziki":4504,"▁gite":4505,"▁maca":4506,"▁ntago":4507,"bibi":4508,"hakana":4509,"▁kito":4510,"▁karu":4511,"▁ry’umuryango":4512,"binyujije":4513,"myo":4514,"bikora":4515,"▁yakatiwe":4516,"▁ntaki":4517,"▁z’amadolari":4518,"and":4519,"▁asaga":4520,"▁bibaye":4521,"hizi":4522,"▁sou":4523,"▁ndo":4524,"▁inteko":4525,"soje":4526,"▁mishinga":4527,"▁tukaba":4528,"▁ibyemezo":4529,"▁k’umu":4530,"▁asi":4531,"▁yafatiwe":4532,"▁mp":4533,"▁n’e":4534,"zobere":4535,"▁n’aga":4536,"▁z’ibanze":4537,"▁glo":4538,"▁habarurema":4539,"▁kindi":4540,"▁bukomeye":4541,"▁y’igihe":4542,"▁bru":4543,"huka":4544,"▁yahaye":4545,"▁budage":4546,"▁bokota":4547,"pri":4548,"▁nge":4549,"▁ntego":4550,"▁bishoboka":4551,"meje":4552,"▁amakimbirane":4553,"▁perefe":4554,"▁bakamu":4555,"▁ibiribwa":4556,"▁rona":4557,"▁nyaka":4558,"▁ndanga":4559,"▁bibu":4560,"saza":4561,"▁ubwiza":4562,"▁byaje":4563,"▁fla":4564,"tunguranye":4565,"▁bawu":4566,"▁bizi":4567,"▁miche":4568,"caro":4569,"▁kwemera":4570,"▁ingoma":4571,"than":4572,"kubiri":4573,"▁flo":4574,"▁banjye":4575,"tangiriye":4576,"comyiza":4577,"▁airtel":4578,"▁boyz":4579,"jon":4580,"▁bamenye":4581,"▁yare":4582,"raneza":4583,"▁micomyiza":4584,"▁naeb":4585,"peri":4586,"yakazi":4587,"▁reka":4588,"▁yemera":4589,"▁urwibutso":4590,"▁zimaze":4591,"▁banga":4592,"funguro":4593,"land":4594,"▁bernard":4595,"▁ami":4596,"▁yatewe":4597,"▁rnc":4598,"kuze":4599,"tange":4600,"▁kimaze":4601,"▁afrika":4602,"rizwamo":4603,"fumbire":4604,"▁beza":4605,"▁byayo":4606,"▁gusohora":4607,"mine":4608,"▁ikubi":4609,"▁gutoza":4610,"▁ibitero":4611,"▁benin":4612,"▁week":4613,"▁riderman":4614,"gaye":4615,"kishwa":4616,"▁majyaruguru":4617,"hutisha":4618,"▁ise":4619,"damia":4620,"▁bitanga":4621,"gola":4622,"herejwe":4623,"fatira":4624,"▁franci":4625,"▁danny":4626,"▁macadamia":4627,"tho":4628,"▁ngamba":4629,"▁yateguwe":4630,"enge":4631,"▁n’umuntu":4632,"myenda":4633,"▁njyewe":4634,"▁rugagi":4635,"▁bivuga":4636,"▁gutsindwa":4637,"▁n’ingaruka":4638,"▁icyakora":4639,"▁isukari":4640,"kaga":4641,"▁kubo":4642,"cien":4643,"▁cyabaye":4644,"kurikirwa":4645,"▁van":4646,"▁gufatwa":4647,"▁kano":4648,"▁mibereho":4649,"▁naho":4650,"▁numero":4651,"kongera":4652,"▁yibukije":4653,"▁one":4654,"bal":4655,"tambara":4656,"▁gushora":4657,"▁erne":4658,"kurikiyeho":4659,"rekeye":4660,"▁yinjiye":4661,"▁studio":4662,"myumbati":4663,"▁bro":4664,"▁nin":4665,"▁ibitaro":4666,"▁y’iyi":4667,"▁tw’":4668,"▁young":4669,"hahirane":4670,"kawa":4671,"▁rukora":4672,"▁madri":4673,"▁aricyo":4674,"▁bwagaragaje":4675,"▁hantu":4676,"▁gusoma":4677,"▁trump":4678,"▁ayobora":4679,"▁ngi":4680,"kuza":4681,"▁gitsina":4682,"cument":4683,"▁rikomeye":4684,"bonamo":4685,"▁kuvugurura":4686,"▁ukundi":4687,"▁academy":4688,"’s":4689,"▁uvuga":4690,"rena":4691,"▁bigi":4692,"▁bitwa":4693,"▁yatsinzwe":4694,"▁n’ibihugu":4695,"jumba":4696,"raniye":4697,"▁tigo":4698,"▁z’umugoroba":4699,"▁T":4700,"▁bise":4701,"▁haje":4702,"▁eco":4703,"▁nyaba":4704,"▁cy’isi":4705,"▁team":4706,"▁yezu":4707,"▁z’ijoro":4708,"▁ngendo":4709,"gisho":4710,"yita":4711,"▁biyemeje":4712,"sabwe":4713,"▁ntaba":4714,"▁bw’iki":4715,"▁yabivuze":4716,"dani":4717,"▁nkunga":4718,"▁cyumba":4719,"▁kwiteza":4720,"▁kwamamaza":4721,"▁ubwoko":4722,"▁kuguma":4723,"▁ifasha":4724,"vunyi":4725,"▁ibisabwa":4726,"▁matsinda":4727,"kanda":4728,"sangira":4729,"▁anto":4730,"zenguruka":4731,"▁madrid":4732,"ft":4733,"▁umuganda":4734,"wandu":4735,"▁amata":4736,"hangange":4737,"gwabira":4738,"▁ibyumweru":4739,"cururiza":4740,"▁cy’imi":4741,"▁kwinjiza":4742,"▁S":4743,"▁nte":4744,"▁umukono":4745,"▁misiri":4746,"▁imigabane":4747,"mbiye":4748,"▁abaturanyi":4749,"▁izwi":4750,"▁filimi":4751,"▁akanama":4752,"▁ihuriro":4753,"▁aje":4754,"teze":4755,"▁kibuye":4756,"▁maboko":4757,"▁imbuga":4758,"▁yihariye":4759,"▁ntagwabira":4760,"terahamwe":4761,"▁kompanyi":4762,"▁yabashije":4763,"▁tombo":4764,"dagadu":4765,"mbera":4766,"guwe":4767,"▁kurengera":4768,"meri":4769,"hungiye":4770,"▁kabu":4771,"▁wor":4772,"tube":4773,"▁zivuga":4774,"▁wasanga":4775,"▁n’umuco":4776,"▁n’ibihumbi":4777,"▁guterwa":4778,"▁by’ukuri":4779,"▁ashinjwa":4780,"▁des":4781,"▁kigalitodaycom":4782,"▁bahe":4783,"ditse":4784,"bwoba":4785,"▁today":4786,"▁by’ingendo":4787,"▁bagosora":4788,"komo":4789,"turere":4790,"kusan":4791,"▁abakoze":4792,"lie":4793,"▁rusengero":4794,"▁kato":4795,"▁yiteguye":4796,"yanditswe":4797,"munsi":4798,"▁ig":4799,"▁n’andi":4800,"▁banduye":4801,"▁dro":4802,"▁angola":4803,"▁nk’ama":4804,"▁algeria":4805,"▁jack":4806,"▁yavutse":4807,"rima":4808,"▁yasin":4809,"▁n’igihugu":4810,"▁n’abi":4811,"▁tubona":4812,"▁zaba":4813,"▁bashakanye":4814,"▁yagarutse":4815,"▁musi":4816,"▁gishobora":4817,"fuka":4818,"camanza":4819,"▁anne":4820,"▁idasanzwe":4821,"▁eac":4822,"▁pascal":4823,"cle":4824,"▁ukorera":4825,"▁kuti":4826,"sea":4827,"▁intoki":4828,"▁gasana":4829,"▁kubahiriza":4830,"▁z’igihugu":4831,"▁gisagara":4832,"▁inyamaswa":4833,"▁francois":4834,"▁igenda":4835,"▁yato":4836,"▁inyi":4837,"▁igisubizo":4838,"▁tw’i":4839,"▁bigenda":4840,"▁maro":4841,"fur":4842,"mbia":4843,"cakubiri":4844,"▁n’amasegonda":4845,"▁fau":4846,"ppy":4847,"▁servi":4848,"humuriza":4849,"▁cup":4850,"▁gukinira":4851,"▁abatoza":4852,"▁y’akarere":4853,"▁kirimo":4854,"▁igifungo":4855,"burayi":4856,"▁don":4857,"▁ingagi":4858,"▁messi":4859,"hindagu":4860,"▁alexis":4861,"▁soko":4862,"▁zuba":4863,"gayi":4864,"▁bushobora":4865,"hereje":4866,"toni":4867,"hagarika":4868,"▁gutaha":4869,"▁antoine":4870,"imba":4871,"▁ibishoboka":4872,"▁poro":4873,"▁fou":4874,"tr":4875,"▁kur":4876,"▁can":4877,"cunga":4878,"▁byaga":4879,"jugu":4880,"minota":4881,"▁bigoye":4882,"▁ibanga":4883,"▁ugira":4884,"wabo":4885,"▁yashyizwe":4886,"▁ruka":4887,"▁ikizere":4888,"▁imipaka":4889,"▁n’ingabo":4890,"▁n’ikibazo":4891,"▁H":4892,"▁bra":4893,"▁ake":4894,"▁atanu":4895,"▁bishimiye":4896,"▁kagali":4897,"▁ubujura":4898,"tware":4899,"▁munye":4900,"aniwe":4901,"▁mwashakanye":4902,"harara":4903,"▁millions":4904,"▁ngiye":4905,"▁mucyo":4906,"▁guhora":4907,"ces":4908,"▁ry’igihugu":4909,"ldo":4910,"banire":4911,"▁habayeho":4912,"kweto":4913,"▁badafite":4914,"byiniro":4915,"▁nyabugogo":4916,"▁fund":4917,"yire":4918,"▁yabanje":4919,"▁mupira":4920,"▁mau":4921,"fubyi":4922,"▁nico":4923,"cide":4924,"▁torero":4925,"▁karisimbi":4926,"▁francis":4927,"fashijwe":4928,"sohotse":4929,"▁prof":4930,"▁ryitwa":4931,"▁gucunga":4932,"▁awards":4933,"himana":4934,"▁y’ubwi":4935,"▁ntambara":4936,"tegerejwe":4937,"mina":4938,"sine":4939,"▁gutunganya":4940,"▁iman":4941,"shejwe":4942,"tophe":4943,"lm":4944,"▁ahora":4945,"▁bifasha":4946,"▁buke":4947,"▁kige":4948,"subu":4949,"mbika":4950,"▁n’abakozi":4951,"kwaya":4952,"▁nk’amanyarwanda":4953,"rara":4954,"tabirwa":4955,"▁zizaba":4956,"▁z’ibi":4957,"▁imyitwarire":4958,"▁amavuta":4959,"▁nyungwe":4960,"ua":4961,"▁kum":4962,"▁mwan":4963,"▁kubaha":4964,"vic":4965,"▁ririmo":4966,"garagariza":4967,"▁virus":4968,"▁cy’uko":4969,"▁mpande":4970,"hangayiki":4971,"wn":4972,"▁bla":4973,"▁nubu":4974,"▁bigomba":4975,"▁gushishikariza":4976,"▁buyobozi":4977,"▁intumwa":4978,"rankunga":4979,"▁n’abakobwa":4980,"port":4981,"shyizeho":4982,"▁syli":4983,"▁global":4984,"soni":4985,"burira":4986,"▁bizwi":4987,"▁buvuzi":4988,"zwaga":4989,"▁ry’umukino":4990,"nan":4991,"▁nyandiko":4992,"▁bam":4993,"▁baho":4994,"▁basigaye":4995,"▁musozi":4996,"▁mashya":4997,"▁y’itariki":4998,"▁korali":4999,"▁kwerekeza":5000,"▁yabisobanuye":5001,"▁kabaya":5002,"▁rw’abikorera":5003,"▁akayabo":5004,"et":5005,"▁nganda":5006,"sifu":5007,"▁ingengo":5008,"▁y’indirimbo":5009,"henge":5010,"▁urumogi":5011,"guriwe":5012,"▁kizito":5013,"spe":5014,"▁C":5015,"▁iterwa":5016,"mali":5017,"▁babone":5018,"bora":5019,"▁mutu":5020,"▁umupaka":5021,"▁imyambaro":5022,"kingi":5023,"komera":5024,"▁yizeye":5025,"ndation":5026,"tandukan":5027,"▁part":5028,"nimana":5029,"jora":5030,"▁musaza":5031,"girika":5032,"▁real":5033,"▁h’’’":5034,"▁shyaka":5035,"▁ukwiye":5036,"rebe":5037,"▁kuku":5038,"▁guhita":5039,"▁bugufi":5040,"hisha":5041,"▁zibi":5042,"▁minis":5043,"▁y’uburengerazuba":5044,"▁w’umunya":5045,"gwiro":5046,"▁bafana":5047,"tegereza":5048,"sigara":5049,"▁rukaba":5050,"▁tv":5051,"▁n’inganda":5052,"goboka":5053,"▁foundation":5054,"▁G":5055,"▁uriya":5056,"▁kugwa":5057,"haranira":5058,"▁amagare":5059,"▁ikiri":5060,"mbira":5061,"▁barasabwa":5062,"▁iy’":5063,"▁bishya":5064,"▁kabe":5065,"tangazo":5066,"▁cyaha":5067,"▁n’umukobwa":5068,"▁nyir":5069,"tegurwa":5070,"rwano":5071,"▁east":5072,"▁barcel":5073,"▁guhagarara":5074,"▁yahe":5075,"▁muyoboke":5076,"▁umugambi":5077,"▁yishwe":5078,"pool":5079,"▁munyakazi":5080,"▁yakoresheje":5081,"▁yitabye":5082,"shyikiriza":5083,"▁iherereye":5084,"▁yakiriye":5085,"▁gusohoka":5086,"hando":5087,"▁rundi":5088,"▁ibisubizo":5089,"▁mayange":5090,"▁sna":5091,"▁cyara":5092,"▁w’imari":5093,"▁fami":5094,"▁bine":5095,"▁kubwira":5096,"▁umuhoza":5097,"▁n’iterambere":5098,"▁ikimenyetso":5099,"gizemo":5100,"▁mashusho":5101,"▁kwiyubaka":5102,"▁bw’ubu":5103,"▁sal":5104,"▁kuvura":5105,"▁musenyeri":5106,"▁sinzi":5107,"▁nyamukuru":5108,"dagaduro":5109,"▁guho":5110,"▁guteka":5111,"▁byatangiye":5112,"▁dukora":5113,"tandaro":5114,"▁super":5115,"▁inkomoko":5116,"ght":5117,"rn":5118,"guruka":5119,"▁mpi":5120,"▁mafoto":5121,"▁mihigo":5122,"▁ty":5123,"▁bitarenze":5124,"▁w’afurika":5125,"▁ferwaba":5126,"chael":5127,"▁sylidio":5128,"▁mumu":5129,"▁n’um":5130,"▁kwitaba":5131,"▁kwicwa":5132,"tsiro":5133,"▁biteguye":5134,"▁iriho":5135,"kubahwa":5136,"▁amb":5137,"hagaritse":5138,"▁id":5139,"▁ah":5140,"ruba":5141,"▁mukundana":5142,"▁kab":5143,"▁zijyanye":5144,"garamu":5145,"cuti":5146,"▁guharanira":5147,"▁mode":5148,"▁y’umukino":5149,"▁yemeye":5150,"verpool":5151,"▁djama":5152,"▁maroc":5153,"by":5154,"sivi":5155,"▁inge":5156,"▁byabereye":5157,"▁ikigega":5158,"▁tha":5159,"▁b’ibi":5160,"▁urban":5161,"hohoterwa":5162,"tienne":5163,"▁gushyin":5164,"▁gukorerwa":5165,"▁skol":5166,"▁n’abari":5167,"▁ahamya":5168,"▁damas":5169,"▁bk":5170,"▁bakomoka":5171,"▁gusiga":5172,"▁inyandiko":5173,"▁habonetse":5174,"▁n’iya":5175,"▁imitwe":5176,"▁petero":5177,"onel":5178,"▁kwitabwaho":5179,"▁sebuharara":5180,"ws":5181,"▁nzaba":5182,"▁urimo":5183,"▁basirikare":5184,"▁bafashwe":5185,"▁igitsina":5186,"▁b’umu":5187,"▁darfur":5188,"df":5189,"▁ihungabana":5190,"ranzwe":5191,"shidi":5192,"▁ururimi":5193,"▁ry’a":5194,"▁n’indwara":5195,"mbanyi":5196,"bindi":5197,"byumva":5198,"rita":5199,"▁mubyeyi":5200,"saka":5201,"▁imitungo":5202,"▁umwanditsi":5203,"shoboraga":5204,"▁leona":5205,"▁beyon":5206,"▁isiganwa":5207,"▁ghana":5208,"▁ry’imi":5209,"ling":5210,"▁akoresha":5211,"▁adri":5212,"ritse":5213,"▁ngenda":5214,"▁guhinduka":5215,"die":5216,"▁butegetsi":5217,"▁gitero":5218,"▁yishimiye":5219,"nguka":5220,"▁kutagira":5221,"pon":5222,"▁hana":5223,"▁barangije":5224,"▁mukaba":5225,"siane":5226,"shakisha":5227,"▁abahungu":5228,"▁abahawe":5229,"▁ubuhahirane":5230,"mbaro":5231,"▁akabi":5232,"cial":5233,"shyiramo":5234,"▁n’ubuzima":5235,"rinzi":5236,"▁bidasanzwe":5237,"komereza":5238,"munwa":5239,"mbana":5240,"▁guhitamo":5241,"▁buntu":5242,"shasa":5243,"▁uburezi":5244,"▁yiyemeje":5245,"▁twaba":5246,"▁rwaga":5247,"pfobya":5248,"▁cy’indege":5249,"▁sitasiyo":5250,"▁mon":5251,"▁rutsiro":5252,"▁pho":5253,"▁ji":5254,"▁dutandukanye":5255,"▁sene":5256,"▁ahagana":5257,"▁z’ukwezi":5258,"▁by’imari":5259,"fungurwa":5260,"▁udushya":5261,"ngera":5262,"enga":5263,"sobanurira":5264,"▁josiane":5265,"▁z’amadorari":5266,"general":5267,"▁kumenyekanisha":5268,"▁djamali":5269,"▁bituruka":5270,"▁yagaragaye":5271,"▁umudugudu":5272,"▁ingana":5273,"▁akayezu":5274,"▁imiterere":5275,"▁batazi":5276,"▁david":5277,"▁witwaga":5278,"zigami":5279,"▁gucika":5280,"gongo":5281,"▁umuhinzi":5282,"▁umujyanama":5283,"▁amahanga":5284,"▁ubukangurambaga":5285,"▁ndende":5286,"▁tumu":5287,"▁ibyumba":5288,"bwirwa":5289,"▁munya":5290,"▁n’umutekano":5291,"boneyeho":5292,"▁sudani":5293,"▁gatolika":5294,"▁leonard":5295,"▁’’":5296,"▁bwu":5297,"▁bahoze":5298,"tar":5299,"▁w’aka":5300,"▁baramu":5301,"▁abitangaza":5302,"rael":5303,"▁runini":5304,"dore":5305,"▁manda":5306,"▁inkotanyi":5307,"guke":5308,"▁yakinnye":5309,"▁gutora":5310,"▁abakuru":5311,"rand":5312,"▁imyanya":5313,"▁namu":5314,"rangamutima":5315,"▁icy’":5316,"▁agahinda":5317,"▁camero":5318,"▁cyitwa":5319,"tini":5320,"▁izamu":5321,"ruye":5322,"zeyimana":5323,"kuwe":5324,"▁umushahara":5325,"▁uruhu":5326,"▁abitabiriye":5327,"▁mou":5328,"▁ibyabaye":5329,"▁b’ama":5330,"▁kuvugana":5331,"▁cip":5332,"▁uburaya":5333,"▁miriyoni":5334,"byu":5335,"nsi":5336,"buguzi":5337,"witwa":5338,"▁karekezi":5339,"▁ew":5340,"▁twu":5341,"▁nyakubahwa":5342,"▁araba":5343,"▁basabwe":5344,"▁alain":5345,"▁kitoko":5346,"▁itangaza":5347,"▁itsinze":5348,"▁uzamu":5349,"▁ukinira":5350,"▁batandatu":5351,"▁yasanze":5352,"▁ingengabitekerezo":5353,"▁michael":5354,"nette":5355,"▁muga":5356,"▁hateganyijwe":5357,"▁amashami":5358,"▁kitari":5359,"▁waha":5360,"▁st":5361,"▁koronavi":5362,"▁guhatanira":5363,"▁liverpool":5364,"▁star":5365,"▁jupp":5366,"▁imyiteguro":5367,"tsindiye":5368,"gufasha":5369,"rukana":5370,"kie":5371,"fuje":5372,"byemera":5373,"▁n’imibereho":5374,"fatirwa":5375,"mbya":5376,"pfi":5377,"▁ikwirakwira":5378,"▁imihango":5379,"▁w’iyi":5380,"▁reg":5381,"▁uwase":5382,"▁abazize":5383,"▁hakizimana":5384,"▁gushyirwa":5385,"▁n’ibyi":5386,"▁wamenyekanye":5387,"▁pac":5388,"subizwa":5389,"▁y’ubutegetsi":5390,"▁kugeraho":5391,"▁w’ububanyi":5392,"cene":5393,"▁ronaldo":5394,"gitura":5395,"ruta":5396,"▁myu":5397,"beshye":5398,"▁abadepite":5399,"▁ubukene":5400,"kemu":5401,"▁atazi":5402,"tekereje":5403,"ries":5404,"▁Ni":5405,"▁yashyizeho":5406,"▁adrien":5407,"▁ewsa":5408,"dier":5409,"▁bukene":5410,"miye":5411,"▁igicuri":5412,"▁mihanda":5413,"▁thi":5414,"teganywa":5415,"▁abarimu":5416,"▁christophe":5417,"guha":5418,"▁umurongo":5419,"▁bugaragaza":5420,"▁kiyaga":5421,"▁kanimba":5422,"▁bwawe":5423,"▁rw’in":5424,"▁ibigori":5425,"sabimana":5426,"gle":5427,"rize":5428,"▁ukiri":5429,"▁kujyana":5430,"tumanaho":5431,"▁hakoreshejwe":5432,"▁rure":5433,"▁zigamije":5434,"▁naason":5435,"▁serena":5436,"▁baturuka":5437,"▁fifa":5438,"▁kabgayi":5439,"▁ifata":5440,"▁nshinga":5441,"▁kuran":5442,"▁yabyo":5443,"rance":5444,"garagajwe":5445,"▁n’umukunzi":5446,"shanyo":5447,"▁yanga":5448,"▁y’ububanyi":5449,"▁rw’isi":5450,"▁yitwaje":5451,"▁abere":5452,"▁haka":5453,"▁kigaragara":5454,"▁kigega":5455,"shyiriweho":5456,"las":5457,"▁cyaba":5458,"▁peti":5459,"reze":5460,"▁bambaye":5461,"ruru":5462,"meka":5463,"▁ruhando":5464,"▁ntawa":5465,"tandukanya":5466,"▁w’ishyirahamwe":5467,"▁nyaruguru":5468,"▁siko":5469,"tumvi":5470,"▁w’inama":5471,"bungabunga":5472,"▁nzeli":5473,"▁kuramya":5474,"▁awu":5475,"▁akina":5476,"tat":5477,"▁gushize":5478,"yunge":5479,"shaje":5480,"▁kivuga":5481,"duha":5482,"▁ibihano":5483,"▁y’igikombe":5484,"▁ugeze":5485,"▁gukurikiranwa":5486,"▁umusoro":5487,"shakiye":5488,"▁wagize":5489,"▁hariya":5490,"cer":5491,"▁ntiyi":5492,"shimirwa":5493,"koreraga":5494,"▁fabi":5495,"gendanwa":5496,"pani":5497,"▁ntera":5498,"▁biha":5499,"▁yateye":5500,"▁gukira":5501,"siba":5502,"siwe":5503,"▁umuganga":5504,"manzi":5505,"▁ry’imana":5506,"▁sun":5507,"ati":5508,"ibi":5509,"▁kutu":5510,"▁bitu":5511,"▁abamu":5512,"mire":5513,"▁amaboko":5514,"▁minicom":5515,"▁bataza":5516,"▁ryabo":5517,"▁israel":5518,"▁huba":5519,"▁k’ama":5520,"sesengura":5521,"▁koronavirusi":5522,"henze":5523,"▁kwibaza":5524,"▁igitabo":5525,"zura":5526,"▁yize":5527,"▁goma":5528,"▁bigogwe":5529,"▁champions":5530,"kwan":5531,"▁uwu":5532,"teje":5533,"▁bitanu":5534,"gori":5535,"goma":5536,"▁hassan":5537,"▁ibikombe":5538,"▁urugamba":5539,"▁bwayo":5540,"jisho":5541,"garitswe":5542,"kemurampaka":5543,"▁ikomeza":5544,"▁akan":5545,"gama":5546,"reti":5547,"▁mugisha":5548,"▁zitari":5549,"▁aririmba":5550,"bwiraga":5551,"▁zinyuranye":5552,"▁mazutu":5553,"▁umugisha":5554,"▁bushobozi":5555,"▁rukomeye":5556,"▁zisanzwe":5557,"ryohe":5558,"beraga":5559,"▁y’abagore":5560,"garitse":5561,"▁bahungiye":5562,"▁manager":5563,"▁yasohoye":5564,"▁senegal":5565,"▁ijya":5566,"▁akomeje":5567,"rea":5568,"▁bafitanye":5569,"guma":5570,"▁bikana":5571,"▁yatangije":5572,"▁gufunga":5573,"▁n’izi":5574,"▁zikora":5575,"garagaramo":5576,"▁n’ibintu":5577,"▁n’ikinyamakuru":5578,"▁snappy":5579,"▁cen":5580,"▁hagiye":5581,"▁misozi":5582,"▁byatewe":5583,"▁w’imikino":5584,"cyorezo":5585,"yoma":5586,"▁yatanzwe":5587,"▁cho":5588,"▁abasha":5589,"hugura":5590,"yoboro":5591,"yinywa":5592,"taramira":5593,"▁bwacu":5594,"▁iriya":5595,"▁bw’amahoro":5596,"▁yves":5597,"pfukamunwa":5598,"▁ibu":5599,"kotanyi":5600,"▁yama":5601,"▁rukuru":5602,"kanywe":5603,"shobore":5604,"elle":5605,"dge":5606,"▁bikunze":5607,"▁aravuga":5608,"▁byoroshye":5609,"▁batishoboye":5610,"▁porogaramu":5611,"rabu":5612,"gusa":5613,"mezwa":5614,"▁abashinzwe":5615,"▁hagaragaye":5616,"▁kika":5617,"hia":5618,"▁zawe":5619,"▁akabariro":5620,"juri":5621,"▁best":5622,"▁lon":5623,"▁yahisemo":5624,"▁niwemwiza":5625,"zinduko":5626,"▁isaba":5627,"▁uherutse":5628,"mubiri":5629,"▁kavu":5630,"hirizwa":5631,"▁rizaba":5632,"cara":5633,"▁zaha":5634,"kwereka":5635,"▁frank":5636,"ronko":5637,"pt":5638,"▁babyeyi":5639,"bane":5640,"▁amajyambere":5641,"▁n’inzara":5642,"singa":5643,"▁umuhanzikazi":5644,"▁murumuna":5645,"▁n’ebyiri":5646,"▁yongera":5647,"▁ajyanye":5648,"yapani":5649,"▁uhereye":5650,"shon":5651,"▁bikorerwa":5652,"merere":5653,"▁hategeka":5654,"▁kawa":5655,"▁prin":5656,"▁twagiranye":5657,"▁n’umunya":5658,"▁n’imiryango":5659,"▁guhimbaza":5660,"umz":5661,"wubatsi":5662,"ije":5663,"res":5664,"▁abamaze":5665,"▁mabwiriza":5666,"hize":5667,"▁mijyi":5668,"perezida":5669,"celles":5670,"▁yarabi":5671,"▁y’amazi":5672,"vanga":5673,"▁n’impu":5674,"▁imboga":5675,"cro":5676,"lsea":5677,"▁ibe":5678,"seneza":5679,"▁abanyamahanga":5680,"▁mitali":5681,"▁y’iburengerazuba":5682,"gamiye":5683,"▁z’iki":5684,"▁y’amezi":5685,"shyinguye":5686,"▁niyomugabo":5687,"▁family":5688,"▁akanya":5689,"▁amoko":5690,"shashi":5691,"▁rushinzwe":5692,"▁gakwaya":5693,"▁n’ubukungu":5694,"▁meya":5695,"byina":5696,"▁bazwi":5697,"gufu":5698,"▁kumara":5699,"▁mali":5700,"▁majyepfo":5701,"▁cyatangiye":5702,"byaha":5703,"kundaga":5704,"▁fao":5705,"hinduye":5706,"mwuga":5707,"▁bitoroshye":5708,"▁apple":5709,"▁sho":5710,"rega":5711,"shen":5712,"▁batanze":5713,"tema":5714,"bomana":5715,"▁mc":5716,"▁ictr":5717,"▁peter":5718,"kubiye":5719,"▁univer":5720,"trea":5721,"muremyi":5722,"▁asigaye":5723,"▁kie":5724,"durira":5725,"▁kwizihiza":5726,"ville":5727,"▁abikorera":5728,"▁iwawa":5729,"rwanyi":5730,"▁bakuze":5731,"▁cele":5732,"▁rwanyu":5733,"▁yatawe":5734,"yisire":5735,"▁fabien":5736,"▁magingo":5737,"▁zituma":5738,"▁n’umwana":5739,"▁umunyeshuri":5740,"▁n’umutoza":5741,"▁jeannette":5742,"sinzi":5743,"gororwa":5744,"▁k’ubu":5745,"▁hegitari":5746,"▁gusiganwa":5747,"▁bukungu":5748,"▁bushingiye":5749,"▁mahirwe":5750,"▁n’imyaka":5751,"fitemo":5752,"▁bitaba":5753,"▁ukuba":5754,"ting":5755,"▁bea":5756,"▁ryayo":5757,"▁bose":5758,"▁batewe":5759,"▁rutayisire":5760,"shimangiye":5761,"▁menya":5762,"▁ashize":5763,"▁babaye":5764,"▁kurenga":5765,"▁yateguye":5766,"kusenge":5767,"▁mafi":5768,"▁n’ub":5769,"▁kanini":5770,"neti":5771,"▁banyeshuri":5772,"▁n’ubutegetsi":5773,"boneye":5774,"▁mwiseneza":5775,"▁n’icyorezo":5776,"▁ifumbire":5777,"▁atwara":5778,"▁bashyira":5779,"▁bakunzwe":5780,"▁gisozi":5781,"▁kiga":5782,"▁rutanga":5783,"▁pgg":5784,"gendana":5785,"mbaraga":5786,"▁watangiye":5787,"rence":5788,"▁dani":5789,"▁bakareba":5790,"▁abicanyi":5791,"▁gusenya":5792,"▁mpanuka":5793,"▁imwe":5794,"▁ugera":5795,"tus":5796,"▁mara":5797,"nateri":5798,"▁y’ibyo":5799,"gariro":5800,"▁henshi":5801,"▁y’umuryango":5802,"▁biriya":5803,"▁amubwira":5804,"▁ntoya":5805,"▁cy’igifungo":5806,"▁pggss":5807,"▁shyirahamwe":5808,"▁ayoboye":5809,"tashye":5810,"▁namwe":5811,"▁yiswe":5812,"jurire":5813,"▁ntarama":5814,"▁justin":5815,"▁cy’umuririmbyi":5816,"▁platn":5817,"▁nkora":5818,"▁bahura":5819,"▁bahinga":5820,"tes":5821,"▁mwinshi":5822,"▁abarenga":5823,"liane":5824,"neste":5825,"▁rifite":5826,"▁tra":5827,"padiri":5828,"▁w’imana":5829,"▁barasaba":5830,"shyuhe":5831,"▁platini":5832,"-ki":5833,"basira":5834,"yira":5835,"▁mpinduka":5836,"tiano":5837,"▁y’uburasirazuba":5838,"shyire":5839,"▁minist":5840,"yuzemo":5841,"▁umwarimu":5842,"▁thoneste":5843,"▁promoter":5844,"jonjora":5845,"uba":5846,"▁jya":5847,"▁abwira":5848,"tarengeje":5849,"huha":5850,"▁n’ic":5851,"▁nibi":5852,"gendaga":5853,"▁icyari":5854,"muhaye":5855,"▁ubwisungane":5856,"▁party":5857,"ww":5858,"▁it":5859,"▁ibona":5860,"▁ikosa":5861,"▁all":5862,"▁nkemurampaka":5863,"▁yagera":5864,"▁gusobanukirwa":5865,"▁ubuvuzi":5866,"▁gatete":5867,"▁hand":5868,"▁yaraye":5869,"tions":5870,"▁irindi":5871,"▁ruhago":5872,"▁n’umunyamabanga":5873,"yongereyeho":5874,"▁chelsea":5875,"▁faustin":5876,"dindi":5877,"ngani":5878,"sk":5879,"rembo":5880,"▁kumenyekana":5881,"butse":5882,"▁bizeye":5883,"▁buhagije":5884,"▁inyo":5885,"yonzi":5886,"▁rwara":5887,"▁icyayi":5888,"vugwaho":5889,"yumvamo":5890,"▁apo":5891,"▁bahan":5892,"▁umuvuduko":5893,"▁bundi":5894,"▁abaririmbyi":5895,"▁kimenyi":5896,"▁nimero":5897,"byaro":5898,"▁mbwa":5899,"senateri":5900,"kure":5901,"▁kibi":5902,"▁jeu":5903,"kiriya":5904,"munara":5905,"sifuzi":5906,"gutabara":5907,"yuranyije":5908,"▁karindwi":5909,"gereranya":5910,"byaranye":5911,"▁nk’igi":5912,"▁bariya":5913,"gejejwe":5914,"mbanye":5915,"ruhuko":5916,"lbert":5917,"pen":5918,"▁yagizwe":5919,"huriro":5920,"▁abata":5921,"mie":5922,"car":5923,"▁bahatanira":5924,"▁z’ubuzima":5925,"▁l’":5926,"▁platnumz":5927,"▁ifaranga":5928,"▁ute":5929,"kosora":5930,"▁yajyaga":5931,"▁intebe":5932,"▁abakiliya":5933,"▁mikorere":5934,"shyikirwa":5935,"▁spe":5936,"tincelles":5937,"▁w’umudugudu":5938,"▁nk’ibyo":5939,"torewe":5940,"mererwa":5941,"▁y’urubyiruko":5942,"▁kirehe":5943,"▁wasangaga":5944,"ringi":5945,"▁yarana":5946,"kumi":5947,"med":5948,"▁kamere":5949,"▁mibonano":5950,"▁yitabiriwe":5951,"▁villa":5952,"▁wanyu":5953,"▁kizabera":5954,"▁inzoka":5955,"mpala":5956,"▁bitwaje":5957,"vin":5958,"▁won":5959,"▁ger":5960,"yabu":5961,"baje":5962,"rubyiruko":5963,"▁yashize":5964,"▁mr":5965,"▁hakuriki":5966,"hanna":5967,"▁gipimo":5968,"▁mashami":5969,"▁akagera":5970,"▁w’ibihugu":5971,"▁bwakorewe":5972,"▁n’ibiro":5973,"▁live":5974,"▁ikawa":5975,"▁confe":5976,"▁ubwabo":5977,"sanzure":5978,"▁butali":5979,"▁gukuraho":5980,"▁damascene":5981,"ogle":5982,"▁bashinzwe":5983,"▁kugarura":5984,"▁yaru":5985,"shiki":5986,"garagaraga":5987,"kundan":5988,"sheshatu":5989,"▁bangana":5990,"▁ikarita":5991,"hagararira":5992,"▁igabanuka":5993,"razil":5994,"▁augu":5995,"gwiza":5996,"▁Mu":5997,"▁pri":5998,"rwenya":5999,"▁mwiherero":6000,"▁yahakanye":6001,"yanditse":6002,"▁benedi":6003,"▁isomo":6004,"▁michel":6005,"▁service":6006,"▁maurice":6007,"▁butaliyani":6008,"▁up":6009,"bika":6010,"▁biyobyabwenge":6011,"▁yakoraga":6012,"gwaho":6013,"▁tumaze":6014,"▁etienne":6015,"vie":6016,"▁twavuga":6017,"mwita":6018,"▁w’umugabo":6019,"▁twifuza":6020,"yamamaza":6021,"kwirakwizwa":6022,"▁ugenda":6023,"▁byatuma":6024,"▁tumwe":6025,"▁les":6026,"abanyeshuri":6027,"▁n’ubwiyunge":6028,"▁shingiro":6029,"▁irondo":6030,"koma":6031,"lien":6032,"hitanye":6033,"▁akayi":6034,"▁riba":6035,"▁par":6036,"▁twaganiriye":6037,"▁n’umuhanzi":6038,"▁babashije":6039,"▁diane":6040,"▁bazize":6041,"▁ry’uyu":6042,"▁gukusan":6043,"▁ndayishimiye":6044,"ctor":6045,"▁abyi":6046,"▁kina":6047,"▁gusuzuma":6048,"▁abakoresha":6049,"▁har":6050,"rans":6051,"▁imbibi":6052,"giramo":6053,"zuza":6054,"▁urumva":6055,"▁gihembwe":6056,"▁sadate":6057,"jagari":6058,"▁aramu":6059,"tsweho":6060,"▁bibaza":6061,"▁bwonko":6062,"▁ituma":6063,"bute":6064,"▁biki":6065,"▁gukwirakwiza":6066,"▁habin":6067,"▁esheshatu":6068,"kuraho":6069,"▁bategereje":6070,"▁by’amafaranga":6071,"▁byukusenge":6072,"▁ernest":6073,"zigamira":6074,"remezo":6075,"▁bakin":6076,"▁batera":6077,"▁kubanza":6078,"terankunga":6079,"▁biganjemo":6080,"▁ino":6081,"▁imikoranire":6082,"▁coa":6083,"▁west":6084,"▁atigeze":6085,"▁kureka":6086,"▁kugirana":6087,"gurishwa":6088,"mbanya":6089,"shyikirizwa":6090,"▁mutagatifu":6091,"▁myugariro":6092,"▁ishimwe":6093,"gozi":6094,"▁interi":6095,"▁inkweto":6096,"▁ziha":6097,"furiza":6098,"▁ikiza":6099,"▁rihanna":6100,"▁fon":6101,"kurikiwe":6102,"▁y’umupira":6103,"kubise":6104,"▁n’akarere":6105,"▁imyanzuro":6106,"zine":6107,"ziran":6108,"▁guhana":6109,"siya":6110,"▁n’itsinda":6111,"▁abanye":6112,"▁cyamunara":6113,"ubumu":6114,"▁n’umujyi":6115,"▁cou":6116,"▁cy’ibi":6117,"for":6118,"▁by’iterambere":6119,"▁yunze":6120,"▁claire":6121,"▁ije":6122,"▁ikwiye":6123,"▁bashoboye":6124,"▁yabuze":6125,"▁imyumbati":6126,"▁n’igenamigambi":6127,"▁sinema":6128,"▁y’ubutabera":6129,"rinka":6130,"▁rw’ibi":6131,"ristu":6132,"▁peteroli":6133,"▁augustin":6134,"pha":6135,"▁yakira":6136,"▁rw":6137,"sohora":6138,"▁ntawu":6139,"coo":6140,"▁wigaragaje":6141,"▁d’i":6142,"▁diyose":6143,"▁bagombaga":6144,"karaba":6145,"▁kimironko":6146,"cs":6147,"ou":6148,"▁tangazo":6149,"mukira":6150,"▁bacuruza":6151,"▁bihuriye":6152,"▁y’abanyarwanda":6153,"misha":6154,"toro":6155,"▁riti":6156,"terabwoba":6157,"▁n’umusore":6158,"▁z’uyu":6159,"▁w’ubuhinzi":6160,"▁budasanzwe":6161,"▁imashini":6162,"fri":6163,"mc":6164,"tha":6165,"▁bikomeje":6166,"dende":6167,"motari":6168,"▁kitara":6169,"tangarijwe":6170,"▁her":6171,"pfura":6172,"▁kumvi":6173,"▁gutya":6174,"▁butunzi":6175,"rande":6176,"kecuru":6177,"ganyi":6178,"▁kwifatanya":6179,"▁kwihutisha":6180,"▁gaho":6181,"▁mibare":6182,"yoboraga":6183,"▁yishe":6184,"bwiwe":6185,"▁dukwiye":6186,"▁wiga":6187,"▁bakazi":6188,"▁n’ibiciro":6189,"▁fab":6190,"fatiye":6191,"▁iby’ubu":6192,"rwanira":6193,"komeretsa":6194,"ngirehe":6195,"▁d’ivo":6196,"▁akurikiranyweho":6197,"bari":6198,"▁tuda":6199,"▁rwabu":6200,"kurikiranira":6201,"▁alubumu":6202,"▁bizajya":6203,"▁document":6204,"tribute":6205,"▁louis":6206,"▁daniel":6207,"▁hita":6208,"▁nsabimana":6209,"mufasha":6210,"gishije":6211,"gugu":6212,"▁kuma":6213,"zize":6214,"getele":6215,"▁yamenye":6216,"shimana":6217,"woro":6218,"ley":6219,"▁etincelles":6220,"shuye":6221,"▁sifa":6222,"▁n’ibikoresho":6223,"fatanije":6224,"▁bazakomeza":6225,"mentbyi":6226,"▁imurikagurisha":6227,"▁victoire":6228,"tattribute":6229,"▁documentgetele":6230,"▁documentgetelementbyi":6231,"▁biturutse":6232,"huru":6233,"deri":6234,"mico":6235,"limu":6236,"▁kitwa":6237,"▁ibisobanuro":6238,"▁wamamaye":6239,"vaho":6240,"▁n’abagabo":6241,"▁zafashwe":6242,"▁bagamije":6243,"▁nk’abandi":6244,"▁mugihe":6245,"▁isabukuru":6246,"▁valen":6247,"▁impapuro":6248,"▁kha":6249,"baha":6250,"banzi":6251,"hanwa":6252,"▁ibishyimbo":6253,"▁zite":6254,"▁kiriziya":6255,"▁serivise":6256,"karita":6257,"▁ugereranije":6258,"▁malaria":6259,"▁psf":6260,"none":6261,"kaye":6262,"▁bize":6263,"▁insanganyamatsiko":6264,"▁amatsiko":6265,"▁girinka":6266,"nararibonye":6267,"▁rigizwe":6268,"▁n’abafana":6269,"▁rwamu":6270,"▁n’ibyaha":6271,"rama":6272,"▁njya":6273,"▁nzoga":6274,"rebera":6275,"gitsina":6276,"▁bigaraga":6277,"wanye":6278,"gence":6279,"shoye":6280,"▁imicungire":6281,"▁agahita":6282,"▁kigali-":6283,"▁yerekanye":6284,"▁meddy":6285,"▁yakoreye":6286,"zongere":6287,"▁music":6288,"▁fonda":6289,"uko":6290,"▁bahinzi":6291,"dage":6292,"vugurura":6293,"▁bufite":6294,"▁kaza":6295,"▁ikiro":6296,"▁n’abavandimwe":6297,"▁ihabwa":6298,"▁n’urubyiruko":6299,"ziyaremye":6300,"hagaritswe":6301,"shidikanya":6302,"▁ikana":6303,"tako":6304,"▁yashimye":6305,"hungirehe":6306,"▁bukerarugendo":6307,"▁abavandimwe":6308,"▁ruhare":6309,"▁kali":6310,"▁narwo":6311,"cisha":6312,"▁vian":6313,"sigajwe":6314,"▁produ":6315,"▁google":6316,"▁cy’amezi":6317,"▁ministeri":6318,"ds":6319,"▁itandatu":6320,"▁ijisho":6321,"▁abonye":6322,"ringa":6323,"gure":6324,"daste":6325,"mir":6326,"▁hasigaye":6327,"▁igitu":6328,"▁per":6329,"▁ukugira":6330,"▁guhashya":6331,"▁ihagije":6332,"sp":6333,"▁ishaka":6334,"▁abinyujije":6335,"kongo":6336,"tezwe":6337,"▁gihingwa":6338,"pore":6339,"jiriza":6340,"▁n’amaso":6341,"▁bakayi":6342,"▁n’ibihe":6343,"▁biteganijwe":6344,"sobanuriye":6345,"▁babasha":6346,"▁ntakiru":6347,"▁vianney":6348,"▁general":6349,"▁gusen":6350,"gome":6351,"▁buhinde":6352,"▁haboneka":6353,"▁mai":6354,"sozwa":6355,"kinisha":6356,"▁centre":6357,"▁icyerekezo":6358,"kamaro":6359,"bure":6360,"membe":6361,"▁kampala":6362,"▁imfubyi":6363,"▁cy’icyunamo":6364,"▁birashoboka":6365,"▁barcelona":6366,"▁hakurikijwe":6367,"▁interineti":6368,"rindi":6369,"▁kudu":6370,"▁kurangira":6371,"▁bishimira":6372,"tis":6373,"sabira":6374,"▁gira":6375,"▁umwenda":6376,"▁ukaza":6377,"bireti":6378,"▁bakekwaho":6379,"▁myitozo":6380,"▁ihene":6381,"ariko":6382,"gy":6383,"▁ishusho":6384,"▁aheruka":6385,"murira":6386,"wera":6387,"▁bitara":6388,"▁mwo":6389,"▁bukwe":6390,"▁intandaro":6391,"dutse":6392,"▁ubuvugizi":6393,"▁ububasha":6394,"▁banze":6395,"▁arabi":6396,"mvikanye":6397,"ralia":6398,"kh":6399,"▁kbs":6400,"▁bariri":6401,"▁yahu":6402,"vugana":6403,"▁amakoperative":6404,"hiye":6405,"▁kwishyu":6406,"▁tur":6407,"▁two":6408,"hine":6409,"kirisitu":6410,"▁ndagi":6411,"▁robert":6412,"manuka":6413,"mbano":6414,"▁impunzi":6415,"▁mugitondo":6416,"▁aregwa":6417,"▁ruhame":6418,"▁geor":6419,"▁chur":6420,"tumvikana":6421,"▁iwe":6422,"▁irenga":6423,"▁akomoka":6424,"▁afitanye":6425,"koni":6426,"yuza":6427,"▁abakunda":6428,"▁kwigira":6429,"kunde":6430,"cira":6431,"▁zina":6432,"▁ibyamamare":6433,"▁src":6434,"tandukani":6435,"▁izakomeza":6436,"▁biribwa":6437,"▁impande":6438,"▁akimara":6439,"prien":6440,"▁beyonce":6441,"▁ngendahimana":6442,"▁universi":6443,"▁uvuye":6444,"gishwa":6445,"▁baseze":6446,"▁bashyize":6447,"▁yaya":6448,"▁yasuye":6449,"▁mukunda":6450,"▁gutura":6451,"▁amatungo":6452,"▁wakwi":6453,"▁zone":6454,"vara":6455,"▁biteye":6456,"jor":6457,"▁caption":6458,"▁type":6459,"▁ivo":6460,"▁batekereza":6461,"▁mina":6462,"gombwa":6463,"kubwira":6464,"bank":6465,"▁nawe":6466,"bwami":6467,"▁singa":6468,"▁ataki":6469,"▁kwemeza":6470,"kennye":6471,"▁perefegitura":6472,"cookie":6473,"▁ntakirutimana":6474,"dr":6475,"gukunda":6476,"bile":6477,"▁bukeye":6478,"▁hagaragara":6479,"dukunda":6480,"▁ibitabo":6481,"hitana":6482,"zanira":6483,"huzabikorwa":6484,"▁inzobere":6485,"▁gusenga":6486,"▁mukeba":6487,"phe":6488,"▁agenga":6489,"▁babayeho":6490,"guza":6491,"▁kalisa":6492,"▁misa":6493,"▁colle":6494,"sobanutse":6495,"▁gs":6496,"▁jado":6497,"▁uturere":6498,"▁times":6499,"kandida":6500,"▁benediction":6501,"ziranenge":6502,"gina":6503,"ppe":6504,"anda":6505,"raba":6506,"▁itangira":6507,"yahura":6508,"▁yahuye":6509,"▁gukundana":6510,"wani":6511,"shisho":6512,"▁y’iterambere":6513,"shyitsi":6514,"yamaswa":6515,"kabaye":6516,"▁sibomana":6517,"▁izagenda":6518,"▁by’ingenzi":6519,"kundira":6520,"▁world":6521,"▁iva":6522,"▁ihita":6523,"▁aru":6524,"▁uyoboye":6525,"▁base":6526,"rore":6527,"▁indanga":6528,"▁hafashwe":6529,"▁rida":6530,"▁taxi":6531,"tonda":6532,"▁ubworozi":6533,"▁handball":6534,"yambere":6535,"▁kurangwa":6536,"▁amaka":6537,"▁imvugo":6538,"▁ziterwa":6539,"▁mitwe":6540,"▁nizo":6541,"shingira":6542,"▁ikirere":6543,"▁munyamakuru":6544,"yemerera":6545,"▁ambwira":6546,"▁bungana":6547,"▁qa":6548,"▁brazil":6549,"▁numu":6550,"▁bama":6551,"▁bahora":6552,"▁minota":6553,"▁abasiganwa":6554,"▁icyubahiro":6555,"▁bwaba":6556,"▁yanze":6557,"▁z’imi":6558,"geneye":6559,"kiniye":6560,"▁fabrice":6561,"▁d’ivoire":6562,"yd":6563,"▁ifatwa":6564,"▁baguye":6565,"roro":6566,"▁igihingwa":6567,"▁siganwa":6568,"▁murima":6569,"▁ryara":6570,"▁y’ingabo":6571,"▁kiriya":6572,"▁cyprien":6573,"▁by’agateganyo":6574,"▁bwanjye":6575,"▁icyunamo":6576,"▁jeunes":6577,"uti":6578,"zza":6579,"▁brd":6580,"▁ijuru":6581,"shyo":6582,"▁kuro":6583,"▁buhoro":6584,"▁butari":6585,"yankore":6586,"▁gikomeje":6587,"▁kubaza":6588,"shingiwe":6589,"▁yibwe":6590,"manya":6591,"▁ntiha":6592,"jimana":6593,"▁ikina":6594,"▁nduhungirehe":6595,"▁ukina":6596,"▁baganiriye":6597,"▁rwu":6598,"lix":6599,"vugaho":6600,"garagu":6601,"▁watanze":6602,"▁imitima":6603,"turarwanda":6604,"pagne":6605,"▁zagiye":6606,"▁cyafashwe":6607,"tarama":6608,"▁w’ishami":6609,"yemera":6610,"tumva":6611,"▁tike":6612,"▁inzozi":6613,"▁ry’ibiciro":6614,"rambo":6615,"bagirana":6616,"▁kurwara":6617,"bujije":6618,"▁gukaraba":6619,"▁bushake":6620,"▁kata":6621,"▁samu":6622,"byaza":6623,"sabaga":6624,"▁ubwandu":6625,"mwunganira":6626,"herukaga":6627,"▁nsanzimana":6628,"▁fanta":6629,"▁prince":6630,"rabura":6631,"▁iran":6632,"bai":6633,"murwa":6634,"▁kurwana":6635,"▁bishyura":6636,"▁rbc":6637,"▁abarundi":6638,"▁ibijumba":6639,"gande":6640,"▁imp":6641,"▁ibyuma":6642,"tegerere":6643,"▁n’inzu":6644,"▁y’uburezi":6645,"▁ry’iki":6646,"▁bakoraga":6647,"mwuka":6648,"▁Rwanda":6649,"▁munyaneza":6650,"▁ingeso":6651,"▁snappymuhaburarw":6652,"ejo":6653,"▁nina":6654,"▁mufite":6655,"▁mukunzi":6656,"kirana":6657,"▁kigamije":6658,"▁wakoze":6659,"▁yijeje":6660,"▁y’imana":6661,"▁zambia":6662,"▁cyayo":6663,"kurikiranye":6664,"▁melo":6665,"keragutabara":6666,"▁zandurira":6667,"iyo":6668,"ot":6669,"▁ihuza":6670,"▁iheruka":6671,"▁mugari":6672,"▁bukuru":6673,"▁ibitangaza":6674,"▁maj":6675,"▁kumuha":6676,"▁ibinyabiziga":6677,"▁mushiki":6678,"▁ingano":6679,"▁zikomeje":6680,"▁dufitanye":6681,"gorofa":6682,"▁eritrea":6683,"tunguwe":6684,"hanuzi":6685,"▁agnes":6686,"kundanye":6687,"tunze":6688,"▁biciwe":6689,"▁yaga":6690,"▁ububi":6691,"▁mahoro":6692,"garama":6693,"▁nagiye":6694,"▁ikira":6695,"▁rita":6696,"▁trans":6697,"▁burusiya":6698,"myabu":6699,"▁w’intara":6700,"▁w’amashuri":6701,"▁zizajya":6702,"▁urebye":6703,"hengeri":6704,"▁center":6705,"raho":6706,"▁iko":6707,"▁igenamigambi":6708,"▁adu":6709,"▁ashimangira":6710,"giteri":6711,"gerwa":6712,"▁muvara":6713,"▁abasaba":6714,"▁amarangamutima":6715,"kemuka":6716,"▁zitwara":6717,"cun":6718,"suru":6719,"sukari":6720,"▁dushobora":6721,"▁or":6722,"▁kwegera":6723,"herezo":6724,"zanywe":6725,"▁lady":6726,"▁nyanja":6727,"magarira":6728,"koloni":6729,"gnnone":6730,"▁tombora":6731,"▁kumvikana":6732,"hembwa":6733,"sung":6734,"menyereye":6735,"▁bagakora":6736,"▁nyigo":6737,"▁w’abana":6738,"koreshereze":6739,"▁fondation":6740,"reen":6741,"▁bakwi":6742,"ziga":6743,"▁zigezweho":6744,"▁tshi":6745,"▁sar":6746,"▁ndaba":6747,"▁wuba":6748,"bonana":6749,"▁by’ubucuruzi":6750,"▁gushakira":6751,"sekedi":6752,"▁bukabije":6753,"▁nyabarongo":6754,"tegererezo":6755,"▁atangwa":6756,"giriza":6757,"▁gushinga":6758,"▁butera":6759,"▁hatanzwe":6760,"▁hakenewe":6761,"▁wayi":6762,"▁nabonye":6763,"▁rab":6764,"▁wegukanye":6765,"▁cy’irangiza":6766,"kiriwe":6767,"▁bemerewe":6768,"pfubyi":6769,"▁y’umura":6770,"▁nk’umuntu":6771,"▁ungana":6772,"▁imanza":6773,"▁black":6774,"din":6775,"rma":6776,"▁irindwi":6777,"▁akinira":6778,"▁arwaye":6779,"▁bagire":6780,"▁yagi":6781,"▁rute":6782,"▁pen":6783,"▁n’ikoranabuhanga":6784,"▁gaga":6785,"renzi":6786,"▁cyaro":6787,"▁wita":6788,"▁simba":6789,"mburo":6790,"▁bazabona":6791,"▁yuzuye":6792,"pfakazi":6793,"garutsweho":6794,"▁nyaburanga":6795,"▁singapore":6796,"gijwe":6797,"▁basi":6798,"▁batangaje":6799,"guriye":6800,"▁cris":6801,"▁buso":6802,"▁ibipimo":6803,"boneza":6804,"garijwe":6805,"▁kingana":6806,"▁ihagaze":6807,"▁umunya-":6808,"▁kanombe":6809,"▁zahabu":6810,"mmy":6811,"▁ashyira":6812,"▁nkaba":6813,"bagiwe":6814,"gili":6815,"▁bakunzi":6816,"▁bikuru":6817,"hondo":6818,"▁bukangurambaga":6819,"▁abaye":6820,"▁rutare":6821,"▁ubuntu":6822,"▁pon":6823,"sango":6824,"suraga":6825,"gwate":6826,"▁sma":6827,"ganiye":6828,"▁barayi":6829,"▁yaramu":6830,"▁yego":6831,"▁ndamu":6832,"▁austin":6833,"▁abakirisitu":6834,"▁ikubitiro":6835,"ure":6836,"bazwa":6837,"mable":6838,"▁bashatse":6839,"▁bikora":6840,"▁kibu":6841,"▁kigeze":6842,"komeretse":6843,"komereka":6844,"▁cyatangaje":6845,"▁sala":6846,"▁sim":6847,"oney":6848,"▁denis":6849,"▁azam":6850,"politiki":6851,"▁espagne":6852,"cyizere":6853,"▁rurimi":6854,"▁y’imikino":6855,"▁euro":6856,"▁fred":6857,"muni":6858,"▁baran":6859,"▁cn":6860,"sia":6861,"bed":6862,"▁rugan":6863,"▁mashyamba":6864,"▁n’imana":6865,"▁n’ishyirahamwe":6866,"▁n’urugendo":6867,"▁gasore":6868,"▁mire":6869,"▁tuzaba":6870,"▁twagiye":6871,"▁ataza":6872,"▁guhaha":6873,"shyuye":6874,"▁cy’ubwi":6875,"twitter":6876,"▁bateganya":6877,"▁adashobora":6878,"▁yonyine":6879,"cyiciro":6880,"▁tshisekedi":6881,"ls":6882,"▁batoza":6883,"bozo":6884,"▁biyi":6885,"▁birenga":6886,"▁birenze":6887,"▁yamenyekanye":6888,"▁yashyizweho":6889,"kubye":6890,"▁abajijwe":6891,"mirwa":6892,"▁majwi":6893,"▁kwihan":6894,"▁duto":6895,"tegetse":6896,"▁uwavutse":6897,"▁ubwikorezi":6898,"▁kuvugwa":6899,"▁nyiraba":6900,"▁andre":6901,"sanganywe":6902,"▁habiyambere":6903,"▁w’umunyarwanda":6904,"▁guine":6905,"shaho":6906,"▁amahoteli":6907,"▁kwitwa":6908,"lent":6909,"yamaze":6910,"caca":6911,"▁y’abagabo":6912,"▁isigaye":6913,"pfumu":6914,"shyinguwe":6915,"▁vc":6916,"▁nzabo":6917,"▁kabari":6918,"▁aimable":6919,"▁tubikesha":6920,"▁samsung":6921,"▁george":6922,"▁church":6923,"mbyo":6924,"▁ikan":6925,"▁asubiza":6926,"▁umeze":6927,"▁yarwo":6928,"▁mpe":6929,"▁umugaba":6930,"huri":6931,"▁eva":6932,"▁cyaje":6933,"▁n’amabanki":6934,"ngero":6935,"▁adafite":6936,"▁cy’inyama":6937,"▁bwanyu":6938,"▁ngarukamwaka":6939,"▁ijo":6940,"▁nkiko":6941,"▁bacye":6942,"▁mvura":6943,"seti":6944,"▁rra":6945,"▁umupolisi":6946,"▁n’urwego":6947,"rikire":6948,"▁twamu":6949,"rweho":6950,"▁n’ubushobozi":6951,"▁demuka":6952,"yubakira":6953,"▁rose":6954,"takaza":6955,"yandikisha":6956,"hererekanya":6957,"▁kwanga":6958,"▁umuraperi":6959,"phon":6960,"▁cyc":6961,"cyubahiro":6962,"dine":6963,"ymar":6964,"▁irenge":6965,"▁akeneye":6966,"▁bicwa":6967,"▁mutabazi":6968,"bec":6969,"▁abatwara":6970,"▁ibikomere":6971,"▁ubuso":6972,"kekwaho":6973,"▁n’ayo":6974,"rereye":6975,"▁et":6976,"▁sen":6977,"ganiriza":6978,"▁bakavuga":6979,"mburwa":6980,"zubakwa":6981,"▁ikaze":6982,"cyerekezo":6983,"▁y’urukundo":6984,"▁kugabanuka":6985,"▁jeunesse":6986,"▁E":6987,"bune":6988,"▁yahoze":6989,"▁yaranze":6990,"siti":6991,"▁umulisa":6992,"▁abashumba":6993,"▁haruguru":6994,"▁rusa":6995,"▁ruvuga":6996,"▁impe":6997,"▁zijya":6998,"cumu":6999,"▁banyu":7000,"subiye":7001,"▁vie":7002,"▁kongerera":7003,"▁liliane":7004,"vuyemo":7005,"▁film":7006,"▁kuvugururwa":7007,"▁akumva":7008,"▁kwibasira":7009,"cyura":7010,"rci":7011,"▁byumweru":7012,"▁nyobozi":7013,"▁bapfuye":7014,"▁umucuruzi":7015,"▁rushashi":7016,"▁ibiryo":7017,"▁n’imyenda":7018,"▁wari":7019,"▁mihango":7020,"▁rw’akarere":7021,"▁op":7022,"▁ryatangiye":7023,"▁jeanne":7024,"▁z’umwaka":7025,"▁by’imvura":7026,"▁aturuka":7027,"▁ukwezicom":7028,"▁kigeli":7029,"▁ikunze":7030,"▁ashinzwe":7031,"barira":7032,"gume":7033,"▁kubyo":7034,"biro":7035,"▁bikiri":7036,"▁yashimangiye":7037,"▁my":7038,"▁rwin":7039,"▁umuhuzabikorwa":7040,"▁mac":7041,"▁magare":7042,"▁n’iri":7043,"▁n’iminota":7044,"hite":7045,"▁urubyaro":7046,"ngutse":7047,"▁seba":7048,"▁rwagati":7049,"anirwa":7050,"▁bahagarariye":7051,"▁sop":7052,"▁cy’amahoro":7053,"▁www":7054,"▁bw’amabuye":7055,"▁umwanzi":7056,"roheye":7057,"▁demukarasi":7058,"rise":7059,"rez":7060,"▁babe":7061,"▁bakan":7062,"▁baganira":7063,"dayi":7064,"▁murwa":7065,"▁murimo":7066,"▁munezero":7067,"kuriye":7068,"▁hatandukanye":7069,"▁amatike":7070,"▁kiro":7071,"▁n’itangazamakuru":7072,"bwoko":7073,"cece":7074,"▁twuba":7075,"garagambyo":7076,"▁jr":7077,"▁bw’abantu":7078,"▁n’abanyeshuri":7079,"▁muriri":7080,"▁bagahabwa":7081,"▁uwahoze":7082,"▁uzatoza":7083,"▁stage":7084,"alth":7085,"▁bateguye":7086,"▁hc":7087,"▁kitarenze":7088,"▁yataye":7089,"tunganywa":7090,"▁qatar":7091,"▁irengero":7092,"▁isaga":7093,"▁ntoki":7094,"zabu":7095,"▁kunye":7096,"▁inyeshyamba":7097,"▁amatwi":7098,"▁gihombo":7099,"▁ruzi":7100,"fiki":7101,"▁tuni":7102,"▁jona":7103,"nyezi":7104,"▁imbaga":7105,"▁iradukunda":7106,"▁day":7107,"▁udukingirizo":7108,"▁nguzanyo":7109,"▁nyundo":7110,"▁psg":7111,"▁iruhande":7112,"▁azwiho":7113,"tandukanyije":7114,"▁gukusanya":7115,"▁kbc":7116,"▁ugi":7117,"▁ugamije":7118,"▁bigiye":7119,"▁bitera":7120,"▁muki":7121,"▁guka":7122,"tanya":7123,"wango":7124,"bel":7125,"▁buhamya":7126,"▁abaminisitiri":7127,"▁giciro":7128,"▁kar":7129,"▁gare":7130,"▁gabon":7131,"▁twose":7132,"▁jye":7133,"▁rwaba":7134,"jyanywe":7135,"▁kuzajya":7136,"▁rw’iki":7137,"▁yandikiye":7138,"▁cy’umwaka":7139,"▁abanyafurika":7140,"hutira":7141,"▁ntabakuze":7142,"▁ir":7143,"▁uhagije":7144,"tuwe":7145,"sirwa":7146,"▁bumaze":7147,"▁bufasha":7148,"▁kama":7149,"▁w’abantu":7150,"girakamaro":7151,"camunsi":7152,"▁seka":7153,"lor":7154,"▁aramutse":7155,"▁z’icyumweru":7156,"▁neymar":7157,"▁yinjiza":7158,"kurikiraho":7159,"▁eugene":7160,"▁kuzuza":7161,"▁munyenyezi":7162,"▁muririmbyi":7163,"non":7164,"s’":7165,"▁bifashishije":7166,"beka":7167,"▁amacakubiri":7168,"▁gitwaza":7169,"▁imvu":7170,"▁primu":7171,"▁twagira":7172,"▁izakina":7173,"▁kwamagana":7174,"suzumwa":7175,"▁uncle":7176,"hutishwa":7177,"▁imbunda":7178,"▁ngorora":7179,"siness":7180,"▁cameroun":7181,"▁bapfa":7182,"▁yarangije":7183,"▁bukwiye":7184,"▁abashoferi":7185,"▁amafi":7186,"▁masa":7187,"▁imipira":7188,"▁banyuranye":7189,"▁rafiki":7190,"▁house":7191,"▁yabasabye":7192,"▁ly":7193,"▁n’urukiko":7194,"▁ndagijimana":7195,"mbwira":7196,"▁iyobowe":7197,"▁akoreshwa":7198,"▁uririmba":7199,"▁bagizwe":7200,"tasi":7201,"▁biti":7202,"simbuye":7203,"tic":7204,"▁burengerazuba":7205,"rways":7206,"▁amashyamba":7207,"▁akagira":7208,"▁avugako":7209,"▁bitegura":7210,"▁york":7211,"▁kurebera":7212,"▁lau":7213,"▁bworoshye":7214,"▁h’":7215,"▁z’amanyarwanda":7216,"hutirwa":7217,"▁yavukiye":7218,"▁biruta":7219,"▁airways":7220,"▁yubatswe":7221,"▁ecobank":7222,"▁cristiano":7223,"mpe":7224,"▁itwara":7225,"▁urwa":7226,"▁babanye":7227,"▁yatumi":7228,"▁ruhengeri":7229,"▁tundi":7230,"▁rwatangiye":7231,"▁kinshasa":7232,"▁kayibanda":7233,"▁ibinyobwa":7234,"▁yahishuye":7235,"▁impamyabu":7236,"▁habineza":7237,"▁documentgetelementbyid":7238,"▁miremire":7239,"▁primus":7240,"▁shuri":7241,"▁fura":7242,"▁byuma":7243,"▁keza":7244,"bagirwa":7245,"▁bafa":7246,"▁yaryo":7247,"▁mani":7248,"kiranya":7249,"banji":7250,"bero":7251,"▁burwayi":7252,"yutse":7253,"▁abatari":7254,"▁hakorwa":7255,"duku":7256,"▁ubure":7257,"▁kwivu":7258,"▁ikiciro":7259,"▁ntiwa":7260,"▁ikinyarwanda":7261,"▁card":7262,"rindwa":7263,"▁bihembo":7264,"▁petit":7265,"▁celestin":7266,"at":7267,"cho":7268,"▁tegeko":7269,"▁amatsinda":7270,"▁n’ishami":7271,"▁tuki":7272,"▁wigeze":7273,"▁baraba":7274,"▁oya":7275,"nika":7276,"▁sur":7277,"sohoye":7278,"▁ukamu":7279,"▁W":7280,"▁agaragara":7281,"▁afatanyije":7282,"yenyeri":7283,"rure":7284,"geya":7285,"▁yacyo":7286,"gorana":7287,"▁abavuga":7288,"▁abacu":7289,"▁major":7290,"▁urugwiro":7291,"▁swi":7292,"▁arasaba":7293,"▁soya":7294,"ringanire":7295,"▁kuzakina":7296,"▁data":7297,"herereza":7298,"▁kuruta":7299,"▁ivangura":7300,"▁editormuhaburarw":7301,"▁university":7302,"ral":7303,"▁ikorwa":7304,"▁nshaka":7305,"mad":7306,"▁babanza":7307,"satsi":7308,"ship":7309,"▁amasasu":7310,"▁made":7311,"hirije":7312,"▁kwizigamira":7313,"▁gaso":7314,"negihugu":7315,"zuka":7316,"▁yitiriwe":7317,"▁ribi":7318,"▁n’ababyeyi":7319,"▁serukiramuco":7320,"subitswe":7321,"▁abisobanura":7322,"▁top":7323,"▁ndimi":7324,"ssion":7325,"▁bahisemo":7326,"▁nsengimana":7327,"▁zidasanzwe":7328,"▁coast":7329,"▁furaha":7330,"ad":7331,"▁1":7332,"▁igaragara":7333,"▁nzo":7334,"▁ngira":7335,"miu":7336,"▁hagende":7337,"▁n’icyaha":7338,"▁bakabona":7339,"▁kubiba":7340,"stre":7341,"mvikane":7342,"▁batigeze":7343,"mpany":7344,"▁udasanzwe":7345,"▁sano":7346,"▁isha":7347,"▁bajye":7348,"▁basin":7349,"rubozo":7350,"tizi":7351,"▁kamembe":7352,"▁ubunararibonye":7353,"mbabwe":7354,"shyiga":7355,"▁safi":7356,"rekeranye":7357,"tekerezaho":7358,"▁nzaha":7359,"▁ferwacy":7360,"▁icyuho":7361,"▁janvier":7362,"tekerere":7363,"▁byagabanutse":7364,"bli":7365,"▁que":7366,"▁arusha":7367,"▁bagiranye":7368,"▁kigiye":7369,"biribwa":7370,"papuro":7371,"cation":7372,"▁n’abafatanyabikorwa":7373,"▁moko":7374,"▁kugerageza":7375,"▁by’uru":7376,"▁zanjye":7377,"ther":7378,"lc":7379,"lde":7380,"ots":7381,"▁idini":7382,"▁uhoraho":7383,"▁kugana":7384,"zerimana":7385,"▁bisobanuye":7386,"▁muzima":7387,"▁mutekano":7388,"goga":7389,"▁umushoferi":7390,"hubeka":7391,"▁gishya":7392,"cor":7393,"▁bitabira":7394,"▁cy’iterambere":7395,"tangiranye":7396,"suzugura":7397,"▁youtube":7398,"▁qhubeka":7399,"▁ibirayi":7400,"fashijwemo":7401,"lf":7402,"▁shi":7403,"▁ut":7404,"yere":7405,"marira":7406,"giti":7407,"▁basobanu":7408,"▁gusubi":7409,"▁umurego":7410,"shimu":7411,"▁ruhumuriza":7412,"ganura":7413,"▁kwivana":7414,"▁byaku":7415,"▁imico":7416,"riyeri":7417,"▁penali":7418,"garikwa":7419,"▁y’inama":7420,"▁bamubwira":7421,"twika":7422,"zihiwe":7423,"▁bw’abaturage":7424,"▁shei":7425,"▁dieudon":7426,"▁village":7427,"pf":7428,"▁ibaye":7429,"▁afasha":7430,"▁avuka":7431,"▁ukwe":7432,"▁barwaye":7433,"▁bisobanura":7434,"▁bifitiye":7435,"▁mubano":7436,"▁abashaka":7437,"▁y’ibikorwa":7438,"▁tana":7439,"▁umunye":7440,"▁cyatumye":7441,"▁talent":7442,"▁ntimu":7443,"jirira":7444,"▁ikini":7445,"▁b’a":7446,"rokoka":7447,"▁espe":7448,"▁yvette":7449,"▁ibizamini":7450,"▁n’umwanya":7451,"bwongereza":7452,"pre":7453,"seka":7454,"rou":7455,"▁bukorwa":7456,"▁burimo":7457,"▁ruzaba":7458,"higwaga":7459,"▁kwiyi":7460,"▁imizi":7461,"▁imirenge":7462,"▁batagira":7463,"▁johan":7464,"▁by’ikoranabuhanga":7465,"▁z’amadorali":7466,"▁madame":7467,"▁kw’aba":7468,"▁theogene":7469,"rubavu":7470,"llo":7471,"▁bahungu":7472,"tais":7473,"bohora":7474,"▁biranga":7475,"senya":7476,"▁business":7477,"moni":7478,"▁hashingiwe":7479,"▁gake":7480,"▁gakomeye":7481,"▁gacaca":7482,"pasiteri":7483,"▁twabonye":7484,"▁company":7485,"menyekane":7486,"▁depite":7487,"shyurira":7488,"▁ihazabu":7489,"▁ubwitabire":7490,"▁protais":7491,"bangamiye":7492,"▁serbi":7493,"▁sunrise":7494,"phonse":7495,"gye":7496,"hwi":7497,"it":7498,"▁baririmba":7499,"zajya":7500,"tain":7501,"▁musaruro":7502,"cike":7503,"▁atabi":7504,"▁cy’imvura":7505,"▁lil":7506,"▁yabitangarije":7507,"mpani":7508,"▁asso":7509,"▁yahitanye":7510,"▁ijosi":7511,"banya":7512,"▁rubyiniro":7513,"bwaga":7514,"▁n’amazi":7515,"▁oba":7516,"mber":7517,"subije":7518,"abanyamahanga":7519,"▁moya":7520,"▁ahani":7521,"▁lin":7522,"▁ibyavuye":7523,"▁wha":7524,"▁b’abakobwa":7525,"▁thomas":7526,"▁barusheho":7527,"▁cyuho":7528,"▁apotre":7529,"▁ivory":7530,"▁cycling":7531,"▁tanasha":7532,"uru":7533,"▁kworo":7534,"▁bagaragara":7535,"rukanye":7536,"▁yatangira":7537,"▁gufashwa":7538,"silamu":7539,"▁bull":7540,"▁hambere":7541,"mbona":7542,"▁scien":7543,"▁w’iri":7544,"▁izatangira":7545,"▁y’amajyambere":7546,"▁babikora":7547,"takaje":7548,"▁y’ibirunga":7549,"▁ruganzu":7550,"▁hagendewe":7551,"ryi":7552,"▁iteganya":7553,"▁igenzura":7554,"▁ashingiye":7555,"▁ngengo":7556,"▁uw’":7557,"▁uva":7558,"koman":7559,"▁basuye":7560,"wer":7561,"▁yazo":7562,"▁yakunzwe":7563,"dical":7564,"heba":7565,"▁amasa":7566,"▁gihanga":7567,"▁gitangaza":7568,"▁kim":7569,"▁zishinzwe":7570,"▁tpi":7571,"nguwe":7572,"▁ntitu":7573,"▁simon":7574,"▁mose":7575,"▁kubika":7576,"▁jambo":7577,"▁davi":7578,"▁udafite":7579,"▁ry’ubukungu":7580,"rondoro":7581,"▁mwanzuro":7582,"ubwo":7583,"raco":7584,"gavu":7585,"▁bafatanyije":7586,"▁bikozwe":7587,"▁gukurikiza":7588,"▁haguye":7589,"▁akabona":7590,"ner":7591,"pora":7592,"▁tatu":7593,"▁kore":7594,"▁ntitwa":7595,"▁wishwe":7596,"▁wifuza":7597,"▁nuko":7598,"▁bahari":7599,"▁bahame":7600,"▁y’ubuhinzi":7601,"▁y’abana":7602,"▁lap":7603,"▁ukabona":7604,"▁mwurire":7605,"▁bruce":7606,"hangayikishije":7607,"tekerereze":7608,"ston":7609,"xy":7610,"▁irya":7611,"▁bifata":7612,"▁murika":7613,"▁rwo":7614,"▁abayoboke":7615,"deration":7616,"▁haku":7617,"▁hagomba":7618,"▁kibe":7619,"▁mabi":7620,"▁kwishimira":7621,"▁gashumba":7622,"▁miti":7623,"▁nijoro":7624,"byimana":7625,"▁willi":7626,"▁y’abo":7627,"▁n’imikorere":7628,"▁ubwishingizi":7629,"byino":7630,"▁guhitana":7631,"▁scho":7632,"dth":7633,"gnali":7634,"ut":7635,"▁ahana":7636,"rekura":7637,"hama":7638,"tega":7639,"yoye":7640,"▁bitwaye":7641,"▁mubyo":7642,"mer":7643,"hima":7644,"kanwe":7645,"sani":7646,"shushanyo":7647,"garagarije":7648,"▁zacu":7649,"▁width":7650,"▁ahagarariye":7651,"▁barabi":7652,"▁kwegura":7653,"▁bagaruka":7654,"urs":7655,"▁yemerewe":7656,"▁yitwaye":7657,"▁nemba":7658,"chment":7659,"▁kurara":7660,"▁bakumva":7661,"▁alignali":7662,"▁rukuta":7663,"▁rwakagara":7664,"cana":7665,"riste":7666,"▁nkunda":7667,"kabije":7668,"guka":7669,"▁mure":7670,"▁mubare":7671,"y’aba":7672,"tirwa":7673,"▁hate":7674,"▁mikoro":7675,"▁ahaza":7676,"▁hop":7677,"▁nur":7678,"gurutse":7679,"tangirwa":7680,"▁didier":7681,"▁uzajya":7682,"▁idatta":7683,"▁idattachment":7684,"▁P":7685,"▁agize":7686,"guze":7687,"▁bute":7688,"▁amadorali":7689,"▁rurangi":7690,"▁zigiye":7691,"▁kwimura":7692,"▁wavuze":7693,"▁niki":7694,"val":7695,"wundi":7696,"buraya":7697,"▁w’itorero":7698,"▁ntibu":7699,"akazi":7700,"▁w’umwaka":7701,"▁y’abi":7702,"ganiraga":7703,"risto":7704,"▁gor":7705,"▁n’urukundo":7706,"▁aust":7707,"▁love":7708,"▁premi":7709,"▁esperance":7710,"▁alignalignnone":7711,"aga":7712,"▁bacitse":7713,"▁yahuje":7714,"▁yagiriye":7715,"▁mutesi":7716,"fate":7717,"▁maze":7718,"▁impaka":7719,"▁sindi":7720,"▁icyuma":7721,"▁cyarangiye":7722,"▁ukumva":7723,"▁desi":7724,"▁urwango":7725,"▁bw’umurenge":7726,"hanitse":7727,"▁munyankindi":7728,"hohotera":7729,"▁ful":7730,"▁twumva":7731,"frika":7732,"▁D":7733,"rekani":7734,"mahoro":7735,"kuboza":7736,"mene":7737,"vugira":7738,"▁busu":7739,"duza":7740,"▁n’urwa":7741,"leone":7742,"▁midugudu":7743,"▁akajagari":7744,"▁cyateguwe":7745,"▁w’im":7746,"shyingura":7747,"mpin":7748,"▁mwarimu":7749,"stine":7750,"▁by’amashuri":7751,"▁south":7752,"▁bizimungu":7753,"hindagurikire":7754,"▁smart":7755,"▁iciriritse":7756,"▁barwayi":7757,"▁yakoranye":7758,"▁injyana":7759,"▁habura":7760,"▁kabeho":7761,"▁ububa":7762,"ler":7763,"▁wagiye":7764,"▁icyamamare":7765,"▁n’abaganga":7766,"▁baravuga":7767,"kenerwa":7768,"wongera":7769,"▁afro":7770,"▁mane":7771,"▁turaba":7772,"▁musabyimana":7773,"sivili":7774,"▁baririmbanye":7775,"bwani":7776,"▁ivuye":7777,"▁ishingiye":7778,"main":7779,"▁yashakaga":7780,"▁money":7781,"▁inyarwanda":7782,"▁abafatanyabikorwa":7783,"▁w’abanyarwanda":7784,"sangiye":7785,"shimiwe":7786,"loma":7787,"▁guhamagara":7788,"▁yewe":7789,"irobi":7790,"herekeza":7791,"▁byemewe":7792,"▁twabitangarijwe":7793,"tandukaniro":7794,"▁2":7795,"▁atwite":7796,"zig":7797,"zerwa":7798,"▁yajya":7799,"▁mutoza":7800,"▁intwari":7801,"kinyamakuru":7802,"▁zikoreshwa":7803,"▁way":7804,"kuntu":7805,"▁bank":7806,"▁korana":7807,"shimire":7808,"▁bataba":7809,"▁batabasha":7810,"▁z’icyunamo":7811,"▁lionel":7812,"▁cyiswe":7813,"▁bicamu":7814,"herekejwe":7815,"▁yasubije":7816,"▁nzahabwani":7817,"▁laptop":7818,"▁nzahabwanimana":7819,"tch":7820,"▁itangwa":7821,"▁ifatanyije":7822,"▁uwan":7823,"▁barokotse":7824,"▁yashatse":7825,"▁mugesera":7826,"▁muvunyi":7827,"▁n’icya":7828,"▁mishya":7829,"▁yitaba":7830,"rikira":7831,"ceri":7832,"▁buriya":7833,"▁n’inyungu":7834,"▁cy’ihinga":7835,"garagazaga":7836,"▁nk’abantu":7837,"▁bakize":7838,"▁anasta":7839,"▁isla":7840,"▁by’ubuzima":7841,"babaje":7842,"▁hegitali":7843,"▁ndoli":7844,"▁w’akagari":7845,"▁kunyereza":7846,"▁bicamumpaka":7847,"ee":7848,"stan":7849,"▁Y":7850,"▁babura":7851,"buryo":7852,"▁bimenyerewe":7853,"▁yam":7854,"▁yazi":7855,"▁mine":7856,"semburo":7857,"kubwa":7858,"tiriye":7859,"▁abahagarariye":7860,"▁gaciro":7861,"▁nairobi":7862,"▁dubai":7863,"▁n’abanyamahanga":7864,"▁n’interahamwe":7865,"▁bitemewe":7866,"▁ten":7867,"tangirira":7868,"▁bavugaga":7869,"▁manota":7870,"lympi":7871,"hanishwa":7872,"▁imyanda":7873,"kanguriye":7874,"gb":7875,"hh":7876,"jinya":7877,"ance":7878,"▁ngara":7879,"sengu":7880,"▁hada":7881,"▁gishanga":7882,"▁kwifashisha":7883,"▁kwiyubakira":7884,"▁y’imyi":7885,"▁twinshi":7886,"vaga":7887,"▁n’abasore":7888,"▁n’amahoro":7889,"▁w’uwo":7890,"yambarire":7891,"tsindira":7892,"▁rirambye":7893,"▁ministries":7894,"▁premier":7895,"aa":7896,"▁ameri":7897,"▁ujye":7898,"▁barindwi":7899,"guro":7900,"rukanwa":7901,"▁bio":7902,"▁cnd":7903,"▁gushimira":7904,"▁gukomera":7905,"hume":7906,"▁burezi":7907,"▁bugamije":7908,"▁abacuruza":7909,"▁abaguzi":7910,"▁ibihangano":7911,"kekwa":7912,"▁rikuru":7913,"ters":7914,"vanwa":7915,"vange":7916,"garagayemo":7917,"▁uduce":7918,"▁mwese":7919,"▁communi":7920,"▁y’akagera":7921,"▁guhomba":7922,"▁ashimira":7923,"▁acuruza":7924,"▁njyanama":7925,"yabuzima":7926,"baze":7927,"tabwaho":7928,"dis":7929,"▁umushinjacyaha":7930,"vuguru":7931,"▁bumenyi":7932,"▁kilometero":7933,"▁ubushyuhe":7934,"towe":7935,"▁kanda":7936,"▁y’ib":7937,"gerero":7938,"▁bwara":7939,"putu":7940,"▁bakagira":7941,"▁olympi":7942,"▁hip":7943,"▁kubigisha":7944,"▁b’abanya":7945,"mpama":7946,"▁byerekana":7947,"rusiya":7948,"▁atraco":7949,"▁byanze":7950,"▁ireme":7951,"▁itegamiye":7952,"▁samputu":7953,"minega":7954,"▁nel":7955,"▁basha":7956,"▁baririmbyi":7957,"senye":7958,"▁gitu":7959,"▁kabiligi":7960,"▁ibireti":7961,"▁zituruka":7962,"▁nawo":7963,"▁tujya":7964,"korwaga":7965,"▁riherereye":7966,"▁icyumba":7967,"mbuzi":7968,"▁bw’imi":7969,"▁bibaho":7970,"▁rw’abakobwa":7971,"▁abra":7972,"▁yubatse":7973,"▁william":7974,"op":7975,"▁ally":7976,"▁nsengero":7977,"mamara":7978,"▁bakinira":7979,"▁bagendeye":7980,"karengane":7981,"sion":7982,"lima":7983,"▁kamwe":7984,"ganyije":7985,"▁n’umwaka":7986,"▁equ":7987,"▁ikirego":7988,"▁imirire":7989,"▁urukingo":7990,"▁frano":7991,"▁joe":7992,"▁iyitwa":7993,"▁bibafasha":7994,"▁w’ubucuruzi":7995,"▁ndizihiwe":7996,"▁azize":7997,"▁muzagira":7998,"▁tuyisenge":7999,"fungiwe":8000,"▁n’agahinda":8001,"▁kavumu":8002,"▁gore":8003,"baro":8004,"bajwe":8005,"▁batangaza":8006,"zewe":8007,"▁bitwara":8008,"▁bisabwa":8009,"▁mukin":8010,"mesha":8011,"vubi":8012,"▁rugero":8013,"▁akato":8014,"▁yishimira":8015,"▁rishingiye":8016,"bwiza":8017,"▁banyi":8018,"garije":8019,"▁jour":8020,"▁byibasiye":8021,"▁y’umurenge":8022,"▁shaddy":8023,"lingi":8024,"▁yinjije":8025,"▁zingana":8026,"▁mafisango":8027,"▁ameze":8028,"▁atekereza":8029,"riko":8030,"▁bazo":8031,"▁bayin":8032,"▁yagenewe":8033,"▁ryan":8034,"vuta":8035,"tian":8036,"▁abagi":8037,"yanye":8038,"▁hadi":8039,"▁amara":8040,"▁kigaragaza":8041,"▁kampani":8042,"▁zimbabwe":8043,"▁wahuje":8044,"▁byafasha":8045,"via":8046,"▁n’ababa":8047,"▁bwatangiye":8048,"▁satani":8049,"▁rwabaye":8050,"▁batabi":8051,"ryamye":8052,"▁moringa":8053,"▁bavugako":8054,"▁alpha":8055,"▁burugume":8056,"▁y’ingoboka":8057,"▁just":8058,"▁chame":8059,"▁afrique":8060,"venu":8061,"mpano":8062,"▁barebe":8063,"boneraho":8064,"ssein":8065,"▁yahembwe":8066,"▁penaliti":8067,"pro":8068,"yri":8069,"▁iherutse":8070,"▁uya":8071,"▁biciro":8072,"▁yakunze":8073,"▁gusoho":8074,"sitani":8075,"▁ryose":8076,"▁buzaba":8077,"▁intanga":8078,"▁amaseti":8079,"▁ubugenzacyaha":8080,"▁zimu":8081,"▁byacu":8082,"▁yigisha":8083,"▁urun":8084,"jyamo":8085,"▁n’abatoza":8086,"riyemo":8087,"▁ataba":8088,"▁kwereka":8089,"▁gutega":8090,"▁ndahiro":8091,"sigaranye":8092,"▁kunyura":8093,"▁mukaminega":8094,"▁cy’amashuri":8095,"mugayo":8096,"▁comment":8097,"▁mutibagirana":8098,"▁n’abanyamuryango":8099,"▁jonathan":8100,"▁gasogi":8101,"▁koranabuhanga":8102,"phine":8103,"▁igwa":8104,"▁ikoresha":8105,"▁itegura":8106,"▁utaba":8107,"▁bagura":8108,"▁baruwa":8109,"ruganda":8110,"▁birinda":8111,"▁gufatirwa":8112,"wanwa":8113,"▁abakundana":8114,"▁n’abikorera":8115,"dou":8116,"▁naryo":8117,"▁eli":8118,"▁imiyoborere":8119,"▁sona":8120,"hindi":8121,"kabahizi":8122,"caye":8123,"velo":8124,"▁n’inama":8125,"shijeho":8126,"ller":8127,"▁rwigamba":8128,"mamare":8129,"sengimana":8130,"▁k’a":8131,"▁nkikabahizi":8132,"▁mrnd":8133,"hini":8134,"▁alo":8135,"▁akoze":8136,"gabanuka":8137,"▁batsinze":8138,"▁bafungiye":8139,"▁yasize":8140,"▁myan":8141,"▁abazungu":8142,"▁kidu":8143,"▁makosa":8144,"▁mahia":8145,"▁wasa":8146,"▁micro":8147,"rangajwe":8148,"▁icyongereza":8149,"▁ahagije":8150,"jumbura":8151,"▁yerekeje":8152,"▁y’indege":8153,"▁b’imi":8154,"▁vdaste":8155,"▁nkaho":8156,"▁mpanga":8157,"▁banditse":8158,"shyikirijwe":8159,"▁n’imyitwarire":8160,"▁nicode":8161,"▁photo":8162,"▁fulgence":8163,"baho":8164,"▁ukoresha":8165,"▁baherutse":8166,"▁bavandimwe":8167,"▁yaka":8168,"▁mukozi":8169,"wisi":8170,"bandwa":8171,"▁abatara":8172,"▁mahano":8173,"himba":8174,"bereka":8175,"▁kanye":8176,"▁wahawe":8177,"▁emi":8178,"▁imirwano":8179,"▁imirambo":8180,"▁ntambwe":8181,"▁politike":8182,"mbutse":8183,"▁mobile":8184,"mwimerere":8185,"▁libya":8186,"▁juve":8187,"▁isoni":8188,"▁mugiraneza":8189,"herekeje":8190,"▁gusezera":8191,"▁kubohora":8192,"dd":8193,"sla":8194,"tsura":8195,"▁byin":8196,"▁ihari":8197,"risha":8198,"yahuye":8199,"▁ukeneye":8200,"▁umuhanga":8201,"▁gitekerezo":8202,"▁rugeze":8203,"▁ubukana":8204,"yoborwa":8205,"▁eme":8206,"▁dushaka":8207,"▁y’abakozi":8208,"▁bou":8209,"twere":8210,"▁calli":8211,"vano":8212,"▁manira":8213,"▁indaya":8214,"▁rutabana":8215,"▁nkengero":8216,"▁xa":8217,"sabiye":8218,"spel":8219,"▁samuel":8220,"nzwe":8221,"ndwa":8222,"ption":8223,"tzig":8224,"▁byumba":8225,"▁igura":8226,"▁ijyanye":8227,"▁ikwirakwizwa":8228,"▁asu":8229,"shwana":8230,"▁bakurikirana":8231,"▁bashumba":8232,"▁bakwiriye":8233,"yoro":8234,"▁yabonaga":8235,"▁cro":8236,"▁rt":8237,"▁ababwira":8238,"▁gituma":8239,"▁gitaha":8240,"▁kamu":8241,"▁kabanda":8242,"▁ibihingwa":8243,"▁tugeze":8244,"▁yifashishije":8245,"▁ton":8246,"▁ry’abanyarwanda":8247,"▁icyifuzo":8248,"▁bahurira":8249,"▁inararibonye":8250,"▁koreya":8251,"▁abraham":8252,"’a":8253,"▁azamu":8254,"▁amwi":8255,"▁asubira":8256,"▁uhita":8257,"gema":8258,"geyo":8259,"yiko":8260,"▁gupima":8261,"tif":8262,"miwe":8263,"▁rupfu":8264,"tors":8265,"▁kanyankore":8266,"▁abanduye":8267,"▁pasi":8268,"tinyuka":8269,"▁y’abatutsi":8270,"▁y’ubufatanye":8271,"▁uwamu":8272,"vanye":8273,"▁y’afurika":8274,"▁rwiza":8275,"cky":8276,"▁biragoye":8277,"lus":8278,"▁foto":8279,"▁kevin":8280,"▁karegeya":8281,"▁by’afurika":8282,"▁gitifu":8283,"▁vision":8284,"▁habimana":8285,"▁kini":8286,"▁uhora":8287,"zen":8288,"▁bifitanye":8289,"▁bikurikira":8290,"▁yatsinda":8291,"▁hatangiye":8292,"▁havugwa":8293,"hane":8294,"▁rushobora":8295,"▁n’imbaraga":8296,"▁tuna":8297,"▁urundi":8298,"▁urugaga":8299,"’ubu":8300,"▁dusanga":8301,"▁agatoki":8302,"▁bazakora":8303,"▁by’igihugu":8304,"kinaga":8305,"▁somali":8306,"▁birumvikana":8307,"▁hazabaho":8308,"▁d’a":8309,"▁iserukiramuco":8310,"▁diyosezi":8311,"dra":8312,"▁ue":8313,"yeri":8314,"▁mvugo":8315,"▁n’indirimbo":8316,"▁muhire":8317,"rohereza":8318,"▁rca":8319,"mejwe":8320,"▁umuha":8321,"▁abasaga":8322,"yane":8323,"▁rurimo":8324,"himbaza":8325,"▁imisozi":8326,"mboye":8327,"manywa":8328,"▁twahirwa":8329,"▁nyayo":8330,"▁kubitsa":8331,"▁domini":8332,"▁baturanye":8333,"▁baturanyi":8334,"▁yemereye":8335,"yangamugayo":8336,"▁korora":8337,"▁harerimana":8338,"▁impeta":8339,"▁impamyabumenyi":8340,"▁franois":8341,"bra":8342,"▁utwo":8343,"tayu":8344,"hagera":8345,"damu":8346,"tient":8347,"hantu":8348,"▁ubuziranenge":8349,"▁kwigaragaza":8350,"▁byazamutse":8351,"yinya":8352,"▁zatangiye":8353,"▁cyakora":8354,"▁n’ubuhinzi":8355,"▁bitaga":8356,"▁uturuka":8357,"▁kuvamo":8358,"▁hussein":8359,"▁youth":8360,"yambaje":8361,"▁mpano":8362,"garutseho":8363,"▁kuzura":8364,"▁jackson":8365,"▁pascaline":8366,"sso":8367,"▁akurikiran":8368,"▁arangije":8369,"kamere":8370,"yurwa":8371,"▁kwiyamamaza":8372,"dosiye":8373,"▁sco":8374,"▁yavuzeko":8375,"▁aratangaza":8376,"▁tekini":8377,"▁w’uyu":8378,"▁fide":8379,"▁twebwe":8380,"▁umuririmbyikazi":8381,"ryoherwa":8382,"juririra":8383,"zzaville":8384,"▁anastase":8385,"▁burugumesitiri":8386,"ngana":8387,"▁ihohoterwa":8388,"▁nsanganyamatsiko":8389,"remwa":8390,"▁bazamu":8391,"▁bazanye":8392,"▁bariyeri":8393,"▁kurenza":8394,"▁big":8395,"▁bijya":8396,"▁bikorera":8397,"▁bishyu":8398,"sitora":8399,"kuta":8400,"▁abaturarwanda":8401,"heli":8402,"▁amasengesho":8403,"▁kabare":8404,"▁imyu":8405,"▁n’utu":8406,"▁kanyu":8407,"▁kwihangana":8408,"▁wambaye":8409,"▁naku":8410,"▁nathan":8411,"▁rap":8412,"nick":8413,"▁twizeye":8414,"raniro":8415,"▁nkambi":8416,"▁mwuka":8417,"simburwa":8418,"hindagurika":8419,"▁sheikh":8420,"▁rurangirwa":8421,"▁somalia":8422,"ac":8423,"anira":8424,"▁ibura":8425,"▁aseze":8426,"▁afatwa":8427,"▁ngomba":8428,"▁ball":8429,"rusheho":8430,"habi":8431,"burg":8432,"▁umugenzi":8433,"▁y’abanya":8434,"▁rutunganya":8435,"▁zizi":8436,"▁n’abayi":8437,"teraga":8438,"▁w’umuryango":8439,"▁y’umuntu":8440,"▁twizerimana":8441,"▁rwitwa":8442,"▁gospel":8443,"▁bagifite":8444,"▁Ku":8445,"spa":8446,"▁urwanda":8447,"shywe":8448,"tawe":8449,"▁murenzi":8450,"herwe":8451,"▁masengesho":8452,"▁byateye":8453,"yongeye":8454,"▁imishahara":8455,"▁imirima":8456,"▁ibye":8457,"▁bani":8458,"▁buriri":8459,"▁rev":8460,"▁n’inzobere":8461,"▁anani":8462,"kiriho":8463,"▁y’abakobwa":8464,"▁y’umukobwa":8465,"shyingi":8466,"mwasa":8467,"▁festi":8468,"genderaho":8469,"tumizwa":8470,"giritse":8471,"▁k’ibi":8472,"▁inzitizi":8473,"▁mbonyi":8474,"▁amikoro":8475,"▁juvenal":8476,"osu":8477,"▁agezweho":8478,"rebwa":8479,"▁bafasha":8480,"▁bigezweho":8481,"▁yasoje":8482,"▁bumu":8483,"▁bujura":8484,"▁kikaza":8485,"▁rugira":8486,"dutangarije":8487,"▁kabera":8488,"▁ibikorerwa":8489,"▁imbwa":8490,"▁n’izo":8491,"▁n’isuku":8492,"sante":8493,"▁igihumbi":8494,"▁migi":8495,"▁tube":8496,"▁yiyongera":8497,"’umu":8498,"▁rishobora":8499,"hina":8500,"ngakamere":8501,"▁nk’uwa":8502,"jijo":8503,"▁n’amahirwe":8504,"▁regi":8505,"▁hon":8506,"▁bitekere":8507,"▁develo":8508,"▁bahatuye":8509,"▁byiyongera":8510,"▁nk’iyo":8511,"▁binjira":8512,"▁b’ikipe":8513,"▁w’amashanyarazi":8514,"▁kuzitabira":8515,"▁ubwu":8516,"▁cy’amafaranga":8517,"▁Umu":8518,"▁christian":8519,"▁baguze":8520,"▁floyd":8521,"uard":8522,"kubwabo":8523,"ghan":8524,"rsu":8525,"▁biciye":8526,"▁yabonetse":8527,"▁gusobanura":8528,"▁gushimangira":8529,"romo":8530,"▁umugabane":8531,"hure":8532,"bes":8533,"▁amafunguro":8534,"▁gikondo":8535,"sobe":8536,"toje":8537,"king":8538,"▁n’akazi":8539,"▁mico":8540,"▁mitungo":8541,"douard":8542,"tswa":8543,"▁kubakira":8544,"▁n’abafite":8545,"▁agakingirizo":8546,"▁coge":8547,"▁n’amashanyarazi":8548,"onia":8549,"rasire":8550,"▁b’igihugu":8551,"▁kunganya":8552,"▁komiseri":8553,"▁bw’umuryango":8554,"pfiriye":8555,"▁uefa":8556,"fc":8557,"▁yine":8558,"▁afungiye":8559,"▁ukoresheje":8560,"▁urwaye":8561,"wacu":8562,"▁bihangano":8563,"▁yagejeje":8564,"▁yafunguye":8565,"▁rba":8566,"▁inyu":8567,"▁hafatwa":8568,"torwa":8569,"dorari":8570,"▁akaru":8571,"▁er":8572,"shobotse":8573,"▁patient":8574,"▁gusambanya":8575,"shyami":8576,"▁sai":8577,"▁cote":8578,"▁yanen":8579,"ryamana":8580,"shyushya":8581,"▁bakazajya":8582,"▁n’uwari":8583,"rwanaho":8584,"▁kidasanzwe":8585,"▁azana":8586,"▁kuboneza":8587,"tanti":8588,"huriza":8589,"sazi":8590,"▁gicamunsi":8591,"▁mazina":8592,"▁kwibohora":8593,"▁waririmbye":8594,"cuza":8595,"▁y’icyiciro":8596,"carubozo":8597,"▁umwanda":8598,"gerejwe":8599,"▁yarayi":8600,"▁y’abagize":8601,"▁twigire":8602,"▁rwihaye":8603,"▁supe":8604,"▁cyerekezo":8605,"▁muhabura":8606,"subiramo":8607,"▁hakabaho":8608,"▁ibyiciro":8609,"▁marine":8610,"▁paccy":8611,"▁gusenywa":8612,"▁rutembe":8613,"▁ngororamubiri":8614,"ij":8615,"iki":8616,"lya":8617,"xte":8618,"▁gan":8619,"▁asabwa":8620,"▁ndan":8621,"▁bameze":8622,"gunge":8623,"▁bijyana":8624,"▁yagerageje":8625,"▁bugera":8626,"▁abaya":8627,"ranywe":8628,"▁gihari":8629,"▁ruban":8630,"ker":8631,"▁zitera":8632,"▁zigomba":8633,"▁naje":8634,"peti":8635,"▁fren":8636,"shege":8637,"▁n’abakunzi":8638,"▁bw’abanyarwanda":8639,"menyekanisha":8640,"▁ahawe":8641,"▁n’ubukerarugendo":8642,"▁bwihuse":8643,"▁byibura":8644,"▁byibuze":8645,"▁cyera":8646,"▁aime":8647,"▁mirima":8648,"generwabikorwa":8649,"hazabu":8650,"▁confederation":8651,"▁bitekerezo":8652,"rahi":8653,"▁ateganya":8654,"baka":8655,"basiwe":8656,"▁batana":8657,"yomo":8658,"bose":8659,"▁indu":8660,"▁kabuga":8661,"twawe":8662,"▁kwikura":8663,"▁niwo":8664,"▁byatanzwe":8665,"▁byavuzwe":8666,"▁ed":8667,"▁yigenga":8668,"▁rinini":8669,"cafa":8670,"koreshaga":8671,"▁bagakomeza":8672,"rengagiza":8673,"▁kumubwira":8674,"▁camp":8675,"▁mega":8676,"funguwe":8677,"▁n’uruza":8678,"▁aturutse":8679,"▁hakiyongeraho":8680,"zengurutse":8681,"▁tennis":8682,"▁festival":8683,"avuga":8684,"bri":8685,"mfura":8686,"▁shoferi":8687,"▁uwera":8688,"▁bahanganye":8689,"dashyikirwa":8690,"▁yaboneyeho":8691,"▁gukin":8692,"▁gutinda":8693,"▁umusirikare":8694,"▁amaguru":8695,"▁kariya":8696,"▁gatera":8697,"▁turebe":8698,"▁bataha":8699,"fatabuguzi":8700,"▁ndashimira":8701,"▁ibyari":8702,"singi":8703,"▁babivuga":8704,"▁rw’imi":8705,"▁robo":8706,"▁kuvurwa":8707,"▁bagerageza":8708,"▁w’abaturage":8709,"ndera":8710,"▁zanyu":8711,"▁serge":8712,"▁cecafa":8713,"▁ibiceri":8714,"▁malawi":8715,"▁jimmy":8716,"banziriza":8717,"▁nzabonimana":8718,"cyamamare":8719,"yejana":8720,"koso":8721,"yirizwa":8722,"▁umusaza":8723,"▁bur":8724,"moso":8725,"mour":8726,"▁ruhu":8727,"▁igite":8728,"▁abanyama":8729,"▁mister":8730,"tangariza":8731,"yoboka":8732,"▁rigamije":8733,"▁jenda":8734,"▁season":8735,"▁agaruka":8736,"▁yaragize":8737,"▁yegukana":8738,"▁nk’iyi":8739,"▁yakoreshejwe":8740,"erry":8741,"▁y’ingengo":8742,"ald":8743,"vugwaga":8744,"▁kizajya":8745,"▁keretse":8746,"▁kurushinga":8747,"▁rw’ubuzima":8748,"▁rw’ubugenzacyaha":8749,"▁phili":8750,"twererane":8751,"▁callixte":8752,"▁develop":8753,"ginya":8754,"ia":8755,"▁ifunguro":8756,"▁uwin":8757,"▁uhuza":8758,"mubwira":8759,"korano":8760,"girango":8761,"zerere":8762,"bugenewe":8763,"▁bitangwa":8764,"▁gukundwa":8765,"rome":8766,"▁kagabo":8767,"kero":8768,"keke":8769,"▁twasanze":8770,"▁bakabasha":8771,"murage":8772,"▁bikabije":8773,"▁mukaru":8774,"▁nshyashya":8775,"▁bw’indege":8776,"▁murugo":8777,"▁inyigo":8778,"pong":8779,"▁busuwisi":8780,"▁french":8781,"-a":8782,"fre":8783,"gm":8784,"▁itandukaniro":8785,"▁ajye":8786,"▁atangiye":8787,"▁afungura":8788,"▁uheruka":8789,"▁bateye":8790,"▁bafatwa":8791,"▁kubeshya":8792,"yisha":8793,"▁bidu":8794,"▁yaro":8795,"▁yagaban":8796,"▁gutangwa":8797,"vuge":8798,"▁abashe":8799,"▁abasigajwe":8800,"hembe":8801,"▁n’uwitwa":8802,"▁wakora":8803,"▁yishyura":8804,"▁giherereye":8805,"▁cyawe":8806,"▁bwagiye":8807,"▁n’ingamba":8808,"boneke":8809,"▁yere":8810,"▁bw’ibanze":8811,"▁twifashishije":8812,"▁mwalimu":8813,"jiramo":8814,"▁anavuga":8815,"▁yasohotse":8816,"▁salon":8817,"▁ikizamini":8818,"▁turqu":8819,"kristu":8820,"ngwa":8821,"gisi":8822,"▁bahereye":8823,"▁kuyo":8824,"zegukana":8825,"▁csk":8826,"▁buyapani":8827,"▁gifu":8828,"▁kalin":8829,"sojwe":8830,"▁n’ihazabu":8831,"▁kwiha":8832,"▁kwigarurira":8833,"▁wayoboye":8834,"▁byageze":8835,"nerali":8836,"▁ibrahi":8837,"▁n’abasirikare":8838,"▁zavuye":8839,"▁w’iyo":8840,"▁w’icyumweru":8841,"▁twakoze":8842,"▁bakaya":8843,"▁del":8844,"▁y’abacitse":8845,"▁yababwiye":8846,"▁tou":8847,"▁y’umujyi":8848,"▁icyatumye":8849,"rangire":8850,"▁umunyamerika":8851,"▁murasabwa":8852,"▁inaha":8853,"▁yatubwiye":8854,"▁kubyaza":8855,"banjirije":8856,"▁development":8857,"ika":8858,"ice":8859,"mwan":8860,"baru":8861,"▁bikoresha":8862,"▁yaki":8863,"▁mukora":8864,"dika":8865,"▁hasu":8866,"▁kangana":8867,"▁igisigaye":8868,"▁warangiye":8869,"▁tuti":8870,"vio":8871,"▁gihembo":8872,"▁zatumye":8873,"▁por":8874,"▁rwacu":8875,"mbuto":8876,"ryayo":8877,"▁kumubona":8878,"▁soma":8879,"▁cyita":8880,"▁utazi":8881,"kunguka":8882,"yandika":8883,"▁nyiramu":8884,"▁bahungira":8885,"▁cy’amategeko":8886,"▁lodge":8887,"▁impuguke":8888,"▁arena":8889,"▁mukangoga":8890,"shyikirije":8891,"▁guhemba":8892,"▁inyigisho":8893,"▁tw’igihugu":8894,"▁kuryama":8895,"▁rwagaju":8896,"▁uzamukunda":8897,"ars":8898,"phi":8899,"▁birangira":8900,"▁yarangiye":8901,"sita":8902,"▁ryu":8903,"vugiye":8904,"▁buha":8905,"▁intore":8906,"yandura":8907,"▁amadini":8908,"▁amadolari":8909,"tsemba":8910,"▁ubushize":8911,"▁gala":8912,"zukuru":8913,"▁stro":8914,"▁komine":8915,"▁begukanye":8916,"▁bizagenda":8917,"▁yahamaga":8918,"▁kuburani":8919,"▁utundi":8920,"▁iwayo":8921,"▁ziriya":8922,"▁rwangombwa":8923,"▁amande":8924,"▁brown":8925,"subukurwa":8926,"▁mpita":8927,"▁evariste":8928,"▁tpir":8929,"bre":8930,"▁nsanga":8931,"▁bareba":8932,"▁bagaragaye":8933,"▁yabyi":8934,"▁yazanye":8935,"▁butuma":8936,"▁ineza":8937,"sagara":8938,"▁gisanzwe":8939,"▁wabyo":8940,"dozi":8941,"▁ikirenge":8942,"▁rigira":8943,"▁rishya":8944,"byemeza":8945,"▁agahigo":8946,"▁ataha":8947,"▁revenu":8948,"▁omar":8949,"▁gutegereza":8950,"▁green":8951,"▁die":8952,"▁kugirira":8953,"▁nyamabuye":8954,"▁utagira":8955,"▁ubwiherero":8956,"▁icyicaro":8957,"▁iby’a":8958,"▁bonyine":8959,"▁y’ikigo":8960,"▁rudahunga":8961,"nganizi":8962,"▁sarpong":8963,"▁mukindo":8964,"▁itegurwa":8965,"▁ng":8966,"bakira":8967,"▁yakuye":8968,"▁gusangira":8969,"kuko":8970,"dehe":8971,"▁hashobora":8972,"▁gitera":8973,"ganzo":8974,"▁maka":8975,"toye":8976,"▁igisirikare":8977,"cungira":8978,"▁ikibuga":8979,"noze":8980,"riyeho":8981,"▁n’uburenganzira":8982,"mbuwe":8983,"mple":8984,"▁n’impamvu":8985,"▁udupfukamunwa":8986,"tumiwemo":8987,"▁gisaka":8988,"roheje":8989,"▁guhagararira":8990,"▁kurangura":8991,"▁islam":8992,"sc":8993,"sper":8994,"’aba":8995,"▁ipa":8996,"▁atera":8997,"▁ubonye":8998,"▁gukubita":8999,"tizo":9000,"▁buhagaze":9001,"▁hati":9002,"▁amacumbi":9003,"▁n’isi":9004,"higa":9005,"sangiza":9006,"cupa":9007,"zure":9008,"▁kubamo":9009,"▁ntamu":9010,"▁by’akarere":9011,"▁itabi":9012,"▁z’uko":9013,"▁roho":9014,"▁bidatinze":9015,"▁ukunzwe":9016,"▁cyber":9017,"stitu":9018,"▁yaguze":9019,"▁yicaye":9020,"hwema":9021,"▁asimbuye":9022,"▁america":9023,"ingenzi":9024,"▁bakangurira":9025,"biba":9026,"haguru":9027,"tezwa":9028,"tembere":9029,"▁bitandatu":9030,"▁yafata":9031,"roka":9032,"▁ruguru":9033,"▁rugerero":9034,"▁erega":9035,"▁rica":9036,"▁icyangombwa":9037,"sobanukiwe":9038,"▁ryakozwe":9039,"tangiwe":9040,"▁w’umutekano":9041,"▁w’uburaya":9042,"▁life":9043,"▁kuvugisha":9044,"▁gicuti":9045,"▁nk’umun":9046,"▁kwangiza":9047,"▁gucukura":9048,"▁n’umunyamakuru":9049,"▁noella":9050,"▁ijerekani":9051,"▁fidele":9052,"▁umututsi":9053,"▁abatanga":9054,"▁kabi":9055,"▁ubucukuzi":9056,"▁ubucuti":9057,"▁makimbirane":9058,"lenge":9059,"▁nation":9060,"▁hariho":9061,"▁rimaze":9062,"▁witabiriwe":9063,"▁cor":9064,"▁bwisungane":9065,"▁ndimo":9066,"▁abanyamu":9067,"▁y’igicuri":9068,"▁josee":9069,"▁niyonsaba":9070,"▁z’abaturage":9071,"▁agukunda":9072,"▁thierry":9073,"▁chameleone":9074,"▁aloys":9075,"fone":9076,"anga":9077,"▁atin":9078,"rine":9079,"zaga":9080,"dashi":9081,"▁umushumba":9082,"hemba":9083,"▁n’iza":9084,"▁kwima":9085,"▁arizo":9086,"▁edouard":9087,"▁y’icyo":9088,"menyo":9089,"▁n’ubutumwa":9090,"aniye":9091,"▁bagarutse":9092,"sigaro":9093,"tyoza":9094,"▁ven":9095,"▁wujuje":9096,"▁sugira":9097,"▁station":9098,"kubiyemo":9099,"tsapp":9100,"▁yanavuze":9101,"▁isuzu":9102,"▁argen":9103,"▁urabona":9104,"▁guhiga":9105,"▁gucuranga":9106,"hanirwa":9107,"▁pastor":9108,"▁qubec":9109,"▁brazzaville":9110,"yabupfura":9111,"▁australia":9112,"oise":9113,"xel":9114,"▁igendanwa":9115,"▁azira":9116,"kata":9117,"▁bishyimbo":9118,"▁yakiriwe":9119,"kuzi":9120,"kumwe":9121,"▁umucamanza":9122,"▁abashakanye":9123,"▁abasenateri":9124,"▁hakozwe":9125,"▁rujya":9126,"▁wahinze":9127,"gwamo":9128,"▁rihuza":9129,"▁sp":9130,"▁sty":9131,"▁n’abashoramari":9132,"▁leone":9133,"▁bwabyo":9134,"▁rwabi":9135,"▁bemera":9136,"▁jean-":9137,"▁babarirwa":9138,"▁ibara":9139,"▁n’imiyoborere":9140,"▁ukabi":9141,"▁ry’uru":9142,"byinnyi":9143,"▁play":9144,"rwanashyaka":9145,"▁nyirizina":9146,"▁by’ibishyimbo":9147,"▁w’igicuri":9148,"▁mpana":9149,"humekero":9150,"nen":9151,"▁ateka":9152,"▁areba":9153,"▁akeka":9154,"gas":9155,"▁utwa":9156,"▁bako":9157,"▁bagana":9158,"▁bagenerwa":9159,"▁bikenewe":9160,"▁bigaragazwa":9161,"▁mushobora":9162,"▁umunezero":9163,"time":9164,"▁rube":9165,"▁ibirego":9166,"▁kwiyandikisha":9167,"▁misigaro":9168,"▁tugira":9169,"▁y’iyo":9170,"▁cyahoze":9171,"▁table":9172,"▁w’ikinyamakuru":9173,"▁obed":9174,"zamuye":9175,"▁yanduye":9176,"nior":9177,"gurube":9178,"▁yabajijwe":9179,"tangizwa":9180,"stone":9181,"▁y’umuco":9182,"▁cyilima":9183,"tabariza":9184,"▁mwami":9185,"▁mbaraga":9186,"▁kuzirikana":9187,"▁k’ukuboza":9188,"▁unique":9189,"▁Ubu":9190,"▁masomo":9191,"▁kamabuye":9192,"lk":9193,"wca":9194,"▁kugaru":9195,"▁yaturutse":9196,"▁gusi":9197,"hore":9198,"▁kamanzi":9199,"▁zigira":9200,"▁kwiyu":9201,"▁byafashwe":9202,"▁imibanire":9203,"▁rizwi":9204,"▁jen":9205,"▁n’abapfakazi":9206,"▁pop":9207,"▁batagi":9208,"▁deo":9209,"▁bagahita":9210,"▁vip":9211,"▁byitezwe":9212,"▁aline":9213,"▁y’umunsi":9214,"▁habaga":9215,"▁manzi":9216,"▁ubarizwa":9217,"▁kuzigama":9218,"▁w’agateganyo":9219,"▁by’umuganda":9220,"▁mwene":9221,"▁mutijima":9222,"▁steve":9223,"▁turquoise":9224,"gre":9225,"▁akorana":9226,"▁bahitamo":9227,"▁kuyinywa":9228,"▁bihari":9229,"▁yaran":9230,"▁mugambi":9231,"sabe":9232,"▁hazi":9233,"▁hakwiye":9234,"▁habereye":9235,"facebook":9236,"▁kiel":9237,"▁kabone":9238,"▁karangwa":9239,"▁cyangugu":9240,"▁navuga":9241,"▁nakoze":9242,"▁y’ub":9243,"▁yitwara":9244,"▁jadf":9245,"▁bajyaga":9246,"magazine":9247,"▁enter":9248,"▁abdu":9249,"▁bongeye":9250,"▁anita":9251,"▁tombola":9252,"hangayikishijwe":9253,"▁wubatse":9254,"▁queen":9255,"▁sindikubwabo":9256,"dashian":9257,"essa":9258,"ffi":9259,"twan":9260,"▁riki":9261,"rah":9262,"▁aran":9263,"▁akin":9264,"▁atyo":9265,"gaju":9266,"▁bafatanya":9267,"▁bakorewe":9268,"gutse":9269,"buhamya":9270,"▁bizamu":9271,"▁yatuma":9272,"▁mucuruzi":9273,"▁muzungu":9274,"kuli":9275,"▁umuyaga":9276,"bantu":9277,"▁ingaragu":9278,"▁karuko":9279,"ongera":9280,"▁rigenga":9281,"▁nkana":9282,"▁nyamwasa":9283,"▁ntiri":9284,"▁witabiriye":9285,"▁dc":9286,"▁rero":9287,"▁ahakana":9288,"▁baracya":9289,"foromo":9290,"▁guhatana":9291,"▁y’amategeko":9292,"▁yenda":9293,"▁kwamamara":9294,"▁bizafasha":9295,"kiniraga":9296,"ventus":9297,"▁france":9298,"▁luc":9299,"▁chantal":9300,"lyayo":9301,"cr":9302,"▁ikorana":9303,"▁isesengura":9304,"▁adi":9305,"▁ube":9306,"▁bakira":9307,"▁bafashwa":9308,"▁bireba":9309,"▁bishingiye":9310,"▁yamwi":9311,"▁gutaramira":9312,"▁abami":9313,"▁abagororwa":9314,"▁mary":9315,"kanira":9316,"▁gasi":9317,"▁wavu":9318,"geraga":9319,"▁nderere":9320,"mbirwa":9321,"patanti":9322,"▁dusin":9323,"gereranyo":9324,"▁paci":9325,"▁baramaze":9326,"▁bakaha":9327,"▁arashaka":9328,"▁ndagukunda":9329,"▁kubivuga":9330,"▁nyamaswa":9331,"▁yabigarutseho":9332,"▁b’iyi":9333,"nderi":9334,"▁ubwonko":9335,"▁nk’aya":9336,"▁kwicara":9337,"▁y’urupfu":9338,"▁n’ubwitabire":9339,"▁isanduku":9340,"▁gitega":9341,"▁igitutu":9342,"aho":9343,"fen":9344,"▁irusha":9345,"▁avan":9346,"▁umenye":9347,"yero":9348,"▁kugurishwa":9349,"rohera":9350,"▁buki":9351,"▁bumvise":9352,"▁ingoro":9353,"▁abahabwa":9354,"▁rugomba":9355,"▁ruju":9356,"yindi":9357,"▁banyuze":9358,"kwita":9359,"▁n’intara":9360,"eline":9361,"▁tech":9362,"mwijima":9363,"▁binyamakuru":9364,"▁gushyiramo":9365,"▁ukabije":9366,"▁emmy":9367,"▁zizakomeza":9368,"▁by’umubiri":9369,"▁christine":9370,"▁rukumbi":9371,"▁k’amafaranga":9372,"▁kardashian":9373,"▁ahanishwa":9374,"▁ukurikije":9375,"▁usengimana":9376,"shwanwa":9377,"▁bagaraga":9378,"ziryayo":9379,"▁bikan":9380,"medical":9381,"huko":9382,"beat":9383,"des":9384,"▁hashyizweho":9385,"fari":9386,"▁ibis":9387,"▁gata":9388,"▁byamamare":9389,"▁akarengane":9390,"▁y’iri":9391,"▁n’abaturanyi":9392,"▁j-ki":9393,"▁agahabwa":9394,"▁dcor":9395,"▁mpungenge":9396,"▁fatizo":9397,"▁alphonse":9398,"erra":9399,"▁baturiye":9400,"▁prosper":9401,"▁w’ubushoferi":9402,"▁barifuza":9403,"▁kuruhuka":9404,"▁ywca":9405,"▁patriots":9406,"▁actis":9407,"shyikirano":9408,"▁nimugoroba":9409,"▁donald":9410,"▁modem":9411,"▁ntawukuli":9412,"▁abakundakawa":9413,"▁indangagaciro":9414,"▁ngarambe":9415,"▁rutembesa":9416,"▁karukogo":9417,"▁ndererehe":9418,"▁j-kid":9419,"▁ntawukulilyayo":9420,"hwanye":9421,"ile":9422,"▁ap":9423,"murirwa":9424,"▁kugendera":9425,"geranye":9426,"yisumbuye":9427,"▁bicuruzwa":9428,"▁yatunguye":9429,"▁rpa":9430,"▁umujinya":9431,"▁bugezweho":9432,"mikoro":9433,"heranwa":9434,"▁ruti":9435,"▁zije":9436,"▁zishyirwa":9437,"furije":9438,"▁byawe":9439,"▁byaturutse":9440,"▁byagarutsweho":9441,"▁ntazi":9442,"ngayire":9443,"▁bwatanzwe":9444,"▁coup":9445,"▁atamu":9446,"guraga":9447,"▁bakagera":9448,"▁beme":9449,"rdc":9450,"▁yuhi":9451,"▁bizabera":9452,"▁cy’amazi":9453,"▁agerageza":9454,"▁korohereza":9455,"▁kwivuriza":9456,"tney":9457,"vani":9458,"▁ito":9459,"▁kutaba":9460,"ten":9461,"yobera":9462,"▁bivuye":9463,"▁mupen":9464,"kumva":9465,"▁buroko":9466,"▁abahutu":9467,"yansi":9468,"▁gitanga":9469,"▁magen":9470,"fique":9471,"mbarwa":9472,"▁byaza":9473,"▁byamaze":9474,"new":9475,"zumuremyi":9476,"▁eto":9477,"▁ikiremwa":9478,"yonyine":9479,"caption":9480,"▁cyatanzwe":9481,"▁w’ishyaka":9482,"▁secon":9483,"▁buriho":9484,"▁kwegereza":9485,"▁boro":9486,"mwica":9487,"shyingurwa":9488,"kubitwa":9489,"▁audi":9490,"▁b’inzego":9491,"▁bubatse":9492,"rongera":9493,"▁myitwarire":9494,"▁yifuzaga":9495,"myuga":9496,"▁kaburimbo":9497,"▁Gu":9498,"▁gushyingura":9499,"▁magendu":9500,"jama":9501,"▁itwaye":9502,"▁ukoze":9503,"▁bazana":9504,"guzwe":9505,"▁kurira":9506,"▁mbonye":9507,"kimana":9508,"▁umuga":9509,"▁bujumbura":9510,"sal":9511,"▁amade":9512,"himbye":9513,"gendwa":9514,"▁cyanjye":9515,"▁kwirebera":9516,"▁mito":9517,"▁nishimwe":9518,"▁kubahirizwa":9519,"shingwa":9520,"▁ntayo":9521,"▁bw’aka":9522,"▁tay":9523,"▁leon":9524,"▁minisante":9525,"▁bitero":9526,"▁berekeje":9527,"▁y’abazize":9528,"prc":9529,"▁hiciwe":9530,"cyaro":9531,"▁ibyabo":9532,"▁yahagaritse":9533,"sirikari":9534,"▁w’amafaranga":9535,"hagarariwe":9536,"▁juventus":9537,"garuriye":9538,"▁marce":9539,"myidagaduro":9540,"▁luanda":9541,"martin":9542,"▁inzibutso":9543,"▁obama":9544,"magazinecom":9545,"zzo":9546,"▁boni":9547,"▁blu":9548,"▁utuma":9549,"munezero":9550,"▁umutoni":9551,"vun":9552,"▁inde":9553,"▁hatari":9554,"▁amabanga":9555,"▁amakarita":9556,"▁kiru":9557,"▁kigera":9558,"▁rubi":9559,"▁ibisasu":9560,"▁ibihuha":9561,"▁n’imvu":9562,"garara":9563,"▁kwihanganira":9564,"▁namba":9565,"▁byagezweho":9566,"▁akaga":9567,"▁e-":9568,"▁yiyahuye":9569,"rent":9570,"▁dy":9571,"▁cy’iminsi":9572,"▁kwemezwa":9573,"▁azabi":9574,"▁bw’ikoranabuhanga":9575,"▁manywa":9576,"▁wange":9577,"hererekane":9578,"fatwaga":9579,"▁bigoranye":9580,"▁time":9581,"shishikarije":9582,"▁Aba":9583,"▁visit":9584,"▁gutunga":9585,"▁iii":9586,"▁vanessa":9587,"▁producer":9588,"▁rubangura":9589,"mwo":9590,"tra":9591,"▁tanu":9592,"▁izamuka":9593,"▁ntekereza":9594,"▁back":9595,"▁barushaho":9596,"▁bikoreshwa":9597,"▁biziyaremye":9598,"▁rgb":9599,"▁ubujurire":9600,"▁zizwi":9601,"▁kwiye":9602,"▁wavuye":9603,"susuru":9604,"▁y’urugendo":9605,"▁tukiri":9606,"yonga":9607,"renganya":9608,"▁son":9609,"pati":9610,"▁duha":9611,"▁dukoresha":9612,"▁dja":9613,"▁rema":9614,"▁bwishyura":9615,"▁nkusi":9616,"▁bikamu":9617,"twikira":9618,"kubiswe":9619,"stau":9620,"▁guhurira":9621,"▁ngewe":9622,"▁ikubiyemo":9623,"▁kurandura":9624,"▁mpanabyaha":9625,"ard":9626,"rra":9627,"▁isengesho":9628,"▁bacika":9629,"▁bigisha":9630,"▁yatangijwe":9631,"▁yabyaye":9632,"▁yavaga":9633,"▁muho":9634,"▁mugezi":9635,"▁gui":9636,"▁ryiza":9637,"▁umumaro":9638,"▁bushoboka":9639,"▁intare":9640,"▁havu":9641,"hiri":9642,"▁kwisobanura":9643,"▁wamaze":9644,"▁nao":9645,"▁y’imbere":9646,"▁fm":9647,"▁yaramaze":9648,"▁bwihariye":9649,"▁meghan":9650,"ring":9651,"▁cyihariye":9652,"▁yahagaritswe":9653,"▁minani":9654,"kodesha":9655,"lon":9656,"▁ugana":9657,"mategeko":9658,"▁babuze":9659,"▁bashimye":9660,"tuku":9661,"▁biva":9662,"▁bihagaze":9663,"▁yakundaga":9664,"▁mbon":9665,"▁mugomba":9666,"roza":9667,"kugeza":9668,"▁umukecuru":9669,"beye":9670,"▁bujyanye":9671,"ganje":9672,"▁mate":9673,"▁n’imodoka":9674,"▁watangijwe":9675,"taraboneka":9676,"▁coo":9677,"▁n’ubutaka":9678,"▁fardc":9679,"▁babitangaje":9680,"▁cyicaro":9681,"ranijwe":9682,"▁nyirama":9683,"▁karemera":9684,"▁iby’imi":9685,"gendanye":9686,"▁bikekwa":9687,"▁kibungo":9688,"dwe":9689,"ffe":9690,"mv":9691,"rm":9692,"▁art":9693,"▁nshobora":9694,"▁uhabwa":9695,"▁urangira":9696,"▁bajyanwa":9697,"buri":9698,"▁mva":9699,"▁institu":9700,"▁intyoza":9701,"shakishwa":9702,"▁ruto":9703,"▁n’iz":9704,"▁zitwa":9705,"▁nimwe":9706,"▁y’isoko":9707,"▁urujya":9708,"▁tri":9709,"▁jenerali":9710,"byibu":9711,"▁twamaze":9712,"▁batabona":9713,"▁baharanira":9714,"▁ndashaka":9715,"▁mbaru":9716,"▁indimi":9717,"▁ryitabiriwe":9718,"▁nyirayo":9719,"▁n’impan":9720,"▁bidakwiye":9721,"▁atm":9722,"▁martintwitter":9723,"▁instagrammartin":9724,"▁victory":9725,"▁birebana":9726,"▁bibumbiye":9727,"▁promoterfacebook":9728,"▁promoterfacebookmunezero":9729,"lg":9730,"▁acibwa":9731,"wari":9732,"▁babo":9733,"▁basura":9734,"▁yambara":9735,"▁umuseke":9736,"▁gifasha":9737,"▁kacyi":9738,"▁kwiyahura":9739,"▁wazo":9740,"▁y’iryo":9741,"shura":9742,"▁zaje":9743,"▁zatanzwe":9744,"manye":9745,"▁w’ibyo":9746,"▁w’itegeko":9747,"▁w’icyamamare":9748,"▁n’umuhungu":9749,"▁bwaje":9750,"▁reb":9751,"▁ahasanzwe":9752,"▁bwigunge":9753,"▁z’igi":9754,"▁b’abanyamahanga":9755,"▁kurekurwa":9756,"▁jason":9757,"mpike":9758,"▁witwaye":9759,"▁labora":9760,"▁amusaba":9761,"▁claris":9762,"▁kwangirika":9763,"▁inkoko":9764,"▁muhanzikazi":9765,"konje":9766,"▁gatuna":9767,"cungamari":9768,"▁gahongayire":9769,"▁whatsapp":9770,"▁akarusho":9771,"ux":9772,"umwe":9773,"▁iteye":9774,"▁iyoboye":9775,"▁kwaka":9776,"babaza":9777,"▁utangira":9778,"gukanywe":9779,"tezweho":9780,"▁yahita":9781,"▁yatangajwe":9782,"▁yaririmbye":9783,"kiyeho":9784,"▁umuturanyi":9785,"▁umugenzuzi":9786,"yuranyo":9787,"▁gilbert":9788,"▁macye":9789,"▁imvaho":9790,"▁n’umwami":9791,"twaraga":9792,"▁kwira":9793,"▁ariri":9794,"▁eddy":9795,"▁urujijo":9796,"▁fin":9797,"▁cyatsinzwe":9798,"▁para":9799,"▁n’indege":9800,"ports":9801,"▁z’iterambere":9802,"▁rock":9803,"riwemo":9804,"binjira":9805,"▁kabarore":9806,"▁wine":9807,"tumiza":9808,"shinjwaga":9809,"▁gusubu":9810,"▁kimisagara":9811,"ringiro":9812,"▁nicodem":9813,"byamamare":9814,"dc":9815,"zy":9816,"▁sh":9817,"▁byuba":9818,"▁iprc":9819,"ript":9820,"koza":9821,"gifite":9822,"▁bakura":9823,"▁bakomeze":9824,"▁bakongera":9825,"guzanyo":9826,"▁kungu":9827,"▁yagaruka":9828,"▁yaberaga":9829,"▁inkiko":9830,"henda":9831,"▁amagara":9832,"▁kanwa":9833,"▁kwimurira":9834,"cie":9835,"▁nyami":9836,"▁petro":9837,"▁bwarwo":9838,"jizwa":9839,"ford":9840,"▁y’ubuyobozi":9841,"▁gutembera":9842,"▁nk’abanyarwanda":9843,"▁iyicwa":9844,"▁iyicarubozo":9845,"vangura":9846,"▁babizi":9847,"▁dosiye":9848,"▁kugirwa":9849,"yweye":9850,"ranisha":9851,"lange":9852,"▁huriro":9853,"kundiro":9854,"▁syl":9855,"▁banyamuryango":9856,"▁hubakwa":9857,"▁yamenyesheje":9858,"iti":9859,"▁imeze":9860,"▁ishingiro":9861,"▁igorofa":9862,"▁bacururiza":9863,"bour":9864,"▁bikomoka":9865,"▁bitangazamakuru":9866,"▁mugongo":9867,"▁cp":9868,"▁gutungu":9869,"▁guhererekanya":9870,"▁bure":9871,"lian":9872,"▁rugiye":9873,"▁maguru":9874,"▁wageze":9875,"▁mibanire":9876,"▁byahise":9877,"nel":9878,"vize":9879,"video":9880,"▁urumuri":9881,"▁n’abacuruzi":9882,"riraho":9883,"▁twatangiye":9884,"▁n’amajwi":9885,"▁y’abatarengeje":9886,"▁teta":9887,"▁w’umukino":9888,"▁binini":9889,"▁n’uruganda":9890,"▁byoherezwa":9891,"▁kutabona":9892,"sekeje":9893,"▁Ba":9894,"▁ndayisaba":9895,"lines":9896,"▁y’akazi":9897,"▁spears":9898,"stauran":9899,"aha":9900,"gs":9901,"▁asoza":9902,"▁km":9903,"▁nkan":9904,"bamwe":9905,"▁bazira":9906,"▁badege":9907,"runa":9908,"▁bije":9909,"▁yarimo":9910,"▁gutabara":9911,"▁insengero":9912,"▁hashyirwaho":9913,"shimwa":9914,"▁mariya":9915,"▁imfa":9916,"▁rwandamagazinecom":9917,"tori":9918,"totsi":9919,"▁kwishyira":9920,"huguwe":9921,"▁tuha":9922,"▁tutara":9923,"cishije":9924,"mbitswe":9925,"▁agasanga":9926,"▁rwawe":9927,"mbukiranya":9928,"▁debora":9929,"▁azakomeza":9930,"▁bw’iyi":9931,"▁diddy":9932,"commen":9933,"▁bakeka":9934,"▁gutabwa":9935,"▁ruzajya":9936,"▁ntuza":9937,"▁by’abaturage":9938,"▁britney":9939,"▁gusezerana":9940,"▁onu":9941,"▁promotors":9942,"▁yaburiye":9943,"▁melody":9944,"▁rw’ikirenga":9945,"▁dieudonn":9946,"▁sciences":9947,"▁dominique":9948,"gba":9949,"tto":9950,"▁shop":9951,"ant":9952,"ras":9953,"▁itsindwa":9954,"▁akurikirwa":9955,"▁baganga":9956,"▁kubyina":9957,"buno":9958,"▁myumvire":9959,"▁mutzig":9960,"setattribute":9961,"kishije":9962,"vuriro":9963,"banyarwanda":9964,"huriweho":9965,"▁ind":9966,"▁gita":9967,"tsetattribute":9968,"▁imfungwa":9969,"▁n’isa":9970,"▁zikunze":9971,"▁zishingiye":9972,"twarwa":9973,"▁gaspa":9974,"▁wamenya":9975,"▁kubatera":9976,"▁yiganjemo":9977,"▁rikomeza":9978,"▁twavuze":9979,"ves":9980,"▁ntigaragazwa":9981,"▁ahabereye":9982,"oneli":9983,"▁yaragiye":9984,"abanye":9985,"▁bemeje":9986,"ines":9987,"ngiro":9988,"▁bamusaba":9989,"▁gutangazwa":9990,"▁mwari":9991,"garugori":9992,"▁akigera":9993,"▁off":9994,"vention":9995,"▁indabo":9996,"▁nzeyimana":9997,"▁free":9998,"▁flori":9999,"▁documentgetelementbyidcommen":10000,"▁documentgetelementbyidcommentsetattribute":10001,"▁iye":10002,"▁igu":10003,"▁iduka":10004,"▁apfa":10005,"▁ugaragaza":10006,"gie":10007,"gita":10008,"▁basiganwa":10009,"rume":10010,"▁bigaragaje":10011,"▁yafashije":10012,"▁mubu":10013,"▁gushima":10014,"▁umufasha":10015,"randa":10016,"▁ruzinduko":10017,"▁kwihuta":10018,"shoro":10019,"▁nick":10020,"▁yitegura":10021,"▁y’ishuri":10022,"▁dusanzwe":10023,"subire":10024,"subirwaho":10025,"shwaga":10026,"▁joro":10027,"▁byitwa":10028,"▁byifashishwa":10029,"vanze":10030,"▁solange":10031,"▁shami":10032,"▁y’inzego":10033,"kiyemo":10034,"rirwaho":10035,"wandikiye":10036,"bonekamo":10037,"▁yinjira":10038,"▁izabafasha":10039,"zihizwa":10040,"▁miriyari":10041,"▁n’ibyiciro":10042,"▁rwabugili":10043,"▁valens":10044,"▁sonatube":10045,"▁kinigi":10046,"▁style":10047,"▁taylor":10048,"ace":10049,"▁byumvi":10050,"▁akandi":10051,"rilla":10052,"▁bashyirwa":10053,"▁kurwego":10054,"▁kugezwa":10055,"tesha":10056,"▁bifatanyije":10057,"▁yasa":10058,"▁yakora":10059,"▁mugabe":10060,"▁mudende":10061,"ser":10062,"▁gusobanu":10063,"sisi":10064,"▁umuvugabutumwa":10065,"▁umusifuzi":10066,"homba":10067,"bani":10068,"▁abakerarugendo":10069,"▁amarira":10070,"▁kirwa":10071,"▁ubusu":10072,"▁uburanga":10073,"ganzwa":10074,"▁n’isoko":10075,"higwa":10076,"▁waga":10077,"▁wagombaga":10078,"▁yiyongereye":10079,"▁y’ibya":10080,"kanama":10081,"▁sale":10082,"▁sarongo":10083,"▁siyansi":10084,"▁batawe":10085,"▁yaratangiye":10086,"▁yaratanze":10087,"▁z’uku":10088,"▁w’umuntu":10089,"▁kurera":10090,"wongere":10091,"▁uwizeye":10092,"▁uwizeyimana":10093,"▁cy’uru":10094,"▁jules":10095,"▁imyigaragambyo":10096,"rwanye":10097,"▁eng":10098,"▁n’ubwicanyi":10099,"▁rw’umuziki":10100,"▁gusinya":10101,"▁mbumbe":10102,"▁gaspard":10103,"byan":10104,"chari":10105,"iyi":10106,"ps":10107,"▁igezweho":10108,"▁abura":10109,"▁abone":10110,"rebye":10111,"▁babya":10112,"tuka":10113,"▁birwa":10114,"▁murwayi":10115,"▁cyamaze":10116,"▁indo":10117,"▁abarimo":10118,"▁ruhagaze":10119,"▁maku":10120,"▁zitanga":10121,"▁zihari":10122,"▁zihanganye":10123,"▁kwitonda":10124,"▁nabonaga":10125,"shinya":10126,"▁yibasiye":10127,"▁rikorera":10128,"▁nk’uru":10129,"▁nyabyo":10130,"▁ntizi":10131,"▁wil":10132,"▁colo":10133,"▁n’amaguru":10134,"▁n’amasoko":10135,"▁rweru":10136,"▁bagasanga":10137,"▁year":10138,"▁care":10139,"▁byishimo":10140,"fuzaga":10141,"rth":10142,"▁ross":10143,"bonan":10144,"▁ubwawe":10145,"llah":10146,"▁byuzuye":10147,"▁bunini":10148,"▁rwakatiye":10149,"▁drones":10150,"▁lyce":10151,"▁deborah":10152,"jan":10153,"▁igo":10154,"▁akere":10155,"▁asize":10156,"▁ajyanwa":10157,"gaje":10158,"▁utoza":10159,"gizwa":10160,"▁bashinja":10161,"▁bazin":10162,"ruke":10163,"yiginya":10164,"▁yaciye":10165,"▁mvu":10166,"▁cri":10167,"▁cli":10168,"roha":10169,"kumira":10170,"▁umugozi":10171,"▁inspe":10172,"▁inyenyeri":10173,"▁abaje":10174,"▁abagiye":10175,"▁kibiri":10176,"▁madi":10177,"▁majyambere":10178,"▁w’ejo":10179,"▁zifasha":10180,"▁zifata":10181,"▁n’uwi":10182,"▁wake":10183,"subiri":10184,"▁y’uwo":10185,"▁tuvuga":10186,"▁rigena":10187,"▁ibyan":10188,"▁cyakozwe":10189,"ndiro":10190,"kurikirane":10191,"▁oka":10192,"▁yani":10193,"▁bebe":10194,"pangu":10195,"▁kumubaza":10196,"zanwa":10197,"▁mpunzi":10198,"birayi":10199,"▁iramutse":10200,"▁yatangajeko":10201,"▁w’ubumwe":10202,"▁z’amanywa":10203,"yamamariza":10204,"▁umurage":10205,"▁geno":10206,"▁binagwaho":10207,"▁colonel":10208,"▁mpyisi":10209,"▁bigaragarira":10210,"▁sekamana":10211,"▁swift":10212,"▁basobanuriwe":10213,"bintu":10214,"▁hanga":10215,"▁ifu":10216,"yagize":10217,"buke":10218,"▁yariri":10219,"▁yatsindiye":10220,"▁myenda":10221,"▁umugani":10222,"vugururwa":10223,"tanwa":10224,"tirira":10225,"bemerera":10226,"▁amahame":10227,"mwereka":10228,"▁ziki":10229,"▁kwiheba":10230,"▁abanyonzi":10231,"▁kubagezaho":10232,"▁tun":10233,"▁bwami":10234,"▁corona":10235,"yemerere":10236,"▁baraya":10237,"▁batahu":10238,"▁boo":10239,"▁yahabwaga":10240,"▁y’inteko":10241,"▁n’imirimo":10242,"▁neretse":10243,"▁turashaka":10244,"wandikira":10245,"tangizaga":10246,"▁bizabafasha":10247,"▁by’ibikomoka":10248,"▁tw’u":10249,"▁rurerure":10250,"juririye":10251,"▁show":10252,"▁inyota":10253,"▁kwihangira":10254,"▁school":10255,"▁isuzuma":10256,"▁intyozacom":10257,"▁kacyiru":10258,"▁shyamba":10259,"▁ikoze":10260,"▁ngamije":10261,"▁urya":10262,"murika":10263,"kopi":10264,"▁bareka":10265,"zama":10266,"kapu":10267,"▁yagira":10268,"▁yasigaye":10269,"▁yakoreraga":10270,"▁muzuka":10271,"▁gukurura":10272,"▁bubasha":10273,"▁ingero":10274,"shisha":10275,"▁rukorwa":10276,"▁ibisheke":10277,"wood":10278,"▁zize":10279,"▁zikoresha":10280,"▁kwishyurwa":10281,"▁byashize":10282,"▁ikivi":10283,"mbogo":10284,"▁tmc":10285,"▁duke":10286,"▁wihariye":10287,"▁baraha":10288,"sobanurwa":10289,"▁kinyejana":10290,"▁yandika":10291,"▁urw’":10292,"▁bihenze":10293,"▁igare":10294,"▁cy’ingenzi":10295,"venture":10296,"bibutse":10297,"▁z’inkorano":10298,"▁ngabi":10299,"▁hatagira":10300,"▁uruhushya":10301,"▁kinazi":10302,"▁guinea":10303,"▁views":10304,"ghe":10305,"syi":10306,"zq":10307,"zzi":10308,"▁gerageza":10309,"▁ibanza":10310,"▁baca":10311,"▁bikomeza":10312,"▁bigari":10313,"▁yako":10314,"▁yashinzwe":10315,"hurura":10316,"▁inc":10317,"hanze":10318,"▁gabiro":10319,"▁gakabije":10320,"abama":10321,"▁zachari":10322,"▁w’ishuri":10323,"▁n’umukinnyi":10324,"ganaga":10325,"▁n’amagambo":10326,"aniro":10327,"ngerwa":10328,"▁yannick":10329,"▁z’abantu":10330,"fotoza":10331,"▁yowe":10332,"gurishije":10333,"▁rober":10334,"▁uzabera":10335,"▁noheli":10336,"▁z’amahanga":10337,"▁z’amashanyarazi":10338,"▁bategura":10339,"▁adakwiye":10340,"vor":10341,"▁ry’uburezi":10342,"▁guhumeka":10343,"▁ubwenegihugu":10344,"▁ibiraro":10345,"▁giterane":10346,"▁akantu":10347,"kongoro":10348,"▁cnlg":10349,"▁bayingana":10350,"▁iho":10351,"▁apfuye":10352,"▁umenya":10353,"bityo":10354,"turi":10355,"▁bizumuremyi":10356,"▁mul":10357,"sekuru":10358,"▁gutakaza":10359,"▁buti":10360,"▁bugaragara":10361,"dera":10362,"▁gitwari":10363,"▁n’iy’":10364,"▁mibiri":10365,"document":10366,"tangaga":10367,"▁ikibi":10368,"▁ikirori":10369,"▁urusengero":10370,"▁sonia":10371,"▁fri":10372,"lasi":10373,"▁umunyama":10374,"▁dutu":10375,"▁n’ububa":10376,"▁bakame":10377,"▁ukumenya":10378,"▁izahita":10379,"▁yabahaye":10380,"▁ugushaka":10381,"myabiri":10382,"▁program":10383,"▁gorilla":10384,"▁cy’uburwayi":10385,"shishikarizwa":10386,"▁gukuramo":10387,"▁richardmuhaburarw":10388,"thori":10389,"▁nyir’i":10390,"▁rwagasana":10391,"cuncu":10392,"▁twagiramungu":10393,"komangoma":10394,"▁afrobeat":10395,"yriu":10396,"▁d’amour":10397,"▁zacharie":10398,"lter":10399,"stu":10400,"▁F":10401,"▁iku":10402,"▁bawe":10403,"▁batiri":10404,"▁bavutse":10405,"haha":10406,"▁but":10407,"lia":10408,"hanye":10409,"▁kageyo":10410,"▁zivuye":10411,"▁igize":10412,"vis":10413,"▁y’izuba":10414,"▁imisatsi":10415,"mbikwa":10416,"▁by’abanyarwanda":10417,"▁cyayi":10418,"▁ry’akarere":10419,"▁senderi":10420,"▁n’umubare":10421,"tegekimana":10422,"▁post":10423,"▁dra":10424,"▁wea":10425,"▁rwayo":10426,"▁cy’ihungabana":10427,"▁n’ibiganiro":10428,"▁azahura":10429,"▁y’abakinnyi":10430,"▁ryabaye":10431,"▁yabajije":10432,"▁kumufasha":10433,"▁media":10434,"▁babishaka":10435,"▁convention":10436,"▁ubwisanzure":10437,"▁kuvurirwa":10438,"aling":10439,"▁ndiku":10440,"▁kungana":10441,"zaniye":10442,"▁ry’umujyi":10443,"▁kuzifata":10444,"voma":10445,"▁umurava":10446,"▁chri":10447,"sesekaye":10448,"▁umunyarwandakazi":10449,"▁common":10450,"▁karama":10451,"zamutseho":10452,"▁byemejwe":10453,"▁centra":10454,"▁associa":10455,"▁wayne":10456,"▁seconda":10457,"▁makumyabiri":10458,"chu":10459,"zinga":10460,"▁iteganyijwe":10461,"▁iphone":10462,"muriwe":10463,"▁bakurikiranyweho":10464,"▁kubwe":10465,"talo":10466,"yor":10467,"▁yabona":10468,"row":10469,"▁umukunda":10470,"▁buhoraho":10471,"▁amagaju":10472,"▁n’imvura":10473,"▁igikoresho":10474,"▁ikibanza":10475,"shuka":10476,"▁rwaje":10477,"menyera":10478,"▁n’amazu":10479,"▁restauran":10480,"▁n’ibiza":10481,"▁deni":10482,"▁yohani":10483,"▁hirindwa":10484,"▁n’ibin":10485,"sezereye":10486,"▁ahanganye":10487,"▁yumvikana":10488,"▁nk’igihugu":10489,"▁mer":10490,"yubatse":10491,"▁nonese":10492,"▁nk’umukinnyi":10493,"▁by’indashyikirwa":10494,"▁ntibizongere":10495,"▁z’abana":10496,"shishikajwe":10497,"▁bwizacom":10498,"muremye":10499,"▁bubiko":10500,"jugunya":10501,"ringiyimana":10502,"▁ikinamico":10503,"▁ponce":10504,"tainment":10505,"▁davido":10506,"▁ahazaza":10507,"▁biomedical":10508,"▁tablet":10509,"▁inspector":10510,"cyongereza":10511,"d-":10512,"ubira":10513,"’ama":10514,"▁ter":10515,"▁ibera":10516,"▁aro":10517,"▁ashyirwa":10518,"▁ashyiraho":10519,"bahiriza":10520,"▁uk":10521,"▁ukwa":10522,"▁ugizwe":10523,"▁bafunzwe":10524,"gurika":10525,"▁kugaban":10526,"▁biryo":10527,"▁guhindu":10528,"▁gushimisha":10529,"ros":10530,"vugisha":10531,"▁busin":10532,"▁bumeze":10533,"yanja":10534,"▁n’ihungabana":10535,"▁zitu":10536,"▁nahise":10537,"▁ntari":10538,"gereranywa":10539,"▁n’umutwe":10540,"jiji":10541,"▁n’ubumenyi":10542,"inal":10543,"▁ryashyizwe":10544,"▁z’uru":10545,"kwemera":10546,"▁kwari":10547,"▁byihuse":10548,"▁bw’isi":10549,"▁ry’icyorezo":10550,"▁ikagera":10551,"▁ibafasha":10552,"▁bakiriye":10553,"▁foot":10554,"▁iyamuremye":10555,"▁nzara":10556,"▁cy’ubuzima":10557,"▁n’ubwikorezi":10558,"▁kwibasirwa":10559,"▁z’indege":10560,"▁rw’umuvunyi":10561,"▁rw’uyu":10562,"▁bicaye":10563,"▁million":10564,"▁yateranye":10565,"▁ngeso":10566,"▁igna":10567,"▁katauti":10568,"▁myanzuro":10569,"▁djabel":10570,"00":10571,"fin":10572,"fer":10573,"ky":10574,"▁ishyirwaho":10575,"▁ukomeje":10576,"gerweho":10577,"hamijwe":10578,"▁bihabwa":10579,"▁bipimo":10580,"▁bifashisha":10581,"▁gukaza":10582,"▁gupfobya":10583,"▁umuru":10584,"▁umusozi":10585,"▁inya":10586,"▁abasivili":10587,"misozi":10588,"▁hategekimana":10589,"▁gitego":10590,"▁kigizwe":10591,"▁kam":10592,"▁uburari":10593,"kinshasa":10594,"▁n’icyerekezo":10595,"hitwa":10596,"▁n’ayisumbuye":10597,"▁zihagarara":10598,"shomeri":10599,"▁washinze":10600,"▁byarangiye":10601,"▁tugize":10602,"koraho":10603,"▁rigiye":10604,"▁icyiza":10605,"garagarira":10606,"▁zatuma":10607,"▁zakunzwe":10608,"▁twagerageje":10609,"▁salo":10610,"▁dji":10611,"▁ahamagarira":10612,"anirana":10613,"▁azaza":10614,"jamin":10615,"▁ndabona":10616,"kungahaye":10617,"▁ubwigenge":10618,"shyizemo":10619,"lande":10620,"▁izigera":10621,"▁authori":10622,"▁umunyamuryango":10623,"banutseho":10624,"▁count":10625,"▁ibrahim":10626,"xelles":10627,"OT":10628,"ed":10629,"gin":10630,"rye":10631,"▁itangiye":10632,"▁ntwari":10633,"▁barya":10634,"▁babwiye":10635,"wealth":10636,"dari":10637,"▁biran":10638,"▁bitangaje":10639,"▁bigizwe":10640,"▁bishimishije":10641,"▁cte":10642,"▁umute":10643,"▁abafashwe":10644,"▁abategura":10645,"▁gikongoro":10646,"▁ibiba":10647,"▁ibicu":10648,"gannye":10649,"toranyijwe":10650,"▁igisonga":10651,"▁watsinze":10652,"▁wabonaga":10653,"▁kubasha":10654,"menyana":10655,"▁n’abagize":10656,"▁cyatuma":10657,"shakamo":10658,"▁agafata":10659,"▁bwatangaje":10660,"▁batayo":10661,"▁ryaba":10662,"▁hill":10663,"▁mwara":10664,"binyabuzima":10665,"▁abanyamideli":10666,"▁nkawe":10667,"▁nange":10668,"senyuka":10669,"▁kayitesi":10670,"▁ry’abaririmbyi":10671,"▁k’aba":10672,"▁bunyuranyije":10673,"▁airlines":10674,"dateno":10675,"▁zibishinzwe":10676,"▁ahly":10677,"shonje":10678,"▁beach":10679,"mpinduka":10680,"himbazamu":10681,"▁okapi":10682,"-u":10683,"ang":10684,"▁itunganya":10685,"▁ishuli":10686,"▁nyo":10687,"gunga":10688,"▁bihana":10689,"▁bisese":10690,"▁yaherukaga":10691,"▁muma":10692,"goranye":10693,"banque":10694,"▁abahuye":10695,"▁mirwano":10696,"▁nimwiza":10697,"▁rigaragaza":10698,"▁n’abashinzwe":10699,"▁cyagiye":10700,"▁sec":10701,"ubusanzwe":10702,"▁popu":10703,"▁repu":10704,"▁n’ubushake":10705,"▁batagomba":10706,"▁bazahabwa":10707,"▁bahagaze":10708,"▁ibikorwaremezo":10709,"▁hit":10710,"▁byihariye":10711,"▁babikunda":10712,"▁social":10713,"▁by’ubwi":10714,"kenya":10715,"koreshwaga":10716,"▁y’ibihe":10717,"▁w’abadepite":10718,"▁by’intambara":10719,"genzurwa":10720,"▁b’abarundi":10721,"hungabanyije":10722,"▁bw’umuntu":10723,"▁kw’ama":10724,"taliyani":10725,"rks":10726,"▁hatowe":10727,"sesenguzi":10728,"▁philbert":10729,"▁this":10730,"▁yageraga":10731,"▁nyirabahire":10732,"▁authority":10733,"uro":10734,"▁’i":10735,"▁atangazwa":10736,"▁bapolisi":10737,"▁bakoreye":10738,"▁bigu":10739,"▁myambaro":10740,"▁musinga":10741,"▁gusana":10742,"▁abahoze":10743,"▁abarwanyi":10744,"▁amaba":10745,"▁giteye":10746,"▁gihamya":10747,"▁rwanda’":10748,"hiriye":10749,"▁cyanditse":10750,"▁kwishima":10751,"▁gashinzwe":10752,"▁ariya":10753,"▁edu":10754,"▁tro":10755,"▁taba":10756,"▁dukeneye":10757,"▁w’icyayi":10758,"▁kora":10759,"▁cool":10760,"▁rw’abantu":10761,"▁umwete":10762,"▁cy’imari":10763,"tongo":10764,"▁vita":10765,"▁yegereye":10766,"▁ahura":10767,"▁yujuje":10768,"▁camera":10769,"▁kwambuka":10770,"pfunyi":10771,"▁bw’ikipe":10772,"▁libe":10773,"▁yahamijwe":10774,"ganiraho":10775,"▁binjiye":10776,"▁conne":10777,"tabaza":10778,"canga":10779,"▁dai":10780,"▁by’ubukungu":10781,"▁tuzakomeza":10782,"▁ibinyamakuru":10783,"▁ibyifuzo":10784,"▁k’imi":10785,"▁cy’abatarengeje":10786,"▁urugomo":10787,"hinzemo":10788,"▁gusinyisha":10789,"hagararaho":10790,"▁bw’ikigo":10791,"sivile":10792,"pfira":10793,"▁by’urumogi":10794,"▁clarisse":10795,"cka":10796,"sts":10797,"und":10798,"▁igabanya":10799,"▁uje":10800,"mae":10801,"tayeho":10802,"▁yatinze":10803,"setsa":10804,"sesuye":10805,"▁gukurikira":10806,"▁umufana":10807,"▁bugomba":10808,"▁inkeke":10809,"▁hamenyekane":10810,"▁gisigaye":10811,"▁girma":10812,"▁kigomba":10813,"▁impfubyi":10814,"▁pan":10815,"▁mipaka":10816,"amafoto":10817,"▁komeza":10818,"▁sahara":10819,"kwavu":10820,"▁w’umuhungu":10821,"▁lick":10822,"▁ikagira":10823,"llen":10824,"▁ugukunda":10825,"genderwaho":10826,"▁sudan":10827,"▁profe":10828,"▁ry’abatutsi":10829,"▁umunyamideli":10830,"▁biteganywa":10831,"▁gusesa":10832,"▁sheki":10833,"abanyafurika":10834,"▁y’ikirere":10835,"▁rudahigwa":10836,"▁yatomboye":10837,"▁icyarimwe":10838,"▁entertainment":10839,"▁abdul":10840,"02":10841,"wumu":10842,"▁ak":10843,"▁utera":10844,"wawa":10845,"▁basize":10846,"buzi":10847,"▁bihaye":10848,"▁bihano":10849,"▁yawo":10850,"▁yakanguriye":10851,"kijwe":10852,"▁gukini":10853,"sibo":10854,"dire":10855,"▁umubyara":10856,"▁umurundi":10857,"tish":10858,"humure":10859,"▁abaru":10860,"▁abajya":10861,"▁amahano":10862,"▁kizwi":10863,"▁kibeho":10864,"▁ubugenzuzi":10865,"▁kankindi":10866,"▁gako":10867,"▁washaka":10868,"▁wabonetse":10869,"▁wayoboraga":10870,"▁niryo":10871,"▁byakorewe":10872,"▁kubara":10873,"▁yiru":10874,"▁imitako":10875,"▁rizi":10876,"▁ntaganda":10877,"▁n’abafasha":10878,"▁peace":10879,"▁ntiru":10880,"▁resitora":10881,"▁oswa":10882,"▁biteze":10883,"▁izagwa":10884,"▁jojo":10885,"▁jobs":10886,"▁ndabi":10887,"llin":10888,"▁al-":10889,"▁dire":10890,"▁rwirangira":10891,"▁cy’uyu":10892,"▁benjamin":10893,"▁mukamu":10894,"▁bidashoboka":10895,"▁ntibishoboka":10896,"▁sant":10897,"koroni":10898,"▁bakundaga":10899,"▁british":10900,"▁gusezerera":10901,"▁senateri":10902,"lienne":10903,"▁jrme":10904,"mpamagaye":10905,"▁urunana":10906,"▁emile":10907,"▁tekinike":10908,"▁dcmp":10909,"▁pacifique":10910,"▁mbarushimana":10911,"▁commonwealth":10912,"tty":10913,"▁teri":10914,"▁arushaho":10915,"gajuru":10916,"rebana":10917,"▁basanganywe":10918,"▁kubwi":10919,"▁kuranga":10920,"▁kubangamira":10921,"▁yagenze":10922,"▁yakiniye":10923,"▁muso":10924,"kibi":10925,"▁umukandida":10926,"tije":10927,"▁busha":10928,"▁butanga":10929,"▁ababo":10930,"▁abamotari":10931,"hanan":10932,"▁gikomeza":10933,"▁rugaragara":10934,"▁rugwiro":10935,"▁kabuza":10936,"▁magufu":10937,"▁imyuka":10938,"▁imvano":10939,"genzo":10940,"▁zitangwa":10941,"fuzwa":10942,"▁watangije":10943,"▁tubibutse":10944,"rente":10945,"▁agashya":10946,"▁ntibira":10947,"▁wemerewe":10948,"▁reij":10949,"kurikizwa":10950,"▁ahahoze":10951,"▁yarakoze":10952,"▁y’abafana":10953,"▁y’amadorali":10954,"▁n’iby’":10955,"▁cas":10956,"▁total":10957,"▁w’urwego":10958,"▁disp":10959,"▁icyateye":10960,"▁bibabaje":10961,"zerewe":10962,"▁n’igikombe":10963,"▁turabi":10964,"rongora":10965,"▁anaba":10966,"▁Nta":10967,"▁bashakaga":10968,"▁koroshya":10969,"▁gratien":10970,"▁w’urubyiruko":10971,"▁kaberuka":10972,"▁ntihagire":10973,"▁bisesero":10974,"▁reijnen":10975,"byanga":10976,"eing":10977,"vnal":10978,"▁yose":10979,"rizo":10980,"▁ntebe":10981,"rekurwa":10982,"▁bahera":10983,"yika":10984,"tubwira":10985,"▁yaganiriye":10986,"▁yagombye":10987,"▁kimu":10988,"▁rukingo":10989,"▁mabanki":10990,"▁zitara":10991,"▁waka":10992,"▁micungire":10993,"▁national":10994,"▁nashakaga":10995,"▁fro":10996,"▁jerome":10997,"byizi":10998,"shyari":10999,"▁ntiki":11000,"▁bwafashe":11001,"▁n’ingendo":11002,"▁batashye":11003,"▁annan":11004,"fatanwe":11005,"▁bel":11006,"▁y’amatora":11007,"▁yabasha":11008,"▁gutema":11009,"▁vio":11010,"panye":11011,"▁bingana":11012,"▁binjiza":11013,"▁bigatera":11014,"▁turasaba":11015,"▁abanyarubavu":11016,"▁by’inyama":11017,"vogera":11018,"▁barwana":11019,"▁byanyu":11020,"cyuho":11021,"simbuza":11022,"▁umwamikazi":11023,"▁Ha":11024,"▁ntiyigeze":11025,"▁yamaganye":11026,"▁stromae":11027,"lasitiki":11028,"▁football":11029,"himbazamusyi":11030,"-in":11031,"▁L":11032,"▁ikozwe":11033,"▁akwi":11034,"▁atsinda":11035,"▁kel":11036,"kopf":11037,"▁barana":11038,"▁bibuka":11039,"▁bihuza":11040,"▁mukwi":11041,"▁mureka":11042,"dite":11043,"til":11044,"▁abashakashatsi":11045,"▁ababiligi":11046,"saro":11047,"fisiye":11048,"▁n’ukwezi":11049,"lempike":11050,"▁yihaye":11051,"▁w’icyo":11052,"▁paki":11053,"▁bitaza":11054,"▁bella":11055,"▁labama":11056,"▁yakoreshwaga":11057,"rinho":11058,"▁firi":11059,"gurire":11060,"shoramo":11061,"▁juvnal":11062,"▁ugashi":11063,"▁ivugabutumwa":11064,"rokokeye":11065,"▁bidasubirwaho":11066,"▁Na":11067,"trice":11068,"▁byaratangajwe":11069,"▁pic":11070,"llywood":11071,"▁isaac":11072,"▁basabose":11073,"▁claudine":11074,"▁zinjije":11075,"sanganwe":11076,"▁byemezwa":11077,"▁donna":11078,"shishozi":11079,"▁sanofi":11080,"senyera":11081,"▁gifumba":11082,"▁nyiramuhire":11083,"▁rujugira":11084,"▁rosskopf":11085,"tina":11086,"▁atoza":11087,"▁akunze":11088,"▁action":11089,"▁usigaye":11090,"giraneza":11091,"▁bashinjwa":11092,"▁bakinnye":11093,"kaho":11094,"▁bihu":11095,"▁bijyanwa":11096,"▁bidufasha":11097,"▁mel":11098,"▁muhima":11099,"▁gufa":11100,"tie":11101,"tico":11102,"▁abategetsi":11103,"shime":11104,"▁gitarama":11105,"▁kazungu":11106,"▁ubutunzi":11107,"▁plc":11108,"▁byatanze":11109,"suhuka":11110,"lace":11111,"▁cyamu":11112,"▁cyagaragaye":11113,"kiramo":11114,"▁atazongera":11115,"menyesheje":11116,"▁n’amashusho":11117,"▁ahazwi":11118,"▁bakagenda":11119,"inah":11120,"▁berekanye":11121,"▁ryacu":11122,"stri":11123,"▁by’iyi":11124,"pfusha":11125,"sigarana":11126,"▁sol":11127,"▁conce":11128,"canda":11129,"▁rw’igi":11130,"▁felix":11131,"▁ubwatsi":11132,"▁imyirondoro":11133,"▁ry’abaturage":11134,"▁zubatse":11135,"▁london":11136,"▁ribivuga":11137,"▁umunyezamu":11138,"▁johannes":11139,"▁hasuwe":11140,"▁naomie":11141,"▁association":11142,"cine":11143,"upe":11144,"▁ifitiye":11145,"▁ngenga":11146,"▁utanga":11147,"▁ugaragara":11148,"yer":11149,"gimbi":11150,"ruya":11151,"▁kuvana":11152,"▁kubonera":11153,"▁yago":11154,"▁yashyira":11155,"▁cyobo":11156,"▁gupa":11157,"▁gukiza":11158,"▁gucibwa":11159,"▁gukosora":11160,"▁gushidikanya":11161,"mide":11162,"▁hagira":11163,"▁kabuye":11164,"kenga":11165,"▁maga":11166,"▁mashini":11167,"▁madosiye":11168,"▁n’udu":11169,"▁miterere":11170,"▁byagaragajwe":11171,"▁jon":11172,"▁kol":11173,"▁rwashyiriweho":11174,"▁n’ubusanzwe":11175,"▁hope":11176,"mbuga":11177,"fatanywe":11178,"▁boeing":11179,"▁moshi":11180,"zane":11181,"▁fai":11182,"▁dip":11183,"▁ubald":11184,"▁n’urutoki":11185,"▁ntibivuze":11186,"▁ntibigeze":11187,"▁batoranyijwe":11188,"▁In":11189,"tten":11190,"▁itumanaho":11191,"▁ihenze":11192,"▁gusezererwa":11193,"▁urebe":11194,"▁byanatumye":11195,"▁nsanzaba":11196,"▁tw’imisozi":11197,"▁khali":11198,"▁yanenze":11199,"-zo":11200,"-kinshasa":11201,"nje":11202,"vota":11203,"▁bcr":11204,"yaremye":11205,"zibera":11206,"bikoze":11207,"yigisho":11208,"tumira":11209,"▁yawu":11210,"▁yaganiraga":11211,"▁yashinjwaga":11212,"▁mukotanyi":11213,"▁gushyikirizwa":11214,"▁umutesi":11215,"▁abara":11216,"saku":11217,"▁gihanwa":11218,"▁ruzin":11219,"▁ubuhe":11220,"zoka":11221,"▁zion":11222,"▁kwirwanaho":11223,"▁nizeyimana":11224,"▁eta":11225,"▁uruzinduko":11226,"▁ibyu":11227,"pawundi":11228,"▁n’abavuga":11229,"▁sezibera":11230,"▁nk’umwe":11231,"▁bwaho":11232,"▁bwato":11233,"▁bwakoze":11234,"pital":11235,"▁bataru":11236,"▁ukuboko":11237,"nia":11238,"▁y’amahoro":11239,"▁yeguye":11240,"▁by’ibanze":11241,"rekera":11242,"▁biravugwa":11243,"▁bagerageje":11244,"▁yongereye":11245,"▁b’ubu":11246,"ndereza":11247,"▁tuzajya":11248,"remare":11249,"▁Rw":11250,"▁malariya":11251,"▁gutorwa":11252,"▁akekwaho":11253,"▁mutuelle":11254,"▁inyoko":11255,"▁conference":11256,"▁rwf":11257,"▁uburemere":11258,"▁kambanda":11259,"igi":11260,"ym":11261,"▁by":11262,"▁irenze":11263,"▁aze":11264,"▁ashi":11265,"▁nsa":11266,"▁baso":11267,"▁bado":11268,"▁batwara":11269,"▁kundi":11270,"yiha":11271,"tugu":11272,"tugal":11273,"▁yasi":11274,"▁yashishikarije":11275,"▁gurisha":11276,"hungira":11277,"lique":11278,"▁giha":11279,"▁gicanda":11280,"▁rukeneye":11281,"▁kwifashishwa":11282,"▁mituwe":11283,"▁byakwi":11284,"▁byabonetse":11285,"rikirwa":11286,"cam":11287,"▁agasaba":11288,"▁nyamvu":11289,"subikwa":11290,"▁guhagarikwa":11291,"▁y’amasaha":11292,"▁uwamahoro":11293,"rds":11294,"▁ahuye":11295,"▁grand":11296,"kinamico":11297,"▁bw’imyumbati":11298,"▁fil":11299,"▁fest":11300,"▁w’ubutegetsi":11301,"▁mukarwe":11302,"▁by’amateka":11303,"▁zizafasha":11304,"tumire":11305,"▁bagirana":11306,"yambaza":11307,"bangamiwe":11308,"yisilamu":11309,"▁kabuhariwe":11310,"▁kalinganire":11311,"▁e-mail":11312,"▁busingye":11313,"dji":11314,"gru":11315,"nyu":11316,"sina":11317,"▁iv":11318,"▁kuntu":11319,"▁kuyobya":11320,"▁kunguka":11321,"teranya":11322,"▁cyongereza":11323,"▁guhugura":11324,"▁umusa":11325,"▁umudepite":11326,"▁bus":11327,"▁inkingi":11328,"▁hagize":11329,"▁gifata":11330,"▁kibaye":11331,"▁wagira":11332,"▁waguriwe":11333,"shing":11334,"rerekana":11335,"viye":11336,"▁zon":11337,"biriza":11338,"hingiraga":11339,"▁zama":11340,"▁agathe":11341,"byarira":11342,"▁jenocide":11343,"▁bitabo":11344,"pantalo":11345,"▁joye":11346,"▁yumvise":11347,"▁kwabo":11348,"▁ibyatangajwe":11349,"singwa":11350,"▁y’ingo":11351,"▁bamuguriye":11352,"stem":11353,"▁biriho":11354,"▁kenzo":11355,"komokaho":11356,"▁hazakorwa":11357,"▁n’urupfu":11358,"tanzaniya":11359,"▁bahuje":11360,"▁iby’umu":11361,"▁indashyikirwa":11362,"▁bw’umujyi":11363,"▁johnson":11364,"▁nababwira":11365,"▁numvaga":11366,"▁ndumva":11367,"▁gusukura":11368,"▁n’ikintu":11369,"▁steven":11370,"▁nk’ikiyobyabwenge":11371,"▁harebwe":11372,"▁uriho":11373,"▁mumutashye":11374,"▁mukabadege":11375,"▁yunzemo":11376,"▁college":11377,"▁serbian":11378,"▁imyuga":11379,"▁gasigwa":11380,"patite":11381,"▁oswald":11382,"▁murekatete":11383,"yrwa":11384,"▁ip":11385,"▁afashe":11386,"▁acumbi":11387,"▁kunyi":11388,"▁yashoboraga":11389,"▁yasobanuriye":11390,"▁yasabaga":11391,"▁yatunguwe":11392,"▁guhunga":11393,"▁gusimbura":11394,"merwa":11395,"▁bucukuzi":11396,"▁inkwi":11397,"yumu":11398,"ranzi":11399,"▁amabere":11400,"toma":11401,"kinwe":11402,"kinyarwanda":11403,"▁wabona":11404,"zuyemo":11405,"▁yishyu":11406,"▁yifuje":11407,"mbora":11408,"▁spa":11409,"▁n’abahungu":11410,"nguru":11411,"▁zabaga":11412,"umuro":11413,"▁w’icyizere":11414,"▁come":11415,"▁power":11416,"▁n’amatungo":11417,"▁res":11418,"rizamo":11419,"▁cy’imyumbati":11420,"▁bocka":11421,"tonze":11422,"▁bw’ibihugu":11423,"▁batubwira":11424,"▁kuzahura":11425,"▁rw’ibinyabuzima":11426,"▁kubuza":11427,"gendekeye":11428,"▁w’amagru":11429,"▁y’ibihumbi":11430,"tondera":11431,"▁adashaka":11432,"terwaga":11433,"▁aziya":11434,"▁arrow":11435,"yumvisha":11436,"▁impuhwe":11437,"▁umurama":11438,"▁atpr":11439,"▁murambi":11440,"▁ry’ubuhanzi":11441,"▁Ki":11442,"▁guhungira":11443,"▁bahige":11444,"▁safali":11445,"kekaga":11446,"▁rirashe":11447,"▁appli":11448,"▁ngirente":11449,"▁bw’ikirere":11450,"▁nteziryayo":11451,"▁worship":11452,"▁nzabakorana":11453,"byutse":11454,"atian":11455,"▁kumvikanisha":11456,"▁taxi-":11457,"▁sopyrwa":11458,"▁williams":11459,"▁umugabirwa":11460,"▁diddy-zo":11461,"▁ponceuse":11462,"▁nyamvumba":11463,"▁bockarie":11464,"eber":11465,"franga":11466,"▁aruko":11467,"▁ky":11468,"rio":11469,"▁nana":11470,"▁uhari":11471,"▁babyaranye":11472,"rulo":11473,"▁kuzenguruka":11474,"gezo":11475,"tec":11476,"▁yatandukanye":11477,"▁muku":11478,"sel":11479,"▁cinema":11480,"▁umuka":11481,"▁umuvandimwe":11482,"▁buze":11483,"▁inyoni":11484,"range":11485,"▁kigenda":11486,"▁rukaza":11487,"▁mato":11488,"▁mabuye":11489,"▁n’itegeko":11490,"▁gasozi":11491,"▁igiti":11492,"▁wahise":11493,"▁abangavu":11494,"▁y’ukwezi":11495,"yoborwaga":11496,"▁turu":11497,"▁rigi":11498,"mbiwe":11499,"▁ica":11500,"▁ry’abantu":11501,"▁agashaka":11502,"▁wiyemeje":11503,"▁n’ubuhanga":11504,"mbunda":11505,"kozeho":11506,"▁derulo":11507,"herewe":11508,"▁y’abakuru":11509,"▁gutembere":11510,"▁arara":11511,"▁hen":11512,"▁dog":11513,"ringaniye":11514,"▁n’imitwe":11515,"▁sude":11516,"torerwa":11517,"bongereza":11518,"poroso":11519,"▁mwaba":11520,"▁gutahura":11521,"rwani":11522,"▁akubwira":11523,"▁haracyari":11524,"▁karate":11525,"▁publi":11526,"zibagirana":11527,"▁ndangamurage":11528,"▁gusigasira":11529,"▁nzabamwita":11530,"frica":11531,"▁zitemewe":11532,"▁manishimwe":11533,"▁butemewe":11534,"▁n’utundi":11535,"▁galaxy":11536,"▁institute":11537,"▁imfashanyo":11538,"▁RwOT":11539,"▁joyeuse":11540,"ie":11541,"tv":11542,"▁byongera":11543,"▁bona":11544,"▁abereye":11545,"▁amuha":11546,"▁ashima":11547,"▁us":11548,"▁ufasha":11549,"▁batan":11550,"▁biku":11551,"▁yatorewe":11552,"▁mushaka":11553,"▁musana":11554,"▁mufuka":11555,"▁gukwirakwira":11556,"▁gusubizwa":11557,"horana":11558,"horera":11559,"hungiro":11560,"▁rushya":11561,"▁karenge":11562,"▁ibigwi":11563,"▁uburozi":11564,"▁mashanyarazi":11565,"▁maraso":11566,"▁maremare":11567,"toranywa":11568,"lei":11569,"▁byafashe":11570,"suka":11571,"renda":11572,"▁n’abapolisi":11573,"▁gusatira":11574,"▁handi":11575,"shimishwa":11576,"▁barara":11577,"kwaga":11578,"▁kwera":11579,"▁ikinwa":11580,"▁ati’’":11581,"abanyamakuru":11582,"▁w’umugore":11583,"▁binyu":11584,"▁b’iki":11585,"▁ibarizwa":11586,"▁utaza":11587,"▁ihame":11588,"▁supt":11589,"▁uwiringiyimana":11590,"siyeti":11591,"▁badashobora":11592,"▁itishoboye":11593,"▁offi":11594,"▁byerekeranye":11595,"▁umwambaro":11596,"▁Uyu":11597,"▁ibinyoma":11598,"▁bw’amafaranga":11599,"▁wabaga":11600,"▁z’ubuyobozi":11601,"▁bongera":11602,"gabekazi":11603,"▁bumvaga":11604,"▁uharanira":11605,"hamagaye":11606,"kandara":11607,"▁lond":11608,"▁kwishyuza":11609,"shishoza":11610,"▁ballon":11611,"▁cogebanque":11612,"bourg":11613,"▁madiba":11614,"▁country":11615,"-con":11616,"cra":11617,"gri":11618,"imi":11619,"mpamvu":11620,"zz":11621,"▁ver":11622,"▁br":11623,"▁ado":11624,"▁ufata":11625,"▁bal":11626,"▁baze":11627,"▁batwaye":11628,"▁bambuka":11629,"▁mureke":11630,"▁muganza":11631,"kiya":11632,"kigali":11633,"▁rwuba":11634,"▁umukiriya":11635,"▁umusingi":11636,"▁ubutwari":11637,"kingiye":11638,"▁n’ikindi":11639,"▁gaz":11640,"▁wafashe":11641,"zuki":11642,"▁evo":11643,"▁rigomba":11644,"▁rigezweho":11645,"▁ntare":11646,"▁agahora":11647,"pimisha":11648,"▁ukubera":11649,"tirirwa":11650,"▁biteza":11651,"▁guhamwa":11652,"▁abikora":11653,"▁italiki":11654,"▁tere":11655,"▁yohereje":11656,"▁cash":11657,"▁med":11658,"▁bw’igi":11659,"▁cyimana":11660,"▁iraba":11661,"▁icumbi":11662,"▁yongere":11663,"▁bw’uko":11664,"▁kizaza":11665,"chelles":11666,"ndutse":11667,"▁nyange":11668,"▁idafite":11669,"rangwamo":11670,"▁kirazira":11671,"▁igeragezwa":11672,"▁kuhagera":11673,"▁ishingamategeko":11674,"rohewe":11675,"▁pulasitiki":11676,"▁bahembwa":11677,"▁b’umupira":11678,"▁mourinho":11679,"dendezo":11680,"▁kabarebe":11681,"▁christ":11682,"▁denise":11683,"▁umurungi":11684,"▁kelly":11685,"rwi":11686,"▁bpr":11687,"▁kristu":11688,"▁ngiro":11689,"▁uhura":11690,"▁bashimiye":11691,"▁bashyizwe":11692,"dali":11693,"yide":11694,"▁yatakaje":11695,"▁umuzi":11696,"▁buna":11697,"▁ingirakamaro":11698,"▁amate":11699,"tseho":11700,"▁karimo":11701,"▁imfura":11702,"soviye":11703,"▁n’ijoro":11704,"▁n’igare":11705,"▁zikunzwe":11706,"▁cyanika":11707,"▁wakunze":11708,"dows":11709,"▁esi":11710,"umugore":11711,"▁n’umutima":11712,"▁saba":11713,"shimishijwe":11714,"bweho":11715,"logy":11716,"subirana":11717,"▁azatangira":11718,"▁mohame":11719,"sezeranye":11720,"tekereze":11721,"winjira":11722,"▁ry’imari":11723,"▁batutsi":11724,"yubakire":11725,"▁wumve":11726,"tegurira":11727,"teganyi":11728,"▁n’uruhare":11729,"▁ubwami":11730,"rokoye":11731,"▁isugi":11732,"telli":11733,"▁nk’abo":11734,"shishikari":11735,"▁andr":11736,"▁niyonsenga":11737,"▁babonaga":11738,"▁ingorane":11739,"▁nkeya":11740,"▁aid":11741,"▁forbes":11742,"▁ethiopie":11743,"telefone":11744,"▁christopher":11745,"frique":11746,"huriranye":11747,"▁dylan":11748,"▁evode":11749,"nyura":11750,"von":11751,"’in":11752,"▁ren":11753,"▁iranga":11754,"▁irinde":11755,"▁agen":11756,"▁ave":11757,"▁ateye":11758,"▁azenguruka":11759,"▁ntwa":11760,"▁nkingi":11761,"▁ukana":11762,"▁babeshya":11763,"▁bashoye":11764,"▁yafunzwe":11765,"▁yageneye":11766,"▁yasuraga":11767,"▁musha":11768,"sebya":11769,"▁cyana":11770,"site":11771,"tanywe":11772,"▁hakomeje":11773,"▁amabanki":11774,"▁ibibi":11775,"▁n’ikawa":11776,"▁w’indirimbo":11777,"▁mizi":11778,"▁nayi":11779,"▁n’abatari":11780,"▁n’abagororwa":11781,"▁sey":11782,"▁ntibazi":11783,"kurikiranya":11784,"▁n’ubushinjacyaha":11785,"foyide":11786,"tinganyi":11787,"jurira":11788,"▁azagera":11789,"▁bobi":11790,"▁z’imari":11791,"guyemo":11792,"sinya":11793,"▁kenyatta":11794,"▁tifoyide":11795,"▁ntibabi":11796,"star":11797,"▁uramutse":11798,"▁b’ababiligi":11799,"▁bubakiwe":11800,"▁ababazwa":11801,"▁kugaba":11802,"▁uburakari":11803,"▁groupe":11804,"▁ivugururwa":11805,"minari":11806,"▁ububiko":11807,"▁twubaka":11808,"▁argentine":11809,"▁ikiremwamuntu":11810,"cke":11811,"caniro":11812,"ijwe":11813,"▁ipfu":11814,"▁atwaye":11815,"▁afitiye":11816,"▁ateganyijwe":11817,"▁nsanzwe":11818,"▁uvuze":11819,"mutungo":11820,"yenzi":11821,"▁bac":11822,"▁barenze":11823,"▁bashinze":11824,"bitsi":11825,"hakanye":11826,"hamagara":11827,"haguruka":11828,"buja":11829,"▁bishe":11830,"▁bitunguranye":11831,"▁yashin":11832,"kia":11833,"▁umucyo":11834,"▁buteye":11835,"▁abagizi":11836,"heza":11837,"liza":11838,"▁amahitamo":11839,"▁amaherezo":11840,"▁gihangayikishije":11841,"▁rugera":11842,"somye":11843,"▁n’iy’i":11844,"kanywa":11845,"▁gafite":11846,"▁gatanya":11847,"▁milan":11848,"▁byadu":11849,"▁byakomeje":11850,"▁imibu":11851,"▁rishyira":11852,"▁n’abarimu":11853,"▁zamaze":11854,"▁cyahariwe":11855,"▁muni":11856,"come":11857,"▁w’iterabwoba":11858,"▁twayi":11859,"▁agata":11860,"▁agatanga":11861,"▁sierra":11862,"lote":11863,"▁ocam":11864,"mburiwe":11865,"▁bazatsinda":11866,"▁azakoreshwa":11867,"▁bamwereka":11868,"▁itaza":11869,"▁y’ubumwe":11870,"▁temple":11871,"▁ndasaba":11872,"▁ibyakozwe":11873,"▁nk’izi":11874,"▁nk’imi":11875,"▁ikazi":11876,"▁ntaramakuru":11877,"▁wanditse":11878,"▁bikajya":11879,"▁ubwacu":11880,"▁nk’umuhanzi":11881,"▁None":11882,"▁y’imideli":11883,"▁briga":11884,"▁n’imyidagaduro":11885,"▁chogm":11886,"▁mushikiwabo":11887,"ceceka":11888,"▁mikorobe":11889,"▁kidumu":11890,"▁lycee":11891,"▁secondaire":11892,"▁liberia":11893,"▁londres":11894,"▁mohamed":11895,"ikindi":11896,"▁amba":11897,"▁ngeri":11898,"babi":11899,"▁usaba":11900,"▁utwite":11901,"▁kube":11902,"bia":11903,"bujijwe":11904,"▁bishimirwa":11905,"▁gucyura":11906,"▁rss":11907,"tiranya":11908,"▁buzi":11909,"▁butangaje":11910,"▁abaga":11911,"▁hami":11912,"heru":11913,"▁amarozi":11914,"▁amasegonda":11915,"▁gikuru":11916,"▁rukomeje":11917,"▁ibidu":11918,"▁ibitanda":11919,"▁madini":11920,"hiwe":11921,"shoje":11922,"▁micye":11923,"▁ritu":11924,"menywa":11925,"▁n’abahinzi":11926,"▁n’abasohoka":11927,"▁umwo":11928,"▁cyabonetse":11929,"kwiza":11930,"gereranyije":11931,"▁twafashe":11932,"vest":11933,"▁rwabonye":11934,"kereje":11935,"▁y’ubumenyi":11936,"▁araza":11937,"▁kumufata":11938,"▁byimbitse":11939,"▁mwijima":11940,"▁proje":11941,"▁barimu":11942,"ndura":11943,"▁byabaga":11944,"▁iby’aba":11945,"▁rdf":11946,"▁gusomana":11947,"yumvise":11948,"▁cy’umutekano":11949,"▁gukoreramo":11950,"▁ubusabe":11951,"▁kuryamana":11952,"▁areruya":11953,"▁b’intara":11954,"▁kongo-kinshasa":11955,"▁madagas":11956,"▁commi":11957,"babaro":11958,"▁barebye":11959,"▁yasezerewe":11960,"▁y’ubwishingizi":11961,"▁itsura":11962,"torotse":11963,"▁bamaranye":11964,"rorokere":11965,"▁hatitawe":11966,"▁kwimakaza":11967,"▁nsanzabaganwa":11968,"▁madagascar":11969,"lina":11970,"▁shyo":11971,"▁ihana":11972,"▁amenye":11973,"▁nsengu":11974,"▁batwite":11975,"gers":11976,"▁bishize":11977,"▁bibuga":11978,"▁yasimbu":11979,"▁muzaba":11980,"▁gufu":11981,"▁gusengera":11982,"rora":11983,"dee":11984,"▁hapfa":11985,"▁gikora":11986,"▁gikunze":11987,"keza":11988,"▁ziti":11989,"▁zigendanwa":11990,"▁waryo":11991,"▁natangiye":11992,"▁akamuha":11993,"▁ritara":11994,"▁n’abamu":11995,"▁w’imi":11996,"▁wiyi":11997,"▁atajya":11998,"▁n’amashyamba":11999,"▁n’inkumi":12000,"▁bitabaye":12001,"▁bahamya":12002,"▁y’ubukwe":12003,"▁y’ubutayu":12004,"gamijwe":12005,"▁kubikuza":12006,"▁byifashe":12007,"▁ry’imikino":12008,"▁ibarura":12009,"▁habamo":12010,"▁nkumva":12011,"▁mande":12012,"chel":12013,"▁akongera":12014,"lyne":12015,"▁umunaniro":12016,"vanamo":12017,"▁bongo":12018,"▁bataramenyekana":12019,"tros":12020,"▁sebutege":12021,"▁tonzi":12022,"▁umuhate":12023,"▁superefe":12024,"▁cooperative":12025,"-mu":12026,"AN":12027,"ud":12028,"▁iyari":12029,"▁bayoboye":12030,"kamyo":12031,"guta":12032,"bukije":12033,"▁yavuga":12034,"▁yamamaye":12035,"▁mute":12036,"gos":12037,"goba":12038,"hanganisha":12039,"▁maria":12040,"▁w’abanyeshuri":12041,"mbabazi":12042,"▁kwiruka":12043,"▁byabanje":12044,"▁byagaragaraga":12045,"▁y’imyuga":12046,"caga":12047,"▁atabasha":12048,"▁ahasaga":12049,"▁anyuranye":12050,"▁yarabaye":12051,"mbure":12052,"eld":12053,"▁boherejwe":12054,"▁abita":12055,"▁uburyohe":12056,"▁your":12057,"▁b’akarere":12058,"▁w’ubwi":12059,"▁w’umwana":12060,"▁kurekura":12061,"▁nkuranga":12062,"▁w’amagare":12063,"▁k’ukwakira":12064,"▁n’iminsi":12065,"yumviro":12066,"▁z’amoko":12067,"▁ibirometero":12068,"▁by’umutekano":12069,"▁ayisumbuye":12070,"▁ubusambanyi":12071,"▁masosiyete":12072,"▁birunga":12073,"▁kimihurura":12074,"▁ivuriro":12075,"▁flavor":12076,"▁bigirimana":12077,"▁cancer":12078,"▁cameroon":12079,"▁wonyine":12080,"▁kigali-huye":12081,"▁nelson":12082,"▁philippe":12083,"▁johannesburg":12084,"▁seychelles":12085,"▁rssb":12086,"▁’’’":12087,"▁iwan":12088,"▁agenewe":12089,"▁kristo":12090,"▁kwongera":12091,"▁ufatwa":12092,"▁bamara":12093,"▁batinya":12094,"▁kune":12095,"▁kumena":12096,"hato":12097,"tuza":12098,"▁yapfiriye":12099,"▁myambarire":12100,"sigira":12101,"meranya":12102,"▁abarangije":12103,"dengakamere":12104,"▁giterwa":12105,"▁ibita":12106,"▁makoperative":12107,"▁zikwiye":12108,"▁zirenze":12109,"▁war":12110,"▁ariwo":12111,"▁byawo":12112,"▁yibanda":12113,"▁yiboneye":12114,"▁urusobe":12115,"▁rifasha":12116,"▁risanzwe":12117,"▁umva":12118,"▁twakwi":12119,"▁ntibin":12120,"▁wica":12121,"▁rwatangaje":12122,"▁n’amatorero":12123,"▁n’amabwiriza":12124,"koreramo":12125,"▁yananiwe":12126,"▁n’ibihano":12127,"wingira":12128,"▁by’ihungabana":12129,"▁byiringiro":12130,"▁buruse":12131,"▁bibagora":12132,"▁iracyari":12133,"▁n’imigabane":12134,"▁w’amaraso":12135,"tegure":12136,"▁junior":12137,"mbane":12138,"suzumisha":12139,"▁by’amajyambere":12140,"▁muzahura":12141,"mpanuka":12142,"▁umwiherero":12143,"▁guhisha":12144,"drine":12145,"▁mukecuru":12146,"▁yumvaga":12147,"arti":12148,"▁brig":12149,"▁nteziyaremye":12150,"▁design":12151,"▁xavier":12152,"▁kungurana":12153,"▁nsengumuremyi":12154,"dda":12155,"if":12156,"uri":12157,"▁ireba":12158,"▁akundwa":12159,"▁ntumwa":12160,"▁urangwa":12161,"▁bazan":12162,"▁bamenya":12163,"▁kugerwaho":12164,"tamo":12165,"turo":12166,"▁birushaho":12167,"▁bisobanurwa":12168,"▁mvuga":12169,"▁mbonera":12170,"▁gukinwa":12171,"▁gukomeretsa":12172,"▁gushyushya":12173,"roid":12174,"▁umuta":12175,"▁umukene":12176,"hur":12177,"▁abashyitsi":12178,"miriza":12179,"▁hasanzwe":12180,"▁hatangwa":12181,"▁hakurikiyeho":12182,"▁hadutse":12183,"hene":12184,"▁amakenga":12185,"▁kazwi":12186,"▁uburi":12187,"▁masasu":12188,"torera":12189,"▁ziyi":12190,"▁zibanze":12191,"▁waru":12192,"▁waho":12193,"▁wapfa":12194,"▁byashoboka":12195,"▁kubabara":12196,"▁ikiguzi":12197,"cile":12198,"▁rishyiraho":12199,"▁n’abatara":12200,"▁banye":12201,"▁twakira":12202,"yemereye":12203,"▁hold":12204,"mbuke":12205,"gurukira":12206,"rdle":12207,"▁y’umuriro":12208,"▁kurema":12209,"▁y’aga":12210,"▁y’inka":12211,"▁y’inyungu":12212,"▁bwerekanye":12213,"▁judi":12214,"▁gold":12215,"▁bw’uyu":12216,"▁iby’u":12217,"▁rutamu":12218,"▁ibinyujije":12219,"▁batarishyurwa":12220,"▁birebire":12221,"jugun":12222,"▁sophia":12223,"▁kirundo":12224,"▁yoweri":12225,"cb":12226,"vc":12227,"▁J":12228,"▁idu":12229,"▁isabwa":12230,"▁atsinze":12231,"▁akwiriye":12232,"▁nkin":12233,"▁utangiye":12234,"gishi":12235,"▁batwi":12236,"▁bakorerwa":12237,"▁kujyanwa":12238,"▁kubwirwa":12239,"▁kurokoka":12240,"▁yagaragazaga":12241,"▁yashyikirijwe":12242,"▁gutwi":12243,"roes":12244,"▁rn":12245,"vurwa":12246,"▁abafasha":12247,"dette":12248,"▁girdle":12249,"▁kirenga":12250,"▁rukara":12251,"▁ruvogera":12252,"▁kaka":12253,"▁ibikomoka":12254,"▁ubutaha":12255,"▁ubugome":12256,"▁kwihugura":12257,"▁miba":12258,"fiteho":12259,"▁tuganira":12260,"▁zaka":12261,"▁zahagaritse":12262,"▁dukorana":12263,"▁n’umuvugizi":12264,"pimwa":12265,"▁ahagaze":12266,"▁n’ubucuruzi":12267,"lotte":12268,"▁ikinyuranyo":12269,"▁sportif":12270,"▁n’ibyumba":12271,"rdin":12272,"hinduwe":12273,"▁sosiyeti":12274,"▁ry’igi":12275,"▁ry’iyi":12276,"▁batunguwe":12277,"▁rosa":12278,"▁uzabona":12279,"garukaho":12280,"▁burambye":12281,"voka":12282,"▁yamubajije":12283,"▁nkajya":12284,"▁by’ubutaka":12285,"▁civi":12286,"▁bw’abatutsi":12287,"▁charlotte":12288,"▁kuzuzanya":12289,"tyazo":12290,"▁mbogamizi":12291,"▁ruremesha":12292,"rabahizi":12293,"dayimoni":12294,"▁imvururu":12295,"▁n’isabune":12296,"▁gusobanurirwa":12297,"▁wilson":12298,"▁girdlestone":12299,"ez":12300,"▁afungwa":12301,"▁nd":12302,"▁nye":12303,"yazana":12304,"▁uteye":12305,"▁uzegukana":12306,"mai":12307,"▁batangije":12308,"▁bizamuka":12309,"▁yase":12310,"▁muhungu":12311,"▁cul":12312,"▁umurwa":12313,"▁umugeni":12314,"beshaho":12315,"▁buhanzi":12316,"▁ingwate":12317,"yuzwa":12318,"mic":12319,"▁ibiganza":12320,"▁mal":12321,"▁mashyaka":12322,"▁n’abiri":12323,"▁zihimbaza":12324,"▁wabonye":12325,"▁wagizwe":12326,"▁migabane":12327,"▁niha":12328,"▁byagendaga":12329,"▁cyabi":12330,"▁park":12331,"▁with":12332,"▁atayi":12333,"▁batamu":12334,"▁olempike":12335,"▁yandura":12336,"subize":12337,"▁bere":12338,"▁ryashyizweho":12339,"twaramo":12340,"sigaje":12341,"▁rwiyemeje":12342,"▁bamuha":12343,"▁b’igitsina":12344,"sohokana":12345,"▁cyerekana":12346,"▁bikarangira":12347,"▁bariho":12348,"▁udashobora":12349,"phones":12350,"▁yavugiye":12351,"▁ahishakiye":12352,"▁Ariko":12353,"▁mwenda":12354,"▁biruhuko":12355,"▁z’ubuvuzi":12356,"▁Ko":12357,"▁charly":12358,"▁kayonga":12359,"▁w’ibiro":12360,"▁ahembwa":12361,"▁nicolas":12362,"▁impumuro":12363,"▁melodie":12364,"▁nzozi":12365,"▁olympique":12366,"▁megawa":12367,"byibuho":12368,"zamashyirahamwe":12369,"by’":12370,"icyo":12371,"▁byanditse":12372,"▁iro":12373,"▁igere":12374,"▁avuze":12375,"▁kdi":12376,"bahirije":12377,"yern":12378,"▁bahanga":12379,"▁bakenera":12380,"zirikana":12381,"▁yashinze":12382,"▁mbili":12383,"▁muhe":12384,"sie":12385,"▁umunota":12386,"▁umukiliya":12387,"▁umudendezo":12388,"▁bugiye":12389,"face":12390,"▁zirwanira":12391,"▁nitu":12392,"▁nizeye":12393,"’uko":12394,"▁icy’i":12395,"▁sevota":12396,"▁twaje":12397,"▁nyakuri":12398,"▁point":12399,"aniranye":12400,"▁annon":12401,"mbejwe":12402,"▁hollywood":12403,"▁yaratangaje":12404,"▁bazabi":12405,"▁bahaye":12406,"▁y’ubutaka":12407,"▁gutegurwa":12408,"▁visa":12409,"▁uwaba":12410,"▁hirwa":12411,"▁ikazaba":12412,"▁cyitabiriwe":12413,"▁kuzakira":12414,"▁binyobwa":12415,"genekereje":12416,"▁yabikoze":12417,"▁bigabanuka":12418,"▁kuvuka":12419,"ingoma":12420,"wandiko":12421,"herereyemo":12422,"▁doreko":12423,"▁k’uyu":12424,"▁udukoko":12425,"▁vumbi":12426,"▁union":12427,"hungabanyiriza":12428,"▁kuyafata":12429,"hagarikwa":12430,"▁kw’a":12431,"▁mpapuro":12432,"▁inzika":12433,"▁agifite":12434,"ciata":12435,"tandukanywa":12436,"▁zihamye":12437,"rcisse":12438,"habimana":12439,"▁induru":12440,"▁nationa":12441,"▁mupenzi":12442,"▁musozo":12443,"▁bonaventure":12444,"agira":12445,"flo":12446,"spora":12447,"▁ikurikira":12448,"▁ashoboye":12449,"▁ureba":12450,"muru":12451,"girire":12452,"▁basan":12453,"gemurira":12454,"bukwa":12455,"▁bitangira":12456,"▁yazanywe":12457,"▁yateraga":12458,"▁mbanza":12459,"▁mugihugu":12460,"▁umushakashatsi":12461,"▁umuganura":12462,"▁buhabwa":12463,"▁abakene":12464,"▁ham":12465,"lime":12466,"▁kagere":12467,"▁ibisanzwe":12468,"ganwe":12469,"▁masaka":12470,"▁zikorwa":12471,"▁waya":12472,"▁byaranze":12473,"▁y’ubwoko":12474,"▁tugera":12475,"▁yifatanyije":12476,"▁yihuta":12477,"viriye":12478,"▁rire":12479,"▁final":12480,"▁by’abantu":12481,"camo":12482,"▁n’abacitse":12483,"▁zahawe":12484,"tandura":12485,"▁n’umuririmbyi":12486,"▁rachi":12487,"tegetswe":12488,"▁ntirwa":12489,"▁bob":12490,"▁hemejwe":12491,"▁babajijwe":12492,"▁kwambura":12493,"▁bizatangira":12494,"▁batujwe":12495,"gishakishwa":12496,"ndwe":12497,"shyigikirwa":12498,"▁kayirebwa":12499,"▁diaspora":12500,"▁ingorabahizi":12501,"▁gushakwa":12502,"▁bizabagirira":12503,"▁shema":12504,"mailcom":12505,"▁rw’ubujurire":12506,"▁badutangarije":12507,"▁tuyishimire":12508,"▁marines":12509,"fungirwa":12510,"▁yasinyi":12511,"-kigali":12512,"▁byatumaga":12513,"▁boutros":12514,"▁clip":12515,"▁firime":12516,"▁annonciata":12517,"-cro":12518,"art":12519,"nwa":12520,"nganya":12521,"ppa":12522,"▁byemezo":12523,"rai":12524,"▁ishyize":12525,"▁ituruka":12526,"▁ipeti":12527,"▁atangaje":12528,"▁agire":12529,"▁abyemeza":12530,"gagi":12531,"▁und":12532,"▁ushingiye":12533,"▁utegerejwe":12534,"mukiye":12535,"▁bayobora":12536,"▁bafashije":12537,"▁bafatanyabikorwa":12538,"▁babwiwe":12539,"▁kubwo":12540,"▁kutwi":12541,"bikira":12542,"hatanira":12543,"▁bibera":12544,"▁bishanga":12545,"▁muvuduko":12546,"▁gutin":12547,"▁umuyoboro":12548,"vuyo":12549,"humeka":12550,"▁butunguranye":12551,"▁abafatabuguzi":12552,"▁hafi":12553,"▁gift":12554,"▁zigi":12555,"▁n’ushinzwe":12556,"▁n’ukuntu":12557,"garariwe":12558,"▁kwisiga":12559,"▁gasan":12560,"▁wall":12561,"▁nifuza":12562,"sus":12563,"▁kubageraho":12564,"jyaho":12565,"▁stan":12566,"wulo":12567,"▁koherezwa":12568,"▁agapfukamunwa":12569,"▁wize":12570,"▁coll":12571,"pilote":12572,"▁cy’iyi":12573,"▁bazajye":12574,"▁ryabereye":12575,"zande":12576,"▁bwishingizi":12577,"▁lan":12578,"▁twiteguye":12579,"▁ihamye":12580,"▁badakwiye":12581,"▁abanyamerika":12582,"lance":12583,"▁b’ubuzima":12584,"▁nyagasani":12585,"▁z’abafaransa":12586,"▁gusetsa":12587,"▁gentil":12588,"▁murama":12589,"▁clement":12590,"▁bukavu":12591,"▁kumenyera":12592,"▁w’umunsi":12593,"hamagarira":12594,"▁nyakatsi":12595,"▁ikanzu":12596,"▁Ese":12597,"▁equi":12598,"lingiyimana":12599,"akaba":12600,"eba":12601,"mpo":12602,"▁ay’":12603,"▁ncu":12604,"▁uw’i":12605,"▁ukwiriye":12606,"▁basuraga":12607,"▁yagwaga":12608,"▁yamuhaye":12609,"▁yabyaranye":12610,"▁muganda":12611,"▁mutungo":12612,"▁gukenera":12613,"kumbura":12614,"▁umugongo":12615,"vuna":12616,"tias":12617,"▁bubo":12618,"▁bumvikanye":12619,"▁hakaza":12620,"rway":12621,"hanira":12622,"▁gikwiye":12623,"▁kibo":12624,"▁ibikubiye":12625,"▁makuza":12626,"▁pra":12627,"▁kanjon":12628,"▁wapfuye":12629,"▁wahize":12630,"▁mitima":12631,"▁misoro":12632,"▁est":12633,"▁ikigero":12634,"▁y’iminota":12635,"ciyemo":12636,"▁ntabi":12637,"▁n’abagizi":12638,"▁n’abarundi":12639,"byimba":12640,"▁bwakwira":12641,"▁dona":12642,"▁n’amacakubiri":12643,"▁barahungiye":12644,"▁anyuze":12645,"▁z’abanyarwanda":12646,"gurukiye":12647,"▁bagashobora":12648,"tongera":12649,"▁y’ubukode":12650,"▁kuriri":12651,"▁kumugora":12652,"▁cali":12653,"ssing":12654,"soreshwa":12655,"▁zou":12656,"▁uwilingiyimana":12657,"▁proline":12658,"▁gatoya":12659,"▁nyirahabimana":12660,"tekerezaga":12661,"yuramo":12662,"▁inzirakarengane":12663,"▁bimusaba":12664,"▁ruramira":12665,"cumbikiye":12666,"▁itemewe":12667,"▁uhamye":12668,"▁bw’abana":12669,"▁nyakabanda":12670,"▁imanzi":12671,"▁diyoseze":12672,"▁rwinkwavu":12673,"▁salongo":12674,"▁magufuli":12675,"soviyeti":12676,"▁ambassa":12677,"▁kanjongo":12678,"nani":12679,"qi":12680,"gar":12681,"▁bage":12682,"▁batangarije":12683,"kama":12684,"▁kumera":12685,"▁bisi":12686,"kirira":12687,"gorwa":12688,"▁umuhire":12689,"▁butangaza":12690,"▁busitani":12691,"▁inkingo":12692,"▁abare":12693,"rangingo":12694,"limi":12695,"▁rutara":12696,"▁mayor":12697,"▁n’impinduka":12698,"hishwa":12699,"▁kwiya":12700,"▁kwihagararaho":12701,"▁nagize":12702,"cumura":12703,"▁kubagwa":12704,"garagaze":12705,"poloma":12706,"umuyobozi":12707,"▁n’umukozi":12708,"▁wema":12709,"▁ahatanira":12710,"▁n’ingo":12711,"loc":12712,"▁olo":12713,"subirwamo":12714,"▁yarabashije":12715,"kerera":12716,"▁guhaguruka":12717,"▁bagafata":12718,"▁bagatangira":12719,"▁abirabura":12720,"▁gutere":12721,"▁yerekeye":12722,"▁jolly":12723,"▁kubijyanye":12724,"▁by’isi":12725,"▁yunganira":12726,"▁togo":12727,"▁babibonye":12728,"▁kinya":12729,"rangirire":12730,"▁rwigema":12731,"▁y’inkunga":12732,"▁by’urukundo":12733,"▁uzahuza":12734,"▁y’ibiganiro":12735,"gorora":12736,"▁kumwereka":12737,"▁yamubwiye":12738,"bungabu":12739,"▁by’amazi":12740,"▁wabashije":12741,"larity":12742,"▁shelter":12743,"▁nyarutarama":12744,"▁kitagomba":12745,"▁abunganira":12746,"▁kwandikira":12747,"▁saint-":12748,"zibacyuho":12749,"▁albertmuhaburarw":12750,"▁ernestine":12751,"▁barcelone":12752,"▁impyiko":12753,"▁witabye":12754,"▁uburebure":12755,"▁yatangiraga":12756,"▁kuburanishwa":12757,"▁bigizwemo":12758,"▁popularity":12759,"▁koloneli":12760,"▁faisal":12761,"▁rachid":12762,"-rwanda":12763,"jani":12764,"▁O":12765,"▁ivi":12766,"▁ahereye":12767,"▁khan":12768,"rinze":12769,"bagiza":12770,"▁bahunga":12771,"▁bambara":12772,"▁badepite":12773,"▁kunga":12774,"▁bikwiriye":12775,"▁bidukikije":12776,"▁yayoboye":12777,"▁abaki":12778,"▁abaterankunga":12779,"▁y’abandi":12780,"hesheje":12781,"lita":12782,"▁kilo":12783,"▁kirori":12784,"▁kiruhuko":12785,"▁n’imbaga":12786,"fitiwe":12787,"▁n’abu":12788,"genje":12789,"▁kwirukanwa":12790,"▁igisobanuro":12791,"▁abanje":12792,"▁mira":12793,"▁mimi":12794,"▁byahawe":12795,"▁imijyi":12796,"▁smi":12797,"var":12798,"cas":12799,"▁zakwi":12800,"▁zabaye":12801,"▁koga":12802,"▁korari":12803,"▁agahenge":12804,"▁sawa":12805,"▁costa":12806,"▁igihembwe":12807,"▁n’inka":12808,"▁ou":12809,"▁ukumu":12810,"mbereye":12811,"▁bazafatanya":12812,"▁izatsinda":12813,"▁bahati":12814,"▁bahamaga":12815,"▁y’amakipe":12816,"▁yababajwe":12817,"▁yoherezwa":12818,"▁ndavuga":12819,"▁yunga":12820,"▁totten":12821,"▁byiganjemo":12822,"▁b’ibyamamare":12823,"▁ubajije":12824,"▁utuntu":12825,"▁mukama":12826,"▁turifuza":12827,"▁atubwira":12828,"▁los":12829,"senyutse":12830,"▁aborozi":12831,"▁sandrine":12832,"▁atle":12833,"▁arebe":12834,"thers":12835,"▁news":12836,"▁gusurwa":12837,"▁ababikora":12838,"▁ahenshi":12839,"kemuke":12840,"▁n’impuguke":12841,"▁princess":12842,"▁y’ibyumweru":12843,"▁journal":12844,"▁portugal":12845,"▁ndikumana":12846,"▁musanabera":12847,"shishikarijwe":12848,"myumvire":12849,"▁akundana":12850,"▁ukan":12851,"ziho":12852,"yobe":12853,"▁bill":12854,"▁yakurikiwe":12855,"▁mujyanama":12856,"▁gusobanurira":12857,"▁ryemera":12858,"hoteri":12859,"▁abagenerwabikorwa":12860,"mibu":12861,"mirije":12862,"▁hakusan":12863,"▁haruna":12864,"▁amazamu":12865,"▁amamodoka":12866,"▁imfu":12867,"▁n’amwe":12868,"▁zikiri":12869,"▁zitaba":12870,"geragezo":12871,"cumi":12872,"▁byagombaga":12873,"▁byavugwaga":12874,"▁riga":12875,"▁giheruka":12876,"byiza":12877,"▁pawulo":12878,"▁wigisha":12879,"▁akabasha":12880,"▁n’ubutwererane":12881,"▁n’ingano":12882,"ngeye":12883,"jyanwe":12884,"▁n’ibira":12885,"▁izafasha":12886,"▁izasohoka":12887,"▁abimukira":12888,"▁vital":12889,"cyafite":12890,"cyambwe":12891,"▁byitabiriye":12892,"▁y’amanyarwanda":12893,"▁norway":12894,"▁kuyirwanya":12895,"▁works":12896,"▁w’abazungu":12897,"▁claver":12898,"▁ryisumbuye":12899,"shyigikiwe":12900,"▁batowe":12901,"rwango":12902,"gwira":12903,"tegereze":12904,"▁baduha":12905,"▁theos":12906,"▁acp":12907,"▁nsanza":12908,"▁babanaga":12909,"▁ikiriyo":12910,"▁utc":12911,"gheni":12912,"▁concert":12913,"▁mibambwe":12914,"arez":12915,"nyamabanga":12916,"ore":12917,"ova":12918,"▁ipantalo":12919,"▁apa":12920,"▁akura":12921,"▁amenya":12922,"▁kw":12923,"▁knc":12924,"▁nba":12925,"▁ntangi":12926,"muye":12927,"mubayeho":12928,"rem":12929,"intara":12930,"▁barangiza":12931,"▁bashima":12932,"hava":12933,"boka":12934,"▁bisobanuro":12935,"▁yazamu":12936,"▁mukiriya":12937,"▁cyubahiro":12938,"▁gucana":12939,"sigiti":12940,"tique":12941,"▁bucye":12942,"yanduye":12943,"▁hagenda":12944,"▁karera":12945,"kemera":12946,"▁n’ishoramari":12947,"▁wama":12948,"▁watewe":12949,"▁byatu":12950,"▁byagenda":12951,"▁ez":12952,"▁egy":12953,"▁y’ikoranabuhanga":12954,"▁imigambi":12955,"▁imitekerereze":12956,"▁urukuta":12957,"shubije":12958,"▁cyazamutse":12959,"▁dufatanyije":12960,"▁twaha":12961,"▁n’umutungo":12962,"vestre":12963,"▁ntiyeme":12964,"piri":12965,"▁rwateye":12966,"▁rea":12967,"▁azakora":12968,"▁y’abahungu":12969,"▁yohereza":12970,"▁heroes":12971,"sindu":12972,"hindurwa":12973,"▁sovu":12974,"rukoza":12975,"▁yahamije":12976,"▁yemejwe":12977,"▁atarigeze":12978,"▁birababaje":12979,"▁utubari":12980,"▁woherejwe":12981,"▁kigoma":12982,"▁buravan":12983,"▁badashaka":12984,"▁ntibavuga":12985,"mbanira":12986,"▁z’umuryango":12987,"senywe":12988,"▁gutahu":12989,"▁inkongi":12990,"▁murakoze":12991,"▁singita":12992,"▁b’ingeri":12993,"muritswe":12994,"▁zitaza":12995,"▁nyabisindu":12996,"▁ngagi":12997,"▁ituze":12998,"▁louise":12999,"▁w’umunyamerika":13000,"zigamye":13001,"▁serbia":13002,"▁k’ibiyaga":13003,"▁laboratwari":13004,"▁meddie":13005,"▁project":13006,"dre":13007,"os":13008,"▁agurisha":13009,"regura":13010,"korwe":13011,"▁bashyinguwe":13012,"▁kugendana":13013,"hahira":13014,"das":13015,"tuje":13016,"▁yahuriye":13017,"▁muko":13018,"▁mushahara":13019,"▁cine":13020,"▁cdr":13021,"▁gushyami":13022,"sizwe":13023,"ditswe":13024,"▁umuzamu":13025,"▁abakize":13026,"sar":13027,"limana":13028,"▁ruherereye":13029,"▁kate":13030,"▁ubumuntu":13031,"somyi":13032,"kingira":13033,"▁n’aha":13034,"▁w’abanya":13035,"▁zigize":13036,"▁zirindwi":13037,"▁n’ur":13038,"▁gahoro":13039,"▁tutari":13040,"rengwa":13041,"▁ribaye":13042,"▁twin":13043,"▁twandi":13044,"▁cyagenewe":13045,"▁semu":13046,"▁twakora":13047,"▁sil":13048,"▁rwakiriye":13049,"▁yarashwe":13050,"▁bagahitamo":13051,"shyuza":13052,"panga":13053,"▁hehe":13054,"zubaka":13055,"▁kubigeraho":13056,"▁z’ibihugu":13057,"▁z’isukari":13058,"▁ibyagezweho":13059,"sigare":13060,"gabanyije":13061,"▁b’iyo":13062,"▁n’imiterere":13063,"fund":13064,"▁bikagera":13065,"garuke":13066,"▁fore":13067,"void":13068,"▁asmara":13069,"▁mark":13070,"▁byerekeye":13071,"senywa":13072,"bashakira":13073,"▁bw’inkoko":13074,"bibutsa":13075,"▁bubaka":13076,"wubaka":13077,"▁mazimpaka":13078,"▁gutuza":13079,"▁kwitwararika":13080,"▁bw’afurika":13081,"▁yasezereye":13082,"▁karubanda":13083,"▁michelle":13084,"▁kumwanya":13085,"▁mpimbano":13086,"▁ingemwe":13087,"gilikani":13088,"▁salaam":13089,"damutsa":13090,"▁corpo":13091,"▁marcellin":13092,"▁roberto":13093,"▁diploma":13094,"byumweru":13095,"fan":13096,"kristo":13097,"mfasha":13098,"py":13099,"▁tan":13100,"▁shyira":13101,"▁byangombwa":13102,"▁isho":13103,"▁irangira":13104,"▁ifunga":13105,"▁iy’i":13106,"▁amani":13107,"riti":13108,"▁utegura":13109,"▁uzongera":13110,"▁bad":13111,"▁barwanya":13112,"gusaba":13113,"rumva":13114,"▁kute":13115,"geka":13116,"▁bishira":13117,"▁bikurura":13118,"▁yasabwe":13119,"▁mdr":13120,"▁murekezi":13121,"▁cmi":13122,"▁ran":13123,"▁umufuka":13124,"▁indiri":13125,"ranwe":13126,"shirijwe":13127,"lim":13128,"▁gihu":13129,"▁kakaba":13130,"▁karengane":13131,"▁ibigaragaza":13132,"▁ubuda":13133,"▁ubushinwa":13134,"▁magara":13135,"▁imyambarire":13136,"himbano":13137,"▁kwicungira":13138,"sumo":13139,"neye":13140,"▁y’imodoka":13141,"▁sky":13142,"shushanya":13143,"lay":13144,"▁dushya":13145,"▁segiteri":13146,"dirishya":13147,"▁n’inyamaswa":13148,"▁bahamwe":13149,"▁bahageze":13150,"▁joel":13151,"rengagije":13152,"▁nk’izindi":13153,"▁icyakorwa":13154,"▁wuhan":13155,"▁suarez":13156,"gizimana":13157,"▁roma":13158,"▁rosine":13159,"▁uzasanga":13160,"▁julienne":13161,"garukira":13162,"▁mukamira":13163,"▁nk’umutoza":13164,"▁tito":13165,"▁htt":13166,"▁azitabira":13167,"▁iby’in":13168,"▁marley":13169,"▁indatwan":13170,"▁gusora":13171,"kubakira":13172,"sanzuye":13173,"▁sandra":13174,"▁bw’indengakamere":13175,"▁butabera":13176,"gratias":13177,"tiramibu":13178,"cono":13179,"▁ababishinzwe":13180,"▁guhesha":13181,"▁uyirwaye":13182,"▁kubyumva":13183,"▁n’ejo":13184,"▁yatowe":13185,"▁petite":13186,"gejejweho":13187,"▁ikiniga":13188,"▁pictwitter":13189,"iture":13190,"mme":13191,"mble":13192,"▁igerageza":13193,"▁akorwa":13194,"▁atanze":13195,"▁asohoka":13196,"▁ndiri":13197,"▁ntangira":13198,"mund":13199,"▁bakani":13200,"▁bazongera":13201,"geyeho":13202,"tende":13203,"tuyemo":13204,"bumbira":13205,"▁birande":13206,"▁yatangiriye":13207,"▁mugiye":13208,"▁mutoni":13209,"▁mugheni":13210,"▁gusiba":13211,"▁invest":13212,"▁abashobora":13213,"▁abacururiza":13214,"sambanyi":13215,"▁gihango":13216,"▁kirangira":13217,"▁runda":13218,"▁rukorera":13219,"▁rukiri":13220,"▁ibilometero":13221,"▁imani":13222,"higi":13223,"▁ziyongera":13224,"▁zidan":13225,"▁kwirukana":13226,"▁kwicisha":13227,"▁miyoborere":13228,"▁nibin":13229,"▁byahungabanyije":13230,"▁akabyi":13231,"▁tuya":13232,"▁tune":13233,"▁epfo":13234,"▁yiba":13235,"▁imihigo":13236,"ryozwa":13237,"▁swe":13238,"▁sto":13239,"▁sini":13240,"▁ntab":13241,"kababaro":13242,"▁cyateye":13243,"▁banyamakuru":13244,"▁banyuzemo":13245,"byifuza":13246,"▁pam":13247,"▁twahisemo":13248,"▁agatangira":13249,"▁bwabaga":13250,"▁wiyongereye":13251,"▁rwama":13252,"▁rwagezeho":13253,"▁n’ubuvuzi":13254,"▁arapfa":13255,"▁healing":13256,"▁w’umuco":13257,"▁kubica":13258,"▁y’umukuru":13259,"▁nkokora":13260,"▁nyiran":13261,"songo":13262,"▁bakiga":13263,"kwirakwiye":13264,"▁good":13265,"binjiriza":13266,"▁kizamini":13267,"▁inzuki":13268,"▁yanaboneyeho":13269,"▁ubwongereza":13270,"▁aurore":13271,"▁batoye":13272,"▁rw’abakinnyi":13273,"▁unr":13274,"▁bw’inzego":13275,"▁ab’i":13276,"simbuzwa":13277,"arc":13278,"▁thodore":13279,"▁yigaga":13280,"▁abayisilamu":13281,"▁munyandamutsa":13282,"▁yasezeye":13283,"▁bamwishe":13284,"▁flash":13285,"kandagira":13286,"▁yasinye":13287,"▁ahmed":13288,"▁kitaragera":13289,"▁kurota":13290,"▁cy’ubwicanyi":13291,"▁laurent":13292,"▁ntimuza":13293,"▁murikagurisha":13294,"▁community":13295,"▁intangarugero":13296,"▁centrafrique":13297,"▁restaurant":13298,"▁magazine":13299,"▁atletico":13300,"rukozasoni":13301,"ibyo":13302,"ryama":13303,"t-":13304,"▁irwanya":13305,"▁agirwa":13306,"▁nkiri":13307,"▁ukunze":13308,"▁utwaye":13309,"▁ukekwaho":13310,"math":13311,"hat":13312,"hago":13313,"bumu":13314,"▁yakubise":13315,"▁gutsemba":13316,"sikana":13317,"▁umuzungu":13318,"times":13319,"▁buto":13320,"▁abamo":13321,"▁amayeri":13322,"▁kigira":13323,"▁rugi":13324,"▁rushaka":13325,"▁pin":13326,"▁n’umwuka":13327,"▁washing":13328,"▁nakwi":13329,"cura":13330,"▁nimi":13331,"▁byagaragaje":13332,"zumva":13333,"petu":13334,"▁yiyemerera":13335,"▁rikomeje":13336,"▁cyageze":13337,"byishimiye":13338,"▁sepetu":13339,"ubuyobozi":13340,"▁bwamu":13341,"ganirwa":13342,"▁sibyo":13343,"▁remy":13344,
[...]
